<unk>	0
<s>	0
</s>	0
་	-3.30386
▁	-3.32204
དང་	-4.54282
ལ་	-4.84853
ནས་	-5.33621
འི་	-5.36882
ནི་	-5.41781
ས་	-5.4431
བྱང་ཆུབ་སེམས་དཔའ	-5.4529
དེ་	-5.47455
དང་་	-5.47954
ན་	-5.7252
མ་	-5.90517
ཡང་	-5.96888
བཅོམ་ལྡན་འདས་	-5.97069
ར་	-6.01479
མི་	-6.0271
ཀྱི་	-6.05232
▁དེ་ནས་	-6.09879
འདི་	-6.17439
པ་	-6.19939
ཀྱིས་	-6.21444
གྱི་	-6.24126
ལས་	-6.34208
དེ་དག་	-6.35285
པའི་	-6.38739
དུ་	-6.41221
▁བཅོམ་ལྡན་འདས་	-6.424
རྣམས་	-6.43143
ཀྱང་	-6.43517
བོད་མིའི་	-6.43786
ཏེ་	-6.45752
་སེམས་དཔའ་ཆེན་པོ	-6.4817
ཡོད	-6.48182
▁དེ་	-6.48392
སངས་རྒྱས་	-6.52534
གི་	-6.5603
བ	-6.56415
དེ་བཞིན་གཤེགས་པ	-6.57737
སྐྱབས་མགོན་	-6.60425
ནང་	-6.60434
ལ	-6.64186
རེད	-6.65226
དེ་བཞིན་གཤེགས་པ་	-6.69747
དག་པར་རྫོགས་པའི་	-6.70152
ཆོས་	-6.70359
▁དེ་བཞིན་	-6.707
བ་	-6.72175
▁ཕྱི་ལོ་	-6.74455
སྟེ་	-6.74562
ཕ་རོལ་ཏུ་ཕྱིན་པ་	-6.77065
པར་	-6.77227
འཇིག་རྟེན་	-6.80716
གང་	-6.82078
དག་	-6.82841
སྤྱི་ནོར་གོང་ས་	-6.85548
ཐོག་	-6.87606
ཐམས་ཅད་	-6.88346
གནས་	-6.89317
ཞིང་	-6.89834
སོགས་	-6.9516
ས	-6.96707
དེའི་	-6.98342
དེས་	-6.99382
ཆེན་པོ་	-7.00109
སུ་	-7.02292
ཞིག་	-7.05493
བར་	-7.06784
གིས་	-7.08084
སྒྲིག་འཛུགས་ཀྱི་	-7.08272
གྱིས་	-7.10462
རྒྱ་ནག་གཞུང་གིས་	-7.10573
པ	-7.10879
་དང་་	-7.13932
མཆོག་	-7.13976
དེ་ནི་	-7.14821
ཤིང་	-7.14909
སེམས་	-7.15275
སྐབས་	-7.15503
བྱེད་	-7.15614
ཡོངས་སུ་	-7.16302
་དང་	-7.16383
ཞེས་	-7.16686
▁དེ་བཞིན་དུ་	-7.16993
ཤིན་ཏུ་	-7.19056
བོད་ཀྱི་	-7.20712
བྱང་ཆུབ་	-7.22617
རབ་ཏུ་	-7.2497
རྒྱ་གར་	-7.26842
བླ་ན་མེད་པ་ཡང་	-7.27098
ར	-7.27546
དེར་	-7.27695
པ་དང་་	-7.27896
པས་	-7.2858
བདག་	-7.28732
སངས་རྒྱས་ཀྱི་	-7.28963
སེམས་ཅན་	-7.2907
ང་	-7.30998
ཇི་ལྟར་	-7.32491
གཉིས་	-7.34237
པ་དང་	-7.36231
བཅས་	-7.36369
རྒྱུ་	-7.36401
དེ་ལ་	-7.3692
དེ་ལྟར་	-7.37566
བའི་	-7.39517
འམ་	-7.39756
གནང་	-7.3976
བྱས་ནས་	-7.39764
འདི་ནི་	-7.40168
ག	-7.41063
▁དེ་ཡང་	-7.41087
ཧ་ཅང་	-7.41188
མ	-7.42198
འོ་་	-7.42485
བྱུང་	-7.42934
ཕྱི་ལོ་	-7.43378
▁བོད་མིའི་	-7.43804
རྣམས་ཀྱིས་	-7.44338
ཅིང་	-7.4437
▁ཤ་ར་དྭ་ཏིའི་བུ་	-7.44664
ངས་	-7.45151
རྣམས་ལ་	-7.46002
བོད་	-7.46239
ན	-7.47211
མཆོག་གིས་	-7.4835
▁བཙུན་པ་	-7.4838
▁རིགས་ཀྱི་བུ་	-7.48624
འདུག	-7.49837
མང་པོ་	-7.52018
བཅོམ་ལྡན་འདས་ཀྱི	-7.52048
ཁྱོད་	-7.53077
རྣམ་པར་	-7.53502
འདི་ལྟ་སྟེ་	-7.53807
ཆོས་ཀྱི་	-7.53899
ཤེས་པ་	-7.54155
དཔལ་ལྡན་སྲིད་	-7.54355
▁དེར་བརྟེན་	-7.55206
དོན་	-7.55258
དེ་བཞིན་དུ་	-7.55411
སོ་་	-7.5551
རྣམས་ཀྱི་	-7.55939
རྗེས་	-7.56123
རྒྱལ་སྤྱིའི་	-7.57205
▁དེ་ལ་	-7.57344
སྡུག་བསྔལ་	-7.57761
ལུས་	-7.58504
དེ་བཞིན་	-7.59989
ལྟར་	-7.6
བཞིན་	-7.60357
གཞན་	-7.60636
་དགྲ་བཅོམ་པ་ཡང་	-7.61023
ཆེད་	-7.61098
ཞེས་བྱ་བ་	-7.61201
ཚོགས་	-7.61417
ཤེས་རབ་ཀྱི་	-7.62206
ལ་འདི་སྐད་ཅེས་	-7.629
ཞུ་རྒྱུ་ཡིན	-7.63495
རྒྱལ་པོ་	-7.6389
རིགས་	-7.63894
ཆེན་པོ་མཆོག་གིས་	-7.64439
མེད་	-7.64555
བཞིན་དུ་	-7.64654
ི་	-7.64983
གཅིག་	-7.67489
ར་འགྱུར་རོ་་	-7.678
གཟུགས་	-7.68245
གསུང་བཤད་གནང་	-7.68551
གྲོས་ཚོགས་	-7.69773
ད	-7.69944
སྨྲས་པ་	-7.70247
ཡུལ་	-7.70437
འདིར་	-7.71564
ལམ་	-7.71568
▁འོན་ཀྱང་	-7.72233
སྐོར་	-7.72272
ཐོག་ནས་	-7.73416
དུས་	-7.73543
▁སངས་རྒྱས་	-7.73594
▁དེས་	-7.74035
དེ་བཞིན་གཤེགས་པས	-7.74269
འཕྲོད་བསྟེན་	-7.74401
▁གཞན་ཡང་	-7.74709
ཚེ་དང་ལྡན་པ་	-7.74957
འགྲོ་བ་མིའི་ཐོབ་	-7.75164
ཡང་དག་པར་	-7.75539
ལོ་	-7.75669
འཛམ་གླིང་	-7.76158
ཡིན	-7.76232
བོད་མི་	-7.7674
པོ་	-7.76914
བདག་གིས་	-7.77039
ཡོད་པ་	-7.77347
ཡེ་ཤེས་	-7.77454
ཡིན་ནོ་་	-7.78164
དགེ་སློང་	-7.78421
བརྒྱུད་	-7.78826
མེད་པ་	-7.78914
དང་་་	-7.80272
▁དེ་དག་	-7.80767
▁ལྷག་པར་	-7.80933
▁དེ་ནི་	-7.8104
དང་འབྲེལ་བའི་	-7.81133
སྲིད་བྱུས་	-7.81234
འ	-7.81494
སྐུ་ཚབ་དོན་གཅོད་	-7.81715
བསོད་ནམས་	-7.82015
ང་ཚོས་	-7.82216
ཚེ་	-7.82352
དེ་ཡང་	-7.82638
ཀྱིས་བཀའ་སྩལ་པ་	-7.83796
▁རབ་འབྱོར་	-7.8395
མ་ཡིན་	-7.84369
▁སྐབས་དེར་	-7.8495
ཡོད་པ་དང་	-7.85168
མུ་མཐུད་	-7.85238
མཁན་	-7.85642
གྱི་ཁམས་	-7.86315
གསུམ་	-7.86619
ལགས་	-7.86662
ཅན་	-7.86765
ཤེས་	-7.86902
ད་	-7.86916
བཞིན་ཡོད	-7.87103
ཏུ་	-7.87418
ཕྱིར་	-7.87699
ཅི་	-7.87937
བྱ་	-7.88483
སྒྲིག་འཛུགས་	-7.88853
ཚིག་	-7.89382
བྱས་	-7.89682
▁དགེ་སློང་དག་	-7.90056
ཆོས་ལུགས་	-7.90196
དེ་དག་གིས་	-7.91346
ལགས་ཀྱིས་	-7.91393
ཀ	-7.91469
རྟག་ཏུ་	-7.9167
དབུ་ཁྲིད་	-7.92106
གནང་ཡོད	-7.92334
ཁྱོད་ཀྱིས་	-7.92408
དང་ལྡན་པ་	-7.9273
▁དེའི་ཚེ་	-7.92835
ཡོད་པའི་	-7.92886
ཐོབ་	-7.92973
གནས་སྟངས་	-7.93723
རྒྱབ་སྐྱོར་	-7.94003
འཛིན་	-7.94017
རྒྱལ་ཁབ་	-7.94594
འགྲོ་	-7.94958
སེམས་ཅན་ཐམས་ཅད་	-7.95002
འདི་ལྟར་	-7.95937
ག་	-7.96218
གཙོ་བོ་	-7.96723
དག་གིས་	-7.96937
བྱང་ཆུབ་སེམས་དཔ	-7.97202
ཕྱོགས་	-7.9728
▁གལ་ཏེ་	-7.97284
བླ་ན་མེད་པའི་	-7.97776
ཆེན་པོ་མཆོག་	-7.98411
རྒྱ་གར་གྱི་	-7.98505
ཀུན་	-7.98649
གསོལ་ཏོ་་	-7.98809
ནི	-7.98996
རབ་	-7.99823
བས་	-7.99924
གྲངས་	-8.00534
མེད་པར་	-8.006
▁སེམས་ཅན་	-8.00749
ལྷ་	-8.01832
ལ་བརྟེན་ནས་	-8.02246
བསྟན་པ་	-8.02897
བུད་མེད་	-8.0296
དམིགས་བསལ་	-8.0323
གནས་ཚུལ་	-8.03319
མེད	-8.03465
རབ་ཏུ་མཁྱེན་ཏོ་་	-8.04029
དགོས་པའི་	-8.04229
བསམ་གྱིས་མི་ཁྱབ་	-8.04317
▁དེ་བཞིན་གཤེགས་པ	-8.04376
ཁ་	-8.04425
▁དེ་རྗེས་	-8.04945
བཅོམ་ལྡན་འདས་ལ་	-8.04955
གསུང་	-8.05001
བུ་	-8.05403
ཐོག་མར་	-8.05782
བོད་དོན་	-8.05944
ཡི་	-8.0608
མཛད་	-8.06462
མངོན་པར་རྫོགས་པ	-8.06719
བཙན་བྱོལ་བོད་མི	-8.06745
བཞི་	-8.06881
གྲོང་ཁྱེར་	-8.07161
ཡིན་	-8.07332
བདག་གི་	-8.07378
དགོས	-8.07447
ེ་	-8.0823
ཤིག་	-8.08377
ཆེན་པོ་མཆོག་གི་	-8.08514
བྱས་སོ་་	-8.08543
བྱས་ཏེ་	-8.08734
བཀའ་བློན་	-8.08739
་ཇི་ལྟ་བ་བཞིན་	-8.08942
སྐུ་	-8.09239
རང་གི་	-8.09781
བཞིན་དུ་སྦྱར་ཏེ་	-8.09841
ཏེ	-8.10179
འོ་	-8.10363
ལྟ་བུ་	-8.10478
ཀུན་ཏུ་	-8.10678
ཅིའི་ཕྱིར་ཞེ་ན་	-8.11007
ཆགས་	-8.11046
སོང་	-8.11135
རྗེས་སུ་	-8.11292
ཏོག་དབྱིབས་གཉན་	-8.11502
རིན་པོ་ཆེ་	-8.11563
▁དེ་ན་	-8.11761
དགེ་བའི་རྩ་བ་	-8.12275
སླད་	-8.12594
ཐབས་	-8.12675
སྣ་ཚོགས་	-8.1277
འདི་དག་	-8.12835
ཨ་རིའི་	-8.12836
ཙམ་	-8.12887
གང་དག་	-8.13015
མོ་	-8.13245
མེ་ཏོག་	-8.137
པའོ་་	-8.13844
ལགས་སོ་་	-8.14208
བཤད་	-8.14671
བཀའ་སློབ་སྩལ་	-8.15105
འཁོར་	-8.15156
བོད་མི་མང་སྤྱི	-8.15705
བོད་ནང་	-8.15932
ས་གནས་	-8.16106
▁དེའི་	-8.1639
སོ་སོའི་	-8.1711
ཆོས་ཐམས་ཅད་	-8.17464
རྣམས་དང་་	-8.17563
རང་	-8.1764
མིག་	-8.1768
ལའང་	-8.18541
ཆུ་	-8.18896
ཇི་ལྟར་ན་	-8.19473
ཞེས་པའི་	-8.19563
ཁག་	-8.1981
བྱས་པ་	-8.20183
གཞོན་ནུ་	-8.20276
གཞན་ཡང་	-8.20392
ཡང་དག་པར་རྫོགས་པ	-8.20519
བསྟན་འཛིན་	-8.20742
ཅིག་	-8.20792
ཆགས་ཡོད	-8.20972
བོད་དོན་རྒྱབ་	-8.2115
▁དེ་ལྟར་	-8.21262
དཔལ་འབྱོར་	-8.21859
བློ་	-8.22053
བཞུགས་	-8.22057
དེ་འདྲ་	-8.22061
སྐུ་ཞབས་	-8.22215
རབ་ཏུ་མཁྱེན་ཏེ་	-8.22685
▁གང་	-8.22885
འདི་ལ་	-8.23249
ཇི་སྙམ་དུ་སེམས་	-8.23274
སྤྱོད་པ་	-8.23278
ང་ཚོ་	-8.23849
སོ་	-8.23879
དེ་དག་གི་	-8.24007
ཞུ་	-8.24032
ཞེས་བྱའོ་་	-8.24132
དཀའ་ངལ་	-8.24177
དཔག་ཏུ་མེད་པ་	-8.24797
རིང་	-8.25189
ཉིད་	-8.25268
རྒྱ་ནག་	-8.25286
ཕ་རོལ་ཏུ་ཕྱིན་པ	-8.25346
▁ཇི་ལྟར་	-8.25377
སྟོང་	-8.25481
་ནི་	-8.25666
ལྡན་	-8.25814
སྟོན་པ་	-8.25816
གཞུང་འབྲེལ་	-8.25819
སྤྱི་ཚོགས་	-8.26011
བྱ་བ་	-8.26105
འི་སངས་རྒྱས་	-8.2633
འདི་སྐད་ཅེས་	-8.26386
ཤེས་ཡོན་	-8.26399
དྲུག་	-8.26524
▁ཕྱོགས་མཚུངས་	-8.27311
པར་འགྱུར་རོ་་	-8.27411
གང་ཞེ་ན་	-8.27456
གལ་ཏེ་	-8.27518
ངོས་ཀྱིས་	-8.27943
▁འདི་ལྟ་སྟེ་	-8.2796
དབང་	-8.2804
རྒྱུ་དང་	-8.28096
ལས་ཁུངས་ཀྱི་	-8.28167
▁ཞེས་	-8.28348
བོད་རིགས་	-8.28405
ཡོན་ཏན་	-8.28473
དེ་དག་ནི་	-8.28486
སྟོང་པ་ཉིད་	-8.29006
ལེགས་པར་	-8.29017
འདོད་པ་	-8.29028
ཐུགས་	-8.29198
འདོད་	-8.29248
དགེ་འདུན་	-8.29578
བྱང་ཆུབ་ཏུ་	-8.29623
ས་གནས་འགོ་འཛིན་	-8.29699
▁འདི་ནི་	-8.29846
ཚུལ་ཁྲིམས་	-8.29947
དཔལ་ལྡན་	-8.3019
སྒྲ་	-8.30407
ཡིན་ཏེ་	-8.30774
གོ་	-8.3083
འགྲོ་བ་	-8.30878
ལས་བྱེད་	-8.31241
རང་བཞིན་	-8.313
གང་ཡིན་པ་དེ་ནི་	-8.31551
འོག་	-8.31568
བྱེད་པ་	-8.31858
ལྔ་	-8.31872
ཉིན་	-8.31876
འགན་འཛིན་	-8.31936
▁སྤྱི་ནོར་གོང་ས་	-8.32026
ཕེབས་	-8.3207
དོན	-8.32275
ཡོང་	-8.32471
བདག་ཅག་	-8.32932
སྨན་	-8.32961
མངོན་པར་	-8.33024
གང་གིས་	-8.33383
▁བོད་ཀྱི་	-8.33428
▁འཇམ་དཔལ་	-8.33474
མེད་པའི་	-8.33596
སྟོན་	-8.33682
སྒོ་	-8.33813
སློབ་ཕྲུག་	-8.33902
རིག་གཞུང་	-8.33917
རྒྱལ་	-8.34164
▁འཇིག་རྟེན་	-8.34177
རེ་	-8.34179
▁ཁྱིམ་བདག་	-8.34196
འདུ་ཤེས་	-8.34516
ལམ་སྟོན་	-8.34552
ཆོས་རྣམས་	-8.34737
ཐམས་ཅད་ཀྱི་	-8.34787
རྒྱ་ནག་གི་	-8.34972
འོད་	-8.3508
དབང་པོ་	-8.3513
པའམ་	-8.35489
སྨྲས་སོ་་	-8.35625
ལས་དོན་	-8.36154
▁ཚེ་དང་ལྡན་པ་	-8.36687
ཤེས་རབ་	-8.37015
སྤྱོད་	-8.37015
ས་ནང་འཁོད་དོན	-8.37095
ཡིད་	-8.37104
དེ་དག་ལ་	-8.37112
སྦྱིན་པ་	-8.37265
ནས	-8.37489
ངེས་པར་	-8.37937
རྣམ་པ་ཐམས་ཅད་	-8.3801
པ་རེད	-8.38105
དེའི་ཚེ་	-8.38493
འདིས་	-8.38791
མཆོག་དང་	-8.38922
སྐུ་མགྲོན་གཙོ་བོ	-8.3897
བརྒྱད་	-8.39052
རྒྱུའི་	-8.3906
ཕུན་སུམ་ཚོགས་པ་	-8.39204
མང་པོ་ཞིག་	-8.39385
དེ་དག་ཐམས་ཅད་	-8.39432
དམ་པ་	-8.39489
ཤེས་པ་ཡང་དག་པ	-8.39672
སྟེ་་	-8.3971
▁མད་གལ་གྱི་བུ་	-8.39802
སྐྱོང་བློ་བཟང་སེ	-8.39819
ང་ཚོའི་	-8.39932
སྐྱེ་	-8.3998
སྔོན་	-8.40074
བྱུང་བ་	-8.40302
ཡོད་པ་རེད	-8.40575
སྐྱོང་མཆོག་གིས་	-8.406
▁འཚོ་ཞིང་གཞེས་ལ་	-8.40865
ཏིང་ངེ་འཛིན་	-8.41218
དག་ཀྱང་	-8.41426
ཆེན་	-8.41576
མཐོང་	-8.41772
མགོན་པོ་གང་ཉིད་	-8.41805
རྣམ་པ་	-8.42047
ལགས	-8.42083
ར་གྱུར་པ་	-8.4213
བཟོ་	-8.42326
སྐྱེས་	-8.42408
ནད་	-8.42487
ཚུལ་	-8.42811
ཆོས་དད་རང་དབང་	-8.42953
དོ་་	-8.42982
བ་དང་	-8.4299
གཞི་	-8.43305
ལ་ཡང་	-8.43321
སྤེལ་	-8.43455
བྱེད་བཞིན་ཡོད	-8.4347
སྤྱི་འཐུས་	-8.43516
ཡོད་	-8.43657
ཆོས་ཀྱང་སྟོན་ཏེ་	-8.44309
ཡིན་པ་	-8.44469
ནང་དུ་	-8.44525
▁ཀུན་དགའ་བོ་	-8.44628
བརྗོད་	-8.44727
མཚན་	-8.44911
ཚོར་	-8.45086
དག་ལ་	-8.45454
བྱེ་བ་ཁྲག་ཁྲིག་	-8.45999
་དེ་དག་	-8.46086
ཕན་ཚུན་	-8.46118
འདིའི་	-8.4624
བཏང་	-8.46465
སྟོབས་	-8.46487
སྨོན་ལམ་	-8.46662
དེ་ནས་	-8.46663
ཡོད་པ་བཅས	-8.47044
སམ་	-8.47198
དཔལ་	-8.47268
ཚད་	-8.47413
དག་ནི་	-8.47447
མྱུར་དུ་	-8.47515
བསྟན་	-8.4763
འི་ཕྱིར་	-8.47649
རོ་	-8.47665
མས་	-8.47685
▁རྒྱ་གར་	-8.47821
བཀྲ་ཤིས་	-8.48174
རྣམས་ཀྱང་	-8.49122
▁ཅེས་	-8.49314
ལྟ་	-8.49597
བློ་གྲོས་	-8.49748
▁ང་ཚོས་	-8.50262
མཉམ་	-8.50293
བརྩོན་འགྲུས་	-8.50519
་འཐུས་ལྷན་ཚོགས་	-8.50543
ཁམས་	-8.50554
ཚིགས་སུ་བཅད་པ་	-8.50722
ལྷའི་	-8.50741
▁བཅོམ་ལྡན་འདས་དེ	-8.5108
རིག་པ་	-8.51401
འབྲེལ་ཡོད་	-8.51585
▁ཇི་ལྟར་ན་	-8.51588
ཆོས་དང་རིག་གཞུང་	-8.51953
ད་བར་	-8.52001
དགོས་པ་	-8.52216
ཚོགས་པའི་	-8.52313
མཐུན་འགྱུར་	-8.5237
▁སྤྱིར་	-8.52524
བདག་ལ་	-8.52726
གཟིགས་	-8.52819
ཚོས་	-8.52879
སློབ་སྦྱོང་	-8.52946
བྱེད་དགོས	-8.5312
མཁྱེན་པ་ཉིད་	-8.53332
བདེ་བ་	-8.53368
རབ་ཏུ་བྱུང་ནས་	-8.53523
བགྲོ་གླེང་	-8.53545
རི་	-8.53944
ངོས་ནས་	-8.54029
ནོར་	-8.54143
ཀུན་ནས་ཉོན་མོངས་	-8.54318
སྐྱེ་བ་	-8.54536
ན་འཇིག་རྟེན་	-8.54627
བཀའ་དྲིན་	-8.55295
ཀུན་གཟིགས་པ	-8.55319
ཤ་	-8.55351
རྒྱལ་པོའི་	-8.55436
ཚང་མས་	-8.55936
ཡིན་ནོ་	-8.56313
བར་དུ་	-8.56496
▁དེ་རིང་	-8.56515
ཡང་དག་	-8.56603
ཡོད་པ་མ་ཟད	-8.56685
བྲམ་ཟེ་	-8.56777
ནི་་	-8.56912
ཐུགས་རྗེ་ཆེ་ཞུ	-8.57099
བཞུགས་ཏེ་	-8.57176
ཁང་	-8.57306
དགའ་	-8.57572
སྟེ	-8.57652
མཆོག་གི་	-8.5777
འི་ནང་	-8.58146
གཉིས་ཀྱི་	-8.58253
ལ་སོགས་པ་	-8.58368
རིན་ཆེན་	-8.58466
བཟང་པོ་	-8.58512
དེ	-8.58795
མིང་	-8.58829
མེ་	-8.59148
གོང་ས་སྐྱབས་མ	-8.59192
ཕུལ་	-8.5921
རྒྱལ་ཡོངས་	-8.59427
ཆེན་པོ་མཆོག་ལ་	-8.59702
བཀའ་	-8.59774
འདབ་ཆགས་	-8.59819
བསམ་གཏན་	-8.5983
མེད་ཅིང་	-8.59865
རྒྱ་གར་ནང་	-8.6032
ལ་ཕྱག་འཚལ་ལོ་་	-8.60327
▁བོད་	-8.60478
ྟེན་གཞི་བྱས་པའི་	-8.60537
འཇིག་རྟེན་གྱི་ཁ	-8.60629
སྒྲུབ་	-8.60633
ཕུང་པོ་	-8.60673
མངོན་སུམ་དུ་	-8.60992
བསམ་པ་	-8.61094
གནས་པ་	-8.61255
གསལ་	-8.61578
འབྲས་བུ་	-8.61647
གྱུར་	-8.61675
འཇིག་རྟེན་དུ་	-8.61827
མར་	-8.61845
སོ་སོར་	-8.61936
འགྱུར་	-8.62044
འགྱུར་བ་	-8.62227
འདི་ཉིད་	-8.62295
ཟླ་བ་	-8.62457
▁གཞོན་ནུ་	-8.62521
སློབ་དཔོན་	-8.62863
དགྲ་བཅོམ་པ་ཉིད་	-8.6304
སྙམ་དུ་སེམས་ཏེ་	-8.63076
གས་	-8.63098
བཀའ་སློབ་	-8.6311
པར་གྱུར་ཏོ་་	-8.63183
ཐུབ་	-8.63187
སྣང་བ་	-8.63455
བདུན་	-8.63567
གསལ་བསྒྲགས་	-8.63851
ཁོར་ཡུག་	-8.63927
དྲན་	-8.63994
ཆོས་བརྒྱུད་	-8.64005
འབུལ་	-8.64121
མེད་དོ་་	-8.6416
མང་	-8.64179
ཞེས་བྱ་བ་ཡོད་དེ་	-8.6424
▁འདི་ལྟར་	-8.64255
ནམ་	-8.64296
ཡོད་ཀྱང་	-8.64524
གོས་	-8.64559
་དང་་འདུ་ཤེས་དང་	-8.64561
མཆོད་	-8.64595
ཅན་གྱི་	-8.64794
དེ་ལྟ་བས་ན་	-8.65049
དེ་སྔ་	-8.65071
གལ་ཆེན་པོ་རེད	-8.65298
ཏ	-8.65309
སྐྱོན་	-8.65377
ལྟ་བ་	-8.65751
ཉོན་མོངས་པ	-8.65832
རྒྱ་རིགས་	-8.65945
རྒྱུར་	-8.66124
ལས་གཞི་	-8.6616
ར་གྱུར་ཏོ་་	-8.66327
སྙིང་པོ་	-8.6637
གསུང་དོན	-8.66504
ཁོང་	-8.66847
རྣམ་པར་ཤེས་པ་	-8.66905
དག་གི་	-8.66969
དབང་ཕྱུག་	-8.66976
ཡང་དག་པ་ཇི་ལྟ་བ་	-8.67013
ཅེས་	-8.67044
་རྣམས་ཀྱི་	-8.67057
ཞེས་བྱ་བའི་	-8.67104
ངོས་རང་	-8.67212
བྱེད་ཀྱི་ཡོད	-8.67214
རྣམས་ནི་	-8.67234
ཁྱིམ་	-8.67259
▁བདག་	-8.67282
ཀུན་འབྱུང་བ་	-8.67389
དང	-8.67616
▁དགེ་སློང་	-8.67642
ནུས་པ་	-8.6772
▁དེའི་ཡང་	-8.67877
དེ་ལྟར་ན་	-8.67943
འཇོག་	-8.68012
རྒྱབ་སྐྱོར་གནང་	-8.68045
▁བདག་གིས་	-8.68082
རྒྱལ་བའི་	-8.6812
ཆུང་	-8.68225
གྲོས་ཚོགས་འཐུས་	-8.68252
མིའི་	-8.68257
སློབ་	-8.68473
འབྲེལ་བ་	-8.68489
འགྱུར་་	-8.68501
གཏོང་	-8.68501
མཁས་པ་	-8.68513
རང་དབང་	-8.68574
ཡོངས་སུ་རྫོགས་པ	-8.68797
བྲམ་ཟེའི་ཁྱེའུ་	-8.68817
བོད་པའི་	-8.68846
སོགས་ཀྱི་	-8.69164
དེ་དག་ཀྱང་	-8.69198
▁ཆོས་	-8.69284
བཅས་ཀྱི་	-8.69466
འབད་བརྩོན་	-8.69584
མི་མང་	-8.70021
རིན་པོ་ཆེའི་	-8.70118
ཡོངས་སུ་སྨིན་པར་	-8.70564
ལས་འགུལ་	-8.707
ཚོགས་གཙོ་	-8.70839
བཞིན་པའི་	-8.70874
རྐྱེན་	-8.70964
ལོ་རྒྱུས་	-8.71118
དྲང་སྲོང་	-8.71152
སྦྱིན་	-8.71401
ཡིན་་	-8.7151
བ་དང་་	-8.71548
ཟླ་	-8.71642
རིན་པོ་ཆེ་མཆོག་	-8.71719
ཁྲི་	-8.71745
བྱས་པའི་	-8.7178
རྒྱ་ནག་གཞུང་གི་	-8.71787
མཐའ་	-8.71899
ཞི་	-8.71991
▁ང་ཚོ་	-8.72062
དུ	-8.72068
འཕགས་པ་	-8.72083
དྲན་པ་ཉེ་བར་གཞག་	-8.72191
རིག་	-8.72192
ད་ལྟ་	-8.72192
སེམས་ཅན་དམྱལ་བ་	-8.72464
པ་མ་ཟད	-8.72503
འདོད་ཆགས་	-8.72591
ཡག་པོ་	-8.7265
བསྐལ་པ་	-8.72669
བྱང་ཆུབ་ཀྱི་	-8.72832
སློབ་གྲྭའི་	-8.72849
སྲིད་སྐྱོང་མཆོག་	-8.72918
རྒྱུད་	-8.72941
མི་གྲངས་	-8.72951
རྣམ་གྲངས་འདི་	-8.72952
ཞེས་བྱ་བ	-8.73069
ཕྱི་	-8.73152
ཐ	-8.73215
ལག་	-8.73404
ཐད་	-8.73412
ལན་	-8.73544
ཐང་	-8.73724
ལོངས་སྤྱོད་	-8.73753
དང་ལྡན་པའི་	-8.73773
ཐམས་ཅད་ཀྱང་	-8.73989
ཤེས་པ་འགོག་པ་	-8.74254
ཆེན་པོས་	-8.74282
འགྲོ་བ་མིའི་	-8.74432
རེད་འདུག	-8.7446
ལ་ནི་	-8.74627
མི་རིགས་	-8.74664
▁གང་དག་	-8.74922
▁འདི་གར་	-8.74925
མཆོག	-8.74974
་རྣམས་	-8.75075
མིན་	-8.75107
སེམས་ཅན་རྣམས་	-8.75245
ཤུགས་ཆེ་	-8.75586
སྤྱི་ནོར་ས་མགོན་	-8.75933
བུ་མོ་	-8.76007
ཚོགས་པ་	-8.76009
ལེན་	-8.76065
འབྱོར་	-8.76093
དངོས་ཡོད་	-8.7612
སྔོན་བྱུང་བ་	-8.76123
ངའི་	-8.76195
དྲུང་ཆེ་	-8.76262
ཆ་	-8.76295
སྲུང་སྐྱོབ་	-8.76298
བསྐྱེད་	-8.76392
བཏང་ངོ་་་	-8.7641
དེ་རིང་	-8.7649
ལག་བསྟར་	-8.76505
གཏན་འབེབས་	-8.76641
▁ད་ཆ་	-8.76785
ལེགས་	-8.76976
རྒྱ་	-8.76988
བོད་ཀྱི་སྐད་ཡིག་	-8.77058
མཚམས་	-8.77061
མཐོང་ནས་	-8.77095
དེ་ལྟ་བུ་	-8.77202
ས་བྱང་ཆུབ་སེམས་	-8.77206
བདག་ཉིད་	-8.77318
ཨ་	-8.77356
བོད་ནང་གི་	-8.77384
བོད་མི་ཚོས་	-8.77388
དཔའ་རྒྱལ་ཚབ་	-8.77389
བཀའ་སྩལ་ཏོ་་	-8.77729
ཆེན་པོའི་	-8.77758
ཆབ་སྲིད་ཀྱི་	-8.77779
▁ངས་	-8.77954
ཡིན་ནའང་	-8.78113
སེམས་ཅན་རྣམས་ལ་	-8.78114
མེད་་	-8.78153
ཉེ་བར་	-8.78329
ཁྱོད་ཀྱི་	-8.78451
▁དཔེར་ན་	-8.78535
དགེ་བ་	-8.78572
ཇི་ཙམ་	-8.78622
ནམ་ཡང་	-8.78699
ད་ཆ་	-8.78742
ཚ	-8.78764
རྡོ་རྗེ་	-8.78991
མཐོང་བ་	-8.78995
པའི་ཕྱིར་	-8.79097
ཞུགས་	-8.79137
མཉམ་འབྲེལ་	-8.79218
བདག་ནི་	-8.79291
ཆེས་	-8.79311
འང་	-8.79405
ཚོགས་འདུ་	-8.79468
འདུག་གོ་་	-8.79482
ནས་ཀྱང་	-8.79548
བཞེས་	-8.79558
ཞུས་	-8.796
▁ངོས་ཀྱིས་	-8.79666
དམ་	-8.7969
མང་གཙོའི་	-8.79888
བྱུང་ཡོད	-8.79954
བཅུ་	-8.80134
དྲི་	-8.80151
དེ་ཡི་	-8.80287
སྐད་	-8.80343
རྒྱལ་བ་	-8.80486
སྲོག་ཆགས་	-8.80521
གྲོས་ཚོགས་ཀྱི་	-8.80541
ཤ་ར་དྭ་ཏིའི་བུ་	-8.80599
གོང་	-8.80684
ཧ	-8.80718
ཕ་	-8.80747
དེ་ཉིད་	-8.80798
སྔ་དྲོ་ཆུ་ཚོད་	-8.80908
ཡིས་	-8.81067
རྙེད་	-8.81186
འཇིག་རྟེན་གྱི་	-8.81196
ཕལ་ཆེར་	-8.812
འབྱུང་བ་	-8.81341
ངོ་སྤྲོད་	-8.81424
གྲུབ་	-8.81454
▁སངས་རྒྱས་ཀྱི་	-8.81822
ཡར་རྒྱས་	-8.81831
ག་ལ་བ་དེར་	-8.8187
ཚང་མ་	-8.81922
སྐུ་མགྲོན་	-8.81926
དགོས་	-8.82025
་དེ་ནི་	-8.82192
ངེས་	-8.82202
ཡང་་་	-8.82449
དངོས་གྲུབ་	-8.82533
ལགས་དང་	-8.82599
མེད་པ་དང་་	-8.82602
དགོས་པ་དང་	-8.82648
སྤྱི་ཚོགས་ནང་	-8.8265
འཛིན་སྐྱོང་	-8.82743
དབུ་མའི་ལམ་གྱི་	-8.82862
ཕྱི་ཟླ་	-8.82932
གླིང་	-8.82954
དམ་བསྒྲགས་	-8.8298
ང་་རྣམ་པར་ཤེས་པ་	-8.83296
གནད་དོན་	-8.83366
་འདུ་བྱེད་རྣམས་ད	-8.83455
ཆེ་	-8.83555
ཐོས་ནས་	-8.83786
གང་ཡང་	-8.83948
ནང་གི་	-8.84
སྤྱི་མཐུན་ཚོགས་པ	-8.84069
སྐུ་ཚབ་	-8.84225
མཐོང་ངོ་་་	-8.84321
རྣམ་	-8.84335
ཡོངས་རྫོགས་	-8.84556
འཕགས་པའི་	-8.84624
ངྒེ་མཆོག་གིས་	-8.8463
གསུང་བཤད་གནང་དོན	-8.84725
མངའ་སྡེའི་	-8.8489
མཛད་སྒོ་	-8.84918
ཟས་	-8.85044
གནང་མཁན་	-8.85128
སྤྱི་ཁྱབ་	-8.85231
སྟོང་པ་ཉིད་དང་་	-8.85279
▁ཕྱི་ཚེས་	-8.85346
ལྟ་བུར་	-8.85782
ཤེས་པ་དང་་	-8.85893
འབྱུང་	-8.86049
ཁྱད་པར་	-8.86057
ཞལ་	-8.86385
འདི་དག་ནི་	-8.86451
་ཤེས་རབ་ཀྱི་	-8.86639
སྦྱིན་པའི་	-8.86687
རྒྱལ་ཚོགས་ཀྱི་	-8.86771
སྤོབས་པ་	-8.86937
མཐུན་རྐྱེན་	-8.87059
ཤ	-8.87105
རིམས་	-8.8712
རྒྱ་ནག་གཞུང་ལ་	-8.87134
▁དེ་དག་གིས་	-8.87198
རུ་	-8.87201
སྙོམས་པར་འཇུག་པ་	-8.87215
རིགས་ཀྱི་བུ་མོ་	-8.87349
ལྷག་	-8.87479
ཚེ་དེའི་དུས་ན་	-8.87492
རིགས་ཀྱི་བུ་	-8.8766
སྤྱི་	-8.8781
ཕྱི་ཚེས་	-8.87844
འཁོར་བ་	-8.87864
དང་འབྲེལ་	-8.88007
ཡུ་རོབ་	-8.88239
འཚམས་འདྲི་	-8.88277
ཐམས་ཅད་ཀྱིས་	-8.88426
འཇུག་	-8.88476
དོ་	-8.88485
མའི་	-8.88506
ཞུ་བཞིན་ཡོད	-8.88598
བ་ཏུ་མཁྱེན་ཅེ་ན་	-8.88623
གོན་ཆེན་པོ་མཆོག་	-8.88655
ཞབས་	-8.88749
་ཇི་ལྟ་བ་བཞིན་ར	-8.88805
ཁྱིམ་བདག་	-8.88911
བཞག་	-8.89105
ཐོབ་ཐང་	-8.89426
བསམ་	-8.89543
རྟེན་	-8.89581
▁ཁྱིམ་བདག་འདི་ལ་	-8.89584
ཉོན་མོངས་	-8.89725
སྐབས	-8.89779
ལྷན་ཚོགས་ཀྱི་	-8.89784
ཡང་ཞུ་བ་ཞུས་པ་ན་	-8.89899
ཤེས་རིག་ལས་ཁུངས་	-8.89971
ཀུན་དགའ་བོ་	-8.89977
དང་ལྷན་	-8.9005
མ་ཡིན་ནོ་་	-8.90422
ཁེ་ན་	-8.90444
གང་ཟག་	-8.90528
བདེ་སྐྱིད་	-8.9054
མ་མཆིས་	-8.90654
ཉོན་མོངས་པ་	-8.90749
འདོན་	-8.90775
གོ་་	-8.90883
ལས་ཁུངས་	-8.91014
བཟོད་པ་	-8.91157
ཉན་ཐོས་	-8.91191
གནས་པའི་	-8.91199
▁ལྷའི་བུ་	-8.91252
ཕྱག་འཚལ་ཏེ་	-8.91613
མཉེས་པར་བྱེད་པར་	-8.91744
བཞུགས་སྒར་	-8.91757
རྣམ་པར་སྨིན་པ་	-8.91817
ལ་བཀའ་སྩལ་པ་	-8.9183
གཟེངས་རྟགས་	-8.91842
ཕྱག་	-8.92088
གཞོན་སྐྱེས་	-8.92103
འོད་ཟེར་	-8.92357
མཐར་	-8.92398
བཀའ་བློན་མཆོག་	-8.92473
བྱེད་མཁན་	-8.92569
གཟའ་མིག་དམར	-8.92706
ཏིང་ངེ་འཛིན་དང་་	-8.92807
སྐྱེད་	-8.92829
རྫུ་འཕྲུལ་	-8.93017
རྩ་	-8.93061
མགོ་	-8.93063
སྟོང་ཆེན་པོའི་	-8.93701
སྐད་ཡིག་	-8.93786
འི་བར་དུ་	-8.93786
ཡི་གེ་	-8.94036
དབུས་	-8.94184
ཡ	-8.9425
བྱ་བའི་ཕྱིར་	-8.94463
▁གང་ལྟར་	-8.94577
མཆོག་ཏུ་	-8.94963
▁དེར་	-8.9498
གཞུང་	-8.95082
དཔེར་ན་	-8.95147
ཤ་རིའི་བུ་	-8.95196
སྣང་	-8.95206
པར་བྱེད་དོ་་	-8.95341
དཔེ་	-8.95432
མཛད་པ་	-8.95545
▁བྱང་ཆུབ་སེམས་དཔ	-8.95629
ལ་མཚོན་ན་	-8.95728
ཚོར་བ་	-8.95766
འབུམ་	-8.95894
བཀོད་པ་	-8.95995
འདི་ལྟ་བུ་	-8.96094
དད་པ་	-8.96172
ཁྱེད་	-8.96206
འཛམ་གླིང་ནང་	-8.96535
ཁྱབ་	-8.96578
ཉི་མ་	-8.96596
རྒྱུ	-8.96632
སློབ་གྲྭ་	-8.96718
མཁན་པོ་	-8.96766
ལྷན་ཚོགས་	-8.96828
གནང་སྟེ་	-8.96899
རྒྱ	-8.96918
རྒྱས་	-8.96935
་པ་མ་ཟད	-8.96983
བྱུང་སྟེ་	-8.96997
▁ངོས་རང་	-8.9702
ལས་ཁུངས་ནས་	-8.97073
རང་བཞིན་གྱིས་	-8.97134
▁སུ་ནི་	-8.97314
་མཆོག་གིས་	-8.9732
སླར་ཡང་	-8.97336
སྙིང་རྗེ་	-8.97381
▁གཟུགས་	-8.9747
ཆེད་དུ་	-8.97643
གྲུབ་མཚམས་	-8.97711
གཟི་བརྗིད་	-8.97726
གསུམ་གྱི་	-8.97736
གཞན་གྱི་	-8.97824
རིགས་ཀྱི་བུའམ་	-8.97887
གནང་འདུག	-8.97893
དར་	-8.97945
ན་ཡང་	-8.97953
གནང་བའི་	-8.98136
བོད་ཀྱི་གནད་དོན་	-8.98221
མ་གཏོགས་	-8.98262
ཤེས་པ་འགོག་པར་འག	-8.98453
▁སེམས་ཅན་ཐམས་ཅད་	-8.98453
བརྒྱ་ཆ་	-8.98474
དགེ་རྒན་	-8.98494
དགེ་	-8.98703
དབར་	-8.98978
ཐོན་	-8.99008
དེ་ལྟ་བུའི་	-8.99048
བདེ་	-8.99118
རྟ	-8.99123
བོད་མི་ཚོར་	-8.99291
འཁོར་ལོས་སྒྱུར་བ	-8.99378
▁འཛམ་གླིང་	-8.99457
དགའ་བ་	-8.99557
མཐའ་ཡས་	-8.99594
དམ་པའི་ཆོས་	-8.99608
དངོས་པོ་	-8.99665
སྙམ་མོ་་	-8.99703
▁གང་གིས་	-8.99908
ཐོས་	-8.99971
བྱིས་པ་	-9.00014
▁ཅེས་གསུངས	-9.00062
ངེས་པར་དུ་	-9.00221
ཡིན་པ་དང་	-9.00265
ནང་ཆོས་	-9.00337
ཡང་སྲིད་	-9.00347
རྟོགས་	-9.0042
ྱུར་བའི་ལམ་ཤེས་པ	-9.00491
མཆོད་པ་	-9.00578
འཛིན་པ་	-9.00735
གང་དུ་	-9.00829
སློབ་མ་	-9.00913
རྣམ་པར་སྨིན་པས་	-9.00921
ལོ་ངོ་	-9.00961
དང་ནི་	-9.01022
བཟང་	-9.01175
ཟ	-9.01198
ཚངས་པར་སྤྱོད་པ་	-9.01229
དེ་བཞིན་དུ་ཚོར་བ	-9.0163
མྱ་ངན་ལས་འདས་པ་	-9.01738
དཀྱིལ་འཁོར་	-9.01854
དང་བཅས་པ་	-9.02029
ཡིད་ཆེས་	-9.02181
ལྟ་གྲུབ་	-9.02201
ར་འགྱུར་	-9.02306
སྐྱེས་པ་	-9.02369
ལྷའི་བུ་	-9.0241
བསྔགས་བརྗོད་	-9.02449
སྟེང་	-9.0247
སྤྱི་མཐུན་	-9.02535
དང་པོ་	-9.02634
དབུ་འབྱེད་	-9.02775
སྦྱོར་	-9.02809
ཙ	-9.03007
ས་ཁུལ་	-9.03144
དེ་ན་	-9.03225
ལས་རིམ་	-9.03303
▁བཀའ་སྩལ་པ་	-9.03303
སར་	-9.03317
དགོན་པ་	-9.03355
སྨྲ་བ་	-9.03371
དེང་སྐབས་	-9.03435
ལ་དྭགས་	-9.03475
ལ་ལོངས་སྤྱོད་པ	-9.03704
་ཐམས་ཅད་སྤངས་ཏེ་	-9.03726
པར་འགྱུར་་	-9.03833
ཆར་	-9.03841
གྲུབ་འབྲས་	-9.03946
བླ་མ་	-9.04055
ཏེ་་	-9.04064
སྔོན་གྱི་	-9.04286
ལས་འཆར་	-9.04318
བསམས་པ་	-9.04478
ཁྱབ་ཁོངས་	-9.0448
གནང་བ་དང་	-9.04522
▁མི་	-9.04548
བོད་མི་རྣམས་	-9.04592
▁དེ་ལྟར་ན་	-9.0461
གསོལ་པ་	-9.04626
དམིགས་	-9.04647
གདུང་སེམས་མཉམ་	-9.04691
ཐོབ་པ་	-9.04706
ནང་སྲིད་ལས་ཁུངས་	-9.04882
དུས་ཚོད་	-9.05017
མཆོག་ལ་	-9.05018
ཀུན་དུ་	-9.0517
སྲོག་	-9.05203
ཐུགས་རྗེ་ཆེ་	-9.0525
བརྒྱ་	-9.05361
ཁོང་གིས་	-9.05474
དག་ཏུ་	-9.05494
ཚུལ་ཁྲིམས་ཀྱི་	-9.05525
ཆོས་མ་འདྲེས་པ་བཅ	-9.05744
ཡོད་སྟབས	-9.05756
བཀོད་	-9.05788
དག་དང་་	-9.05839
མཆོད་རྟེན་	-9.0584
གྲོས་ཆོད་	-9.05944
འབྲེལ་	-9.06051
མཁྱེན་	-9.06096
གཉིས་པ་	-9.06341
སྲུང་	-9.06357
འཁོད་	-9.06379
རབ་འབྱོར་	-9.06535
ངོས་འཛིན་	-9.06611
བྱ་རྒྱུ་	-9.06798
འི་ཆོས་	-9.0699
སོང་ནས་	-9.06991
སུ	-9.07014
▁དེང་སྐབས་	-9.07132
དཀའ་ངལ་འཕྲད་	-9.07154
ངོ་བོ་ཉིད་	-9.07193
གཟའ་ཕུར་བུ	-9.07211
▁ལྷ་	-9.07295
ཡིན་ཞིང་	-9.07303
ཁག་གི་	-9.0741
བརྩོན་འགྲུས་ཀྱི་	-9.07428
ཅེས་བྱ་བ་	-9.07476
ཆ་ཚང་	-9.07568
མི་འདྲ་བ་	-9.07575
སྐྱོར་ཚོགས་པའི་	-9.07593
ཏོ་་	-9.07618
བདེ་བར་གཤེགས་པ་	-9.07732
མྱོང་	-9.07803
▁དེ་ཡི་	-9.07868
གར་	-9.07916
ཟེར་བ་	-9.07949
འཐུས་མི་	-9.08045
འཇིགས་	-9.08068
འབོད་སྐུལ་	-9.08459
ལས་འགན་	-9.08466
གཞིས་ཆགས་	-9.08545
ནི་ཙན་དན་གྱི་	-9.08657
རྒྱལ་སྲིད་	-9.08732
མི	-9.08785
དགེ་བའི་	-9.08948
ཤར་	-9.08967
བློན་ཆེན་	-9.09002
བྱས་ཡོད	-9.09002
ཆེས་མཐོའི་	-9.09103
ལུང་	-9.0911
འཛམ་གླིང་གི་	-9.09159
བསམ་བློ་	-9.09299
གནོད་སྦྱིན་	-9.09403
གསར་པ་	-9.09626
ཧ་ཅང་གལ་ཆེན་པོ་	-9.09637
དངོས་སུ་	-9.09662
འདུགདེ་ཡང་	-9.09675
མཚན་ཉིད་	-9.09745
▁ཕྱི་ལོ་ཚེས་	-9.0977
སྐབས་དེར་	-9.09919
ཀྱི་བར་དུ་	-9.0993
ཐུབ་པ་	-9.10026
ཀྱི་བར་འདི་	-9.10272
གཏི་མུག་	-9.10431
བདེན་པ་	-9.10548
ཐུབ་པ་བྱུང་ཡོད	-9.1055
གསེར་	-9.10653
རྒྱལ་མཚན་	-9.1066
▁ཤ་རིའི་བུ་	-9.10807
ཟབ་སྦྱོང་	-9.10919
དང་སྦྲགས་	-9.10969
འདྲ་	-9.1098
དང་བྲལ་བ་	-9.11034
ལྔ་དང་ལྔ་བཅུའི་	-9.11058
དང་ལྷན་ཅིག་ཏུ་	-9.11062
རང་སངས་རྒྱས་ཀྱི་	-9.111
མཚོན་	-9.11248
ལྷོ་ཕྱོགས་	-9.11295
མཛད་སྒོའི་ཐོག་	-9.11311
ཁྱོད་ལ་	-9.11313
བོད་དོན་ཐོག་	-9.1135
ཤེས་པ་དེ་ལ་	-9.11473
མངོན་པར་ཤེས་པ་	-9.11529
ཐེག་པ་	-9.11615
སྐྱེས་བུ་	-9.11625
སྣོད་	-9.11649
ཟིན་	-9.11755
བཤད་པ་	-9.11775
ཁྱམས་དང་ཁང་བཟངས་	-9.11893
མདོ་སྡེ་	-9.11898
ང་ལ་	-9.12015
འཐུས་མི་སྐུ་ཞབས་	-9.12021
སྟོང་གསུམ་གྱི་	-9.12039
ཁྲིམས་	-9.12045
སྤྱོད་ཡུལ་	-9.12066
མྱ་ངན་	-9.1216
སྡེ་	-9.12263
ཤེས་པའི་ཁམས་	-9.12416
སོང་ངོ་་་	-9.12449
ཆགས་པ་	-9.12504
▁ཤེས་རབ་ཀྱི་	-9.12578
ཆོས་རིག་ལས་ཁུངས་	-9.12653
སྤྱན་	-9.12897
ཆོས་ཀྱི་ཉི་མ་	-9.12925
རྒྱ་མཚོ་	-9.12962
མཁྱེན་པ་	-9.13045
ཀྱང་་་	-9.1307
མགོན་པོ་	-9.13073
ཆབ་སྲིད་	-9.13106
རྒྱལ་ཁབ་ཀྱི་	-9.13147
▁རྒྱལ་སྤྱིའི་	-9.13196
དངོས་	-9.13367
ངོས་ཀྱི་	-9.13439
ཡིན་ན་	-9.13479
བྱུང་ངོ་་་	-9.13526
བསྟེན་	-9.136
པའི་ཕྱིར་རོ་་	-9.13671
སེལ་	-9.13739
དུག་	-9.13743
མ་རེད	-9.13912
རྒྱལ་པོ	-9.13942
གོང་ཚེས་ཉིན་གྱི་	-9.13975
འི་ཏིང་ངེ་འཛིན་	-9.13987
་ཡ་	-9.1402
ཡན་ལག་	-9.14283
བཀྲ་ཤིས་བདེ་ལེགས	-9.14288
ཉམས་ལེན་	-9.14591
ཐེ་ཝན་	-9.14697
ཁ་དོག་	-9.14698
ས་ཁུངས་ནས་བཏང་གན	-9.14812
▁དེས་སྨྲས་པ་	-9.14864
བྱ་རྒྱུའི་	-9.14916
ངོས་ལ་	-9.14952
་ཞབས་ལ་མགོ་བོས་	-9.14998
བྱམས་བརྩེ་	-9.1507
བཅས་ལ་	-9.15077
སྙམ་ནས་	-9.15216
ི	-9.15216
སེམས་ཀྱི་	-9.15231
འདས་པའི་དུས་ན་	-9.15334
ཐེ་ཚོམ་	-9.15368
ང	-9.15441
▁ཕྱི་ལོ་གཟའ་ཟླ་བ	-9.15536
དེ་ལས་	-9.156
སྒོམ་	-9.15683
ནུས་	-9.15693
པོར་	-9.15853
ཉམས་	-9.15878
ནོར་བུ་རིན་པོ་ཆེ	-9.15885
དཀར་	-9.15945
བཙུགས་	-9.16168
ཙམ་མ་ཟད	-9.16171
ངང་	-9.16206
ང་ཚོར་	-9.16232
ཕྱིན་	-9.16382
▁བོད་མི་	-9.16421
མཐུན་སྒྲིལ་	-9.16437
གང་ལ་	-9.16543
པར་འགྱུར་	-9.16545
རྒྱུའི་གོ་སྐབས་	-9.16685
པའི་ཚུལ་གྱིས་	-9.16699
རིམ་བཞིན་	-9.16735
གཞིར་བཟུང་	-9.16793
ནད་ཡམས་	-9.16813
དེའི་ཕྱིར་	-9.16882
འདུག་	-9.16954
ཐོས་པ་	-9.17078
ཐུབ་པའི་	-9.17151
གང་གི་ཚེ་	-9.17298
པད་མ་	-9.17336
དགྲ་བཅོམ་པ་	-9.17502
ལམ་ཡན་ལག་བརྒྱད་པ	-9.1764
ཆད་	-9.17682
འཇམ་དཔལ་གཞོན་ནུ	-9.17887
གཅིག་པུ་	-9.17925
སྟོང་པ་	-9.17973
ཀུན་ནས་	-9.17977
▁ཁ་ཅིག་ནི་	-9.17978
དུ་མ་	-9.17989
ཕྱོགས་གཅིག་ཏུ་	-9.18088
ལག་པ་	-9.18125
ངོ་་་	-9.18167
▁ད་ལྟ་	-9.18217
ཚངས་པའི་	-9.18244
པ་རྣམས་	-9.18255
སོགས་ལ་	-9.18305
གྱུར་ཏོ་་	-9.18309
བྱེད་པའི་	-9.18331
ཞིབ་འཇུག་	-9.1855
སོགས་ཀྱི་སྐོར་	-9.18578
རྩ་བ་ནས་	-9.18666
ྤྱི་མཐུན་རྒྱལ་ཁབ	-9.18727
བསྐྱོད་	-9.18817
སློབ་གཉེར་	-9.18955
བདག་ཅག་གིས་	-9.18978
དམིགས་ཡུལ་	-9.19145
ཡི་་	-9.19153
རྒྱུན་	-9.19165
ཞི་བ་	-9.19166
སྐྱེ་བ	-9.19181
སྡོད་	-9.19297
པ་ཞིག་	-9.19324
▁རིགས་ཀྱི་བུ་དག་	-9.19415
ས་གནས་སུ་	-9.19495
ར་བྱའོ་་	-9.19567
བྱིན་	-9.19776
དེ་ནས་ཕྱི་ཞིག་ན་	-9.1978
རྡུལ་	-9.19825
ནས་བཏང་གན	-9.19881
ཁག་གཅིག་	-9.19898
ཡོངས་ལ་	-9.19954
ཚང་མར་	-9.19979
འདི་བཞིན་	-9.20076
ཟུར་	-9.20231
ཁོ་ན་	-9.20243
རྩ་བ་	-9.2031
བོད་མི་རྣམས་ལ་	-9.20335
བཅས་ནས་	-9.20372
ཕྲན་བུ་	-9.20423
མཆིས་	-9.20532
རིམ་པ་	-9.20615
སྤྱན་རས་གཟིགས་	-9.2066
ཞི་བའི་	-9.20817
མད་གལ་གྱི་བུ་	-9.20823
རྒྱན་	-9.20961
ཐེངས་འདིར་	-9.20962
གཅིག་ཏུ་	-9.21059
རྩིས་	-9.21104
དབྱངས་	-9.21113
རྫོགས་	-9.21142
▁རྒྱལ་པོ་	-9.21164
དེའི་ནང་	-9.21191
གྲོས་ཚོགས་ནང་	-9.21204
▁ཨ་རིའི་	-9.21392
ཚེ་རིང་	-9.21524
ནུབ་	-9.21532
ཡོད་ན་	-9.21615
ཐག་གཅོད་	-9.21746
ཤོག་	-9.21758
སྣ་	-9.21843
གསུངས་	-9.21896
ཕན་ཐོགས་	-9.21898
འགན་	-9.22022
ཞེས་བྱ་བར་	-9.22033
ཀྱི་བསྟན་པ་ལ་	-9.22129
པ་ནི་	-9.22174
ལམ་ལུགས་	-9.22375
བརྒྱ་བྱིན་	-9.22435
འོད་སྲུང་	-9.22455
ན་ནི་	-9.22478
སྙིང་	-9.22483
འགོ་ཁྲིད་	-9.22495
▁ཞེས་གསུངས	-9.22539
མངོན་པར་འདུ་	-9.22611
བྱུང་བའི་	-9.22638
ཡིན་ཞེ་ན་	-9.22665
ཛ་དྲག་	-9.22701
སྤྲུལ་པ་	-9.22765
དྲིལ་བསྒྲགས་	-9.22789
བྱང་ཆུབ་མངོན་པར་	-9.22929
ངོ་རྒོལ་	-9.22973
▁ཁྱིམ་བདག་དེ་ལ་	-9.23014
་སྤྱན་རས་གཟིགས་	-9.23064
དུས་རྟག་ཏུ་	-9.23169
ཀླུ་	-9.23195
ོ་	-9.23196
འཕེལ་	-9.23203
བྱེད་རྒྱུ་	-9.23208
དོན་གྲུབ་	-9.23212
བརྗོད་པ་	-9.23233
འབྱུང་བ	-9.23238
འཁོར་ལོ་	-9.23284
སྡེ་ཚན་	-9.23285
གྲོགས་པོ་	-9.23308
བདུད་	-9.2331
ཚོགས་མི་	-9.23432
བསམ་ཚུལ་	-9.23436
སོང་སྟེ་	-9.23479
འཇིགས་པ་	-9.23488
ལྡན་པའི་	-9.23538
་སྟེ་	-9.23557
ཐམས་ཅད་དུ་	-9.23574
སྲིད་	-9.23619
དོན་དུ་	-9.23621
གཉིས་ཀྱིས་	-9.23662
མ་ཡིན་པ་	-9.23672
ངན་	-9.2379
མཚན་མ་	-9.24064
སོང་སྟེ་ཕྱིན་ནས་	-9.24097
སྤྱི་དང་	-9.24117
རྣམས་ཡིན་	-9.24236
ཆགས་ཀྱི་ཡོད	-9.24261
གཞན་ལ་	-9.24267
▁དེ་ཚེ་	-9.24408
ཧི་མ་ཅལ་མངའ་སྡེ	-9.24615
ད་ལྟའི་	-9.24775
དོན་ཚན་	-9.24777
ལས་འགུལ་སྤེལ་	-9.24955
ནི་མིང་ཙམ་སྟེ་	-9.25018
བཟོད་	-9.25059
མདུན་དུ་	-9.25158
ཡར་	-9.25218
འི་སེམས་	-9.25297
བྱས་ན་	-9.25485
འདུགསྐབས་དེར་	-9.25508
ལྟ་བུའི་	-9.25512
སྲིད་སྐྱོང་བློ་	-9.25512
སྐྱབས་	-9.2554
ཡོངས་སུ་དག་པ་	-9.25731
གང་ཞིག་	-9.25821
རང་ཉིད་	-9.25941
མཐོ་སློབ་	-9.26075
སླེབས་	-9.26159
ཇི་སྙེད་པ་ཉིད་	-9.26188
ཐུག་	-9.26287
གང་ཡིན་	-9.26298
སེ	-9.26492
དམིགས་པ་	-9.26589
▁རྒྱ་ནག་	-9.26615
འབྲས་	-9.26753
ཕ་རོལ་	-9.26849
རྣམ་པར་གྲོལ་བ་	-9.26863
སི་	-9.26946
ཟད་	-9.26967
པར་བརྟེན་	-9.27
ཡོད་པ་དེ་དག་	-9.27018
འདོད་པའི་	-9.27036
སྙིང་རྗེ་ཆེན་པོ་	-9.27133
སུམ་ཅུ་རྩ་གཉིས་	-9.27194
འདས་གྲོངས་སུ་	-9.27273
འཐབ་རྩོད་	-9.27413
ཕན་	-9.27557
▁ཅེས་སོགས་ཀྱི་	-9.27726
རྒྱ་ཆེར་	-9.27738
ཐམས་ཅད་ལ་	-9.27749
ར་འགྱུར་རོ་	-9.2775
གཏམ་	-9.2786
མོད་ཀྱི་	-9.27955
བྱམས་བརྩེའི་	-9.28047
ཡོངས་སུ་འཛིན་པ་	-9.28146
བསམ་བློ་གཏོང་	-9.28157
ཆོས་ལ་	-9.28218
སྲིད་སྐྱོང་	-9.28248
▁འདི་ལ་	-9.28283
ཐལ་མོ་སྦྱར་	-9.28367
ཡིག་	-9.28395
ཀུན་འབྱུང་བ་ཤེས་	-9.28455
བ་མ་ཟད	-9.28492
ཆོས་ཐམས་ཅད་ནི་	-9.28505
རྣམ་པར་དག་པ་	-9.2856
ཁུལ་གྱི་	-9.28657
ཝ་	-9.28722
གནོད་པ་	-9.28769
བཅད་	-9.28877
འོས་	-9.29047
དབུ་འཁྲིད་	-9.29084
བྱུང་བ་རེད	-9.29089
བྱུང་ནས་	-9.29222
དེ་བཞིན་ཉིད་	-9.29225
བརྟག་དཔྱད་	-9.29315
ཕྱི་ལོ་གཟའ་པ་སངས	-9.29362
བཙན་བྱོལ་དུ་	-9.29394
ཞེས་པ་	-9.29425
བླ	-9.29469
དུས་རབས་	-9.2953
ཕྱོགས་སུ་	-9.29673
་འཐུས་ཚོགས་གཙོ	-9.29681
མང་བ་	-9.2969
བསྒྱུར་	-9.29735
རིམ་	-9.298
གོ་སྒྲིག་	-9.29808
དེའང་	-9.29808
འབྱུང་འགྱུར་	-9.29815
ཡོངས་	-9.29896
དགོངས་པ་	-9.29908
མཛེས་	-9.29921
གོ་སྐབས་	-9.29933
ཤི་	-9.29936
བདེ་སྲུང་	-9.30002
ཤེས་རིག་	-9.3004
སྔར་	-9.30103
གནང་བ་	-9.30132
ཞུ་རྒྱུ་དང་	-9.30219
རླབས་ཆེན་གྱི་	-9.30309
བརྒྱུད་ནང་བསྟན་	-9.30336
དྲན་པ་	-9.30444
དངུལ་	-9.30496
བོད་མིའི་སྒྲིག	-9.3052
སྨན་པ་	-9.30655
ནང་པའི་	-9.3073
རྗེས	-9.30762
པ་ལས་	-9.30822
ཐེངས་	-9.3086
གདུགས་	-9.30903
བྱང་ཆུབ་ཀྱི་སེམས	-9.30923
ཆོས་ཀྱི་འཁོར་ལོ་	-9.30932
ཚོགས་ཁང་དུ་	-9.30947
ཞི་བདེའི་	-9.31007
སྲོལ་རྒྱུན་	-9.31015
སྒྲིག་འཛུགས་ནས་	-9.3105
བདག་པོ་	-9.31077
གཙུག་ལག་	-9.31094
གཙུག་ལག་ཁང་	-9.3115
▁གསོལ་པ་	-9.3116
སྦྱོར་བ་	-9.31183
▁དེ་སྔ་	-9.31232
མངོན་	-9.31361
འདྲ་མིན་	-9.31579
▁བཙན་བྱོལ་བོད་མི	-9.3166
མོས་	-9.3169
ཁོ་ནར་	-9.31691
ཆེ་བ་	-9.31733
མི་དམིགས་	-9.31881
▁འཕགས་པ་	-9.31886
ཚོགས་ཆུང་	-9.31912
ལྷའི་དབང་པོ་	-9.31912
་དེ་ལ་	-9.3192
པར་གྱུར་ཏེ་	-9.31977
འབྱུང་བར་འགྱུར་	-9.32013
འཛུགས་སྐྲུན་	-9.3203
ཀྱང་མིང་ཙམ་	-9.32039
ལ་གནས་པ་	-9.3204
བཀའ་ཤག་གི་	-9.3216
ཀུན་གྱིས་	-9.32198
སའི་	-9.32216
ཞེ་ན་	-9.32276
བཟང་སེངྒེ་མཆོག་	-9.3232
གནས་བབ་	-9.32357
བབ་	-9.32439
་ཆེན་རིན་པོ་ཆེ་	-9.32507
་རེད	-9.32558
ཁོང་གི་	-9.32584
བས	-9.32794
ཕྱི་དྲིལ་	-9.32796
ཚོགས་ཆེན་	-9.32796
ཁྱོན་	-9.32899
དགེ་སློང་དག་	-9.32974
གཅིག་གི་	-9.33026
རླུང་	-9.33104
ཕྱི་རྒྱལ་	-9.33137
མི་སྐྱེ་བའི་ཆོས་	-9.33146
ཁོང་དུ་ཆུད་པ	-9.33212
ཞི་བདེ་	-9.33222
ཡོང་བའི་	-9.3325
▁ཅེས་དང་	-9.33409
དགུ་	-9.33475
རྣམ་པ་སྣ་ཚོགས་	-9.33489
མདོ་	-9.33499
ཤུགས་	-9.33532
ཡང་དག་པར་རབ་ཏུ་	-9.33532
ཆོས་ཉིད་	-9.33568
ཁྲོད་	-9.33601
འཚོ་བ་	-9.33607
་ལ་བ་དེ་ལོགས་སུ་	-9.33772
ཡིན་སྟབས	-9.33781
གཤེགས་	-9.33785
བྱེད་དོ་་	-9.33799
ད་ལྟར་	-9.33801
བྱ	-9.33867
ལུས་ཀྱི་	-9.33934
དུ་དེ་ལྟར་	-9.3407
ཞེས་བྱ་བ་ནི་	-9.34119
ཟེར་བ་དེ་	-9.3413
མ་འོངས་པར་	-9.34167
ཁག་ལ་	-9.34171
ར་འགྱུར་བའི་ལམ་	-9.34175
སྲས་	-9.34256
ཆེད་མངགས་	-9.34284
གྲགས་	-9.34351
ལུགས་	-9.34362
རོགས་དངུལ་	-9.34425
དགོངས་	-9.34495
དཔལ་ལྡན་ཚོགས་གཙོ	-9.34501
སྙན་	-9.34548
རྒྱུ་མཚན་	-9.34668
བྱེད་པ་དང་་	-9.3475
ཉི་ཤུ་	-9.34767
ལ་སོགས་	-9.34801
བཤེས་གཉེན་	-9.34803
བྱའོ་་	-9.34857
གསོལ་	-9.34928
ཀུན་གྱི་	-9.3503
རྫོགས་པར་འཚང་རྒྱ	-9.3504
དངོས་པོ་མེད་པའི་	-9.35044
ངམ་	-9.35051
འདས་པའི་དུས་	-9.35221
དེའི་ཐོག་	-9.35252
དེ་གཉིས་	-9.35261
ཆོས་རིག་བཀའ་བློན	-9.35368
ལ་སོགས་པའི་	-9.35416
ནམ་མཁའ་	-9.35454
བྷ	-9.35534
ལོག་	-9.3555
མཛད་སྒོར་	-9.35602
▁གང་གི་ཚེ་	-9.35705
མཐུ་	-9.35719
གྲོལ་	-9.35725
ས་ནི་	-9.35785
དགོས་པ	-9.35812
▁ཆོས་ཀྱི་	-9.35859
སྟངས་	-9.35859
བོད་ཡིག་	-9.35863
བོད་ལ་	-9.35988
ས་སྨྲས་པ་	-9.35992
ཞིག་ཡིན	-9.36033
གྲགས་པ་	-9.36048
པའི་ཐོག་ནས་	-9.36103
རྗེས་སུ་ལྟ་བ	-9.36252
▁བདག་ནི་	-9.3627
སྐྱེས་སོ་་	-9.36333
ཞུས་ཡོད	-9.36368
རེག་	-9.36371
་པདྨ་འབྱུང་གནས་	-9.36405
དེ་ཡིས་	-9.36474
ངོ་	-9.3648
ཐུགས་རྗེ་	-9.36549
ཚོ་	-9.36566
བརྒྱ་སྟོང་	-9.36567
ཡོང་གི་ཡོད	-9.36642
ཐུན་མོང་མ་ཡིན་པ	-9.36803
ཁང་གི་	-9.36805
སྲིད་པ་	-9.36818
འདི་ན་	-9.3688
▁རྒྱ་གར་གྱི་	-9.37025
▁དེ་ནས་དགེ་སློང་	-9.37052
མིང་དོན་མཚུངས་པ	-9.37154
འདུག་པ་བཅས	-9.37171
རྣམས་དང་	-9.37237
བོད་བརྒྱུད་ནང་	-9.37282
ཤིང་རྟ་	-9.37297
མོ	-9.37401
ཞུས	-9.37528
འགན་ཁུར་	-9.37549
འི་ཕྱིར་རོ་་	-9.37573
སྐོར་དང་	-9.3764
གདན་	-9.37655
རང་སངས་རྒྱས་	-9.37745
ཕ་མ་	-9.37773
མཁས་	-9.37861
རྒྱ་ནག་མི་དམངས་ས	-9.37984
གང་གི་	-9.38013
གནང་ཡོད་པ་བཅས	-9.38066
ཡིག་ཆ་	-9.38072
རྟགས་	-9.38085
དག	-9.38097
ས་ལ་	-9.38131
གོང་ས་	-9.38162
ཇི་	-9.38178
སྙིང་སྟོབས་	-9.38278
ཉེ་	-9.38406
དེ་ཐོས་མ་ཐག་ཏུ་	-9.38416
དཀོན་མཆོག་	-9.38425
སྲིད་འཛིན་	-9.38459
སྐོར	-9.38464
▁ཐེངས་འདིར་	-9.38472
དང་བཅས་	-9.38522
སེམས་ཀྱིས་	-9.3857
སེམས་ལ་	-9.38634
ལྡན་པ་	-9.38696
ནས་སུ་་	-9.38734
ལ་སྤྱོད་པ་	-9.38766
ཆེ་བའི་	-9.38805
ཛ	-9.39028
▁ཁྱོད་ཀྱིས་	-9.39246
རྒྱ་ཆེ་	-9.39326
གསར་འགོད་པ་	-9.39329
ཐད་ཀར་	-9.39355
ས་ཚེ་དང་ལྡན་པ་	-9.39427
མཛོད་	-9.39731
སྤྲད་	-9.39732
མ་ཡིན་ཏེ་	-9.3978
མ་སྐུ་	-9.39849
ཚང་	-9.39859
ལགས་ཏེ་	-9.39975
གསར་འགོད་	-9.39976
སྡིག་པ་	-9.40007
མྱ་ངན་ལས་འདས་པ	-9.40014
མདོག་	-9.40299
རྣམ་པ	-9.40308
མ་ཐག་ཏུ་	-9.4037
ཆ་རྐྱེན་	-9.40425
བྱེ་བྲག་	-9.40431
ཚོའི་	-9.40514
▁ས་གནས་	-9.40558
གཤེགས་པས་ཡང་དག་པ	-9.40685
དགེ་བཤེས་	-9.4077
ཁ་ཤས་	-9.40913
བསོད་སྙོམས་	-9.40917
བྱེད་དགོས་པ་	-9.40967
ལས་དོན་ཚོགས་ཆུང་	-9.40972
གཏན་འབེབས་གནང་	-9.41007
གྱུར་པ་	-9.4104
ལ་རྒྱབ་སྐྱོར་	-9.41077
རྒྱུས་	-9.41143
ཅི་ཞིག་	-9.41195
▁ཀྱེ་མ་	-9.41211
བདེ་བར་	-9.41262
སྩལ་	-9.41313
འོས་བསྡུའི་	-9.41349
▁དེ་དག་ནི་	-9.41392
ཉེས་པ་	-9.41395
སྤོས་	-9.41471
པར་གྱུར་པ་	-9.41483
སྐད་ཅེས་གསོལ་ཏོ་	-9.41512
ཨ	-9.41602
ཉིད་དུ་	-9.41681
རྐང་པ་	-9.41714
ཡང་མ་ཡིན་	-9.41749
སྨིན་	-9.4175
སྔགས་	-9.41771
རྐང་	-9.41787
སོ་སོ་ཡང་དག་པར་	-9.41789
སྟོན་པ་སངས་རྒྱས་	-9.41856
བསྙེན་པར་རྫོགས་པ	-9.41966
ྭ་བརྒྱད་ཀྱི་བར་	-9.42082
མཛེས་པ་	-9.42103
ལྔ་བརྒྱ་	-9.42111
གཞུང་མང་གཉིས་ལ་	-9.42127
ཆོས་ཀྱི་དབྱིངས་	-9.42136
བཏང་ནས་	-9.42278
དཔེ་དེབ་	-9.42334
མཚོ་	-9.42336
རྣམ་པར་ཤེས་པའི་	-9.42347
ཞིང་་་	-9.42412
▁འདི་	-9.42434
སྐྱེ་བོ་	-9.42454
སྡུག་	-9.42466
ཡིན་སྟབས་	-9.42605
ཞིག་རེད	-9.4272
རྒྱལ་པོ་ཆེན་པོ་	-9.42731
འདིའི་ནང་	-9.42813
རྟོགས་པ་	-9.42963
▁སྤྱི་འཐུས་	-9.4299
ཉིན་མོ་	-9.43045
དང་མི་རྣམས་ཀྱི་	-9.43048
འདུས་པ་	-9.4307
འགྲུབ་	-9.43083
ཁྱོན་མི་གྲངས་	-9.43093
པ་དག་	-9.43102
དང་ལྡན་	-9.43131
འཕགས་	-9.43208
གྱུར་ཅིག་	-9.43243
གཞུང་གི་	-9.43245
ཐབས་ལམ་	-9.4328
གནས་མཆོག་	-9.43313
ས་ཆ་	-9.43317
བློན་པོ་	-9.43397
པ་དེ་	-9.43479
སྨན་བཅོས་	-9.43486
བྱང་	-9.43555
བསྒྲུབ་	-9.43556
གམ་	-9.436
འཚལ་	-9.43614
ཉམ་ཐག་	-9.43621
ར་བྱེད་དོ་་	-9.43626
མདའ་	-9.43654
འཛུགས་	-9.43678
འདྲེན་པ་	-9.43841
ེན་	-9.43853
ཉམས་ཞིབ་	-9.439
གནང་གི་ཡོད	-9.4392
མཁན་གྱི་	-9.43966
འཛམ་བུའི་གླིང་	-9.44024
རྒན་	-9.44087
ལུས་ལ་	-9.44114
▁དཔལ་ལྡན་	-9.44242
ས་གནས་ཀྱི་	-9.44334
ཨ་རི་	-9.44475
ཁྲིམས་ཞིབ་པ་ཆེ་བ	-9.44502
ཤུགས་རྐྱེན་	-9.44525
མོས་པ་	-9.44568
སེམས་ཅན་དེ་དག་	-9.44626
བསྟན་པའི་	-9.4466
འི་ཁ་ལོ་སྒྱུར་བ་	-9.44662
སྤྲིན་	-9.44901
རྫས་	-9.44928
དབུ་	-9.44967
▁མཐོང་ནས་ཀྱང་	-9.45019
ཆོས་གླིང་	-9.45024
གསུངས་པ་	-9.45025
སྲོལ་	-9.45092
བྱས	-9.45108
དེ་ཙམ་	-9.45243
ཉི་ཧོང་	-9.45299
རྒྱག་	-9.45308
▁སེམས་	-9.45331
ཚོང་	-9.4537
རྙེད་པ་	-9.45412
མཐོང་་་	-9.45433
བྲལ་	-9.45437
ཡིན་པར་	-9.45444
གྲོས་མོལ་	-9.45471
ནས་བཟུང་	-9.45505
ཚོགས་དྲུང་ལ	-9.45552
ར་བྱེད་	-9.45619
ཉན་	-9.45697
རྣལ་འབྱོར་	-9.45728
སྐྱེས་ཏེ་	-9.45737
དཔལ་ན་ལེནྡྲའི་	-9.45929
སྒོ་ནས་	-9.46087
བོ་	-9.46108
ཆོས་ཐམས་ཅད་ཀྱི་	-9.46121
སྐྱེས་ནས་	-9.4617
འཇམ་དཔལ་	-9.46198
ནོ་་	-9.46266
▁དེ་རིང་འདིར་	-9.463
▁ང་	-9.46336
དང་ཞབས་སུ་ལྡན་པ་	-9.46363
་གང་དག་	-9.46402
འཇུག་པ་	-9.46453
ལམ་ནས་	-9.46492
་ཐམས་ཅད་	-9.46542
ལྷ་རྣམས་	-9.46576
སྤྱད་	-9.46624
ས་འདི་ལྟར་	-9.46697
ཐུབ	-9.46709
ཁ་ཅིག་ནི་	-9.46742
བཞག་ནས་	-9.4675
ུ་	-9.46753
མང་ཚོགས་ལ་	-9.46772
ཞུས་པ་	-9.46789
མི་འགྱུར་་	-9.46822
སྟན་	-9.46874
ཤེས་པ་འདི་ལྟར་	-9.46882
མི་འདུག	-9.46938
་ཆེན་སྐུ་ཕྲེང་	-9.46969
པོ	-9.47005
ཆོས་སྐྱོང་	-9.47021
ཁ	-9.47123
▁ཁ་ཅིག་གིས་ནི་	-9.47125
ཕྱག་ལས་གནང་	-9.47157
དྲག་	-9.47281
དུས་སུ་	-9.47307
ཁྱིམ་དུ་	-9.4741
▁མཐར་	-9.47425
རེད་ཅེས་	-9.47443
གནས་སོ་་	-9.47477
སློབ་ཚན་	-9.47486
གནས་སུ་	-9.47646
དཀའ་	-9.47651
མཁན་ཆེན་ཞི་བ་འཚོ	-9.47657
པའང་	-9.47682
དཔེར་ན་སྒྱུ་མ	-9.47703
▁འཇམ་དཔལ་གྱིས་	-9.47725
རང་ལུས་མེར་སྲེག་	-9.47735
སླར་	-9.47848
ོན་	-9.4817
བརྒྱུད་ནས་	-9.48178
ཡིན་པས་	-9.48293
▁ང་ཚོའི་	-9.48318
འི་སྐྱེས་བུ	-9.48348
རྣམས་སུ་	-9.48402
མཐོང་ན་	-9.48546
མཉམ་པ་ཉིད་	-9.48599
འཁོད་དོ་་	-9.48647
རྩོམ་	-9.48663
གནད་ཡོད་མི་སྣ་	-9.48677
བསོད་ནམས་ཀྱི་	-9.48713
ཚོགས་གཞོན་	-9.48795
འཚེ་མེད་ཞི་བའི་	-9.48816
དམག་	-9.48846
བར་འགྱུར་རོ་་	-9.48851
ཡོད་མེད་	-9.48857
གོ་སྒྲིག་འོག་	-9.48881
དོ་སྣང་	-9.4893
ངོ་མཚར་	-9.48965
ཕྱུག་ཅིང་ནོར་མང་	-9.4897
བླ་ན་མེད་པ་ལྷ་	-9.49064
བཀའ་སློབ་སྩལ	-9.49183
་དེ་ཡི་	-9.49233
གསར་	-9.49319
བྱམས་པ་	-9.49423
པོའི་	-9.49518
དགོན་པའི་	-9.49652
རྒྱུ་ཡིན	-9.49667
བཅུ་གཉིས་	-9.49682
སྐད་ཆ་	-9.49787
འོད་སྲུང་གིས་	-9.4983
གཅོད་	-9.49845
གང་ཡིན་པ་	-9.49846
▁མ་འོངས་པར་	-9.49905
དགོས་རྒྱུ་	-9.49988
དགྲ་	-9.5011
རོགས་རམ་	-9.50138
ལགས་ན་	-9.50171
བཅར་	-9.50198
གནང་སོང་	-9.50219
འཁོར་བའི་	-9.50225
མི་སྣ་	-9.50271
དེས་བསམས་པ་	-9.50301
ས་ཀྱང་	-9.50318
གསར་འགྱུར་	-9.50376
འཕྲད་	-9.5038
མི་མང་གི་	-9.5039
ཡིན་པའི་	-9.50416
ནང་ཁུལ་	-9.50425
བོད་མི་རིགས་ཀྱི་	-9.5049
ོགས་	-9.50509
སྐྱེ་མཆེད་	-9.50551
གྲོས་ཚོགས་འོག་མ	-9.50563
བསླབ་པ་	-9.50585
བོད་ཀྱི་ཟློས་གར་	-9.50597
འཆར་གཞི་	-9.50623
མ་མཆིས་པ་	-9.50644
སྡུག་བསྔལ་གྱི་	-9.50663
ཨང་	-9.50713
དགོས་མཁོ་	-9.50717
ཞིག་གིས་	-9.50721
བགྱིད་	-9.50759
བདེན་	-9.50824
ཀྱིས་སྨྲས་པ་	-9.50824
གྲ་སྒྲིག་	-9.50829
དབང་གིས་	-9.50834
སྒྲིག་	-9.50857
ཡུལ་དུ་	-9.50868
རྒྱ་ནག་དམར་པོའི་	-9.50997
མི་འབོར་	-9.51026
▁རྟག་ཏུ་	-9.51028
ཆིབས་སྒྱུར་	-9.51087
འབབ་	-9.51089
ལས་ཀ་	-9.51168
ཆོས་རྣམས་ལ་	-9.51181
ཐོག	-9.51341
ཤུགས་ཆེན་པོ་	-9.5137
སུ་ཞིག་	-9.51408
མཁས་དབང་	-9.51412
་ཡིན་ནོ་་	-9.51442
ཡོད་དོ་་	-9.51453
ཡང་དག་པར་རྗེས་	-9.51549
ི་སྤྱད་པ་སྤྱོད་པ	-9.5156
ཡུན་རིང་	-9.51638
ཚུགས་	-9.51771
▁ལྷག་པར་དུ་	-9.51911
▁དགེ་སློང་དག་དེ་	-9.51937
སེང་གེ་	-9.51966
▁བསྐལ་པ	-9.52024
འགྲོ་བཞིན་ཡོད	-9.521
ཉིད་ཀྱིས་	-9.52179
རི	-9.52195
གཙང་	-9.52272
འི་ཡེ་ཤེས་	-9.5229
བྱང་ཕྱོགས་	-9.52318
ཐོགས་	-9.52405
མཁྱེན་པ་ཉིད་ཀྱི་	-9.52424
མེད་ན་	-9.52427
འི་བར་	-9.52537
ཚོགས་ཆུང་གི་	-9.52584
གྲྭ་	-9.52585
གས	-9.52634
་རྣམས་ལ་	-9.5264
ལྟ་སྟེ་དཔེར་ན་	-9.52647
མང་པོས་	-9.52653
ཙམ་གྱི་	-9.52672
དཔག་ཏུ་མེད་པ་དག་	-9.52675
བསྙེན་པར་རྫོགས་	-9.52775
གཟུགས་ཀྱི་	-9.52817
སློབ་གྲྭ་ཁག་གི་	-9.52864
བ་ར་	-9.52955
ཁྱོད་ནི་	-9.52956
ནི་ཆོས་	-9.52975
རྟག་པར་	-9.52991
མཛད་འཕྲིན་	-9.53133
▁བདག་གི་	-9.53198
སྐོར་ངོ་སྤྲོད་	-9.53293
ཡར་རྒྱས་གཏོང་	-9.53337
ཕྱེད་	-9.53368
འི་རྨི་ལམ་ན་	-9.53393
▁རྒྱལ་པོ་ཆེན་པོ་	-9.53394
ལགས་སོ་	-9.53403
གཙོས་	-9.53553
སྲུང་བརྩི་ཞུ་	-9.53613
ཨིན་ཡུལ་	-9.5365
ང་རྒྱལ་	-9.53673
རྒྱབ་	-9.53704
བྱེད་སྐབས་	-9.53714
པདྨ་	-9.53779
▁ལ	-9.5379
མངའ་	-9.53873
བླངས་ནས་	-9.53918
▁གྲོས་ཚོགས་	-9.53919
▁ད་ལྟའི་	-9.53938
ཞུ་རྒྱུའི་	-9.54
པར་གྱུར་ནས་	-9.54049
ཕོག་	-9.54085
གསུམ་པ་	-9.54099
ལྷ	-9.54107
ཐར་	-9.54108
ཡང་དག་པའི་	-9.54115
མི་དམིགས་སོ་་	-9.54161
གསར་འཛུགས་	-9.54177
ཡིན་ལ་	-9.54196
བསྟུན་	-9.5434
དེབ་	-9.54418
སྤྱོད་ལམ་	-9.5443
རྣམ་དག་	-9.54471
བཞེངས་	-9.54489
▁བོད་ནང་	-9.54535
རྒྱུ་རེད	-9.54541
ཕེབས་ཡོད	-9.546
མ་ཟད	-9.547
ཆེན་པོར་	-9.54804
འཇིག་རྟེན་ན་	-9.54963
ས་བོན་	-9.54984
ངོས་	-9.55024
མི་འཇིགས་པ་	-9.55111
པ་ཡིན་	-9.55151
▁ཀྱེ་	-9.55212
ཡབ་	-9.55223
བོད་མིར་	-9.55273
ཟིན་པ་	-9.55287
གསེར་གྱི་	-9.55298
པ་ཡི་་	-9.55398
པ་ཡིན་ན་	-9.55415
རྡ་ས་	-9.55451
གཙུག་ལག་ཁང་དུ་	-9.55523
མངོན་པར་ཤེས་པ་ལྔ	-9.55552
རྟེན་གཞི་བྱས་པ	-9.55565
སོན་	-9.55585
རེ་བ་	-9.55638
བླ་མ	-9.55664
བསྐྲུན་	-9.55681
མངོན་དུ་	-9.55683
མི་རྣམས་	-9.55704
ཁྱེའུ་	-9.55709
རྩི་	-9.55922
གང་ལྟར་	-9.55939
ཐེག་ཆེན་	-9.56003
རྨི་ལམ་	-9.56007
དགའ་ལྡན་	-9.56081
ཡོད་སྟབས་	-9.56116
གྱུར་ཏེ་	-9.56123
བོད་དང་	-9.56152
ཡོད་པ	-9.56217
ཚོད་	-9.56272
ཁུལ་	-9.56308
་ཡིན་སྙམ་འམ་	-9.56323
བརྒྱ་སྟོང་ཕྲག་	-9.56323
བཟུང་ནས་	-9.564
དེས་ཀྱང་	-9.56402
བོད་དོན་ལས་འགུལ་	-9.56461
གང་ཐུབ་	-9.56585
མེད་པ་དང་	-9.56613
ཁག་གཅིག་གིས་	-9.56632
ལ་ཚེ་དང་ལྡན་པ་	-9.56828
ཚངས་པ་	-9.56829
རྩེ་	-9.56844
▁ཨོ་	-9.56847
གསོལ་འདེབས་	-9.56895
གཞན་དུ་	-9.56897
འདོད་ཆགས་དང་བྲལ་	-9.5697
ཞབས་སོར་འཁོད་	-9.5698
པ་ལ་	-9.56985
གདོང་	-9.57069
རྒྱ་གར་གཞུང་གིས་	-9.5708
གནང་བ་མ་ཟད	-9.57091
ཤེས་སོ་་	-9.57092
དད་	-9.57094
ལྷ་མོ་	-9.57126
ཚལ་	-9.57131
རྒྱུན་དུ་ཞུགས་པ	-9.57197
འགོག་དབྱེ་ཟུར་	-9.57221
ཁྱིམ་ཚང་	-9.57286
▁ཆོས་ལུགས་	-9.57303
ཡིད་ལ་བྱེད་པ་	-9.57308
སྟོང་ཕྲག་	-9.57317
པའོ་	-9.57325
ངོ་སྤྲོད་གནང་	-9.57359
སྦྱར་	-9.57365
གནང་རྒྱུ་	-9.57383
མཛད་པའི་	-9.57392
གསུང་བཤད་	-9.57433
གྲོང་	-9.57473
སེམས་བསྐྱེད་པ་	-9.57584
སྒོར་	-9.57603
ཐང་གི་གནས་སྟངས་	-9.57608
ཁྲིད་	-9.57796
རམ་	-9.5787
ཡེ་ཤེས་ཀྱི་	-9.57958
ཁོངས་	-9.58012
ས་ནས་	-9.58029
དེ་ཚོའི་གྲས་	-9.58164
བཅོམ་ལྡན་འདས་དེ་	-9.58299
ཕྱིར་མི་ལྡོག་པ	-9.58305
ཀླུའི་རྒྱལ་པོ་	-9.58412
མེད་དོ་	-9.585
དྲི་བ་	-9.58586
རིན་པོ་ཆེ་མཆོག	-9.58604
རྒྱས་པར་	-9.58606
▁ད་ལྟའི་ཆར་	-9.58695
ཞེས་བྱ་བ་དང་་	-9.5878
ཐོག་ལ་	-9.58787
འཛོམས་	-9.58789
རྒྱུན་སྐྱོང་	-9.58833
བཏོན་	-9.58909
ཡིན་པ་མ་ཟད	-9.5893
ཕར་	-9.58955
འི་འབྲས་བུ་	-9.59041
བླངས་ཏེ་	-9.59089
གྲོགས་	-9.59095
རྒྱུན་ལས་	-9.59097
ནོར་བུ་	-9.59098
གཞན་དག་	-9.59116
ཞིག་ཆགས་ཡོད	-9.59137
གཞི་རྩའི་	-9.5925
ཙམ་ལ་	-9.5925
ཀུ་	-9.5926
▁ལུས་	-9.59272
ཀྱི་དབང་པོ་	-9.59279
ལག་བསྟར་བྱེད་	-9.59301
གོ་སྒྲིག་གནང་	-9.59325
ཚེས་	-9.59374
སྟན་ལས་ལངས་ཏེ་	-9.59396
ལས་ཁུངས་སུ་	-9.594
ལྟར	-9.59512
རབ་འབྱོར་གྱིས་	-9.59628
དང་སྦྲགས	-9.59703
གཞུང་གིས་	-9.5975
གི་དགེ་འདུན་	-9.59765
་སངས་རྒྱས་	-9.59813
གནང་རོགས	-9.59815
་གོས་ཕྲག་པ་གཅིག་	-9.59901
གོང་ས་ཏ་ལའི་བླ་མ	-9.6002
བཀུར་སྟི་	-9.60039
ཚོགས་ཁང་ནང་	-9.60061
འི་སླད་དུ་	-9.60106
ཆོག་	-9.60109
བྱེད་དགོས་པའི་	-9.60126
ཡོང་བར་	-9.60141
ཀྱི་རང་བཞིན་	-9.60164
ལྷུང་བཟེད་	-9.60202
པ་རྣམས་ཡིན་	-9.60286
ཉ	-9.60308
འདུས་	-9.604
མ་གྱུར་ཅིག་	-9.60444
ཧ་	-9.60468
འདྲེན་	-9.60572
པར་བྱའོ་་	-9.60589
མན་	-9.60651
གནང་ཡོད་པ་དང་	-9.60672
སེམས་བསྐྱེད་	-9.60701
གནོད་	-9.60738
ཟེར་	-9.60745
གང་དང་གང་	-9.60745
གཞག་	-9.60753
བྱིན་གྱིས་བརླབས་	-9.60964
ཀུན་དགའ་བོས་	-9.60981
ཀྱི་ཡོད	-9.61091
རིན་ཐང་	-9.61144
ཉེན་	-9.61176
ཚན་རིག་	-9.61186
སྒྲིག་འཛུགས་དང་	-9.61187
རིག་པའི་	-9.61288
ཐ་སྙད་	-9.61391
བསྔགས་པ་	-9.61426
འཆར་	-9.61451
དཀའ་བ་	-9.61516
ཡོད་དེ་	-9.61527
▁བརྟན་པའི་	-9.61536
གསང་	-9.61539
ར་ལན་གསུང་བ་ནས་	-9.61614
བྱས་པ་རེད	-9.61625
སྒྲུབ་པ་	-9.61737
ཁྱུ་མཆོག་	-9.61756
སྐྱོར་ཚོགས་པ་	-9.61773
དཔག་ཏུ་མེད་	-9.6179
ཡོ་བྱད་	-9.6186
རྣམ་པར་རྟོག་པ་	-9.61908
▁བཞི་གང་ཞེ་ན་	-9.61987
རོགས་སྐྱོར་	-9.6204
ནའང་	-9.62056
ལེགས་སོ་ལེགས་སོ་	-9.6207
བསྡད་	-9.62082
སྦྱོང་	-9.62085
ནད་པ་	-9.62108
གྲངས་མེད་	-9.62111
གཞིས་	-9.62155
སྤྲོད་	-9.62166
བརྟན་	-9.62181
ཁར་	-9.62366
ཕྱིས་	-9.62476
ཡང་ཆེས་ཕ་རོལ་ན་	-9.62481
གནང་བར་	-9.62504
▁དེས་ན་	-9.62514
རྫུ་འཕྲུལ་གྱི་	-9.62531
ལས་ཀྱི་	-9.62661
ཞུགས་པ་	-9.62683
ཝ	-9.62722
བོད་དུ་	-9.62762
དོན་དམ་པར་ན་	-9.62764
ཛ་དྲག་གི་	-9.6286
ཀློག་	-9.62868
གསལ་པོ་	-9.6288
ཚུར་	-9.62882
འདུགདེར་བརྟེན་	-9.63017
གཅིག་གིས་	-9.63035
ཆུའི་	-9.63088
ཕྱི་ལོ་གཟའ་ལྷག་པ	-9.63096
འདི་སྐད་དུ་	-9.63104
ཁོ་བོས་	-9.63115
ཚོགས་ཆེན་ཐེངས་	-9.63139
ཡང་མེད་	-9.63208
སྐྱོན་བརྗོད་	-9.63321
ཅིའི་ཕྱིར་	-9.63378
གཉིས་སུ་	-9.63436
▁དགེ་བའི་རྩ་བ་	-9.63461
གཞིས་ཆགས་སུ་	-9.6366
དེ་དག་དང་ལྡན་ན་	-9.6372
བྱེ་བ་	-9.63743
རྩལ་	-9.63816
སྐྱབས་རྗེ་	-9.6385
སྲིད་གཞུང་གིས་	-9.63854
དགའ་མགུར་སྤྱོད་	-9.63906
འདི་ཡང་	-9.63999
ཞིག་དང་	-9.64034
རིང་ལུགས་	-9.64044
ཡིན་ཡང་	-9.64052
བློ་བཟང་	-9.64058
ལ་གནས་ནས་	-9.641
འདེབས་	-9.64153
འདས་	-9.64166
ཆུ་ཚོད་	-9.64307
▁ཤེས་རབ་	-9.64359
ཐག་	-9.6439
འདུ་བྱེད་རྣམས་	-9.64427
དང་འབྲེལ་བ་	-9.64432
▁དཔེར་ན	-9.64474
རང་རང་གི་	-9.6449
བྱང་ཨ་རིའི་	-9.64541
རྟོག་ཞིབ་	-9.6462
རབ་འབྱོར་གཞན་ཡང་	-9.64656
ཀརྨ་དགེ་ལེགས་	-9.6466
འཚོ་	-9.64703
ཆོས་གོས་	-9.64724
རྩོད་	-9.64752
ཡང་དག་པ	-9.64761
གཡོག་	-9.64809
བྱས་རྗེས་	-9.64816
ཆས་	-9.64927
གྱུར་ཅིག་མི་	-9.64959
ཡིད་ལ་	-9.64962
མང་དུ་	-9.6498
ཆེན་མོ་	-9.64989
▁ཉེ་ཆར་	-9.65006
ཤེས་ཡོན་གྱི་	-9.65052
མེད་པས་	-9.65053
དགའ་ལྡན་ཕོ་བྲང་	-9.65077
པར་བྱེད་	-9.65089
འབྲེལ་ལམ་	-9.65102
ལེ	-9.65148
ཇི་སྙེད་	-9.65238
ལས་ཀྱང་	-9.65286
བརྟུལ་ཞུགས་	-9.65316
ར་མི་འགྱུར་རོ་་	-9.65346
ཕྲེང་བཅུ་བཞི་པ་	-9.65382
ཡིན་པར་སེམས་ན་	-9.65436
སྐྱེ་བོ་ཕལ་པོ་ཆེ	-9.65448
▁ཁྱོད་	-9.65449
སྐྱེས་པའི་	-9.6545
ལ་མཁས་པ་	-9.65521
ཀར་	-9.65557
འི་ཚིག་བླ་དགས་	-9.65595
བཟུང་	-9.65634
རྒྱལ་པོའི་ཁབ་	-9.65675
བཅོས་	-9.657
ཚབ་ཞུས་ཏེ་	-9.65713
འབྱུང་བར་	-9.65715
རབ་ཏུ་འབྱུང་བ་	-9.65724
བྱ་་	-9.6589
ཡོན་	-9.65997
གྱ	-9.66006
ལས་དེའི་	-9.66006
དགེ་འདུན་གྱི་	-9.66007
ངན་པ་	-9.66101
ལྡི་ལི་	-9.66103
རྣམས་ཡིན་ནོ་	-9.66186
ཁམས་ཤེས་པ་འགོག་པ	-9.66212
ལེན་པ་	-9.66228
བཞིན་་	-9.66233
ཕུན་ཚོགས་	-9.66289
རིག་གནས་	-9.66355
བརྙན་འཕྲིན་	-9.66381
ཞིག་ཏུ་	-9.66414
སྐབས་སུ་	-9.6643
འགྲོ་བར་	-9.6651
ཕྱོགས་བཅུའི་	-9.66532
ཉེ་ཆར་	-9.66557
བསྐྱར་གསོ་	-9.66617
▁ཞེས་པའི་	-9.6664
མང་གཙོ་	-9.66658
མངོན་སུམ་དུ་བྱས་	-9.66687
རྡོ་	-9.66707
མཉམ་ཞུགས་གནང་	-9.66739
མཛད	-9.66739
སྨད་	-9.66745
བྱུང་་་	-9.66753
སེམས་ཁམས་	-9.66779
ཟབ་མོ་	-9.66797
འགོ་འཛུགས་	-9.66808
ལོན་	-9.66822
ཏིང་ངེ་འཛིན་གྱི་	-9.66824
ཀི་	-9.66831
▁བུད་མེད་	-9.6687
ཡོད་ནའང་	-9.66972
སྐྱོང་མཆོག་གིས	-9.6698
མ་གཏོགས་པར་	-9.6701
མུ་	-9.67019
སློབ་གསོ་	-9.6705
ལུང་བསྟན་	-9.67062
ར་གྱུར་པ་དེ་གཞན་	-9.67105
ཉམས་མྱོང་	-9.67145
མངའ་སྡེ་	-9.67157
སྨན་ཁང་	-9.6731
ཉིན་གྲངས་	-9.67369
སྤྱད་པ་	-9.67401
་སོགས་	-9.67455
གོང་མ་	-9.67458
འདུལ་	-9.67502
ཞེས་བྱ་བ་ནས་	-9.67517
འི་གྲོས་ཚོགས་	-9.67527
བྱེད་དེ་	-9.67614
དགེ་འདུན་པ་	-9.67641
གར་སོང་ཆ་མེད་དུ་	-9.67756
▁མགོན་པོ་གང་ཉིད་	-9.67766
བརྗོད་གཞིའི་ཐོག་	-9.67798
གཞལ་མེད་ཁང་	-9.67852
རི་དགས་	-9.67862
ཟབ་	-9.67882
ངག་	-9.67898
འདུག་ནས་	-9.6793
▁ཡུ་རོབ་	-9.67983
འགྲོ་བའི་	-9.68005
མཁས་པའི་	-9.68042
ཁེ་ཕན་	-9.68066
སྐྱོང་	-9.68079
མེད་དེ་	-9.68085
ལེགས་པར་གསུངས་པ	-9.68119
དང་་རང་སངས་རྒྱས་	-9.6814
བདེ་བའི་	-9.68157
མི་གཡོ་	-9.68204
པ་ཇི་སྙེད་པ་ཉིད་	-9.68267
མཆོག་གིས	-9.68318
རེ་ཞིག་	-9.6833
པར་བྱེད་པ་	-9.68339
ཙམ་མིན་པར་	-9.68389
ནང་ཡོད་པའི་	-9.68456
བྱེད་བཞིན་པ་	-9.68481
ཡིད་ཀྱིས་	-9.68556
གྲས་	-9.68583
ལ་སྙོམས་པར་ཞུགས་	-9.68612
འདུལ་བ་	-9.68615
་དག་	-9.68615
ལས་ནི་	-9.68715
མི་མང་གིས་	-9.68767
བཅས་སུ་	-9.68781
བླངས་	-9.68783
▁ཕྱི་ཟླ་	-9.6883
མང་སྤྱི་འཐུས་	-9.68831
ཕེབས་བསུའི་སྣེ་ལ	-9.68845
སྒྱུ་རྩལ་	-9.68863
དགོས་ཀྱི་ཡོད	-9.68866
ཅིང་་	-9.68868
བསྒྲུབས་	-9.68885
འདུས་བྱས་	-9.68916
ཁུལ་དུ་	-9.68925
ཆོས་ཕྱོགས་ཀྱི་	-9.68925
ཇི་ལྟ་བ་བཞིན་དུ་	-9.68996
▁རྣམ་པ་ཐམས་ཅད་	-9.69037
དེས་ནི་	-9.69038
འཚམས་འདྲིའི་	-9.69047
གང་ཙམ་	-9.69082
བཏང་སྟེ་	-9.69086
ར་འགྱུར་ཏེ་	-9.69125
གནང་དགོས་པའི་	-9.69131
སིལ་སྙན་	-9.69173
ནང་པ་	-9.69205
ཡག་	-9.6922
པ་ཡིན་ནོ་་	-9.69231
མིན	-9.69292
▁དེའི་ཕྱིར་	-9.69323
ཞིབ་	-9.69397
▁ཡེ་ཤེས་	-9.69403
ཡུལ་གྱི་	-9.69421
བཙན་བྱོལ་	-9.69421
▁ཚུལ་ཁྲིམས་	-9.69437
ནེ་	-9.69444
བཀའ་བློན་མཆོག་གི	-9.69498
སྙན་ཐོ་	-9.69517
ལྷག་པར་	-9.69518
ཟེར་བའི་	-9.69519
▁དེ་ནས་རྒྱལ་པོ་	-9.69546
དང་བཅས་པའི་	-9.6956
སྨོན་ལམ་བཏབ་པ་	-9.69641
ནག་	-9.6969
▁གསར་འགོད་པས	-9.69709
བདག་ཅག་གི་	-9.69722
མང་དག་ཅིག་	-9.69763
ག་རེ་	-9.69836
འགོ་	-9.69855
མཇལ་	-9.69911
གང་ཡིན་པ་དེ་	-9.69914
སྒྱུར་	-9.69957
སྐུའི་	-9.6997
གྱིས་ཤིག་	-9.70006
རོ	-9.70046
རྣམ་པ་དང་	-9.7008
ཉེས་	-9.70115
སློབ་ཁྲིད་	-9.7012
འདས་པའི་	-9.70139
ཐོབ་ནས་	-9.70168
རྡ་སར་	-9.7017
བྱེད་ཀྱི་	-9.70195
སྐོར་ལ་	-9.70201
སློབ་ཡོན་	-9.70235
་གཡུ་ཐོག་	-9.70243
ཊ་	-9.70262
ཐུབ་བསྟན་	-9.70274
རང་སྐྱོང་ལྗོངས་	-9.70307
སླེབ་	-9.70333
ཤཀྱ་	-9.70361
གཅིག་པ་	-9.70378
སེམས་ཁམས་རིག་པ	-9.7039
ཁོངས་ནས་	-9.70393
་རྣམས་ནི་	-9.70501
་ཡིན་	-9.70507
རིན་པོ་ཆེ་དང་་	-9.70559
ཕྱིན་ནས་	-9.70595
རྒྱལ་བའི་ཕོ་བྲང་	-9.70633
དེང་	-9.70788
གྲོས་ཚོགས་གོང་མ	-9.70844
མི་སྤྱོད་	-9.70975
ཚེ་རིང་ལགས་ཀྱིས་	-9.71002
ར་གནས་པའམ་གལ་ཏེ་	-9.71034
ཡང་མི་	-9.711
ཐེབས་	-9.71101
མཉམ་དུ་	-9.71173
▁རྒྱ་ནག་གི་	-9.7119
རི་མོ་	-9.71225
ཡོང་གི་འདུག	-9.71235
ཏན་ཏན་	-9.71254
▁ཆོས་ཐམས་ཅད་	-9.7127
འདས་པའི་ལོ་ངོ་	-9.71271
ཕྱིར་མི་འོང་བ	-9.71337
ནོ་	-9.71343
རྣམ་པར་ཐར་པ་	-9.71425
འདྲ་བ་	-9.71527
བསླབ་	-9.71572
སྔོན་འགོག་	-9.71581
ྱ	-9.7165
དྲི་མ་	-9.71671
ཀུན་ལ་	-9.71756
གང་མང་	-9.71769
པར་བྱ་བའི་ཕྱིར་	-9.7177
སེམས་ནང་	-9.71788
གནས་བརྟན་	-9.71836
བྱས་པས་	-9.7184
སྟེང་དུ་	-9.71947
ཆེ	-9.71955
གཉེན་	-9.71956
མཐུན་	-9.7196
གཞན་གྱིས་	-9.71967
མདུན་	-9.71979
འདུ་བྱེད་	-9.72025
ང་ཡི་	-9.7207
ཡོངས་སུ་གཏོང་བ	-9.72078
ས་མཚམས་	-9.72216
ལ་སྨྲས་པ་	-9.72341
▁ཁོང་གིས་	-9.72369
རྟེན་ཅིང་འབྲེལ་	-9.72377
པར་འགྱུར་བ་	-9.72427
ཡིན་གྱིས་	-9.7245
འདི་ལྟ་བུའི་	-9.72471
བསྐྱངས་	-9.72486
ཁྱི	-9.72486
མངོན་འདོད་	-9.72529
སྐུ་ཚབ་དོན་ཁང་	-9.72534
ཨ་རིའི་གྲོས་ཚོ	-9.72589
མང་པོར་	-9.7261
བཀའ་སྩལ་པ་	-9.72614
གཏམ་བཤད་	-9.72643
འདུག་པ་	-9.72678
▁གང་ཞིག་	-9.72728
ཤཀྱ་ཐུབ་པ་	-9.7277
ཡོང་གི་རེད	-9.72774
ད་དུང་	-9.72855
དགེ་སྦྱོང་	-9.72894
ཚོར་བ	-9.72899
རྣམ་པས་	-9.72921
་ལ	-9.72928
སྐྱེད་མོས་ཚལ་	-9.72946
ལས་བྱུང་བའི་	-9.72964
གཟུགས་ཀྱི་ཁམས་	-9.73028
ར་འགྱུར་བ་	-9.73073
འདིའི་སྟེང་	-9.73083
མགྱོགས་མྱུར་	-9.73132
འདུག་སྟེ་	-9.73139
ཞི་བར་	-9.73271
ཡོད་མཁན་	-9.733
སྲིད་བློན་	-9.73329
པར	-9.73366
བའོ་་	-9.73388
ཞེ་སྡང་	-9.73436
ར་བྱ་	-9.73438
དག་དང་	-9.73477
དྲུང་	-9.73479
ཕྲ	-9.73511
་ལི་	-9.73524
རྫོང་	-9.73558
སྟོད་	-9.73569
འགྲོ་བ་མི་	-9.73581
མ་ཡིན་ནོ་	-9.73662
ཀྱིས་གཙོས་	-9.73675
ཊ	-9.73741
འོ	-9.73849
སུད་སི་	-9.73885
▁བོད་མི་མང་སྤྱི	-9.73925
གནས་་	-9.73991
མཐོང་སྟེ་	-9.73993
གིས་གཙོས་	-9.74092
ནུབ་ཕྱོགས་	-9.74127
འི་རྒྱལ་པོ་	-9.74175
ངན་སོང་	-9.74184
ཐམས་ཅད་མཁྱེན་པ	-9.74212
སྤྱིར་	-9.7422
དབང་སྒྱུར་	-9.74261
འདི་འདྲ་	-9.74302
གང་ཡང་མེད	-9.74349
ནང་ནས་	-9.74355
ཞུ	-9.74384
རྩ་ཁྲིམས་	-9.74414
ཇེ་	-9.7443
ཁྱབ་བློན་ཆེན་	-9.74523
བཅུག་	-9.74532
་པ་བཅས	-9.74561
འདུ་འཛོམས་	-9.74609
གཉིས་ལ་	-9.74681
ཏོ་	-9.74789
རི་རབ་	-9.748
སྟོབས་ཤུགས་	-9.74819
▁དམིགས་བསལ་	-9.7487
ཁྱེད་ཀྱིས་	-9.74906
ཆོ་ག་	-9.75009
ཧིན་སྒོར་	-9.75015
ངེས་པར་འབྱུང་བར་	-9.7504
་ཞུ་རྒྱུ་ཡིན	-9.75058
ཀོ	-9.75111
གོང་མཐོར་གཏོང་	-9.75148
པའི་སྐབས་	-9.75206
་བལ་འབྲུག་གསུམ་	-9.75276
དེང་དུས་ཤེས་ཡོན་	-9.75338
འཚོགས་	-9.75368
ཡོད་པས་	-9.75441
འདོད་པས་	-9.7548
བལྟ་	-9.75512
བཞིའི་	-9.75535
གིས	-9.75584
ཕེབས་པའི་	-9.75589
རང་གིས་	-9.75626
ཡོངས་སུ་བསྔོ་བ	-9.75638
དང་ལྡན་པས་	-9.75661
ངོ་བོ་	-9.75677
སྐྱིད་	-9.75707
འབྲེལ་རྒྱལ་ཚོགས་	-9.75785
ཏི་	-9.75803
བསྐྱེད་པ་	-9.75826
ཉོན་མོངས་པའི་	-9.75861
བཏང་སྙོམས་	-9.75867
སྐྲ	-9.75873
▁བདག་ཅག་	-9.7588
འབའ་ཞིག་	-9.75942
སོ་སོ་	-9.75952
▁ཁོང་	-9.75966
བར་གྱི་	-9.75966
གནང་བཞིན་ཡོད	-9.75996
གསོག་	-9.76065
ཆིབས་སྒྱུར་བསྐྱང	-9.76073
ཁ་ཅིག་	-9.76155
མགོན་	-9.7617
ཞལ་འདེབས་	-9.76275
ཆོ་འཕྲུལ་	-9.76296
སེམས་ཁམས་རིག་པ་	-9.76297
ཆེན་པོ་དང་་	-9.76341
ཡོད་སྐོར་	-9.76342
དགའ་བའི་	-9.76391
སོགས་ཀྱིས་	-9.76456
ཆོས་བསྟན་པ་	-9.76461
བསླབ་བྱ་	-9.76506
ཆོས་ནི་	-9.76509
དུ་གྱུར་པ་	-9.76522
▁དེ་ཕྱིར་	-9.7653
ལགས་སམ་	-9.76561
མ་ཡིན་པར་	-9.76563
པ་རྣམས་ལ་	-9.76594
བ་རེད	-9.76605
བཞིན་ཡོད་པ་དང་	-9.7662
རུང་	-9.7664
འོག་ཏུ་	-9.76661
རྩོད་པ་	-9.76664
གྱི་སྔ་དྲོ་	-9.76672
སྲུང་བརྩི་	-9.76704
་བཞུགས་ཏེ་	-9.76707
གཏང་	-9.76709
མགོན་མེད་	-9.76798
མ་བྱས་	-9.76805
ཤུ	-9.76851
ཏིང་ངེ་འཛིན་འདི་	-9.76891
འཆི་	-9.769
རྒྱ་ནག་ནང་གི་	-9.7695
འི་ཚོགས་གཙོ་	-9.76976
རྒྱུ་དེ་	-9.77042
ཐོབ་པར་	-9.77067
བོད་ཀྱི་རྒྱལ་དར་	-9.77073
རྡོ་རྗེ་གདན་དུ་	-9.77149
ཁ་ཆེ་	-9.77153
བཅུ་གཅིག་པ་	-9.77193
མཚུངས་	-9.77226
ཟིན་པའི་	-9.77306
ར་བྱ་བའི་ཕྱིར་	-9.7736
ཕྱི་འབྲེལ་	-9.77437
ཚེ	-9.77441
ནང་བཞིན་	-9.77474
ཁྲག་	-9.7754
ཆོས་འབྲེལ་	-9.77582
མ་འོངས་	-9.776
པར་འགྱུར་ཏེ་	-9.7765
བཀའ་ཆོས་	-9.7769
རྣམ་པར་བྱང་བ་	-9.77732
བཞིན་པར་	-9.77763
▁དཔལ་འབྱོར་	-9.77798
པ་སྟེ་	-9.77827
རོགས་	-9.77834
སློབ་ཕྲུག་རྣམས་	-9.77877
གོང་དུ་	-9.77891
ཅིང་་་	-9.77925
སྟབས་	-9.77952
སློབ་གྲྭར་	-9.78036
ལ་བརྟེན་	-9.78078
བར་ཆད་	-9.78149
དཔལ་འབྱོར་གྱི་	-9.78166
གཉེར་	-9.78194
ཨ་རིའི་ཕྱི་སྲིད་	-9.782
▁ད་བར་	-9.78238
▁སེམས་ཅན་འདི་དག་	-9.78242
སློབ་སྦྱོང་བྱེད་	-9.78354
ར་གྱུར་པས་	-9.78367
པར་གྱུར་	-9.78392
ཞིང་་	-9.78411
སྐོར་གསུངས	-9.78489
དང་ལྷན་ཅིག་	-9.78534
བརྟན་བཞུགས་	-9.78546
གསལ་བཤད་	-9.78574
རྟག་	-9.78659
རྒྱ་གར་གནའ་རབས་	-9.78677
རྒྱུ་ཡིན་འདུག	-9.78686
མངའ་སྡེའི་སྤྱི་	-9.78705
མི་སྣང་བ	-9.78723
ཕྱི་ནང་	-9.7873
བརྒྱབ་	-9.78731
ན་གཞོན་	-9.78751
རྟེན་འབྲེལ་	-9.788
གྷ	-9.78806
གང་ཡིན་པ་འདི་ནི་	-9.78841
བཞིན་ཡོད་པ་	-9.78878
འབྲེལ་མཐུད་པ་	-9.79036
འཛམ་གླིང་མཉམ་	-9.79048
རྒྱ་ནག་དམར་ཤོག་	-9.79073
ཆེན་པོ་མཆོག་དང་	-9.79077
ཕྲུ་གུ་	-9.7908
ཁང་པ་	-9.7917
ཕྲེང་བ་	-9.79193
དང་ལྷན་དུ་	-9.79201
བོད་སྐད་	-9.79271
སྨོན་	-9.79284
བརྩོན་	-9.79294
ཁ་ཟས་	-9.79304
པར་འགྱུར་རོ་	-9.79305
སྤངས་	-9.79314
རྒྱལ་དབང་སྐུ་	-9.79317
ང་ནི་	-9.79361
རིམ་པས་	-9.79385
སྐྱེས་བུ་འདུལ་བ	-9.79485
་མ་ཡིན་	-9.7949
▁ཁྱོད་ཀྱི་	-9.79491
འཁྲུངས་སྐར་	-9.79494
གསུང་བཤད་གནང་ཡོད	-9.79556
བཞི་པ་	-9.79601
ད་ལྟའི་ཆར་	-9.79625
ཏུ་གཟར་ནས་	-9.79747
བདུད་རྩི་	-9.79784
གནང་བ་རེད	-9.79959
▁བོད་དོན་	-9.79962
ཁ་ཆེའི་	-9.79994
བསྟན་ཏོ་་	-9.80017
དང་འབྲེལ་ནས་	-9.80039
སྟོབས་ཀྱིས་	-9.8004
ལི	-9.8009
ལ་ལོངས་སྤྱོད་ཆེ	-9.80123
འཇིག་	-9.80127
ཡོད་འདུག	-9.80228
འདི་ནས་	-9.80279
གུ་	-9.80312
ཚོགས་པས་	-9.80354
བརྡ་	-9.80397
ཅི་འདྲ་བ་	-9.80403
ཡོད་རེད	-9.8047
ཀྱི་ཕྱིར་	-9.8048
མ་བཅིངས་མ་གྲོལ་བ	-9.80527
དབུ་མའི་ལམ་	-9.80545
ན་ཅིག་ཕྱིར་འོང་བ	-9.80602
ཤར་ཕྱོགས་སུ་	-9.80624
བརྟེན་	-9.80638
ཞིག་ལ་	-9.80638
འོག་ནས་	-9.80643
དང་ལྡན་ཞིང་	-9.80671
ལངས་ཕྱོགས་	-9.8069
བརྒྱད་ཅུ་	-9.80722
གལ་ཆེན་པོ་	-9.80767
གཏོར་	-9.80781
འཆད་	-9.80816
ཤིང་་་	-9.80843
རྣམས་ནས་	-9.80857
སླ	-9.80861
ཉིད་ཀྱི་	-9.80864
ལགས་་	-9.80948
དེ་འདྲའི་	-9.80966
ཡོད་པར་བརྟེན་	-9.80977
འི་སྤྱི་ཁྱབ་	-9.80993
དང་་དེ་བཞིན་དུ་	-9.80999
གཏོང་བ་	-9.8103
དྲག་གནོན་	-9.81103
ཡོངས་ནས་	-9.81123
གཞིས་བྱེས་	-9.81148
མཉམ་ཞུགས་	-9.81179
གནང་རྒྱུའི་	-9.81266
་ཏ་	-9.81279
མཐའ་གཅིག་ཏུ་	-9.81285
ཀྱིས་ཀྱང་	-9.81295
སངས་རྒྱས་ལ་	-9.81307
བཙུན་པ་	-9.81323
ལགས་ལ་	-9.81326
▁འདིར་	-9.81348
ཨེ་ཤི་ཡའི་	-9.81391
ཆེ་ཤོས་	-9.81392
བདག་ཀྱང་	-9.81477
བོད་པ་	-9.81518
ཆོས་བཅུ་པོ་	-9.81544
འབྲུག་	-9.81636
ཀུན་དགའ་	-9.81655
གང་ཡིན་པ་དེ་དག་	-9.81685
བའི་ཕྱིར་	-9.81842
རྟོག་པ་	-9.81924
དཀར་པོ་	-9.81926
མ་ལུས་	-9.81944
▁ཁྱོད་ནི་	-9.81989
ཞེས་བྱའོ་	-9.82023
་ཀ་	-9.82027
དྲ	-9.8203
གནས་ཏེ་	-9.82042
རྔ་	-9.82042
ལས་བྱུང་བ་	-9.82075
ཉིད་དང་་	-9.82116
▁ཕྱི་ལོ	-9.82125
བསམ་གཏན་གྱི་	-9.82188
གླེང་སློང་	-9.82209
འཁོད་པ་	-9.82257
དགུང་གྲངས་	-9.8229
ཁུ	-9.82314
རྒྱལ་པོ་ཟས་གཙང་མ	-9.82335
གཟུངས་	-9.82336
བཟུང་སྟེ་	-9.82356
རྒྱས་པ་	-9.82382
་ཆེན་	-9.82397
རྒྱ་མཚོའི་	-9.82412
གལ	-9.82474
ཡིན་ཞེས་	-9.82531
སྣང་བའི་སྒོ་སྟེ་	-9.82556
བསྒྲགས་	-9.82588
གསུངས་་	-9.82605
ཡོན་ཏན་གྱི་	-9.82618
མ་རིག་པ་	-9.82678
ཉན་ཐོས་ཀྱི་	-9.8274
▁རྒྱལ་བ་	-9.82744
མི་རིགས་ཀྱི་	-9.82748
ཁས་ལེན་	-9.82795
ཐུབ་ཡོད	-9.82855
འཆར་སྣང་	-9.82862
སྡུག་བསྔལ་བ་	-9.8287
བླ་	-9.8288
ལས་འདས་པའི་	-9.82918
པ་ཡིས་་	-9.82957
སློབ་གཉེར་ཁང་	-9.82972
སྐལ་བཟང་	-9.82972
རྒྱ་གཞུང་གིས་	-9.82999
སྩལ་དོན	-9.83063
སུ་མི་མཐོང་ངོ་་་	-9.83067
ཤ་རིའི་བུས་	-9.83087
▁འབྱུང་འགྱུར་	-9.83098
ས་ཡ་	-9.83125
གཞིས་ཆགས་ཀྱི་	-9.8314
ལགས་རྣམ་གཉིས་	-9.83212
ཁུར་	-9.8322
མ་ཡིན་པའི་	-9.83262
སྲི་ཞུའི་ལས་བྱེད	-9.83293
གནང་མཛད་	-9.83308
ཐོ	-9.83477
དགེ་སློང་གི་	-9.83492
བར་ཐུགས་རྗེ་ཆེ་	-9.83556
རྒྱ་ཆེན་པོ་	-9.836
རྡོ་རྗེའི་	-9.83603
རྒྱུ་མེད	-9.83618
གསང་བ་	-9.83701
པི་	-9.83841
ཡོང་ཐབས་	-9.83881
དང་རིག་གཞུང་	-9.83906
ཙམ་གྱིས་	-9.83998
ཐེངས་འདིའི་	-9.84024
▁གཞན་	-9.8418
རྣ་བ་དང་་སྣ་དང་་	-9.84213
ལྷག་པའི་བསམ་པ་	-9.84227
པ་དེ་དག་	-9.84234
མོའི་	-9.84253
གྱུར་པ་་	-9.84278
འཚོ་བའི་	-9.84279
དག་ལས་	-9.84283
ཡིད་ཀྱི་	-9.84296
བའམ་	-9.84298
ལག་ཏུ་	-9.84332
▁གྲོགས་པོ་དག་	-9.84355
མིན་པར་	-9.84378
འཛིན་བཟུང་	-9.84401
ོ	-9.8447
བྱེད་ཅིང་	-9.84478
དབེན་པ་	-9.84501
ཡིན་འདུག་པ་བཅས	-9.84524
སྔ་དྲོ་ཆུ་ཚོད	-9.84581
མི་ཤེས་	-9.84595
བསམ་བློའི་	-9.84649
ཡོང་བ	-9.84746
ཁྲིམས་ལུགས་	-9.84764
ཆད་པ་	-9.84815
བསྟན་གྱི་	-9.8483
ཡོད་ཅེས་	-9.84851
ད་ལྟར་བྱུང་བའི་	-9.84878
ནས་བཅོམ་ལྡན་འདས་	-9.84889
ང་རང་	-9.84905
འཐོན་	-9.84934
རྨོངས་	-9.84967
▁ཁེ་ན་	-9.84994
ཡོད་པ་དེ་	-9.85092
ར་འགྱུར་བ་དང་་	-9.8512
ལས་བསྡོམས་	-9.85134
ཉམས་རྒྱུན་འཛིན་	-9.85144
ཡོད་ཅིང་	-9.85176
རྣམ་གཉིས་	-9.85183
འདི་དག་གིས་	-9.85252
བསྙེན་བཀུར་	-9.8528
ཚོགས་བཅར་བ་	-9.85301
ལྷ་མ་ཡིན་	-9.85319
དེད་དཔོན་	-9.85368
འཇིགས་མེད་	-9.85394
▁སྤྱི་ཚོགས་	-9.85395
གཅིག་གྱུར་	-9.85441
བྱས་པ་དང་	-9.85465
གཤིན་རྗེའི་	-9.85489
དཔའ་བོ་	-9.85513
སྣ	-9.85514
དང་་ཚེ་དང་ལྡན་པ་	-9.85521
ཆུང་ངུ་	-9.85537
▁ད་རེས་	-9.85599
དཔྱད་	-9.85728
ཁམས་གསུམ་	-9.85731
ཡི་རངས་	-9.85752
ཕྲག་	-9.85773
རིས་	-9.85781
འགོག་	-9.85793
རྒྱལ་རིགས་	-9.85821
འགག་	-9.8586
་གང་	-9.8586
སྐར་མ་	-9.85872
མྱུར་	-9.85928
སྔ་	-9.85937
ནང་དུའང་	-9.85939
བ་མིའི་ཐོབ་ཐང་	-9.85999
ཕྱིའི་	-9.86035
གཟུགས་རྣམས་	-9.86061
ཚར་	-9.86099
བཅུའི་ལས་ཀྱི་ལམ་	-9.86109
ཚིགས་སུ་བཅད་དེ་	-9.86109
བཙུན་མོའི་འཁོར་	-9.86117
▁ལོ་	-9.8612
ར་འགྱུར་་	-9.86137
དགའ་པོ་བྱུང་	-9.86138
ཞིག་ཀྱང་	-9.86174
བཞུགས་པ་	-9.86222
སེམས་ཤུགས་	-9.86366
ཤིང་ས་ལ་ཆེན་པོ་	-9.86381
མཇལ་འཕྲད་	-9.86506
ཆོས་སྟོན་པ་	-9.86523
རེ	-9.86556
ཕན་ཡོན་	-9.8662
▁དེ་མིན་	-9.86632
པ་ལགས་	-9.86679
ད་ལྟར་བྱུང་བ་	-9.86692
འི་ནང་དུ་	-9.86703
ཅི	-9.86715
རྗེས་སུ་དྲན་པ་	-9.86833
མངོན་པར་ཞེན་པ	-9.86907
དགའ་ཞིང་	-9.8692
སུས་ཀྱང་	-9.86954
སྨྲ་	-9.86959
འི་གསུང་བཤད་གནང་	-9.8699
ཀྱི་ཐད་དུ་	-9.8701
མ་ཐག་	-9.87025
སྐྱབས་མགོན་ཆེན་	-9.87027
མང་པོ་ཞིག་གིས་	-9.87049
བཅུ་དང་ལྡན་ན་	-9.87082
མངོན་སུམ་དུ་བྱ	-9.87092
འཇོམས་	-9.8711
▁བོད་ནང་གི་	-9.8719
གཅིག་ལ་གཅིག་	-9.87192
ཏོག་ཙམ་	-9.87195
འི་འབྲས་བུ་མངོན་	-9.87281
རྗེ་	-9.87289
ཚུད་	-9.87353
ཆོས་སྨྲ་བ་	-9.87391
▁དེའི་འོག་ཏུ་	-9.87396
སྲ་བརྟན་	-9.87479
བཟོས་	-9.87494
འགྱུར་རོ་་	-9.87522
དང་ལྡན་པ་དང་་	-9.87587
རྐྱེན་གྱིས་	-9.87633
བྱིན་པ་	-9.87732
དྲི་མེད་	-9.87807
བསྟི་གནས་ཁང་	-9.87933
ཐོབ་པར་འགྱུར་རོ་	-9.87947
ཆགས་པའི་	-9.87983
མཆོད་སྦྱིན་	-9.87996
གྲུ་	-9.88014
ཚངས་པར་སྤྱོད་པ	-9.88018
ཚན་རིག་པ་	-9.88084
ཆུ	-9.8809
པར་གྱིས་ཤིག་	-9.88145
གདུང་	-9.88147
ཁྲི་བཞི་སྟོང་	-9.88287
ཡོད་པར་	-9.88331
བཅོམ་	-9.88359
ཏ་ལའི་བླ་མ་	-9.88389
དོན་གཅོད་	-9.88405
བོད་ཁྱིམ་	-9.88407
གཏེར་	-9.88443
ཚུལ་བཞིན་	-9.88497
ཚད་མེད་	-9.88608
དགོན་	-9.88632
ཚོལ་	-9.88648
འབད་	-9.88699
གླ	-9.88703
ལྷོ་	-9.88734
མིག་གི་	-9.88739
▁བྲམ་ཟེ་	-9.88747
ཁུངས་	-9.88754
གོ་བསྡུར་	-9.88766
པ་ཡིན	-9.88812
བཏང་ཡོད	-9.88813
རབ་ཏུ་བྱུང་བ་	-9.88829
ར་འཚང་རྒྱ་བ	-9.88846
འཐབ་	-9.8889
བསྐོང་ཚོགས་གནང་	-9.88902
དགེ་བའི་ཆོས་	-9.88973
རྔམ་སྟོན་	-9.89022
རྒྱ་ནག་ནང་	-9.89056
སངས་རྒྱས་པའི་ཆོས	-9.89152
བརྗོད་གཞི་	-9.89154
འཁྲབ་སྟོན་	-9.8916
འགའ་ཤས་	-9.89183
རྣམ་དཔྱོད་	-9.89198
གང་ན་	-9.89298
ཁྱོད་ཀྱིས་དེ་	-9.89321
གོ་རྟོགས་སྤེལ་	-9.89329
བརྟན་པ་	-9.89336
▁ཡང་ན་	-9.8934
ཐོག་མ་	-9.89342
འགྲོ་གྲོན་	-9.89351
སྲེད་པ་	-9.89358
བསགས་པ་	-9.89387
▁སྲིང་མོ་	-9.89419
ལས་ཁུངས་དང་	-9.89507
ཁྲིམས་འཆར་	-9.89512
ཚད་མེད་པ་	-9.89531
ིའི་	-9.89551
བཞིན་འདུག	-9.89564
ོག་	-9.8959
སྐུ་ཚབ་ཚོགས་ཆུང་	-9.896
ཕོ་བྲང་	-9.89615
ནམ་མཁའ་ལ་	-9.89622
རྒྱབ་སྐྱོར་གྱི་	-9.89637
▁དེ་ཅིའི་སླད་དུ་	-9.8965
གསུངས	-9.89655
རང་ཉིད་ཀྱི་	-9.89656
ཞུ་རྒྱུ་	-9.89658
ཏོག་དབྱིབས་	-9.8975
དགེ་ལས་སློབ་ཕྲུག	-9.89752
ཐེག་པ་ཆེན་པོའི་	-9.89757
པ་དེའི་ཚེ་	-9.89779
མཚམས་འཇོག་	-9.89785
སྦྱིན་བདག་	-9.89797
རེ་རེ་	-9.89807
མི་འགྱུར་	-9.89814
སྙིང་ཐག་པ་ནས་	-9.89829
སྒེར་	-9.89881
རོ་་	-9.89886
བཞག་པ་	-9.89933
▁བོད་མིའི་སྒྲིག	-9.89943
སྦ	-9.90006
སློབ་གྲྭ་ཁག་	-9.90069
པར་མི་བྱེད་	-9.90075
གནས་པར་མི་བྱའོ་་	-9.90087
བླ་ན་མེད་པ་	-9.90132
ལེགས་བཤད་དེ་དག་	-9.90146
ཆུང་མ་	-9.90168
བྱེ་བ་ཕྲག་	-9.9022
བཀའ་དྲིན་རྗེས་དྲ	-9.90248
▁བྱང་ཆུབ་	-9.9026
ཐུབ་པ་དང་	-9.90285
གྲ	-9.9029
ནན་	-9.90304
སྐྱབས་སུ་འགྲོ་བ་	-9.90305
སྐད་འབོད་	-9.90307
ལུང་པ་	-9.90327
སྲིད་འཛིན་ཟུར་པ་	-9.9033
▁མད་གལ་གྱི་བུ་དེ	-9.90407
སྐུ་པར་	-9.90425
བཞིན་ཡོད་སྟབས	-9.90444
མཐུན་ཚོགས་པའི་	-9.90479
ཏ་ལའི་བླ་མའི་	-9.90494
དཔུང་	-9.90524
བསྔགས་	-9.90537
རློམ་སེམས་སུ་མི་	-9.90577
ཡང་ཡིན་	-9.90623
འོས་བསྡུ་	-9.90652
ཞེན་	-9.90688
རྒྱུན་དུ་	-9.90692
ེ	-9.90709
ས་གནས་བོད་རིགས་	-9.90711
▁དེ་འདི་	-9.90727
བོ་་	-9.90733
ཚོང་ལས་	-9.90741
འགྲེམས་སྟོན་	-9.90744
བཏང་བ་	-9.90821
▁བྱམས་པ་	-9.90833
མིར་	-9.90842
བྱེད་རྒྱུའི་	-9.90917
དགོས་རྒྱུ་ཧ་ཅང་	-9.90993
བྱེད་་	-9.91079
ལྟོས་	-9.91081
སྟོན་ཏོ་་	-9.91105
ཐུགས་རྗེ་ཆེ་ཞུས་	-9.91146
ཆོས་རྒྱལ་	-9.91206
▁གཙོ་བོ་	-9.91207
གྲོས་ཚོགས་འཐུས་མ	-9.91286
ཤ་ར་དྭ་ཏིའི་བུས་	-9.91294
གྱུར་་	-9.91402
ཆ	-9.91411
ཚུལ་བཞིན་དུ་	-9.91421
གཞུང་ཆེན་	-9.91432
དེ་ཉིད་དུ་	-9.91439
བོད་ཀྱི་ཁོར་ཡུག་	-9.91448
གོང་ས་མཆོག་གི་	-9.91449
དྲི་མ་མེད་པའི་	-9.91469
འཛིན་རིམ་བཅུ་	-9.91469
གསར་པ་ཞིག་	-9.91489
པ་རྣམས་ཀྱི་	-9.91498
བསྒོམ་	-9.91515
ར་སངས་རྒྱས་ནས་	-9.91526
པར་བརྟེན	-9.91549
ནགས་ཚལ་	-9.91592
ལགས་ཀྱིས	-9.91665
ིང་	-9.91704
གཟུགས་བརྙན་	-9.91739
འདས་པ་ན་	-9.9176
སྦྱོང་བརྡར་	-9.91761
པོས་	-9.91791
རྟོགས་པར་	-9.91807
▁ཕྱི་	-9.91812
སྙིང་བསྡུས་	-9.91815
ཇི་ཙམ་དུ་	-9.91831
འོངས་	-9.91849
སྙམ་དུ་	-9.91883
སྐྱེས་བུ་དམ་པ་	-9.91941
▁རྒྱ་ནག་གཞུང་གི་	-9.92002
ས་ཏེ་	-9.92023
སེམས་པ་	-9.92068
སྤྲུལ་	-9.92258
ཡིག་རྒྱུགས་	-9.92328
རྙོག་གྲ་	-9.92342
▁བྲམ་ཟེའི་ཁྱེའུ་	-9.92347
ཆོས་ཐམས་ཅད་ལ་	-9.92357
ན་ལེནྡྲའི་	-9.92481
ཡང་དག་པར་འཛིན་	-9.92619
ཉལ་	-9.92622
▁དེ་དེ་བཞིན་	-9.92626
བོད་ཀྱི་རྩ་དོན་	-9.92683
བྱུང་ན་	-9.92692
པར་གྱུར་ན་	-9.92694
རྟོག་	-9.92733
བལ་ཡུལ་	-9.92751
ཤིན་ཏུ་རྣམ་པར་དག	-9.92832
གྱིས་གཙོས་	-9.92844
མི་དམིགས་པ་	-9.9285
གྱུར་ཏེ་་	-9.92856
གྱུར་བའི་	-9.92868
དོང་	-9.92879
སྐུལ་	-9.92883
དགའ་བ་དང་	-9.92931
ཀྱི་སྤྱན་སྔར་	-9.92948
དྲུང་དུ་	-9.92969
ཟད་པ་	-9.93019
གྱི་ཡོད	-9.93043
འོ་ཞེས་	-9.93068
་ཆེན་དགེ་འདུན་	-9.93074
ལྟོ་འཕྱེ་ཆེན་པོ་	-9.93111
ཚེ་གཅིག་ཏུ་	-9.93129
འགྲེལ་	-9.93131
དེ་དག་ཐམས་ཅད་ནི་	-9.93176
དེ་ཚེ་	-9.93208
བལྟས་	-9.93281
ཉུང་	-9.933
▁བུ་	-9.9341
འགྲོ་བ་མི་རིགས་	-9.93449
ཡིན་འདུག	-9.93481
བསྟན་བཅོས་	-9.93528
▁རིག་གཞུང་	-9.93546
སྦྱིན་པར་བྱེད་	-9.9355
དྲན་རྟེན་	-9.93582
དགའ་བ་དང་་	-9.93614
གཡས་	-9.93676
དེ་ལྟ་བུར་	-9.93711
ས་ཕྱོགས་གང་སར་	-9.93712
བཟང་སྤྱོད་	-9.93723
གང་་་	-9.93751
རིག་གཞུང་དང་	-9.93888
བསྐུལ་	-9.93908
་ཐམས་ཅད་སྤངས་ནས་	-9.93923
▁ཐེངས་འདིའི་	-9.93924
ལ་མཆོད་པ་	-9.93948
ཤ་སྟག་	-9.93948
འཇམ་	-9.93965
གསང་སྔགས་	-9.94086
ཚོང་པ་	-9.94172
ལེའུ་	-9.94182
མེད་པའོ་་	-9.94184
ཡང་ཡང་	-9.94232
བརྒྱན་པ་	-9.94246
མང་ཚོགས་	-9.94264
སེམས་འཚབ་	-9.94299
ཀྱིས	-9.94378
ཐལ་མོ་སྦྱར་ཏེ་	-9.94447
བཞག་སྟེ་	-9.94459
ང་ཉིད་	-9.94476
ཀྱིས་དེའི་ཚེ་	-9.94501
དམ་པའི་	-9.94517
རྗེས་དྲན་	-9.94521
པ་ཡིན་ན	-9.94539
བསྟན་་	-9.94613
ཤེས་རྟོགས་	-9.94626
ཟན་	-9.94662
ཤེས་པས་	-9.94664
▁འཕྲོད་བསྟེན་	-9.94701
ནང་མི་	-9.94767
འབོད་	-9.94784
གོང་འཕེལ་	-9.94787
ང་ཚོ་ཚང་མ་	-9.94832
ལས	-9.9485
ལྔ་བཅུ་	-9.94877
ཡུལ་མི་	-9.94901
གཟུགས་མེད་པའི་	-9.94917
ཆོས་ལུགས་ཀྱི་	-9.94918
གལ་ཆེ་	-9.9492
པར་བྱ་	-9.94944
ལེགས་བཤད་	-9.94952
སྐྱེ་བོ་མང་པོ་	-9.94968
པར་གྱུར་་	-9.95014
དུས་སྐབས་འདིར་	-9.95056
སངས་རྒྱས་པའི་	-9.95107
རག་	-9.95143
▁གླེང་གཞི་	-9.95145
གོང་ས་མཆོག་	-9.95163
བོད་རིགས་ཡོངས་ལ་	-9.95184
མི་མང་སྤྱི་འཐུས་	-9.95194
འདི་ལྟ་སྟེ་དཔེར་	-9.95268
དགེ་བསྙེན་	-9.95275
▁ཐོག་མར་	-9.95307
བཀའ་ཤག་	-9.95347
ཚུར་ཤོག་	-9.95356
མར་མེ་	-9.95361
ཁེ་	-9.95363
བརྗོད་པར་བྱའོ་་	-9.95391
ང་ཡིས་	-9.95415
བུ	-9.95418
སྔོན་རྩིས་	-9.95546
གཅིག་ལ་	-9.95547
སྙམ་	-9.95582
ཤེས་པའི་	-9.95595
ཞིག་ཆགས་	-9.95615
པར་གྱུར་ཅིག་ཅེས་	-9.95628
འཇར་མན་	-9.95635
བྱེད་བཞིན་པའི་	-9.95645
སྟོན་པའི་	-9.95693
འགྲོ་བཞིན་པའི་	-9.95757
ཇི་བཞིན་	-9.95787
ཤེས་ཏེ་	-9.9583
སྤ	-9.95846
▁ཕྱི་ལོ་གྱི་	-9.95909
སྦས་	-9.95962
འཕགས་པའི་བདེན་པ་	-9.95976
ཞེས་ཟེར་རོ་་	-9.9598
སོགས་ནས་	-9.95994
འདུས་མ་བྱས་	-9.95995
འདོད་པ་དང་་	-9.95998
གྲོང་ཁྱེར་དུ་	-9.96032
ཞི་རྒོལ་	-9.96058
དཀའ་སྡུག་	-9.96073
▁ཅི་	-9.961
ཆེར་	-9.96123
གྲྭ་བཙུན་	-9.96144
དགེ་སློང་མ་	-9.96146
བསྐྱར་ཞིབ་	-9.96154
ལུང་སྟོན་	-9.9622
འཛིན་གྲྭ་	-9.96227
བྲན་	-9.96232
▁གོང་དུ་	-9.96259
་ལུང་བསྟན་པ་གང་ཡ	-9.96267
བཙན་	-9.96267
ིན་པའི་སངས་རྒྱས་	-9.96267
སྒྲིག་གཞི་	-9.96314
ཟེར་རྒྱུ་འདི་	-9.96401
ལས་ཡང་དག་པར་འདས་	-9.96406
གསན་	-9.96435
བྱང་ཆུབ་ཏུ་སེམས་	-9.96455
བྱེད་ཅིང་་་	-9.96463
བླ་སྤྲུལ་	-9.96464
མ་ལགས་	-9.96475
▁དེ་ཅིའི་ཕྱིར་	-9.96506
ལྷ་ཡི་	-9.96562
བཅུ་དྲུག་	-9.96636
ཨོ་	-9.96647
ཁྲ	-9.96651
སྙམ་སྟེ་	-9.96661
གཡོ་	-9.96678
འཐོབ་	-9.96748
▁དེ་དག་གི་	-9.9675
སློབ་ཁྲིད་གནང་	-9.96783
འཁྲིད་	-9.9683
བུའི་	-9.96839
བོད་མི་བཙན་བྱོལ་	-9.96885
▁བདག་ཀྱང་	-9.96918
བུད་མེད་ཀྱི་	-9.96934
འི་ཆོས་འདུལ་བ་ལ་	-9.96939
བདེན་པའི་	-9.97022
ཁོ་	-9.97028
ཁུལ་དེར་	-9.97107
གཅིག་མཚུངས་	-9.97112
འགན་འཁུར་	-9.97196
མྱ་ངན་ལས་འདའ་བ	-9.97211
བཀའ་བཞེས་བཟང་པོ་	-9.97231
ཁོ་ནའི་བསྟན་པ་ལ་	-9.97235
བཀའ་སློབ་ལམ་སྟོན	-9.97253
སྤངས་པ་	-9.97255
ལིད་ཙ་བི་དྲི་མ	-9.97259
བུ་ཆེན་པོའི་མཚན་	-9.9729
སློང་	-9.9729
ཧོང་ཀོང་	-9.97292
དུའང་	-9.97314
བདེ་དོན་	-9.97345
དེ་ལ་སྨྲས་པ་	-9.97348
མང་པོའི་	-9.9737
མི་རྟག་	-9.97376
བཀག་	-9.97424
གི་གནས་སྟངས་	-9.97454
ཉམས་པ་	-9.9747
དཔག་ཚད་	-9.97478
ལམ་གྱི་	-9.9748
ཚགས་ཚུད་	-9.97531
འདི་གཉིས་	-9.97611
བྱམས་	-9.97618
མངོན་པར་སྤྲུལ་	-9.97618
མཉམ་ཞུགས་གནང་ཡོད	-9.97637
རྒྱལ་དབང་	-9.97644
མི་མང་ལ་	-9.97648
རྒྱ་ནག་དང་	-9.97673
་སེམས་ཅན་	-9.97681
བའི་ནང་འཁོད་དོན	-9.97789
རབ་ཏུ་མཁྱེན་	-9.97801
ཡིན་ནམ་	-9.97824
ཕྱི་ལོ་བོད་མིའི་	-9.97905
ངྒེ་མཆོག་དང་	-9.9791
གླང་པོ་	-9.97969
▁དེ་ནས་དེ་	-9.98004
མཐུན་ཚོགས་ཀྱི་	-9.98022
་རྣམས་ཡིན་	-9.98051
ཁྲག་ཁྲིག་	-9.9809
ཚོགས་འདུའི་	-9.98109
འདི	-9.98174
འཚལ་བ་	-9.98191
ཁྱེའུ་དེ་	-9.98248
ཤེས་པར་བྱ་	-9.9826
ཕྱོགས་ཕེབས་གནང་	-9.98268
པའི་འཇིག་རྟེན་	-9.98284
ལན་འདེབས་	-9.98298
དཔུང་གི་ཚོགས་	-9.98307
གང་ཡིན་པ་དང་་	-9.9834
དེ་ཚོ་	-9.98345
ཡིན་ཏེ	-9.98371
འཁྲུངས་	-9.98424
ལ་གནས་པའི་	-9.9845
ཞུ་བ་	-9.98472
ཤོད་	-9.98477
ཟུང་	-9.98491
ར་ཡང་	-9.98529
བཏབ་	-9.98568
འབྱུང་བའི་	-9.98631
བྱས་ཤིང་	-9.98688
བཀ	-9.98742
ལ་གནས་	-9.98779
བརྒྱན་	-9.98784
མྱ་ངན་འདས་	-9.98862
ཨེ་	-9.98862
ལམ་སྲོལ་	-9.9887
ཡོད་དམ	-9.98878
མེད་ཀྱང་	-9.98952
པུས་མོ	-9.98981
བྱེད་པ	-9.99031
གང་འདྲ་	-9.99037
སེང་གེའི་སྒྲ་	-9.99056
འཕྲོག་	-9.99083
བྱེད་སྟངས་	-9.99093
ནམ་རྒྱུན་	-9.99102
དམིགས་བསལ་གྱི་	-9.9911
ཁང་པ་བརྩེགས་པ་	-9.99119
རབ་ཏུ་བྱུང་སྟེ་	-9.9913
འབྱིན་	-9.99155
ཉེ་ལམ་	-9.99172
བལྟ་ན་སྡུག་པ་	-9.99181
ལ་དོ་སྣང་	-9.99186
བཅའ་ཁྲིམས་	-9.99188
གནང་རྒྱུ་དང་	-9.9919
རྐྱེན་པས་	-9.99197
ཉེར་	-9.99204
རབ་ཏུ་འབྱུང་བར་	-9.99219
དེ་སྐད་	-9.9925
ཡོང་བཞིན་ཡོད	-9.99298
ཕེབས་ནས་	-9.99301
ཙམ་ཡང་	-9.99316
ཅ	-9.99325
གོ་རྟོགས་	-9.9935
ཆེན་པོ	-9.99393
བཟང་སྤྱོད་ཀྱི་	-9.99395
བཙོན་འཇུག་	-9.99414
འི་སྐུ་	-9.99421
དངོས་གནས་	-9.99437
སྨན་གྱི་	-9.99445
རེག་པ་	-9.99463
རྒྱབ་སྐྱོར་བ་	-9.99477
ཏིང་འཛིན་	-9.99488
་ཡི་	-9.99502
ག་ལ་	-9.99523
བོད་མི་ཚོའི་	-9.99564
འབྱུང་་་	-9.99572
མཇུག་	-9.99586
གོ་ཆ་	-9.99683
གཉིས་སྨན་	-9.99734
འདེགས་འབུལ་ཞུས་	-9.99746
ཐེ་ཙོམ་	-9.99747
སྐུའི་འཁྲུངས་	-9.99756
གཟའ་པ་སངས་ཉིན་	-9.99783
▁ཞེས་སོགས་ཀྱི་	-9.99794
ངག་དབང་	-9.99805
མེས་	-9.9983
འབྱུང་སྟེ་	-9.99837
ཆོས་དང་	-9.99851
ཡིན་པའི་ཕྱིར་རོ་	-9.99871
སོང་བ་	-9.99912
དེ་གཉིས་ཀྱིས་	-9.99924
ཐལ་	-9.99986
རྙེད་པ་དང་	-10.0002
ོ་་	-10.0002
འགའ་	-10.0008
མྱ་ངན་ལས་འདས་ནས་	-10.0018
ཞིག་ཡོད	-10.0019
འདུན་པ་	-10.0021
སྔ་དྲོ་	-10.0021
སོ་ཞེས་	-10.0027
བགྱི་བའི་སླད་དུ་	-10.0028
པད་མའི་	-10.0031
ཡོངས་སུ་དག་པ	-10.0033
ཚོགས་ཀྱི་	-10.0036
སྲང་	-10.0042
ཆོལ་གསུམ་	-10.0043
འི་སྟོབས་བཅུ་	-10.0044
ོང་	-10.0045
ཉན་ཐོས་ཀྱི་ཐེག་པ	-10.0046
ཧུ་	-10.0047
འི་གནས་སུ་	-10.0048
གནང་དགོས	-10.0049
▁དམ་པའི་ཆོས་	-10.0053
ཐེག་པ་ཆེན་པོ་	-10.006
ཡིད་དུ་འོང་བ་	-10.0061
ལན་གསུང་བ་ནས་དེ་	-10.0062
ཐུན་མིན་	-10.0065
སྙིང་རྗེའི་	-10.0069
སོ་སོའི་སྐྱེ་བོ་	-10.0071
ལ་སྙོམས་པར་འཇུག་	-10.0071
ལགས་ཀྱིས་ས་གནས་	-10.0072
ཡོང་དུས་	-10.0076
ལ་མཚོན་ནའང་	-10.0086
བར་གྱུར་ཏོ་་	-10.0088
འབྲས་སྤུངས་	-10.0088
འགྲེལ་བརྗོད་	-10.0091
ཞུགས་ནས་	-10.0094
ཆག་	-10.01
ཀྱི་ཚབ་ཞུས་ཏེ་	-10.0106
དེའི་ཚེ་དེའི་ད	-10.0109
འཕྲུལ་	-10.011
ཧ་ཅང་ཡག་པོ་	-10.0115
▁འགྲོ་བ་	-10.0119
ཡང་དག་པར་ཞུགས་པ་	-10.0122
ཟུར་པ་	-10.0128
བརྒྱ་བྱིན་གྱིས་	-10.0131
རྒྱ་གཞུང་གི་	-10.0132
གནས་སྟངས་སྐོར་	-10.0135
ཕྱི་ལོ་ཚེས་	-10.0135
མལ་	-10.0145
ཆེན་པོ་ཞིག་	-10.0151
སྨྲས་སོ་	-10.0157
རེས་	-10.0159
དབང་དུ་	-10.0159
འཕྲུལ་ཆས་	-10.0161
▁བསྐལ་པར་	-10.0163
མིས་	-10.0164
སྡོམ་	-10.0167
འདི་སྙམ་དུ་སེམས་	-10.0168
བཞིན་པ་	-10.0168
ཕབ་	-10.0176
གཟའ་སྤེན་པ	-10.0178
མཁས་པས་	-10.0178
དང་དེ་བཞིན་	-10.0178
ནས་དེའི་ཕ་རོལ་	-10.018
ནས་དེ་	-10.0181
ར་མི་བགྱིད་	-10.0186
བཞུགས་སྒར་རྡ་སར་	-10.0187
དགོངས་པ་བཞེས་	-10.0188
་དེས་	-10.0189
གསལ་བ་	-10.0189
ཁང་གི་འགན་འཛིན་	-10.0189
ཕྱག་རྟགས་	-10.0194
བྱེད་པ་་	-10.0196
སྲིད་དོན་ཚོགས་པ	-10.0199
ཐེངས་དང་པོ་	-10.0203
དཔོན་	-10.0203
འི	-10.0212
འི་བཅའ་ཁྲིམས་	-10.0216
ལུང་བསྟན་པ་	-10.0217
དུས་ཆེན་	-10.0217
པུ	-10.0218
རྒ	-10.0222
འདི་ལས་	-10.0222
བདེ་འཇགས་	-10.0223
བོད་དོན་བདེན་	-10.0227
མངོན་པར་རྟོགས་པ	-10.0232
ཤུགས་ཆེ་གནང་	-10.0241
ཀྱི	-10.0242
གོ་སྐབས་འདི་	-10.0243
བོད་རིགས་ཚོགས་པ	-10.0248
རིན་པོ་ཆེ་སྣ་	-10.0249
གདོན་	-10.0251
ལུ	-10.0252
དེ་སྔོན་	-10.0253
དུས་སྟོན་	-10.026
ངེས་པར་འབྱུང་བ་	-10.026
ཚན་པ་	-10.0261
འོང་བ་	-10.0273
སྐུ་ཚེའི་འཕེན་པ་	-10.0273
མྱ་ངན་གུས་འདུད་	-10.0273
ཕྱུང་	-10.0274
ཁབ་	-10.0275
▁སྐད་ཡིག་	-10.0276
བདག་མེད་	-10.0277
གསུང་འཕྲིན་	-10.0279
འགོག་པ་	-10.0282
▁ཤེས་ཡོན་	-10.0283
སྐྱོབ་	-10.0285
ངོམས་	-10.0286
སྒང་	-10.0289
བསྐོར་བ་	-10.0293
མ་བྱུང་	-10.0294
སྒྲོན་མ་	-10.0297
ཆང་	-10.0298
ྭ་	-10.0298
མཆོག་གིས་གཙོས་	-10.0299
ཨི	-10.03
མི་ལོ་	-10.03
སོ	-10.0305
གོ	-10.0307
བསྐོ	-10.0307
བེད་སྤྱོད་	-10.0307
ལོ་འཁོར་	-10.0308
ལས་འདས་པ་	-10.0309
སྐྱོ	-10.031
ཕྱག་ལས་	-10.0313
རང་བཞིན་གྱི་	-10.0318
གནས་སྡོད་	-10.0321
གཞུག་	-10.0321
བསམ་འཆར་	-10.0322
གཏན་འཁེལ་	-10.0325
སོགས་པ་དགེ་སློང་	-10.0332
▁དེ་ནས་དེའི་ཚེ་	-10.034
རབ་ཏུ་འབྱུང་བ	-10.0343
སླད་དུ་	-10.0343
ལོ་ལྟར་	-10.035
ཆུད་	-10.0351
དཔོན་རིགས་	-10.0351
ལ་བརྩོན་	-10.0358
གསུང་ཆོས་	-10.0358
པ་ལྟར་	-10.0359
དགོས་པ་རེད	-10.036
གཡོས་	-10.0363
མངོན་པར་འདུ་བྱ་བ	-10.0369
བདེ་སྡུག་	-10.0376
སེང་གེའི་ཁྲི་	-10.0376
སྨན་རྩིས་ཁང་གི་	-10.0384
་དེ་ཚེ་	-10.0384
བོད་མིའི་ཐོག་	-10.0386
ཆེ་བསྟོད་	-10.0388
ཡི	-10.0391
རྒྱལ་ཁབ་ཁག་	-10.0391
གཙོ་བོར་གྱུར་བའི	-10.0398
ར་གྱུར་ཏེ་	-10.0402
གཟེངས་བསྟོད་	-10.0402
ཕྱོགས་ཀྱི་	-10.0405
དྲི་མ་མེད་པ་	-10.0405
འོད་གསལ་	-10.0408
རྗེས་སུ་ཡི་རངས་	-10.0415
འབར་	-10.0418
སྟོབས་ཆེན་	-10.042
སྤོང་བ་	-10.042
སྨྲས་	-10.042
དང་འདྲ་བ་	-10.0421
ཀྱི་རྣམ་གྲངས་	-10.0421
་མཆོག་དང་	-10.0432
བུས་	-10.0436
ངོ་བོ་ཉིད་སྟོང་	-10.044
གཞས་	-10.0441
གི	-10.0444
བཤད་ཀྱི་ཡོད	-10.0447
གུས་	-10.0447
དི	-10.0448
འབྱུང་གནས་	-10.0448
གནང་ཡོད་པ་མ་ཟད	-10.045
ཐོགས་པ་	-10.045
དགའ་བར་	-10.0465
དང་པོའི་	-10.0465
དང་་ལུས་དང་་ཡིད་	-10.047
གློག་	-10.0471
སྟེན་	-10.0472
ཚབས་ཆེ་	-10.0476
བྱ་རྒྱུ་ཡིན	-10.0477
འབར་བ་	-10.048
ཏམ་	-10.0483
ནད་གཞི་	-10.0484
ཨིན་	-10.0486
རྣ་བ་	-10.0486
སྒྲོགས་	-10.0491
དགོན་པར་	-10.0496
རྒྱ་ནག་གཞུང་	-10.0496
སྡིག་པའི་ལས་	-10.0498
དམར་	-10.05
གང་དང་གང་དུ་སྐྱེ	-10.0502
བཅོམ་པ་	-10.0503
རྩྭ་	-10.0504
སོང་ལ་	-10.0505
འཆི་མེད་	-10.0507
ཕྱག་རྒྱ་	-10.0509
སྐྱེ་མཆེད་དྲུག་	-10.051
འདུགཅེས་	-10.0515
སུས་	-10.0522
རྗེས་སུ་དྲན་	-10.0522
སྐོར་གྱི་	-10.0524
དབ	-10.0524
གྲོང་ཁྱེར་གྱི་	-10.0527
ཞིག་གི་	-10.0528
མཐོ་	-10.0529
བདུད་སྡིག་ཅན་	-10.0536
པར་འགྱུར་བ་དང་་	-10.0537
▁ང་རང་	-10.0541
ཤིང་ལྗོན་པ་	-10.0544
་འདོད་རྒུ་གླིང་	-10.0545
སུད་སིའི་	-10.0548
ཁྲི	-10.055
ལྷུན་པོ་	-10.0554
ལོག་པར་	-10.0557
ཕོ	-10.0558
ཞེས་བརྗོད་	-10.0561
བ་རྣམས་	-10.0563
གྱོན་	-10.0565
ལྷ་སར་	-10.0566
སྐད་ཅིག་	-10.0568
འབྲེལ་མཐུད་	-10.0569
བྱེད་པར་	-10.0573
ཆོས་གང་ཡང་	-10.0574
ནམ་མཁའི་	-10.0574
འགོ་བཙུགས་	-10.0579
སྲེད་མེད་ཀྱི་བུ་	-10.0583
ངེས་པར་འབྱུང་བ	-10.0583
འཆི་བ་	-10.0584
ཅུང་ཟད་	-10.0585
ནང་སྟོང་པ་ཉིད་	-10.0588
འགྲོ་སྟངས་	-10.0589
བསྡུས་	-10.059
ཐབས་དང་	-10.0592
མཛད་རྗེས་	-10.0592
་ཞིག་	-10.0593
ཡིད་ཀྱི་རྣམ་པར་	-10.0593
འགྲེལ་བཤད་	-10.0597
ནན་ཏན་	-10.0598
▁འདུ་བྱེད་	-10.0602
་བཅས་	-10.0608
སྐྱེ་བའི་	-10.061
གཟབ་རྒྱས་ཞུས་ཡོད	-10.0611
ཨ་རུ་ན་ཅལ་	-10.0611
རབ་ཏུ་ཤེས་	-10.0617
འགོད་	-10.062
རྒྱུད་ཀྱི་	-10.0623
གང་གའི་ཀླུང་ག	-10.0623
▁ངའི་	-10.0625
གཅིག་དང་	-10.0626
▁བཟང་སྐྱོང་	-10.0631
བཞུགས་སྒར་དུ་	-10.0632
གཞུང་དང་གཞུང་	-10.0633
དེ་བས་	-10.0634
པའི་ཚིག་བླ་དགས་	-10.0637
མཐོན་པོ་	-10.0638
མཐའ་ཡས་པ་	-10.064
རབ་ཏུ་ཤེས་སོ་་	-10.0643
ཞེས་བྱ་བ་དེ་ནི་	-10.0644
▁འདོད་ཆགས་	-10.0644
འཛིན་པ་དང་་	-10.0647
ལས་ཡོངས་སུ་ཐར་བ	-10.0648
དགྱེས་	-10.0658
དེ་རིང་འདིར་	-10.0665
བྱས་པ་ཡིན	-10.0671
རང་བྱུང་	-10.0672
ཁོང་ལ་	-10.068
འདབ་མ་	-10.068
ཇི་འདྲ་ཞིག་	-10.0681
ཁོ་བོ་	-10.0681
འདི་དག་ཐམས་ཅད་	-10.0684
ཐམས་ཅད་དང་་	-10.0688
ཡོད་པ་རྣམས་	-10.069
བཀའ་མོལ་	-10.0694
མེ་ལ	-10.0707
གྱི་ཁམས་འདི་	-10.0708
བསྟི་གནས་	-10.0712
བརྙེས་	-10.0713
ཁག	-10.0713
སྤུ་	-10.0714
རྒྱ་མཚོ་ཆེན་པོ་	-10.0716
གུས་པར་	-10.0717
གན་དུ་	-10.0718
▁འདིས་	-10.0718
ཡིད་འོང་	-10.0719
▁གང་ལ་	-10.072
གནང་ནས་	-10.0721
ཐུགས་སུ་ཆུད་ནས་	-10.0723
གཞན་དག་ཀྱང་	-10.0724
བརྩི་	-10.0725
སྐྲག་	-10.0726
འི་འགན་འཛིན་	-10.0728
ཡོངས་གྲགས་	-10.0728
གནམ་གཤིས་	-10.0735
ཐ་དད་པ་	-10.0738
བྱིས་པའི་	-10.0742
▁སྐྱེས་བུ་	-10.0742
རྒྱུག་	-10.0742
པར་གྱིས་་	-10.0746
སེམས་ཅན་གང་དག་	-10.0748
ལྡི་ལིར་	-10.0751
ཡང་དག་པའི་མཐའ་	-10.0757
རྒྱུ་ཡིན་པ་	-10.076
བསྲུངས་	-10.0761
འཐུས་མི་ལ	-10.0767
དབུས་སུ་	-10.0773
མེད་ལ་	-10.0775
རྒྱ་གར་ནང་གི་	-10.0778
བྱའོ་	-10.0778
གྱི་བར་དུ་	-10.0782
ཧིན་སྒོར་འབུམ་	-10.0783
མང་གཙོ་དང་	-10.0786
དབུགས་	-10.0787
སྲིད་གཞུང་	-10.0789
དང་མཐུན་པའི་	-10.0789
བསྒོམས་	-10.079
ཡོངས་སུ་རྫོགས་	-10.0793
▁ང་ནི་	-10.0793
འཁྲུག་	-10.0793
་དེ་ལྟར་	-10.0795
དེ་སྙེད་	-10.0797
འགྱུར་བའི་	-10.0802
བཟང་པོ་ཞིག་	-10.0804
འདུགཕྱོགས་མཚུངས་	-10.0806
བཞུགས་སོ་་	-10.0807
དུས་དྲན་	-10.0808
སུམ་ཅུ་རྩ་གསུམ་པ	-10.0809
བཟའ་	-10.0811
སྤྲོ་	-10.0819
དང་བསྟུན་	-10.0821
ངོ་བོ་ཉིད་ཀྱིས་	-10.0822
ཕ	-10.0823
དཔག་མེད་	-10.0829
▁ཀྱེ་རྒྱལ་པོ་	-10.0831
ལོ་རྒྱུས་ཀྱི་	-10.0831
▁འདས་པའི་ལོ་ངོ་	-10.0832
ཞག་	-10.0835
ཕྱིན་པ་	-10.0845
མི་དགེ་བའི་ཆོས་	-10.0846
ཡི་དགས་	-10.085
ཚན་པའི་འགན་འཛིན་	-10.0852
སྐྱོད་	-10.0853
དང་ཐབས་ཅིག་ཏུ་	-10.0855
▁སྲེད་མེད་ཀྱི་བུ	-10.0855
བ་བཏུད་དེ་	-10.0858
▁ཀ་ཤི་ཀ་	-10.0859
འདུན་	-10.0864
ཕུག་	-10.0867
ཆོག	-10.0869
དབུ་འབྱེད་གནང་	-10.0869
ཉམས་ཞིབ་ཁང་གི་	-10.0871
འགྲན་བསྡུར་	-10.0875
མདུན་ལམ་	-10.0876
ཤེས་ནས་	-10.0876
ཧ་ལམ་	-10.0877
མེད་པ	-10.0878
བདེ་གཤེགས་	-10.0879
བཟང་ཕྱོགས་ཀྱི་	-10.088
དེ་དང་འཐུན་པའི་	-10.088
སྡུག་བསྔལ་བ	-10.0886
ཧ་ཅང་མང་པོ་	-10.0889
དེ་ཡང་མི་དམིགས་	-10.0889
ཐབས་མཁས་པ་	-10.089
དམིགས་སུ་མེད་	-10.0893
དྲུག་ཅུ་	-10.0899
▁ལྷའི་	-10.0901
▁ཁྱེད་	-10.0902
སྦྱར་བར་བྱའོ་་	-10.0902
བླངས་པ་	-10.0903
པོ་དེ་དག་	-10.0909
མཆིས་པ་	-10.091
འཕེལ་བ	-10.0915
ལོ	-10.0918
དེས་སྨྲས་པ་	-10.0919
▁སྲོག་ཆགས་	-10.0921
གཞོན་	-10.0928
རྒྱ་སྐྱེད་	-10.093
གྱི་ཁམས་མི་མཇེད་	-10.0933
དེ་ལ་ཡང་	-10.0935
འདྲི་	-10.0939
པར་མི་འགྱུར་	-10.094
གསོད་	-10.0941
གསལ་བར་	-10.0944
▁ཕྱི་རྒྱལ་	-10.0945
མཛད་སྒོའི་	-10.0948
▁གོང་ས་	-10.0949
ཆོས་ཀྱི་རྣམ་ག	-10.0955
དྲིས་	-10.0956
ར་བྱེད་པ་	-10.0957
དཔའ་	-10.0958
ཉི་མའི་	-10.0959
ལྔའི་	-10.0961
ཚོགས་པ་དང་	-10.0962
ངོན་སུམ་དུ་བྱེད་	-10.0964
གནམ་	-10.097
བསྐོར་	-10.097
ཀེ	-10.097
འདིར་ནི་	-10.0971
རྨ་	-10.0971
ཨུ་རུ་སུའི་	-10.0971
་འདི་ལྟར་	-10.0972
▁ཕྱིས་སུ་	-10.0974
་གཡས་པའི་ལྷ་ང་	-10.0975
ཚུན་ཆད་	-10.0975
ཚངས་	-10.0976
ཐོགས་ཏེ་	-10.0976
ཅེས་བྱ་སྟེ་	-10.0979
ལགས་ཀྱི་	-10.0981
སི	-10.0982
ཆོས་དེ་དག་	-10.0984
པར་གྱུར་ཏོ་	-10.0984
ིན་	-10.0984
བརྒྱུད་རིམ་	-10.0984
ཤོས་	-10.0985
བསམས་	-10.0987
རྣམ་རྟོག་	-10.0988
▁དུས་རབས་	-10.099
▁དེ་འདྲའི་	-10.0991
ངོ་སྤྲོད་དང་	-10.0995
མང་ཚོགས་ཀྱི་	-10.0998
རྒྱ་ནག་ལ་	-10.0999
རྡོག་རོལ་གཏོང་	-10.1004
སུ་ཡང་	-10.1006
གཟིགས་འབུལ་ཞུས་	-10.1006
▁རྒྱ་གར་ནང་	-10.1015
དབུ་བཞུགས་ཐོག་	-10.1019
རིགས་ཀྱི་བུ་ཆོས་	-10.1019
སྔོན་གྱི་མཐའ་	-10.1021
བོད་རྒྱའི་	-10.1021
བློན་ཆེན་ཟུར་པ་	-10.1027
ལྟ་བུ་དང་་	-10.1028
མ་སྐྱེས་པ	-10.103
སྨན་རྩིས་ཁང་	-10.1032
བསལ་	-10.1032
བསྟན་ཏེ་	-10.1035
ཁ་གསལ་	-10.1036
ཕེབས་འབྱོར་སྐབས་	-10.1036
ཁག་གཅིག་ལ་	-10.1037
ཐུབ་པར་	-10.1037
ནང་སྲིད་	-10.1038
དང་་བཟོད་པའི་	-10.1039
མི་བྱེད་	-10.104
གྲངས་གསུམ་རིང་	-10.1042
མཚན་མོ་	-10.1043
དེ་འདྲའི་ཐོག་ནས་	-10.1044
་པ་དང་	-10.1049
▁དུས་	-10.1052
འགྲོ་རྒྱུ་	-10.1055
བཞུགས་སྒར་རྡ་ས་	-10.1055
འི་སྐོར་	-10.1056
པ་ཡིན་ནོ་	-10.1058
▁འདས་པའི་	-10.1064
ནག་པོ་	-10.1064
རྒྱུན་ལས་རྣམ་པ	-10.1065
བྱ་སྤྱོད་	-10.1066
འབྲིང་	-10.1067
▁དགེ་སློང་དག་ང་	-10.1068
ག་ལ་བ་དེར་སོང་	-10.1075
གཏན་	-10.1075
པར་བྱེད་་	-10.1076
གོང་ནས་	-10.1078
་བཏང་ངོ་་་	-10.1079
་ཉིད་	-10.1079
རྫོགས་པའི་	-10.1086
བཟའ་བ་དང་བཅའ་བ་	-10.1097
སྔར་ལྷག་	-10.11
སྤྲུལ་པའི་	-10.1101
མེ	-10.1101
རིམས་སྔོན་འགོག་	-10.1102
ཚེ་རབས་	-10.1103
ཚན་	-10.1104
རྩོམ་ཡིག་	-10.1109
རྣམ་པར་ཤེས་པ	-10.1109
སྨན་གྱི་རྒྱལ་པོ་	-10.111
རྣམ་འགྱུར་	-10.111
དྲུང་ཆེ	-10.1111
རིའི་	-10.1115
▁དེ་གཉིས་	-10.1115
གྲང་	-10.1116
བྱུང་བར་	-10.1117
པར་འབྱུང་བ་	-10.1118
འགའ་ཞིག་	-10.1122
གནོད་སེམས་	-10.1124
གདན་ས་	-10.1124
གནང་རྗེས་	-10.1125
ཞུས་ཏེ་	-10.1129
ར་མི་འགྱུར་	-10.1134
དགོན་སྡེ་	-10.1135
ཤེས་རབ་ཀྱིས་	-10.1136
གནས་པར་	-10.1136
གནང་སྟེ	-10.1141
དགྲ་བཅོམ་པ་ཉིད་མ	-10.1146
བཞིན་པ་དང་	-10.1147
བླ་ཆེན་	-10.1151
མཚན་མ་མེད་པ་དང་་	-10.1153
ཧོ	-10.116
བག་ཆགས་	-10.116
ཡོངས་ཀྱི་	-10.1161
▁ཉོན་མོངས་པ་	-10.1163
ཕྱི་རོལ་གྱི་	-10.1164
▁འགྲོ་བ་མིའི་	-10.1167
བརྩམས་	-10.1168
ཐ་ན་	-10.1173
གཞུང་དང་	-10.1178
ཤེས་པ་ཞེས་བྱ་སྟེ	-10.1183
ཚིགས་	-10.1183
་སྐོར་དང་	-10.1185
རྒྱལ་ས་ལྡི་ལིར་	-10.1187
ཕེབས་སྐབས་	-10.119
འི་གནས་	-10.1192
ལྟ་ཅི་སྨོས་	-10.1192
དེ་དག་ལས་	-10.1194
རྒྱལ་པོས་	-10.1196
བཀའ་ཤག་གིས་	-10.1196
གས་ཀྱི་	-10.1197
དུས་སྐབས་	-10.1198
ཙམ་དུ་	-10.1202
ལ་བ	-10.1204
བསྟོད་	-10.1206
གནས་ནས་	-10.1218
གཏིང་ཟབ་	-10.1223
དགེ་འདུན་འཚོ་	-10.1225
གཙོས་པའི་	-10.1228
ཁག་དང་	-10.1231
ཟླ་བའི་	-10.1234
དུས་ཡུན་	-10.1238
བོད་མཐོ་སྒང་གི་	-10.1238
དགོངས་ཚུལ་	-10.1242
▁བསྐལ་པ་	-10.1242
ཆོས་ཀྱིས་	-10.1248
བླ་མེད་	-10.1251
དྷ་	-10.1254
ཆོ	-10.1257
གདུལ་བྱ	-10.1259
བོད་མི་ཡོངས་ཀྱི་	-10.1262
ཁོངས་སུ་	-10.1263
འདས་པ་	-10.1263
འགྱུར་ལྡོག་	-10.1264
བཀའ་སྩལ་ནས་	-10.1266
ཀྱི་སྲིད་བྱུས་	-10.1266
▁ཤིན་ཏུ་	-10.1268
ཅེས་བྱའོ་་	-10.1268
བོར་	-10.127
གཟུགས་སུ་	-10.1274
སངས་རྒྱས་ཀྱིས་	-10.1275
ཆོས་འདི་	-10.1276
་པ	-10.1286
བཅས་པ་	-10.1296
བརྗོད་དུ་མེད་པ	-10.1298
་རུ་	-10.1302
གཙོ་	-10.1306
ཞུས་པ་དང་སྦྲགས	-10.1307
ལྷུང་	-10.131
རྩིས་ཞིབ་	-10.1312
སྡོད་ཁང་	-10.1316
སྐོམ་	-10.1316
སྐྱབས་བཅོལ་	-10.1317
རུས་	-10.1317
ཕེབས་བསུ་	-10.1318
ཡོང་རྒྱུར་	-10.1319
ཕྱི་ནང་གི་	-10.1321
ལོ་རྒྱུས་ཐོག་	-10.1323
རིང་ལུགས་ཀྱི་	-10.1326
▁དེང་སང་	-10.1326
རིམ་གྱིས་	-10.1328
་འདི་ནི་	-10.133
ཚེ་རིང་ལགས	-10.1331
བོད་མི་མང་	-10.1333
གསར་འཛུགས་གནང་	-10.1334
གཙོ་བོ་ནི	-10.1335
སྒྱུ་མ་	-10.1336
ཡོད་ན	-10.1339
སྤྱི་ཚོགས་ཀྱི་	-10.1342
འཁོར་ལྷ་ཚང་བསོད་	-10.1345
▁ཡུལ་	-10.1349
ཐེ	-10.135
གཟུང་	-10.1351
གང་མགྱོགས་	-10.1351
མི་རབས་	-10.1354
ཐོག་དམ་བསྒྲགས་	-10.1354
བརྫུན་	-10.1356
གསོ་	-10.1358
གཙོ་བོར་	-10.136
གཟུགས་ཅན་སྙིང་པོ	-10.1361
རྨོངས་པ་	-10.1365
གལ་ཆེའི་	-10.1365
སྤྱོད་པ་དང་་	-10.1367
མ་མཆིས་་	-10.1367
ཉན་ཐོས་ཆེན་པོ་	-10.1369
ཡོད་པས	-10.137
ཀརྨ་ཡེ་ཤེས་མཆོག་	-10.1371
རྫོགས་པར་	-10.1372
འག	-10.1372
བརྒྱ་ཕྲག་	-10.1373
མ་འོངས་པའི་	-10.1374
མེའི་	-10.1376
ཀྱི་ཐོག་ནས་	-10.1377
▁དྲང་སྲོང་	-10.1378
པར་གྱུར་ཅིག་	-10.1383
པ་སོགས་	-10.1387
སྒ	-10.1389
▁ཧོང་ཀོང་	-10.1397
དེར་བརྟེན་	-10.1399
▁གང་གི་	-10.14
ཟད་པར་	-10.14
ུག་	-10.1412
ཐང་ལྷན་ཁང་གི་	-10.1416
འདོད་ན་	-10.1417
མཛད་དེ་	-10.1418
སུམ་ཅུ་	-10.1424
སྤྱོད་པའི་	-10.1426
འི་འབྲས་བུ་དང་་	-10.1426
མིང་དང་གཟུགས་	-10.1427
དམ་པ་ཁོང་གི་	-10.143
ཧ་ཅང་ཆེན་པོ་	-10.143
བརྡ	-10.1431
▁བདེ་བར་གཤེགས་པ་	-10.1433
ཇ	-10.1438
ཉན་ཐོས་དང་རང་	-10.1439
ཆོས་བསྟན་ཏེ་	-10.1443
▁རིགས་ཀྱི་བུ་འདི	-10.1444
བྱུང་བ་དང་	-10.1446
ཀྱ	-10.1454
ཚེ་དབང་རྒྱལ་པོ་	-10.1458
སད་	-10.146
ཆ་ནས་	-10.1462
སྟོང་པར་	-10.1465
་ཡིན་ཏེ་	-10.1465
་ཇི་སྙམ་དུ་སེམས་	-10.147
བྱིན་གྱི་རླབས་	-10.1472
རྒྱལ་ཆེན་བཞིའི་	-10.1472
བཀོད་ཁྱབ་	-10.1476
བོད་མི་དང་	-10.1477
་རྣམས་དང་་	-10.1477
མེད་པའི་ཕྱིར་	-10.148
ཨར་	-10.1481
པར་མི་འགྱུར་རོ་་	-10.1483
མོ་་	-10.1485
ཐང་གི་	-10.1487
གྱིས་་	-10.1488
གློད་བཀྲོལ་	-10.1488
ལྟས་	-10.1491
ེན་གཟབ་རྒྱས་ཞུས་	-10.1491
ཏུ	-10.1492
མྱོང་ཡོད	-10.1494
གནང་ཡོད་འདུག	-10.1502
བག	-10.1506
ཨ་རིའི་གཞུང་གིས་	-10.1508
འགྲེམས་སྤེལ་	-10.1519
གསུང་འདོན་གནང་	-10.1519
སྐྱབས་མགོན་ཆེན་པ	-10.152
ལྡན་་	-10.1523
གཞུང་མང་གཉིས་ནས་	-10.1524
བསྟན་པར་	-10.1525
མི་ཤེས་པ་	-10.1526
བཟོད་པའི་	-10.1528
ཇ་	-10.153
ཐམས་ཅད་ལས་	-10.1531
སྲིད་བྱུས་འོག་	-10.1534
ཕེབས་ཐོན་གནང་	-10.1535
གྲོས་	-10.1536
ཞུགས་ཏེ་	-10.1536
▁བཅུ་གང་ཞེ་ན་	-10.1541
རིས་མེད་	-10.1543
མགོ་བོ་	-10.1545
ཡོང་སྐབས་	-10.1546
དེ་རེད	-10.1546
སྔ་མ་	-10.1549
འགྲོ	-10.155
གནང་རྗེས	-10.1554
དང་་ཞེ་སྡང་དང་་	-10.1556
མི་མངའ་	-10.1558
་འཇིག་རྟེན་	-10.1563
བགྱིས་	-10.1566
པ་མ་ཡིན་	-10.1568
པའི་ཆོས་	-10.1574
▁མད་གལ་གྱི་བུ་ང	-10.1575
དྲོ	-10.1579
པད་མ་དཀར་པོའི་	-10.1584
མ་མཆིས་པར་	-10.1586
བཤམས་	-10.1586
ཕྱེ་	-10.1587
པྲ	-10.1591
་ཡིན་ནོ་	-10.1591
སྡོམ་པ་	-10.1593
རྒྱ་མིའི་	-10.1598
འཇིག་ཚོགས་ལ་ལྟ་བ	-10.16
མང་གཙོའི་ཀ་བ་	-10.1601
ཤེས་་	-10.1601
ཆོད་	-10.1605
མུན་པ་	-10.1607
མི་བྱེད་་	-10.1614
ཨརྱ་	-10.1614
སྤྲོས་པ་	-10.1614
ཆུས་	-10.1616
འཕར་	-10.1616
སྭ་ཧ་	-10.1617
ཅེས་བྱ་བའི་	-10.162
་ཡིན་དུ་བཅས་པའི་	-10.1623
ཞེ་	-10.1623
དྲི་བར་ལན་འདེབས་	-10.1624
རྣམ་པ་གཉིས་	-10.1627
དགུང་ལོ་	-10.1627
བཀའ་སྩལ་ཏོ་	-10.1628
གཡོགས་	-10.163
བརྟན་བཞུགས་བསྟར་	-10.1637
སྦྱངས་	-10.1637
གང་དག་གིས་	-10.1642
མཐར་གྱིས་	-10.1644
དམག་འཁྲུག་	-10.1645
འཁྱེར་	-10.1647
ཇི་སྙེད་ཡོད་པ་	-10.1647
རིན་པོ་ཆེས་	-10.1648
སྨྲ་བ	-10.1652
རིམ་གྲོ་	-10.1654
དྲག་པོ་	-10.166
པའི་ནང་	-10.1662
སངས་རྒྱས་ཡེ་ཤེས་	-10.1662
ར་བྱས་ནས་	-10.1663
རལ་གྲི་	-10.1665
བར་གྱུར་	-10.1668
སྣ་ཚོགས་ཀྱིས་	-10.1675
ལྷན་ཁང་གི་	-10.1678
རྗེས་སུ་མི་མཐོང་	-10.1681
མངོན་པར་བསྟོད་དོ	-10.1682
གཞུང་ནས་	-10.1685
རུ་ཁག་	-10.1686
དུས་ཐོག་	-10.1693
བསད་	-10.1698
ཞབས་འདེགས་	-10.1702
འཕྲལ་	-10.1705
འི་རིང་	-10.1707
རྣམ་རྒྱལ་	-10.1709
ནམས་སྟོབས་རྒྱལ་	-10.171
གཉིས	-10.171
དབང་ཆེན་ལགས་	-10.1712
རོགས	-10.1713
མིག་གིས་	-10.1715
ལྟོ་	-10.1715
སྒེར་གྱི་	-10.1718
འབུམ་རམས་པ་	-10.1727
་འདུ་བྱེད་རྣམས་	-10.1728
ལྟ་སྨོས་ཀྱང་ཅི་	-10.173
མ་ཡིན་གྱི་	-10.1731
གློ་བུར་དུ་	-10.1737
འོད་ཀྱིས་	-10.1741
བརྩོན་པ་	-10.1747
སྤོ་	-10.1748
ལོ་ངོ་སྟོང་ཕྲག་	-10.1748
དང་་ཤེས་རབ་ཀྱི་	-10.175
དྲུང་འཕར་	-10.1751
རྣམ་པར་གྲོལ་བའི་	-10.1753
བྲག་	-10.1755
ཆོས་སྟོན་ཏོ་་	-10.1756
བྱ་རྒྱུར་	-10.176
གཙོ་ཆེར་	-10.1762
རྣམ་པའི་	-10.1762
གཤེགས་སོ་་	-10.1762
ལུས་པོའི་	-10.1762
མདོ་སྡེ་འདི་	-10.1766
རྒྱ་གར་དུ་	-10.1771
▁མི་རིགས་	-10.1773
མུས་ཡིན	-10.1774
སྐྱོ་བ་	-10.1775
ཟོས་	-10.1777
ཆོས་རྣམས་ཀྱི་	-10.1784
ཅེས་བྱ་བ་ཡོད་དེ་	-10.1785
ཐབས་ལ་མཁས་པ་	-10.1785
བསྲེགས་	-10.1786
བར་འགྱུར་	-10.1789
བཙལ་	-10.179
ཞིབ་ཕྲ་	-10.179
འཕྲིན་ལས་	-10.1791
▁ཀ	-10.1792
སྟ	-10.1794
འཆང་	-10.1795
ཡོངས་ཁྱབ་	-10.1796
་ཞེས་བྱའོ་་	-10.1796
བཏགས་	-10.1797
རྒྱ་གར་གཞུང་གི་	-10.1797
བསགས་	-10.1805
▁ཆོས་རྣམས་	-10.181
ལོ་མ་	-10.1811
གྲོས་མཐུན་	-10.1813
པ་ཡང་	-10.1814
▁དེ་ནས་ཡང་	-10.1816
གོང་ས་མཆོག་གིས་	-10.1817
དེ་འདྲ་ཞིག་	-10.1817
ཟུར་དུ་	-10.1817
པ་མེད་པ་དང་་	-10.1824
ཟློག་	-10.1825
ས་ན་	-10.1828
བདུད་རྩིའི་	-10.183
་བཅས་ཀྱི་	-10.183
རོལ་	-10.1834
བསྟོད་པ་	-10.184
མིག་གི་ཁམས་	-10.184
ཤེས་པར་	-10.1842
རྣམ་པ་དུ་མ་	-10.1846
ཡོང་སླད་	-10.1848
▁ཉི་ཧོང་	-10.1852
ཡིན་ན	-10.1855
མཉམ་པར་	-10.1855
ར་བགྱིའོ་་	-10.1861
ང་མཉེས་པར་བྱས་ཏེ	-10.1861
ཚོལ་བ་	-10.1863
གི་དབང་པོ་ནི་	-10.1867
ནགས་	-10.187
གཞན་དག་ལ་	-10.1871
▁ག	-10.1871
དང་བཅས་པར་	-10.1872
དད་པས་	-10.1876
▁ཐེ་ཝན་	-10.1879
གྲོང་སྡེ་	-10.1882
ཁང་དུ་	-10.1884
བསྐྱར་བཅོས་	-10.1886
དང་འདྲ་བར་	-10.1887
བྱ་བ་བཞུགས་ཏེ་	-10.1887
མཛད་ནས་	-10.1889
བོད་ཀྱི་ཐུན་མིན་	-10.1889
ཨེ	-10.1889
དཔག་ཏུ་མེད་པའི་	-10.189
འདུལ་བའི་	-10.1893
ལྟ་བ་དང་་	-10.1895
ཆོས་དེ་	-10.1901
▁ཉེ་ལམ་	-10.1904
ཞིག་ཡིན་པ་དང་	-10.1906
འཛིན་བཟུང་བྱས་	-10.1909
གང་གི་ཕྱིར་	-10.191
མནར་གཅོད་	-10.1911
རྗོད་	-10.1913
ལྡོག་	-10.1916
ཤུལ་	-10.1916
ཐམས་ཅད་མཁྱེན་པ་	-10.1918
▁དེས་དེར་	-10.192
གཉིས་དབར་	-10.192
▁བོད་པའི་	-10.1923
དེ་དག་དང་་	-10.1923
དེས་ན་	-10.1924
ཐབས	-10.1928
ཕམ་	-10.193
སྲོལ་རྒྱུན་གྱི་	-10.1931
ཕྱིན་ཅི་ལོག་	-10.1936
ཚོང་དཔོན་	-10.1937
གྲགས་ཅན་	-10.194
རྒྱ་ཆེན་	-10.1943
བརྒྱ	-10.1948
བཅྭ་བརྒྱད་	-10.195
གཟའ་པ་སངས	-10.195
དགེ་ཚུལ་	-10.195
འདི་སྙམ་དུ་	-10.195
འགྲམ་	-10.1953
ཕྱོགས་དང་	-10.1954
གུ	-10.1957
གང་ལགས་	-10.1957
ཐབས་ཤེས་	-10.1959
ཆོས་སྟོན་	-10.196
འབུམ་ཕྲག་	-10.1963
དུང་	-10.1968
གཟིགས་སྐོར་	-10.1969
ལྡང་	-10.1971
དམག་མི་	-10.1972
སྟོན་པར་བྱེད་པ་	-10.1979
ནང་ར	-10.1986
སློབ་གཉེར་ཁང་གི་	-10.1986
གྲོང་ཁྱེར་ཆེན་པོ	-10.1987
དངོས་པོ་མེད་པ་	-10.1988
མོར་	-10.199
ལོགས་སུ་	-10.1991
རབས་	-10.1993
ལས་ཅི་བགྱིས་ན་	-10.1995
ལྷགས་ནས་	-10.1995
སྐལ་	-10.1995
བ་ལྟ་ག་ལ་མཆིས་	-10.1995
འི་སྐབས་	-10.1997
འདི་ལོའི་ཕྱི་ཟླ་	-10.1999
▁བསོད་ནམས་	-10.2001
▁རྒྱ་གཞུང་གིས་	-10.2003
རྣམ་གཉིས་ཀྱིས་	-10.2003
ད་རེས་	-10.2005
དེ་མཐོང་ནས་	-10.2005
སློབ་ཕྲུག་གྲངས་	-10.2006
བསྐལ་པ་བཟང་པོ་	-10.2007
▁མ་ཕམ་པ་	-10.2007
བཙུགས་ནས་	-10.2009
▁སྡུག་བསྔལ་	-10.201
བར་བརྟེན་	-10.2014
ཅེས་བྱ་བ	-10.2018
བསྟན་ནས་	-10.2019
འཕྱ	-10.2022
རིན་	-10.2024
མཚོན་ན་	-10.2025
་དྭགས་པོ་བསོད་ནམ	-10.2029
ལངས་	-10.2031
ལྡན་པ་ཞིག་	-10.2032
སྟག་	-10.2034
ང་དེའི་	-10.2035
དོང་ངོ་་་	-10.2036
▁ལ་དྭགས་	-10.2039
སྔོན་དུ་	-10.2041
དུལ་བ་	-10.2042
འགན་འཛིན	-10.2042
རྣམས་ཀྱི་ནང་དུ་	-10.2043
ལམ་ལུགས་ནང་	-10.2048
པར་བྱེད་དེ་	-10.2051
ཡར་རྒྱས་ཐེབས་རྩ	-10.2051
ཕུལ་ཏེ་	-10.2052
ཁྱད་	-10.2054
ལྷ་དང་བཅས་པའི་	-10.2055
ནགས་ཁྲོད་	-10.2073
མགྲོན་འབོད་	-10.2075
འཚེ་བ་	-10.2076
ཐུབ་པ་ཞིག་	-10.2078
སྟབས	-10.2079
པར་ཡང་	-10.2081
འདི་རྣམས་	-10.2082
བཀའ་ཤག་ནས་	-10.2085
ཁྲིད་དེ་	-10.2086
ར་བྱའོ་	-10.2086
བླང་བ	-10.2088
བསྐྱེད་ནས་	-10.2091
ས་པ་	-10.2092
འི་རྒྱལ་པོ	-10.2102
ཕུལ་བ་	-10.2102
བཀྲ	-10.2104
དུ་ཡོད་པའི་	-10.2107
སངས་རྒྱས་རྣམས་	-10.2108
མ་ཡིན་པ་དང་་	-10.2108
ཚེ་དབང་	-10.2115
བསྐོ་གཞག་གནང་	-10.2117
སྨན་པའི་	-10.2124
ཀྱི་གྲོས་ཚོགས་	-10.2124
དགེ་སྦྱོང་དང་	-10.213
ལག་འཁྱེར་	-10.213
སྐྱེའོ་	-10.2132
་ཡིས་་	-10.2134
མཁན་དང་	-10.2135
སྐྱེའི་	-10.2135
བྱམས་པ་དང་བརྩེ་བ	-10.2138
བོད་ནང་དུ་	-10.2138
འཛིན་པའི་	-10.2142
ཕྱག་འཚལ་ནས་	-10.2144
ལ་ལ་ནི་	-10.2144
འཛུམ་	-10.2151
་ཡེ་ཤེས་	-10.2151
ི་བྱེ་མ་སྙེད་དག་	-10.2152
ཕན་པ་	-10.2153
ཕྲག་དོག་	-10.2158
▁སྔོན་གྱི་	-10.2161
རྩ	-10.2164
བྱས་་	-10.2167
དང་་བསམ་གཏན་གྱི་	-10.2169
ཁྱེད་ཅག་	-10.217
ཉེ་བར་ཞི་བ	-10.2174
ཡུམ་	-10.2177
དོན་དངོས་	-10.2179
མི་སྡུག་པ་	-10.2179
ལྷོ་ཨ་ཕི་རི་ཀའི་	-10.2181
མས་གང་གའི་ཀླུང་ག	-10.2182
གནས་སྟངས་དང་	-10.2186
དང་་རྣམ་པར་ཤེས་པ	-10.2187
ར་འགྱུར་བའི་	-10.2191
ཤོར་	-10.2191
བོད་རིགས་སྤྱི་	-10.2191
སྲིད་བྱུས་ལ་	-10.2191
ཇི་ཡོད་	-10.2193
རྣམས་ཀྱིས་མཆོད་	-10.2194
སྐམས་	-10.2197
མ་ཐོབ་	-10.2198
མི་དགེ་བ་	-10.22
ཚ་བ་	-10.221
གནང་དགོས་	-10.2213
ཕ་རན་སི་	-10.2213
པར་བྱའོ་	-10.2219
དང་མཉམ་དུ་	-10.2219
འབྱུང་པོ་	-10.222
ཁྱེར་	-10.2224
གསོན་	-10.2229
པ་ན་	-10.2237
རྒྱ་མི་	-10.2238
མི་ཐུབ	-10.2246
ལ་འཇུག་པ་	-10.2246
▁ཁ་ཅིག་	-10.2247
ཙམ་ཞིག་	-10.2249
ཕྱེ་མ་	-10.2251
འགན་འཛིན་རྣམ་པ	-10.2252
བོད་ནང་གི་ཛ་དྲག་	-10.2256
▁ད་དུང་	-10.2259
སྤྱི་ཡོངས་ཀྱི་	-10.2262
བབས་	-10.2263
སྤང་བ	-10.2265
ཧ་ལས་པའི་	-10.227
ཁྲིམས་ཡིག་	-10.2271
ནང་འཁོད་དོན	-10.2271
ལག་ལེན་	-10.2272
ཕྱིར་མི་ལྡོག་པ་	-10.2274
བ་བཏུད་ནས་	-10.2277
ཞུས་ནས་	-10.2277
པ་དེར་	-10.2278
གཟུགས་བཟང་ཞིང་	-10.2279
▁བུ་མོ་	-10.228
སྦེལ་ཇམ་	-10.2283
་མཆོག	-10.2284
གསུང་ཡོད	-10.2284
ཅང་	-10.2287
སྟོབས་དང་	-10.2287
ཁྲིམས་ཞིབ་ཁང་གི་	-10.2288
སྐྱེ་དགུ་	-10.2291
▁འོད་སྲུང་	-10.2292
བསྐོ་གཞག་	-10.2292
བསྙེན་	-10.2298
བཀའ་དྲིན་བསྐྱངས་	-10.23
སྔོན་ལ་	-10.2303
རྫ	-10.2304
དུས་ལ་བབ་	-10.2305
ཡན་	-10.2306
དེ་བཞིན་ཏེ་	-10.231
▁བཅོམ་ལྡན་འདས་ག	-10.2311
▁མཐའ་དོན་	-10.2311
ལྟར་མི་བལྟ་སྟེ	-10.2314
ནྡ	-10.2322
ལེགས་སོ་་	-10.2324
ལོ་་	-10.2327
སྲུང་བརྩི་ཞུས་	-10.2328
གོང་གསལ་	-10.233
ཁག་ཅིག་	-10.2333
སྨོན་པ་མེད་པ་	-10.2335
སྤངས་ནས་	-10.2337
བཅིངས་པ་	-10.2338
ཧར་	-10.2339
འི་ཐོག་	-10.2342
གྱུར་ནས་	-10.2343
རྒྱ་ནག་གིས་	-10.2344
ནང་པའི་ལྟ་གྲུབ་	-10.2347
ཉི་	-10.2347
འི་ཐོག་ནས་	-10.2347
དུད་འགྲོའི་སྐྱེ	-10.235
ཞི་བ	-10.235
ཐབས་སུ་	-10.2354
སྔོན་མ་	-10.2354
པ་ཡིན་ཏེ་	-10.236
དབང་པོའི་	-10.2361
ལམ་སྟོན་འོག་	-10.2363
དེ་དང་དེར་	-10.2363
འཚམས་གཟིགས་གནང་	-10.2365
དང་ལྡན་ན་	-10.2369
སྐ	-10.237
མཇུག་སྒྲིལ་	-10.237
ཕ་རོལ་གྱི་	-10.237
ལགས་བཅས་	-10.2371
དཀའ་ཐུབ་	-10.2375
འདི་ལོའི་	-10.2377
བརྟག་	-10.238
དྲིས་པ་	-10.2382
་བའི་རིགས་སུ་	-10.2387
ལ་མི་	-10.2391
བྱུང་སོང་	-10.2393
ལོང་	-10.2396
དུ་སྦྱར་རོ་་	-10.2399
བསམས་ནས་	-10.2401
བཞིན་ཡོད་པ་མ་ཟད	-10.2405
དགེ་བའི་རྩ་བ་རྣམ	-10.2407
ཞུས་པའི་	-10.2408
སྤྱིའི་	-10.2408
རྣམ་པ་ཐམས་ཅད་དུ་	-10.2408
ཚངས་པས་བྱིན་	-10.2409
ཆུ་སྲིན་	-10.2409
ཞུས་པ་ཡིན	-10.2412
ར་མི་བྱེད་དོ་་	-10.2412
མངོན་པར་འདུས་	-10.2415
འུ་	-10.2415
ཕྱི་རོལ་	-10.2415
ད་རྡུལ་དངོས་ཁམས་	-10.2416
བོད་བསྟན་སྲིད་	-10.2416
དག་གིས་སྨྲས་པ་	-10.2417
དེ་དང་རྐྱེན་དེ	-10.2418
བཅུ་གསུམ་	-10.2418
ཇི་སྲིད་	-10.2419
བཞིན	-10.2419
རྒྱ་དཀར་ནག་གཉིས་	-10.2423
དོན་དམ་	-10.2426
བོ	-10.2427
མ་ཡིན་་	-10.2427
མི་སེར་	-10.2429
ྭ་བརྒྱད་	-10.2429
སྤངས་ཏེ་	-10.2432
འབྱོར་པ་	-10.2433
བཅིངས་	-10.2434
རྐྱེན་གང་དག་གིས་	-10.2435
ར་བྱེད་དེ་	-10.2437
ཁག་གི་ནང་	-10.2437
རིགས་ལ་	-10.2437
དག་མངོན་པར་འདུས་	-10.244
གཞི	-10.2445
གངས་སྐྱིད་	-10.2446
བཟློག་	-10.2446
བརྒྱ་སྟོང་དུ་མ་	-10.2446
གཟིགས་ནས་	-10.2448
འོན་ཀྱང་	-10.2448
ཐུབ་ཐབས་	-10.2452
གོང་འཕེལ་གཏོང་	-10.2454
ཀུན་ཀྱང་	-10.2461
སྲེག་	-10.2463
གནད་འགག་	-10.2464
ན་ཚ	-10.2465
ཟེར་ནས་	-10.2465
བའི་དོན་དུ་སྔོན་	-10.2469
གང་དག་ཡིན་པ་	-10.247
ཨོ་གླིང་	-10.2471
▁སྲིད་པའི་	-10.2472
མཐོ་བ་	-10.2473
ཡངས་	-10.2474
ཐབས་ཀྱི་	-10.2474
གྲོས་འཆར་	-10.248
ལ་བསྙེན་བཀུར་	-10.2481
པའི་ཐོག་	-10.2484
གང་དང་གང་དུ་	-10.2486
ཉིད་ཀྱང་	-10.249
བོད་མི་རྣམས་ནས་	-10.2491
མཆོད་སྦྱིན་གྱི་	-10.2491
བྱ་བ་དང་་	-10.2493
སྔོན་ཆད་	-10.25
གུས་པ་	-10.2506
བསླབ་པའི་གཞི་	-10.2509
འོག་མའི་འཐུས་མི་	-10.2509
སྦྱིན་པ	-10.2512
གྱི་ཐོག་ནས་	-10.2512
གྲོས་ཚོགས་སུ་	-10.2516
ཞུགས་ཏེ་དེའི་ཚེ་	-10.2516
ཆེ་ཁག་	-10.2518
▁རྒྱལ་བའི་	-10.252
▁འདྲེན་པ་	-10.2521
ནང་པའི་ཆོས་	-10.2523
▁ཕྱི་དྲིལ་	-10.2525
ནི་རབ་ཏུ་	-10.2528
▁འཕགས་པའི་	-10.2532
འགྲིག་	-10.2532
ཚངས་པ་མཚུངས་	-10.2539
དྲི་ཟ་	-10.254
ལ་མངོན་པར་ཞེན་པ་	-10.254
སྐུ་མགྲོན་རྣམ་པ	-10.2542
ཡང་མ་ཡིན་ནོ་་	-10.2545
སྐྱིལ་མོ་ཀྲུང་	-10.2547
གསར་གཏོད་	-10.2547
་སིར་	-10.2548
གྱི་སྲིད་བྱུས་	-10.255
དང་ལྡན་པར་	-10.2551
སྐྱེ་བོའི་ཚོགས་	-10.2554
ར་གྱིས་ཤིག་	-10.2557
▁ངོས་ཀྱི་	-10.2563
བཞུད་	-10.2564
མཐོ་སློབ་ཀྱི་	-10.2565
ཡིད་གཉིས་	-10.257
ལ་བཟོད་པ་	-10.257
་སེམས་ཅན་ཐམས་ཅད་	-10.258
དུས་རྒྱུན་དུ་	-10.2581
བརྟན་ལྷིང་	-10.2587
སྟོང་པ་ཉིད་ལ་	-10.2589
དེ་སྐད་ཅེས་གསོལ་	-10.2589
འདོད་པ་རྣམས་ལ་	-10.2592
ཁ་ཏོན་	-10.2593
རྟེན་འབྱུང་	-10.2595
བགྱིད་པ་	-10.26
ཐེག་པ་ཆེན་པོ་ལ་	-10.2602
བཟུང་བ་	-10.2605
་འཛུགས་ཀྱིས་	-10.2605
འདུས་མ་བྱས་ཀྱི་	-10.2606
ཟག་པ་ཟད་པ་	-10.2607
དྲ་ལམ་བརྒྱུད་	-10.2608
མཆོག་གིས་དབུས་	-10.2611
ཚོན་	-10.2611
ཐམས་ཅད་དང་ལྡན་པ	-10.2615
ཞི་གནས་	-10.2616
འབད་བརྩོན་གནང་	-10.2621
སོ་སོས་	-10.2625
གསར་དུ་	-10.2625
ཡོ་བྱད་ཐམས་ཅད་	-10.2627
བ་དེ་	-10.2628
ཡུལ་དེའི་	-10.2629
ཚོགས	-10.2632
▁དེ་ལྟ་བས་ན་	-10.2633
དུ་གནས་སྤོས	-10.2633
འགོ་འཁྲིད་	-10.2634
གནས་སྟངས་ཤིག་	-10.2636
ཅེས་བྱ་བར་	-10.2636
དགེ་འདུན་ལ་	-10.2639
མགུ་བ	-10.2639
གྱུར་ཅིང་་་	-10.2639
▁དེ་སྔོན་	-10.2639
བགྱིའོ་་	-10.264
ཕྱིར་ཡང་	-10.264
ནས་ནི་་	-10.264
བཞོན་པ་	-10.2641
འཚམས་གཟིགས་	-10.2643
▁བོད་མི་ཚོས་	-10.2644
རྒྱལ་བ་རིན་པོ་ཆེ	-10.2648
ཀྱི་ཞིང་དེར་	-10.2649
ནི་འདི་ལྟ་སྟེ་	-10.2651
བསླབས་	-10.2652
ར་གྱུར་པའི་	-10.2654
▁མེ་ཏོག་	-10.2658
མཐའ་དག་	-10.2662
འཚོལ་	-10.2662
བརྗོད་ཀྱི་ཡོད	-10.2664
གཞོན་ནུའི་	-10.2673
མུ་ཏིག་	-10.2674
འཐོར་	-10.2676
ཀར་ན་ཊ་ཀ་མངའ་སྡེ	-10.2676
བརྒྱུད་ལམ་	-10.2684
སྐད་ཆ་བཤད་	-10.2684
མི་གནས་	-10.2685
ནང་ན་	-10.2688
འདུག་ཅེས་	-10.2688
གྲོང་སྡེའི་	-10.269
དྲུང་གཞོན་	-10.269
ར་གྱུར་	-10.2697
ཡི་རངས་ཏེ་	-10.2698
བྱས་ཀྱང་	-10.27
་ཀྱི་རྩ་ཁྲིམས་	-10.2705
འདོད་ཆགས་ཀྱི་	-10.2708
བསྡམས་	-10.2708
འཕྲལ་དུ་	-10.2708
ལྷས་	-10.2714
ལ་མཚན་དང་་བ་དན་	-10.2716
འགགས་	-10.2716
ཅུང་ཟད་ཀྱང་	-10.2716
གོ་མཚོན་	-10.2717
སྤོང་	-10.2719
རྔ	-10.2722
ཞིག་ཡིན་པ་	-10.2723
སྦྱང་	-10.2728
ཕྱག་འཚལ་	-10.2728
གསོ་བ་རིག་པའི་	-10.2729
ཞ	-10.2734
སའི་ཁམས་	-10.2736
མ་འོངས་པ་	-10.2736
གནང་འདུགདེ་ཡང་	-10.2737
▁ཉན་ཐོས་	-10.274
འོག	-10.2742
བསྐལ་པ་གྲངས་མེད་	-10.2743
་བྱམས་པ་	-10.2744
ཆེ་མཐོང་	-10.2749
འོད་ཀྱི་	-10.2751
གཅིག་ནི་	-10.2753
འདུགསྤྱིར་	-10.2753
བདུད་ཀྱི་	-10.276
སླེབས་ཡོད	-10.2761
འགྲེལ་བཤད་རྒྱག་	-10.2764
སྨ	-10.2765
འབོད་སྐུལ་ཞུས་	-10.2765
དམན་	-10.2766
དུ་བྱུང་སྟེ	-10.2767
རྒྱ་ནག་ཝུ་ཧན་	-10.2767
གཟའ་མིག་དམར་ཉིན་	-10.2771
ཉོན་མོངས་པ་མེད་པ	-10.2773
དེ་བདག་གིས་	-10.2775
དག་ན་	-10.2777
སེམས་ཅན་དམྱལ་བ	-10.2783
▁ཡོན་ཏན་	-10.2788
རྩོད་རྙོག་	-10.2788
ཆེད་ལས་	-10.2793
དེ་དག་གིས་ཀྱང་	-10.2795
གང་འདྲ་ཞིག་	-10.2797
མུ་སྟེགས་ཅན་	-10.2802
▁ཨིན་ཡུལ་	-10.2806
བཞེད་	-10.2809
དཔེར་ན	-10.2816
ཚོགས་ཁང་	-10.2816
མང་ཆེ་བ་	-10.2818
གང་བ་	-10.2825
གནང་རྒྱུ་ཡིན་	-10.2825
དེ་ཉིད་ཀྱིས་	-10.2831
བ་ལྟར་	-10.2831
རྒྱུ་བ་	-10.2834
དྲག་པོའི་	-10.2835
ཆོས་ཚོགས་	-10.2835
སྐར་མའི་རྒྱལ་པོ་	-10.2835
དཔལ་ཞེས་བྱ་བ་	-10.2837
རིག་སྔགས་	-10.2841
འོངས་པ་	-10.2841
མིའམ་ཅིའི་	-10.2842
རྒྱལ་པོའི་ཁབ་ཏུ་	-10.2842
ཐོགས་ནས་	-10.2842
གཞི་རིམ་	-10.2844
བགྱི་བ་	-10.2845
་མི་མཉེས་པར་མ་བ	-10.2848
ལྷ་དང་མི་དང་ལྷ་མ	-10.2849
རྒྱལ་སྤྱིའི་ནང་	-10.2852
བསྐྱེད་དོ་་	-10.2863
ཟབ་པ་	-10.2863
ཆེ་ཞིང་	-10.2868
གླང་པོ་ཆེ་	-10.287
རྣམས་ཀྱིས་ཀྱང་	-10.2873
འཁོར་དང་བཅས་པ་	-10.2873
▁དེ་ནས་དེས་	-10.2874
རྒྱབ་སྐྱོར་དང་	-10.2879
ཐུབ་ཚེ་	-10.2881
ངེས་པ	-10.2883
བྱང་ཆུབ་སེམས་	-10.2883
འདམ་	-10.2887
ཐར་པ་	-10.2889
རྒྱ་ཆེ་བ་	-10.2891
འདུག་པ་དང་	-10.2899
བའི་ཐོག་ནས་	-10.2901
བླང་	-10.2901
རྗེ་བཙུན་	-10.2904
ར་བྱ་བ་	-10.2906
གཟུགས་ཀྱིས་	-10.2907
སྤྲུལ་སྐུ་	-10.291
མི་མཇེད་ཀྱི་	-10.291
▁མཁས་པ་	-10.291
འི་སྦྱིན་པ་	-10.2911
རྩེད་འགྲན་	-10.2913
ལྗོངས་	-10.2916
འཚོ་བར་	-10.2918
ཡིན་མིན་	-10.292
ཐུགས་རྗེའི་	-10.2922
ས་གནས་འཐུས་ཚོགས་	-10.2923
འི་དབྱངས་ཀྱིས་	-10.2926
གསོས་	-10.293
ལགས་ཀྱིས་གཙོས་	-10.2931
རྒྱའི་	-10.2933
ཁྲིམས་ཀྱི་	-10.2939
བར་བྱེད་དོ་་	-10.294
▁བདག་ཉིད་	-10.294
གླུ་	-10.2943
འི་ངོ་བོ་ཉིད་	-10.2944
▁སློབ་ཕྲུག་	-10.2946
དབང་སྒྱུར་འོག་	-10.2947
མིན་པའི་	-10.2949
མིན་་	-10.2951
ཕུལ་ཡོད	-10.2953
▁རང་གི་	-10.2953
ཉན་ཐོས་དང་་	-10.2955
ིར་	-10.2958
▁དེ་ལ་འདི་སྐད་	-10.2959
བོད་དོན་སྐོར་	-10.2966
དཀའ་ངལ་དེ་དག་	-10.2968
ས་སོ་་	-10.297
སྟོང་པ་ཉིད་ཀྱི་	-10.2972
ཐབས་བྱེད་བཞིན་	-10.2976
གནས་ཤིང་	-10.298
ཁྱིམ་མཚེས་	-10.2981
གཟོད་མ་ནས་	-10.2982
ཆིབས་བསྒྱུར་	-10.2982
མཉམ་པ་	-10.2983
ངོ་མ་	-10.2985
ཡངས་པ་	-10.2987
རླབས་ཆེན་	-10.2997
དུས་དུས་སུ་	-10.3001
ཐོས་སོ་་	-10.3002
གཅིག་ཀྱང་	-10.3005
གཤེགས་ནས་	-10.3006
རྣམས་ཀྱི་དོན་	-10.3006
སྒྱུ་མའི་	-10.3008
རྒྱ་ཡིག་	-10.3009
པ་རྣམས་ཡིན་ནོ་	-10.3009
▁སྟོན་པ་	-10.3009
བྱས་ཏེ	-10.3013
ཆེན་མོའི་	-10.3014
ཚད་ལྡན་	-10.3016
གོང་གི་	-10.3017
དེ་དེ་བཞིན་ནོ་་	-10.3017
ཁྲི་ཕྲག་	-10.3023
ཀྱི་ངོ་བོ་ཉིད་	-10.3026
དམར་པོ་	-10.3026
དངོས་པོ་མེད་པར་	-10.3028
བཅས་ཀྱིས་	-10.3029
ཁྱེད་རང་ཚོ་	-10.3031
གསུམ་བཅུའི་	-10.3034
བདག་ཉིད་ཀྱིས་	-10.3035
རྣམ་པར་མི་རྟོག་	-10.3043
གནོན་ཤུགས་	-10.3045
བྱེད་སྒོ་	-10.3048
འཇིག་པ་	-10.305
སྤུན་	-10.3051
མི་ནུས་སོ་་	-10.3052
དགོས་པའི་རེ་འདུན	-10.3054
མཐར་ཕྱིན་	-10.3055
མུ་མཐུད་གནས་	-10.3056
རེར་	-10.3062
ཆུ་ཀླུང་	-10.3065
འགྲེམས་སྟོན་ཁང་	-10.3065
ཤེས་པའི་ཁམས་དང་་	-10.3067
མཇལ་འཕྲད་ཀྱིས་	-10.3068
སྟོང་ཕྲག་མང་པོ་	-10.3068
བསྒྲགས་གཏམ་	-10.3072
སུམ་ཅུ་རྩ་གསུམ་	-10.3073
▁དེ་ལས་	-10.3075
དེ་ལ་ནི་	-10.3075
རྒྱ་གར་གཞུང་མང་	-10.3076
་ཆོས་བཞི་དང་ལྡན་	-10.3082
ཡིན་སྐོར་	-10.3085
ཚོ	-10.3087
▁ས	-10.309
བྱེད་དགོས་པ་དང་	-10.309
རེ་འདུན་	-10.3094
▁འདི་དག་ནི་	-10.3095
ཁྲོ་བ	-10.3095
རྒྱ་འབྲེལ་མོལ་	-10.3095
མང་ཚོགས་ནས་	-10.3099
ཕུན་སུམ་ཚོགས་པ	-10.3099
བཙས་	-10.31
སེམས་ཅན་དམྱལ་བར་	-10.3101
སྤོབས་	-10.3101
བཅོམ་ལྡན་འདས་ག	-10.3105
་རྣམས་ཀྱིས་	-10.3112
ཁང་གིས་	-10.3113
འོང་	-10.3114
འཛམ་བུ་གླིང་	-10.3114
ཞེས་བྱ་སྟེ་	-10.3115
ཐེར་འབུམ་བདུན་	-10.3116
རང་བཙན་	-10.312
བཀའ་འགྱུར་	-10.3122
མཚན་མ་མེད་པ་	-10.3122
སྒོའོ་་	-10.3129
འི་ལམ་	-10.3129
ཤོག	-10.3129
▁གཟའ་ཟླ་བ	-10.3131
མི་འདོད་	-10.3134
ལྷའི་བུས་སྨྲས་པ་	-10.3135
ཨ་རིར་	-10.3136
རབ་ཏུ་དབྱུང་བ	-10.3139
སྐབས་འདིར་	-10.3139
སྨོན་ལམ་བཏབ་སྟེ་	-10.3142
དགོངས་དོན་	-10.3143
སྤྲོ་བ་	-10.3143
གཏན་འཁེལ་ཡོད	-10.3145
སོ་ནམ་	-10.3145
ལས་ཕྱིར་མི་ལྡོག་	-10.3149
ཆེད་ཕེབས་ཀྱིས་	-10.3149
ཞིག་བྱུང་ངོ་་་	-10.3151
བདེན་པ་མཐོང་ནས་	-10.3157
ཚོགས་གཙོ་མཁན་པོ་	-10.3158
གནམ་ཐང་དུ་	-10.3162
ལན་གསུམ་བསྐོར་བ་	-10.3164
བལྟ་ན་སྡུག་ལ་	-10.3166
▁ཁོང་གི་	-10.3169
བཞིན་ཡོད་པ་ལྟར	-10.317
ཉེ་བའི་	-10.3171
ལོ་རྒྱུས་ཐོག་ནས་	-10.3171
པོ་དང་་	-10.3172
བོད་གཞུང་	-10.3172
གྷོ་	-10.3174
ལ་སྤྱོད་པ་ན་	-10.3177
བདེ་ལེགས་	-10.3178
▁ལམ་	-10.3179
སྒྲིབ་པ་	-10.3182
ནང་པ་སངས་རྒྱས་པ	-10.3184
ཀྱིས་དེ་སྐད་ཅེས་	-10.3185
▁དེ་ལྟ་བུའི་	-10.3187
དབུས་གཞུང་གི་	-10.3189
མ་འོངས་པའི་དུས་ན	-10.3195
སྨོན་ལམ་རྒྱག་	-10.3196
མྱོང་བ་	-10.3197
ཤས་	-10.32
ཉེན་ཁ་	-10.3207
སྤྱི་འཐུས་རྣམ་པ	-10.3208
ཚེ་རིང་ལགས་	-10.3217
སྐར་	-10.3218
▁དེས་ནི་	-10.3222
ཕི	-10.3222
ལོག་པར་ལྟ་བ་	-10.3222
འབྲི་	-10.3223
ཞག་བདུན་	-10.323
ཚིག་བླ་དགས་སམ་	-10.3231
འབྱུང་ངོ་་་	-10.3233
འདིའི་ཐོག་	-10.3234
གནང་རོགས་ཞེས་	-10.3234
གཞིས་བཞུགས་	-10.3236
ལས་ཁུངས་ཀྱིས་	-10.3236
འི་སངས་རྒྱས་འོད་	-10.3236
ཞུས་འདུག	-10.3239
པེ་ཅིང་	-10.3241
ལྷག་མཐོང་	-10.3242
སྐྱེ་བ་དང་་	-10.3243
ཕྱིར་ལོག་	-10.3245
འདྲ	-10.3245
བ་ལང་	-10.3248
ཚོགས་ཆུང་ནས་	-10.3249
ིག་	-10.3249
མས་གྲངས་མེད་པ་	-10.3251
གནང་དགོས་པ་	-10.3251
གསལ་བསྒྲགས་སྤེལ་	-10.3254
རབ་གནས་	-10.3257
སྣེ་ལེན་	-10.326
ཅི་འདྲ་	-10.3262
བྱ་རྒྱུ་དང་	-10.3262
གནང་དང་གནང་མུས་	-10.3263
་གང་ཞེ་ན་	-10.3265
སྡིག་	-10.3266
དེ་རྣམས་	-10.3274
ངལ་རྩོལ་	-10.3274
ཕྱི་ནས་	-10.3275
པར་བྱ་་	-10.3276
འགོག་པ་ཤེས་པ་	-10.3276
▁ཁོར་ཡུག་	-10.3276
གྱིས་སྨྲས་པ་	-10.3276
ཝི་	-10.3281
ལས་བྱེད	-10.3285
གླང་	-10.3287
བྱ་བར་	-10.3288
ཁྱོན་དུ་	-10.329
གྲྭ་པ་	-10.3291
གྲུབ་རྗེས་	-10.3292
འགྱུར་བར་	-10.3294
ཕུལ་ལོ་་	-10.3298
ཤེས་པ་ཡང་དག་པར་འ	-10.33
མྱུ་གུ་	-10.3301
སེམས་ནི་	-10.3304
བགོས་	-10.3307
ཕྱོགས་ཀྱི་ཆོས་	-10.3309
སེར་	-10.331
སྒྲོལ་	-10.3313
ཁྲིམས་མཐུན་	-10.3317
འགྲོའོ་་	-10.3318
རླུང་གི་	-10.3321
ཚབ་	-10.3323
གནས་སྐབས་	-10.3325
བྱུང་འདུག	-10.3327
་ལགས	-10.3328
རེ་སྐུལ་	-10.3331
སྐམ་	-10.3331
ལྔ་བརྒྱ་པོ་	-10.3333
ཐུག་འཕྲད་ཀྱིས་	-10.3333
བྱེད་པས་	-10.3335
གཅིག་ལ	-10.3335
ལབ་	-10.3335
ུ	-10.3338
་ལགས་	-10.3342
བཞིན་ཡོད་ཀྱང་	-10.3344
གསུམ་དང་	-10.3345
བདག་གིས་ཐོས་པ	-10.3347
གཡུང་དྲུང་བོན་	-10.335
སྤོས་ཀྱི་	-10.3354
▁སྦྱིན་པའི་	-10.3356
འཐོབ་་	-10.3358
བསྔགས་བརྗོད་དང་	-10.3359
མང་པོ་ཞིག་ལ་	-10.3364
▁སྦྱིན་པ་	-10.3366
▁རབ་འབྱོར་འདི་ལ་	-10.337
བྲིས་	-10.3379
སོས་	-10.338
རྒྱལ་པོ་ཞེས་བྱ་བ	-10.3384
ས་ཡོངས་སུ་	-10.3386
ཞུམ་	-10.3386
མངའ་སྡེའི་ནང་	-10.3387
པར་བགྱིའོ་་	-10.3387
ཆིག་སྒྲིལ་	-10.3389
བར་འགྱུར་རོ་	-10.3391
རྟག་པ་	-10.3393
བརྒྱབ་ནས་	-10.3394
ཁ་བ་	-10.3397
▁རང་	-10.3397
ཚོགས་དུས་	-10.3398
ཡོད་དམ་	-10.3402
▁དོན་དམ་པར་ན་	-10.3403
མི་བཟད་	-10.3404
སློབ་ཕྲུག་ཚོས་	-10.3406
ཏུ་ལུང་བསྟན་ཏོ་	-10.3407
གཏུགས་	-10.3408
སེམས་ཅན་དག་	-10.341
རིའི་རྒྱལ་པོ་	-10.341
རྒྱ་མཚོ་ཆེན་པོ	-10.341
▁ཡི་གེ་	-10.3411
གྱུར་པའི་	-10.3412
འབྲུ་	-10.3413
ལ་བརྟེན་པའི་	-10.3414
བྱེ་	-10.3415
དཔལ་ལྡན་བོད་མི་	-10.3418
ཕྱོགས་གཅིག་ནས་	-10.342
ན་ལེན	-10.342
ཞན་	-10.3421
སློབ་གྲྭའི་ནང་	-10.3423
ནམ་མཁའ	-10.3424
བསམ་ཡས་	-10.3426
རྫུ་འཕྲུལ་གྱིས་	-10.3429
▁སྟོང་གསུམ་གྱི་	-10.3433
གཙུག་ལག་ཁང་གི་	-10.3433
གཙང་མ་	-10.3435
རི་བོ་	-10.3436
མཉེས་པར་མ་བྱས་ལ་	-10.3437
འཆི་ཀར་	-10.3437
སྨོས་	-10.3438
ཕྱི་དངོས་པོའི་	-10.3438
ཐ་མ་	-10.3438
གླེང་	-10.3441
▁མིག་	-10.3441
སེམས་ཅན་གྱི་	-10.3441
ཆགས་ཀྱི་འདུག	-10.3442
བཞག་གོ་་	-10.3442
དེའི་དུས་	-10.3443
འཛམ་གླིང་ནང་གི་	-10.3443
གཏོང་མཁན་	-10.3447
འཐུས་མི་དང་	-10.3448
གཏོང་དགོས	-10.3449
གདོང་ལེན་བྱེད་	-10.345
སྟོབས་དང་ལྡན་པ་	-10.3451
ཞིང་རྣམས་	-10.3453
་སྐོར་སོགས་གསུངས	-10.3454
ཕེབས་ཏེ་	-10.3457
མགོ་བོས་ཕྱག་འཚལ་	-10.3457
མཐོང་ངམ་	-10.3461
རབ་ཏུ་བྱུང་ངོ་་་	-10.3465
འདྲ་་	-10.3466
རྣམ་པར་དག་པས་	-10.3468
གི་ཡོད	-10.3468
ེད་	-10.3475
མཉན་དུ་ཡོད་པ་ན་	-10.3476
པའི་ཡིད་སྐྱོའི་	-10.3477
གསོལ་བ་	-10.3478
་སྐོར་སོགས་ཀྱི་	-10.3479
དགོན་སྡེ་ཁག་	-10.3484
ཞི	-10.3486
དགོས་ཞེས་	-10.3488
ན་སེམས་ཅན་	-10.3489
བཤིག་	-10.3489
ཐུགས་འགན་བཞེས་	-10.3491
བཙན་དབང་འོག་	-10.3491
ཀུ	-10.3492
▁མི་མང་	-10.3493
མཉེས་	-10.3494
འདུ་ཤེས་མེད་	-10.3496
ཀྱེ་མ་	-10.3496
དེ་ཙམ་དུ་	-10.35
ནོན་	-10.3502
ལ་ལྟོས་	-10.3502
དོད་	-10.3505
སྐུ་ཚབ་རྣམ་པ	-10.3507
བདག་ཅག་ལ་	-10.3507
དུ་གྱུར་	-10.351
ལག་ན་	-10.3513
ཕན་ཐོགས་ཆེན་པོ་	-10.3515
ས་ཉོན་མོངས་པ	-10.3517
ཤ་སྟག་རེད	-10.352
བྱས་པ	-10.3523
མཆོག་ཕྱི་ལོ་	-10.3525
འགལ་	-10.3533
ལས་རིགས་	-10.3534
བསྩལ་	-10.3535
མཚོན་པའི་	-10.3536
པའི་སེམས་	-10.3536
ཁུང་	-10.3537
བཏང་བ་དང་	-10.3538
སོག་པོའི་	-10.3539
མི་དམངས་	-10.354
སྲིད་བཀའ་བློན་	-10.3542
ཡི་གེ་དྲུག་པ	-10.3545
་ལྟ་སྟེ་དཔེར་ན་	-10.3547
དམ་པ་ཁོང་	-10.3547
ཞུ་རྒྱུར	-10.3547
ཕོ་མོ་	-10.3547
སོར་	-10.3549
བདུན་གྱི་	-10.355
ཆབ་	-10.3551
ནས་བཟུང་སྟེ་	-10.356
རྒྱུ་ནི་	-10.3568
དེའི་འོག་ཏུ་	-10.3569
སྔོན་པོ་	-10.3572
འཕགས་བོད་གཉིས་	-10.3572
བལྟས་ནས་	-10.3575
ཞུས་པར་	-10.3575
ལ་ཐུགས་རྗེ་ཆེ་ཞུ	-10.3577
ར་གྱུར་ནས་	-10.3577
▁མགོན་པོ་	-10.3578
བར་འགྱུར་་	-10.3581
མི་དེ་	-10.3581
ཕེབས་བསུའི་	-10.3583
རིགས་ལམ་	-10.3584
སྦེལ་ཀོབ་	-10.3586
ཆབ་སྲིད་བཙོན་ཟུར	-10.3592
འདེམས་སྒྲུག་	-10.3592
▁བྱིས་པ་	-10.3592
འོངས་ནས་	-10.3593
ཁྱད་པར་ཅན་	-10.3593
སྒྲ་དང་་དྲི་དང་	-10.3594
ཇི་ལྟར་སྔོན་ནས་	-10.3597
གཅིག་གི་སྟོབས་	-10.3598
ཆེས་ཐོག་མ་	-10.3602
ཤིང་གི་	-10.3603
ཧི	-10.3608
དགེ་འདུན་གྱིས་	-10.3609
ཉེས་པར་སྤྱོད་པ	-10.361
ཁམས་ཤེས་པ་	-10.3615
མཚོན་ཆ་	-10.3621
རིས་ཀྱི་ལྷའི་བུ་	-10.3622
པ་དེས་	-10.3626
ཐང་སྲུང་སྐྱོབ་	-10.3626
སྐྱེ་བར་	-10.3627
ན་གནས་པའི་	-10.3627
ན་རེ་	-10.3629
སྡུག་པ་	-10.3629
སྦྱིན་པ་སྦྱིན་	-10.3631
བཅུ་དྲུག་པའི་	-10.3632
ཇི་ལྟ་བུ་	-10.3634
ལུས་ནི་	-10.3636
མཐོང་ལགས་སོ་་	-10.3638
མཛད་ཡོད	-10.3639
གོན་ཏ་ལའི་བླ་མ་	-10.3645
ཐུན་མོང་	-10.3646
▁དེ་ལ་བརྟེན་ནས་	-10.3646
▁བྱང་ཆུབ་ཀྱི་	-10.365
དགོས་ཀྱི་འདུག	-10.3653
བར་སྣང་	-10.3653
ཞི་གནས་དང་	-10.3654
ངེས་སྟོན་པ་	-10.3656
གྱི	-10.3656
མྱོང་བ	-10.366
དོན་དམ་པའི་	-10.3663
མཛད་པ་་	-10.3664
གྲངས་མེད་པ་	-10.3666
ཤེས་པ་འགོག་པ	-10.3669
ངར་	-10.367
ནི་གང་	-10.367
བཏང་བའི་	-10.367
སྲིད་གཞུང་གི་	-10.3671
གྲུ	-10.3673
བྱིན་ནས་	-10.3674
ལོན་པ་	-10.3674
་བའི་	-10.3674
སྐྱེལ་	-10.3675
དགའ་སྤོབས་	-10.3675
ཀུན་ཏུ་རྒྱས་པ་	-10.3675
མངོན་སུམ་	-10.3681
ཚོགས་འདུ་ཚོགས་	-10.3686
ཁྱད་ཆོས་	-10.3687
བསྒོམ་པ་	-10.369
སུན་	-10.3693
ཕྱེད་ཡོལ་ཆུ་ཚོད་	-10.3695
འདི་སྐད་	-10.3695
ནས་ད་བར་	-10.3696
ནས་མཆེད་པའི་	-10.37
ཐ་དད་	-10.37
ལྷ་མ་ཡིན་གྱི་	-10.3701
འགྲོ་བ	-10.3703
དབུ་འབྱེད་ཀྱི་	-10.3708
ཅེ	-10.3709
པ་ཞེས་བྱའོ་་	-10.371
བོད་མི་ཚོ་	-10.371
བདག་ཅག་ནི་	-10.3714
འཁྲུགས་	-10.3715
འི་གཞིས་ཆགས་ཁག་	-10.3717
དམ་ཚིག་	-10.3718
ལ་གནས་ཏེ་	-10.3718
པང་ནས་སྐྱེས་	-10.3721
བསྟན་འགྱུར་	-10.3725
་ཇི་ལྟར་	-10.3728
ཐལ་མོ་སྦྱར་ནས་	-10.3729
ཅི་ནས་	-10.3731
་དང་་ཡང་དག་པར་	-10.3732
▁ང་ཚོར་	-10.3737
བགྱི་	-10.3737
བཏུད་	-10.3738
གཡར་	-10.3738
རྡོག་རོལ་བཏང་	-10.374
བར་གྱི་བསྐལ་པ་	-10.3741
མི་རྟག་པ་	-10.3742
ཚན་རིག་དང་	-10.3744
ཅིག་ཅེས་	-10.3745
ལྷགས་	-10.3747
ས་བསྐྱེད་བསྲིངས་	-10.3747
སྲིད	-10.3748
དག་པ་	-10.3749
གཡུང་དྲུང་	-10.375
ཤི་ནས་	-10.3752
ཀི	-10.3758
སྡོང་པོ་	-10.3762
ཤར་ཏུར་ཀི་སི་ཐན་	-10.3763
ཐུབ་རྒྱུ་རེད	-10.3763
བར་མ་	-10.3764
ཞེས་པ་དེ་	-10.3765
དང་་དྲི་ཟ་དང་་	-10.3766
འཚམས་	-10.3766
བརྩོན་འགྲུས་བརྩམ	-10.3769
ལྷ་ཁང་	-10.377
རང་གི་མཚན་ཉིད་	-10.3771
འཆམ་མཐུན་	-10.3775
ཚིག་གིས་	-10.3776
འོ་ན་	-10.3779
ཕས་	-10.378
འི་མིང་	-10.3781
གླུ་དབྱངས་	-10.3784
ར་འཚང་རྒྱ་བར་	-10.3787
དང་་ནམ་མཁའ་ལྡིང་	-10.379
དེའི་ནང་དུ་	-10.3793
རྣམས་ལ་ཡང་	-10.3794
བླ་མའི་	-10.3794
ལྟུང་བ་	-10.3795
པར་བྱ་བ་	-10.3796
ཞུས་པ་དང་	-10.3797
འདི་ཉིད་དུ་	-10.38
ཀྱི་ཡོད་པ་རེད	-10.38
པའི་སེམས་ཅན་	-10.3802
ཕུགས་	-10.3804
▁རྒྱལ་པོའི་	-10.3804
རྩེ་མོ་	-10.3805
ཞབས་ལ་མགོ་བོས་	-10.3806
དེ་དང་དེ་དག་	-10.3807
ཐུགས་སྣང་	-10.3809
གདུག་རྩུབ་	-10.3812
བསྡོམས་	-10.3813
འཇུག་གོ་་	-10.3817
མཆོག་དགུང་གྲངས་	-10.3819
སོམ་ཉི་	-10.382
རྣམ་འདྲེན་	-10.3821
དེ་མཚུངས་	-10.3823
གོང་སྤེལ་	-10.3825
དང་ལྡན་པ་ཡིན་	-10.3828
དགོད་	-10.3828
གཞུང་ཞབས་	-10.3831
སྒོ	-10.3833
པ་དེ་ནི་	-10.3834
བར་བྱའོ་་	-10.3837
ཧ་ཅང་ཡག་པོ་རེད	-10.3838
དགེ་རྒན་དང་	-10.384
མི་སྣང་བར་གྱུར་	-10.3843
བཀའ་དྲིན་སྩལ་	-10.3843
ཁོ	-10.3845
རྣམ་པར་སྨིན་པ	-10.3851
ཚུལ་དང་	-10.3852
ཐམས་ཅད་ནི་	-10.3857
ནས་ཡིན་པའི་	-10.3858
སྡིག་པའི་གྲོགས་	-10.3861
འི་སྒོ་ནས་	-10.3863
▁སྔགས་	-10.3864
ལམ་དུ་	-10.3865
ལན་འདེབས་གནང་	-10.3867
གསུངས་ཡོད	-10.3868
▁རྣམ་པར་	-10.387
འདབ་	-10.3873
ར་མི་འགྱུར་ཏེ་	-10.3874
ཀྲ	-10.3877
གུང་	-10.3878
མ་དངུལ་	-10.3879
་རྟག་ཏུ་	-10.3881
ཐུགས་རྗེ་ཆེ་ཞེས་	-10.3886
རྣམ་པ་ཚོ་	-10.3887
་དང་ལྡན་པ་	-10.3888
ཁམས་ཀྱི་	-10.3888
སྒྲིལ་	-10.3888
ལག་བསྟར་གནང་	-10.3892
▁དེ་དག་ཐམས་ཅད་	-10.3894
ཆོག་མཆན་	-10.3899
ངོས་ལེན་	-10.3899
▁ཐ་ན་	-10.39
ལྟ	-10.3904
མགུལ་	-10.3911
ནོ་སྦེལ་	-10.3912
བཀོལ་སྤྱོད་	-10.3913
མཉེས་པར་བགྱིས་ཏེ	-10.3913
རྩོམ་སྒྲིག་པ་	-10.3913
སྤང་	-10.3913
རྣམ་ཐར་	-10.3916
སྐུ་ཚེ་	-10.3923
རབ་ཏུ་ཕྱུང་སྟེ་	-10.3925
གནད་འགག་ཆེན་པོ་	-10.3928
མི་བྱེད་པ་	-10.3929
རིག་བྱེད་	-10.393
འི་དབྱིངས་སུ་	-10.3931
སྦྱིན་སྲེག་	-10.3933
ུད་	-10.3937
ཝི	-10.3938
ལྟར་ན	-10.3939
་ཊི་	-10.3939
ལྟ་བའི་	-10.394
གྱུར་ནས་་	-10.3942
ཚོས་ཀྱང་	-10.3942
ཕྱི་ལུགས་ལྟར་	-10.3943
ཕེབས་པ་	-10.3945
ཨིན་ཡིག་	-10.3946
བསྐྱར་དུ་	-10.3947
ཉིན་མོར་	-10.395
▁ཁ་སང་	-10.3952
མ་ཐུབ་	-10.3953
གནོད་པ་དང་ལྡན་	-10.3955
པའི་རྐྱེན་གྱིས་	-10.3956
ཝེ	-10.3957
བྱས་ཏེ་་	-10.3958
བཅུའི་སྟོབས་	-10.3961
གཟུང་བའམ་	-10.3962
གསུང་བཤད་དང་	-10.3966
▁གཟའ་ལྷག་པ	-10.3966
ལ་རབ་ཏུ་	-10.3967
བཟང་པོའི་	-10.3972
བྱེད་པ་དང་	-10.3974
རྒྱུགས་	-10.3974
ལྷར་བཅས་	-10.3974
གཞོན་པ་	-10.3976
རིམས་ནད་	-10.3976
པ་དང་་་	-10.3978
མཐོང་བར་	-10.3983
དགའ་ལྡན་ཁྲི་	-10.3985
མ་བྱུང་བ་	-10.3986
▁དེའི་ནང་ནས་	-10.3992
བྱེད་ཀྱི་འདུག	-10.3997
བཞིན་ཡོད་སྐོར་	-10.3998
▁སྐུ་ཞབས་	-10.4
འོས་བསྡུ་ཆེན་མོ	-10.4003
རྩ་བ་ཉིད་ནས་	-10.4003
བརྩོན་འགྲུས་རྩོམ	-10.4003
བཏུལ་	-10.4005
གཞིས་མི་	-10.4007
གསུམ་གྱིས་	-10.4009
གནང་བ་དང་སྦྲགས	-10.401
སེམས་ཅན་རྣམས་ཀྱི	-10.401
འཇོག་ཁང་དུ་	-10.4011
གཏིང་	-10.4015
ཁྱིམ་བདག་གཞན་ཡང་	-10.4017
སོ་སོར་རྟོག་པ	-10.4019
ཁྱེད་ཀྱི་	-10.4021
དང་འབྲེལ	-10.4021
ཅི་ཡོད་	-10.4024
སྒྲ་སྐད་	-10.4024
འཁྱོག་བཤད་	-10.4028
▁ཁྱེའུ་	-10.4031
▁བསམ་གཏན་	-10.4034
འོ་མ་	-10.4036
ཅེག་	-10.4043
པས་་	-10.4045
བྱམས་པ་ཆེན་པོ་	-10.4046
བྲམ་ཟེ	-10.4046
ཡི་ནི་	-10.4046
ཞེས་ཟེར་	-10.4049
འབྱོར་བ་	-10.405
གང་སར་	-10.4052
སྐོར་སོགས་	-10.4052
གི་དངོས་པོ	-10.4054
རྗེས་སུ་ཡི་རང་	-10.4055
འབྲེལ་མོལ་	-10.4057
འཇམ་དབྱངས་	-10.4058
ས་ཕྱོགས་	-10.4059
དེ་ལ་བརྟེན་ནས་	-10.406
ཡོད་ཚེ་	-10.4062
ལག་བསྟར་བྱས་	-10.4067
ར་མི་བྱའོ་་	-10.4071
དོན་ཡོད་	-10.4073
ར་མི་བྱེད་	-10.4073
ྐྱེ་དགུའི་ཚེ་ལོ་	-10.4076
▁ཡང་སྒོས་	-10.4076
ཀུན་ཤེས་སོ་ཞེས་	-10.4076
ཁོ་བོའི་	-10.4077
ཤིན་ཏུ་མཉམ་པ་དང་	-10.4077
ཞི་བདེ་བག་ཕེབས་	-10.408
གནས་སྟངས་ཐོག་	-10.4082
གངས་ལྗོངས་	-10.4084
བརྟན་པོ་	-10.4086
གཡོ་བ་	-10.4087
རིག་པ་ཐོབ་པ་	-10.4087
འཇིགས་ཤིང་སྐྲག་	-10.409
ཁྲོམ་སྐོར་	-10.409
བར་དུ་སྔ་མ་བཞིན་	-10.4092
མཇལ་འཕྲད་གནང་	-10.4096
འདོང་	-10.4097
ཐག་རིང་པོ་ཞིག་	-10.4097
དམ་བཅའ་	-10.4097
བདེ་བ་དང་་	-10.4099
རྣམ་གྲངས་དེས་ན་	-10.4101
སྦྱོར་སྤྲོད་	-10.4102
ལྷན་	-10.4102
▁འདི་སྐད་	-10.4105
ཁོ་ནས་	-10.4113
དོ	-10.4114
ཆུང་ཆུང་	-10.4115
་དང་་གསལ་བ་དང་་	-10.4116
འབྱོར་ཞབས་ཞུ་ཁང་	-10.4116
ཕོ་བྲང་དུ་	-10.4116
གདན་ཞུ་	-10.4118
སྣང་གསལ་	-10.4119
མཆོག་ནས་	-10.4119
འཚལ་ལོ་་	-10.412
བདུན་ཕྲག་	-10.4122
རྒྱུན་འཛིན་	-10.4122
ཀྱི་གྲོང་ཁྱེར་	-10.4123
ཁྱེར་ཏེ་	-10.4127
▁སེམས་ཅན་གང་དག་	-10.4127
▁རྣམ་པར་ཤེས་པ་	-10.4128
འཛིན་ཅིང་	-10.413
རང་ལ་	-10.413
བསྟི་གནས་ཁང་གི་	-10.4133
མི་ནུས་	-10.4134
འདོད་པའི་ཡོན་ཏན་	-10.4136
ནས་ཡིན་པ་	-10.4136
གཞན་རྣམས་	-10.4137
ཆོས་རིག་	-10.4138
གཟུང་བ	-10.4139
▁ཕྱོགས་གཅིག་ཏུ་	-10.4143
དངོས་པོ་མེད་པ	-10.4144
རིན་པོ་ཆེ	-10.4149
སྤོང་བ	-10.415
མཐོང་བ་དང་་	-10.4155
སྔོན་འགོག་གི་	-10.4156
ོར་	-10.4158
སྔོན་འགྲོའི་	-10.4158
བཅངས་	-10.416
བདག་དབང་	-10.4161
ཇེ	-10.4166
ཤིག	-10.4166
▁ལྷའི་དབང་པོ་	-10.4167
བསྐྱེད་དེ་	-10.4169
▁བཅོམ་ལྡན་འདས་ལ་	-10.4169
▁འདི་གའི་	-10.4171
ཚོང་ཁང་	-10.4173
འགྱུར་ཏེ་་	-10.4173
ཕ་རན་སིའི་	-10.4175
རོལ་མོའི་སྒྲ་	-10.4175
▁མཉམ་འབྲེལ་	-10.4176
བ་སོགས་	-10.4179
སྐྱེས་ཤིང་	-10.4179
ཁག་ཏུ་	-10.4182
རྐང་ལག་	-10.4182
གངས་	-10.4184
གཙོ་བོར་གྱུར་པ	-10.4184
གནས་པས་	-10.4185
འཕགས་བོད་	-10.4185
ཤེས་བྱ་	-10.4186
དོན་རྐྱེན་	-10.4188
མེད་པར་གྱུར་	-10.4195
ལ་མཚོན་ན	-10.4197
པར་བྱེད་དོ་	-10.4197
སྔ	-10.4198
དབེན་པར་	-10.4202
བོད་མི་རིགས་	-10.4204
ཆེད་ཕེབས་གནང་	-10.4211
སངས་རྒྱས་ཐམས་ཅད་	-10.4213
པར་བགྱི་	-10.422
ལ་སེམས་	-10.4223
བྲམ་ཟེའི་	-10.4224
ནས་ཕྱི་ལོ་	-10.4227
ཁོང་ཚོར་	-10.423
ལུས་སེམས་	-10.4232
རྒྱལ་བས་	-10.4233
འགག་པ	-10.4234
སྲིད་པའི་	-10.4235
ཞབས་སོར་བདེ་བར་	-10.4239
ནམས་ཀྱང་	-10.4243
ཐབས་མཉམ་པ་བརྙེས་	-10.4243
དངངས་སྐྲག་	-10.4243
རྣམ་པ་མང་པོ་	-10.4244
དབྱིབས་	-10.4244
སྟེ་བཞི་གང་ཞེ་ན་	-10.4246
ལ་རྟེན་གསུམ་	-10.4246
བསྟུན	-10.4249
ཁྱིམ་ཐབ་	-10.4253
རྒྱལ་ཁབ་གཞན་	-10.4253
ཀྱིས་གསུངས་པ་ལ་	-10.4257
མང་པོ་དག་	-10.4258
སེམས་ཀྱང་	-10.426
སྟོང་གི་	-10.426
ལོ་གཉིས་	-10.426
བོད་རང་བཙན་	-10.4264
ི་ཡ	-10.4267
གཞུང་ལ་	-10.4269
གནག་	-10.427
དང་མཇལ་འཕྲད་གནང་	-10.4281
གཞོན་སྐྱེས་རྣམས་	-10.4283
▁དེ་གཉིས་ཀྱིས་	-10.4286
འགྱེད་	-10.4288
ཡུ་	-10.4289
ཐུབ་ན་	-10.4293
འབྲེལ་མིན་པའི་	-10.4294
འགྲོགས་	-10.4295
བྱོན་	-10.4295
ཁྱད་པར་དུ་འཕགས་པ	-10.4295
གྲུབ་པ་	-10.4296
▁དབུ་མའི་ལམ་གྱི་	-10.4298
ན་དེ་	-10.4301
ར་བྱེད་དོ་	-10.4301
པར་འགྱུར་བའི་	-10.4301
ཨུ་	-10.4301
ཅེས་བྱ་བ་དང་་	-10.4301
ཐུན་མོང་གི་	-10.4302
གཞུང་ལམ་	-10.4303
བཀོད་པ་པོ་འདོད་	-10.4306
པའི་ཚེ་	-10.431
སྐོར་གསུང་	-10.4311
བསྒྲིལ་	-10.4316
ཚན་པའི་	-10.4321
རྒྱ་ནག་ནང་དུ་	-10.4323
རྒྱ་གར་བ་	-10.4325
གང་བྱུང་	-10.4325
འོངས་ཏེ་	-10.4326
སེར་སྣ་	-10.4326
ཝར་	-10.4332
མུས་	-10.4333
མཐོ་རིམ་	-10.4334
བཀའ་འཁྲོལ་	-10.4334
▁རྒྱ་རིགས་	-10.4336
རྣམ་པ་ཚོས་	-10.4337
ཆོས་རྣམས་ཐམས་ཅད་	-10.4338
ཤི	-10.4338
ཡོང་བ་དང་	-10.4348
སྐྱེད་པ་	-10.4348
གཉིས་ནས་	-10.4352
དེ་ནི་ཚུལ་ལ	-10.4353
འདས་པ་དང་་	-10.4355
འི་ལྷ་	-10.4355
▁རྩ་བའི་	-10.4356
བཀའ་སྩལ་	-10.4357
འི་ལས་	-10.4358
སྐུ་ཉིད་	-10.4358
ཡུ་གུར་	-10.4362
ན་བཟའ་	-10.4362
གནས་སྟངས	-10.4362
གོམས་གཤིས་	-10.4364
དར་སྤེལ་	-10.4365
ལྷན་ཚོགས་སུ་	-10.4365
ཡོད་མ་ཡིན་་	-10.4366
ཝེ་	-10.4367
▁ཁྱེད་རང་ཚོ་	-10.4372
སྨྲེ་སྔགས་འདོན་པ	-10.4372
▁དབང་པོ་	-10.4373
བཅས་ཏེ་	-10.4378
ལྟར་མི་བལྟ་སྟེ་	-10.438
དོགས་	-10.438
སྐྱེ	-10.4384
་པ་རེད	-10.4384
ལ་དམ་བསྒྲགས་	-10.4384
ལ་སྤྱོད་པ་ནི་	-10.4385
བཞུགས་པའི་	-10.4389
▁ཆོས་ཀྱི་དབྱིངས་	-10.439
མཁན	-10.439
གལ་ཆེ་ཤོས་	-10.4393
འཆི་བའི་དུས་	-10.4394
རྒྱལ་སྲས་	-10.4394
ཉི་ཧོང་གི་	-10.4395
མི་འབྱུང་	-10.4397
འཕོ་བ་	-10.4399
ལ་རྩིས་མེད་	-10.4399
མི་ཚེ་	-10.44
པས་ན་	-10.4401
ལ་ཚིགས་སུ་བཅད་པ	-10.4401
དང་བྲལ་བས་	-10.4402
་དུས་གཅིག་ན་	-10.4412
པ་དང་འདི་བཞིའོ་	-10.4412
ངོ་་	-10.4413
ཚན་རིག་པས་	-10.4413
གཙང་མ་བཟང་པོ་	-10.4415
▁དེ་ལས་བཞེངས་ནས་	-10.4415
བ་སྤུའི་ཁུང་བུ་	-10.4416
འི་གནས་སྟངས་	-10.4417
སྐུ་ཕྲེང་	-10.442
གཞུང་དེ་དག་	-10.442
འདྲ་བར་	-10.4425
གསུང་འཕྲིན་ཞིག་	-10.4429
ནད་ཀྱིས་	-10.443
དྲ་རྒྱ་བརྒྱུད་	-10.4432
པ་ནས་	-10.4437
མཆོད་འབུལ་	-10.4437
ཕྲན་	-10.4438
ཐུགས་གསོ་	-10.4442
ཕུ	-10.4445
འི་ཚོགས་	-10.4446
གནས་རིམ་	-10.4447
མ་པ་	-10.4449
གསུམ་པོ་	-10.445
རྗེས་སུ་འཐུན་པ	-10.4451
ཅི་ནས་ཀྱང་	-10.4452
རྣ	-10.4453
ཧ་ལས་པ་	-10.4454
ཕྱིན་ཡོད	-10.4455
ཞིང་བལྟ་ན་སྡུག་	-10.4459
ཡོད་པ་ཞིག་	-10.4459
བྱེད་ཕྱོགས་ཀྱི་	-10.446
འདུགའོན་ཀྱང་	-10.446
དང་བཅས་པ་དང་་	-10.4465
དེ་ཁོ་ན་	-10.4466
གནང་སྐབས་	-10.4469
▁འདི་ལོར་	-10.447
བཙོན་	-10.4472
བྱེད་ཀྱི་མེད	-10.4473
་ཡོད་པ་བཅས	-10.4474
ཚོགས་པ་ཁག་	-10.4475
བེ	-10.4476
མེ་ཏོག་གི་	-10.4477
▁དེ་བས་ན་	-10.448
གྲོལ་བ་	-10.4482
དམིགས་སུ་མེད་པ	-10.4484
བྱེད་ཐུབ	-10.4486
འབོད་སྐུལ་གནང་	-10.4486
བསྒྲུབས་ཏེ་གནས་པ	-10.4487
ནེ	-10.4489
བྱས་པར་	-10.449
གློད་བཀྲོལ་གཏོང་	-10.4498
འདི་ཡི་	-10.4499
སེར་སྐྱ་མི་མང་	-10.4501
མི་ཡི་	-10.4502
སྟོབས་བཅུའི་	-10.4502
ཡོངས་སུ་རྫོགས་པ་	-10.4503
རྩ་དོན་	-10.4504
སྒྲུབ་པ་དང་འབད་པ	-10.4504
གཡོག་འཁོར་	-10.4509
དོར་	-10.4515
ཕྱི་ཟླ་ཚེས་	-10.4515
རྐྱེན་གྱིས་ཚོར་བ	-10.4517
རྒྱལ་གཅེས་པ་	-10.452
སྐབས་དེའི་	-10.4522
སྐུ་ལས་བསྐྱོན་	-10.4522
རོལ་མོ་	-10.4524
སྟོན་པ་དང་་	-10.4525
སྤྱི་ཁྱབ་པ་	-10.4526
ཡོད་པ་ནི་	-10.4529
་དེ་དག་ཐམས་ཅད་	-10.4529
ཛ་	-10.4531
ཀྱི་རྣམ་གྲངས་འདི	-10.4531
▁སྐབས་དེ་དུས་	-10.4532
དེ་ཐོས་ནས་	-10.4532
མ་ལགས་པ་	-10.4535
སྐུ་ཚབ་དང་	-10.4537
གདུགས་དང་་རྒྱ	-10.4538
དུ་ཡང་	-10.4538
བསྒྲུབ་པ་	-10.4538
གལ་ཆེན་པོ་ཡིན	-10.4542
གྲངས	-10.4543
ཡོང་རྒྱུ་	-10.4543
བརྙན་	-10.4544
ཤེས་པ་དང་་མཐོང་བ	-10.4545
སྐུ	-10.4546
སྨོན་ལམ་བཏབ་	-10.4546
ཟུང་འབྲེལ་	-10.4552
མ་མཆིས་པའི་	-10.4554
དཔེ་ཆ་	-10.4561
དུ་སྦྱར་ཏེ་དེ་	-10.4563
གྲོ	-10.4563
སྟོབས་ཀྱི་	-10.4563
རྩད་གཅོད་	-10.4563
ན་པ་	-10.4564
དགོས་སྐོར་	-10.4565
ཁྱེད་རང་ཚོས་	-10.4566
ྲངས་ཉུང་མི་རིགས་	-10.4569
ལས་སྐྱེས་པ་	-10.4575
སྡིག་པའི་	-10.4579
བརླ	-10.4579
་ཡང་དག་པ	-10.458
གོ་འཕང་	-10.4582
མཁས་ཤིང་	-10.4584
གྲུབ་པའི་	-10.4586
ཞེས་ཞུ་རྒྱུ་ཡིན	-10.4589
མོས་མཐུན་	-10.4589
གཞུང་ཚབ་	-10.4591
▁ཀུན་རྫོབ་ཏུ་ན་	-10.4591
དབུལ་པོ་	-10.4593
ན་གནས་པ་	-10.4596
བོད་དོན་ཆེད་	-10.4603
སྩོལ་	-10.4605
རྣམ་གྲངས་	-10.4607
བར	-10.4609
འཛམ་གླིང་ཞི་བདེ་	-10.4615
ར་བ	-10.4616
▁གནོད་སྦྱིན་	-10.462
ཀྱང་བརྩོན་པ་དང་	-10.462
▁དེ་ནས་ཁྱེའུ་	-10.4621
བསྒྲུབས་པ་	-10.4622
གློག་བརྙན་	-10.4623
བཞི	-10.4624
པ་ཡིན་་	-10.4631
བཟླས་	-10.4632
གཙོ་བོ་ནི་	-10.4634
མཉན་དུ་ཡོད་པ་ན་བ	-10.4637
ཚངས་པ་ཆེན་པོ་	-10.464
སྙན་པ་	-10.464
ལྔ་སྟོང་	-10.4641
མཆོག་ཏུ་དགའ་བ་	-10.4643
ཞུ་དགོས་	-10.4643
པའི་ཚིག་	-10.4644
གཉིས་དང་	-10.4645
གལ་ཆེན་	-10.4645
འཁེལ་	-10.4647
ལྷའི་མེ་ཏོག་	-10.4648
དགེ་བ	-10.4648
དེ་སྔ་ཕྱི་ལོ་	-10.4651
སྔོན་གྱི་གནས་	-10.4653
སྟོབས་བཅུ་	-10.4656
ནས་ལོ་	-10.4657
ར་མ་	-10.4657
ལ་སྤྱོད་པའི་	-10.4658
འཁོད་པའི་	-10.4658
ར་བྱ་སྟེ་	-10.4659
བདག་ཅག་གཉིས་	-10.466
སེམས་ཅན་འདི་དག་	-10.4662
མི་ལོ་ཧྲིལ་པོ་	-10.4663
རྣམ་གྲོལ་	-10.4664
མི་སྐྱེ་བ་	-10.4664
འཁོད་ཡོད	-10.4665
འཆི་བའི་	-10.4667
འི་ཚེ་	-10.4667
རྒ་ཤི་	-10.4668
▁མིའི་	-10.4671
བརྩམས་པ་	-10.4671
▁སྐབས་	-10.4671
བསགས་པའི་	-10.4672
་སྒྲིབ་པ་ཐམས་ཅད་	-10.4673
ྭ	-10.4679
ཨིན་ཇིའི་	-10.468
སྟོན་ཅིང་	-10.4681
ཆུ་བོ་	-10.4682
ལ་ཐུགས་རྗེ་ཆེ་	-10.4683
ཡང་དག་པའི་ལྟ་བ་	-10.4686
ཁོ་ནའི་	-10.4686
རྡུང་	-10.4694
རྣམས་ཀྱིས་ནི་	-10.4694
ཀྱིས་དགོངས་པ་	-10.4699
གསང་བའི་	-10.4699
ལེགས་པར་བརྒྱན་	-10.47
▁སེམས་ཅན་རྣམས་	-10.47
པའི་སྐུའི་འཁྲ	-10.4702
▁ཁྱད་པར་	-10.4702
ཡིན་པ	-10.4703
གི་སྐུ་ཚབ་	-10.4705
དགའ་བས་	-10.4706
འགན་འཛིན་དང་	-10.4709
དེའི་ཚེ་ན་	-10.471
ས་འདི་སྐད་ཅེས་	-10.4711
▁ཕྱི་ལོ་ཉིན་	-10.4715
འོས་འདེམས་	-10.4716
རིས་ཀྱི་ལྷ་རྣམས་	-10.4717
སྦྱར་ཏེ་	-10.4719
རླུང་གི་ཁམས་	-10.4719
▁ནང་སྲིད་	-10.4721
ཡོང་ཆེད་	-10.473
ཐུབ་མེད	-10.473
གནས་སྟངས་ལ་	-10.473
བོད་སྨན་	-10.473
རྫིང་	-10.4731
སྐུ་ཚབ	-10.4732
བརྙེས་པ་	-10.4732
མདུན་ན་འདོན་	-10.4735
ཏིང་འཛིན་འདི་	-10.4738
རྣམ་པར་དག་	-10.4742
རང་ཉིད་ཀྱིས་	-10.4742
མཁྱེན་ནས་	-10.4745
ལྷ་དང་་ཀླུ་དང་་	-10.4746
ཧུ	-10.4753
བཀའ་ཟུར་	-10.4753
ཐོབ་བོ་་	-10.4754
འི་རང་སྐྱོང་གི་	-10.4755
དགོས་པ་མ་ཟད	-10.4757
གྲངས་འབོར་	-10.476
ལོངས་སུ་སྤྱོད་	-10.476
དམུས་ལོང་	-10.476
འཛིན་བྱེད་ཀྱི་བུ	-10.476
གནས་གཙང་མའི་	-10.4761
གང་ལེགས་	-10.4761
▁ཐུགས་རྗེ་ཆེ	-10.4762
མཐ	-10.4762
དང་་ཚངས་པ་དང་་འཇ	-10.4763
ཁྱབ་བསྒྲགས་	-10.4763
▁རྒྱལ་ཁབ་	-10.4764
དངོས་ཤུགས་	-10.4764
བྱང་ཆུབ་ལས་	-10.4764
ཉིན་རེ་བཞིན་	-10.4766
འདི་ཉིད་ལ་ས	-10.4768
ངས་ནི་	-10.4768
གསོལ་སྟོན་	-10.4769
ཟླ	-10.4769
ཁྱེད་ལ་	-10.477
གུ་ཡངས་	-10.477
མཆི་	-10.477
ྱེད་ཀྱི་ཚལ་	-10.477
བྱམས་པའི་སེམས་	-10.4771
དད་ལྡན་	-10.4771
མཆིས་ཏེ་	-10.4771
ཨོ་སི་ཀྲོ་ལི་ཡ	-10.4771
རྒྱལ་ས་ལྷ་སར་	-10.4772
ཚོགས་འདུ་ཐེངས་	-10.4772
སྒྲ་དབྱངས་	-10.4773
བྱས་པ་ཡིན་ན་	-10.4777
་དང་་མཁས་པ་	-10.4777
གཞན་ཞིག་	-10.4777
དོན་དག་	-10.478
འཐོབ་པ་	-10.478
རྒས་	-10.478
བའི་ཕྱིར་རོ་	-10.4786
ལ་མ་བརྟེན་པའི་	-10.4789
ཚུལ་ཁྲིམས་དང་་	-10.4793
བྲལ་བ་	-10.4794
ཟབ་ཅིང་	-10.4795
སྲིད་ཚབ་	-10.4797
རྣམས་ལ་ནི་	-10.4799
ཐོགས་མེད་	-10.48
བསམ་མི་ཁྱབ་་	-10.4801
ཕྱིན་པ་རེད	-10.4805
རྒྱ་གར་དབུས་	-10.4807
གོམ་པ་	-10.4808
དོན་གྱི་	-10.4812
ཕྱ	-10.4813
ལོགས་	-10.4814
བྱོས	-10.4814
འི་སྒྲིག་འཛུགས་	-10.4818
བརྗོད་དུ་མེད་པ་	-10.4818
ས་གཞི་	-10.4819
འཆར་འགོད་	-10.4821
པ་ཞིག་རེད	-10.4823
སྐྲུན་	-10.4825
གནའ་བོའི་	-10.4827
གཞན་ཕན་	-10.4827
ཁ་རས་	-10.4827
དགོངས་འཆར་	-10.4828
གྲག་	-10.4829
སྙན་ཐོའི་ནང་	-10.4832
ཚིག་བླ་དགས་	-10.4833
འཇིག་རྟེན་པའི་	-10.4834
འདུ་བ	-10.4834
ག་འདྲ་	-10.4835
སེང་གེའི་	-10.4837
་ཞིག་རེད	-10.4838
ཐུ	-10.484
ལྟ་བུ	-10.4844
འདོད་པའི་ཁམས་	-10.4844
ཕྱི་སྲིད་	-10.4846
མཐོ་རིས་	-10.4847
གསར་འགོད་པས་	-10.4848
སློབ་གཉེར་གནང་	-10.4849
ལེགས་སྦྱར་གྱི་	-10.4851
དགེ་སྦྱོང་ག་ཏ་མ་	-10.4853
དཔེ་མཚོན་	-10.4853
གསོལ་མགྲོན་ཁང་དུ	-10.4855
བོད་ནས་	-10.4855
ལྷག་ཙམ་	-10.4855
གནས་སོ་	-10.4857
གསོལ་་	-10.4858
རྫི	-10.4859
སློབ་ཕྲུག་གི་	-10.486
བརྙས་	-10.486
ཀླད་པ་	-10.4861
གཅིག་སྒྲིལ་	-10.4861
ཕྱི་དྲིལ་ལས་ཁུངས	-10.4866
▁མི་གང་	-10.487
ཡོངས་སུ་བསྐོར་	-10.487
གཞིས་ཆགས་ཁག་གི་	-10.487
གྱི་ལམ་ནས་	-10.4873
▁དེ་ནས་ཁྱིམ་བདག་	-10.4874
འི་གཟུགས་	-10.4876
བཙོ	-10.4878
ཐོབ་པའི་	-10.488
རྒྱུ་རྐྱེན་	-10.4885
དྷ	-10.4886
མཛད་དོ་་	-10.4889
ཟངས་དཀར་	-10.489
འགྱུར་ཏེ་	-10.4892
ཡོངས་སུ་གཟུང་བ་	-10.4899
ས་དེ་	-10.49
ཟག་པ་མེད་པའི་	-10.4903
རྒྱ་ནག་གཞུང་ནས་	-10.4903
བརྡ་ལན་	-10.4904
རྣམས་ལགས་	-10.4906
གནང་ཕྱོགས་	-10.4906
སོ་སོ་ནས་	-10.4908
རིག་པའི་རྣམ་གཞག་	-10.4909
སྟོན་པས་	-10.4915
ཡང་མེད་དོ་་	-10.4916
ཅིའི་སླད་དུ་	-10.4918
བཤད་སྒྲུབ་	-10.4919
པ་འདི་	-10.492
བཙལ་བ	-10.492
གསུང་གི་	-10.4922
མཐར་ཐུག་	-10.4927
དབུ་འཛུགས་གནང་	-10.4927
མཚུངས་མེད་	-10.4928
བྲོ་	-10.4928
དེ་དག་ལ་ཡང་	-10.493
མཐོང་བ	-10.4932
བོད་རང་སྐྱོང	-10.4933
བྱང་ཆུབ་ཀྱང་	-10.4934
ཚོགས་བཅར་བ་ཡོངས་	-10.4934
བཟང་བ་	-10.4934
སྲིན་པོ་	-10.4935
མཆོག་འདི་	-10.4937
ཡོ་རོབ་	-10.4939
དུས་གཞན་ཞིག་ན་	-10.4939
རང་རེའི་	-10.4939
དྲི་བ་དྲིས་ལན་	-10.4939
དུས་ནས་དུས་སུ་	-10.4939
མཐུན་འགྱུར་གནང་	-10.4941
ལས་བྱུང་	-10.4943
བགྱིས་པ་	-10.4943
བརྗེད་	-10.4943
དམ་དྲག་	-10.4943
བ་ཞིག་	-10.4943
ཉོན་མོངས་པ་རྣམས་	-10.4944
ཡང་དང་ཡང་དུ་	-10.4945
ཉེས་དམིགས་སུ་	-10.4947
འདུས་བྱས་ཀྱི་	-10.4955
ཆུང་བ་	-10.4955
ཡི་རང་	-10.4957
བཅུག་ནས་	-10.496
རྣམ་པ་གསུམ་	-10.4962
མཆོད་པར་	-10.4967
གཞན་དག་ལ་ཡང་	-10.4975
ཕྱི་དྲིལ་བོད་	-10.4976
ལ་གནས་པར་	-10.4976
རྒྱལ་ས་ལྡི་ལི་	-10.4977
ཡོངས་སུ་དག་	-10.4978
བསམ་གཏན་དང་པོ་	-10.4981
སུམ་དུ་བྱས་སོ་་	-10.4983
ནི་གང་ཡིན་	-10.4986
ལྷན་ཚོགས་ཐོག་	-10.499
བྱུགས་	-10.499
དབྱར་	-10.4995
ཆོག་པའི་	-10.4997
▁ལྔ་དང་ལྔ་བཅུའི་	-10.4997
མཐོང་ཞིང་	-10.4999
སྲེད་	-10.5
རྒྱུ་ཞིང་	-10.5
པས་ན་་	-10.5001
ཡང་བརྗོད་དུ་	-10.5006
ཕྱུང་སྟེ་	-10.5007
མ་སུ་རི་བོད་ཁྱིམ	-10.5009
འགྱོད་པ་	-10.5011
ཏ་ལའི་བླ་མ་མཆོག་	-10.5011
བྱེད་ཕྱོགས་	-10.5012
་གཏན་མི་དམིགས་	-10.5016
ཤར་ཕྱོགས་	-10.5017
ཕན་གྱི་	-10.5021
སུ་ནི་	-10.5022
ཙམ་རིང་	-10.5024
ལ་བཀོད་དོ་་	-10.5027
མན	-10.5029
ཅན་དུ་	-10.503
ཁྱེད་ཚོ་	-10.5031
བཞི་པོ་	-10.5034
▁དེས་བསམས་པ་	-10.5034
▁ང་ཚོ་ཚང་མ་	-10.5034
གྱི་སྔ་དྲོར་	-10.5035
▁རིན་པོ་ཆེའི་	-10.5035
ཅིག	-10.5035
▁སྐྱེ་བ་	-10.5037
འཐུས་	-10.5037
བརྩིས་	-10.504
གནང་གྲུབ་མཚམས་	-10.5042
འདུགདེ་ནས་	-10.5047
གཅིག་པོ་	-10.5049
འཇིག་རྟེན་སྐྱོང་	-10.5049
ལེགས་སྐྱེས་	-10.5049
ཀྱི་ཡན་ལག་བདུན་	-10.5051
ཚོགས་པ	-10.5054
འཕྲད་བཞིན་པའི་	-10.5058
ནོ	-10.5059
གཏད་	-10.5063
གྱུར་ན་་	-10.5065
རིགས་ཀྱི་	-10.5066
མཐུན་འབྲེལ་	-10.5068
▁ཆོས་ཐམས་ཅད་ནི་	-10.507
པ་ཀུན་འབྱུང་བ་	-10.5075
རིང་དུ་	-10.5077
ཡེ་ཤེས་མཐོང་བ་	-10.5078
བདེ་བ་དང་	-10.5078
འི་ཆོས་རྣམས་	-10.508
རྒྱུ་མ་ཟད	-10.5081
གཅིག	-10.5083
▁མདོ་སྡེ་	-10.5084
དབྱེ་འབྱེད་	-10.5084
སྦྲང་	-10.5085
ལྷའི་མིག་	-10.5086
གནང་དང་གནང་བཞིན་	-10.5086
འཛམ་གླིང་ཞི་བདེ	-10.5088
ེད་པའི་དབུ་ཁྲིད་	-10.5089
བཞིན་པ་དེ་དག་	-10.509
ཆོས་མཉན་པའི་	-10.509
པོ་་	-10.509
དགོངས་བཞེས་	-10.5094
རྒྱ་མི་རིགས་	-10.5094
སྤེལ་བའི་	-10.5094
དམ་ཆོས་	-10.5096
ལྷའི་བུ་མོ་	-10.5099
སྒྲ	-10.5099
ཐོབ་པར་འགྱུར་་	-10.5107
་དག་ཡང་དག་པ	-10.5109
འཁྲུལ་	-10.5111
སྐྱེ་བར་འགྱུར་	-10.5111
ཆགས་འདུག	-10.5113
དང་་ལྷ་མ་ཡིན་དང་	-10.5114
དབང་ཆ་	-10.5114
ཡིན་ཞིང་་	-10.5116
ཞུ་གཏུག་	-10.5118
ཤེས་ཁོང་དུ་ཆུད་	-10.5119
རྣམ་པར་སེལ་བས་	-10.5121
པི་བང་	-10.5121
ངེས་ཡིན	-10.5121
ཆོས་ཀྱི་ཚུལ་	-10.5122
བསྒྱུར་བཅོས་	-10.5123
བཙུན་མོ་	-10.5123
ང་ཚོ་ཚང་མས་	-10.5126
་ཞེས་	-10.5126
ཞུས་དོན་ལྟར་	-10.5127
རྒྱལ་བུ་རྒྱལ་	-10.5128
བརླག་	-10.5129
ལྷན་ཁང་	-10.513
ཚངས་པས་བྱིན་གྱི	-10.513
གསེར་གྱི་ཁ་དོག་	-10.5131
དག་ཡིན་ནོ་་	-10.5133
ཁ་ཞེ་གཉིས་མེད་	-10.5135
ཕྱིས་སུ་	-10.5136
▁ཅེས་གསུང་	-10.5137
འཐུངས་	-10.5139
▁རང་དབང་ཅན་གྱི་	-10.5142
འི་སྤྱི་ཚོགས་	-10.5145
འདིས་ནི་	-10.5147
བ་ཡིན་ན་	-10.5149
ནི་བདག་	-10.5151
སྒར་	-10.5153
ཞོ་	-10.5159
ཕྱིར་མི་ལྡོག་པར་	-10.5161
མཉམ་འབྲེལ་གྱི་	-10.5164
སྤྱི་ཚོགས་དང་	-10.5165
སྤང་བའི་ཕྱིར་	-10.5169
ཞིང་བསོད་ནམས་དག་	-10.5169
འབྱུང་ཁུངས་	-10.5172
བྱའི་	-10.5173
ཕྱོགས་བཅུ་	-10.5175
བགྲང་	-10.5178
ཁོང་དུ་ཆུད་	-10.5179
ས་ཟླ་འོད་གཞོན་ནུ	-10.518
▁ཉོན་མོངས་	-10.5181
ི་བ	-10.5181
དང་བསྟུན	-10.5181
ཇིམ་མེག་གྷོ་ཝན་	-10.5182
བྱེད་ཀྱི་ཡོད་པ་	-10.5183
ཉིད་ལ་	-10.5185
པ་བཞི་	-10.5185
བསྐྱེད་མ་ཐག་ཏུ་	-10.519
བཤད་པའི་	-10.5192
སྐྱེ་བ་མེད་པ་	-10.5195
ཕུད་	-10.5195
ཅི་ལགས་	-10.5197
གཞུ	-10.5198
ངོས་ནས་ཀྱང་	-10.5199
མཆི	-10.5201
སྤྲོས་	-10.5204
དབུས་འོས་བསྡུ	-10.5204
འདི་རྣམས་ཀྱིས་	-10.5204
ཁོང་ཚོས་	-10.5205
སེར་སྐྱའི་གནས་	-10.5206
▁ཚོར་བ	-10.5208
འབྲོས་	-10.5209
བྱམས་པའི་	-10.521
དགའ་བསུའི་	-10.5212
སྟོང་ཉིད་	-10.5216
དེ་རིང་གི་	-10.522
བྱ་རྒྱུ	-10.5221
དགའ་བསུ་	-10.5221
▁བདུད་	-10.5222
སླར་གསོ་	-10.5227
གྲངས་ཚད་	-10.5227
ངོ་ཤེས་	-10.5229
ཡིད་བདེ་བ་སྐྱེས་	-10.5229
ོལ་	-10.5232
གཡོན་	-10.5233
གྲྭ་ཚང་	-10.5235
▁གོང་གསལ་	-10.5235
གནང་དོན	-10.5235
ཅན་དང་་	-10.5236
ཛ་དྲག་གནས་སྟངས་	-10.5237
ཆབ་སྲིད་ཚོགས་པ་	-10.5238
ལུང་བསྟན་ཏོ་་	-10.524
མཐའ་མའི་	-10.5243
་ཞེས་བྱ་བ་	-10.5243
ཕན་བདེ་	-10.5243
ས་མཚམས་སུ་	-10.5244
བྱིན་ནོ་་	-10.5244
ུའུ་	-10.5247
▁སྐབས་རེ་	-10.5249
ཅན་ཞིག་	-10.5251
བསྡུ་	-10.5252
མི་གནས་པ་	-10.5252
མི་གཡོ་བ་	-10.5252
བལྟ་བར་བྱའོ་་	-10.5256
ཆབ་སྲིད་བཙོན་པ་	-10.5256
གཉེན་པོ་	-10.5257
དཔྱད་པ་	-10.5258
སྨྲ་བ་དང་་	-10.5259
ཇོ་	-10.5261
པའི་སླད་དུ་	-10.5262
ཞིང་ཡོངས་སུ་དག་པ	-10.5266
པ་ཚོས་	-10.5267
ྱང་ཆུབ་སེམས་དཔས་	-10.5267
ཐང་དང་	-10.5268
སུ་གྱུར་པ་	-10.5271
རློམ་སེམས་	-10.5272
དེ་ལྟ་བུ་ནི་	-10.5272
ཇི་འདྲ་	-10.5273
ཡག་ཤོས་	-10.5273
ཀྱི་ཕུང་པོ་	-10.5275
རྡོ་རྗེ་ལགས་ཀྱིས	-10.5276
བསྔགས་པ་བརྗོད་	-10.5277
སྦྲུལ་	-10.528
ྲ	-10.5281
སྦྲེལ་རྒྱལ་ཚོགས་	-10.5281
བདེ་བ	-10.5285
▁གང་ཚེ་	-10.5285
མི་དགའ་	-10.5288
ལ་བ་	-10.5288
ཉིན་གཅིག་	-10.5289
འཐུན་པར་	-10.5291
མཆིས་་	-10.5295
་ར	-10.5298
ལྗགས་	-10.5298
ཁྱིམ་གྱི་	-10.5299
ཚང་མའི་	-10.53
ཀརྨ་	-10.5301
སོང་ངམ	-10.5302
བྱུང་བར་གྱུར་ཏོ་	-10.5304
བཟང་སྐྱོང་	-10.5305
སྐུ་འཚོ་བཞུགས་	-10.5306
སྐྲ་དང་ཁ་སྤུ་	-10.5306
སྨིན་སྩལ་ཐོབ་སྟེ	-10.5306
འི་རིའི་རྩེ་མོ་	-10.5307
བཀའ་ལན་སྩལ་	-10.5307
དཔལ་ན་ལེན	-10.5309
དམན་པ་	-10.531
ལོ་མང་རིང་	-10.531
རིག་པར་བྱའོ་་	-10.531
ཕྱེད་ཡོལ་ཆུ་ཚོད	-10.5311
གཟའ་མཇུག་	-10.5312
ཉེན་རྟོག་པས་	-10.5312
ཀྱིས་ནི་	-10.5312
ཨན་	-10.5313
་སྤྱད་པར་འཚལ་ལོ་	-10.5316
སྦར་སེལ་	-10.5318
དད་པ་དང་	-10.532
གི་ནང་	-10.5326
གང་ཡོད་	-10.5326
བྲམ་ཟེ་དང་་	-10.5328
ཕྱི་མའི་མཐའ་	-10.5328
ཤེས་ཡོན་ལམ་ལུགས་	-10.5329
སོགས་ཀྱི་ཐོག་	-10.5329
བརྟན་པའི་	-10.5332
ལ་རྣམ་པར་	-10.5333
སྒྲ་ཡང་	-10.5333
ཁོང་རྣམས་	-10.5335
རྒྱུན་ལྡན་	-10.5335
ངོ་མཚར་དུ་གྱུར་	-10.5336
▁ང་ཡི་	-10.5338
དངུལ་ཁང་	-10.5339
ཚོང་འབྲེལ་	-10.534
ར་བ་	-10.5341
་འདུག་པ་བཅས	-10.5341
གསུང་རབ་	-10.5342
སྨོན་ལམ་གྱི་	-10.5342
སྣ་ཚོགས་ཀྱི་	-10.5345
སྤེལ་བ་	-10.5346
སྡེ་སྣོད་གསུམ་	-10.5347
▁གོང་ས་མཆོག་གི་	-10.5349
ཁོང་དུ་ཆུད་པར་	-10.5351
སུ་ལ་ཡང་	-10.5352
རྐང་པ་ལ་ཕྱག་འཚལ་	-10.5354
ལེན	-10.5354
འདུ་ཤེས་དང་་	-10.5356
གྱུར་ཡོད	-10.5356
དབང་བསྐུར་	-10.5358
མ་སྐྱེས་པ་	-10.536
ཁྲི་ཉིས་སྟོང་	-10.5369
དགུན་	-10.537
གཤེགས་པ་	-10.5371
མི་རྣམས་ཀྱིས་	-10.5374
བགོ་འགྲེམས་	-10.5377
▁སེམས་ཅན་དེ་དག་	-10.5377
བསྐྱར་	-10.5378
སྔོ་	-10.5383
བོད་ཕྲུག་	-10.5384
ལ་དྭགས་སུ་	-10.5386
རྒྱལ་པོའི་བུ་	-10.5386
འདི་ག་	-10.5387
དེ་བཞིན་ཉིད་དང་་	-10.5387
ཐུབ་པ་ཡིན་ན་	-10.5391
▁སྐུ་	-10.5392
ནི་སངས་རྒྱས་	-10.5393
ཕྱོགས་ནས་	-10.5397
ནང་ན་ཡང་	-10.5397
སྡེ་ཚན་གྱི་	-10.5398
ཕུང་པོའི་	-10.5398
མེ་ཏོག་དང་་	-10.5399
སྲོག་གཅོད་པ་	-10.5402
ཐུབ་པ	-10.5402
སོང་ཤིག་	-10.5403
གནས་ཀྱི་	-10.5405
དད་ལྡན་ཆོས་ཞུ་བ་	-10.5407
སྨོན་པ་	-10.5408
ཉོན་ཅིག་	-10.541
མི་ཤེས་སོ་	-10.5411
དགོས་པ་ཧ་ཅང་	-10.5411
ཕ་མས་	-10.5413
གཟིགས་པ་	-10.5415
ཕེབས་པར་	-10.5416
ཚུལ་དུ་	-10.5416
རྫུན་	-10.5417
ཞབས་འབྲིང་	-10.5418
ད་པ་	-10.5418
▁ཚིག་	-10.5419
ལྷག་པ་	-10.5419
སིལ་	-10.542
ལ་མོས་པ་	-10.5421
རྣམ་པར་རིག་པ་	-10.5422
འི་ཁམས་ཤེས་པ་	-10.5425
དེ་དེ་བཞིན་ཏེ་	-10.5432
མཐའ་མ་	-10.5439
ཆོས་དད་	-10.5444
ཡོད་པ་ལྟར་	-10.5445
མི་མཉམ་པ་དང་མཉམ་	-10.545
ཚང་བར་	-10.5452
ཕ་མ་གཉིས་	-10.5453
▁ད་ཐེངས་	-10.5456
རིག་ནས་	-10.5457
ཙན་དན་	-10.5458
བདག་གི་ལུས་	-10.5458
མགོན་སྐྱབས་	-10.5459
བདུན་པ་	-10.546
ཉམས་ཞིབ་པ་	-10.546
པེ	-10.5461
ཤིང་དགེ་སློང་	-10.5461
ལམ་སྟོན་གནང་	-10.5461
ཡེ་	-10.5462
ཀྱི་ཆེད་དུ་	-10.5462
དགུང་གྲངས་ཕེབས་	-10.5465
ཡུལ་འཁོར་	-10.5465
འི་སྒྲ་	-10.5467
དངོས་པོར་	-10.5467
ུངས་སྐར་དུས་ཆེན་	-10.5469
པར་རིས་	-10.5471
སྙིང་པོའི་	-10.5472
ཆེ་ཆུང་	-10.5474
རྗེས་དྲན་གྱི་	-10.5475
བྱམས་བརྩེ་དང་	-10.5476
སྐྱེ་བོ་མང་པོ་ལ་	-10.5479
འི་མཆོད་རྟེན་	-10.548
རྣམས་ཀྱི་གནས་	-10.548
ར་བགྱིད་	-10.5482
ཞུས་དང་ཞུ་མུས་	-10.5483
དང་ལྡན་པ	-10.5484
ཁ་ན་མ་ཐོ་བ་	-10.5485
དགེ་སློང་དེ་དག་	-10.5487
རབ་ཏུ་བྱུང་	-10.5489
སྒྲིབ་པ་ཐམས་ཅད་	-10.5489
བོད་མཐོ་སྒང་	-10.5489
རྒན་པ་	-10.5489
ཕྲིན་ལས་	-10.5491
འཇིག་རྟེན་ཕ་རོལ་	-10.5492
མ་སོང་	-10.5492
ཕྲེང་	-10.5493
ཉི་ཁྲི་ཐུབ་པ་ན་	-10.5495
ལུང་དུ་མ་བསྟན་པ	-10.5495
ཡིན་པར་བརྟེན་	-10.5495
རེ་རེའི་	-10.5496
སྒྲོལ་དཀར་	-10.5496
ཟིན་བྲིས་	-10.5496
གཅེར་བུ་པ	-10.5496
ཀྱི་དབང་པོའི་	-10.5497
ལྟ་བར་གྱུར་པ་	-10.5499
མི་འ	-10.5499
ཁྱབ་སྤེལ་	-10.5499
འདུག་པར་བྱའོ་་	-10.5499
སྐྱེ་བར་འགྱུར་བ་	-10.5499
དགོས་དམིགས་	-10.5501
གྲུབ་པའི་རྒྱུ་	-10.5502
འཇིགས་སྣང་	-10.5502
ངལ་སེལ་	-10.5505
གདོང་ལེན་	-10.5505
▁གང་ཡང་	-10.5506
ས་ལ་བཙུགས་ཏེ་	-10.5508
རྒྱལ་པོ་དེ་	-10.551
▁མ	-10.5511
སྐུའི་ཡང་སྲིད་	-10.5514
སྒྲོལ་མ་	-10.5517
བྱེད་ན་	-10.5518
ནམ་མཁའ་མཐའ་ཡས་	-10.552
དྲུག་གི་	-10.5521
་བསམ་གྱི་འདུག	-10.5523
བཟའ་བ	-10.5524
སྣ་མང་	-10.553
ནུས་སྟོབས་	-10.553
བོད་ཐོག་འཛིན་	-10.553
མི་དགའ་བ་	-10.5537
ཚོགས་འདུ་ཞིག་	-10.5537
བགྲེས་ཡོལ་	-10.5539
རྩེད་མོ་	-10.5539
▁རླུང་	-10.5539
ཐམས་ཅད་མཁྱེན་	-10.5543
གདུངས་	-10.5545
སྐུ་ཞབས་ཨ་	-10.5547
ཕུན་སུམ་ཚོགས་	-10.5548
དང་བསླབ་པའི་གཞི་	-10.5548
ཆོས་ཀྱི་རྒྱལ་པོ	-10.5549
རྒྱུའི་ཐོབ་ཐང་	-10.5549
ལྷགས་་	-10.5552
བཙན་བྱོལ་བ་	-10.5556
སྐྱེ་དགུའི་བདག་	-10.5556
འཛུལ་	-10.5557
ཁྲུ	-10.5557
ཡིན་ནོ་ཞེས་	-10.5559
་འགོག་པ་དང་་ལམ་	-10.5564
བྱ་བའི་	-10.5565
ལ་སྙིང་བརྩེ་བ	-10.5568
དབང་པོ་དང་་	-10.5572
སྣང་བར་གྱུར་ཏོ་་	-10.5572
རེ་རེ་བཞིན་	-10.5573
མི་བྱེད་དོ་་	-10.5574
ངེད་	-10.5574
མཉམ་ཞིང་	-10.5575
ཐེ་ཝན་ནང་	-10.5577
བདེན་པར་	-10.5577
ལ་ཡང་དག་པར་	-10.5579
▁ཁྱེད་ཀྱིས་	-10.558
ཁྱབ་གདལ་	-10.558
སྙམ་དུ་མི་སེམས་	-10.558
▁ད་ནི་	-10.5584
ལན་གསུམ་	-10.5585
ཐད་དུ་	-10.5586
ཡིན་ཏེ་་	-10.5588
བླང་དོར་	-10.5591
འགྲོ་བ་ཐམས་ཅད་	-10.5593
མཐོང་ནས་ཀྱང་	-10.5593
ཐེག་པ་ཆེན་པོ	-10.5595
ཡོད་པ་ལྟར	-10.5598
བོད་རྒྱ་གཉིས་	-10.5599
མུ	-10.56
པར་མ་གྱུར་	-10.5607
རུལ་	-10.5608
ཚོགས་ཆེན་གྱི་	-10.5611
མཆོག་རྣམ་གཉིས་	-10.5612
བསིལ་	-10.5613
▁འདོད་པ་	-10.5614
ཨ་རི་དང་	-10.5615
ཆེན་པོ་མཆོག་གིས	-10.5617
མཆོགདེ་བཞིན་	-10.5618
ལྷག་བསམ་	-10.5618
དེ་ཉིད་ཀྱི་	-10.5621
ན་འདུག་པ་	-10.5623
ཡོད་པ་མ་རེད	-10.5625
ཞུགས་སོ་་	-10.5628
དགོངས་པ་རྫོགས་	-10.563
▁བྱང་ཨ་རིའི་	-10.563
▁བདག་ཅག་གིས་	-10.5632
སྟེང་གི་ནམ་མཁའ་ལ	-10.5634
རིམ་པའི་	-10.5635
གནོན་	-10.5636
དེའི་ཐོག་ནས་	-10.5644
བསྲེག་	-10.5645
མ་མཆིས་པ་དང་་	-10.5648
དོན་དམ་པར་	-10.5649
ཁྱིམ་བདག་དེས་	-10.565
མངོན་པར་བསྒྲུབས་	-10.565
ཐོག་རྒྱབ་སྐྱོར་	-10.565
ཚོགས་ཆུང་གིས་	-10.5651
▁ལྷ་རྣམས་	-10.5651
དུས་ཀྱི་	-10.5654
▁གསར་འགོད་པ	-10.5657
སྐུ་གཟུགས་	-10.5657
དྲང་	-10.5657
▁དགེ་རྒན་	-10.5665
ར་མི་འགྱུར་བ་	-10.5665
འབྲོག་	-10.5666
▁བྱང་ཆུབ་ནི་	-10.5667
སྒྲིག་འཛུགས་ལ་	-10.5668
མདོ	-10.5669
འི་མང་གཙོའི་	-10.5669
ནས་བོད་མིའི་	-10.567
ཀྱི་ཚོགས་གཙོ་	-10.5671
མུར་	-10.5674
ུར་	-10.5677
གནད་	-10.5678
བྱེད་པ་པོ་	-10.5683
མྱ་ངན་ལས་འདས་	-10.5683
དང་མཚུངས་པ་	-10.5684
ཧིན་བོད་མཛའ་	-10.5687
ཐབས་ཟླར་བབ་པ་ལ	-10.5687
མ་བྱེད་ཅིག་	-10.5687
འགྲན་སྡུར་	-10.5687
མཁྱེན་པ་ཉིད་དུ་	-10.569
རིག་འཛིན་	-10.569
སྔ་འགྱུར་རྙིང་མ	-10.569
དབུ་མ་	-10.5692
སྙིང་བསྡུས་ཤིག་	-10.5693
▁སོ་སོའི་	-10.5693
མདོར་བསྡུས་	-10.5694
ས་ཤིག་	-10.5694
འདུ་ཤེས་མེད་མིན་	-10.5695
ཡོང་བཞིན་འདུག	-10.5695
རང་བཞིན་ལྡན་པའི་	-10.5697
པར་རིག་ནས་	-10.5697
▁གཞོན་ནུ་འདི་དག་	-10.57
ལྷ་དང་མི་	-10.57
ཁྲིམས་སུ་	-10.5704
འབྱེད་	-10.5705
མི་ནུས་་	-10.5706
ཞི་བདེ་དང་	-10.5706
བཞིས་	-10.5707
ལས་གཞིའི་	-10.5707
སྦིར་	-10.5708
་མ་ཧ་	-10.5709
ངོ་ཚ་	-10.571
་མཆོག་གི་	-10.571
ཇི་སྙེད་ཅིག་	-10.571
ཇི་སྐད་སྨྲས་པ་	-10.5713
དེང་དུས་	-10.5714
རང་རིགས་	-10.5714
མཛའ་བརྩེའི་	-10.5714
ལ་མངོན་པར་	-10.5715
དགོས་དོན་ནི	-10.5715
གི་ཡོད་པ་རེད	-10.5716
པའི་ལས་དེའི་	-10.5716
ཤོ	-10.5717
་ཆེན་རིན་པོ་ཆེ	-10.5718
ཚོགས་འདུའི་ཐོག་	-10.5718
དགོས་པ་ཞིག་	-10.5718
གང་ནས་	-10.5719
ཡོངས་སུ་གང་བ	-10.572
▁བདག་ལ་	-10.5721
འབྲེལ་བ་ཡོད	-10.5722
བོད་མི་ནང་ཁུལ་	-10.5724
ལམ་སྟོན་དང་	-10.5726
གྲོང་ཁྱེར་ནས་	-10.5726
སྣང་བའི་	-10.5728
བའི་སྐབས་	-10.5729
འགྲོ་་	-10.5731
རྒྱལ་སྤྱིའི་ཐོག་	-10.5731
ཁ་ནས་	-10.5731
་སྟབས	-10.5732
གནད་དོན་སྐོར་	-10.5733
འདི་ཁོ་ན་ཡིན་ཏེ	-10.5733
ཡོན་ཏན་གྱི་ཚོགས་	-10.5738
ལ་ཡིད་ཆེས་	-10.5741
ཁྱིམ་བདག་དེ་	-10.5741
ལ་འཚམས་འདྲི་	-10.5742
རོགས་རམ་གནང་	-10.5744
ཇི་སྲིད་འཚོ	-10.5744
ཀྱི་རེད	-10.5744
ལ་དགའ་བ་	-10.5745
ལས་དོན་ཐོག་	-10.5745
པ་རྣམས་དང་་	-10.5745
ལྷ་སའི་	-10.5745
གདགས་པ་	-10.5749
ཏོ	-10.5749
ད་ལྟར་གྱི་	-10.5752
ཆེ་ཞུ་རྒྱུ་ཡིན	-10.5754
ལྟ་གྲུབ་མི་འདྲ་བ	-10.5754
མི་སྣང་	-10.5755
མེར་	-10.5761
ཐུག་འཕྲད་	-10.5764
དགོན་སྡེ་ཁག་གི་	-10.5767
བརྒྱག་	-10.5767
ཡོངས་སུ་དག་པའི་	-10.5767
བཤད་དུ་གསོལ་	-10.5771
ཟེར་རྒྱུ་	-10.5776
མི་སྐྱེ་	-10.5777
ཡིན་གྱི་	-10.5778
གཞོན་ནུར་གྱུར་པ་	-10.5779
ལྟ་ཞིང་	-10.5783
གསར་པའི་	-10.5783
སྤར་	-10.5784
▁ཅེས་སོགས་	-10.5786
ལ་ཤིན་ཏུ་	-10.5788
རྨི་ལམ་དུ་	-10.5788
བགྱིད་པ་དང་་	-10.579
རྨི་ལམ་ལྟ་བུ	-10.579
དགོས་གལ་	-10.579
གྱུར་བ་	-10.579
ལུས་དང་སེམས་	-10.5791
དབང་པོ་ཤེས་པ་	-10.5792
ཡོངས་སུ་འཛིན་པ	-10.5793
བུམ་པ་	-10.5794
བཏགས་པ་	-10.5794
དགག་	-10.5795
འདོགས་	-10.5798
▁ཨ་	-10.5799
▁རྒྱུ་མཚན་	-10.58
ག་ཚོད་	-10.58
འཕངས་	-10.5801
གཟི་བརྗིད་ཀྱིས་	-10.5801
རྡོག་རྩ་གཅིག་	-10.5801
འཁོར་གྱི་	-10.5804
ཐོས་ན་	-10.5805
ཨེ་ཤི་ཡ་	-10.5807
བཀོད་པ་པོ་	-10.5808
ཞེས་བགྱི་བ་	-10.581
ཟངས་	-10.5812
ར་བྱའོ་ཞེས་	-10.5812
འགྲེལ་བརྗོད་གནང་	-10.5813
གནས་པར་བྱེད་	-10.5813
ི་བྱེ་མ་སྙེད་	-10.5816
རྒྱུ་གལ་ཆེན་པོ་	-10.5819
དེབ་སྐྱེལ་	-10.5822
གསོ་བ་རིག་པ་	-10.5823
གོ་བ	-10.5823
ངག་གི་ལས་	-10.5825
གཞི་རྩའི་འགྲོ་	-10.5825
ཐུབ་རྒྱུ་	-10.5825
དཀྲུག་	-10.5825
དབུ་འབྱེད་མཛད་	-10.5826
རླབས་	-10.5826
རྡ་ས་གངས་སྐྱིད་	-10.5827
རྣ་བའི་རྣམ་པར་	-10.5831
དུ་མའི་	-10.5834
▁སྐྱེས་བུ་དམ་པ་	-10.5836
ཉེ་དབང་ད	-10.5836
སྟེང་གི་	-10.5837
ཞེའམ་	-10.5839
རྗེས་སུ་འབྲང་བ་	-10.584
རྒྱ་ནག་གཞུང་དང་	-10.5841
འདེམས་	-10.5842
ཁོར་ཡུག་གི་	-10.5842
ཤེས་ཤིང་	-10.5842
འདུག་པར་	-10.5844
ཚོགས་དྲུང་	-10.5847
དྲ་བ་	-10.5851
བྱས་པ་དེ་	-10.5854
གྲོས་བསྡུར་	-10.5859
ཞུ་གི་ཡོད	-10.586
ཆུང་ངུ	-10.5861
བསྟན་པ་འདི་	-10.5863
རབ་བྱུང་	-10.5864
བརྗེ་ལེན་	-10.5865
ཞིག་སྤེལ་	-10.5867
སྨད་འཚོང་མ	-10.5868
གཟབ་	-10.5868
དྲི་ཟའི་	-10.5869
འཚོ་བྱེད་	-10.5869
ཚོགས་པ་ཁག་གི་	-10.5869
ཐོས་པས་	-10.587
གསུང་བ་	-10.5872
མ་འགགས་པ་	-10.5878
འི་གཞུང་མང་གཉིས་	-10.588
རྣམས་ཡོངས་སུ་	-10.5881
ཡོངས་སུ་སྨིན་པ	-10.5881
ང་བཅས་པའི་ལྷ་	-10.5881
སྨོན་པ་མེད་པའི་	-10.5882
སྐབས་སུའང་	-10.5883
མཐོང་བས་རྣམ་པར་ག	-10.5883
▁བུ་མོས་སྨྲས་པ་	-10.5884
བོད་མི་ས་ཡ་དྲུག་	-10.5886
ལྟ་བུ་ཞིག་	-10.5887
དགའ་བར་བྱེད་	-10.5887
འབྲུ	-10.5887
ས་འདི་	-10.5888
དེ་ཁོ་ན་བཞིན་དུ་	-10.5889
ཉམས་བཞེས་	-10.5889
▁གང་ཡིན་བརྗོད་ན་	-10.5891
ཞུ་བ་ཞུས་པ་	-10.5894
གནས་པ་དང་	-10.5897
རྒྱབ་ལྗོངས་	-10.5899
▁དེ་ནས་རྒྱལ་པོ	-10.59
དོན་གྱི་ཕྱིར་	-10.5901
དགེ་བ་དང་མི་	-10.5901
ཉེ་འཁོར་	-10.5904
གོ་ཆ་ཆེན་པོ་	-10.5904
དུ་གཞུག་པར་བྱ་	-10.5904
རྡ་རམ་ས་ལར་	-10.5906
མར་གྱི་ཉིང་གུ	-10.591
དབང་ཕྱུག་མཆོག་	-10.591
གད	-10.5912
དང་བྲལ་ཞིང་	-10.5913
སྒྲོན་	-10.5914
བྱུག་པ་	-10.5915
ཉེ་དུ་	-10.5918
གླང་པོ་ཆེ	-10.5919
་ཇི་སྙེད་པ་ཉིད་	-10.592
བར་བརྟེན	-10.592
ལེགས་སྦྱར་	-10.592
འདོར་	-10.5922
གུས་པར་སྨྲ་བ	-10.5923
དུ་འགྲོ་	-10.5925
བྱེད	-10.5928
ཁང་བཟངས་	-10.5931
གདུལ་བ	-10.5932
▁འདུ་བྱེད་ཀྱི་	-10.5933
ཕ་རོལ་ཕྱིན་་	-10.5935
མཉམ་པ་ཉིད་ཀྱིས་	-10.5935
སྐོར་བཀའ་སློབ་	-10.5937
་མ	-10.5939
ལྷན་ཅིག་ཏུ་	-10.594
དྲུང་ཆེའི་	-10.5944
▁དེའི་ཐོག་	-10.5947
ལྟ་རྟོག་	-10.5949
དང་་དུད་འགྲོ	-10.5951
བྷོ	-10.5952
དེ་དེ་བཞིན་	-10.5952
་དང་་སྡུག་བསྔལ་བ	-10.5954
འཚེ་མེད་ཞི་བ	-10.5956
རྣམས་སྡུག་བསྔལ་	-10.5958
རེད་བསམ་གྱི་འདུག	-10.596
དཀའ་ངལ་སེལ་	-10.5962
དབང་ཕྱུག་གི་	-10.5966
ཆོས་ལུགས་ཚང་མས་	-10.5968
་སོ་སོ་ཡང་དག་པར་	-10.5969
ིག་རྟེན་སྐྱོང་བ་	-10.5971
འདི་བརྒྱུད་	-10.5971
རྒྱལ་ཁབ་དང་	-10.5976
གལ་གནད་	-10.5977
▁ཐམས་ཅད་མཁྱེན་པ	-10.5979
དབང་པོ	-10.598
ཐམས་ཅད་ཡོངས་སུ་	-10.598
▁ཨ་རི་	-10.5986
གཏན་འབེབས་གནང་བ་	-10.5988
འི་སེམས་ཅན་རྣམས་	-10.599
འཁོད་ནས་	-10.5991
གློ་	-10.5993
འི་བར་ལ་	-10.5994
རོགས་ཚོགས་	-10.5995
ཀུན་དགའ་ར་བ	-10.5996
འི་ཆོས་ཅན་ནོ་	-10.5999
གསལ་པོར་	-10.6002
ཡོངས་སུ་བཟུང་བ་	-10.6003
དཔེ་བྱད་བཟང་པོ་	-10.6004
་ཙ	-10.6005
ཁྲུས་	-10.6007
་དེ་འདི་	-10.6009
རྒྱུན་མི་འཆད་པར་	-10.6011
ཁ་པར་	-10.6011
བཞིན་ནོ་་	-10.6012
མ་ཡིན་པས་	-10.6012
བཀུར་	-10.6013
རྒྱུད་གཅིག་	-10.6014
▁རྡ་ས་	-10.6015
ཞིག་ཡིན་སྟབས	-10.6016
བསོད་སྙོམས་ལ་	-10.6018
པ་ཞེས་བྱ་བའི་	-10.6019
འདི་དག་ལ་	-10.602
དུལ་	-10.6022
ང་དང་	-10.6023
དོན་ལྡན་གླིང་	-10.6024
མུ་མཐུད་ནས་	-10.6026
▁བལ་ཡུལ་	-10.6027
བཞི་བཅུ་	-10.6027
གཉིད་	-10.6028
གཟབ་རྒྱས་	-10.6029
པར་བྱེད་ཅིང་་	-10.603
བརྙན་ཐུང་	-10.6033
▁ད	-10.6038
ཟས་སྦྱིན་གྱི	-10.6039
མ་ལགས་སོ་་	-10.6043
▁དེ་དེ་ལྟར་	-10.6044
བགྲོ་གླེང་གནང་	-10.6045
འདི་ལྟ་བུ་འདི་	-10.6046
འཇིག་རྟེན་ཁམས་	-10.6047
གནང་མཁན་ཡོངས་ལ་	-10.605
ལ་སྤྱོད་པས་	-10.605
གཞིས་ལུས་	-10.6051
ཁ་བྲལ་	-10.6052
དབྱེ་	-10.6053
བསམ་བློ་བཏང་ནས་	-10.6053
ལྷ་རྣམས་ཀྱིས་	-10.6053
ཡར་རྒྱས་ཕྱིན་	-10.6057
པའི་སླད་དུའོ་་	-10.6061
པའི་ཚེ་་	-10.6063
ཚོགས་གཙོ་མཆོག་	-10.6064
རྫོགས་པར་བྱ	-10.6065
ཁྲིམས་རྩོད་པ་	-10.6065
དྲི་བར་	-10.6065
དགོན་པ་དང་	-10.6066
▁རིག་པ	-10.6066
གཉེར་གསར་འགོད་པ་	-10.6066
བསམ་བློའི་ནང་	-10.6067
བཟོ་གྲྭ	-10.6068
གྲུབ་མཚམས	-10.607
་ན་བདག་	-10.6072
ལྔ་བརྒྱ་ཙམ་	-10.6076
དྲ་ཚིགས་	-10.6076
ཉན་ཞིབ་	-10.608
ྲོལ་སྙམ་འམ་	-10.6083
རེག་པ་ལ་གནས་སམ་	-10.6083
མཛོད་ཅིག་	-10.6083
མར་དང་ཞུན་མར་དང་	-10.6083
ཆོས་སུ་བཏགས་པ་	-10.6083
ཉན་ཐོས་ཀྱི་སའམ་	-10.6083
སྐུའི་འཕྲོད་བཞེ	-10.6084
དྲ་ཐོག་	-10.6086
སྒྲོགས་སྦྱང་གནང་	-10.6087
གཙོ་འཛིན་	-10.6089
དང་་མིའམ་ཅི་དང་་	-10.6089
འི་སངས་རྒྱས་ཀྱི་	-10.609
ཞལ་ཟས་	-10.609
ཅི་ཡང་	-10.6092
དང་་དགེ་བསྙེན་	-10.6092
རིག་པར་བྱ་སྟེ་	-10.6093
སྐུ་མགྲོན་དུ་	-10.6094
▁རིམ་པས་	-10.6095
སྒྲོག་	-10.6097
རྒྱས་པར་བྱས་ནས་	-10.61
འི་ཕོ་བྲང་འཁོར་	-10.6102
གཟུགས་ནི་	-10.6102
བསིལ་བར་གྱུར་པ་	-10.6102
ལྷན་འཛོམས་ཐོག་	-10.6105
མི་འཇིགས་	-10.6107
ངྒ་	-10.6108
ཏོག་	-10.6109
མི་འགྱུར་རོ་་	-10.6113
ནས་ཕེབས་པའི་	-10.6113
▁སློབ་གྲྭའི་	-10.6113
འོངས་ཏེ་ཞེས་བྱ་བ	-10.6113
བོར་ཏེ་	-10.6115
ན་བ	-10.6115
རྣམ་གྲངས་འདིས་	-10.6116
མང་པོ	-10.6116
འབེབས་	-10.6116
་འཐོབ་ཏུ་རུང་ན་	-10.6118
བགྱིས་ལགས་	-10.6118
བཤད་ན་	-10.6121
་རྒྱལ་བ་	-10.6122
▁ཕྱི་ལོ་གཟའ་ཉི་མ	-10.6125
བཙན་བྱོལ་ནང་	-10.6125
ིས་	-10.6126
ལྷན་འཛོམས་ཀྱིས་	-10.6126
ཚེའི་ཚད་	-10.6127
ཅུང་	-10.6127
མཚམས་སུ་	-10.6128
ནམ་མཁའི་ཁམས་	-10.6134
གནོན་ཤུགས་སྤྲོད་	-10.6134
ལ་གནས་ཤིང་	-10.6135
གཞི་ནས་	-10.6135
སོང་་་	-10.6136
ཅེས་སོགས་ཀྱི་	-10.6136
བཅད་དེ་	-10.6137
ས་པའི་འགོག་པ་	-10.6139
ཞུ་མཁན་	-10.6139
སྙིང་རྗེ་ཆེན་པོ	-10.6142
ཕུལ་བའི་	-10.6143
ཀྱི་ཞིང་དེ་ན་	-10.6144
དགའ་མོས་	-10.6145
མིག་གི་རྣམ་པར་	-10.6145
གལ་ཆེ་བ་	-10.6146
མཐོང་བའི་	-10.6147
བཅོམ་ལྡན་	-10.6148
ཀྲི	-10.6148
ཕྱག་དར་	-10.6151
འཁོར་བར་	-10.6151
བཅོ་ལྔ་	-10.6151
་འདུག	-10.6154
ཟུང་འབྲེལ་ཐོག་	-10.6154
སྐྱེད་སྲིང་	-10.6155
གོ་སྒྲིག་ཞུས་	-10.6157
འགྲོ་ཞིང་	-10.6157
པ་ཉིད་ཀྱི་ཕྱིར་	-10.6158
བཞུགས་ཁྲིར་	-10.616
་དང་ལག་མཐིལ་དུ་	-10.6161
ཕྲད་	-10.6161
བསླབས་ནས་	-10.6163
འཕྲད་བཞིན་ཡོད	-10.6163
བརྗོད་པར་	-10.6167
འཛམ་གླིང་ཡོངས་ལ་	-10.6167
ཨ་རིའི་རྒྱལ་	-10.6169
ཁྲིམས་འགལ་	-10.6169
སྨོན་ལམ་གྱི་དབང་	-10.617
བྱེད་བཞིན་ཡོད་པ་	-10.6171
སྟོང་ཕྲག་དུ་མ་	-10.6172
གཟུགས་དང་་	-10.6172
རབ་ཏུ་བྱུང་བའི་	-10.6173
ལ་ཕན་	-10.6175
ཆོས་ཀྱི་རང་བཞིན་	-10.6177
འོད་སྲུང་ཆེན་པོ་	-10.6179
ཡིད་ཀྱི་ལས་	-10.6179
སྐྱོང་སྤེལ་གསུམ་	-10.6184
ཉམས་སུ་མྱོང་བ	-10.6188
དབང་ཕྱུག་དང་་	-10.6189
ལ་གནོད་	-10.6189
ད་བར་བོད་མི་	-10.6189
སྟོབས་དང་་	-10.619
ཤིས་	-10.6193
▁དེ་དག་ལ་	-10.6194
ཤེས་ཡོན་དང་	-10.6194
ཐུན་	-10.6195
ཉེ་བར་གཞག་པར་བྱ	-10.6195
དཔེ་མཛོད་ཁང་	-10.6195
ལོ་རྒྱུས་ནང་	-10.6199
རང་ལོ་	-10.62
ཞབས་ཞུ་	-10.62
མི་འགྱུར་བ་དང་་	-10.6201
སྦྱངས་པ་	-10.6202
སེམས་ཀྱི་རྒྱུད་	-10.6202
གཡ	-10.6205
རྒོད་	-10.6205
དེ་ཐམས་ཅད་	-10.6206
སྐུ་ཚེ་ཞབས་པད་	-10.6206
ལས་དོན་སྤེལ་	-10.6209
གྱིས་ཤིག་ཅེས་	-10.6214
རང་དབང་དང་	-10.6214
གཅ	-10.6215
རྣམས་ལས་	-10.6216
བདག་གིས་ཀྱང་	-10.6217
ཀྱི་གནས་སྟངས་	-10.6219
བསྐོར་ཅིང་	-10.6223
ཕ་ཡུལ་	-10.6226
འཐུང་	-10.6226
མི་སྒེར་	-10.6226
▁ཟླ་བ་	-10.6228
དོན་ཁང་གི་	-10.6231
་ཞེས་བྱ་བའི་	-10.6232
ཞེས་བྱ་	-10.6234
ཕྱིར་རྒོལ་བར་	-10.6234
ཚད་མ	-10.6235
རིམ་པར་	-10.6237
མིའམ་ཅི་	-10.6238
ཐུགས་བསྐྱེད་	-10.6239
མཁན་ཚོས་	-10.624
རྒྱུ་ཡིན་པ་བཅས	-10.624
བསྐོར་ཏེ་	-10.6241
གང་གའི་ཀླུང་	-10.6242
ལྟ་བུ་རེད	-10.6242
བཞི་པའི་	-10.6245
ཁག་ནས་	-10.6246
ཡོད་མ་རེད	-10.6247
རང་བཞིན་ནི་	-10.6248
གསུང་གི་འདུག	-10.6249
ལྷན་ཚོགས་སྐབས་	-10.6249
དོང་སྟེ་	-10.625
ས་ཡང་དག་པ	-10.6252
▁ཤེས་ལྡན་དག་	-10.6254
དེ་དག་ཚང་མ་	-10.6256
རྣམས་སམ་	-10.6257
གོང་མའི་	-10.626
དེར་ནི་	-10.626
དེ་དག་ཏུ་	-10.6263
དེ་འདྲ་བ་	-10.627
▁གཞུང་འབྲེལ་	-10.6272
མིའི་ལྷན་སྐྱེས་	-10.6274
དང་བྲལ་བའི་	-10.6275
འདི་ཡིས་	-10.6275
བྱུང་མེད	-10.628
▁གྲོང་ཁྱེར་	-10.628
ཉེས་དམིགས་	-10.6281
བདག་མེད་པའི་	-10.6281
དགེ་མཚན་	-10.6282
སྙམ་པའི་	-10.6284
བྲེགས་	-10.6286
རོ་མྱང་བ་མེད་པར་	-10.6287
བསྣུན་	-10.6287
བྱིན་རླབས་	-10.629
ནི་འདི་ཡིན་ཏེ་	-10.6293
གཞིར་	-10.6294
མར་མེ་ཞལ་ཕྱེ་	-10.6295
ཇི་ལྟ་བུར་	-10.6299
ནང་པའི་གཞུང་	-10.6299
གཏོང་ཐབས་	-10.6301
བྱ་དགོས་	-10.6301
དབུལ་	-10.6302
གི་གོ་སྒྲིག་འོག་	-10.6306
སྒྲིབ་	-10.6308
རྗེས་སུ་བསྟན་པ་	-10.6308
ཁྱེད་རང་	-10.631
སེང་གེའི་ཁྲི་ལ་	-10.6312
དེའི་མིང་	-10.6315
བཙུན་པ་ཤ་རིའི་བུ	-10.6317
ཕན་ཚུན་དབར་	-10.632
པ་མེད་	-10.6321
ལྟུང་	-10.6321
ཡུ	-10.6322
བྱེད་ཀྱི་ཚལ་དུ་	-10.6323
སྐྱ་	-10.6326
ཟབ་མོ་འདི་ལ་	-10.6327
གཞིས་ཆགས་ཁག་	-10.6327
སྲིད་སྐྱོང་དང་	-10.633
བདུན་ཅུ་	-10.6331
རིང་པོ་	-10.6333
བགྱི་་	-10.6334
བ་ནི་	-10.6336
ཤེས་པར་བྱ་བའི་	-10.6336
ཙམ་ནས་	-10.6336
བྱིན་ཏེ་	-10.6337
དགོན་པ	-10.6338
▁དེ་དུས་	-10.6339
འི་སྟོབས་བཅུ་དང་	-10.6339
ཕྱིན་ཆད་	-10.634
བདུད་ཀྱི་ལས་	-10.6341
གཏོར་བཤིག་བཏང་	-10.6342
ཆོས་ཀྱང་	-10.6342
▁བོད་མི་རྣམས་	-10.6343
▁སེམས་ཅན་དམྱལ་བ་	-10.6343
རང་བཞིན་ཅན་	-10.6343
ཁྲིམས་ཐག་བཅད་	-10.6343
ནི་མ་ཡིན་ནོ་་	-10.6345
བྱར་	-10.6345
ཞིག་ལ་ངོས་འཛིན་	-10.6347
ཐུང་	-10.6347
གཏི་མུག་གི་	-10.6348
ཞིག་ཡིན་ཞིང་	-10.6348
འགུལ་	-10.6349
པ་ལྟར	-10.635
གལ་ཆེན་པོ་ཡིན་པ་	-10.6351
སློབ་ཕྲུག་ཚོར་	-10.6354
ཇི་བྱུང་	-10.6355
མངོན་པར་བསྟོད་	-10.6356
ཉིན་ལྟར་	-10.6356
དགོས་པ་དེ་	-10.6358
ཤ་རིའི་བུ་དང་	-10.6358
དང་བོད་མིའི་	-10.6363
དང་ལྷག་པར་	-10.6364
སྣེ་	-10.6367
ཞིག་ཡིན་	-10.6369
དེ་ཉིན་	-10.637
རྣམས་དང་་་	-10.637
པའི་ཕྱིར་རོ་	-10.637
དང་བྲལ་	-10.6376
བཅ	-10.6379
སྡིངས་ཆ་	-10.638
བརྗོད་སྐབས་	-10.638
ཁྱེན་པ་སྐྱེས་བུ་	-10.6381
མཉན་	-10.6381
དགོངས་གཞི་	-10.6382
དེ་འདི་	-10.6383
འི་འདུ་ཤེས་	-10.6384
དྲི་ཞིམ་	-10.6387
ཁྲིམས་ཞིབ་ཁང་	-10.6388
ཕྱི་དྲོ་ཆུ་ཚོད་	-10.6389
རྒྱགས་	-10.6391
བསྟན་ལ་	-10.6391
བྱས་ནས་་	-10.6392
བྱེད་ཐབས་	-10.6392
ཟེར་ན་	-10.6393
དུ་ར	-10.6394
མཁན་པོ་དང་	-10.6394
བརྟགས་	-10.6394
་རི་	-10.6395
མངོན་པར་ཤེས་པའི་	-10.6396
བསྟན་པར་བྱའོ་་	-10.6397
གཞས་སྣ་འཁྲབ་སྟོན	-10.6397
ཐོག་མའི་	-10.6399
འི་བར་གྱི་	-10.64
མཐུན་ཚོགས་	-10.6402
▁བླ	-10.6403
▁དེས་ཀྱང་	-10.6403
སློབ་སྤྱི་	-10.6403
རབ་ཏུ་དགའ་བ	-10.6405
ཤིང་དྲུང་	-10.6405
ཀྱི་དེ་བཞིན་ཉིད་	-10.6407
གནང་གལ	-10.6407
པོ་དང་	-10.6407
དགོས་རྒྱུ	-10.6408
ཀྱི་རྐྱེན་པས་	-10.6408
སྲ	-10.6409
མང་ཤོས་	-10.641
སྐོ	-10.6411
མེད་སྟབས	-10.6412
▁ངས་ནི་	-10.6414
པར་བཞེད་ན་ནི་	-10.6414
སྐུ་ངལ་	-10.6414
མི་ཆོག་པའི་	-10.6415
བགྱིས་ཏེ་	-10.6418
བཞིན་པ་དེར་	-10.6418
ཆོས་ལུགས་ནང་ཁུལ་	-10.6418
▁ཚེས་	-10.642
རྩིས་མེད་	-10.642
མཐོ་སློབ་ཏུ་	-10.642
▁བོད་དང་	-10.6424
▁ལྷ་ཡི་	-10.6424
ནྟ	-10.6429
བྱང་ཨ་རི་	-10.6431
དང་རྒྱལ་སྤྱིའི་	-10.6431
ཡག་པོ་ཞིག་	-10.6433
སྨྲས་ཏེ་	-10.6433
རྡོ་རྗེ་ལགས	-10.6433
ལས་བྱེད་དང་	-10.6434
ནས་ལོ་ངོ་བའི་	-10.6436
མི་འགྲོ་	-10.6437
མངོན་ཤེས་	-10.6441
ཤེས་ཡོན་ཐོག་	-10.6442
▁ཅིའི་ཕྱིར་	-10.6445
སྒོམ་པ་	-10.6445
དགུང་	-10.6446
▁ཀུན་འབྱུང་བ་དང་	-10.6447
ཆེད	-10.6447
ལྟ་བར་	-10.6454
མངོན་པར་འབྱུང་བ	-10.6455
གཅིག་ཙམ་	-10.6455
རྗེས་སུ་འབྲང་བ	-10.6456
འབྲེལ་བ་ཡོད་པ་	-10.6456
བརྒྱ་སྟོང་མང་པོ་	-10.6458
རིག་གཞུང་གི་	-10.6462
ལེགས་གྲུབ་བྱུང་	-10.6464
ཁྱོན་བསྡོམས་	-10.6464
མ་ལུས་པར་	-10.6467
ལ་ཐུགས་བརྩེ་བ	-10.6468
བྷེ	-10.6469
རྒྱལ་ཁ་ཐོབ་	-10.647
གྱིས་ལ་	-10.6471
སྲིན་མོ་	-10.6474
བསྐལ་པར་ལན་གསུང་	-10.6474
བཤད་དོ་་	-10.6477
ལུས་མེར་བསྲེགས་	-10.6478
འཇིག་རྟེན་མ	-10.6479
སྡེ་དཔོན་	-10.6479
ཕེབས་འདུག	-10.648
ར་གྱུར་ལ་	-10.6481
སྒང་ལ་	-10.6481
▁ལྷའི་བུ་དག་	-10.6487
སྐོར་གོ་རྟོགས་	-10.6487
ལུས་ཀྱིས་	-10.6491
ཨ་རིའི་ནང་	-10.6492
ཕྱིན་ཏེ་	-10.6494
བརྩེ་བ	-10.6495
འདས་ནས་	-10.6495
ཕྱོགས་བཅུར་	-10.6495
རྡོ་རྗེས་བཅོམ་ནས	-10.6496
ཚོགས་ཆེན་ཐོག་	-10.6496
དེ་ལྟ་དེ་ལྟར་	-10.6497
རླངས་འཁོར་	-10.6497
འཛམ་གླིང་ཁྱོན་དུ	-10.6498
སྡུག་སྦྱོང་	-10.6498
སྔ་རྗེས་	-10.6499
གནང་རྒྱུ	-10.6499
ཀྱང་མི་	-10.65
རྗེ	-10.6501
ཀུན་སློང་	-10.6502
གཤེགས་ཏེ་	-10.6502
རྩ་བའི་	-10.6506
གཤམ་གསལ	-10.6507
དབུགས་འབྱིན་	-10.651
གཞིར་བཞག་	-10.6514
ཊར་	-10.6515
མི་རྣམས་ལ་	-10.6515
མེད་པའི་བར་དག་	-10.6516
བཙོན་འཇུག་བྱས་	-10.6519
སྣང་ངོ་་་	-10.6521
ཉར་	-10.6521
▁རྒྱ	-10.6525
སློབ་འཁྲིད་	-10.6525
གསལ་བཤད་གནང་	-10.6525
ཟུང་ཤིག་	-10.6525
▁ཚངས་པའི་	-10.6527
གས་པ་	-10.6528
སྲིད་དོན་ཚོགས་མི	-10.653
ལེགས་པར་བརྒྱན་པ་	-10.6532
ཐམས་ཅད་དུ་ཡང་	-10.6532
བརྒྱ་དང་	-10.6536
བོད་རྒྱལ་ཁབ་	-10.6537
སྐྱ	-10.6538
བཅས་ཀྱི་ཐོག་	-10.6539
ལོངས་སྤྱོད་ཆེ་བ་	-10.6539
སྟོན་ཏོ་	-10.6544
འདིས་ན་བདག་	-10.6545
འོད་དཔག་མེད་	-10.6545
མྱ་ངན་མེད་	-10.6546
འཆང་བ་	-10.6548
དུས་བཀག་	-10.6548
བདེན་པའི་ཚིག་	-10.6549
སྣའི་རྣམ་པར་	-10.6549
ྟ	-10.6553
རྒྱལ་ས་ལྡི་ལིར་ར	-10.6554
བདག་དང་	-10.6558
སྐྱབས་བཅོལ་བ་	-10.6561
ཞིང་དགའ་ལ་	-10.6563
རྒྱལ་ཁབ་ཁག་གི་	-10.6563
གཟབ་རྒྱས་ཞུས་	-10.6564
དེ་སྲིད་	-10.6565
འཁྲི	-10.6567
ཕྱག་འཁྱེར་	-10.6567
གནོད་པ	-10.6568
མཛད་རིམ་	-10.6568
རྣམ་པར་རྟོག་པ	-10.6569
གསུམ་གྱི་བར་དུ་	-10.657
སེར་པོ་	-10.6572
▁དེ་ཡིས་	-10.6573
དག་སྣང་	-10.6574
▁ཆུ་	-10.6574
དམ་པའི་ཆོས་ཀྱི་	-10.6574
ས་གནས་བོད་མི་	-10.6575
དགེ་སློང་རྣམས་	-10.6575
ཏུ་གྱུར་པ་	-10.6576
ི་སི་	-10.6576
ལས་ཁུངས་ཁག་གི་	-10.6576
ཁྲིམས་ཞིབ་པ་གཞན་	-10.6576
▁གཞི་རྩའི་	-10.6577
་དེ་བཞིན་	-10.6578
བསམ་གཏན་བཞི་དང་་	-10.658
ྲུང་གི་བསྟན་པ་ལ་	-10.6583
ལས་གྲུབ་པའི་	-10.6584
ཆུ་ཚོད	-10.6586
ས་སྒོ་ངའི་སྦུབས་	-10.6586
ཉམ་ང་བ་ཉུང་ངམ་	-10.6586
གཉིས་པའི་	-10.6586
གསར་འགོད་པའི་	-10.6591
ེའུ་	-10.6591
ས་ཤིང་མུན་པ་བསལ་	-10.6591
ལ་ཕྱག་འཚལ་	-10.6592
འགྲུལ་བཞུད་	-10.6596
་པར་བརྟེན	-10.6597
ཡིན་ནའང་རེད	-10.6602
ཀྱི་སྒོ་ནས་	-10.6602
རང་གི་ལུས་	-10.6603
བགྲང་བ	-10.6606
ཧུར་ཐག་	-10.6609
སོ་སོའི་སྐྱེ་བོ	-10.661
་མེད་་	-10.6611
འཁོར་བཞི་པོ་	-10.6619
སེམས་ཅན་དེ་དག་ལ་	-10.662
ལྡ	-10.6621
བྱེད་དོ་	-10.6621
གནས་པ་དང་་	-10.6621
ལས་ཁུངས	-10.6623
བཀའ་དྲིན་ཆེ་	-10.6624
དབུ་འཛུགས་ཀྱིས་	-10.6625
ཕལ་ཆེ་བ་	-10.6626
རྣམས་ཀྱི་དོན་བྱ	-10.6627
▁དེའི་བཙས་སྟོན་	-10.6628
གནས་ན་	-10.663
ཅརྱ་ཡེ་ཤེས	-10.663
་ཟབ་མོ་འདི་	-10.663
རང་དབང་གི་	-10.6631
སྟོང་པ་ཉིད་ཀྱང་	-10.6635
▁དེ་ནས་དྲང་སྲོང་	-10.6637
ར་མི་འགྱུར་རོ་	-10.6639
བཙན་འཛུལ་	-10.664
བརྒྱ་བྱིན་དང་་	-10.6641
ས་པ་དེ་དང་དེར་	-10.6641
སྡུད་	-10.6641
སྲིད་བྱུས་ཀྱི་	-10.6641
ཚོགས་གཙོ་དང་	-10.6642
གཟི་	-10.6644
རྒྱུ་སོགས་	-10.6645
ལོ་སྟོང་ཕྲག་	-10.6647
ཐོབ་པས་	-10.665
ཁྱེད་གཉིས་	-10.665
ལྷག་པའི་	-10.6651
ཅི་ལྟར་	-10.6653
ལྟ་སྐྱོང་	-10.6654
འགྲེམས་	-10.6657
བ་རྣམས་ལ་	-10.6658
འཐུན་	-10.666
གཏོང་གི་ཡོད	-10.6663
བསྒོ་བ་	-10.6667
ཐེག་	-10.667
བསྟན་པ་བཞིན་ནོ་་	-10.6672
ཀྱི་བརྙན་འཕྲིན་	-10.6673
ཚོགས་ཀྱིས་	-10.6674
སྤྱོད་ཅིང་	-10.6675
འི་དུས་	-10.6676
་རྣམས་ཡིན་ནོ་	-10.6676
བཏོན་པའི་	-10.6676
མྱ་ངན་ལས་འདའ་བ་	-10.6677
བཅུའི་	-10.6683
མཐོང་བས་	-10.6684
འཇིག་རྟེན་ལ་	-10.669
བ་བཅས་	-10.669
ཁོང་ཁྲོ་	-10.6691
ཀོང་	-10.6693
ཉེ་བར་གནས་པ་	-10.6693
སྦེང་ལོར་	-10.6695
དཔེ་མཛོད་ཁང་གི་	-10.6697
ལྡན་ཞིང་	-10.6699
འགྲིག་གི་	-10.6702
ཡིད་མི་བདེ་བ	-10.6703
▁ལྷ་དག་	-10.6703
ཕེབས་འབྱོར་གནང་	-10.6705
མཉན་དུ་ཡོད་པར་	-10.6706
ཤ་ཟ་	-10.6707
གཟེངས་སུ་ཐོན་པ	-10.6708
ཧུར་བརྩོན་	-10.6708
གསོད་ཁྲག་སྦྱོར་	-10.6708
བརྡུངས་	-10.6708
སྔ་དྲོ་ཤམ་ཐབས་	-10.6708
▁དེ་ཡང་ཕྱི་ལོ་	-10.6708
མཇུག་སྡོམ་	-10.6709
ཤི་བའི་འོག་ཏུ་	-10.6709
མུན་	-10.671
གངས་ཅན་	-10.6711
ཁྱིམ་ནས་ཁྱིམ་	-10.6711
འཁྲུག་པ་	-10.6712
འོས་འདེམས་བྱས་པ	-10.6714
བླུགས་	-10.6714
མང་པོ་ཡོད	-10.6715
རི་མོར་	-10.6717
་ཁམས་གསུམ་པའི་	-10.6718
སྩལ་བའི་	-10.6718
གི་བསྟན་པ་ལ་	-10.6719
བོད་ཡིག་ནང་	-10.6719
ཕྱོགས་སྒྲིག་	-10.6719
ལོར་	-10.6721
ལས་ཡང་དག་པར་འདའ་	-10.6722
ཀྱི་ཕྱིར་དང་་	-10.6722
རྒྱ་མིས་	-10.6723
གསོ	-10.6723
ཡེ་ཤེས་གཟིགས་པ་	-10.6725
ལྷག་པའི་བསམ་པས་	-10.6726
བྱས་པར་བརྟེན་	-10.6728
ཏིང་འཛིན་མཆོག་	-10.673
▁ཡིན་ནའང་	-10.6731
བློ་གྲོས་དང་་	-10.6731
ཟས་སྦྱིན་	-10.6732
▁བཙུན་པ་བདག་	-10.6733
མཚོན་ནའང་	-10.6734
སྤོབས་པ་ཟད་མི་	-10.6738
ལྟ་བ	-10.6739
ར་བྱ་་	-10.674
འགོར་	-10.674
ཕུན་ཚོགས་ལགས་	-10.6743
དགོས་པའི་སྐོར་	-10.6744
ཀྱང་མི་གནས་པར་	-10.6745
དུས་དྲན་ཐེངས་	-10.6746
རིམས་ཀྱི་	-10.6747
ཆུང་མ་ལ་བུ་ཆགས་	-10.6747
སྟོབས་ལྡན་	-10.6747
རིང་བ་	-10.6748
མེད་སྟབས་	-10.6749
འཚམས་འདྲི་ཞུས་	-10.6754
ཡུན་	-10.6754
ཁང་ནས་	-10.6758
སྤོ	-10.6759
སྐྱེ་གནས་	-10.676
ཡང་རུང་སྟེ་	-10.676
ཁག་པོ་རེད	-10.6763
འཕྲོས་	-10.6764
གི་མཐར་ཐུག་པ་	-10.6768
ལྷན་དུ་	-10.6771
རྒས་གསོ་ཁང་	-10.6772
▁དགེ་བ་	-10.6772
ཁྱེའུ་གཟུགས་བཟང་	-10.6774
ལྷོ་སྤྱི་	-10.678
ཡོད་ལ་	-10.6781
ར་བྱ་བསྙེན་པར་	-10.6781
བཞག་པའི་	-10.6786
ཐུབ་མཁན་	-10.6788
མེ་ཏོག་གི་ཆར་	-10.679
དང་་སྐྱེ་བ་	-10.6791
རྒྱགས་པ་	-10.6791
ད་ཐེངས་	-10.6794
དུད་འགྲོ་	-10.6794
སྣེ་ཁྲིད་	-10.6796
སྲོ	-10.6796
ཆབ་སྲིད་དང་	-10.6798
ལ་གདོང་ལེན་	-10.6799
ཚང་བ་	-10.6802
ཆོས་བཞིན་དུ་	-10.6802
རོགས་ཞེས་	-10.6803
▁འབྲེལ་ཡོད་	-10.6804
སྲུང་བ་	-10.6807
དབང་བསྒྱུར་	-10.6808
་མེད་པར་གྲགས་པ་	-10.6808
སྨོན་པ་མེད་	-10.681
བར་བྱེད་་	-10.6813
གདུགས་དང་	-10.6815
རྨ	-10.6816
བོད་ནང་གི་འགྲོ་བ	-10.6817
བཞིན་ཡོད་སྟབས་	-10.6817
བོར་ནས་	-10.6821
གླང་པོ་ཆེའི་	-10.6822
འོད་སྲུང་དང་	-10.6822
ཡུད་ཙམ་	-10.6823
བྱམས་པ་དང་	-10.6825
་སྟེ་་	-10.6826
ཆེན་པོ་མཆོག་ནས་	-10.6826
ཤི་བ་	-10.6828
སྐབས་རེ་	-10.6829
འཇོམས་པ་	-10.6829
བི་	-10.6833
སྦྱིན་པར་བྱེད་པ་	-10.6835
▁རིམ་བཞིན་	-10.6836
ཁག་གཅིག་དང་	-10.6838
རྡོ་རྗེ་ལགས་	-10.6839
ནང་དོན་	-10.6839
བཙུགས་པ་	-10.6839
▁ཕྱོགས་བཅུའི་	-10.6841
རྗོད་པར་བྱེད་	-10.6842
གདུག་རྩུབ་ཅན་	-10.6842
པར་མི་བྱའོ་་	-10.6842
འདྲ་མིན་གྱི་	-10.6842
གནང་བ་ལྟར	-10.6843
ནས་ལོ་ངོ་	-10.6843
▁དེ་ཟླ་བ་དགུའམ་	-10.6845
་ལ་སོགས་པ་	-10.6846
དེར་ཡང་	-10.6846
དང་་ཆོས་	-10.6847
ས་ཁུལ་དུ་	-10.6849
ནོར་འཁྲུལ་	-10.685
ན་དུ་	-10.6851
སོག་པོ་	-10.6853
དྲི་བ	-10.6855
ཁྱེའུ་འདིའི་མིང་	-10.6856
བསུ	-10.6857
ཡུ་རོབ་རྒྱལ་ཁབ་	-10.6857
ཤེས་རིག་བ	-10.6861
འདུད་	-10.6862
ཡོངས་ཀྱིས་	-10.6862
པ་གང་ཞེ་ན་	-10.6865
ངོས་འཛིན་གནང་	-10.6871
ཐོས་པར་	-10.6872
དམའ་	-10.6874
་ཤེས་པ་གང་གིས་	-10.6875
ཡིན་པས་ན་	-10.6879
ཐོན་པ་	-10.688
མོན་གྷོ	-10.6882
ཆོས་ཟབ་མོ་	-10.6882
ཡོ་	-10.6883
ཉེ་བར་ལེན་པ	-10.6884
ཟག་པ་	-10.6887
རྩེ	-10.6887
ཐེམ་སྤང་བཀའ་རྒྱ་	-10.6888
ཕྱག་འཚལ་ལོ་་	-10.6888
གཡོ	-10.6891
གསུམ་པའི་	-10.6891
ངག་གི་	-10.6897
ལས་འགུལ་བ་	-10.6898
བཀག་སྡོམ་	-10.69
སློབ་གྲྭ	-10.6903
▁རྒྱ་གར་གནའ་རབས་	-10.6904
རྩ་བ་ནས་མེད	-10.6904
འདྲ་བའི་སེམས་	-10.6904
འདུག་གོ་	-10.6906
གཞིས་ཆགས	-10.6906
ཐང་གི་གནས་སྟངས	-10.6906
མྱོས་	-10.6908
མི་དགོས་པར་	-10.6914
ལེགས་སྦྱར་སྐད་	-10.6914
རྒྱ་གར་ལ་	-10.6916
འཐབ་རྩོད་ཐོག་	-10.6916
ཞིག་སྟེ་	-10.6917
་ཤུགས་ཆེ་བཏོན་	-10.692
བཏོན་པ་	-10.692
གང་ལས་	-10.6922
གྲངས་གཉིས་རིང་	-10.6924
ས་ཤིང་	-10.6924
བལ་ཡུལ་ནང་	-10.6925
ི་ལྗོངས་ཡར་རྒྱས་	-10.6926
ཅིང་རྗེད་པ་དང་	-10.6926
པར་ཤོག་	-10.6926
ལྷག་བསམ་རྣམ་དག་	-10.6927
ལོ་བཅུ་ལོན་པ	-10.6927
སྦྱིན་གནས་	-10.6928
བ་དན་	-10.6929
མ་ཆགས་	-10.6929
འཐུས་མི	-10.6931
ཉེན་རྟོག་	-10.6933
ཕྱོགས་བཞིར་	-10.6934
དེར་བརྟེན་ང་ཚོས་	-10.6934
དྲི་མ་མེད་	-10.6935
ཆོས་ཚོགས་ཐེངས་	-10.6935
གསོལ་འདེབས་ཞུ	-10.6938
འཇིགས་པ་མེད་པ	-10.6938
དེ་གཉིས་ལ་	-10.6938
ལེགས་བཅོས་	-10.6939
ཡོད་པ་དེར་	-10.6939
འབྱུང་བར་འགྱུར་བ	-10.6939
ཆོག་པ་	-10.694
▁བོད་རིགས་	-10.6941
གང་པོ་	-10.6944
དམ་པ་དེ་ཉིད་	-10.6945
ཡོངས་སུ་ཤེས་པ	-10.6946
གཅིག་གྱུར་གྱི་	-10.6947
ཚུར་ཤོག་ཅེས་བྱ་བ	-10.6948
མ་མཆིས་པ་ལགས་	-10.6949
དེས	-10.6952
ཕའི་	-10.6954
སེར་སྐྱ་མང་ཚོགས་	-10.6955
མངོན་པར་ཤེས་པས་	-10.696
བོད་ཕྱི་ནང་གཉིས་	-10.696
བཀོད་ཡོད	-10.6961
ལ་ཞུགས་པ་	-10.6961
སྲིད་པར་	-10.6964
བསྐྱོན་	-10.6965
▁ཅི་ནས་ཀྱང་	-10.6969
བཛྲ་	-10.6974
ཕྱོགས་གཞན་ཞིག་	-10.6975
▁འཁོར་	-10.6975
བྱུང་ཚེ་	-10.6975
མི་མངའ་་	-10.6976
ུས་ན་དྲང་སྲོང་	-10.6977
ཟིན	-10.6978
ལ་སོགས་པས་	-10.6981
སྣུམ་	-10.6982
བོད་མི་རྣམས་ཀྱི་	-10.6982
རྙིང་པ་	-10.6983
བཟོས་པ་	-10.6984
ཁྲོད་ནས་	-10.6988
▁ཁྱེད་ཚོས་	-10.6989
འདུ་བྱེད་ཐམས་ཅད་	-10.699
རྒྱན་གྱིས་བརྒྱན་	-10.6991
དང་བླངས་	-10.6992
རྡ	-10.6993
ཉིན་རེའི་	-10.6993
མྱ་ངན་འདས་པ་	-10.6995
དུ་མི་	-10.6996
གཉིས་ཀ	-10.6996
མ་ཡིན་ནམ་	-10.6998
མཆོག་ནི་	-10.6998
▁བརྩོན་འགྲུས་	-10.6998
ཆོས་ཕྱོགས་	-10.7
མི་གཟུང་བར་	-10.7
རྩེད་	-10.7001
ཐར་བར་	-10.7001
བཞུགས་གནས་	-10.7002
སྟོང་པ་ཉིད་དུ་	-10.7002
རྣམ་པར་དག་པའི་	-10.7003
མཚན་མ་མེད་	-10.7003
དགོས་ཀྱི་	-10.7004
སེལ་བ་	-10.7005
ཕ་རོལ་ཏུ་	-10.7007
ཀའ་བློན་པདྨ་དབྱང	-10.7008
ལ་ཕྱག་འཚལ་ལོ་	-10.7008
སྐུ་མགྲོན་རྣམས་	-10.7009
དང་མཉམ་པ་	-10.7009
▁དྲན་པ་	-10.701
སྙོམས་པར་འཇུག་པ	-10.701
འོག་གི་	-10.7011
མེད་པ་ཡིན་	-10.7013
གནང་བ་ལྟར་	-10.7013
དོན་གཉེར་	-10.7019
འི་བར་དུ་ཡང་	-10.702
ནོར་བུ་ལགས་ཀྱིས་	-10.7023
ཡིན་སྐོར་དང་	-10.7026
ཕན་ཐོགས་ཧ་ཅང་	-10.7028
གཏོང་རྒྱུ་	-10.7028
▁སྲིད་པ་	-10.7028
་ནམ་མཁའི་སྙིང་པོ	-10.7028
དབུ་བརྙེས་ནས་ལོ་	-10.7033
སོ་སོའི་ནང་	-10.7035
རྟོགས་ནས་	-10.7036
ཅན་་	-10.704
བརྐྱང་	-10.704
གཟུགས་ཅན་	-10.704
ཆེ་་	-10.7047
ཁང་གི་ལས་བྱེད་	-10.7049
ེར་	-10.7049
▁ལྷ་མོ་	-10.7051
མཐིལ་	-10.7051
རང་སྐྱོང་ར	-10.7052
གྲྭ་ཚང་གི་	-10.7054
་སིངྒ་	-10.7055
མ་དང་་	-10.7056
ཉོ་	-10.7057
ནང་མཉམ་ཞུགས་	-10.7057
ས་པའི་	-10.7059
དོ་བདག་	-10.706
མངོན་པར་དགའ་བ	-10.7065
▁དེ་བཞིན་དུ་མིག་	-10.7066
་ནི	-10.7068
ཡུ་རོབ་སྤྱི་	-10.7069
སོང་བ་ལས་	-10.707
སྦུ	-10.7071
གཅིག་མཚུངས་རེད	-10.7073
ཡོངས་སུ་མི་སྐྱོ་	-10.7074
འི་རྒྱལ་ཚབ་	-10.7076
བཅས་པའི་	-10.7076
▁དེ་བཞིན་རྒྱ་གར་	-10.7077
བཀའ་སློབ་སྩལ་བ་	-10.7077
ཚོགས་གཙོ	-10.7077
གནས་དང་	-10.7079
དྲ་རྒྱ་	-10.7079
ཨོ་སི་ཊོ་ལི་ཡའི་	-10.7082
▁འཇིག་རྟེན་གྱི་	-10.7082
ཀྱིས་ཐོག་མར་	-10.7083
སྤྱོད་་	-10.7084
རང་དབང་འཐབ་རྩོད་	-10.7084
སྐོར་གླེང་སློང་	-10.7086
དྲུག་པོ་	-10.7087
སྙམ་པ་	-10.7089
སྦྱིན་པ་དང་་	-10.7094
འབྱུང་ཞིང་	-10.7095
གསོ་རིག་	-10.7096
ལོའི་	-10.7098
གོམས་	-10.7102
སྦྱར་བ་	-10.7103
མཐོ་སློབ་ཁང་གི་	-10.7103
གཞུང་མང་གཉིས་	-10.7104
མི་འདོད་པ་	-10.7107
མཚན་ཉིད་མེད་པའི་	-10.7108
བྱེད་ལ་	-10.711
རྣམ་པར་གྲོལ་	-10.711
སྔགས་ཀྱི་	-10.7111
མི་གནས་སོ་་	-10.7113
་ཕུན་ཚོགས་མཆོག་	-10.7115
▁ང་རྒྱལ་	-10.7116
བདམས་ཐོན་བྱུང་བ	-10.7117
སྤེལ་བཞིན་ཡོད	-10.7117
▁མ་འོངས་པའི་	-10.7118
ལྷན་ཅིག་ཏུ་རྩེ་	-10.7119
ལོངས་	-10.7123
▁ཀླུ་	-10.7129
སྙམ་དུ་བསམས་ནས་	-10.7131
མིན་པའི་ཚོགས་པ་	-10.7132
ཟེར་དུས་	-10.7132
ཐེབས་རྩ་ཁང་	-10.7134
འཇིག་རྟེན་མགོན་	-10.7135
ཨུད་པ་ལ་	-10.7136
གཞས་སྣ་	-10.7136
▁བསྐལ་པ་བྱེ་བ་	-10.7137
མངལ་	-10.7139
ཡོད་སྐོར་གསུངས	-10.714
བྱ་རྒྱུ་དེ་	-10.7143
གདུག་པ་	-10.7146
བསྐྱོད་པ་ཡང་ངམ་	-10.7148
རབ་རྒྱས་གླིང་	-10.7148
རབ་རིབ་	-10.7148
རྐྱང་རྐྱང་	-10.7148
འདུས་ཏེ་རེག་པའི་	-10.7148
ངག་དབང་ཐོགས་མེད་	-10.7148
ལྟུང་བའི་རྩ་བ་	-10.7148
ཕྱིན་ཅད་	-10.7149
མཆོད་སྡོང་	-10.7149
མ་ནིང་	-10.7149
ས་ཤིང་དོན་	-10.7152
ལས་ཁུངས་ཁག་	-10.7153
སུམ་ཅུ་རྩ་བདུན་	-10.7153
དར་འཕེལ་	-10.7153
དང་་ཡིད་མི་བདེ་བ	-10.7154
དགྲ་བཅོམ་	-10.7154
སློབ་སྟོན་	-10.7155
བསྡད་ཡོད	-10.7157
ཞིག་རེད་འདུག	-10.7158
གཙུག་རྒྱན་	-10.7159
རྒྱ་གར་བྱང་ཤར་	-10.7161
▁དབུས་	-10.7162
ོད་	-10.7164
འཇམ་ཞིང་	-10.7164
མཆོག་བཅས་	-10.7165
གཏོང་རྒྱུའི་	-10.7168
མཇལ་ཁ་	-10.7168
བཙུན་མ་	-10.717
ཨ་རིའི་བོད་དོན་	-10.7172
དྲི་མ་དང་བྲལ་བ་	-10.7173
▁ས་གནས་འགོ་འཛིན་	-10.7173
ཡར་རྒྱས་ཀྱི་	-10.7178
▁སྟོང་པ་ཉིད་	-10.7179
བྱ་སྟེ་	-10.718
གཏུམ་	-10.7182
བཙ	-10.7184
▁ཆོས་རྣམས་ཀྱི་	-10.7184
་ཏི་	-10.7188
ཡོང་བ་ཞུ	-10.7188
ད་ལྟར་འབའ་ཞིག་	-10.7189
▁སྐད་ཡིག	-10.7189
པར་མི་བྱེད་དོ་་	-10.719
གོ་ལའི་	-10.7191
ཡིན་སྐོར་གསུངས	-10.7193
▁ཁྱིམ་	-10.7196
▁སླར་ཡང་	-10.7196
ཞེས་བྱས་ནས་	-10.7199
ཡུན་རིང་པོར་	-10.72
གཡས་གཡོན་	-10.72
པས	-10.7201
མི་ཆོག	-10.7205
པར་བྱ་སྟེ་	-10.7207
བདེ་སྐྱིད་གླིང་	-10.7207
སེམས་ཅན་དེ་དག་གི	-10.7208
བ་དུརྱ་	-10.7208
གོང་མའི་འཐུས་མི་	-10.721
མཐའ་གསལ་ཐབས་	-10.721
ཞུ་རྒྱུ	-10.7211
རིག་པ་དང་་	-10.7214
སྐར་དུས་ཆེན་	-10.7214
གཏོང་བཞིན་ཡོད	-10.7217
ལྷག་པའི་ང་རྒྱལ་	-10.722
འགྲོ་བ་ལྔ	-10.722
རྣམ་པར་མི་རྟོག་པ	-10.722
▁གྲོགས་པོ་	-10.7221
མངའ་བ་	-10.7222
གདུལ་བར་བྱ་བ	-10.7223
ཆོས་ཀྱི་སྦྱིན་པ་	-10.7225
ཆོས་འཕེལ་	-10.7226
ལ་ཕན་ཐོགས་	-10.7226
དོ་དམ་	-10.7227
ཕྱིན་པའི་	-10.7231
བླ་བྲང་	-10.7232
བཅས་ཀྱི་སྐོར་	-10.7236
ཚིགས་བཅད་	-10.7237
སྐྱོང་མཆོག་ལ་	-10.724
ན་དགེ་སློང་	-10.724
ངོ	-10.7243
རྣམ་པར་འཇིག་པ་	-10.7244
ཞབས་འདེགས་སྒྲུབ་	-10.7247
ཤེས་རབ་སྙིང་པོ་	-10.7247
གྲངས་ཐོ་	-10.7249
ར་གྱུར་་	-10.725
དྲན་གསོ་	-10.725
པར་རིག་པར་བྱའོ་་	-10.725
དབང་ཕྱུག་ལགས་	-10.7252
ལོ་ལྔ་	-10.7255
སུ་གྱུར་	-10.7256
དགོས་གལ	-10.7258
ེས་	-10.7259
སྐལ་བ་	-10.7261
སྟོབས་དང་ལྡན་པ	-10.7264
གཡུལ་	-10.7265
བི	-10.7265
ལོག་པ	-10.7266
སྐུ་ཉིད་མཆོག་	-10.7267
ལྷག་པ་ཚེ་རིང་	-10.7267
མཆུ་	-10.7269
ངོ་བོར་	-10.727
བཞི་པོ་དེ་དག་	-10.7272
བར་མི་འགྱུར་	-10.7274
ཀུན་ཏུ་ཤེས་	-10.7275
དགོན་པའི་ནང་	-10.7276
བཅོམ་ལྡན་འདས་འོ	-10.7278
དགའ་ཚོར་	-10.7281
དོན་དུ་གཉེར་བ་	-10.7283
ལྡང་བ་	-10.7283
དབང་ཕྱུག་ཆེན་པོ་	-10.7284
བཤོས་གསོལ་	-10.7285
བཀའ་བློན་རྣམ་པ	-10.7288
འགོ་ཁྲིད་ཚོས་	-10.7288
ཅོད་པན་	-10.7292
དང་་རྣམ་པར་	-10.7294
ཅོ	-10.7294
དགོས་དོན་	-10.7294
ི་ཏ་	-10.7297
རྟོགས་པའི་	-10.7297
ཚིགས་སུ་བཅད་པ་འད	-10.7297
ཨུ་རུ་སུ་	-10.7298
སེམས་པ་བཟང་པོ་	-10.7299
▁བཙན་བྱོལ་	-10.73
དེ་ལྟ་བུ་དག་	-10.7301
▁འགྲོ་བའི་	-10.7303
བཟོས་ཡོད	-10.7303
▁རབ་འབྱོར་འདི་	-10.7304
འགོག་པ	-10.7304
བལྟ་བར་	-10.7304
སྤྱི་དང་ལྷག་པར་	-10.7305
ཧན་	-10.7305
གང་གིས་ཀྱང་	-10.7307
དཔལ་ལྡན་བཀའ་ཤག་	-10.7307
སྤྱི་མོས་	-10.7308
སློབ་ཕྲུག་དང་	-10.7308
གདགས་	-10.7308
་དགེ་ཚུལ་	-10.731
ཞིག་ཡོད་པ་	-10.731
དགོས་པ་སོགས་	-10.7312
ཅིག་ཤོས་	-10.7314
ལྷ་མོ་སྒྱུ་འཕྲུ	-10.7316
ཚབས་ཆེན་	-10.7318
དེ་ཉིད་ལ་	-10.7318
རྗེས་འབྲང་	-10.7321
བཅར་འདྲི་	-10.7321
ལེགས་པར་གྲུབ་	-10.7322
མ་ལགས་་	-10.7327
གྱུར་ཅིང་	-10.7328
སྐུ་དབང་	-10.733
ཁྱད་ལས་	-10.7331
ལྟར་་	-10.7333
ཐོབ་ཐབས་	-10.7335
་དེས་ནི་	-10.7335
སླ་བ་	-10.7336
རྣམ་པར་འཇིག་པ	-10.7338
དང་་་དེ་བཞིན་	-10.7338
བྱེ་བ་ཕྲག་བརྒྱ་	-10.7339
དམའ་བ	-10.7342
▁དེ་རིང་གི་	-10.7342
གྱུར་པ་དེའི་ཚེ་	-10.7343
ུས་ན་རྒྱལ་པོ་	-10.7345
ངས་ཀྱང་	-10.7346
ར་བྱ་བའི་དོན་དུ་	-10.7347
ཐོས་མ་ཐག་ཏུ་	-10.7348
མ་ཡིན་ཞིང་་	-10.735
སྦར་སིལ་	-10.735
ཡང་རུང་་	-10.735
▁དེ་སྐད་ཅེས་	-10.7353
▁ལུས་ཀྱི་	-10.7355
པ་དང	-10.7358
དཀའ་ངལ་ཧ་ཅང་	-10.736
ཉི་ཟླ་	-10.7363
བར་མཉམ་པ་	-10.7363
ཡིན་པའི་ངོས་ནས་	-10.7364
རྒྱ་གར་དབུས་སའི་	-10.7368
ཆགས་སྡང་	-10.7368
བདེ་བས་	-10.7369
འདིས་བདག་	-10.7371
ལག་མཐིལ་	-10.7373
་ཞིང་བདག་ཉིད་	-10.7375
འདི་ལྟ་བུ་ཞིག་	-10.7375
གྲུལ་བུམ་	-10.7375
མེད་ཕྱི་རོལ་ན	-10.7375
སྤུངས་	-10.7377
བུ་ཕྲུག་	-10.7379
ཚོགས་རྣམས་	-10.7384
ཐམས་ཅད་ཡང་དག་པར་	-10.7384
སྣུམ་འཁོར་	-10.7384
ཐར་པའི་སྒོ་གསུམ་	-10.7384
མདོ་སྨད་	-10.7388
འཕྲལ་མར་	-10.7389
ཁ་སང་	-10.7389
ཡུལ་གྲུ་ཁག་ཏུ་	-10.739
གདོད་	-10.739
མཉམ་རུབ་ཀྱིས་	-10.7392
ས་སུ་	-10.7392
ཁྱེར་ནས་	-10.7394
ཕག	-10.7395
གཞིས་ཆགས་དང་	-10.7396
བཀའ་དགོངས་	-10.7396
ཕུང་པོ་ཆེན་པོ་	-10.7397
ར་སྤྲོད་	-10.7397
ཀླུ	-10.7399
འོན་ཏེ་	-10.7399
མདོ་འདི་	-10.74
▁སློབ་དཔོན་	-10.74
ཐམས་ཅད་དང་བྲལ་བ་	-10.7404
དབེན་པའི་	-10.7405
གསོལ་ཚིགས་	-10.7405
བྱེད་བབ་	-10.7406
་ཞེས་བརྗོད་པ་དང་	-10.7407
ཇུ	-10.7408
ཡུ་རོབ་གྲོས་ཚོགས	-10.7409
མང་མོས་	-10.741
ཚོགས་འདུར་	-10.741
བཤད	-10.7412
ཡང་སྤྲུལ་	-10.7412
པའི་ཕྱིར་ཏེ་	-10.7413
དེའི་ལུས་	-10.7413
ཐོབ་པར་གྱུར་ཏོ་་	-10.7414
སྨྲ་་	-10.742
འདྲེས་	-10.7423
བཅུ	-10.7424
མཚུངས་པ་	-10.7425
ལ་གནོད་པ་	-10.7425
ས་གནས་གང་དུ་	-10.743
དོན་ཁང་	-10.743
ུན་	-10.7431
ཐོགས་པ་མེད་པའི་	-10.7433
གནས་ཡོད	-10.7435
ལ་མཁས་པ་དང་་	-10.7435
་དེ་དག་ཀྱང་	-10.7435
མགྲོན་ཁང་	-10.7436
ཚད་མའི་གཞུང་	-10.7437
གཞུང་མང་	-10.7438
ཤེས་པའོ་་	-10.7439
འཇིགས་པ་དང་་	-10.744
འཕྲོད་	-10.7441
བྲལ་བ་རྣམས་ཡིན་	-10.7441
ངས་པ་ལྟ་བུར་	-10.7441
འི་སྡུག་བསྔལ་	-10.7443
ཐུན་མོང་ནས་	-10.7444
རང་ཁྱིམ་དུ་	-10.7446
སྡེ་ཚན་ཁག་གི་	-10.7448
ཇི་ལྟ་བ་	-10.7448
སྒྲུབ་པའི་	-10.7449
བསྟར་	-10.7451
▁ཕྱི་ལོ་རྒྱ་གར་	-10.7452
ལྷན་ཅིག་	-10.7456
པ་དེ་དག་ཐམས་ཅད་	-10.7456
བོད་མིས་	-10.7456
▁བདག་ཅག་ནི་	-10.7458
སྐྱེ་མཆེད་དང་་	-10.7459
འཕར་མ་	-10.7462
▁བདག་གིས་ཀྱང་	-10.7464
་ཝན་	-10.7465
ཆར་པ་	-10.7466
འི་རང་སྐྱོང་ཡོང་	-10.7467
སྲིད་བྱུས་དེ་	-10.7468
▁ཚངས་པ་	-10.7468
▁ཁམས་གསུམ་	-10.747
པེ་ཅིང་དུ་	-10.7471
ཆ་ཤས་	-10.7471
བགོ་བཤའ་	-10.7474
གླིང་དུ་	-10.7474
མ་འོངས་པ་དང་་	-10.7474
གོངས་མཐའ་དག་	-10.7476
གཞིས་ཆགས་ཁག་ཏུ་	-10.7476
བསལ་བ	-10.7476
རྣམ་པ་དྲུག་ཏུ་	-10.7479
ཁྱེད་ཚོས་	-10.748
ི་དག་བཀའ་སྩལ་ཏོ་	-10.748
ལས་ཐར་	-10.7481
རི་ཁྲོད་	-10.7483
ཡོད་པའི་ནང་ནས་	-10.7484
ཕྱི་ལོ	-10.7486
སེམས་ཅན་གྱི་ཁམས་	-10.7488
ཟིལ་གྱིས་གནོན་པ	-10.7488
ཡུན་རིང་པོ་ནས་	-10.749
པར་སྤྱོད་པ་	-10.7491
བསྡུར་	-10.7491
དོགས་པ་	-10.7494
དེད་དཔོན་ཆེན་པོ་	-10.7498
འཇུ	-10.7498
ཆགས་པ་རེད	-10.7499
ད་སྲུང་ཞེས་བྱ་བ་	-10.75
བརྗོད་ཀྱི་འདུག	-10.75
▁ཙན་དན་སྦ	-10.7501
སེར་སྐྱ་	-10.7503
འདྲའོ་་	-10.7504
ཨ་མ་	-10.7505
པགས་པ་	-10.7506
་ལྟར་ན	-10.7508
བ་དེ་ནི་	-10.7508
འདི་ལྟ་བུར་	-10.7512
པར་སྐྲུན་	-10.7516
དེ་བཞིན་གཤེགས་	-10.7516
བརྟེན་ནས་	-10.7518
སློབ་ཕྲུག་རྣམས་ལ	-10.7518
གི་བར་དུ་	-10.752
བཀྲམ་	-10.7525
བར་བྱ་བའི་ཕྱིར་	-10.753
དམ་པ་དེ་ཉིད་ཀྱི་	-10.7531
ཡོངས་སུ་སྔོ་བ	-10.7537
སྤྱི་འཐུས་ཀྱི་	-10.7539
འཐོབ་བོ་	-10.754
སྒྲ་འབྱིན་	-10.7543
ངོ་ཞེས་	-10.7543
ཕྱི་ལོ་ནས་བཟུང་	-10.7545
ྟོང་ཉིད་ཀྱི་ལྟ་བ	-10.7547
བོད་ལུགས་	-10.7551
སྨོན་འདུན་	-10.7552
ཕྱོགས་ཐད་	-10.7553
བཀའ་སློབ་ཕེབས་	-10.7554
རྫིང་བུ་	-10.7555
▁སྣང་བ་བྱ	-10.7556
མི་ཟད་པ་	-10.7558
གཟའ་	-10.7558
ཨི་ཊ་ལིའི་	-10.756
གསུང་གི་ཡོད	-10.7564
མུས་རེད	-10.7565
བཙུན་	-10.7565
མཐུས་	-10.7566
ར་གྱུར་པ་དང་་	-10.7569
འཁུར་	-10.7571
བལྟས་ན་	-10.7572
ར་མཚོན་ན་	-10.7573
་བྱམས་པས་	-10.7573
ཞོར་	-10.7575
་ཊ	-10.7575
དབྱིག་	-10.7579
མཐོ་རིས་དང་ཐར་པ	-10.758
འདའ་	-10.7584
ངལ་	-10.7585
དབྱུང་བ	-10.7587
▁མངའ་སྡེའི་	-10.7588
གནས་ཡུལ་	-10.7588
རི་དགས་ཀྱི་	-10.7588
ཤེས་པ་དེ་	-10.7588
སྤྱོད་དང་	-10.7589
འཚམ་པ	-10.7592
དྲང་བདེན་	-10.7592
བཀའ་སྩལ་པ་དང་་	-10.7593
▁ལ་ལ་ནི་	-10.7594
ལུག	-10.7595
སེལ་བར་	-10.7597
འི་མཚན་	-10.7602
ཙམ་དུ་ཟད་དོ་	-10.7603
པ་ཉིད་	-10.7603
པར་གྱུར་ལ་	-10.7606
བསྟུད་མར་	-10.7607
རིང་པོར་མི་ཐོགས་	-10.7608
མ་ཡིན་པ་བཟློག་ལ་	-10.7608
བརྒྱ་རྩ་བརྒྱད་	-10.7608
་གནས་སྦྱིན་པར་བྱ	-10.7608
བརྒྱུད་གསུམ་ནས་	-10.7608
དཔེར་ན་རྨི་ལམ་ན་	-10.7608
དེ་སྔའི་	-10.7612
བསྡུས་པ་	-10.7616
རྒྱུ་མཚན་དུ་བྱས་	-10.7617
ཟླ་འདིའི་	-10.7617
ལུང་རྟོགས་	-10.7617
དུས་ཚིགས་	-10.762
ནོ་བེལ་ཞི་བ	-10.7621
▁རྒྱུ་གང་	-10.7623
ཆེད་ཕེབས་གནང་ཡོད	-10.7624
ལ་མཁས་	-10.7625
ཡངས་པའི་	-10.7626
ཡང་ཇི་སྐད་	-10.7627
ཀྱིས་དགེ་སློང་	-10.7628
རྡུལ་བྲལ་	-10.7628
་པའི་ཕྱིར་	-10.763
སློང་བ་	-10.763
ཡན་ལག་བརྒྱད་	-10.7631
ལེགས་སོ་ཞེས་	-10.7633
འཐུས་མི་རྣམ་པས་	-10.7635
རྣམ་པར་སྤྲོས་པ	-10.7637
ལངས་ཏེ་	-10.7637
མང་པོའི་ནང་	-10.7639
གྱིས	-10.7641
ར་གྱུར་པ་ལ་	-10.7641
ཡོད་པ་ཞིག་རེད	-10.7643
ཉན་ཐོས་ཀྱི་དགེ་	-10.7644
ཐང་ལ་	-10.7646
སྨྱོ	-10.7647
ཅི་དགོས་	-10.7648
སྙམ་མོ་	-10.765
གནང་བར་བརྟེན་	-10.7654
འི་ཚུལ་གྱིས་	-10.7655
བསྒོ་	-10.7655
་རོ་དང་་རེག་	-10.7656
འབྲས་ལྗོངས་	-10.7656
ར་བྱ་བ་དང་་	-10.7658
འཇིག་རྟེན་གསུམ་	-10.7658
རབ་དང་རིམ་པ་	-10.7659
གང་དག་ཡིན་པ་དེ་ད	-10.766
ལྷན་ཚོགས་ཤིག་	-10.7662
ེའི་	-10.7663
ལ་གཞོལ་བ	-10.7664
འདུགགཞན་ཡང་	-10.7666
སློབ་མའི་	-10.7667
▁དཔའ་བོ་	-10.7668
ནས་བོད་ཀྱི་	-10.7668
ཕུལ	-10.767
་ཆོས་འདི་	-10.7673
་སྙིང་པོ་	-10.7673
འབད་བརྩོན་བྱེད་	-10.7673
དེ་དེ་དང་	-10.7674
ལྷན་ཚོགས་ཐེངས་	-10.7675
ཉོ	-10.7676
བོད་ཡིག་ཚན་པའི་	-10.7677
ཏིང་འཛིན་འདི་ནི་	-10.7679
དེ་ཧ་ཅང་	-10.7679
ཤྲི་	-10.768
མེད་དུ་	-10.7682
དངོས་པོ་མེད་	-10.7685
དེའི་གཟེངས་རྟགས་	-10.7686
སྐྱེ་མཆེད་རྣམས་	-10.7688
དེང་རབས་	-10.7689
བདེན་དོན་	-10.7692
མགྲིན་	-10.7693
རྣམས་ལ་སྨྲས་པ་	-10.7693
སོང་བ་དང་་	-10.7694
བཞུགས་མོལ་	-10.7696
ཆོས་ཀྱི་ཁམས་	-10.7703
མཐོ་ཤོས་	-10.7708
ཐུབ་པ་ཡིན་ན	-10.7708
གླེང་སློང་གནང་	-10.771
འཛམ་གླིང་མི་མང་	-10.7713
རིགས་པ་	-10.7716
་ལེ	-10.7716
དར་རྒྱས་	-10.7716
ཆོས་གང་ལ་ཡང་	-10.7717
རྫོགས་པར་བྱས་ཏེ་	-10.7721
▁སུ་དག་	-10.7725
རྒྱ་ནག་ཏུ་	-10.7725
གདན་འདྲེན་ཞུས་	-10.7725
གྲོས་གཞི་	-10.7728
▁དམ་པ་ཁོང་གིས་	-10.7729
་སི་	-10.7731
བཀའ་དྲུང་ཡིག་ཚང་	-10.7731
གྱུར	-10.7732
ཀུན་ཆུབ་པར་བྱེད་	-10.7733
ཀྱི་བར་	-10.7734
བསྙེན་བཀུར་བྱེད་	-10.7734
བཞི་དང་་	-10.7735
མི་བྱ་་	-10.7737
གདུང་བ་	-10.7737
▁ཏིང་ངེ་འཛིན་	-10.7738
དབང་བསྐུར་བ་	-10.7738
ཆགས་པར་	-10.774
་འཛུགས་ཕྱི་དྲིལ་	-10.774
དེ་སྲིད་དུ་	-10.774
ལེན་པ་མེད་པ	-10.774
ཟློས་གར་ཚོགས་པས་	-10.7742
རྒྱུའི་ཞལ་བཞེས་	-10.7743
མཛད་་	-10.7744
གཅད་	-10.7744
སྣང་བ	-10.7744
འཐབ་རྩོད་ཀྱི་	-10.7745
ཙམ་ལས་	-10.7746
དམ	-10.7747
པར་འགྱུར་བ	-10.7749
དང་ལེན་	-10.7752
རྒྱལ་པོ་སྡོང་པོ	-10.7752
བསླབ་གཞི་	-10.7755
ཧི་མ་ཅལ་	-10.7758
བཀའ་སློབ་སྩལ་ཡོད	-10.7758
མྱ་ངན་ལས་འདའ་བར་	-10.776
དྲིལ་བུ་	-10.7762
▁ཚོགས་འདུ་	-10.7762
ལྗོངས་ཀྱི་	-10.7764
ཐོབ་པར་འགྱུར་	-10.7765
ཀྱི་མེད	-10.7765
ལྷམ་	-10.7768
ཟིལ་གྱིས་མནན་ནས་	-10.7768
▁ཇི་ཙམ་ན་	-10.7769
པའི་གནས་ཚུལ་	-10.7769
འི་སྣོད་	-10.777
ལོ་རྒྱུས་དང་	-10.7771
ལས་གཞན་	-10.7773
ནད་ཐམས་ཅད་	-10.7773
མཇུག་སྐྱོང་	-10.7775
དུ་འགྱུར་	-10.7776
མཁས་དབང་དང་	-10.7778
ལོ་ན་	-10.7778
དང་བོད་	-10.7781
གནས་ཚད་	-10.7781
ཚོ་ལའང་	-10.7782
ཡིད་སྐྱོའི་	-10.7782
འཚེ	-10.7782
ཡིད་དུ་འོང་བའི་	-10.7783
རྣམས་ལ་དགེ་བའི་	-10.7784
ལྟ་བུས་	-10.7785
མཛད་སྒོ་གྲོལ	-10.7787
དགའ་བར་གྱུར་ནས་	-10.7793
རྫོང་དཔོན་	-10.7794
སློབ་སྟོན་པ་	-10.7795
ཐུབ་པའི་རེ་བ་	-10.7796
ཀྱི་ཡོད་སྟབས	-10.7796
▁སངས་རྒྱས་དང་	-10.7797
▁མདོར་ན་	-10.7797
ཁྲོ་	-10.7797
སོགས་ལ་བརྟེན་ནས་	-10.7798
མ་མཆིས་པ་ལགས་སོ་	-10.7806
ཤིག་རེད	-10.7807
འཐོབ་པར་འགྱུར་བ་	-10.7809
དང་རྒྱབ་སྐྱོར་	-10.7809
གསུང་པ་	-10.7812
འདི་དག་གི་	-10.7812
བརྒྱད་པ་	-10.7813
བཙན་འཛུལ་བྱས་	-10.7814
ལས་དོན་ཚན་པའི་	-10.7815
བསྐྱེད་པའི་ཕྱིར་	-10.7815
པས་ཀྱང་	-10.7816
རྒྱལ་ཁ	-10.7817
ཁག་གཅིག་གི་	-10.7817
དགེ་སློང་དེ་	-10.7817
དག་དང་་་	-10.7822
▁དེར་བརྟེན་ང་ཚོ་	-10.7823
མི་དབང་	-10.7825
ཚིམ་	-10.7825
བློ་སྐྱེས་པ་	-10.7825
པ་ཞེས་བྱ་བ་	-10.7825
གཞིའི་	-10.7826
ལྟ་བར་གནས་པ་དེ་	-10.7828
ཉལ་བ་	-10.7831
རེག་བྱ་	-10.7833
སྨྲ	-10.7835
ཐམས་ཅད་ལ་ཡང་	-10.7837
་པུར་	-10.7837
་འཛུགས་ཀྱི་སྲིད་	-10.7839
མི་མཁས་	-10.784
ཚང་འཛོམས་ཀྱིས་	-10.784
བྱམས་བརྩེ་ལྡན་པ་	-10.7842
མི་རྟོག་	-10.7842
▁སྐད་ཡིག་སོགས་	-10.7844
པ་ཐམས་ཅད་	-10.7845
▁ཕུང་པོ་	-10.7845
གདམས་ངག་	-10.7846
མཚན་དུས་དྲུག་ཏུ་	-10.7846
བསྟི་གནས་ཁང་དུ་	-10.7847
ཕ་མ་གཉིས་ཀྱིས་	-10.7848
ཁེངས་	-10.785
འདྲ་མཉམ་	-10.7851
བདུན་པའི་	-10.7852
ངེས་རེད	-10.7854
འབུ	-10.7854
བགེགས་	-10.7855
མགྲོན་འབོད་ལྟར་	-10.7855
ཁ་གཏད་	-10.7858
འབུལ་བཞེས་མཛད་	-10.7865
ཧོར་	-10.7866
བཙོན་ཁང་ནང་	-10.7866
▁བདེ་གཤེགས་	-10.7867
ཤེལ་	-10.7867
མྱ་ངན་ལས་འདས་སོ་	-10.7868
ཕྱིར་ལྡོག་པ	-10.7868
མང་གཙོ་ཚོགས་པའི་	-10.787
དང་ལྡན་་	-10.7871
སྤེལ་ཡོད	-10.7871
བྱེད་སྒོར་	-10.7872
བར་གྱུར་ཏེ་	-10.7873
ཀྱི་ལས་འགུལ་	-10.7876
སྙམ་དུ་སེམས་	-10.7879
འཇམ་དབྱངས་ཆོས་	-10.788
ཁེབས་	-10.7882
་བི་	-10.7884
དང་ལྡན་པ་ཡིན་ནོ་	-10.7885
ལ་ཞུས་པ་	-10.7885
ཐུབ་རྒྱུའི་	-10.7887
ཀྱི་སྐུ་ཚབ་	-10.7889
དཔག་	-10.7891
གལ་གནད་སྐོར་	-10.7892
▁སྲིད་སྐྱོང་	-10.7893
ཙན་དན་གྱི་	-10.7894
▁རྒྱལ་	-10.7897
མཇལ་དར་	-10.7899
རྩ་བ་བསྐྱེད་ནས་	-10.7899
▁དེ་ནས་དེ་དག་	-10.7901
སྨྲའོ་་	-10.7901
ཀྱང་རུང་་	-10.7901
འོས་པ་	-10.7905
ཐག་ཆོད་	-10.7905
རྒྱ་གར་དང་	-10.7907
སྤྱི	-10.7908
▁སུ་ལ་	-10.791
མཛད་ཅིང་	-10.7912
རྒྱུ་ཡིན་པའི་	-10.7914
ཡ་མཚན་	-10.7915
མཛེས་པར་	-10.7918
ཁྲོམ་	-10.7919
པོ་དག་	-10.7919
ལ་བབ་	-10.792
མ་ཐོས་	-10.7921
ཕན་ཚུན་དུ་	-10.7921
ཤེས་ཡོན་ཅན་	-10.7921
དངོས་གཞི་	-10.7921
ྦྱིན་པ་དག་སྦྱིན་	-10.7924
མཐོ་སློབ་ནས་	-10.7926
སྨན་ཞབས་པ	-10.793
བཙུགས་ཏེ་	-10.7931
▁བསྟན་འཛིན་	-10.7933
མི་རུང་	-10.7934
བྱང་བར་གྱུར་ཏོ་	-10.7934
བདག་མེད་པ་	-10.7936
་བསམ་པ་	-10.7939
དག་གོ་་	-10.794
བཅད་ནས་	-10.7943
ཚུལ་གྱིས་	-10.7944
ཤར་ཕྱོགས་ཀྱི་	-10.7946
བདེ་བའི་ཡོ་བྱད་	-10.7948
ཡི་དགས་ཀྱི་	-10.7949
བྱུང་བ	-10.795
ཐམས་ཅད་བསྡུས་པ	-10.7951
ཕྱུང་བ་	-10.7951
བསྐྱེད་པའི་	-10.7952
རྣམ་པར་གནོན་	-10.7955
བྱང་ཆུབ་ཀྱི་ལམ་	-10.7957
▁རབ་འབྱོར་གལ་ཏེ་	-10.7961
སེམས་ཅན་ཀུན་གྱི་	-10.7962
ས་གནས་ཁག་	-10.7965
ཡུལ་གྲུ་	-10.7967
ཡོད་པ་འདི་	-10.7969
ི་སྤྱོད་པ་	-10.7969
ས་བསམས་པ་	-10.7969
མེད་པ་ཉིད་	-10.7971
གསུངས་འདུག	-10.7971
བསྐལ་བརྒྱར་བརྟན་	-10.7971
སྒྲས་	-10.7972
མྱངས་	-10.7973
ཕ་རོལ་ཕྱིན་	-10.7975
སྐྱོང་མཆོག་དང་	-10.7975
ཚན་རིག་གི་	-10.7975
▁ཆབ་སྲིད་	-10.7975
དགེ་བའི་ལས་	-10.7975
མི་ཚེའི་ནང་	-10.7975
ཊི	-10.7976
བྱེད་པ་ནི་	-10.7977
གླེང་སྟེགས་	-10.7979
རྒྱ་གར་ནས་	-10.7979
གོང་ཚེས་ཉིན་	-10.7979
▁འདི་ལོའི་	-10.798
ཇི་སྲིད་དུ་	-10.7981
ཚེ་བརྟན་	-10.7981
འབར་བ	-10.7981
རྒྱང་	-10.7983
བདེན་མཐའ་གསལ་	-10.7984
ཚ་བའི་	-10.7984
▁འོན་ཏེ་	-10.7989
གཟུགས་མེད་པ་	-10.7989
མ་མཐོང་	-10.7989
བྱེད་ཅེ་ན་	-10.7995
དེ་བས་ཀྱང་	-10.7996
བདག་ཉིད་ཆེན་པོ་	-10.8002
སྐུ་ལས་	-10.8003
རང་སྐྱོང་	-10.801
ོས་	-10.801
སྤྱན་སྔར་	-10.801
སྤྱི་ཚོགས་ལ་	-10.801
བདག་པོ་ཚངས་པ་	-10.8011
བའི་སྨོན་འདུན་	-10.8012
ཤེས་ཀྱི་ཡོད	-10.8014
དེ་གཉིས་ཀྱི་	-10.8015
འི་དྲུང་དུ་	-10.8015
ལས་གཞི་ཁག་	-10.8016
དེ་འདྲ་བའི་	-10.8016
རྨིས་	-10.8016
སུམ་	-10.8017
གནོད་སྦྱིན་གྱི་	-10.8017
▁ཐོས་ནས་ཀྱང་	-10.8018
རྗེ་ཙོང་ཁ་པ་	-10.8018
གཅིག་རྐང་འཛིན་	-10.8019
▁རྒྱ་ནག་དམར་ཤོག་	-10.802
ཡི་དམ་	-10.8024
བསྒྱུར་བ་	-10.8025
ཐབས་མེད	-10.8025
་བྷ་	-10.8026
ཕྱི་ལོ་ཟླ་	-10.8027
གཉིས་པོ་	-10.8028
རྒྱ་ནག་མི་མང་	-10.8028
གདུལ་	-10.8029
ཤེས་རིག་དྲུང་ཆེ	-10.803
འདི་ཉིད་ལ་	-10.8032
བ་སྟེ་	-10.8033
སྤྱི་ཚོགས་ཞབས་ཞུ	-10.8033
རྒོལ་	-10.8035
ཐུགས་སྨོན་	-10.8035
ག་ལ་བ་དེར་དོང་	-10.8036
བཅུད་	-10.8036
འབུལ་ལམ་ཞུས་	-10.8036
ཁམས་རྣམས་	-10.8036
རིན་མེད་	-10.8038
ནད་ཡམས་འདི་	-10.8039
རྡུལ་ཕྲན་མཚོན་ཆ་	-10.804
རྣམས་ཀྱི་ནི་	-10.8042
དེའི་དྲུང་དུ་	-10.8042
དབར་གྱི་	-10.8043
འེ་	-10.8046
སྲོལ་ཡོད	-10.8047
མིག་དཔེ་	-10.805
གཟུགས་ལ་	-10.8051
རྒྱལ་པོ་དེའི་	-10.8052
དོན་དམ་པ་	-10.8052
བམ་	-10.8052
གྲོན་	-10.8052
ལས་ཀ་བྱེད་	-10.8053
ཁྲིད་ནས་	-10.8055
འཚེ་མེད་ཞི་བ་དང་	-10.8056
དེ་སྐད་ཅེས་	-10.8057
་མེད་པ་དང་་	-10.8059
རྣམ་ཐོས་ཀྱི་བུ	-10.8063
ལྷག་མ་	-10.8064
མོས་པ་སྣ་ཚོགས་	-10.8065
ཞུ་དགོས	-10.8066
▁གསོལ་པ་བཙུན་པ་	-10.8067
དོ་སྣང་དང་	-10.8068
ཇི་སྐད་	-10.807
ལ་རབ་ཏུ་གནས་	-10.8071
བཙན་བྱོལ་བ་ཆགས་	-10.8071
ཀྱི་ལས་རིམ་	-10.8071
ཐུབ་པ་བྱུང་	-10.8072
བཞིན་པ་ལྟར	-10.8073
སྟོན་པར་འགྱུར་	-10.8077
དག་ལ་ཡང་	-10.808
སྐྱེས་པ་དང་་	-10.8082
ཡི་གེའི་	-10.8082
ཆབ་སྲིད་ཚོགས་པ	-10.8083
ཡིན་པའི་ཆ་ནས་	-10.8084
བཀྲེས་	-10.8085
▁ཁོང་ནི་	-10.8086
ལ་བཀོད་	-10.8087
གས་ཏེ་	-10.8087
མས་མི་མཇེད་འདིར་	-10.8087
▁སྔ་མོ་	-10.8087
མཛད་འཆར་	-10.8088
དད་པའི་	-10.8089
དྲ་བ་ཅན་གྱི་འོད་	-10.8089
ནོར་རྒྱས་གླིང་	-10.8089
བརྒྱའི་ཆར་ཡང་	-10.809
ཏུ་ལན་གསུང་སྟེ་	-10.809
འཚམས་འཕྲིན་	-10.809
གོ་ལའི་ཚ་དྲོད་	-10.809
ཕེབས་ཐོན་གྱིས་	-10.809
ཚ་བ་དང་	-10.809
མ་གྱུར་	-10.8092
མང་ཙམ་	-10.8092
འཚལ་་	-10.8094
རིགས་པའི་ལམ་ནས་	-10.8094
རྒྱ་མཚོ་ལགས་	-10.8094
གྱུར་ཀྱང་་་	-10.8095
སྤྱི་ཟུར་	-10.8095
ལས་ཁང་	-10.8097
སྣང་བས་	-10.8098
▁དེ་ནས་ལྷའི་བུ་	-10.8099
ཡིད་ནི་	-10.8099
མལ་ཆ་	-10.8099
▁མི་མཆོག་	-10.8101
དགེ་བའི་རྩ་བའི་	-10.8103
ཐམས་ཅད་ཀྱིས་ཀྱང་	-10.8103
ིག་རྡུལ་མེད་ཅིང་	-10.8105
གཞིས་བྱེས་བོད་མི	-10.8105
བཅོལ་	-10.8106
དབང་ཕྱུག་གིས་	-10.8107
སུ་ཝི་	-10.8108
གོས་ངུར་སྨྲིག་	-10.811
ཞིག་འདུག	-10.8111
ལུས་ཀྱི་ལས་	-10.8115
དང་ཐུན་མོང་དུ་	-10.8115
་ཡ	-10.8116
མགོན་པོ་མཆོག་	-10.8117
ས་དེའི་ཕྱིར་	-10.8118
མེད་པར་འགྱུར་རོ་	-10.8118
སྤྱི་འཐུས་རྣམ་པ་	-10.8119
བསམ་གཏན་དང་་	-10.8122
▁ཉི་མ་	-10.8122
གི་འགན་འཛིན་	-10.8123
ཆུ་མཛོད་	-10.8124
ཨོ་སི་ཀྲི་ལི་ཡ	-10.8124
རྒྱལ་པོའི་ཁབ་ན་	-10.8126
ཆོས་འཁོར་	-10.8127
ཕྲ་བ	-10.8127
ལ་དམིགས་པ་	-10.8132
བཞི་དང་	-10.8133
སྙེད་	-10.8134
གཞག་པར་བྱ་	-10.8135
རིས་མེད་ཀྱི་	-10.8135
ཟིལ་	-10.8136
འཐོབ་སྟེ་	-10.8136
སྨྲ་བའི་	-10.8136
ཁྱོན་ནས་	-10.8138
ཡོད་པར་བརྟེན	-10.8138
ཁྱིམ་བདག་དེའི་	-10.8139
བྱུས་	-10.8139
གསན་གཟིགས་གནང་	-10.814
རིང་ནས་	-10.8142
མཉན་པའི་ཕྱིར་	-10.8142
དེར	-10.8144
པི	-10.8146
▁རི་	-10.8146
གནང་གི་ཡོད་པ་	-10.8147
དམ་པ་ཁོང་གིས་	-10.8147
་དྲི་ཟར་བཅས་	-10.8149
ཡོན་གནས་	-10.8149
སློབ་སྤྱི་དང་	-10.8149
བཟོ་བཞིན་ཡོད	-10.8151
ནི་ཆོས་ཐམས་ཅད་	-10.8153
མཁོ་	-10.8153
བདེན་པ་དང་	-10.8153
▁སྔོན་	-10.8154
གཅིག་གིས་གཅིག་	-10.8157
འཇིག་རྟེན་གྱིས་	-10.816
▁ཧི་མ་ཅལ་མངའ་སྡེ	-10.8161
དྲུག་པ་	-10.8163
ལྷན་རྒྱས་	-10.8164
ལྔ་པོ་	-10.8166
སརྦ་	-10.8167
རབ་ཏུ་མཁྱེན་ཏེ	-10.8168
་གྷ	-10.8172
བརྒྱབ་པ་	-10.8176
རྣམས་ཀྱི་མཆོག་	-10.8177
བྱེ་བ་སྟོང་ཕྲག་	-10.8177
གི་ཐོག་ནས་	-10.8178
གྲོངས་	-10.8179
མེད་མཁན་	-10.8182
ལ་གཞི་མེད་དོ་	-10.8182
གྲུབ་བསྟུན་	-10.8184
ཅི་ཞིག་བྱ་	-10.8186
འི་མཚན་ཉིད་	-10.8187
མ་མཆིས་ཤིང་	-10.8188
ྒྱལ་རིགས་སྤྱི་བོ	-10.8191
མེད་པའི་ཕྱིར་རོ་	-10.8192
འཁྲབ་	-10.8193
ཐུབ་ཀྱི་རེད	-10.8194
ཁོན་	-10.8197
རིག་གཞུང་དེ་དག་	-10.8197
འོ་་འདི་ནི་	-10.8198
བསླབས་ཏེ་	-10.8199
མེད་པ་ལ་	-10.82
རྗེས་སུ་འབྲང་	-10.8201
▁ང་ཚོའི་ངོས་ནས་	-10.8202
གསོ་བ་	-10.8202
མེད་པ་སྟེ་	-10.8204
ཡོངས་སུ་དག་པ་དང་	-10.8205
བསྐྱེད་དམ་བཅའ་	-10.8208
ཚོགས་གཙོའི་	-10.8209
ཉེས་ཆད་	-10.8211
ཟིལ་གྱིས་ནོན་	-10.8212
ཆོས་སྨྲ་	-10.8212
ཐེངས་གཉིས་པ་	-10.8213
ལྷ་མི་	-10.8216
དུས་སྐབས་སུ་	-10.8216
མི་གཙང་བ་	-10.8217
ཆོས་རྒྱལ་ཁྲི་	-10.8217
གན	-10.8217
འི་ཡེ་ཤེས་མཐོང་བ	-10.8218
ཉུང་མི་རིགས་ཀྱི་	-10.822
་ལྗོངས་ཟེར་བའི་	-10.822
འདུ	-10.822
་པྲ་	-10.8222
རུ	-10.8223
ཆེན་པོ་བྱུང་	-10.8224
དུ་བཅུག་ནས་	-10.8226
སྲོང་བཙན་སྒམ་པོ	-10.8227
རྒྱ་མཚོ་ཆེན་པོར་	-10.8229
དབང་ཕྱུག་མཆོག	-10.8231
བློ་ཕམ་	-10.8231
སྙམ་པ་དང་་	-10.8234
དུ་མས་	-10.8234
ཐོས་པའི་	-10.8235
བརྩེ་	-10.8235
ཚིམ་པ	-10.8237
ལམ་གྱིས་	-10.8238
འི་ཚིག་གིས་	-10.8238
ཟློས་གར་	-10.824
དྲུང་ནས་	-10.824
དགེ་རྒན་གྱི་	-10.8244
འོན་	-10.8245
་བར་འདོད་པས་	-10.8247
ཐེག་པ་པའི་གང་ཟག་	-10.8249
རྣམ་པར་གྲོལ་བ	-10.8255
བཀླགས་	-10.826
གདོན་མི་ཟ་བར་	-10.8261
ར་སི་	-10.8262
་མ་ཟད	-10.8262
སྦེ	-10.8267
་བརྩོན་འགྲུས་	-10.8268
མི་ཉམས་གོང་འཕེལ་	-10.8269
ལོ་ངོ་བཅུ་ཕྲག་	-10.827
བོད་མི་ཡོངས་ནས་	-10.827
ས་གནས་མི་མང་	-10.8272
དགོས་ན་	-10.8272
རྩེ་བ་	-10.8273
ཞུ་འདོད་བྱུང	-10.8276
ཞུ་རྒྱུ་བཅས	-10.8276
འོས་བསྡུ་ལས་ཁང་	-10.8276
བསྐལ་པར་	-10.8278
▁ཞེས་སོགས་	-10.828
དང་་གོས་དང་་	-10.8281
་དཔའ་བོ་	-10.8282
བཞིན་པའི་སྐོར་	-10.8283
མཆོག་གི་སྐུའི་	-10.8286
འདྲ་ཞིག་ཡིན་རུང་	-10.8288
མྱ་ངན་ལས་འདས་པར་	-10.8289
ཁུག་	-10.8289
གྱི་མཛད་སྒོ་	-10.829
རྐྱང་	-10.8292
བཀྲུས་	-10.8292
བྱང་ཆུབ་ནི་	-10.8295
བཅས	-10.8295
བ་ཡིན་ན	-10.8297
▁དེའི་ནང་	-10.8298
བསླེབས་	-10.8298
སྦྱིན་པ་བྱིན་	-10.8304
ནང་གསེས་	-10.8305
ཡོད་པ་མ་ཡིན་	-10.8308
ཆེན་པོ་དང་ལྡན་པ་	-10.8308
འཇིགས་པའི་	-10.8309
བ་བཅས	-10.831
ཕྱི་རྒྱལ་དུ་	-10.831
ཕྱི་རོལ་དུ་	-10.831
ྒྱལ་པོའི་ཕོ་བྲང་	-10.8311
འི་ཡང་སྲིད་	-10.8311
རྣམ་པར་ཐར་པའི་	-10.8312
སྙིང་པོར་	-10.8312
ཞིག་གི་ནང་	-10.8315
གསར་འགྱུར་ཚན་པ	-10.832
སྡང་	-10.8321
▁ཅེས་སོགས་གསུངས	-10.8323
ཆོས་སྟོན་ཏེ་	-10.8324
▁ཁྱེད་ཅག་	-10.8325
ལེ་ལོ་	-10.8325
བློན་ཆེན་མཆོག་	-10.8325
དམིགས་བསལ་གྱིས་	-10.8325
རྩི་བཞིན་ཡོད	-10.8326
གསོ་སྦྱོང་	-10.8326
ླ་སྤྲུལ་ཡང་སྲིད་	-10.8327
ནི་སེམས་ཅན་	-10.8328
ཡིད་དུ་མི་འོང་བ་	-10.8329
སློབ་གྲྭ་དང་	-10.833
སྤྱི་ཚོགས་ཁྲོད་	-10.8331
▁ཡང་དག་	-10.8334
ཁྱམས་	-10.8336
ཤི་འཕོས་ཏེ་	-10.8336
བསྲུང་བ་	-10.8339
ཡན་ལག་དང་ཉིང་ལག་	-10.834
ཅོན་ཏ་ར	-10.834
བདུད་བརྗེད་ངས་	-10.834
ང་སང་པོའི་དབྱངས་	-10.834
་གྲུབ་བཅུ་བདུན་	-10.834
སྤྱད་ནས་འཆི་ཀར་	-10.834
བརྫུན་དུ་སྨྲ་བ	-10.834
▁ཀྱེ་མི་ཁྱོད་	-10.8341
འཁྲུངས་སྐར་གྱི་	-10.8341
གཅིག་པུའི་	-10.8342
ལས་འགན་རང་འཇགས	-10.8342
འཇགས་	-10.8342
ཤེས་སོ་	-10.8343
མི་འབྱེད་དོ་་	-10.8344
ཤོ་ཟུར་	-10.8344
ཡོང་མི་	-10.8345
རྣམ་པར་སེལ་བ་	-10.8346
ནི་བྱང་ཆུབ་བོ་་	-10.8346
ལ་མ་ལྟོས་པར་	-10.8346
རྣམ་གྲངས་འདི་ལ་	-10.8346
▁རིགས་དེ་ནི་	-10.8347
བཞིན་ཡོད་པས	-10.8347
འི་གོ་སྒྲིག་འོག་	-10.8349
ཡིད་དུ་མི་འོང་བ	-10.835
ཞལ་ལག་	-10.8351
ཀྱི་ནང་དུ་སྐྱེ་བ	-10.8352
བྲ	-10.8354
ཡེ་ཤེས་ཀྱིས་	-10.8354
བཤགས་	-10.8354
འཚམས་གཟིགས་སུ་	-10.8355
འི་ཡོན་ཏན་	-10.8357
ཁ་ན་མ་ཐོ་བ་མེད་པ	-10.8358
་རྒྱུན་དུ་ཞུགས་པ	-10.8367
▁ཕན་ཚུན་	-10.8367
རིམ་དུ་གནས་སྤར	-10.8367
ནིའུ་ཡོག་	-10.8369
▁རྒྱ་ནག་གིས་	-10.8369
་འཆི་བ་	-10.8371
དང་ལྡན་པར་འགྱུར་	-10.8372
པར་བགྱིད་	-10.8372
སྟོན་ཏེ་	-10.8374
ཉོན་	-10.8375
ཕེབས་པའི་སྐུའི་	-10.8375
▁ནད་ཡམས་	-10.8376
འདོད་པ་ན་སྤྱོད་པ	-10.8381
ན་ཡང་མི་གནས་སོ་	-10.8382
མཚན་གནས་	-10.8384
ཁྱབ་འཇུག་	-10.8385
བཀག་ཉར་བྱས་	-10.8386
ཡང་དག་པར་བསྟན་	-10.8391
ལ་ཆོས་ཀྱི་མ	-10.8392
སྟོན་པར་བྱེད་	-10.8392
ཚོགས་བཅར་བ་རྣམས་	-10.8393
མེ་ཏོག་སྣ་ཚོགས་	-10.8393
འི་དེ་བཞིན་ཉིད་	-10.8394
མ་བྱས་པར་	-10.8395
མི་སྐྲག་	-10.8395
ཐོགས་པ་མེད་པ་	-10.8395
སྒྲེང་འཛུགས་གནང་	-10.8397
མཆོད་པའི་	-10.8398
དྲང་པོ་	-10.8398
རྒྱ་ནག་ནས་	-10.8405
ཉམ་ཆུང་	-10.8406
དབུལ་བ	-10.8407
སྒྱུ་མ་ལྟ་བུ	-10.8416
▁རིན་པོ་ཆེ་	-10.8419
བློའི་རྣམ་གཞག་	-10.8419
ི་སྤྱོད་པ་ལ་	-10.842
འཆི་འཕོ་	-10.8423
འི་ཆོས་ཉིད་	-10.8424
ཆབ་སྲིད་ཐོག་ནས་	-10.8425
དང་འབྲེལ་ཡོད་	-10.8426
ལམ་ལུགས་ལ་	-10.8427
▁འདི་ག་ཕྱི་དྲིལ་	-10.8428
བཀྲ་ཤིས་ལྷུན་པོ	-10.8428
མ་མཆིས་ཏེ་	-10.843
་ལགས་ཀྱིས་	-10.8431
་དེ་དག་གིས་	-10.8431
གནས་ཚུལ་ཐོན་	-10.8433
བསྡུ་བ	-10.8433
རྣམ་པར་བྱང་བ	-10.8434
ཞེ་ན་རབ་འབྱོར་	-10.8434
ཚད་ལྡན་ཞིག་	-10.8435
གནང་བཞིན་པ་	-10.8435
བདག་ཉིད་ཀྱི་	-10.8436
གི་རེད	-10.8439
ལེབ་	-10.8439
ཐ་མ	-10.844
▁མཛད་སྒོའི་ཐོག་	-10.8441
འགྲུབ་པར་འགྱུར་	-10.8441
ལ་སྐྱོན་བརྗོད་	-10.8444
བྱེད་སའི་	-10.8444
གཞིར་བཞག་ཐོག་	-10.8445
སྐུ་ཕུང་	-10.8445
་གསལ་རྒྱལ་གྱིས་	-10.8446
བོད་རིགས་སྤུན་ཟླ	-10.8449
འོད་གསལ་བ་	-10.8451
བྲམ་ཟེ་དེ་	-10.8452
རྒྱལ་རབས་	-10.8453
ཕྱོགས་གཅིག་	-10.8454
རུམ་	-10.8456
བཅོ་བརྒྱད་	-10.8457
འགྲོ་རྒྱུ་རེད	-10.8457
འགྱུར་བ་གཏོང་	-10.8458
སྟོན་ཅིག་	-10.8458
འཛིན་སྐྱོང་གི་	-10.8458
སེང་	-10.8459
་སྭ་ཧ་	-10.846
སྤྱི་སྒེར་	-10.846
སྨན་ཁང་དུ་	-10.8463
བཀའ་བློན་རྣམ་པ་	-10.8464
གང་ཡིན་པའི་	-10.8464
ཕྱི་སྟོང་པ་ཉིད་	-10.8465
ལྷན་ཚོགས་ནས་	-10.8465
▁ང་ཡིས་	-10.8465
ཉུང་དུ་འགྲོ་	-10.8466
གསུམ་ལ་	-10.8471
བཅོམ་ནས་	-10.8472
བྱང་ཆུབ་མཆོག་	-10.8473
ཡེ	-10.8474
ཁྱབ་པར་	-10.8476
▁ཞེས་འཁོད་འདུག	-10.8481
ནད་པའི་	-10.8481
དག་གིས་ཀྱང་	-10.8481
ཉེ་འགྲམ་	-10.8482
དཔེར་ན་སྐྱེས་བུ་	-10.8483
ལུས་ལས་	-10.8485
ཐེ་ཝན་གྱི་	-10.8485
པར་འགྱུར་ལ་	-10.8485
དྲིལ་	-10.8486
མཆེད་	-10.8488
ཀྱི་འདུག	-10.8489
ག་ནི་འདི་ལྟ་སྟེ་	-10.849
ང་ཚོ་བོད་མི་	-10.8491
བ་ལས་	-10.8493
བདེ་བར་གཤེགས་པས་	-10.8497
གདའ་	-10.8498
འདྲིས་	-10.8498
བསྒྲུབ་རྒྱུ	-10.85
▁འཛམ་གླིང་གི་	-10.85
མི་དགེ་བའི་ལས་	-10.8502
ུལ་	-10.8502
ཟང་ཟིང་	-10.8504
རབ་ཏུ་ཐོབ་པ	-10.8505
འདུས་པའི་	-10.8507
དྲན་པ་རྙེད་	-10.8507
བྱས་དང་བྱེད་	-10.851
གོད་ཆག་	-10.8511
བསྒྲགས་པ་	-10.8513
▁དེ་ཡང་ཐོག་མར་	-10.8514
འགན་དབང་	-10.8515
བཤད་རྒྱུ་	-10.8519
བྱེད་དགོས་ཞེས་	-10.8519
▁དགེ་བའི་	-10.852
སྐོར་སྤྲོ་འཆམ་པ་	-10.8522
འབྲུ་མར་	-10.8522
བཀུར་སྟི་བྱེད་	-10.8522
པའོ་་་	-10.8525
བསམ་བློར་	-10.8525
སུ་ཡོད་པའི་	-10.8526
ཡོངས་སུ་སྦྱང་བ་	-10.8527
ས་གནས་འགོ་འཛིན	-10.8527
ཉིན་རྒྱབ་ཆུ་ཚོད་	-10.8528
སུ་དག་	-10.8532
འཇོ	-10.8533
ར་བགྱི་	-10.8534
མཐོང་མཆན་	-10.8535
ཧི་མ་ལ་ཡ་རི་	-10.8536
རྒྱ་ཆེ་མང་ཚོགས་	-10.8539
ཤེས་རྟོགས་བྱུང་	-10.8542
ར་བྱེད་པའི་	-10.8543
ར་འགྱུར་བ	-10.8543
བཞེས་ཏེ་	-10.8546
ར་བྱས་སོ་་	-10.8547
ལ་ལེགས་སོ་ཞེས་	-10.8547
འོས་པའི་	-10.8549
སེམས་ཅན་རྣམས་ནི་	-10.8549
བྱ་རྒོད་ཀྱི་	-10.8549
སླེབས་པ་རེད	-10.8549
ཉེན་རྟོག་པ་	-10.8549
་འཛུགས་ངོས་ནས་	-10.8552
▁འཛིན་སྐྱོང་	-10.8552
▁སུད་སིའི་	-10.8553
▁སྐབས་དེའི་	-10.8553
ཆུ་དང་	-10.8554
དྲང་བ	-10.8555
རྫུ་འཕྲུལ་ཆེ་	-10.8555
མོ་ཧ	-10.8555
ཅི་ཡང་མི་	-10.8558
ཐོགས་པ་མེད་པར་	-10.8559
པད་	-10.856
སྨན་པས་	-10.856
མི་མཐུན་པ་	-10.8561
ཡིན་པས	-10.8562
ན་ག	-10.8564
ཀྱེ་	-10.8565
་དེ་ཕྱིར་	-10.8568
བདག་གི་བུ་	-10.857
ཤི་ཡ་	-10.857
ནི་རབ་	-10.8571
ལྷན་ཁང་ཁག་གི་	-10.8574
ལང་ཚོ་	-10.8574
ཕྱིར་ཞིང་	-10.8576
བསམ་བློ་བཏང་	-10.8577
དགེ་སྦྱོང་ངམ་	-10.8578
ཨིན་ཡུལ་གྱི་	-10.858
ཨ་སྒོར་	-10.8581
རེབ་གོང་	-10.8582
སྐྱི	-10.8583
ཀློ	-10.8583
སྤྲིན་གྱི་	-10.8585
འདུས་ཏེ་	-10.8585
ནས་བོད་	-10.8589
▁གཞན་གྱི་	-10.8591
དབུ་འཛུགས་	-10.8591
རྣམ་པར་ཐར་པ་བ	-10.8592
ལྐོག་	-10.8592
དགོན་སྡེ་གྲྭ་ཚང་	-10.8593
ཆེད་རྩོམ་	-10.8594
སྣང་་་	-10.8594
་ཡང་མེད་གཉི་ག	-10.8595
སྤྱད་ནས་	-10.8595
རྨ་བྱ་	-10.8595
ཐུགས་འཚབ་	-10.8596
འཇམ་མགོན་རྒྱལ་བ	-10.8596
ཀ་སྦུག་	-10.8596
ལས་གུད་ན་ཡང་	-10.8596
རུ་སོག་	-10.8596
ཚན་པོ་ཆེ་ཆེན་པོ་	-10.8596
གདན་བཤམས་པ་	-10.8597
གཙེ་བ	-10.8597
བྱེད་མཁན་གྱི་	-10.8597
སྙིང་པོ་མེད་པ་	-10.8598
བརྣབ་སེམས་	-10.8598
སྟོབས་དང་བདེ་བར་	-10.8598
ཟས་དང་སྐོམ་	-10.8599
དུ་མར་	-10.8599
འབ	-10.8599
འོད་མའི་ཚལ་བ	-10.8599
འབངས་	-10.86
གཡེང་	-10.86
ཆོམ་རྐུན་	-10.8601
ཡོངས་སུ་ཚོལ་བ	-10.8602
▁དཀའ་ངལ་	-10.8602
མིང་འདི་ཞེས་བྱ་བ	-10.8602
▁དེ་ཉིན་	-10.8602
ཞིབ་ཚགས་པོ	-10.8603
གདངས་	-10.8605
ལ་ཕྱག་འཚལ་ཞིང་	-10.8609
ལག་ལེན་བསྟར་	-10.8609
མུ་སྟེགས་	-10.861
དུས་བབ་	-10.8613
ྐུའི་འཁྲུངས་སྐར་	-10.8614
པ་ཡིན་ནའང་	-10.8615
བསྐོར་བའི་	-10.8616
སྐྱེ་མཆེད་ཀྱི་	-10.8616
ཕྱུག་	-10.8616
ར་མཛད་དོ་་	-10.8618
འདོད་པ	-10.8618
སྲི་ཞུ་	-10.8619
དབེན་	-10.8619
འདུགལྷག་པར་	-10.862
ལས་རོགས་	-10.862
ལྷུང་བཟེད་ཐོགས་	-10.8621
གནད་དོན་ཐོག་	-10.8623
རྣམས་ལའང་	-10.8624
དཔལ་འབྱོར་དང་	-10.8624
ཀྱིས་བརྒྱན་པ་	-10.8628
དང་ལྡན་ཏེ་	-10.8629
བཏང་སྟེ	-10.863
ལྡན་པ་་	-10.8631
བཀའ་དྲིན་ཆེན་པོ་	-10.8631
ལས་བྱས་པའི་	-10.8631
དམིགས་སུ་མ་མཆིས་	-10.8632
ྨྲ་བརྗོད་རང་དབང་	-10.8633
ཇུས་	-10.8633
ཐེངས་མང་	-10.8634
འཆང་བ་དང་་ཀློག་པ	-10.8634
སྐྱབས་སུ་	-10.8635
གྱེན་དུ་	-10.8638
ཚིགས་སུ་བཅད་པ	-10.8638
པའི་སྐོར་	-10.8639
ཤེས་པ་གང་ཞེ་ན་	-10.8639
སྟངས་འཛིན་	-10.864
ཡང་རུང་	-10.8641
ལག་པས་	-10.8642
ཕྲུ་གུའི་	-10.8645
ཤག་	-10.8645
ངོས་འཛིན་བྱེད་	-10.8646
▁ཤེས་རིག་	-10.8648
རྣམ་པར་བྱང་བའི་	-10.8649
ར་འགྲུབ་པ་དེ་	-10.865
དུ་བཅུག་	-10.865
་ཧུ་ཕཊ་	-10.8653
སྙམ་ནས	-10.8653
▁བཀའ་ཤག་སྐབས་	-10.8654
ཁག་པོ་	-10.8655
གདན་ཞུ་གནང་	-10.8655
བལྟམ་	-10.8656
གསོལ་བ་བཏབ་	-10.8656
མྱོང་མེད	-10.8658
འི་སྐྱེ་གནས་དང་་	-10.8661
རླུང་གིས་	-10.8661
རྣམ་མང་	-10.8661
སྐད་ཆ་ཤོད་	-10.8661
ཟག་པ་དང་བཅས་པ	-10.8663
▁དགོན་པ་	-10.8664
མ་སྐྱེས་	-10.8664
སྐབས་ནས་	-10.8667
པ་ལྟ་བུ་	-10.8668
རང་གི་ཐོག་ནས་	-10.8668
བལྟ་བ	-10.8669
བསྐྱེད་པར་བྱའོ་་	-10.867
▁གལ་སྲིད་	-10.867
ཡང་གཞན་	-10.8671
སྲི་ཞུ་བ་	-10.8671
རང་ཡུལ་	-10.8672
མཚམས་འཇོག་དགོས་པ	-10.8674
གང་ཤེས་རབ་ཀྱི་	-10.8674
ངན་པའི་	-10.8674
རབ་ཏུ་བྱུང་་་	-10.8676
དགའ་བྱེད་	-10.8677
ལ་མངོན་པར་བརྩོན་	-10.8681
དང་་དགེ་བསྙེན་མ་	-10.8681
བཞི་དང་ལྡན་ན་	-10.8681
ཕོགས་	-10.8682
ལེགས་སོ་	-10.8683
ེ་རུ་	-10.8684
འི་ར	-10.8685
མྱ་ངན་བྲལ་	-10.8687
བྲི	-10.8689
ཕྱིར་སྤྱན་སྔར་འ	-10.8693
ཨིན་ཇི	-10.8693
▁འཛམ་གླིང་ནང་	-10.8694
▁རིན་ཆེན་	-10.8695
སྭ	-10.8698
▁གང་ན་	-10.8699
འདོད་ཅིང་	-10.8699
སྤོང་བར་བྱེད་	-10.8703
ལེ་ལོ་ཅན་	-10.8703
མཛངས་པ་	-10.8704
བདག་ཉིད་ཀྱང་	-10.8706
བལྟའོ་་	-10.8709
བ་དེ་དག་	-10.8709
བུ་མོའི་	-10.8712
འགྲོ་གི་རེད	-10.8713
འི་ཆོས་ཅན་	-10.8713
བཟོ་མཁན་	-10.8715
རྒྱུའི་ཁས་ལེན་	-10.8716
ཆོས་རྣམ་པར་དག་པ་	-10.8716
བོད་ཐོག་	-10.8717
དང་་སེམས་ཅན་	-10.872
ཆེན་པོ་དེ་	-10.8721
▁དེར་ནི་	-10.8722
གྲོས་ཚོགས་ནས་	-10.8722
གསལ་བའི་	-10.8722
▁ཕྱི་ལོ་ཨ་རིའི་	-10.8726
ཚོང་དཔོན་གྱི་བུ་	-10.8727
▁དེ་བས་	-10.8727
ཡོད་པའི་བོད་མི་	-10.8728
བཏང་བ་མ་ཟད	-10.873
རེད་དམ	-10.8733
དགུ	-10.8733
བྷུ	-10.8736
མནར་མེད་	-10.8737
ལ་རྟེན་	-10.8737
བསྙད་	-10.8737
ནམ་མཁའི་སྙིང་པོ་	-10.8739
ཁའི་	-10.8741
མགྱོགས་	-10.8741
ཐེ་བྱུས་བྱེད་	-10.8743
ཐོན་པའི་	-10.8744
ཕུང་	-10.8745
བྱས་ནས	-10.8745
པ་མ་གཏོགས་	-10.8745
མེད་པར་འགྱུར་	-10.8746
ཞིང་དུ་	-10.8749
བཙན་བྱོལ་བ་རྣམས་	-10.875
སྐུ་ཚེའི་	-10.8752
སུ་འདྲ་ཞིག་	-10.8753
▁སྨན་	-10.8755
མཚན་མར་	-10.8758
འཁྲུལ་འཁོར་	-10.8759
▁ཐུབ་པ་	-10.8759
་མེད་	-10.8759
གསལ་རྒྱལ་	-10.876
བྱ་རྒྱུ་རེད	-10.876
གཟིགས་སྐོར་དུ་	-10.8761
ཐུགས་སུ་ཆུད་	-10.8761
འདི་དག་ཀྱང་	-10.8761
ལ་བསྔགས་བརྗོད་	-10.8763
ནས་དེས་	-10.8765
བཏང་བ་རེད	-10.8768
སྲུང་སྐྱོབ་ཆེད་	-10.8768
པར་གྱུར་པ་དང་་	-10.8768
མཆོགགྲོས་ཚོགས་	-10.8772
དཀྱིལ་	-10.8775
བླ་ཆེན་རྣམ་པ	-10.8779
དངུལ་གྱི་	-10.878
▁དམ་པ་དེ་ཉིད་	-10.8781
སྐྱོབ་པ	-10.8781
འདི་ལྟར་བདག་གིས་	-10.8782
བག་ཡོད་	-10.8782
སླུ་བ	-10.8783
ད་ནི་	-10.879
བསྙེན་བཀུར་བྱས་	-10.8791
གྲོལ་བ	-10.8791
ར་བྱེད་པ་དང་་	-10.8794
ཕུང་པོ་ལྔ་	-10.8796
བསོད་ནམས་གླིང་	-10.8797
ནས་གསུང་པའི་	-10.8797
མཉན་པ	-10.8798
ཟབ་མོའི་	-10.8798
བྱམས་པ	-10.8799
པ་ཡིན་ཞེ་ན་	-10.8801
▁ལྟ་བ་	-10.8801
པར་བྱེད་པའི་	-10.8805
ཕྱི་ལོ་ཉིན་	-10.8805
ཞིང་ཆེན་	-10.8806
བཀའ་དྲུང་	-10.8806
རིང་བསྲེལ་	-10.8806
འདེགས་འབུལ་ཞུས	-10.8808
འཇ	-10.8809
གནོད་སེམས་མེད་པ	-10.8811
སྙི	-10.8811
བེད་སྤྱོད་གཏོང་	-10.8812
ཅི་ཡང་མེད་	-10.8814
དགའ་བར་གྱུར་ཏེ་	-10.8814
རྒྱལ་བུ་རྒྱལ་བ	-10.8814
མ་སྐུ་མཆོག་	-10.8814
མང་དུ་ཐོས་པ་	-10.8815
ངོས་འཛིན་ཞུ་	-10.8817
གྲོལ་བར་	-10.8817
ལེའུ་ཞེས་བྱ་སྟེ་	-10.8818
བསྡུས་པའི་	-10.8819
བགོས་ནས་	-10.8821
ཧ་ཅང་གསལ་པོ་རེད	-10.8823
རོགས་པ་	-10.8823
ནི་ཆོས་ཉིད་ཀྱིས་	-10.8826
བཙན་དབང་	-10.8827
བདག་ཅག་ཀྱང་	-10.8828
ལྷན་སྐྱེས་	-10.8829
་ན	-10.8829
འགན་འཛིན་གཞོན་པ་	-10.883
དགོས་བྱུང་	-10.8831
འི་ཆོས་ཀྱི་	-10.8831
ལས་བྱེད་རྣམ་པ	-10.8833
ཟོས་ནས་	-10.8835
ལས་གཞི་སྤེལ་	-10.8837
འི་རིགས་	-10.8839
འད	-10.884
▁བོད་མཐོ་སྒང་གི་	-10.884
འཆ	-10.8841
མ་བྱས་པ་	-10.8841
་ཤེས་རབ་	-10.8842
ཛ་དྲག་ངལ་སེལ་	-10.8842
ཤི་བའི་	-10.8844
བསྐྱར་གསོ་ཡོང་	-10.8844
ཁལ་མུག་	-10.8844
རྒྱུའི་ཉེན་ཁ་	-10.8844
ཁྱོན་ཡོངས་ལ་	-10.8845
་བཀའ་བརྒྱུད་	-10.8847
ྗོད་དུ་མེད་པའི་	-10.885
འཛུམ་པ་མཛད་	-10.8852
འདི་ནས་ཤི་འཕོས་	-10.8854
ལ་མངོན་པར་བསྟོད་	-10.8854
མེད་པ་ནི་	-10.8855
འདི་གཉིས་ཀྱིས་	-10.8856
དོང་ནས་	-10.8856
མེད་ནའང་	-10.8859
རྒ་བ་དང་་ན་བ་དང་	-10.8859
ྱ་ཀ་ལན་ད་ཀ་གནས་པ	-10.8859
མཁའ་ལམ་བརྒྱུད་	-10.8859
རྒྱབ་ཀྱིས་ཕྱོགས་	-10.8859
ཡུལ་མ་ག་དྷའི་	-10.8859
རྒྱད་ལ་བསམ་གཏན་པ	-10.8859
བདུགས་	-10.886
མི་འམ་ཅིའི་	-10.886
རྩེ་ཕུད་	-10.886
ཀྲུང་དབྱང་	-10.886
རྫུ་འཕྲུལ་གྱི	-10.886
ཡངས་ཤིང་རྒྱ་ཆེ་བ	-10.8861
འཁྲུག་རྩོད་	-10.8861
ཆོད་སེམས་བརྟན་པོ	-10.8862
རྒྱུས་མངའ་	-10.8862
རྒྱུའི་ཐད་	-10.8863
སྒོའི་	-10.8863
▁དེ་དང་ཆབས་ཅིག་	-10.8864
དྭང་བླངས་	-10.8864
མཆིའོ་་	-10.8868
རིག་པ	-10.8869
མི་དེས་	-10.887
་དེ་དག་དང་་	-10.887
ཆོས་མ་ཡིན་པ་	-10.887
ཡོངས་སུ་བཤད་པའི་	-10.8871
དཔང་རྟགས་	-10.8871
ལ་སློབ་པ་	-10.8872
ཚོགས་འདུ་འཚོགས་	-10.8872
ནང་གསལ་	-10.8873
གིས་སྨྲས་པ་	-10.8874
རྣམ་པར་སྤོང་བ	-10.8875
ཇི་སྙེད་པ་	-10.8876
ཀྱི་སླད་དུ་	-10.8876
ར་སངས་རྒྱས་ཏེ་	-10.8876
ཚུལ་བཞིན་ཡིད་ལ་	-10.8877
རེ་རེ་ལ་ཡང་	-10.8878
དེའི་སྐོར་	-10.8878
▁འཇམ་དཔལ་འདི་	-10.8879
ཚེ་འཕོས་པ་	-10.888
ཧ་ཅང་ཡག་པོ་བྱུང་	-10.8881
བོད་ས་བཙན་བཟུང་	-10.8881
ཅེས་བཀའ་སློབ་སྩལ	-10.8883
སྲུང་སྐྱོབ་ཀྱི་	-10.8883
མཛའ་	-10.8886
ལ་དམིགས་ནས་	-10.8887
འགྱུར	-10.8889
▁མྱུར་དུ་	-10.889
ཚིག་འདི་སྐད་ཅེས་	-10.8893
ཁྱེད་རྣམས་	-10.8893
ལས་དོན་རྣམས་	-10.8895
གསུང་་་	-10.8896
ཡོང་རྒྱུ་རེད	-10.8897
བརྩི་བཀུར་	-10.89
ལྟ་བུའོ་་	-10.89
འགྱུར་རོ་	-10.8903
▁ནད་པ་	-10.8903
ཉན་པ་	-10.8903
ཐེངས་གཉིས་	-10.8904
རྒྱབ་གཉེར་	-10.8905
ཡོངས་རྫོགས་ལ་	-10.8906
དང་་དགེ་སློང་མ་	-10.8906
▁ཁ་དོག་	-10.8906
འི་དོན་	-10.8906
བཞུགས་ནས་	-10.8909
འདྲ་བའི་	-10.891
ཟག་	-10.8911
སྐུ་ཚབ་དོན་ཁང་གི	-10.8913
རྩེ་ཞིང་དགའ་	-10.8913
ཀླུང་	-10.8913
དུ་བྱུང་ངོ་་་	-10.8914
སྤྱད་དེ་	-10.8915
སྐྱབས་གནས་	-10.8915
གང་དང་ལྡན་པས་	-10.8916
ནང་ལ་	-10.8917
བརྩེགས་	-10.8919
མངོན་པར་བསྒྲུབ་པ	-10.8925
ཀླུའི་	-10.8925
སྣང་བར་	-10.8925
▁ཉིན་	-10.8926
ཁང་པའི་	-10.8927
གང་ཡང་རུང་བ་	-10.8927
ཞེས་བཀའ་སློབ་སྩལ	-10.8928
འཁྲུལ་པ་	-10.8929
བསྐོང་	-10.893
ཁོ་མོ	-10.8931
པ་ཡི་	-10.8935
ཚོགས་མི་རྣམས་	-10.8936
་ཀུན་དགའ་ར་བ་ན་	-10.8936
གི་དགེ་འདུན་ལ་	-10.8937
འཚོང་	-10.8938
་པ་གསལ་པོ་རེད	-10.8941
ཐུབ་པ་དེ་	-10.8944
རྒྱལ་པོ་དེས་	-10.8948
དེའི་ཆུང་མ	-10.895
དམིགས་པར་	-10.895
ནི་གང་ལགས་	-10.8952
དྲང་སྲོང་དེ་	-10.8953
གྱུར་པས་	-10.8953
▁དེ་ཡིན་དུས་	-10.8956
འཇིག་རྟེན་དག་ན་	-10.8956
རྩུབ་	-10.8957
དེས་དེ་	-10.8957
མི་མང་རྣམས་ལ་	-10.8957
བསྟབས་	-10.8957
ནད་རྟགས་	-10.8958
རང་བཙན་ཐོབ་	-10.8959
བར་སྣང་ལ་	-10.8962
ལྔ་དང་	-10.8962
སེམས་ཀྱི་ཞི་བདེ་	-10.8963
གཅིག་གྱུར་རེད	-10.8965
རྒྱལ་བའི་སྲས་	-10.8965
བསམ་གཏན་གླིང་	-10.8966
ཕྱི་རྒྱལ་ཡུལ་གྲུ	-10.8966
བྷི་	-10.8967
བསྟེན་པ་	-10.8968
ཟག་པ་མེད་པ	-10.8972
ཚོགས་ཆུང་ཞིག་	-10.8974
ཟེར་བ་དང་	-10.8974
ེ་སི་	-10.8974
བཞི་པོ་འདི་དག་	-10.8977
ཨ་རི་གཞུང་གིས་	-10.8977
ནས་རྒྱ་གར་	-10.8978
རྒྱ་བོད་	-10.8979
▁འདོད་པའི་	-10.8981
མིང་འདོགས་པར་	-10.8982
པའི་དབྱིངས་	-10.8983
མཆོངས་	-10.8987
བྱ་དགའ་	-10.8987
གནོད་སེམས་ཀྱི་	-10.8988
སྨོད་	-10.8988
བཅུ་གཅིག་	-10.8988
ར་བྱས་	-10.8989
ཤིག་ཅེས་	-10.8989
རུས་པ་	-10.899
▁ལོ་ངོ་	-10.8991
▁རྣལ་འབྱོར་	-10.8993
མེད་པར་གྱུར་ཏེ་	-10.8996
བཅས་ཡིན	-10.8996
དགོས་པ་ཞིག་རེད	-10.8996
ཚང་མས་མཁྱེན་གསལ་	-10.8997
ཐུར་	-10.9
▁སྐྱེ་བོ་	-10.9002
་བ་དང་་	-10.9004
བགྱིས་ནས་	-10.9004
མཛོད་་	-10.9005
▁སྨན་ཆེན་	-10.9006
ཕ་མ་དང་	-10.9007
འཐུན་པ་	-10.9007
དམ་པ་མཆོག་	-10.901
གསུམ་དུ་	-10.9012
ཆོས་མཉན་པ	-10.9012
▁ཟབ་སྦྱོང་	-10.9014
ཚོད་དཔག་	-10.9014
གཉིས་ཀའི་	-10.9015
པ་རྣམས་ཀྱིས་	-10.9015
▁བཟོད་པ་	-10.9015
མི་རྒོད་	-10.9018
ཚེ་རིང་ལགས་དང་	-10.9018
ཞུམ་པ་མེད་པའི་	-10.9018
▁ཟླ་	-10.9019
དང་ཕྲད་	-10.9019
▁རྒྱ་མཚོ་	-10.902
བསྲུང་	-10.902
མཇལ་ཁ་ཞུས་	-10.9022
ལས་དོན་ཁག་	-10.9024
རློམ་སེམས་སུ་	-10.9026
ཡལ་	-10.9026
ཐུབ་མིན་	-10.9026
རྒྱ་ཆེ་སྤེལ་	-10.9027
བྱུང་བར་གྱུར་	-10.9028
ལྷ་མིན་	-10.9028
པོ་ཞིག་	-10.9029
▁གལ་ཏེ་མི	-10.903
ཞིག་ཡིན་པའི་ཆ་ནས	-10.903
▁བདེ་སྲུང་	-10.9032
ཁམས་དང་་	-10.9034
▁རྡོ་རྗེ་	-10.9034
འི་རྣམ་གཞག་	-10.9034
གསར་འགོད་པ་བཅས་	-10.9034
ལམ་ལྷོངས་	-10.9034
དེ་ལྟ་ལགས་སོ་	-10.9037
དང་བསྟུན་ནས་	-10.9038
མཆོག་སྤྲུལ་	-10.9038
སྦྱར་ནས་	-10.9039
ཡང་ཡོད་	-10.904
▁སྦེལ་ཇམ་	-10.9041
བསྟན་དུ་གསོལ་	-10.9043
ཆེན་པོ་དང་	-10.9044
དགེ་བཙུན་	-10.9044
བསྒྲལ་	-10.9045
པོའམ་	-10.9046
དོ་ཞེས་	-10.9046
འདྲ་པོ་	-10.9048
འཆད་པ་	-10.9048
བར་འགྱུར་ཏེ་	-10.9054
▁དེ་ཉིད་	-10.9055
ཞུ་སྙན་	-10.9056
ཝང་	-10.906
འཕགས་པའི་ཡུལ་	-10.906
བར་གྱུར་ནས་	-10.9061
གྲོང་དུ་	-10.9062
རྣམ་པར་སྤངས་པ	-10.9064
ཏོག་དབྱིབས་ནད་	-10.9064
ཕྱིན་པ་ཡིན་ན་	-10.9065
ཀྱང་ཡིན་	-10.9066
རབ་ཏུ་འབྱུང་	-10.9067
ཏིང་ངེ་འཛིན་དེ་	-10.907
ཚོར་བའི་	-10.9072
མཐོང་གི་འདུག	-10.9073
ར་བསྐོ་གཞག་གནང་	-10.9075
་ལ་མི་ཤེས་པ་དག་	-10.9075
འདི་ལོར་	-10.9077
ཚེ་རིང་མཆོག་	-10.9078
▁པད་མའི་དཔལ་གྱི	-10.9078
མི་བཟད་པ་	-10.9079
དུས་གསུམ་མ	-10.908
སྨན་པ་དང་	-10.9082
ར་རྟེན་གཞི་བྱས་	-10.9083
བསྣམས་	-10.9088
དེ་མཐོང་མ་ཐག་ཏུ་	-10.9089
ཁྲིམས་སྒྲིག་	-10.9092
བོད་རྒྱལ་ཁབ་ཆེན་	-10.9095
ཡེ་ཤུ་	-10.9096
འདུག་པའི་	-10.9097
ཚུལ་ཁྲིམས་འཆལ་པ་	-10.9097
རྒྱལ་ཁབ་འདྲ་མིན་	-10.9098
འཐེན་	-10.91
ཡོད་པ་སོགས་	-10.91
བཙན་བྱོལ་བའི་	-10.9101
ལ་ཆགས་པ	-10.9101
ཕྱོགས	-10.9101
གྲོང་རྡལ་	-10.9101
གནས་ཚུལ་ལ་	-10.9104
རྒྱུའི་ཚབ་ཏུ་	-10.9104
ངོ་མཚར་རྨད་དུ་	-10.9104
སྐྱེ་ཞིང་	-10.9105
མི་ཞིག་	-10.9106
དུ་ཕེབས་	-10.9106
བསྙེན་བཀུར་བྱ་བ	-10.9107
སེམས་ཅན་གྱི་དོན་	-10.9109
▁གོང་ས་མཆོག་གིས་	-10.911
ཇོ་བོ་	-10.911
འི་གྲོང་ཁྱེར་	-10.9111
བྱེད་ཅིང་་	-10.9112
སྡིགས་	-10.9112
སྒྱུ་	-10.9113
བཞག་ཡོད	-10.9114
ནས་གསེར་དང་བོང་	-10.9115
དགེ་འདུན་ཆེན་པོ་	-10.9115
རིགས་དབྱེ་འབྱེད་	-10.9115
བཀྲོལ་	-10.9116
བྱེད་རྒྱུ་དེ་	-10.9116
སེན་མོ་	-10.9117
དྲུང་ཆེ་ཀརྨ་	-10.9118
དངོས་པོ་ཡར་རྒྱས་	-10.9119
ཀྱི་ཚོགས་གཙོ	-10.9119
ཤེས་པ་དང་	-10.9121
ཆེད་འབད་བརྩོན་	-10.9121
འི་རང་བཞིན་ཅན་	-10.9122
གཞོན་སྐྱེས་ཚོར་	-10.9123
་མོ་	-10.9123
སོང་བའི་	-10.9124
དང་ལྡན་པ་ནི་	-10.9126
པ་ནས་བཟུང་ད་བར་	-10.9127
ཤེས་བཞིན་དུ་	-10.9128
ཞྭ་	-10.9129
ཚན་དུས་གསུམ་སྟེ་	-10.9129
འགྲིམ་འགྲུལ་	-10.9129
ཚེས	-10.9129
གཙིགས་ཆེར་འཛིན་	-10.9129
ར་སངས་མ་རྒྱས་	-10.9129
དྲང་སྲོང་ཀ་ནེ་ཡ	-10.9129
བཀའ་མཆིད་	-10.9129
བསྡུ་བའི་དངོས་པོ	-10.913
གོ་ལའི་གནམ་གཤིས་	-10.913
དོན་ཐམས་ཅད་གྲུབ་	-10.9131
ཐོ་གཞུང་	-10.9131
ཁྱེད་རང་ཚོར་	-10.9132
ཇི་ལྟ་བུའི་	-10.9134
བྱུང་བར་བརྟེན་	-10.9134
ནུས་པ་མཉམ་སྤུངས་	-10.9134
མཚོན	-10.9135
ནི་བདག་གི་	-10.9136
བྱད་གཟུགས་	-10.9136
དངོས་འབྲེལ་	-10.9137
རྒྱ་སྐད་	-10.9137
▁མེ་	-10.9138
བ་ནས་བསྐལ་པ་བར	-10.9138
གནང་བྱུང་	-10.9141
དབུས་གཙང་	-10.9142
འི་བར་དང་་	-10.9142
ཐུགས་འགན་	-10.9143
བྲང་	-10.9143
▁ཁོང་ཚོས་	-10.9144
བསྡུས་ནས་	-10.9145
ཀྱི་ཞིང་འདི་ནས་	-10.9145
མདངས་	-10.9146
ཀུན་ཆུབ་པ	-10.9148
ལས་དོན་གནང་ཕྱོགས	-10.9149
ཁམས་སུ་	-10.9149
ཚོགས་ཁང་གསར་པའི་	-10.9151
སྲུང་བརྩིའི་	-10.9152
སྤྱི་ནོར་ས་	-10.9154
བཀག་འགོག་	-10.9154
▁ལྷའི་བུ་མོ་	-10.9154
སྟོང་ཞེས་བྱ་བར་	-10.9157
ཨ་མདོ་	-10.9158
དཀའ་སེལ་	-10.9161
ལྟུང་བ	-10.9162
ཞུ་བ་ལུང་བསྟན་པ	-10.9165
ཁལ་	-10.9166
པ་དེ་ལྟ་བུ་ནི་	-10.9166
ཤིང་རྟའི་	-10.9167
▁འདི་ན་	-10.9169
▁བོད་མི་ཚོར་	-10.917
ཆོས་ལུགས་ཚང་མར་	-10.917
ལོ་བཅུ་གཉིས་	-10.9173
▁རང་སངས་རྒྱས་	-10.9176
བོད་ནི་	-10.9179
ཟུང་དྲུང་	-10.9181
བསྲུང་བ་དང་་	-10.9181
བརྒྱར་	-10.9183
དང་མི་རིགས་	-10.9184
འི་སེམས་ཅན་	-10.9184
མཉམ་རུབ་	-10.9184
འཚེ་བ་མེད་པའི་	-10.9186
དང་ལྡན་པ་ཞིག་	-10.9188
རྩ་ཆེན་པོ་	-10.9189
བཅུག་པ་	-10.9189
གང་ཡང་མེད་པར་	-10.919
སྐབས་ཀྱི་	-10.9191
འགག་པ་	-10.9191
ཐིགས་པ་	-10.9191
འདི་ཉིད་ཡིན་ཏེ་	-10.9196
ཤེས་པ་དེ་ཡང་དག་པ	-10.9197
བདུད་ཀྱིས་	-10.9198
སྨྲས་པ་བུ་མོ་	-10.9199
ལངས་ནས་	-10.92
ཡང་སྲིད་ཐག་གཅོད་	-10.92
་ཏི	-10.9201
དད་ལྡན་མང་ཚོགས་	-10.9201
བཏིང་	-10.9201
▁སུད་སི་	-10.9201
ཞེས་བགྱི་བ	-10.9202
འི་ཁྲོད་	-10.9202
པ་དེ་ཉོན་ཅིག	-10.9203
པར་མི་འགྱུར་བ་	-10.9203
ཞུ་ཡི་ཡོད	-10.9204
ཉིན་མཚན་	-10.9205
བཀོད་པའི་	-10.9208
པ་མེད་པར་	-10.9209
་བྱེ་བ་ཁྲག་ཁྲིག་	-10.9209
བོད་མི་གྲངས་	-10.9209
▁སྤྱན་རས་གཟིགས་	-10.9209
རྐང་པ་ལ་	-10.921
་ཐེག་པ་རབ་མཆོག་	-10.921
ཆུའི་ཁམས་དང་	-10.9211
་རི་ཡ	-10.9212
ལས་རྣམས་	-10.9213
ཁེལ་	-10.9214
ཤེས་པར་གྱིས་་	-10.9216
འབྱུང་བ་ཆེན་པོ་	-10.9216
བཙན་ཁྲིད་བྱས་	-10.9217
མི་བདེ་བ་	-10.9217
▁དྲི་བ	-10.9217
▁ལྷ་དང་མི་	-10.9218
མཉམ་འཛོམས་	-10.9219
▁ཀོ་རི་ཡ	-10.9219
དྷ་ར་	-10.922
འདི་བཤད་པ་ན་	-10.9221
སྟོང་སྟེ་	-10.9221
དགེ་སྦྱོང་གི་	-10.9222
བསྐོར་བར་	-10.9223
མཐུན་འགྱུར་རོགས་	-10.9223
▁ཕྲུ་གུ་	-10.9223
གནོད་པ་ཆུང་ངམ་	-10.9224
ནི་མི་	-10.9226
སེམས་ཏེ་	-10.9227
བལ་ཡུལ་ནང་གི་	-10.9227
དོན་འདི་	-10.9231
ཚོར་སྣང་	-10.9231
་ཕུན་ཚོགས་མཆོག	-10.9233
པ་རྣམས་ལགས་	-10.9234
གིས་གསུང་དོན	-10.9236
བརྟགས་པ་	-10.9237
འི་སེམས་ཀྱིས་	-10.9237
འི་ཆེད་	-10.9237
དང་་ཆོས་དང་་	-10.9238
ཇེ་ཆེར་འགྲོ་	-10.924
བསྒྲུབས་ནས་	-10.924
བཟོ	-10.9241
མེག་	-10.9242
མཐའ་མར་	-10.9243
ཁྲེ	-10.9243
དབང་སྒྱུར་བྱས་	-10.9246
ྦ	-10.9247
མད	-10.9248
བདུད་རྣམས་	-10.9248
དུ་གནས་	-10.9248
གནས་བབ་ཚད་ལྡན་	-10.9249
རྒྱལ་སྤྱིའི་བོད་	-10.925
མ་གྱུར་ཅིག་ཅེས་	-10.925
ག་ཏ་མ་	-10.9251
ཕྱིའི་རྒྱལ་ཁབ་	-10.9252
ཆོས་ཀྱི་སྒོ་	-10.9253
མཐོང་ངོ་་	-10.9253
མར་མེ་མཛད་	-10.9253
དོག་	-10.9253
དགོས་པ་ལས་	-10.9255
▁དེ་མཚུངས་	-10.9255
ལྡན་གྱི་	-10.9256
པ་ཉིད་ཀྱི་བར་དུ་	-10.9257
ི་ཀ	-10.9258
གནང་ཡོད་པ་རེད	-10.926
ཕན་པའི་	-10.9261
སེམས་དང་སེམས་	-10.9261
གནས་སྟངས་ཆགས་ཡོད	-10.9262
ཡོ	-10.9264
སོར་མོ་	-10.9264
དཀྲུགས་	-10.9265
རྒྱུ་སྐར་	-10.9267
སླད	-10.9267
དུ་འགྲོ་བའི་ལམ་	-10.9269
ཁྱེའུ་དེས་	-10.927
མང་ཚོགས་ཁྲོད་	-10.927
འི་འདམ་དུ་བྱིང་བ	-10.927
གྱི་དཀྱིལ་འཁོར་	-10.9272
གོ་སྒྲིག་འོག	-10.9273
ནང་གནས་སྡོད་	-10.9275
སྡིག་པ་ཐམས་ཅད་	-10.9275
འཕེལ་བར་འགྱུར་	-10.9277
འདྲི	-10.9278
▁དེང་དུས་	-10.9279
ཕྱི་ལོ་ནས་	-10.9279
བོད་ཀྱི་བདེན་	-10.9279
ཞུས་པ་ལྟར་	-10.9282
ཉི་ཤུ་རྩ་གཅིག་	-10.9285
གནས་ནང་འཁོད་དོན	-10.9286
སྒྲ་སྙན་	-10.9286
མཉམ་ཞུགས་ཀྱིས་	-10.9286
རྗེས་འབྲང་པ་	-10.9286
ལུང་འདྲེན་	-10.9287
ཐག་རིང་པོ་	-10.9289
སྦྱིན་པར་བྱའོ་་	-10.929
རིམས་ཁྱབ་གདལ་	-10.9293
▁མཁན་པོ་	-10.9293
བུ་དེ་	-10.9293
དབང་པོ་རྣམས་	-10.9296
ཞུ་བའི་	-10.9297
ཆོས	-10.9298
འདི་འདྲའི་	-10.9298
ཞུ་གལ	-10.93
ཞུ་བར་	-10.9301
ཐ་མར་	-10.9305
བོད་ནང་ཕར་	-10.9306
དབུ་ཁྲིད་པའི་	-10.9306
དང་ལྡན་པར་གྱུར་	-10.9308
འབུལ་རྒྱུ་	-10.931
ལྟ་གྲུབ་དང་	-10.931
མངའ་སྡེའི་གཞུང་	-10.931
གཞུང་ལུགས་	-10.9311
རྐ	-10.9311
བཙན་བྱོལ་དུ་ཕེབས	-10.9311
ཡོང་མཁན་	-10.9313
རྣམ་པར་གཟིགས་	-10.9314
གང་ཡང་མེད་	-10.9315
པའི་འོག་ཏུ་	-10.9315
དེང་སང་	-10.9315
བཀུར་འོས་	-10.9316
ཞེས་སྨྲས་ནས་	-10.9316
ཆུ་ཚོད་ཙམ་ལ་	-10.9319
དཀར་པོའི་	-10.9319
ཚབ་ཏུ་	-10.932
གཟིགས་འབུལ་	-10.932
མཆིས་སོ་་	-10.9322
དང་་སྟོབས་དང་་	-10.9322
ནིའུ་ཛི་ལེན	-10.9323
གོང་ས་མཆོག་ལ་	-10.9323
དམ་བཅས་པ་	-10.9323
ཆེན་པོ་ཡོད	-10.9324
་དམ	-10.9325
མི་མང་ཚོས་	-10.9326
བྱས་པ་ཡིན་ན	-10.9329
བརྗོད་དོ་་	-10.933
ཀླུ་སྒྲུབ་ཀྱི་	-10.9331
བྱེད་པར་འགྱུར་་	-10.9331
བོད་གངས་ཅན་གྱི་	-10.9334
ཟིན་པ་དང་	-10.9334
ཕྱོགས་ཕེབས་	-10.9337
▁ལྡི་ལི་	-10.9338
འགྲོ་བ་དང་་	-10.9338
བར་གྱུར་་	-10.934
ཤེས་ལྡན་	-10.934
ཆོས་བརྒྱུད་ཁག་	-10.934
དཀའ་རྙོག་སེལ་	-10.9342
ནི་ཤིན་ཏུ་	-10.9342
དམག་ཆེན་གཉིས་པ	-10.9343
ལོ་གསུམ་	-10.9344
མཐུན་པ	-10.9344
བཟླས་པ	-10.9345
འཁོད་འདུག	-10.9348
་མཆོག་ལ་	-10.9348
ལས་ཐོག་	-10.9348
འདོང་བ	-10.9348
མཁན་རིན་པོ་ཆེ་	-10.9349
བརྟ	-10.9351
གཉི་ག་	-10.9354
སྤྱི་ཡོངས་	-10.9354
སོགས་སུ་	-10.9355
རྒྱ་མཚོ	-10.9356
མཚན་རྟགས་བཀོད་	-10.9356
རབ་ཞི་	-10.9357
ལྷོ་ཕྱོགས་སུ་	-10.9358
སྡུག་བསྔལ་བ་དང་་	-10.9359
པ་ཞིག་ཡིན	-10.9361
▁ཞེས་གསུང་	-10.9363
ག་གི་	-10.9364
ཤིག་ཡིན	-10.9365
▁རྣམ་པར་ཤེས་པའི་	-10.9365
ཕྲུག་	-10.9366
ན་ཡང་་་	-10.9371
ཡོང་རྒྱུའི་	-10.9373
ནས་དར་བའི་	-10.9374
གཅིག་གིས་ནི་	-10.9375
བསླབས་པ་	-10.9377
ར་སངས་རྒྱས་པའི་	-10.9377
མོད་	-10.9378
བདེ་བ་འདོད་པ་	-10.9378
ཟ་བ	-10.938
བཏང་་་	-10.938
འི་གཞུང་	-10.9381
ཉེ་བ་	-10.9381
འཆིང་བ་	-10.9382
སྲིད་བློན་མཆོག་	-10.9382
བརྒལ་	-10.9383
བློས་གཏོང་	-10.9386
འཇུག་པའི་	-10.9388
བྱིན་ན་	-10.9388
བཏོན་ནས་	-10.9391
རེད་མ་གཏོགས་	-10.9391
བགྲོ་གླེང་དང་	-10.9392
རྗེས་སུ་མ་མཐོང་	-10.9393
དམིགས་ཡུལ་གཙོ་བོ	-10.9394
མངོན་པར་འགྲུབ་	-10.9395
བསམ་པའི་	-10.9396
ཆུ་ཡི་	-10.9397
ཁྱོད་ཀྱང་	-10.9398
ཁོང་ནི་	-10.94
བསྡམས་པ་	-10.9402
དབུ་འཛིན་	-10.9402
བློ་ལྡན་	-10.9402
ཀྱིས་བསམས་པ་	-10.9402
འདེགས་འབུལ་	-10.9403
ཁྱབ་པ་	-10.9403
སྤྲ	-10.9404
འཚོ་རྟེན་	-10.9405
ཕེབས་པ་དང་	-10.9405
སྐྱོ་བ	-10.9405
བཀའ་བསྡུར་གནང་	-10.9406
རྒྱ་ནག་གཞུང་ཚབ་	-10.9406
ཕྱི་གསལ་ནང་གསལ་	-10.9407
རྒྱ་ནག་སྐམ་ས་	-10.9407
ཀ་ན་ཊ་ཀ་མངའ་སྡེ	-10.9407
ཐུན་མོང་མིན་པའི་	-10.9408
ཡིད་ལ་ཟུང་ཤིག་དང	-10.9408
ཚོགས་མགོན་དུ་	-10.9408
ཐོབ་ཐང་རྩོད་ལེན་	-10.9409
▁མཁྱེན་	-10.941
དང་་དགའ་བ་དང་་	-10.941
བྱམས་སྙིང་རྗེ་	-10.9411
དོང་སྟེ་ལྷགས་ནས་	-10.9411
རང་གཅེས་འཛིན་	-10.9413
རྣམ་པར་དག་པའོ་་	-10.9415
མཆོད་པ་བྱས་	-10.9416
ཤིག་ཆགས་ཡོད	-10.9416
ཀིརྟི་	-10.9418
སེམས་ཁྲལ་	-10.9418
བཙན་དབང་གིས་	-10.9418
གཞན་ནི་བརྫུན་ནོ་	-10.9418
བསམས་བཞིན་དུ་	-10.9418
སྐྱེ་བ་མེད་པ་དང་	-10.942
ལགས་ནས་	-10.9421
མཐའ་མྱུར་དུ་གསལ་	-10.9421
གང་ལ་ལ་ཞིག་	-10.9422
བྲོས་	-10.9422
་པར་བརྟེན་	-10.9423
ཚོགས་མིའི་	-10.9425
ཐོབ་ཐང་དང་	-10.9425
ཚེའི་	-10.9426
གླིང་གི་	-10.9426
ལུས་ཀྱང་	-10.9426
ར་འགྱུར་གྱི་	-10.9426
མཚོན་གྱིས་	-10.9427
ཟུག་རྔུ་	-10.9427
ཆེ་ཞིང་མཐུ་ཆེ་བ	-10.943
སུའང་	-10.9431
རང་ནས་	-10.9431
་ཆོས་བཞི་པོ་	-10.9431
ཡིན་འདུགདེ་ཡང་	-10.9431
མི་མངའ་བ་	-10.9432
ཚོགས་པའི་ཚོགས་མི	-10.9433
འཛིན་རིམ་	-10.9437
སྣང་བ་ཆེན་པོས་	-10.9438
སྲིད་བྱུས་དང་	-10.9438
བྱས་པ་དེས་	-10.9438
ཐོག་ཏུ་	-10.9439
གཟའ་ཟླ་བའི་ཉིན་	-10.9439
བྱོན་པ་	-10.944
སྔོན་དུ་འགྲོ་བ་	-10.944
ཁ་ལོ་སྒྱུར་བ་	-10.9441
མ་བ	-10.9441
གསར་བཟོ་	-10.9441
ལས་མི་	-10.9442
མི་ནུས་སོ་	-10.9442
ཀྱི་བསམ་པ་	-10.9442
བཅར་ནས་	-10.9446
འདྲེན་པས་	-10.9447
བ་དེས་	-10.9448
དང་་སྙིང་རྗེ་	-10.9452
ཕྱག་རོགས་	-10.9453
འཚེ་བ་མེད་པ་	-10.9455
བོད་མི་དེ་དག་	-10.9458
འཕེལ་རིམ་	-10.9459
སྲིད་གསུམ་	-10.9459
དོན་ལྟར	-10.946
གང་དུའང་	-10.9465
▁ཕྱི་ལོ་དཔལ་ལྡན་	-10.9465
འདུ་འཛོམས་ཐོག་	-10.9465
ཕོངས་	-10.9466
བྱང་བ	-10.9468
འཛུལ་ཞུགས་	-10.9468
ཟིང་	-10.9468
་དག་གིས་	-10.9469
དགོས་མིན་	-10.947
འདུ་ཤེས་འཛིན་	-10.9471
བྱེད་བཞིན་པར་	-10.9471
འཚང་རྒྱ་	-10.9472
ལྡན་པའི་ཐོག་ནས་	-10.9474
ཚིག་འབྲུ་	-10.9475
བཤད་་	-10.9475
མི་འབྱུང་་	-10.9478
གང་ལགས་པ་དེ་	-10.9479
ཞང་	-10.948
ཟེར་བ་ཞིག་	-10.9483
ཀུན་འབྱུང་	-10.9483
པར་བྱ་གོར་མ་ཆག་	-10.9484
ཁྱེའུ་དེ་གཉིས་	-10.9484
ཝན་	-10.9484
ཕྱོགས་མཚམས་	-10.9487
མཛད་གཙོ་རྣམ་པ་	-10.9487
ལོ་བརྒྱད་	-10.9488
གཏོགས་པ་	-10.9491
སྙན་སེང་ཞུས་	-10.9492
འཐོབ་པ་དང་་	-10.9493
སེམས་ཤིང་	-10.9495
▁འདི་འདྲའི་	-10.9496
འགྱུར་མེད་	-10.9497
བོད་དེ་	-10.9498
བྱ་བ་ནི་	-10.9499
པ་ཉིད་ཀྱི་བར་	-10.9499
འཕགས་པའི་ཡུལ་དུ་	-10.95
མེ་ཏོག་རྒྱས་	-10.95
སྐུ་ཞབས་ཁོང་	-10.95
ཁ་ཤས་ཀྱིས་	-10.9501
ཤན་	-10.9502
ལྟ་བུ་ཆགས་ཡོད	-10.9502
འགྲོ་ཚུར་འོང་གི་	-10.9503
ནྡྲ	-10.9504
བྱ་བ	-10.9505
ན་འདུག་	-10.9506
བཀའ་ལུང་	-10.9506
མི་དགོས་	-10.9507
བྱས་འདུག	-10.9507
ཡོད་སྐབས་	-10.9507
རྣམ་པར་ཐར་པ་དང་་	-10.9509
གསོ་སྐྱོང་	-10.9509
▁ཕྱོགས་གཅིག་ནས་	-10.951
ཞི་ཞིང་	-10.9511
སིམ་	-10.9511
འཁོར་ལོའི་	-10.9513
སྲིད་འཛིན་མཆོག་	-10.9514
མཆིས་ནས་	-10.9515
ལྡུམ་ར་	-10.9515
▁ཁང་པ་བརྩེགས་པ་	-10.9516
སྟོང་གསུམ་	-10.9517
ཡིན་ནོ་སྙམ་ནས་	-10.9517
ཡུག་	-10.9517
གོ་སྐབས་འདྲ་མཉམ་	-10.9518
དམངས་	-10.952
བོར་བ་	-10.9521
ཆོ་ག	-10.9522
པར་བྱ་བ་དང་་	-10.9522
པར་བྱེད་པའོ་་	-10.9523
འགྲོས་	-10.9524
སྐྲག་པ	-10.9525
མི་འདྲ་བའི་	-10.9527
ནད་མནར་	-10.9527
ལས་ཀྱིས་	-10.9531
རྣམ་པར་རྟོག་	-10.9531
མདོར་ན་	-10.9533
ཐབས་མཁས་	-10.9535
གཉིས་ཀར་	-10.9537
འཕྲོད་བསྟེན་གྱི་	-10.9538
▁ཅི་ནས་	-10.9538
ཏིལ་	-10.9538
རྣམ་གཞག་	-10.9542
བདུག་པ་དང་་སྤོས་	-10.9542
ཚོགས་གཙོས་	-10.9542
འབྱོར་སྐབས་	-10.9543
གནང་བཞིན་པའི་	-10.9544
ཚོགས་པར་	-10.9544
གཏན་དུ་	-10.9545
སྡེ་ཚན་ཁག་	-10.9546
འཛིན་དུ་བཅུག་	-10.9547
་དང་་ཀུན་ཆུབ་པར་	-10.9549
གོ་བསྡུར་གནང་	-10.9549
ཁྲིམས་འཆར་གསར་པ་	-10.9549
མཁྲེགས་	-10.955
རྒྱུན་ཆད་	-10.955
མགྲིན་ཚབ་པ་	-10.9551
ནང་སྲིད་དྲུང་ཆེ	-10.9553
འཚེ་བ་མེད་པ་དང་	-10.9553
མིག་ནི་	-10.9553
དང་་ཆུ་	-10.9554
མ་ཐུབ་པའི་	-10.9557
བཀོད་ནས་	-10.9559
ར་སངས་རྒྱས་པ་	-10.9561
འཁོར་བ་འཇིག་	-10.9561
ན་རྒྱལ་པོ་	-10.9562
སྤོང་བ་དང་་	-10.9562
མཐོ	-10.9567
མྱངས་དང་མྱོང་	-10.9567
ཏྲ	-10.957
ཚུལ	-10.9571
ཅེས་པའི་	-10.9572
འཛམ་གླིང་གང་སར་	-10.9572
འི་དོན་དུ་	-10.9574
▁ཀྱེ་མི་	-10.9576
སྲོག་ཆགས་བྱེ་བ་	-10.9578
འདི་ཁོ་ན་	-10.9579
རྗེས་སུ་ཆགས་པ	-10.9579
ལྷགས་པ་	-10.9581
དཔས་བྱིན་	-10.9582
▁དེའི་སྐབས་	-10.9582
བསོད་ནམས་མ་ཡིན་པ	-10.9584
ནི་འཛམ་གླིང་ནང་	-10.9585
ཆགས་ཡོད་པ་	-10.9585
ཞོ	-10.9589
ཞུ་དགོས་པའི་	-10.9589
ལ་རྒྱབ་སྐྱོར་དང་	-10.9591
ཁུལ་ནས་	-10.9593
ཕྱོགས་བསྐྱོད་	-10.9593
ཆུར་	-10.9594
མི་མང་རྣམས་	-10.9594
གླིང་ཆེན་	-10.9596
སྙིང་རྗེ	-10.9597
ཁོག་	-10.9598
ནས་མི་སྣང་བར་	-10.96
དཀ	-10.96
ཐོན	-10.9601
ཉུང་ངུ་	-10.9602
ལ་བཟོད་པ་ཐོབ་པ	-10.9602
མཛའ་བཤེས་	-10.9603
སྙིང་སྟོབས་དང་	-10.9603
འོང་བ	-10.9605
མ་ཡིན་ལ་	-10.9605
ཨ་རིའི་གཞུང་	-10.9605
▁སུད་སི	-10.9606
མངའ་ཁོངས་	-10.9608
ནི་འཇིག་རྟེན་	-10.9609
▁ཕ་རན་སི	-10.9611
ཕྱི་དངོས་པོ་	-10.9611
བོད་དང་བོད་མིའི་	-10.9614
བཤད་ལུང་	-10.9616
ཕྱག་རྟགས་ཕུལ་	-10.9617
བྱང་ཆུབ་ཀྱི་ས	-10.9618
རྣམ་པར་དག་པ་དང་་	-10.9619
ལ་དད་པ་	-10.9621
རྒྱལ་གཅེས་	-10.9621
སྟོན་ལ་	-10.9623
མི་ཕོད་	-10.9625
འོས་འདེམས་བྱུང་བ	-10.9625
ཆེན་པོ་མཆོག་སྐུ་	-10.9626
▁ལྷག་པར་ཕྱི་ལོ་	-10.9626
མེའི་ཕུང་པོ་	-10.9628
སྲིང་	-10.9629
བསམ་གཏན་བཞི་པ	-10.9632
འཆམ་	-10.9638
གཞན་དང་	-10.9641
རྒན་ཞུགས་	-10.9641
རྒལ་	-10.9641
གནང་སྐྱོང་ཡོང་བ	-10.9642
པར་བགྱི་་	-10.9643
▁ལག་པ་	-10.9645
བསམས་ཏེ་	-10.9645
སྔར་བས་	-10.9648
སྟེང་གི་བར་སྣང་ལ	-10.9649
མཐུ་ཆེ་བ་	-10.9651
གསར་རྒྱག་	-10.9654
ནམ་མཁའ་ལྡིང་	-10.9655
དོན་གྲུབ་ལགས	-10.9656
བསྟན་པར་བྱ་	-10.9656
རྩོམ་པ་དང་་	-10.9658
མཇལ་དར་སྒྲོན་	-10.966
རྟེན་གཞི་	-10.9661
འབོད་སྐུལ་ཡང་	-10.9662
པ་དང་བཀུར་སྟི་ལ་	-10.9662
ར་གྱུར་ཅིག་	-10.9663
དངོས་པོའི་	-10.9663
དང་བྲལ་བ་དང་་	-10.9666
▁དེའི་ཚེ་ན་	-10.9669
རྒྱལ་པོ་སྡོང་པོ་	-10.9669
ཟེར	-10.9672
དགོས་འདུན་	-10.9673
ལྔ་གང་ཞེ་ན་	-10.9673
འབབ་པ	-10.9673
དུར་ཁྲོད་	-10.9674
འགྲོ་རྒྱུའི་	-10.9675
བསྲུང་བར་	-10.9675
ཟད་དོ་་	-10.9675
▁ཁ	-10.9679
གློ་བུར་	-10.9679
དྲུང་ཆེ་དང་	-10.968
འཕྲུལ་དབང་བྱེད་	-10.968
ཅན་དུ་གྱུར་	-10.968
པའི་སྲིད་བྱུས་	-10.9682
ལྷོད་	-10.9684
པ་འདི་ནི་	-10.9684
འདི་ལ་ནི་	-10.9684
ཧོང་ཀོང་གི་	-10.9686
▁དུས་མ་ཡིན་པར་	-10.9687
དགའ་བོ་	-10.9691
མི་མང་པོ་ཞིག་	-10.9692
ཟླ་འོད་གཞོན་ནུ	-10.9692
སེལ་ཐབས་	-10.9692
ནང་བོད་མིའི་	-10.9692
ར་གནས་པའི་བར་དེ་	-10.9693
ཡི་གེར་བྲིས་	-10.9693
མདུན་ཐང་དུ་	-10.9693
རྙེད་མི་དཀའ་་	-10.9693
གསེར་དང་་དངུལ་	-10.9693
སྦན་ད་ར་	-10.9693
ཤས་ཆེར་	-10.9694
གཞིས་སྒར་	-10.9694
གླང་པོའི་	-10.9694
སྐུ་གསུང་ཐུགས་	-10.9695
བླ་བྲང་འཕགས་པ་	-10.9695
གཟུངས་ཀྱི་སྒོ་	-10.9696
མ་ཞི་བ	-10.9696
ཡུལ་གྲུ་ཁག་	-10.9696
ཟང་ཟིང་མེད་པའི་	-10.9698
ཡོད་སྐོར་སོགས་	-10.9698
ནད་ཡམས་ཁྱབ་གདལ་	-10.9698
ཐེར་འབུམ་	-10.9699
དཀའོ་་	-10.9699
པར་མི་བྱ་	-10.97
དྲི་ཟའི་རྒྱལ་པོ་	-10.97
▁སྒྲ་	-10.9701
ཐུགས་བརྩོན་	-10.9701
ཀྱིས་མཐོང་ན་དགའ་	-10.9702
རིང་པོར་	-10.9702
འཁོར་ལོ་བསྐོར་བ	-10.9703
འི་གཏམ་	-10.9704
བརྒྱད་ཁྲི་	-10.9704
འདུག་སྤྱོད་གསུམ་	-10.9705
ངག་གིས་	-10.9708
བསྐྱེད་དོ་	-10.9708
ཆོས་སུ་	-10.9708
སེམས་ཅན་གང་	-10.9709
འཛིན་པར་བྱེད་	-10.971
དང་་ཡུལ་འཁོར་དང་	-10.971
▁དུད་འགྲོ་	-10.971
སྣོད་དུ་	-10.971
འགྲོ་འོང་	-10.971
འགྲོ་ལུགས་	-10.9711
རྒྱལ་ཁབ་གཅིག་	-10.9712
བར་བྱེད་པ་	-10.9714
▁ཚེ་དང་ལྡན་པ་དག་	-10.9714
གསལ་འདོན་	-10.9717
ཁས་བླངས་	-10.9719
འི་འདུ་ཤེས་དང་་	-10.9719
མི་དང་མི་མ་ཡིན་པ	-10.9719
ལྟ་བར་གནས་པ་ནས་	-10.9721
གནས་སྡོད་བོད་མི་	-10.9722
འགྲོ་བཞིན་པ་	-10.9723
སྲན་	-10.9726
རྣམ་རྒྱལ་གྲྭ་ཚང་	-10.9727
ལམ	-10.9727
མ་ཡིན་ཏེ་་	-10.9728
རྩོམ་པ་པོ་	-10.9729
བརྩིས་ནས་	-10.973
རྒྱུ་ཡིན་སྟབས	-10.9731
ས་བརྒྱན་པ་	-10.9735
འདུལ་བར་	-10.9735
འགྱུར་ཞིང་་་	-10.9736
པ་ནས་བཟུང་	-10.9736
རྫོགས་པ་	-10.9737
ས་ཡང་	-10.9738
་ཞིག་བྱུང་སྟེ་	-10.9739
ཨ་མ	-10.9743
གནས	-10.9745
སྟེང་ནས་	-10.9748
བཅས་ཁྱོན་	-10.9749
སྣང་བར་གྱུར་	-10.9751
ས་གནས་སོ་སོར་	-10.9753
གྱུར་ཏེ	-10.9753
ལ་ཡང་མི་	-10.9755
ཐེ་བྱུས་	-10.9755
བརྗོད་ན་	-10.9755
ྱོ	-10.9756
▁དེའི་ཐོག་ནས་	-10.9758
▁དེ་བཞིན་ཕྱི་ལོ་	-10.9759
་ཁི	-10.976
བཞིན་པ་རེད	-10.9762
གཅིག་པུར་	-10.9762
རྒྱལ་དར་	-10.9762
ཕོ་ཉ	-10.9766
དོན་ལ་	-10.977
གསུམ	-10.9771
ང་རང་ཚོ་	-10.9771
བཀའ་ཤག་སྐབས་	-10.9771
ཆོས་ཀྱི་གཏམ་	-10.9773
ངོར་	-10.9774
སྒོ་བརྒྱབ་	-10.9776
ལ་བརྩོན་པ	-10.9781
དུས་ན་	-10.9781
བལྟ་བའི་ཕྱིར་	-10.9783
མདོ་སྔགས་	-10.9784
དཔེ་ཟུར་དབང་འདུ	-10.9784
དང་་ཚུལ་ཁྲིམས་	-10.9785
མོས་པའི་	-10.9786
གང་ཡང་མེད་དོ་་	-10.9786
རྟེན་འབྲེལ་མཚོན་	-10.9788
ཡལ་ག་	-10.9788
བཀུར་བ	-10.979
བསྟན་པ་འཛིན་	-10.979
ཡར་རྒྱས་དང་	-10.9792
▁འདུན་པ་	-10.9795
ཞེ་ན་འདི་ལྟར་	-10.9801
▁འོ་ན་	-10.9803
སྐུ་བརྙན་	-10.9804
བློས་	-10.9805
ཟ་བ་	-10.9805
མི་འམ་ཅི་	-10.9808
བལྟ་བ་དང་་	-10.9811
རབ་ཏུ་ཤེས་ཏེ་	-10.9811
ཚང་མའི་ནང་	-10.9812
▁དེ་ཡང་ཕྱི་ཚེས་	-10.9813
མི་འཇུག་	-10.9813
མཁྱེན་པའི་	-10.9814
རང་བྱང་ཆུབ་	-10.9814
དཀའ་རྙོག་སེལ་ཐབས	-10.9817
ཇི་སྙེད་པ་་	-10.9817
ལ་སློབ་སྦྱོང་	-10.9817
▁རྒྱལ་པོས་	-10.9817
གནང་དགོས་རྒྱུ་	-10.9819
པའི་སྨོན་འདུན་	-10.9819
ཁོང་ཁྲོ་བ	-10.9822
▁མིའམ་ཅིའི་	-10.9823
ལྔ་པ	-10.9824
ཚངས་པར་སྤྱད་པ་	-10.9825
ཉིས་བརྒྱ་	-10.9826
སྐྱིད་སྡུག་	-10.9826
མིང་འདི་ཞེས་བ	-10.9827
འི་ལས་འགུལ་	-10.9828
འདི་ལྟ་བུ་དག་	-10.9828
སྒྲོགས་པ་	-10.9829
གཉིས་ནི་	-10.9829
ཐུབ་རྒྱུར་	-10.9832
རྗེས་སུ་ཡི་རང་བ	-10.9832
དང་སྟབས་བསྟུན་	-10.9833
བྱེད་པར་འགྱུར་	-10.9834
དུ་མ་དག་	-10.9839
དེ་འདྲར་	-10.9842
ཏང་	-10.9842
▁ཕྱིན་ནས་	-10.9842
སྐུ་ཚབ་འཐུས་མི་	-10.9843
གང་ཡོད་པ་	-10.9843
གསལ་འདོན་གནང་	-10.9845
▁སྤྱིར་བཏང་	-10.9845
དག་མཐོང་ན་	-10.9847
ལ་ཡོད་པའི་	-10.9851
▁རྒྱ་	-10.9855
ཆོས་ལུགས་ཕན་ཚུན་	-10.9856
ཀྱི་ཡོད་པ་དང་	-10.9856
བྱིན་པས་	-10.9857
རྒྱལ་བུ་	-10.9858
དགྲ་བཅོམ་པ	-10.9858
ཕེ	-10.9859
ནས་ཕྱུང་སྟེ་	-10.9861
ངན་འགྲོ་	-10.9862
སོང་བ་དང་	-10.9862
པའི་སྐབས་སུ་	-10.9863
མཛད་རྣམ་	-10.9863
རྣམ་པར་གཞག་པ་	-10.9865
▁སོག་པོ	-10.9865
དང་་མྱ་ངན་དང་་	-10.9867
ཆོས་བཤད་	-10.9868
་བོད་རིགས་སྤྱི་	-10.9868
བླངས་སོ་་	-10.9868
་ཏིང་འཛིན་	-10.9871
བ་ཡིན་	-10.9871
མ་ལགས་སོ་	-10.9871
རྔ་པ་	-10.9872
དགོས་ཀྱི་ཡོད་པ	-10.9874
སྤེལ	-10.9874
གོང་སྤེལ་གཏོང་	-10.9875
དགོས་མཁོ་ཡོད་པ	-10.9877
གཟིགས་འབུལ་ཞུས	-10.9878
བྱུང་ངོ་་	-10.9879
འདུག་གམ	-10.9881
སྲུ	-10.9882
རྣམ་པར་བསྒྲགས་པ	-10.9883
ཁོང་ཚོའི་	-10.9884
སྐབས་འདིར	-10.9884
གྲགས་པའི་	-10.9884
སློབ་སྦྱོང་གནང་	-10.9884
གཏོར་བཤིག་	-10.989
གཞན་མུ་སྟེགས་ཅན་	-10.9891
དེ་ལྟ་ན་	-10.9891
དྲགས་	-10.9892
དགེ་བཤེས་མ་	-10.9892
ཉམས་པ་སླར་གསོ་	-10.9892
འཚལ་ཏེ་	-10.9892
དགེ་ལས་	-10.9897
དེ་སྐད་ཅེས་སྨྲས་	-10.9897
བར་སྣང་ལས་	-10.9898
▁ཕྱི་ལོ་བཟུང་	-10.9898
ལས་འདས་	-10.9898
སེམས་ཁུར་	-10.9898
ཕྱུགས་	-10.9898
དང་་བཟོད་པ་དང་་	-10.9899
པ་སྟེ་་	-10.9899
རྒྱལ་ཁབ་ཅིག་	-10.9901
བཞད་	-10.9904
འདི་དག་སྨྲས་སོ་་	-10.9905
ཕུལ་ནས་	-10.9906
གཤིས་	-10.9906
་ཕག་	-10.9908
བཅའ་བ	-10.9908
▁མཐའ་དོན	-10.9908
གི་གསུང་རབ་ལ་	-10.9909
མུན་པ་མུན་ནག་	-10.9909
རྒྱུ་ཡིན་སྐོར་	-10.9909
བྱ་དགོས	-10.9911
ཞུ་སྐབས་	-10.9913
དེ་ཡིན	-10.9913
པོ་འདི་དག་	-10.9913
སེམས་ཅན་དག་པ་	-10.9914
བཅུ་བཞི་པ་	-10.9915
ནང་བསྟན་	-10.9916
་མཁས་པ་	-10.9916
དབུས་བོད་མིའི་	-10.9917
རྡུལ་མེད་	-10.9918
ཆགས་བསྡད་ཡོད	-10.9918
བྱའོ་སྙམ་ནས་	-10.992
སོན་པའི་	-10.9925
དང་ལྡན་པ་ཡིན་ཏེ་	-10.9927
སློབ་གཉེར་བྱེད་	-10.9927
ཕྱི་དྲོ་ཆུ་ཚོད	-10.9928
ཆིངས་ཡིག་	-10.9928
ཀུན་རྫོབ་	-10.993
གདན་འདྲེན་ཞུ་	-10.993
སྤྲས་པ་	-10.9932
མང	-10.9932
བདེ་ཐང་	-10.9935
▁སྙམ་ནས་	-10.9936
ཤུགས་ཆེ་གནང་ཡོད	-10.9937
གཞ	-10.9938
དཔལ་མགོན་	-10.9938
སྡེ	-10.9942
དྲན་སྐུལ་	-10.9942
སྙན་སྒྲོན་	-10.9943
བཙས་པ་	-10.9948
་གང་གིས་	-10.9948
སྤུན་མཆེད་	-10.9949
ཨོ་སི་ཀྲི་ལི་ཡ་	-10.9952
ཕ་མ	-10.9953
ཚེས་གཟའ་ཟླ་བ	-10.9953
ཤེས་པ་ཡོངས་སུ་	-10.9954
ཆོས་ཀྱི་རྒྱལ་པོ་	-10.9956
ི་ཧ	-10.9958
ཀྱི་ཚབ་ཞུས་ཏེ	-10.996
མ་དགོན་	-10.9961
བཞག་ན་	-10.9962
སྤྱད་པ་སྤྱོད་	-10.9962
▁ཡབ་	-10.9963
གཙ	-10.9963
འི་སྒོ་	-10.9964
མི་ཤེས་ཏེ་	-10.9964
གྲིབ་	-10.9965
ི་ལི་	-10.9967
སྤངས་ཤིང་	-10.9967
ཁྲིམས་ཞིབ་པ་	-10.9967
ཆོས་བསྟན་	-10.9968
▁དང་པོ་	-10.9968
འི་སྡེ་དང་་	-10.9969
གཉིས་པའོ་་	-10.9969
རིམ་གྲོ་བྱས་	-10.9969
འཆག་	-10.9969
བསྟ	-10.9971
ཐོས་ཏེ་	-10.9972
དེའི་ལུས་ལ་	-10.9977
བུ་དང་	-10.9978
སྡེའི་	-10.998
མྱོང་ཚོར་	-10.9981
པ་ཙམ་གྱིས་	-10.9981
སྦྱོར་བས་	-10.9982
མངོན་པར་སྒྲུབ་པ་	-10.9982
གཅིག་ནི	-10.9982
་མཛད་པ་མཉམ་པ་དང་	-10.9983
ན་སངས་རྒྱས་	-10.9983
གཏོར་མ་	-10.9983
ཞུགས་པའི་	-10.9984
དོན་ཚན་བཅུ་བདུན་	-10.9985
དུད་ཚང་	-10.9986
དང་བཅས་པས་	-10.9986
བགྲོད་པ་གཅིག་པ	-10.9986
དགའ་དད་སྤྲོ་	-10.9987
ཕུགས་རྒྱང་རིང་པོ	-10.9987
སོག	-10.9987
ལོ་རེ་བཞིན་	-10.9987
དེ་ཆགས་ཡོད	-10.9987
ཅེཀ་	-10.9988
ལྗོངས་རྒྱུ་ཞིང་	-10.9988
རབ་ཏུ་ཞི་བར་	-10.9988
རབ་ཏུ་གཡོས་	-10.9988
ཁྲོ་བོ་གཏུམ་པོ	-10.9988
ཡན་ཆད་	-10.9989
འབྲིང་རིམ་	-10.9989
བསྒྱུར་བཀོད་ཁང་	-10.9989
རོགས་གནང་ཞེས་	-10.9989
་མེད་པར་གྲགས་པས་	-10.9992
རྒྱལ་བུ་གཞོན་ནུ་	-10.9992
ལྷའི་ནང་དུ་	-10.9994
དགོན་སྡེ་ཁག་ཏུ་	-10.9995
བྱས་དང་བྱེད་མུས་	-10.9995
སོ་སོར་རྟོག་སྟེ་	-10.9995
སྣང་གསལ་ཞལ་ཕྱེ་	-10.9997
▁གཞན་དུ་ན་	-10.9998
▁ཆོས་ལ་	-10.9999
དེ་རིགས་	-11
ལན་བདུན་	-11.0001
བསོད་ནམས་ཆེན་པོ་	-11.0002
བྱེད་དགོས་རྒྱུ་	-11.0004
འི་ཕུང་པོ་	-11.0004
▁རྒྱ་ནག་ནང་	-11.0005
དུམ་བུ་	-11.0005
ཊེ	-11.0006
ཁོང་རྣམ་པའི་	-11.0007
ང་ཚོའི་ངོས་ནས་	-11.0008
བྱེད་རྒྱུར་	-11.0008
གཏན་ཉིན་སློབ་གྲྭ	-11.0008
ཡུ་གུར་མི་རིགས་	-11.0009
ཅན་དུ་འགྱུར་རོ་་	-11.0009
མཚན་ཉིད་གཅིག་	-11.0009
གསུམ་པའོ་་	-11.0009
▁ཁྱོད་ལ་	-11.0012
ལྷན་ཅིག་གནས་པ	-11.0012
▁ཆོས་སྨྲ་བ་	-11.0012
མེ་སྐྱོན་	-11.0013
▁རྒྱུན་དུ་ཞུགས་པ	-11.0013
བླ་གོས་	-11.0014
བགྱིད་་	-11.0015
ཟང་ཟིང་གི་	-11.0017
ཡ་རབས་བཟང་སྤྱོད་	-11.0018
དགེ་རྒན་རྣམ་པས་	-11.0018
དེང་གི་	-11.002
ཡིད་གཟབ་	-11.002
གསོལ་ཏེ་	-11.002
ལ་རྣམ་པར་སྨིན་པ	-11.002
དྲོད་	-11.0021
བསྒྲིགས་	-11.0021
དོན་དེ་	-11.0022
▁འཇིག་རྟེན་མགོན་	-11.0022
བྱས་པ་བརྒྱུད་	-11.0023
མགོ་སྐོར་	-11.0023
ི་སྤྱོད་པ་གང་	-11.0024
གསོལ་ནས་	-11.0024
རིགས་པས་	-11.0025
ཆོས་ཀྱང་སྟོན་ཏོ་	-11.0025
སྲུང་སྐྱོབ་བྱེད་	-11.0025
མངོན་སུམ་དུ་བྱ་བ	-11.0026
▁ཡིད་	-11.0026
ཇེ་མང་དུ་འགྲོ་	-11.0026
བོད་ཟླ་	-11.0027
བོད་གངས་ཅན་	-11.0027
བོད་མི་ཞིག་	-11.0027
གྱི་བླ་སྤྲུལ་	-11.0028
རྣམ་ཐོས་ཀྱི་བུའ	-11.003
▁ཕྱག་འཚལ་	-11.0031
ལ་ཕན་པའི་ཕྱིར་	-11.0031
ཁང་ནས་བཏང་གན	-11.0031
སྐྱེད་པར་བྱེད་	-11.0032
འདུགདེ་བཞིན་	-11.0032
འི་རྩ་བ་	-11.0032
སྐྱོང་ཡོང་བའི་	-11.0034
བརྗོད་པར་བྱ་སྟེ་	-11.0036
སྙིང་པོའོ་	-11.0036
ེ་བ་ལ་བཙུད་པ་ནི་	-11.0036
དང་བཅས	-11.0036
ར་བྱས་ནས་བད	-11.0037
སྒྲོམ་གཞི་	-11.004
སྙན་ཞུ་	-11.004
དབུ་བརྙེས་	-11.0043
གཅིག་པ་རེད	-11.0043
དམིགས་པའི་	-11.0044
སྐོམ་པ་	-11.0045
མ་འདྲེས་པའི་	-11.0045
འི་སྤྱོད་ཡུལ་	-11.0045
ཚགས་	-11.0051
འཇིག་རྟེན་ལོང་བ	-11.0051
དེ་བཞིན་ཕྱི་ལོ་	-11.0051
ཆེན་པོ་མཆོག་བོད་	-11.0052
▁རྒྱལ་ཚོགས་ཀྱི་	-11.0052
ཤཀྱའི་	-11.0053
རྨང་གཞི་	-11.0054
མནར་	-11.0055
ཡར་རྒྱས་འགྲོ་	-11.0055
རྐང་གཉིས་	-11.0055
ཕྱུག་ལ་དབང་བྱེད་	-11.0056
ལས་བྱས་པ་	-11.0057
གྱི་སྒོ་ནས་	-11.0057
ཀྱི་མ་རེད	-11.0059
ཡོངས་སུ་རྟོག་པ་	-11.006
▁ཆོས་གང་	-11.006
མངོན་པར་འཕགས་པ་	-11.0062
གཞུང་འབྲེལ་མི་སྣ	-11.0065
རྙེད་ན་	-11.0065
ཕྱག་ལས་གནང་མཁན་	-11.0065
བྱས་པ་དང་་	-11.0069
ཡལ་བར་	-11.0069
ཡིན་པར་ངོས་འཛིན་	-11.0069
བདུག་པ་	-11.0071
སློབ་མ་རྣམས་	-11.0072
སྣང་སྟེ་	-11.0072
ཤར་བ་	-11.0072
རིམས་ཀྱི་རྐྱེན་	-11.0072
ཡུལ་གྲུ་ཁག་གི་	-11.0072
ཕྲོགས་	-11.0073
འབྲེལ་བའི་སྐོར་	-11.0074
ཚོགས་ཡོད	-11.0075
འགོ་བཙུགས་པ་	-11.0076
མདོ་རྫོགས་སོ་་་	-11.0077
▁ཕྱི་ལོ་ནས་	-11.0078
ཇེ་སྡུག་ཏུ་འགྲོ་	-11.0078
སྤྱན་གྱིས་	-11.0079
རུང་བ་	-11.0081
ཐོག་ལའང་	-11.0082
པར་བྱེད་ཅིང་	-11.0082
ལས་བརྩམས་ཏེ་	-11.0083
ཐག་བཅད་	-11.0083
ཆོས་ཡོངས་སུ་ཚོལ་	-11.0088
བསྡད་པ་རེད	-11.0089
བོད་ཆོལ་ཁ་གསུམ་	-11.0089
ཟོང་	-11.009
བསད་པ་	-11.009
རྣ་བ	-11.0091
སུན་གཙེར་	-11.0092
རྗེད་	-11.0095
སྐོར་གསུང་བཤད་	-11.0098
རྒྱན་ཐམས་ཅད་	-11.0098
ནི་སངས་རྒྱས་ཀྱི་	-11.01
འགགས་པས་	-11.0101
ཁུ་བ་	-11.0102
མེ་ཏོག་གིས་	-11.0104
ེའི་རྣམ་པར་	-11.0104
ངེས་པའི་ཚིག་	-11.0105
མཆོད་པ་དང་་	-11.0106
གཏན་ནས་	-11.0107
གོ་སྒྲིག་གནང་བ	-11.0107
ཆུ་སྐྱ	-11.0108
▁གང་དུ་	-11.0109
སི་ཊ	-11.011
ཞེས་བྱ་བའམ་མི་	-11.0111
མ་གཏོགས	-11.0111
ཡོང་གི་ཡོད་པ་	-11.0112
པར་ཐུགས་རྗེ་ཆེ་	-11.0113
ལ་དགའ་	-11.0114
ལས་གཞིར་	-11.0117
ཉིས་སྟོང་	-11.0119
ཤེས་པ་སྟེ་	-11.0121
སླེ	-11.0121
དགའ་བ	-11.0121
ཀླུ་ཡི་	-11.0122
རྗོད་ཀྱི་ཡོད	-11.0125
བཙུགས་པའི་	-11.0125
སྔ་དྲོ་ཆུ་ཚོད་ལ་	-11.0126
སྤོང་ཞིང་	-11.0127
ལྟེ་གནས་	-11.0129
ཁྲོ་བའི་	-11.013
བརྒྱད་སྟོང་	-11.013
མེད་ཅེས་	-11.0132
གྱི་རྣམ་པ་	-11.0133
དོན་དང་	-11.0133
ཞིག་གནས་པ་དེས་	-11.0135
མཐུན་འགྱུར་འོག་	-11.0135
སློབ་སྦྱོང་གི་	-11.0135
བོད་དོན་ཞུ་གཏུག་	-11.0138
འཕེལ་རྒྱས་	-11.0138
རྣམ་ཤེས་	-11.0138
མི་ལེན་	-11.0139
བདུད་ཐམས་ཅད་	-11.014
གནས་སྟངས་ཇི་ཡིན་	-11.014
བསྐོར་བ་བྱས་ནས་	-11.014
་ཛ	-11.0141
གཅོད་པ་	-11.0142
ཡོངས་སུ་ཤེས་པ་	-11.0144
གནའ་རབས་	-11.0144
ར་མཛད་	-11.0144
ཡང་རབ་ཏུ་ཤེས་	-11.0146
སྙམ་དུ་དགོངས་ནས་	-11.0147
བོད་དོན་ལ་	-11.0147
དྲང་བདེན་དང་	-11.0149
དེ་ལྟ་བས་ན་བ	-11.0152
བརྗོད་དེ་	-11.0152
མ་རུངས་	-11.0154
སྒྲོ	-11.0155
པར་མི་ནུས་	-11.0155
བྱས་ལ་	-11.0157
ཞུ་དགོས་པ	-11.0157
གཟིར་བ	-11.0157
རྗེས་སུ་བལྟ་བ	-11.0159
▁ཡུན་རིང་པོ་ནས་	-11.0159
ཚད་མེད་པ་བཞི་	-11.016
དགེ་སློང་གིས་	-11.0161
ངེས	-11.0161
ཝི་ཏི་ནམ་	-11.0162
ལ་མི་གནས་	-11.0162
གཟུངས་སྔགས་	-11.0163
བཀང་	-11.0163
བུ་མོ་དེ་	-11.0164
འི་བུ་	-11.0164
ཐད་ཀར་འབྲེལ་བ་	-11.0164
བསྒོམས་པ་	-11.0165
ཀུན་ནས་ལྡང་བ་	-11.0165
སློབ་ཕྲུག	-11.0167
རྒྱུའི་འཆར་གཞི་	-11.0168
ས་གསོལ་པ་	-11.0169
སོ་སྙམ་ནས་	-11.017
དང་འཐུན་པ་	-11.017
འགྲོ་བཞིན་ཡོད་པ་	-11.0176
ཉི	-11.0176
སྐྲག་ཅིང་	-11.0176
གཞན་དག་གིས་	-11.0176
▁གཞིས་ཆགས་	-11.0178
ཚད་མ་རིག་པ་དང་	-11.0179
་ཞེས་བྱ་བ	-11.018
▁ཚོགས་ཆེན་	-11.018
བསོད་ནམས་བསྟན་	-11.0182
བསམ་གཏན་བཞི་དང་	-11.0189
གདུལ་བྱ་	-11.0193
འདོད་པ་དག་	-11.0193
འགོག་རྐྱེན་	-11.0194
རྣམ་པར་འདྲེན་པ་	-11.0194
ཆོས་གང་	-11.0195
པར་འགྱུར་ཞིང་་	-11.0196
སྣེ་འཁྲིད་	-11.0196
▁ཞེ་སྡང་	-11.0197
མགོ་ལ་	-11.0197
སྐྱོར་	-11.0198
▁དེར་བརྟེན	-11.0199
ངོན་པར་བརྩོན་པར་	-11.02
ཚགས་ཚུད་པོ་	-11.02
ལྟ་ཅི་སྨོས་ཏེ་	-11.0202
མིའི་རྣམ་དཔྱོད་	-11.0202
ཆོས་གྲོགས་	-11.0202
ཆོས་སྟོན་པ	-11.0206
མི་ཡིས་	-11.0208
བགྲོ་གླེང་གི་	-11.0209
བོད་མི་ཡོངས་	-11.0209
▁དུས་ཚོད་	-11.0211
གཡུ	-11.0213
སྐྱེ་བོ་མང་པོས་	-11.0217
ཁང་དང་	-11.0218
སྨོན་ལམ་འདེབས་	-11.0218
འདི་འདྲ་བ་	-11.0222
གསུངས་སོ་་	-11.0222
ཁྱོན་ཡོངས་ཀྱི་	-11.0223
བོད་མི་ཡོངས་ལ་	-11.0226
ལས་འཕགས་པ	-11.0226
་ཐ	-11.0227
ག་ལས་	-11.0228
གཙོ་ཆེ་ཤོས་	-11.0229
དཀའ་རྙོག་	-11.0232
ཚོགས་གཙོ་ལ	-11.0233
བསྐོ་ལྷན་ཁང་གི་	-11.0235
མེ་ལོང་	-11.0236
ནེ་རུ་	-11.0238
མཆིས་ན་	-11.024
ྱུག་པ་དང་་ཕྱེ་མ་	-11.024
བར་སྐབས་	-11.0241
མངོན་པར་རྟོགས་པ་	-11.0241
བརྟག་དཔྱད་བྱས་	-11.0242
ཁེ	-11.0243
དགུ་པ་	-11.0244
འབྲེལ་མ་ཡིན་པའི་	-11.0245
ཡོད་སྐོར	-11.0251
འདྲེན་པའི་	-11.0251
དར་བའི་	-11.0254
▁དགེ་སྦྱོང་	-11.0255
ནགས་ཁུང་	-11.0255
ཁ་ཅིག་གིས་ནི་	-11.0255
་པད་མའི་དཔལ་གྱི	-11.0256
འདུག་པ་དང་་	-11.0257
ཆོས་ཐམས་ཅད་ཀྱང་	-11.0257
ཁྲོ	-11.0258
དམིགས་པ་ཅན་	-11.0258
བཤད་ཀྱི་འདུག	-11.0258
དཔར་	-11.0258
མ་འདྲ་བ་	-11.0258
ཟེར་གྱི་ཡོད	-11.0262
གཉིས་རིང་	-11.0264
▁བགྲོ་གླེང་	-11.0266
་ཛི་	-11.0266
ནི་རྟག་ཏུ་	-11.0268
བཅུག་སྟེ་	-11.0269
སུད་ཚོང་	-11.0269
གྱི་ལས་གཞི་	-11.027
རྒྱལ་བསྟན་ཡོངས་	-11.0272
འི་གསར་འགོད་	-11.0273
མི་གྲངས	-11.0274
▁ཚུལ་ཁྲིམས་ཀྱི་	-11.0274
ད་ཞིའི་གཙུག་རྒྱན	-11.0275
རྒྱལ་མཆོག་	-11.0276
སྤངས་པས་	-11.0278
བྲལ་བའི་	-11.0279
རྒྱལ་ཁའི་ངང་གྲོལ	-11.0279
▁བདག་ཅག་གཉིས་	-11.028
▁དེ་འདྲ་	-11.0282
བསྐྱབ་པ	-11.0282
མང་བ	-11.0283
ལ་ཇི་ལྟར་མ	-11.0283
ཐལ་བ	-11.0283
་རགས་	-11.0284
▁སློབ་གྲྭ་	-11.0285
དེ་གའི་	-11.0285
ཁག་ནང་	-11.0286
ེ་ཝི་	-11.0286
▁ཕ་མ་	-11.0287
ལྗང་	-11.029
རིས་སུ་མ་ཆད་པའི་	-11.029
རྔ་རོལ་དང་བཅས་	-11.029
བསམ་པ་གཅིག་མཐུན་	-11.029
སྦྲ་གཉིས་ཚེ་རྒྱལ	-11.029
སྡིངས་ཆའི་སྟེང་	-11.029
གསོལ་ཇ་འབྲས་སིལ་	-11.029
སེམས་དང་སྲོག་གི་	-11.029
མུན་པ	-11.029
གཤེགས་སུ་གསོལ་	-11.029
བླ་མེད་དུ་ཆེ་	-11.0291
ལྷུང་བཟེད་བསྣམས་	-11.0291
་རྟག་པར་རྗེས་སུ་	-11.0291
ཡ་ལ	-11.0291
▁ཀྱེ་ཀྱེ་	-11.0291
ནད་རྟགས་ཡོད་མེད་	-11.0291
ཡོད་ཅེས་བྱ་བའམ་	-11.0291
རྒན་རབས་	-11.0292
ུས་འཁོར་དབང་ཆེན་	-11.0292
སྒྲོགས་སྦྱང་ཞུས་	-11.0292
ཡོད་པའི་སྐོར་	-11.0293
བརྒྱ་ཕྲག་སྟོང་	-11.0293
བོད་དོན་ཞུ་སྐུལ་	-11.0294
ནམ་མཁའ་དང་མཚུངས་	-11.0294
ཚུལ་ཁྲིམས་སྲུང་བ	-11.0294
་འདྲེན་པ་	-11.0296
འདོན་གནང་མཛད་	-11.0296
ས་གནང་བར་རིག་ནས་	-11.0296
གཏོང་དགོས་པའི་	-11.0297
་ཤུགས་མཉམ་པ་དང་	-11.0299
དེ་དང་དེ་དག་ཏུ་	-11.0299
ལན་གསུམ་དུ་བཟླས་	-11.03
བསུའི་སྣེ་ལེན་	-11.0301
དབྱེ་བ་མེད་པར་	-11.0302
བོད་ས་དབང་སྒྱུར་	-11.0303
ལ་མངོན་པར་ཞེན་པ	-11.0304
གླུ་དང་	-11.0305
▁འདི་དག་	-11.0306
འབུལ་ཞུས	-11.0306
ལས་མངོན་པར་འདུ་	-11.0306
དབྱེ་བ་	-11.0306
བྱས་ཚེ་	-11.0307
གོ་ཆ་བགོས་	-11.0307
རྡོ་རྗེ་གདན་གྱི་	-11.0309
ཀྱི་དངོས་པོ་ལས་	-11.031
▁དེ་དགྲ་བཅོམ་པ	-11.031
སླེབས་པ་	-11.0311
ཀྱི་གནད་དོན་ཐད་	-11.0312
རྒྱལ་སྤྱི་	-11.0313
མི་རྟག་ཅེས་བྱ་བ	-11.0313
ལྷ་དང་	-11.0315
ཆེད་དུ་བརྗོད་པ་	-11.0316
འབྲེལ་ཚོགས་པའི་	-11.0316
མོས་པ་དང་་	-11.0316
གི་ལས་བྱེད་	-11.0318
མན་ངག་	-11.0318
འགྲོ་གི་ཡོད	-11.0318
ས་མཆོག་གིས་	-11.0318
ལ་བརྟེན་ཏེ་	-11.0318
རྣག་	-11.0321
བོད་ཀྱི་བླ་ན་མ	-11.0321
▁ད་ལྟར་	-11.0322
བསམ་ཤེས་	-11.0322
རིག་པ་བཞི་དང་་	-11.0323
སྐུ་ཉིད་ཀྱི་	-11.0323
རྒྱ་དམར་གཞུང་གི	-11.0324
གཞོག་	-11.0324
ཀུན་ཏུ་སྦྱོར་བ་	-11.0325
བཅར་བ་ཡིན	-11.0326
ཐོགས་པ་དང་་	-11.0326
འདོད་པའི་ཕྱིར་	-11.0327
སྟངས་དང་	-11.0328
སྐྱེས་པའམ་	-11.0328
སྐྱེའོ་་	-11.0332
འགོ་འཛུགས་གནང་	-11.0332
ཕྱུག་པོ་	-11.0332
དགེ་སློང་འདི་	-11.0333
ཕྱེ་མ་དང་་	-11.0333
ཞལ་གྱི་	-11.0334
བཞེས་མཁན་	-11.0334
དེའི་ཐད་དུ་	-11.0334
འདི་འདྲ་ཞིག་	-11.0337
གྱི་གནས་སྟངས་	-11.0338
ཐོབ་སྟེ་	-11.0339
ཀྱི་ཚིག་བླ་དགས་	-11.0339
ཆོས་ཉན་	-11.034
གཟིམ་ཆུང་ཕོ་བྲང་	-11.034
ཡོངས་སུ་སྤྱད་པ	-11.0341
ས་སྐྱ	-11.0342
དགེ་རྒན	-11.0342
་བོ་	-11.0343
ཐོང་	-11.0343
▁བསམ་པ་	-11.0344
སྤོས་མཆོག་	-11.0344
[...]
