<unk>	0
<s>	0
</s>	0
་	-3.304
▁	-3.32197
དང་	-4.54271
ལ་	-4.84846
ནས་	-5.33552
འི་	-5.36852
ནི་	-5.41787
ས་	-5.44249
བྱང་ཆུབ་སེམས་དཔའ	-5.45276
དེ་	-5.47525
དང་་	-5.47955
ན་	-5.72307
མ་	-5.90567
ཡང་	-5.96891
བཅོམ་ལྡན་འདས་	-5.97169
ར་	-6.01501
མི་	-6.0273
ཀྱི་	-6.05227
▁དེ་ནས་	-6.09901
འདི་	-6.17462
པ་	-6.19872
ཀྱིས་	-6.21451
གྱི་	-6.2374
ལས་	-6.34147
དེ་དག་	-6.35267
པའི་	-6.38726
དུ་	-6.41217
▁བཅོམ་ལྡན་འདས་	-6.42428
རྣམས་	-6.43153
ཀྱང་	-6.43507
བོད་མིའི་	-6.43784
ཏེ་	-6.45623
་སེམས་དཔའ་ཆེན་པོ	-6.48169
ཡོད	-6.48181
▁དེ་	-6.48382
སངས་རྒྱས་	-6.52574
གི་	-6.56365
བ	-6.56504
དེ་བཞིན་གཤེགས་པ	-6.57784
སྐྱབས་མགོན་	-6.60419
ནང་	-6.60434
ལ	-6.6418
རེད	-6.65313
དེ་བཞིན་གཤེགས་པ་	-6.69694
དག་པར་རྫོགས་པའི་	-6.70154
ཆོས་	-6.70186
▁དེ་བཞིན་	-6.70695
བ་	-6.72174
▁ཕྱི་ལོ་	-6.74454
སྟེ་	-6.74556
པར་	-6.76629
ཕ་རོལ་ཏུ་ཕྱིན་པ་	-6.77063
འཇིག་རྟེན་	-6.80725
གང་	-6.82075
དག་	-6.82797
སྤྱི་ནོར་གོང་ས་	-6.85547
ཐོག་	-6.87604
ཐམས་ཅད་	-6.88326
གནས་	-6.89294
ཞིང་	-6.89835
སོགས་	-6.95159
ས	-6.96438
དེའི་	-6.98322
དེས་	-6.99322
ཆེན་པོ་	-7.0009
སུ་	-7.01771
ཞིག་	-7.05461
བར་	-7.06784
གིས་	-7.08096
སྒྲིག་འཛུགས་ཀྱི་	-7.08268
གྱིས་	-7.1046
རྒྱ་ནག་གཞུང་གིས་	-7.10572
པ	-7.107
མཆོག་	-7.13977
་དང་་	-7.14122
དེ་ནི་	-7.14834
ཤིང་	-7.14907
སེམས་	-7.15273
བྱེད་	-7.15812
་དང་	-7.16286
ཡོངས་སུ་	-7.16357
སྐབས་	-7.16473
ཞེས་	-7.16923
▁དེ་བཞིན་དུ་	-7.16991
ཤིན་ཏུ་	-7.19053
བོད་ཀྱི་	-7.20711
བྱང་ཆུབ་	-7.22617
རབ་ཏུ་	-7.24945
རྒྱ་གར་	-7.26841
བླ་ན་མེད་པ་ཡང་	-7.27097
ར	-7.27517
དེར་	-7.27697
པ་དང་་	-7.28019
པས་	-7.28576
བདག་	-7.28723
སངས་རྒྱས་ཀྱི་	-7.28955
སེམས་ཅན་	-7.29054
ང་	-7.31448
ཇི་ལྟར་	-7.32491
གཉིས་	-7.34233
པ་དང་	-7.36212
རྒྱུ་	-7.36344
བཅས་	-7.36366
དེ་ལ་	-7.3695
དེ་ལྟར་	-7.37559
བའི་	-7.39412
བྱས་ནས་	-7.39745
འམ་	-7.39762
གནང་	-7.39956
འདི་ནི་	-7.40181
▁དེ་ཡང་	-7.41086
ག	-7.41133
ཧ་ཅང་	-7.41188
མ	-7.42325
འོ་་	-7.4248
བྱུང་	-7.42934
ཕྱི་ལོ་	-7.43376
▁བོད་མིའི་	-7.43796
རྣམས་ཀྱིས་	-7.44128
ཅིང་	-7.44369
▁ཤ་ར་དྭ་ཏིའི་བུ་	-7.44663
ངས་	-7.45149
རྣམས་ལ་	-7.45833
བོད་	-7.46238
ན	-7.47301
མཆོག་གིས་	-7.48316
▁བཙུན་པ་	-7.4838
▁རིགས་ཀྱི་བུ་	-7.48616
འདུག	-7.49881
བཅོམ་ལྡན་འདས་ཀྱི	-7.52017
མང་པོ་	-7.52022
ཁྱོད་	-7.53077
རྣམ་པར་	-7.53496
འདི་ལྟ་སྟེ་	-7.53811
ཆོས་ཀྱི་	-7.53896
ཤེས་པ་	-7.54157
དཔལ་ལྡན་སྲིད་	-7.54352
དོན་	-7.55174
▁དེར་བརྟེན་	-7.55205
དེ་བཞིན་དུ་	-7.55412
སོ་་	-7.55468
རྣམས་ཀྱི་	-7.55941
རྗེས་	-7.56135
རྒྱལ་སྤྱིའི་	-7.57217
▁དེ་ལ་	-7.57348
སྡུག་བསྔལ་	-7.57757
ལུས་	-7.58503
དེ་བཞིན་	-7.59989
ལྟར་	-7.59997
བཞིན་	-7.60367
གཞན་	-7.60614
་དགྲ་བཅོམ་པ་ཡང་	-7.61023
ཆེད་	-7.61097
ཞེས་བྱ་བ་	-7.61205
ཚོགས་	-7.61978
ཤེས་རབ་ཀྱི་	-7.62204
ལ་འདི་སྐད་ཅེས་	-7.6292
ཞུ་རྒྱུ་ཡིན	-7.63494
རིགས་	-7.63762
རྒྱལ་པོ་	-7.6389
ི་	-7.63949
ཆེན་པོ་མཆོག་གིས་	-7.64435
མེད་	-7.64608
བཞིན་དུ་	-7.64653
གཅིག་	-7.6682
ར་འགྱུར་རོ་་	-7.67827
གཟུགས་	-7.68237
གསུང་བཤད་གནང་	-7.68551
གྲོས་ཚོགས་	-7.69784
ད	-7.70036
སྨྲས་པ་	-7.70239
ཡུལ་	-7.70436
ལམ་	-7.71564
འདིར་	-7.71565
▁འོན་ཀྱང་	-7.72231
སྐོར་	-7.72278
ཐོག་ནས་	-7.73422
དུས་	-7.73537
▁སངས་རྒྱས་	-7.73588
▁དེས་	-7.74037
དེ་བཞིན་གཤེགས་པས	-7.74259
ཡང་དག་པར་	-7.74323
འཕྲོད་བསྟེན་	-7.74395
▁གཞན་ཡང་	-7.74707
ཚེ་དང་ལྡན་པ་	-7.74958
འགྲོ་བ་མིའི་ཐོབ་	-7.7522
ལོ་	-7.75541
འཛམ་གླིང་	-7.76158
ཡིན	-7.76228
བོད་མི་	-7.76736
བདག་གིས་	-7.77036
ཡོད་པ་	-7.7735
ཡེ་ཤེས་	-7.77446
པོ་	-7.78031
ཡིན་ནོ་་	-7.78193
དགེ་སློང་	-7.78414
བརྒྱུད་	-7.78824
མེད་པ་	-7.78905
དང་་་	-7.80597
▁དེ་དག་	-7.80767
▁ལྷག་པར་	-7.80933
▁དེ་ནི་	-7.81038
དང་འབྲེལ་བའི་	-7.81132
སྲིད་བྱུས་	-7.8123
འ	-7.81491
སྐུ་ཚབ་དོན་གཅོད་	-7.81724
བསོད་ནམས་	-7.82011
ང་ཚོས་	-7.82214
ཚེ་	-7.82357
དེ་ཡང་	-7.82641
ཀྱིས་བཀའ་སྩལ་པ་	-7.83795
▁རབ་འབྱོར་	-7.8395
མ་ཡིན་	-7.84631
▁སྐབས་དེར་	-7.84949
ཡོད་པ་དང་	-7.8517
མུ་མཐུད་	-7.85237
མཁན་	-7.85642
གྱི་ཁམས་	-7.86302
ལགས་	-7.86581
གསུམ་	-7.86612
ཅན་	-7.86846
ཤེས་	-7.86881
ད་	-7.86925
བཞིན་ཡོད	-7.8711
ཏུ་	-7.87398
ཕྱིར་	-7.87698
ཅི་	-7.88174
བྱ་	-7.88449
སྒྲིག་འཛུགས་	-7.88845
ཚིག་	-7.89053
བྱས་	-7.89668
▁དགེ་སློང་དག་	-7.90056
ཆོས་ལུགས་	-7.90166
ཀ	-7.91338
ལགས་ཀྱིས་	-7.91391
དེ་དག་གིས་	-7.91406
རྟག་ཏུ་	-7.91679
དབུ་ཁྲིད་	-7.92105
གནང་ཡོད	-7.92321
ཁྱོད་ཀྱིས་	-7.92405
དང་ལྡན་པ་	-7.92712
▁དེའི་ཚེ་	-7.92831
ཐོབ་	-7.92855
ཡོད་པའི་	-7.92884
གནས་སྟངས་	-7.93722
རྒྱབ་སྐྱོར་	-7.93995
འཛིན་	-7.94
རྒྱལ་ཁབ་	-7.94595
འགྲོ་	-7.94935
སེམས་ཅན་ཐམས་ཅད་	-7.95011
འདི་ལྟར་	-7.95949
ག་	-7.96201
གཙོ་བོ་	-7.96723
དག་གིས་	-7.96934
ཕྱོགས་	-7.9727
▁གལ་ཏེ་	-7.97283
བྱང་ཆུབ་སེམས་དཔ	-7.97359
བླ་ན་མེད་པའི་	-7.97775
ཆེན་པོ་མཆོག་	-7.98413
རྒྱ་གར་གྱི་	-7.98511
ཀུན་	-7.98745
གསོལ་ཏོ་་	-7.98791
ནི	-7.9899
རབ་	-7.99789
བས་	-7.99925
མེད་པར་	-8.00483
གྲངས་	-8.00534
▁སེམས་ཅན་	-8.00749
ལྷ་	-8.01846
ལ་བརྟེན་ནས་	-8.02245
བསྟན་པ་	-8.02886
བུད་མེད་	-8.02958
དམིགས་བསལ་	-8.0323
གནས་ཚུལ་	-8.03324
མེད	-8.03457
རབ་ཏུ་མཁྱེན་ཏོ་་	-8.04028
དགོས་པའི་	-8.04221
བསམ་གྱིས་མི་ཁྱབ་	-8.04314
▁དེ་བཞིན་གཤེགས་པ	-8.04388
ཁ་	-8.04919
▁དེ་རྗེས་	-8.04944
གསུང་	-8.05011
བཅོམ་ལྡན་འདས་ལ་	-8.05113
བུ་	-8.05401
ཐོག་མར་	-8.05778
བོད་དོན་	-8.05939
ཡི་	-8.06093
མཛད་	-8.064
མངོན་པར་རྫོགས་པ	-8.06723
བཙན་བྱོལ་བོད་མི	-8.06754
བཞི་	-8.0688
གྲོང་ཁྱེར་	-8.07159
ཡིན་	-8.07313
བདག་གི་	-8.07376
དགོས	-8.07427
ེ་	-8.07919
ཤིག་	-8.08377
ཆེན་པོ་མཆོག་གི་	-8.085
བྱས་སོ་་	-8.08569
བཀའ་བློན་	-8.08744
བྱས་ཏེ་	-8.08783
་ཇི་ལྟ་བ་བཞིན་	-8.0894
སྐུ་	-8.09262
རང་གི་	-8.09778
བཞིན་དུ་སྦྱར་ཏེ་	-8.09841
ཏེ	-8.10287
འོ་	-8.10376
ལྟ་བུ་	-8.10475
རིན་པོ་ཆེ་	-8.10512
ཀུན་ཏུ་	-8.1068
ཅིའི་ཕྱིར་ཞེ་ན་	-8.11007
ཆགས་	-8.11088
སོང་	-8.11131
རྗེས་སུ་	-8.1128
ཏོག་དབྱིབས་གཉན་	-8.11501
▁དེ་ན་	-8.11763
དགེ་བའི་རྩ་བ་	-8.12263
སླད་	-8.12593
ཐབས་	-8.12671
འདི་དག་	-8.12831
ཨ་རིའི་	-8.12841
ཙམ་	-8.12883
སྣ་ཚོགས་	-8.12946
གང་དག་	-8.13015
མོ་	-8.13238
མེ་ཏོག་	-8.137
པའོ་་	-8.1386
ལགས་སོ་་	-8.14209
བཤད་	-8.14653
འཁོར་	-8.15149
བོད་མི་མང་སྤྱི	-8.157
བོད་ནང་	-8.15932
ས་གནས་	-8.16304
▁དེའི་	-8.1639
སོ་སོའི་	-8.17108
ཆོས་ཐམས་ཅད་	-8.17462
རྣམས་དང་་	-8.17565
རང་	-8.17636
མིག་	-8.17673
བཀའ་སློབ་སྩལ་	-8.18437
ལའང་	-8.18539
ཆུ་	-8.18895
ཞེས་པའི་	-8.19406
ཇི་ལྟར་ན་	-8.19475
ཁག་	-8.19812
བྱས་པ་	-8.20186
གཞོན་ནུ་	-8.20271
གཞན་ཡང་	-8.20392
ཡང་དག་པར་རྫོགས་པ	-8.20507
བསྟན་འཛིན་	-8.20741
ཅིག་	-8.20796
ཆགས་ཡོད	-8.20964
བོད་དོན་རྒྱབ་	-8.2115
▁དེ་ལྟར་	-8.21261
དཔལ་འབྱོར་	-8.21856
སྐུ་ཞབས་	-8.21997
བཞུགས་	-8.22046
བློ་	-8.22053
དེ་འདྲ་	-8.2206
རབ་ཏུ་མཁྱེན་ཏེ་	-8.22684
▁གང་	-8.22855
འདི་ལ་	-8.23243
ཇི་སྙམ་དུ་སེམས་	-8.23274
སྤྱོད་པ་	-8.23277
སོ་	-8.23696
བྱ་བ་	-8.23781
ང་ཚོ་	-8.23845
དེ་དག་གི་	-8.23998
ཞུ་	-8.24049
ཞེས་བྱའོ་་	-8.24129
དཀའ་ངལ་	-8.24176
དཔག་ཏུ་མེད་པ་	-8.24795
རིང་	-8.25221
རྒྱ་ནག་	-8.25271
ཉིད་	-8.25272
ཕ་རོལ་ཏུ་ཕྱིན་པ	-8.25348
▁ཇི་ལྟར་	-8.25373
སྟོང་	-8.25478
་ནི་	-8.25535
ལྡན་	-8.25796
སྟོན་པ་	-8.25817
གཞུང་འབྲེལ་	-8.25818
སྤྱི་ཚོགས་	-8.26007
འདི་སྐད་ཅེས་	-8.26373
ཤེས་ཡོན་	-8.26398
དྲུག་	-8.26537
འི་སངས་རྒྱས་	-8.26873
▁ཕྱོགས་མཚུངས་	-8.2731
པར་འགྱུར་རོ་་	-8.27384
གང་ཞེ་ན་	-8.27456
གལ་ཏེ་	-8.27521
ངོས་ཀྱིས་	-8.27939
▁འདི་ལྟ་སྟེ་	-8.27964
དབང་	-8.28042
རྒྱུ་དང་	-8.28106
ལས་ཁུངས་ཀྱི་	-8.28185
▁ཞེས་	-8.28339
བོད་རིགས་	-8.28403
ཡོན་ཏན་	-8.28464
དེ་དག་ནི་	-8.28487
སྟོང་པ་ཉིད་	-8.29006
ལེགས་པར་	-8.29016
འདོད་པ་	-8.29031
ཐུགས་	-8.29198
འདོད་	-8.29213
དགེ་འདུན་	-8.29573
བྱང་ཆུབ་ཏུ་	-8.29621
ས་གནས་འགོ་འཛིན་	-8.29698
▁འདི་ནི་	-8.29844
ཚུལ་ཁྲིམས་	-8.29949
དཔལ་ལྡན་	-8.30189
གོ་	-8.30379
སྒྲ་	-8.30411
ཡིན་ཏེ་	-8.30772
འགྲོ་བ་	-8.30889
ལས་བྱེད་	-8.31232
རང་བཞིན་	-8.31294
གང་ཡིན་པ་དེ་ནི་	-8.31551
འོག་	-8.31567
བྱེད་པ་	-8.31824
ལྔ་	-8.31867
ཉིན་	-8.31874
འགན་འཛིན་	-8.31933
▁སྤྱི་ནོར་གོང་ས་	-8.32026
ཕེབས་	-8.32063
ཡོང་	-8.32472
བདག་ཅག་	-8.32934
སྨན་	-8.32945
མངོན་པར་	-8.3302
གང་གིས་	-8.3338
▁བོད་ཀྱི་	-8.33424
མེད་པའི་	-8.33443
▁འཇམ་དཔལ་	-8.33474
སྟོན་	-8.33677
སྒོ་	-8.33805
སློབ་ཕྲུག་	-8.33899
རིག་གཞུང་	-8.33914
▁འཇིག་རྟེན་	-8.34152
རེ་	-8.34175
▁ཁྱིམ་བདག་	-8.34197
རྒྱལ་	-8.34399
ལམ་སྟོན་	-8.34537
འདུ་ཤེས་	-8.34643
ཆོས་རྣམས་	-8.34726
ཐམས་ཅད་ཀྱི་	-8.34787
རྒྱ་ནག་གི་	-8.34971
འོད་	-8.35084
དབང་པོ་	-8.35155
པའམ་	-8.35485
སྨྲས་སོ་་	-8.3562
ལས་དོན་	-8.36149
▁ཚེ་དང་ལྡན་པ་	-8.36686
དོན	-8.36707
སྤྱོད་	-8.37005
ཤེས་རབ་	-8.37029
ཡིད་	-8.37092
ས་ནང་འཁོད་དོན	-8.37094
དེ་དག་ལ་	-8.37127
པ་རེད	-8.37517
ནས	-8.37542
ངེས་པར་	-8.37936
རྣམ་པ་ཐམས་ཅད་	-8.38002
དེའི་ཚེ་	-8.38634
འདིས་	-8.38789
མཆོག་དང་	-8.38918
སྐུ་མགྲོན་གཙོ་བོ	-8.3897
བརྒྱད་	-8.39046
རྒྱུའི་	-8.39063
ཕུན་སུམ་ཚོགས་པ་	-8.39177
སྦྱིན་པ་	-8.39281
མང་པོ་ཞིག་	-8.39384
དེ་དག་ཐམས་ཅད་	-8.39436
དམ་པ་	-8.39488
ཤེས་པ་ཡང་དག་པ	-8.39677
སྟེ་་	-8.39718
▁མད་གལ་གྱི་བུ་	-8.39815
སྐྱོང་བློ་བཟང་སེ	-8.39828
ང་ཚོའི་	-8.39931
སྐྱེ་	-8.39938
སྔོན་	-8.40072
བྱུང་བ་	-8.40301
ཡོད་པ་རེད	-8.40574
སྐྱོང་མཆོག་གིས་	-8.40599
▁འཚོ་ཞིང་གཞེས་ལ་	-8.40864
ཏིང་ངེ་འཛིན་	-8.41218
དག་ཀྱང་	-8.4143
མཐོང་	-8.41569
ཆེན་	-8.41572
མགོན་པོ་གང་ཉིད་	-8.41803
ལགས	-8.42098
ར་གྱུར་པ་	-8.42162
བཟོ་	-8.42324
སྐྱེས་	-8.42403
ནད་	-8.42495
རྣམ་པ་	-8.427
ཚུལ་	-8.42809
བ་དང་	-8.4288
ཆོས་དད་རང་དབང་	-8.42966
དོ་་	-8.42978
གཞི་	-8.43303
ལ་ཡང་	-8.43318
སྤེལ་	-8.43454
བྱེད་བཞིན་ཡོད	-8.43468
སྤྱི་འཐུས་	-8.43514
ཡོད་	-8.4365
ཆོས་ཀྱང་སྟོན་ཏེ་	-8.44308
ཡིན་པ་	-8.44477
ནང་དུ་	-8.44579
▁ཀུན་དགའ་བོ་	-8.44627
བརྗོད་	-8.44711
མཚན་	-8.44917
ཚོར་	-8.45087
དག་ལ་	-8.45477
བྱེ་བ་ཁྲག་ཁྲིག་	-8.45998
་དེ་དག་	-8.46092
ཕན་ཚུན་	-8.46117
འདིའི་	-8.4624
བཏང་	-8.46465
སྟོབས་	-8.46482
སྨོན་ལམ་	-8.46664
དེ་ནས་	-8.46665
ཡོད་པ་བཅས	-8.47043
སམ་	-8.47201
དཔལ་	-8.47264
ཚད་	-8.47418
དག་ནི་	-8.47445
མྱུར་དུ་	-8.47514
བསྟན་	-8.47602
རོ་	-8.47649
འི་ཕྱིར་	-8.47664
མས་	-8.47682
▁རྒྱ་གར་	-8.47818
བཀྲ་ཤིས་	-8.48173
བདེ་བ་	-8.48768
རྣམས་ཀྱང་	-8.49124
▁ཅེས་	-8.49374
ལྟ་	-8.49592
བློ་གྲོས་	-8.49745
▁ང་ཚོས་	-8.50261
མཉམ་	-8.50267
བརྩོན་འགྲུས་	-8.5053
་འཐུས་ལྷན་ཚོགས་	-8.50542
ཁམས་	-8.50558
ཚིགས་སུ་བཅད་པ་	-8.50719
ལྷའི་	-8.50739
▁བཅོམ་ལྡན་འདས་དེ	-8.51067
རིག་པ་	-8.5141
འབྲེལ་ཡོད་	-8.51582
▁ཇི་ལྟར་ན་	-8.51588
ཆོས་དང་རིག་གཞུང་	-8.51954
ད་བར་	-8.52
དགོས་པ་	-8.52221
ཚོགས་པའི་	-8.52308
མཐུན་འགྱུར་	-8.52368
▁སྤྱིར་	-8.52523
བདག་ལ་	-8.52752
གཟིགས་	-8.52818
སློབ་སྦྱོང་	-8.52942
ཚོས་	-8.5316
མཁྱེན་པ་ཉིད་	-8.53329
བྱེད་དགོས	-8.53429
རབ་ཏུ་བྱུང་ནས་	-8.53522
བགྲོ་གླེང་	-8.53544
རི་	-8.53967
ངོས་ནས་	-8.54026
སྐྱེ་བ་	-8.54049
ནོར་	-8.5414
ཀུན་ནས་ཉོན་མོངས་	-8.54316
ན་འཇིག་རྟེན་	-8.54553
བཀའ་དྲིན་	-8.5528
ཀུན་གཟིགས་པ	-8.55317
ཤ་	-8.55359
རྒྱལ་པོའི་	-8.5544
ཚང་མས་	-8.55857
ཡིན་ནོ་	-8.55967
བར་དུ་	-8.56474
▁དེ་རིང་	-8.56514
ཡང་དག་	-8.56604
ཡོད་པ་མ་ཟད	-8.56687
བྲམ་ཟེ་	-8.56773
ཁང་	-8.56952
ནི་་	-8.57096
ཐུགས་རྗེ་ཆེ་ཞུ	-8.57097
བཞུགས་ཏེ་	-8.57146
དགའ་	-8.57572
སྟེ	-8.57659
མཆོག་གི་	-8.57718
འི་ནང་	-8.58102
གཉིས་ཀྱི་	-8.58255
ལ་སོགས་པ་	-8.58367
རིན་ཆེན་	-8.58465
བཟང་པོ་	-8.5851
མིང་	-8.58819
དེ	-8.59123
ཕུལ་	-8.5921
གོང་ས་སྐྱབས་མ	-8.59224
རྒྱལ་ཡོངས་	-8.59426
མེ་	-8.59646
ཆེན་པོ་མཆོག་ལ་	-8.597
བཀའ་	-8.59758
འདབ་ཆགས་	-8.59817
བསམ་གཏན་	-8.59828
མེད་ཅིང་	-8.59865
རྒྱ་གར་ནང་	-8.6032
ལ་ཕྱག་འཚལ་ལོ་་	-8.60326
▁བོད་	-8.60476
ྟེན་གཞི་བྱས་པའི་	-8.60534
སྒྲུབ་	-8.60624
འཇིག་རྟེན་གྱི་ཁ	-8.60638
ཕུང་པོ་	-8.6067
བསམ་པ་	-8.61092
གནས་པ་	-8.61263
མངོན་སུམ་དུ་	-8.6138
གསལ་	-8.61575
འབྲས་བུ་	-8.61646
གྱུར་	-8.61662
འཇིག་རྟེན་དུ་	-8.61825
མར་	-8.61843
སོ་སོར་	-8.6194
འགྱུར་	-8.62056
བཀའ་སློབ་	-8.62099
འགྱུར་བ་	-8.62229
འདི་ཉིད་	-8.62292
ཟླ་བ་	-8.62458
▁གཞོན་ནུ་	-8.6252
སློབ་དཔོན་	-8.62861
དགྲ་བཅོམ་པ་ཉིད་	-8.63046
སྙམ་དུ་སེམས་ཏེ་	-8.63093
གས་	-8.63105
ཐུབ་	-8.63173
པར་གྱུར་ཏོ་་	-8.63185
སྣང་བ་	-8.63457
བདུན་	-8.63562
གསལ་བསྒྲགས་	-8.63844
ཁོར་ཡུག་	-8.63925
དྲན་	-8.63982
ཆོས་བརྒྱུད་	-8.63999
འབུལ་	-8.64117
མེད་དོ་་	-8.64157
མང་	-8.64169
ཞེས་བྱ་བ་ཡོད་དེ་	-8.64239
▁འདི་ལྟར་	-8.64254
ནམ་	-8.64298
ཡོད་ཀྱང་	-8.64524
གོས་	-8.64559
་དང་་འདུ་ཤེས་དང་	-8.64559
མཆོད་	-8.64571
ཅན་གྱི་	-8.64817
དེ་ལྟ་བས་ན་	-8.6506
དེ་སྔ་	-8.6507
གལ་ཆེན་པོ་རེད	-8.65305
སྐྱོན་	-8.6539
ཏ	-8.65504
ཉོན་མོངས་པ	-8.65722
ལྟ་བ་	-8.65733
རྒྱ་རིགས་	-8.65944
རྒྱུར་	-8.66121
ར་གྱུར་ཏོ་་	-8.66141
ལས་གཞི་	-8.6616
སྙིང་པོ་	-8.66375
གསུང་དོན	-8.66476
ཁོང་	-8.66841
རྣམ་པར་ཤེས་པ་	-8.66904
དག་གི་	-8.66953
དབང་ཕྱུག་	-8.6698
ཡང་དག་པ་ཇི་ལྟ་བ་	-8.67018
་རྣམས་ཀྱི་	-8.67064
ཅེས་	-8.67072
ཞེས་བྱ་བའི་	-8.67112
རྣམས་ནི་	-8.67126
ངོས་རང་	-8.67212
བྱེད་ཀྱི་ཡོད	-8.67215
ཁྱིམ་	-8.67257
▁བདག་	-8.67283
ཀུན་འབྱུང་བ་	-8.67391
དང	-8.67617
▁དགེ་སློང་	-8.67642
ནུས་པ་	-8.6772
▁དེའི་ཡང་	-8.67876
དེ་ལྟར་ན་	-8.67945
རྒྱལ་བའི་	-8.68021
འཇོག་	-8.68029
རྒྱབ་སྐྱོར་གནང་	-8.68053
▁བདག་གིས་	-8.68079
ཆུང་	-8.68231
མིའི་	-8.68249
གྲོས་ཚོགས་འཐུས་	-8.68279
▁ཆོས་	-8.68465
སློབ་	-8.68469
འབྲེལ་བ་	-8.68484
འགྱུར་་	-8.68496
གཏོང་	-8.68499
མཁས་པ་	-8.68518
རང་དབང་	-8.68572
བྲམ་ཟེའི་ཁྱེའུ་	-8.68816
བོད་པའི་	-8.68848
ཡོངས་སུ་རྫོགས་པ	-8.68928
སོགས་ཀྱི་	-8.69176
དེ་དག་ཀྱང་	-8.69194
བཅས་ཀྱི་	-8.6946
འབད་བརྩོན་	-8.69584
མི་མང་	-8.70025
རིན་པོ་ཆེའི་	-8.70117
ཡོངས་སུ་སྨིན་པར་	-8.7055
ལས་འགུལ་	-8.70695
ཚོགས་གཙོ་	-8.70804
བཞིན་པའི་	-8.70853
རྐྱེན་	-8.70962
ལོ་རྒྱུས་	-8.71119
དྲང་སྲོང་	-8.71143
སྦྱིན་	-8.71435
བ་དང་་	-8.71463
ཡིན་་	-8.71515
ཟླ་	-8.71646
ཁྲི་	-8.71746
རྒྱ་ནག་གཞུང་གི་	-8.71786
བྱས་པའི་	-8.71789
རིན་པོ་ཆེ་མཆོག་	-8.7186
མཐའ་	-8.71901
ཞི་	-8.71986
▁ང་ཚོ་	-8.72062
འཕགས་པ་	-8.72073
རིག་	-8.72184
དྲན་པ་ཉེ་བར་གཞག་	-8.7219
ད་ལྟ་	-8.72191
སེམས་ཅན་དམྱལ་བ་	-8.72463
པ་མ་ཟད	-8.72476
འདོད་ཆགས་	-8.72586
ཡག་པོ་	-8.7265
བསྐལ་པ་	-8.72663
དུ	-8.72756
བྱང་ཆུབ་ཀྱི་	-8.72834
སློབ་གྲྭའི་	-8.72848
སྲིད་སྐྱོང་མཆོག་	-8.7293
རྣམ་གྲངས་འདི་	-8.72931
རྒྱུད་	-8.72938
མི་གྲངས་	-8.7295
ཞེས་བྱ་བ	-8.73041
ཕྱི་	-8.73155
ཐ	-8.73232
ལག་	-8.734
ཐད་	-8.73409
ལན་	-8.73554
ལོངས་སྤྱོད་	-8.7375
དང་ལྡན་པའི་	-8.73769
ཐམས་ཅད་ཀྱང་	-8.73991
ཤེས་པ་འགོག་པ་	-8.74244
ཐང་	-8.74264
ཆེན་པོས་	-8.74289
འགྲོ་བ་མིའི་	-8.74365
རེད་འདུག	-8.74375
ལ་ནི་	-8.74625
མི་རིགས་	-8.74659
མིན་	-8.74733
▁གང་དག་	-8.74922
▁འདི་གར་	-8.74923
མཆོག	-8.74997
་རྣམས་	-8.75079
སེམས་ཅན་རྣམས་	-8.75245
ཤུགས་ཆེ་	-8.75573
སྤྱི་ནོར་ས་མགོན་	-8.75931
བུ་མོ་	-8.75993
ཚོགས་པ་	-8.76
ལེན་	-8.7607
འབྱོར་	-8.76089
དངོས་ཡོད་	-8.7612
སྔོན་བྱུང་བ་	-8.76122
ངའི་	-8.76194
དྲུང་ཆེ་	-8.76256
སྲུང་སྐྱོབ་	-8.76294
ཆ་	-8.76314
བསྐྱེད་	-8.76391
བཏང་ངོ་་་	-8.76414
དེ་རིང་	-8.76488
ལག་བསྟར་	-8.76524
གཏན་འབེབས་	-8.76641
▁ད་ཆ་	-8.76784
ལེགས་	-8.76958
རྒྱ་	-8.76989
བོད་ཀྱི་སྐད་ཡིག་	-8.77058
མཚམས་	-8.77059
མཐོང་ནས་	-8.771
དེ་ལྟ་བུ་	-8.772
ས་བྱང་ཆུབ་སེམས་	-8.77205
བོད་ནང་གི་	-8.7738
བོད་མི་ཚོས་	-8.77383
དཔའ་རྒྱལ་ཚབ་	-8.77389
བདག་ཉིད་	-8.77402
ཨ་	-8.77474
བཀའ་སྩལ་ཏོ་་	-8.77728
ཆེན་པོའི་	-8.77754
ཆབ་སྲིད་ཀྱི་	-8.77778
▁ངས་	-8.77957
ཡིན་ནའང་	-8.78104
སེམས་ཅན་རྣམས་ལ་	-8.78116
མེད་་	-8.78145
ཉེ་བར་	-8.78331
ཁྱོད་ཀྱི་	-8.78454
▁དཔེར་ན་	-8.78534
དགེ་བ་	-8.78573
ཇི་ཙམ་	-8.78616
ནམ་ཡང་	-8.78698
ད་ཆ་	-8.78743
ཚ	-8.78755
མཐོང་བ་	-8.78989
རྡོ་རྗེ་	-8.78993
པའི་ཕྱིར་	-8.79069
ཞུགས་	-8.79135
འདུག་གོ་་	-8.79206
མཉམ་འབྲེལ་	-8.79221
བདག་ནི་	-8.7928
ཆེས་	-8.79312
འང་	-8.79408
ཚོགས་འདུ་	-8.79468
ནས་ཀྱང་	-8.79543
བཞེས་	-8.79556
ཞུས་	-8.79585
▁ངོས་ཀྱིས་	-8.79665
དམ་	-8.79689
མང་གཙོའི་	-8.79882
བྱུང་ཡོད	-8.79949
བཅུ་	-8.80123
དྲི་	-8.80153
དེ་ཡི་	-8.80286
སྐད་	-8.80347
རྒྱལ་བ་	-8.80477
སྲོག་ཆགས་	-8.8052
གྲོས་ཚོགས་ཀྱི་	-8.80559
ཤ་ར་དྭ་ཏིའི་བུ་	-8.80598
གོང་	-8.80683
ཧ	-8.80704
ཕ་	-8.80746
དེ་ཉིད་	-8.8078
སྔ་དྲོ་ཆུ་ཚོད་	-8.80903
ཡིས་	-8.81076
ཕལ་ཆེར་	-8.81199
འཇིག་རྟེན་གྱི་	-8.81209
རྙེད་	-8.81239
འབྱུང་བ་	-8.81342
ངོ་སྤྲོད་	-8.81423
གྲུབ་	-8.81449
▁སངས་རྒྱས་ཀྱི་	-8.81823
ཡར་རྒྱས་	-8.81826
ཚང་མ་	-8.8192
སྐུ་མགྲོན་	-8.81922
དགོས་	-8.82056
་དེ་ནི་	-8.82121
ངེས་	-8.82191
ག་ལ་བ་དེར་	-8.82243
ཡང་་་	-8.82447
དངོས་གྲུབ་	-8.82532
ལགས་དང་	-8.82606
དགོས་པ་དང་	-8.82647
སྤྱི་ཚོགས་ནང་	-8.82651
འཛིན་སྐྱོང་	-8.82744
དབུ་མའི་ལམ་གྱི་	-8.82861
ཕྱི་ཟླ་	-8.82932
གླིང་	-8.8295
དམ་བསྒྲགས་	-8.82977
ང་་རྣམ་པར་ཤེས་པ་	-8.83294
གནད་དོན་	-8.83363
ཆེ་	-8.83437
་འདུ་བྱེད་རྣམས་ད	-8.83454
ཐོས་ནས་	-8.83806
གང་ཡང་	-8.83956
ནང་གི་	-8.8397
སྤྱི་མཐུན་ཚོགས་པ	-8.84066
སྐུ་ཚབ་	-8.84168
རྣམ་	-8.84325
ཡོངས་རྫོགས་	-8.84553
འཕགས་པའི་	-8.84624
ངྒེ་མཆོག་གིས་	-8.84639
མཐོང་ངོ་་་	-8.84663
གསུང་བཤད་གནང་དོན	-8.84721
མངའ་སྡེའི་	-8.8491
མཛད་སྒོ་	-8.84917
ཟས་	-8.85048
གནང་མཁན་	-8.85118
སྤྱི་ཁྱབ་	-8.85233
སྟོང་པ་ཉིད་དང་་	-8.85278
▁ཕྱི་ཚེས་	-8.85345
མེད་པ་དང་་	-8.85744
ལྟ་བུར་	-8.85784
ཤེས་པ་དང་་	-8.85877
འབྱུང་	-8.86038
ཁྱད་པར་	-8.86057
ཞལ་	-8.86386
འདི་དག་ནི་	-8.86456
་ཤེས་རབ་ཀྱི་	-8.86641
སྦྱིན་པའི་	-8.86695
རྒྱལ་ཚོགས་ཀྱི་	-8.86774
མཐུན་རྐྱེན་	-8.87058
ཤ	-8.87092
རིམས་	-8.87115
རྒྱ་ནག་གཞུང་ལ་	-8.87134
▁དེ་དག་གིས་	-8.87191
རུ་	-8.87205
སྙོམས་པར་འཇུག་པ་	-8.87212
རིགས་ཀྱི་བུ་མོ་	-8.87349
ཚེ་དེའི་དུས་ན་	-8.87473
ལྷག་	-8.87483
རིགས་ཀྱི་བུ་	-8.87658
སྤྱི་	-8.87823
ཕྱི་ཚེས་	-8.87841
འཁོར་བ་	-8.87872
སྤོབས་པ་	-8.87951
དང་འབྲེལ་	-8.88008
འཚམས་འདྲི་	-8.88231
ཡུ་རོབ་	-8.8824
ཐམས་ཅད་ཀྱིས་	-8.88418
འཇུག་	-8.88463
དོ་	-8.88465
ཞུ་བཞིན་ཡོད	-8.88593
བ་ཏུ་མཁྱེན་ཅེ་ན་	-8.88622
གོ་་	-8.88634
གོན་ཆེན་པོ་མཆོག་	-8.88695
ཞབས་	-8.88743
་ཇི་ལྟ་བ་བཞིན་ར	-8.88804
ཁྱིམ་བདག་	-8.88916
བཞག་	-8.89083
ཐོབ་ཐང་	-8.89347
བསམ་	-8.89542
▁ཁྱིམ་བདག་འདི་ལ་	-8.89583
རྟེན་	-8.89607
མའི་	-8.89733
སྐབས	-8.89765
ལྷན་ཚོགས་ཀྱི་	-8.89783
ཡང་ཞུ་བ་ཞུས་པ་ན་	-8.89898
ཤེས་རིག་ལས་ཁུངས་	-8.89918
ཀུན་དགའ་བོ་	-8.89976
དང་ལྷན་	-8.90051
མ་ཡིན་ནོ་་	-8.9042
ཁེ་ན་	-8.90442
གང་ཟག་	-8.90535
བདེ་སྐྱིད་	-8.9054
མ་མཆིས་	-8.90653
ཉོན་མོངས་པ་	-8.90725
འདོན་	-8.90774
ལས་ཁུངས་	-8.91009
བཟོད་པ་	-8.91159
ཉན་ཐོས་	-8.91189
གནས་པའི་	-8.91192
▁ལྷའི་བུ་	-8.91251
ཕྱག་འཚལ་ཏེ་	-8.91508
མཉེས་པར་བྱེད་པར་	-8.91742
བཞུགས་སྒར་	-8.91759
རྣམ་པར་སྨིན་པ་	-8.91817
ལ་བཀའ་སྩལ་པ་	-8.91828
གཟེངས་རྟགས་	-8.91842
གཞོན་སྐྱེས་	-8.92098
ཕྱག་	-8.92148
འོད་ཟེར་	-8.92356
མཐར་	-8.92396
བཀའ་བློན་མཆོག་	-8.92476
བྱེད་མཁན་	-8.92564
གཟའ་མིག་དམར	-8.92706
ཏིང་ངེ་འཛིན་དང་་	-8.92806
སྐྱེད་	-8.9282
རྫུ་འཕྲུལ་	-8.9301
རྩ་	-8.93064
མགོ་	-8.93066
སྐད་ཡིག་	-8.93691
སྟོང་ཆེན་པོའི་	-8.937
འི་བར་དུ་	-8.93812
ཡི་གེ་	-8.94038
དབུས་	-8.94179
བྱ་བའི་ཕྱིར་	-8.94548
▁གང་ལྟར་	-8.94576
མཆོག་ཏུ་	-8.94969
▁དེར་	-8.94979
གཞུང་	-8.95078
དཔེར་ན་	-8.95165
ཤ་རིའི་བུ་	-8.952
སྣང་	-8.95206
པར་བྱེད་དོ་་	-8.95296
དཔེ་	-8.95429
མཛད་པ་	-8.9548
▁བྱང་ཆུབ་སེམས་དཔ	-8.95639
ལ་མཚོན་ན་	-8.95727
ཚོར་བ་	-8.95765
འབུམ་	-8.95893
བཀོད་པ་	-8.95994
འདི་ལྟ་བུ་	-8.96092
ཡ	-8.96152
དད་པ་	-8.9617
ཁྱེད་	-8.96201
འཛམ་གླིང་ནང་	-8.96534
ཁྱབ་	-8.96561
ཉི་མ་	-8.96595
རྒྱུ	-8.96622
སློབ་གྲྭ་	-8.96717
མཁན་པོ་	-8.96748
ལྷན་ཚོགས་	-8.96826
གནང་སྟེ་	-8.96899
རྒྱ	-8.96919
རྒྱས་	-8.9692
་པ་མ་ཟད	-8.96982
བྱུང་སྟེ་	-8.96994
▁ངོས་རང་	-8.97019
ཉོན་མོངས་	-8.97095
ལས་ཁུངས་ནས་	-8.97112
རང་བཞིན་གྱིས་	-8.97133
▁སུ་ནི་	-8.97313
སླར་ཡང་	-8.97335
་མཆོག་གིས་	-8.97343
སྙིང་རྗེ་	-8.97384
▁གཟུགས་	-8.97472
ཆེད་དུ་	-8.97648
གྲུབ་མཚམས་	-8.97705
གཟི་བརྗིད་	-8.97726
གསུམ་གྱི་	-8.97761
གཞན་གྱི་	-8.97812
གནང་འདུག	-8.97871
ན་ཡང་	-8.97873
རིགས་ཀྱི་བུའམ་	-8.97886
དར་	-8.97939
གནང་བའི་	-8.98131
བོད་ཀྱི་གནད་དོན་	-8.9822
མ་གཏོགས་	-8.9827
ཤེས་པ་འགོག་པར་འག	-8.98417
▁སེམས་ཅན་ཐམས་ཅད་	-8.98456
བརྒྱ་ཆ་	-8.98473
དགེ་རྒན་	-8.98495
དགེ་	-8.98706
དབར་	-8.98974
ཐོན་	-8.99003
དེ་ལྟ་བུའི་	-8.99044
བདེ་	-8.99122
རྟ	-8.99122
བོད་མི་ཚོར་	-8.9929
འཁོར་ལོས་སྒྱུར་བ	-8.99377
▁འཛམ་གླིང་	-8.99459
དངོས་པོ་	-8.99504
མཐའ་ཡས་	-8.99544
དགའ་བ་	-8.99548
དམ་པའི་ཆོས་	-8.99601
སྙམ་མོ་་	-8.99687
▁གང་གིས་	-8.99907
ཐོས་	-8.99991
བྱིས་པ་	-9.00008
▁ཅེས་གསུངས	-9.0006
ངེས་པར་དུ་	-9.0022
ཡིན་པ་དང་	-9.00263
ནང་ཆོས་	-9.00337
ཡང་སྲིད་	-9.00341
རྟོགས་	-9.00412
ྱུར་བའི་ལམ་ཤེས་པ	-9.00455
མཆོད་པ་	-9.00581
འཛིན་པ་	-9.00736
གང་དུ་	-9.00828
སློབ་མ་	-9.0091
རྣམ་པར་སྨིན་པས་	-9.00919
ལོ་ངོ་	-9.00964
དང་ནི་	-9.01015
བཟང་	-9.01177
ཟ	-9.01189
ཚངས་པར་སྤྱོད་པ་	-9.01233
དེ་བཞིན་དུ་ཚོར་བ	-9.01628
མྱ་ངན་ལས་འདས་པ་	-9.01736
དཀྱིལ་འཁོར་	-9.01852
དང་བཅས་པ་	-9.0203
ཡིད་ཆེས་	-9.02181
ལྟ་གྲུབ་	-9.02197
ར་འགྱུར་	-9.02273
སྐྱེས་པ་	-9.02373
ལྷའི་བུ་	-9.02409
བསྔགས་བརྗོད་	-9.02444
སྟེང་	-9.02472
སྤྱི་མཐུན་	-9.02539
དང་པོ་	-9.02554
དབུ་འབྱེད་	-9.02759
སྦྱོར་	-9.02808
ཙ	-9.03007
ས་ཁུལ་	-9.03142
དེ་ན་	-9.03255
▁བཀའ་སྩལ་པ་	-9.03302
ལས་རིམ་	-9.03303
སར་	-9.0333
སྨྲ་བ་	-9.03343
དེང་སྐབས་	-9.0344
ལ་དྭགས་	-9.03474
དགོན་པ་	-9.03584
ལ་ལོངས་སྤྱོད་པ	-9.03703
་ཐམས་ཅད་སྤངས་ཏེ་	-9.03725
ཆར་	-9.03834
པར་འགྱུར་་	-9.03844
གྲུབ་འབྲས་	-9.03945
བླ་མ་	-9.04055
ཏེ་་	-9.04138
སྔོན་གྱི་	-9.04293
ལས་འཆར་	-9.04316
བསམས་པ་	-9.04476
ཁྱབ་ཁོངས་	-9.0448
གནང་བ་དང་	-9.0453
▁མི་	-9.04531
བོད་མི་རྣམས་	-9.04599
▁དེ་ལྟར་ན་	-9.04611
གསོལ་པ་	-9.04632
དམིགས་	-9.04648
གདུང་སེམས་མཉམ་	-9.0469
ཐོབ་པ་	-9.04788
ནང་སྲིད་ལས་ཁུངས་	-9.04848
ཟིན་	-9.04924
དུས་ཚོད་	-9.05016
མཆོག་ལ་	-9.05022
ཀུན་དུ་	-9.05169
ཐུགས་རྗེ་ཆེ་	-9.05244
བརྒྱ་	-9.05361
ཁོང་གིས་	-9.05479
དག་ཏུ་	-9.05496
ཚུལ་ཁྲིམས་ཀྱི་	-9.05525
ཆོས་མ་འདྲེས་པ་བཅ	-9.05743
ཡོད་སྟབས	-9.05754
བཀོད་	-9.05782
མཆོད་རྟེན་	-9.05839
དག་དང་་	-9.05845
གྲོས་ཆོད་	-9.05943
འབྲེལ་	-9.06054
མཁྱེན་	-9.06087
སྲུང་	-9.06288
གཉིས་པ་	-9.06349
འཁོད་	-9.06375
རབ་འབྱོར་	-9.06534
ངོས་འཛིན་	-9.06615
འི་ཆོས་	-9.06675
བྱ་རྒྱུ་	-9.06798
སོང་ནས་	-9.06996
སུ	-9.07059
▁དེང་སྐབས་	-9.07131
དཀའ་ངལ་འཕྲད་	-9.07154
ངོ་བོ་ཉིད་	-9.07194
གཟའ་ཕུར་བུ	-9.07212
▁ལྷ་	-9.07293
ཡིན་ཞིང་	-9.07305
ཁག་གི་	-9.07368
བརྩོན་འགྲུས་ཀྱི་	-9.07427
ཅེས་བྱ་བ་	-9.07491
ཆ་ཚང་	-9.07567
མི་འདྲ་བ་	-9.07574
སྐྱོར་ཚོགས་པའི་	-9.0759
ཏོ་་	-9.07639
བདེ་བར་གཤེགས་པ་	-9.07732
མྱོང་	-9.07812
གར་	-9.07856
▁དེ་ཡི་	-9.07867
ཟེར་བ་	-9.07951
འཐུས་མི་	-9.08029
འཇིགས་	-9.08078
སྲོག་	-9.0829
འབོད་སྐུལ་	-9.08425
ལས་འགན་	-9.08464
གཞིས་ཆགས་	-9.08538
ནི་ཙན་དན་གྱི་	-9.08656
རྒྱལ་སྲིད་	-9.0873
དགེ་བའི་	-9.0896
ཤར་	-9.08965
བྱས་ཡོད	-9.09005
བློན་ཆེན་	-9.09021
མི	-9.0906
ལུང་	-9.09086
ཆེས་མཐོའི་	-9.09102
འཛམ་གླིང་གི་	-9.09154
བསམ་བློ་	-9.09294
གནོད་སྦྱིན་	-9.09395
གསར་པ་	-9.09631
ཧ་ཅང་གལ་ཆེན་པོ་	-9.09636
དངོས་སུ་	-9.09666
འདུགདེ་ཡང་	-9.09674
མཚན་ཉིད་	-9.09754
▁ཕྱི་ལོ་ཚེས་	-9.09768
སྐབས་དེར་	-9.09904
ཀྱི་བར་དུ་	-9.09928
ཐུབ་པ་	-9.10034
ཀྱི་བར་འདི་	-9.10271
གཏི་མུག་	-9.10431
ཐུབ་པ་བྱུང་ཡོད	-9.10548
བདེན་པ་	-9.10549
རྒྱལ་མཚན་	-9.10656
གསེར་	-9.10707
▁ཤ་རིའི་བུ་	-9.10806
ཟབ་སྦྱོང་	-9.10918
འདྲ་	-9.1098
དང་བྲལ་བ་	-9.11022
ལྔ་དང་ལྔ་བཅུའི་	-9.11056
དང་སྦྲགས་	-9.11065
རང་སངས་རྒྱས་ཀྱི་	-9.11102
མཚོན་	-9.11244
ལྷོ་ཕྱོགས་	-9.11294
མཛད་སྒོའི་ཐོག་	-9.1131
ཁྱོད་ལ་	-9.11315
བོད་དོན་ཐོག་	-9.11352
ཤེས་པ་དེ་ལ་	-9.11471
མངོན་པར་ཤེས་པ་	-9.11523
དང་ལྷན་ཅིག་ཏུ་	-9.11531
ཐེག་པ་	-9.11612
སྐྱེས་བུ་	-9.11625
སྣོད་	-9.11651
བཤད་པ་	-9.11789
ཁྱམས་དང་ཁང་བཟངས་	-9.11892
མདོ་སྡེ་	-9.11894
ང་ལ་	-9.11975
སྟོང་གསུམ་གྱི་	-9.12037
ཁྲིམས་	-9.12042
འཐུས་མི་སྐུ་ཞབས་	-9.12046
སྤྱོད་ཡུལ་	-9.12074
མྱ་ངན་	-9.12162
སྡེ་	-9.12256
ཆགས་པ་	-9.12392
ཤེས་པའི་ཁམས་	-9.12414
སོང་ངོ་་་	-9.12451
▁ཤེས་རབ་ཀྱི་	-9.12579
ཆོས་རིག་ལས་ཁུངས་	-9.12657
སྤྱན་	-9.12896
ཆོས་ཀྱི་ཉི་མ་	-9.12923
རྒྱ་མཚོ་	-9.12961
མགོན་པོ་	-9.13005
མཁྱེན་པ་	-9.13044
ཀྱང་་་	-9.13085
ཆབ་སྲིད་	-9.13106
རྒྱལ་ཁབ་ཀྱི་	-9.13183
▁རྒྱལ་སྤྱིའི་	-9.13204
དངོས་	-9.13359
ངོས་ཀྱི་	-9.13438
ཡིན་ན་	-9.13484
བྱུང་ངོ་་་	-9.13524
བསྟེན་	-9.13586
ཐོས་པ་	-9.13603
པའི་ཕྱིར་རོ་་	-9.13628
སེལ་	-9.13737
དུག་	-9.1376
མ་རེད	-9.13905
རྒྱལ་པོ	-9.13922
གོང་ཚེས་ཉིན་གྱི་	-9.13974
འི་ཏིང་ངེ་འཛིན་	-9.13978
དེ་ལས་	-9.14087
ཡན་ལག་	-9.14277
བཀྲ་ཤིས་བདེ་ལེགས	-9.14287
ཉམས་ལེན་	-9.14594
ཐེ་ཝན་	-9.14694
ཁ་དོག་	-9.14698
ས་ཁུངས་ནས་བཏང་གན	-9.14811
▁དེས་སྨྲས་པ་	-9.14862
བྱ་རྒྱུའི་	-9.14916
ངོས་ལ་	-9.14952
ི	-9.15001
་ཞབས་ལ་མགོ་བོས་	-9.15008
བྱམས་བརྩེ་	-9.1507
བཅས་ལ་	-9.15083
སྙམ་ནས་	-9.15228
སེམས་ཀྱི་	-9.15231
་ཡ་	-9.15328
འདས་པའི་དུས་ན་	-9.15335
ཐེ་ཚོམ་	-9.1537
ང	-9.15429
▁ཕྱི་ལོ་གཟའ་ཟླ་བ	-9.15535
ནོར་བུ་རིན་པོ་ཆེ	-9.15625
སྒོམ་	-9.15679
ནུས་	-9.15698
ཉམས་	-9.15857
དཀར་	-9.1595
བཙུགས་	-9.16146
ཙམ་མ་ཟད	-9.1617
ངང་	-9.16202
ང་ཚོར་	-9.16224
མཐུན་སྒྲིལ་	-9.16292
པོར་	-9.16343
ཕྱིན་	-9.16363
▁བོད་མི་	-9.16419
པར་འགྱུར་	-9.16523
གང་ལ་	-9.16555
རྒྱུའི་གོ་སྐབས་	-9.16683
པའི་ཚུལ་གྱིས་	-9.16698
རིམ་བཞིན་	-9.16732
གཞིར་བཟུང་	-9.16792
ནད་ཡམས་	-9.16812
དེའི་ཕྱིར་	-9.16881
འདུག་	-9.16984
ཐུབ་པའི་	-9.17152
གང་གི་ཚེ་	-9.17299
པད་མ་	-9.17336
ཕྱོགས་གཅིག་ཏུ་	-9.17444
དགྲ་བཅོམ་པ་	-9.17498
ཆད་	-9.17636
ལམ་ཡན་ལག་བརྒྱད་པ	-9.17639
འཇམ་དཔལ་གཞོན་ནུ	-9.17887
གཅིག་པུ་	-9.17924
ཀུན་ནས་	-9.17967
སྟོང་པ་	-9.17972
▁ཁ་ཅིག་ནི་	-9.17978
དུ་མ་	-9.1799
བྱེད་པའི་	-9.18015
ལག་པ་	-9.18125
ངོ་་་	-9.18157
▁ད་ལྟ་	-9.18216
པ་རྣམས་	-9.18229
ཚངས་པའི་	-9.18247
སོགས་ལ་	-9.18315
ཞིབ་འཇུག་	-9.18549
སོགས་ཀྱི་སྐོར་	-9.18574
གྱུར་ཏོ་་	-9.18608
རྩ་བ་ནས་	-9.18666
ྤྱི་མཐུན་རྒྱལ་ཁབ	-9.18717
བསྐྱོད་	-9.18814
སློབ་གཉེར་	-9.18944
བདག་ཅག་གིས་	-9.18976
དམིགས་ཡུལ་	-9.1914
ཡི་་	-9.19164
རྒྱུན་	-9.19164
ཞི་བ་	-9.19174
སྡོད་	-9.19276
པ་ཞིག་	-9.19316
▁རིགས་ཀྱི་བུ་དག་	-9.19414
ས་གནས་སུ་	-9.19488
ར་བྱའོ་་	-9.19583
བྱིན་	-9.19771
དེ་ནས་ཕྱི་ཞིག་ན་	-9.19778
རྡུལ་	-9.19824
ནས་བཏང་གན	-9.19883
ཁག་གཅིག་	-9.19918
ཡོངས་ལ་	-9.19952
ཚང་མར་	-9.19978
འདི་བཞིན་	-9.20073
ཟུར་	-9.20228
ཁོ་ན་	-9.2024
སྐྱེ་བ	-9.20242
རྩ་བ་	-9.20299
བོད་མི་རྣམས་ལ་	-9.20313
བཅས་ནས་	-9.20382
ཕྲན་བུ་	-9.20426
མཆིས་	-9.20525
རིམ་པ་	-9.20617
སྤྱན་རས་གཟིགས་	-9.20623
མད་གལ་གྱི་བུ་	-9.20822
རྒྱན་	-9.20956
ཐེངས་འདིར་	-9.2096
གཅིག་ཏུ་	-9.21063
རྩིས་	-9.21107
དབྱངས་	-9.21114
རྫོགས་	-9.2113
ཞི་བའི་	-9.21139
▁རྒྱལ་པོ་	-9.21165
དེའི་ནང་	-9.21196
གྲོས་ཚོགས་ནང་	-9.21203
▁ཨ་རིའི་	-9.21395
ཚེ་རིང་	-9.21518
ནུབ་	-9.2153
ཡོད་ན་	-9.21622
ཐག་གཅོད་	-9.21755
ཤོག་	-9.21773
སྣ་	-9.21838
གསུངས་	-9.21891
ཕན་ཐོགས་	-9.21949
འགན་	-9.22024
ཞེས་བྱ་བར་	-9.22069
ན་ནི་	-9.22069
ཀྱི་བསྟན་པ་ལ་	-9.22152
པ་ནི་	-9.22186
ལམ་ལུགས་	-9.22368
བརྒྱ་བྱིན་	-9.2243
སྙིང་	-9.22481
འགོ་ཁྲིད་	-9.22494
▁ཞེས་གསུངས	-9.22544
མངོན་པར་འདུ་	-9.22607
བྱུང་བའི་	-9.22642
ཛ་དྲག་	-9.22705
སྤྲུལ་པ་	-9.22762
ཡིན་ཞེ་ན་	-9.2278
དྲིལ་བསྒྲགས་	-9.22788
བྱང་ཆུབ་མངོན་པར་	-9.22915
ངོ་རྒོལ་	-9.22973
▁ཁྱིམ་བདག་དེ་ལ་	-9.23014
་སྤྱན་རས་གཟིགས་	-9.23077
དུས་རྟག་ཏུ་	-9.23168
ཀླུ་	-9.23192
བྱེད་རྒྱུ་	-9.23199
ོ་	-9.23201
འཕེལ་	-9.23204
དོན་གྲུབ་	-9.23211
བརྗོད་པ་	-9.23243
གྲོགས་པོ་	-9.23275
འཁོར་ལོ་	-9.23281
འབྱུང་བ	-9.23283
སྡེ་ཚན་	-9.23286
བདུད་	-9.23306
ཚོགས་མི་	-9.23412
བསམ་ཚུལ་	-9.23435
སོང་སྟེ་	-9.23503
འཇིགས་པ་	-9.23507
ལྡན་པའི་	-9.2354
་སྟེ་	-9.23561
ཐམས་ཅད་དུ་	-9.23572
སྲིད་	-9.23617
དོན་དུ་	-9.2362
མ་ཡིན་པ་	-9.23627
གཉིས་ཀྱིས་	-9.23664
ངན་	-9.23812
འོད་སྲུང་	-9.23926
གཤེགས་	-9.23969
མཚན་མ་	-9.24067
སྤྱི་དང་	-9.24117
རྣམས་ཡིན་	-9.24223
ཆགས་ཀྱི་ཡོད	-9.2426
གཞན་ལ་	-9.24344
▁དེ་ཚེ་	-9.24407
སོང་སྟེ་ཕྱིན་ནས་	-9.24615
ཧི་མ་ཅལ་མངའ་སྡེ	-9.24615
ད་ལྟའི་	-9.24765
དོན་ཚན་	-9.24776
ལས་འགུལ་སྤེལ་	-9.24953
ནི་མིང་ཙམ་སྟེ་	-9.25019
བཟོད་	-9.25049
ཡར་	-9.25204
མདུན་དུ་	-9.25211
འི་སེམས་	-9.25277
བྱས་ན་	-9.25478
སྲིད་སྐྱོང་བློ་	-9.2549
ལྟ་བུའི་	-9.25511
འདུགསྐབས་དེར་	-9.25513
སྐྱབས་	-9.25562
ཡོངས་སུ་དག་པ་	-9.25622
གང་ཞིག་	-9.25819
རང་ཉིད་	-9.25939
མཐོ་སློབ་	-9.26058
སླེབས་	-9.26154
ཇི་སྙེད་པ་ཉིད་	-9.262
ཐུག་	-9.2628
གང་ཡིན་	-9.26294
སེ	-9.26512
དམིགས་པ་	-9.26598
▁རྒྱ་ནག་	-9.26612
འབྲས་	-9.26752
ཕ་རོལ་	-9.26846
རྣམ་པར་གྲོལ་བ་	-9.26861
ཟད་	-9.26917
པར་བརྟེན་	-9.26971
འདོད་པའི་	-9.27022
ཡོད་པ་དེ་དག་	-9.27022
སི་	-9.27092
སྙིང་རྗེ་ཆེན་པོ་	-9.27131
སུམ་ཅུ་རྩ་གཉིས་	-9.27193
འདས་གྲོངས་སུ་	-9.27271
འཐབ་རྩོད་	-9.27412
ཕན་	-9.27582
▁ཅེས་སོགས་ཀྱི་	-9.27726
རྒྱ་ཆེར་	-9.2773
ཐམས་ཅད་ལ་	-9.2778
ར་འགྱུར་རོ་	-9.27788
མོད་ཀྱི་	-9.27953
གཏམ་	-9.28039
བྱམས་བརྩེའི་	-9.28049
ཡོངས་སུ་འཛིན་པ་	-9.2814
བསམ་བློ་གཏོང་	-9.28158
སྲིད་སྐྱོང་	-9.28237
▁འདི་ལ་	-9.28282
ཆོས་ལ་	-9.28283
ཐལ་མོ་སྦྱར་	-9.28365
ཡིག་	-9.28396
ཀུན་འབྱུང་བ་ཤེས་	-9.28449
ཆོས་ཐམས་ཅད་ནི་	-9.28504
བ་མ་ཟད	-9.28524
རྣམ་པར་དག་པ་	-9.28545
ཁུལ་གྱི་	-9.28666
ཝ་	-9.28733
གནོད་པ་	-9.28778
བཅད་	-9.28875
འོས་	-9.28975
དབུ་འཁྲིད་	-9.29083
བྱུང་བ་རེད	-9.29084
བྱུང་ནས་	-9.2922
དེ་བཞིན་ཉིད་	-9.29228
བརྟག་དཔྱད་	-9.29309
ཕྱི་ལོ་གཟའ་པ་སངས	-9.29366
བཙན་བྱོལ་དུ་	-9.29392
ཞེས་པ་	-9.29438
བླ	-9.2947
དུས་རབས་	-9.29527
མང་བ་	-9.29673
་འཐུས་ཚོགས་གཙོ	-9.2968
ཕྱོགས་སུ་	-9.29682
བསྒྱུར་	-9.2973
རིམ་	-9.29792
གོ་སྒྲིག་	-9.29797
དེའང་	-9.29807
འབྱུང་འགྱུར་	-9.29811
ཡོངས་	-9.29896
མཛེས་	-9.29899
དགོངས་པ་	-9.29908
གོ་སྐབས་	-9.29932
ཤི་	-9.29941
བདེ་སྲུང་	-9.3
ཤེས་རིག་	-9.30041
གནང་བ་	-9.30049
སྔར་	-9.30101
ཞུ་རྒྱུ་དང་	-9.30217
རླབས་ཆེན་གྱི་	-9.30309
བརྒྱུད་ནང་བསྟན་	-9.30317
དྲན་པ་	-9.30446
དངུལ་	-9.30502
བོད་མིའི་སྒྲིག	-9.30646
སྨན་པ་	-9.30683
ནང་པའི་	-9.30729
རྗེས	-9.30763
པ་ལས་	-9.30826
ཐེངས་	-9.30852
གདུགས་	-9.30899
བྱང་ཆུབ་ཀྱི་སེམས	-9.30921
ཚོགས་ཁང་དུ་	-9.30929
ཆོས་ཀྱི་འཁོར་ལོ་	-9.30931
ཞི་བདེའི་	-9.31005
སྲོལ་རྒྱུན་	-9.31014
སྒྲིག་འཛུགས་ནས་	-9.3105
བདག་པོ་	-9.31084
གཙུག་ལག་	-9.31091
གཙུག་ལག་ཁང་	-9.31139
▁གསོལ་པ་	-9.31158
སྦྱོར་བ་	-9.31181
▁དེ་སྔ་	-9.3123
མངོན་	-9.31357
འདྲ་མིན་	-9.31577
▁བཙན་བྱོལ་བོད་མི	-9.31661
མོས་	-9.31671
ཁོ་ནར་	-9.31691
ཆེ་བ་	-9.3174
མི་དམིགས་	-9.31879
་དེ་ལ་	-9.31884
▁འཕགས་པ་	-9.31887
ཚོགས་ཆུང་	-9.31905
ལྷའི་དབང་པོ་	-9.31911
པར་གྱུར་ཏེ་	-9.31933
འབྱུང་བར་འགྱུར་	-9.32006
འཛུགས་སྐྲུན་	-9.32029
ལ་གནས་པ་	-9.32035
ཀྱང་མིང་ཙམ་	-9.32038
ཞེ་ན་	-9.32144
ཀུན་གྱིས་	-9.32193
བཀའ་ཤག་གི་	-9.32227
སའི་	-9.32238
བཟང་སེངྒེ་མཆོག་	-9.32299
གནས་བབ་	-9.32345
བབ་	-9.32432
་ཆེན་རིན་པོ་ཆེ་	-9.32501
་རེད	-9.32555
ཁོང་གི་	-9.3259
བས	-9.32775
ཕྱི་དྲིལ་	-9.32796
ཚོགས་ཆེན་	-9.32799
གྲགས་	-9.32875
ཁྱོན་	-9.32899
དགེ་སློང་དག་	-9.32974
གཅིག་གི་	-9.33025
རླུང་	-9.33103
ཕྱི་རྒྱལ་	-9.33131
མི་སྐྱེ་བའི་ཆོས་	-9.33144
ཞི་བདེ་	-9.33221
བྱ	-9.33231
ཡོང་བའི་	-9.33254
ཁོང་དུ་ཆུད་པ	-9.33281
རྣམ་པ་སྣ་ཚོགས་	-9.33313
▁ཅེས་དང་	-9.33407
དགུ་	-9.33461
མདོ་	-9.33497
ཤུགས་	-9.33532
ཆོས་ཉིད་	-9.33569
ཁྲོད་	-9.33599
འཚོ་བ་	-9.33606
ཡང་དག་པར་རབ་ཏུ་	-9.33639
་ལ་བ་དེ་ལོགས་སུ་	-9.33771
ཡིན་སྟབས	-9.33779
བྱེད་དོ་་	-9.33792
ད་ལྟར་	-9.338
ལུས་ཀྱི་	-9.33931
དུ་དེ་ལྟར་	-9.34068
ཞེས་བྱ་བ་ནི་	-9.34118
ཟེར་བ་དེ་	-9.34129
མ་འོངས་པར་	-9.34166
ཁག་ལ་	-9.3417
ར་འགྱུར་བའི་ལམ་	-9.34225
སྲས་	-9.34253
ལུགས་	-9.34283
ཆེད་མངགས་	-9.34283
རོགས་དངུལ་	-9.34416
དགོངས་	-9.34493
དཔལ་ལྡན་ཚོགས་གཙོ	-9.345
སྙན་	-9.34547
བྱའོ་་	-9.34645
རྒྱུ་མཚན་	-9.34665
ཉི་ཤུ་	-9.34765
ཁ	-9.34778
བྱེད་པ་དང་་	-9.3479
ལ་སོགས་	-9.348
བཤེས་གཉེན་	-9.34812
རྫོགས་པར་འཚང་རྒྱ	-9.35031
ཀུན་གྱི་	-9.35032
དངོས་པོ་མེད་པའི་	-9.35039
ངམ་	-9.3505
གསོལ་	-9.35137
འདས་པའི་དུས་	-9.35214
དེའི་ཐོག་	-9.3525
དེ་གཉིས་	-9.35254
ཆོས་རིག་བཀའ་བློན	-9.35373
ས་ནི་	-9.35412
ལ་སོགས་པའི་	-9.35415
ནམ་མཁའ་	-9.35453
ལོག་	-9.35537
མཛད་སྒོར་	-9.35601
▁གང་གི་ཚེ་	-9.35703
མཐུ་	-9.35717
གྲོལ་	-9.35749
བྷ	-9.35772
དགོས་པ	-9.3578
སྟངས་	-9.35857
བོད་ཡིག་	-9.35862
▁ཆོས་ཀྱི་	-9.35881
བོད་ལ་	-9.3599
ས་སྨྲས་པ་	-9.35999
ཞིག་ཡིན	-9.36041
པའི་ཐོག་ནས་	-9.36088
གྲགས་པ་	-9.36102
རྗེས་སུ་ལྟ་བ	-9.3625
▁བདག་ནི་	-9.3627
སྐྱེས་སོ་་	-9.36334
རེག་	-9.36365
ཞུས་ཡོད	-9.36369
་པདྨ་འབྱུང་གནས་	-9.36404
དེ་ཡིས་	-9.36472
ངོ་	-9.36483
ཐུགས་རྗེ་	-9.36551
ཚོ་	-9.36563
བརྒྱ་སྟོང་	-9.36571
ཡོང་གི་ཡོད	-9.36639
ཐུན་མོང་མ་ཡིན་པ	-9.36802
སྲིད་པ་	-9.36818
འདི་ན་	-9.36896
▁རྒྱ་གར་གྱི་	-9.37025
▁དེ་ནས་དགེ་སློང་	-9.37051
མིང་དོན་མཚུངས་པ	-9.37153
འདུག་པ་བཅས	-9.37183
རྣམས་དང་	-9.37236
ཤིང་རྟ་	-9.37296
བོད་བརྒྱུད་ནང་	-9.37301
མོ	-9.37376
ཞུས	-9.37503
འགན་ཁུར་	-9.37549
སྐོར་དང་	-9.37633
འི་ཕྱིར་རོ་་	-9.37649
གདན་	-9.37653
རང་སངས་རྒྱས་	-9.37746
ཕ་མ་	-9.37766
མཁས་	-9.37852
རྒྱ་ནག་མི་དམངས་ས	-9.37981
གང་གི་	-9.37997
གནང་ཡོད་པ་བཅས	-9.38061
ཡིག་ཆ་	-9.38075
རྟགས་	-9.38082
གོང་ས་	-9.38086
ཇི་	-9.38097
དག	-9.38119
ས་ལ་	-9.38166
སྙིང་སྟོབས་	-9.38277
དེ་ཐོས་མ་ཐག་ཏུ་	-9.38416
ཉེ་	-9.38417
དཀོན་མཆོག་	-9.38425
སྲིད་འཛིན་	-9.38449
སྐོར	-9.3846
▁ཐེངས་འདིར་	-9.38472
དང་བཅས་	-9.3853
སེམས་ཀྱིས་	-9.38557
སེམས་ལ་	-9.3864
ལྡན་པ་	-9.38716
ལ་སྤྱོད་པ་	-9.3876
ནས་སུ་་	-9.38785
ཆེ་བའི་	-9.38797
▁ཁྱོད་ཀྱིས་	-9.39241
རྒྱ་ཆེ་	-9.39315
གསར་འགོད་པ་	-9.39328
ཐད་ཀར་	-9.39352
ས་ཚེ་དང་ལྡན་པ་	-9.39411
སྤྲད་	-9.39731
མཛོད་	-9.39733
མ་ཡིན་ཏེ་	-9.39787
མ་སྐུ་	-9.3984
ཚང་	-9.39856
གསར་འགོད་	-9.39974
ལགས་ཏེ་	-9.39978
མྱ་ངན་ལས་འདས་པ	-9.40013
ཨ	-9.40016
སྡིག་པ་	-9.40016
ཛ	-9.40145
རྣམ་པ	-9.40285
མདོག་	-9.403
མ་ཐག་ཏུ་	-9.40368
ཆ་རྐྱེན་	-9.40424
བྱེ་བྲག་	-9.4043
ཚོའི་	-9.40518
▁ས་གནས་	-9.40551
དགེ་བཤེས་	-9.4059
གཤེགས་པས་ཡང་དག་པ	-9.40678
ཁ་ཤས་	-9.40912
བསོད་སྙོམས་	-9.40917
ལས་དོན་ཚོགས་ཆུང་	-9.40989
གཏན་འབེབས་གནང་	-9.41004
གྱུར་པ་	-9.41021
ཁང་གི་	-9.41069
ལ་རྒྱབ་སྐྱོར་	-9.41074
རྒྱུས་	-9.41149
ཅི་ཞིག་	-9.41188
▁ཀྱེ་མ་	-9.41209
བདེ་བར་	-9.41276
སྩལ་	-9.41299
འོས་བསྡུའི་	-9.41351
▁དེ་དག་ནི་	-9.41392
ཉེས་པ་	-9.41395
པར་གྱུར་པ་	-9.41465
སྤོས་	-9.41468
བྱེད་དགོས་པ་	-9.41493
ཉིད་དུ་	-9.41679
རྐང་པ་	-9.41724
ཡང་མ་ཡིན་	-9.41735
སོ་སོ་ཡང་དག་པར་	-9.41741
སྨིན་	-9.41745
སྔགས་	-9.4177
རྐང་	-9.41784
ཞིང་་་	-9.41853
སྟོན་པ་སངས་རྒྱས་	-9.41855
སྐད་ཅེས་གསོལ་ཏོ་	-9.42042
བསྙེན་པར་རྫོགས་པ	-9.42059
ྭ་བརྒྱད་ཀྱི་བར་	-9.42081
ལྔ་བརྒྱ་	-9.42117
མཛེས་པ་	-9.42123
གཞུང་མང་གཉིས་ལ་	-9.42124
ཆོས་ཀྱི་དབྱིངས་	-9.42134
བཏང་ནས་	-9.42277
དཔེ་དེབ་	-9.42333
མཚོ་	-9.42339
རྣམ་པར་ཤེས་པའི་	-9.42344
▁འདི་	-9.424
སྐྱེ་བོ་	-9.42451
སྡུག་	-9.42451
ཡིན་སྟབས་	-9.42605
པ་དེ་	-9.4262
རྒྱལ་པོ་ཆེན་པོ་	-9.42735
ཞིག་རེད	-9.42748
འདིའི་ནང་	-9.42813
པ་དག་	-9.42922
རྟོགས་པ་	-9.42959
▁སྤྱི་འཐུས་	-9.42997
ཉིན་མོ་	-9.43045
དང་མི་རྣམས་ཀྱི་	-9.43049
འགྲུབ་	-9.43059
དང་ལྡན་	-9.43065
འདུས་པ་	-9.43072
ཁྱོན་མི་གྲངས་	-9.43091
འཕགས་	-9.43206
གྱུར་ཅིག་	-9.43243
ཐབས་ལམ་	-9.43279
གནས་མཆོག་	-9.43311
ས་ཆ་	-9.43315
བློན་པོ་	-9.43396
སྨན་བཅོས་	-9.43485
བསྒྲུབ་	-9.43538
བྱང་	-9.43558
གམ་	-9.43594
འཚལ་	-9.43611
ཉམ་ཐག་	-9.43619
མདའ་	-9.43653
འཛུགས་	-9.43673
ར་བྱེད་དོ་་	-9.43717
གཞུང་གི་	-9.43829
འདྲེན་པ་	-9.43842
ེན་	-9.43849
གནང་གི་ཡོད	-9.4389
ཉམས་ཞིབ་	-9.439
མཁན་གྱི་	-9.44016
འཛམ་བུའི་གླིང་	-9.44023
རྒན་	-9.44084
ལུས་ལ་	-9.44108
▁དཔལ་ལྡན་	-9.44241
ས་གནས་ཀྱི་	-9.44329
ཨ་རི་	-9.44469
ཁྲིམས་ཞིབ་པ་ཆེ་བ	-9.445
ཤུགས་རྐྱེན་	-9.44524
མོས་པ་	-9.4457
སེམས་ཅན་དེ་དག་	-9.44636
འི་ཁ་ལོ་སྒྱུར་བ་	-9.44661
བསྟན་པའི་	-9.44672
སྤྲིན་	-9.44902
རྫས་	-9.44926
དབུ་	-9.44969
▁མཐོང་ནས་ཀྱང་	-9.44993
ཆོས་གླིང་	-9.45027
གསུངས་པ་	-9.45031
སྲོལ་	-9.45085
བྱས	-9.45112
དེ་ཙམ་	-9.45235
ཉི་ཧོང་	-9.45298
རྒྱག་	-9.45309
▁སེམས་	-9.45332
ཚོང་	-9.45379
རྙེད་པ་	-9.45423
བྲལ་	-9.4543
མཐོང་་་	-9.45433
ཡིན་པར་	-9.45451
གྲོས་མོལ་	-9.45469
ནས་བཟུང་	-9.45505
ཚོགས་དྲུང་ལ	-9.4555
ཉན་	-9.45681
རྣལ་འབྱོར་	-9.45728
སྐྱེས་ཏེ་	-9.45742
དཔལ་ན་ལེནྡྲའི་	-9.45927
སྒོ་ནས་	-9.46066
བོ་	-9.46109
ཆོས་ཐམས་ཅད་ཀྱི་	-9.46121
སྐྱེས་ནས་	-9.46169
འཇམ་དཔལ་	-9.46194
ནོ་་	-9.4626
▁དེ་རིང་འདིར་	-9.46299
དང་ཞབས་སུ་ལྡན་པ་	-9.46362
་གང་དག་	-9.46397
འཇུག་པ་	-9.46451
ར་བྱེད་	-9.46472
ལྷ་རྣམས་	-9.46476
ལམ་ནས་	-9.46494
སྤྱད་	-9.46543
་ཐམས་ཅད་	-9.46546
▁ང་	-9.4656
ཐུབ	-9.4671
ས་འདི་ལྟར་	-9.46735
ཁ་ཅིག་ནི་	-9.4674
བཞག་ནས་	-9.46749
ུ་	-9.46755
མང་ཚོགས་ལ་	-9.46772
མི་འགྱུར་་	-9.46822
སྟན་	-9.46869
ཤེས་པ་འདི་ལྟར་	-9.46892
ཞུས་པ་	-9.46932
མི་འདུག	-9.46934
་ཆེན་སྐུ་ཕྲེང་	-9.46968
ཆོས་སྐྱོང་	-9.47021
▁ཁ་ཅིག་གིས་ནི་	-9.47124
ཕྱག་ལས་གནང་	-9.47166
དྲག་	-9.47283
དུས་སུ་	-9.47323
ཁྱིམ་དུ་	-9.47408
▁མཐར་	-9.47425
རེད་ཅེས་	-9.47446
གནས་སོ་་	-9.47477
སློབ་ཚན་	-9.47485
དཀའ་	-9.47654
མཁན་ཆེན་ཞི་བ་འཚོ	-9.47655
པའང་	-9.47679
གནས་སུ་	-9.47691
དཔེར་ན་སྒྱུ་མ	-9.47704
▁འཇམ་དཔལ་གྱིས་	-9.47724
རང་ལུས་མེར་སྲེག་	-9.47734
སླར་	-9.47847
བརྒྱུད་ནས་	-9.4818
ོན་	-9.48217
ཡིན་པས་	-9.48295
▁ང་ཚོའི་	-9.48319
འི་སྐྱེས་བུ	-9.48351
འཁོད་དོ་་	-9.48378
རྣམས་སུ་	-9.48437
མཐོང་ན་	-9.48564
མཉམ་པ་ཉིད་	-9.486
རྩོམ་	-9.48657
གནད་ཡོད་མི་སྣ་	-9.48675
བསོད་ནམས་ཀྱི་	-9.48729
བར་འགྱུར་རོ་་	-9.48768
ཚོགས་གཞོན་	-9.4879
འཚེ་མེད་ཞི་བའི་	-9.48815
དམག་	-9.48847
དོ་སྣང་	-9.48921
ངོ་མཚར་	-9.48961
ཕྱུག་ཅིང་ནོར་མང་	-9.48968
གོ་སྒྲིག་འོག་	-9.49008
བླ་ན་མེད་པ་ལྷ་	-9.49063
བཀའ་སློབ་སྩལ	-9.49189
་དེ་ཡི་	-9.4923
གསར་	-9.49368
པོའི་	-9.49405
བྱམས་པ་	-9.49424
ཡོད་མེད་	-9.49563
དགོན་པའི་	-9.49653
རྒྱུ་ཡིན	-9.49678
བཅུ་གཉིས་	-9.49681
པོ	-9.49704
སྐད་ཆ་	-9.49804
འོད་སྲུང་གིས་	-9.49828
གཅོད་	-9.4984
གང་ཡིན་པ་	-9.4985
▁མ་འོངས་པར་	-9.49904
དགོས་རྒྱུ་	-9.49974
དགྲ་	-9.50108
རོགས་རམ་	-9.50119
ལགས་ན་	-9.50186
བཅར་	-9.50197
གནང་སོང་	-9.50213
འཁོར་བའི་	-9.50227
མི་སྣ་	-9.50265
དེས་བསམས་པ་	-9.50298
ས་ཀྱང་	-9.50344
གསར་འགྱུར་	-9.50374
མི་མང་གི་	-9.50383
འཕྲད་	-9.50389
ཡིན་པའི་	-9.50414
ནང་ཁུལ་	-9.50418
ོགས་	-9.50438
བོད་མི་རིགས་ཀྱི་	-9.5049
གྲོས་ཚོགས་འོག་མ	-9.50543
སྐྱེ་མཆེད་	-9.50545
བསླབ་པ་	-9.50587
བོད་ཀྱི་ཟློས་གར་	-9.50597
འཆར་གཞི་	-9.50621
མ་མཆིས་པ་	-9.50644
སྡུག་བསྔལ་གྱི་	-9.50672
དགོས་མཁོ་	-9.50719
ཨང་	-9.50722
བགྱིད་	-9.50755
ཞིག་གིས་	-9.50756
དབང་གིས་	-9.50815
བདེན་	-9.50818
ཀྱིས་སྨྲས་པ་	-9.50819
གྲ་སྒྲིག་	-9.50826
སྒྲིག་	-9.50856
ཡུལ་དུ་	-9.50867
རྒྱ་ནག་དམར་པོའི་	-9.50996
མི་འབོར་	-9.51018
▁རྟག་ཏུ་	-9.51024
འབབ་	-9.51034
ཆིབས་སྒྱུར་	-9.5108
ལས་ཀ་	-9.51172
ཆོས་རྣམས་ལ་	-9.51208
ཐོག	-9.5134
ཤུགས་ཆེན་པོ་	-9.51369
མཁས་དབང་	-9.51411
སུ་ཞིག་	-9.51423
ཡོད་དོ་་	-9.51452
་ཡིན་ནོ་་	-9.51492
ི་སྤྱད་པ་སྤྱོད་པ	-9.51561
ཡང་དག་པར་རྗེས་	-9.51569
ཡུན་རིང་	-9.51636
ཚུགས་	-9.51726
▁ལྷག་པར་དུ་	-9.5191
▁དགེ་སློང་དག་དེ་	-9.51928
སེང་གེ་	-9.51967
▁བསྐལ་པ	-9.52023
འགྲོ་བཞིན་ཡོད	-9.52076
ཉིད་ཀྱིས་	-9.5218
རི	-9.52238
གཙང་	-9.52285
འི་ཡེ་ཤེས་	-9.52301
བྱང་ཕྱོགས་	-9.52314
ཐོགས་	-9.52405
མཁྱེན་པ་ཉིད་ཀྱི་	-9.52421
མེད་ན་	-9.52451
ཚོགས་ཆུང་གི་	-9.52487
འི་བར་	-9.52544
གྲྭ་	-9.52563
མང་པོས་	-9.52658
བསྙེན་པར་རྫོགས་	-9.52669
གས	-9.5267
དཔག་ཏུ་མེད་པ་དག་	-9.52677
ཙམ་གྱི་	-9.52703
ལྟ་སྟེ་དཔེར་ན་	-9.52721
གཟུགས་ཀྱི་	-9.52824
སློབ་གྲྭ་ཁག་གི་	-9.52864
ཁྱོད་ནི་	-9.52954
བ་ར་	-9.52959
རྟག་པར་	-9.52992
ནི་ཆོས་	-9.52994
མཛད་འཕྲིན་	-9.53133
▁བདག་གི་	-9.53195
སྐོར་ངོ་སྤྲོད་	-9.53293
ཡར་རྒྱས་གཏོང་	-9.53336
ཕྱེད་	-9.53351
▁རྒྱལ་པོ་ཆེན་པོ་	-9.53393
འི་རྨི་ལམ་ན་	-9.53394
ལགས་སོ་	-9.53408
གཙོས་	-9.53552
སྲུང་བརྩི་ཞུ་	-9.53611
བྱེད་སྐབས་	-9.53619
་རྣམས་ལ་	-9.53629
ཨིན་ཡུལ་	-9.5365
ང་རྒྱལ་	-9.53668
རྒྱབ་	-9.53703
▁ལ	-9.53743
པདྨ་	-9.53779
མངའ་	-9.53874
བླངས་ནས་	-9.53887
▁གྲོས་ཚོགས་	-9.53912
▁ད་ལྟའི་	-9.53937
ཞུ་རྒྱུའི་	-9.53994
ཕོག་	-9.54028
པར་གྱུར་ནས་	-9.54079
ཐར་	-9.54093
གསུམ་པ་	-9.54112
ལྷ	-9.54115
ཡང་དག་པའི་	-9.54132
མི་དམིགས་སོ་་	-9.5416
གསར་འཛུགས་	-9.54178
ཡིན་ལ་	-9.54205
བསྟུན་	-9.54381
དེབ་	-9.54414
སྤྱོད་ལམ་	-9.54429
རྣམ་དག་	-9.54471
བཞེངས་	-9.54488
▁བོད་ནང་	-9.54536
རྒྱུ་རེད	-9.54541
ཕེབས་ཡོད	-9.54599
མ་ཟད	-9.547
ཆེན་པོར་	-9.54794
ས་བོན་	-9.54979
འཇིག་རྟེན་ན་	-9.54987
ངོས་	-9.55022
པ་ཡིན་	-9.55111
མི་འཇིགས་པ་	-9.55112
གསེར་གྱི་	-9.55211
▁ཀྱེ་	-9.55212
ཡབ་	-9.55215
བོད་མིར་	-9.55272
པ་ཡི་་	-9.55375
པ་ཡིན་ན་	-9.55415
རྡ་ས་	-9.55442
གཙུག་ལག་ཁང་དུ་	-9.55521
མངོན་པར་ཤེས་པ་ལྔ	-9.55552
རྟེན་གཞི་བྱས་པ	-9.55565
སོན་	-9.55583
རེ་བ་	-9.55637
བསྐྲུན་	-9.55667
བླ་མ	-9.55671
མངོན་དུ་	-9.55686
མི་རྣམས་	-9.557
ཁྱེའུ་	-9.55706
རྩི་	-9.55922
གང་ལྟར་	-9.55937
རྨི་ལམ་	-9.56
ཐེག་ཆེན་	-9.56002
དགའ་ལྡན་	-9.56083
ཡོད་སྟབས་	-9.56109
བོད་དང་	-9.56157
▁ཨོ་	-9.56184
ཟིན་པ་	-9.56198
གྱུར་ཏེ་	-9.56217
ཡོད་པ	-9.56258
ཚོད་	-9.5627
ཁུལ་	-9.56303
བརྒྱ་སྟོང་ཕྲག་	-9.56321
་ཡིན་སྙམ་འམ་	-9.56322
བཟུང་ནས་	-9.56395
དེས་ཀྱང་	-9.56408
བོད་དོན་ལས་འགུལ་	-9.56569
གང་ཐུབ་	-9.56583
མེད་པ་དང་	-9.56614
ཁག་གཅིག་གིས་	-9.56631
ལ་ཚེ་དང་ལྡན་པ་	-9.56795
ཚངས་པ་	-9.56831
རྩེ་	-9.56837
གསོལ་འདེབས་	-9.56888
གཞན་དུ་	-9.56898
འདོད་ཆགས་དང་བྲལ་	-9.56979
ཞབས་སོར་འཁོད་	-9.56979
པ་ལ་	-9.57033
གདོང་	-9.57071
དད་	-9.57075
རྒྱ་གར་གཞུང་གིས་	-9.57079
གནང་བ་མ་ཟད	-9.57082
ཤེས་སོ་་	-9.57094
ལྷ་མོ་	-9.57124
རྒྱུན་དུ་ཞུགས་པ	-9.57209
འགོག་དབྱེ་ཟུར་	-9.5722
ཁྱིམ་ཚང་	-9.57285
པའོ་	-9.57287
གནང་རྒྱུ་	-9.57294
ཡིད་ལ་བྱེད་པ་	-9.5731
▁ཆོས་ལུགས་	-9.5731
སྟོང་ཕྲག་	-9.57316
ངོ་སྤྲོད་གནང་	-9.57354
སྦྱར་	-9.57364
མཛད་པའི་	-9.57377
གསུང་བཤད་	-9.57429
གྲོང་	-9.5747
སེམས་བསྐྱེད་པ་	-9.57586
ཚལ་	-9.576
སྒོར་	-9.57601
ཐང་གི་གནས་སྟངས་	-9.57612
ཁྲིད་	-9.57796
རམ་	-9.57871
ཡེ་ཤེས་ཀྱི་	-9.57955
ཁོངས་	-9.5801
ས་ནས་	-9.58078
དེ་ཚོའི་གྲས་	-9.58164
བཅོམ་ལྡན་འདས་དེ་	-9.58258
ཕྱིར་མི་ལྡོག་པ	-9.58307
ཀླུའི་རྒྱལ་པོ་	-9.58418
མེད་དོ་	-9.58502
དྲི་བ་	-9.58585
རིན་པོ་ཆེ་མཆོག	-9.58599
རྒྱས་པར་	-9.58625
▁ད་ལྟའི་ཆར་	-9.58694
ཞེས་བྱ་བ་དང་་	-9.58777
འཛོམས་	-9.58782
ཐོག་ལ་	-9.58792
རྒྱུན་སྐྱོང་	-9.58832
བཏོན་	-9.58909
ཡིན་པ་མ་ཟད	-9.58931
ཕར་	-9.58954
འི་འབྲས་བུ་	-9.59045
བླངས་ཏེ་	-9.59074
གྲོགས་	-9.59091
རྒྱུན་ལས་	-9.59094
གཞན་དག་	-9.59112
ཞིག་ཆགས་ཡོད	-9.59142
ཀྱི་དབང་པོ་	-9.59235
ཙམ་ལ་	-9.59248
གཞི་རྩའི་	-9.59251
ཀུ་	-9.59261
▁ལུས་	-9.5927
ལག་བསྟར་བྱེད་	-9.59274
གོ་སྒྲིག་གནང་	-9.59325
ཚེས་	-9.59372
སྟན་ལས་ལངས་ཏེ་	-9.59395
ལས་ཁུངས་སུ་	-9.59416
ལྟར	-9.59478
ནོར་བུ་	-9.5953
རབ་འབྱོར་གྱིས་	-9.59627
དང་སྦྲགས	-9.59682
གི་དགེ་འདུན་	-9.59749
གཞུང་གིས་	-9.59772
་སངས་རྒྱས་	-9.59793
གནང་རོགས	-9.59807
་གོས་ཕྲག་པ་གཅིག་	-9.59901
ཚོགས་ཁང་ནང་	-9.59979
གོང་ས་ཏ་ལའི་བླ་མ	-9.60022
བྱེད་དགོས་པའི་	-9.60096
ཆོག་	-9.60097
འི་སླད་དུ་	-9.6011
ཡོང་བར་	-9.60141
ཀྱི་རང་བཞིན་	-9.60158
ལྷུང་བཟེད་	-9.60201
པ་རྣམས་ཡིན་	-9.60217
ཉ	-9.60293
འདུས་	-9.60398
མ་གྱུར་ཅིག་	-9.60442
ཧ་	-9.60495
འདྲེན་	-9.60555
པར་བྱའོ་་	-9.6056
མན་	-9.60654
གནང་ཡོད་པ་དང་	-9.60668
སེམས་བསྐྱེད་	-9.6069
གནོད་	-9.60724
གཞག་	-9.60735
གང་དང་གང་	-9.60745
ཟེར་	-9.60751
བཀུར་སྟི་	-9.60863
བྱིན་གྱིས་བརླབས་	-9.60963
ཀུན་དགའ་བོས་	-9.6098
ཀྱི་ཡོད	-9.61083
རིན་ཐང་	-9.61144
ཉེན་	-9.61176
ཚན་རིག་	-9.61187
སྒྲིག་འཛུགས་དང་	-9.61188
རིག་པའི་	-9.61285
ཐ་སྙད་	-9.6139
བསྔགས་པ་	-9.61428
འཆར་	-9.61461
ཡོད་དེ་	-9.61524
▁བརྟན་པའི་	-9.61531
གསང་	-9.61539
དཀའ་བ་	-9.61541
ར་ལན་གསུང་བ་ནས་	-9.61614
བྱས་པ་རེད	-9.61653
སྒྲུབ་པ་	-9.61738
དཔག་ཏུ་མེད་	-9.61749
ཁྱུ་མཆོག་	-9.61755
སྐྱོར་ཚོགས་པ་	-9.61772
ཡོ་བྱད་	-9.61851
རྣམ་པར་རྟོག་པ་	-9.61914
▁བཞི་གང་ཞེ་ན་	-9.61986
གྲངས་མེད་	-9.62036
རོགས་སྐྱོར་	-9.62036
བསྡད་	-9.62053
ནའང་	-9.62055
ལེགས་སོ་ལེགས་སོ་	-9.62069
སྦྱོང་	-9.62084
ནད་པ་	-9.62106
གཞིས་	-9.62151
སྤྲོད་	-9.62161
བརྟན་	-9.62184
ཁར་	-9.62354
གནང་བར་	-9.62474
ཕྱིས་	-9.62475
▁དེས་ན་	-9.62478
ཡང་ཆེས་ཕ་རོལ་ན་	-9.6248
རྫུ་འཕྲུལ་གྱི་	-9.62535
ཝ	-9.62648
ལས་ཀྱི་	-9.62668
ཞུགས་པ་	-9.62692
བོད་དུ་	-9.62762
དོན་དམ་པར་ན་	-9.62763
ཛ་དྲག་གི་	-9.62844
ཀློག་	-9.62866
ཚུར་	-9.62875
གསལ་པོ་	-9.62879
▁དགེ་བའི་རྩ་བ་	-9.62951
འདུགདེར་བརྟེན་	-9.63014
གཅིག་གིས་	-9.63015
ཆུའི་	-9.63088
ཕྱི་ལོ་གཟའ་ལྷག་པ	-9.63102
འདི་སྐད་དུ་	-9.63102
ཁོ་བོས་	-9.63114
ཚོགས་ཆེན་ཐེངས་	-9.6313
ཡང་མེད་	-9.63156
སྐྱོན་བརྗོད་	-9.63331
ཅིའི་ཕྱིར་	-9.63377
གཉིས་སུ་	-9.63461
རྣམས་ཡིན་ནོ་	-9.63624
གཞིས་ཆགས་སུ་	-9.63659
དེ་དག་དང་ལྡན་ན་	-9.63725
བྱེ་བ་	-9.63727
རྩལ་	-9.63815
སྐྱབས་རྗེ་	-9.63849
སྲིད་གཞུང་གིས་	-9.63852
དགའ་མགུར་སྤྱོད་	-9.63905
འདི་ཡང་	-9.63997
རིང་ལུགས་	-9.64019
ཞིག་དང་	-9.64044
ཡིན་ཡང་	-9.64053
བློ་བཟང་	-9.64058
ལ་གནས་ནས་	-9.64099
འདས་	-9.64149
འདེབས་	-9.64152
ཆུ་ཚོད་	-9.64309
▁ཤེས་རབ་	-9.64357
ཐག་	-9.64384
འདུ་བྱེད་རྣམས་	-9.64437
དང་འབྲེལ་བ་	-9.64441
▁དཔེར་ན	-9.64473
རང་རང་གི་	-9.64488
བྱང་ཨ་རིའི་	-9.6454
རྟོག་ཞིབ་	-9.64614
རབ་འབྱོར་གཞན་ཡང་	-9.64654
ཀརྨ་དགེ་ལེགས་	-9.64659
འཚོ་	-9.64702
ཆོས་གོས་	-9.64728
རྩོད་	-9.64744
ཡང་དག་པ	-9.64785
གཡོག་	-9.64814
བྱས་རྗེས་	-9.64815
ཆས་	-9.64922
གྱུར་ཅིག་མི་	-9.64958
ཡིད་ལ་	-9.64969
མང་དུ་	-9.64978
ཆེན་མོ་	-9.64989
▁ཉེ་ཆར་	-9.65005
མེད་པས་	-9.65049
ཤེས་ཡོན་གྱི་	-9.65057
དགའ་ལྡན་ཕོ་བྲང་	-9.65071
འབྲེལ་ལམ་	-9.65097
ཇི་སྙེད་	-9.65235
ལས་ཀྱང་	-9.65262
ལེ	-9.65264
བརྟུལ་ཞུགས་	-9.65316
ཕྲེང་བཅུ་བཞི་པ་	-9.65382
ར་མི་འགྱུར་རོ་་	-9.65386
ཡིན་པར་སེམས་ན་	-9.65435
ལ་མཁས་པ་	-9.65439
སྐྱེ་བོ་ཕལ་པོ་ཆེ	-9.65447
▁ཁྱོད་	-9.65449
སྐྱེས་པའི་	-9.65454
པར་བྱེད་	-9.65473
ཀར་	-9.65534
འི་ཚིག་བླ་དགས་	-9.65602
བཟུང་	-9.65634
རྒྱལ་པོའི་ཁབ་	-9.65674
བཅོས་	-9.657
འབྱུང་བར་	-9.65705
རབ་ཏུ་འབྱུང་བ་	-9.65719
ཚབ་ཞུས་ཏེ་	-9.65724
བྱ་་	-9.65894
ཡོན་	-9.65997
གྱ	-9.66
དགེ་འདུན་གྱི་	-9.66012
ལས་དེའི་	-9.66012
ངན་པ་	-9.66073
ལྡི་ལི་	-9.66092
ཁམས་ཤེས་པ་འགོག་པ	-9.66214
བཞིན་་	-9.66223
ལེན་པ་	-9.66229
ཕུན་ཚོགས་	-9.66286
རིག་གནས་	-9.66356
བརྙན་འཕྲིན་	-9.66388
མངོན་སུམ་དུ་བྱས་	-9.66389
སྐབས་སུ་	-9.66442
སྩལ་དོན	-9.66473
འགྲོ་བར་	-9.66495
ཕྱོགས་བཅུའི་	-9.66532
ཞིག་ཏུ་	-9.66535
ཉེ་ཆར་	-9.66556
བསྐྱར་གསོ་	-9.6662
མང་གཙོ་	-9.66656
▁ཞེས་པའི་	-9.66684
རྡོ་	-9.66707
མཛད	-9.66731
སྨད་	-9.66735
མཉམ་ཞུགས་གནང་	-9.66736
བྱུང་་་	-9.66753
སེམས་ཁམས་	-9.6678
ཟབ་མོ་	-9.66794
འགོ་འཛུགས་	-9.66806
ལོན་	-9.66817
ཀི་	-9.66825
ཏིང་ངེ་འཛིན་གྱི་	-9.66837
▁བུད་མེད་	-9.6687
ཡོད་ནའང་	-9.66972
སྐྱོང་མཆོག་གིས	-9.66978
མུ་	-9.6701
མ་གཏོགས་པར་	-9.67014
སློབ་གསོ་	-9.67048
ལུང་བསྟན་	-9.67101
ར་གྱུར་པ་དེ་གཞན་	-9.67104
ཉམས་མྱོང་	-9.67144
མངའ་སྡེ་	-9.67155
སྨན་ཁང་	-9.67308
ཉིན་གྲངས་	-9.67365
སྤྱད་པ་	-9.67405
གོང་མ་	-9.67452
འི་གྲོས་ཚོགས་	-9.67454
འདུལ་	-9.67494
ཞེས་བྱ་བ་ནས་	-9.6752
དགེ་འདུན་པ་	-9.67653
བྱེད་དེ་	-9.67719
གར་སོང་ཆ་མེད་དུ་	-9.67758
▁མགོན་པོ་གང་ཉིད་	-9.67766
ཟབ་	-9.67768
བརྗོད་གཞིའི་ཐོག་	-9.67797
གཞལ་མེད་ཁང་	-9.6785
རི་དགས་	-9.67861
ངག་	-9.67899
འདུག་ནས་	-9.6793
▁ཡུ་རོབ་	-9.67982
པར་བྱེད་པ་	-9.67991
འགྲོ་བའི་	-9.68012
མཁས་པའི་	-9.68043
ཁེ་ཕན་	-9.68064
མེད་དེ་	-9.68075
སྐྱོང་	-9.68077
ལེགས་པར་གསུངས་པ	-9.68118
དང་་རང་སངས་རྒྱས་	-9.68135
བདེ་བའི་	-9.68159
མི་གཡོ་	-9.68202
པ་ཇི་སྙེད་པ་ཉིད་	-9.68239
མཆོག་གིས	-9.68322
རེ་ཞིག་	-9.68329
ཙམ་མིན་པར་	-9.68387
ནང་ཡོད་པའི་	-9.68461
བྱེད་བཞིན་པ་	-9.6848
ཡིད་ཀྱིས་	-9.68553
གྲས་	-9.68555
་དག་	-9.68599
འདུལ་བ་	-9.68607
ལ་སྙོམས་པར་ཞུགས་	-9.68611
ལས་ནི་	-9.6872
མི་མང་གིས་	-9.68771
བླངས་	-9.68782
བཅས་སུ་	-9.68787
དགོས་ཀྱི་ཡོད	-9.68807
▁ཕྱི་ཟླ་	-9.68829
ཕེབས་བསུའི་སྣེ་ལ	-9.68841
མང་སྤྱི་འཐུས་	-9.68851
སྒྱུ་རྩལ་	-9.6886
ཅིང་་	-9.68876
བསྒྲུབས་	-9.68877
འདུས་བྱས་	-9.68917
ཁུལ་དུ་	-9.68924
ཆོས་ཕྱོགས་ཀྱི་	-9.68924
་སོགས་	-9.68965
ཇི་ལྟ་བ་བཞིན་དུ་	-9.68995
▁རྣམ་པ་ཐམས་ཅད་	-9.69037
འཚམས་འདྲིའི་	-9.69048
དེས་ནི་	-9.69053
གང་ཙམ་	-9.6908
བཏང་སྟེ་	-9.69087
གནང་དགོས་པའི་	-9.69113
ར་འགྱུར་ཏེ་	-9.69132
སིལ་སྙན་	-9.69173
པ་ཡིན་ནོ་་	-9.69177
ཡག་	-9.692
ནང་པ་	-9.69226
མིན	-9.69314
▁དེའི་ཕྱིར་	-9.69322
བཙན་བྱོལ་	-9.69347
ཞིབ་	-9.69397
▁ཡེ་ཤེས་	-9.69405
▁ཚུལ་ཁྲིམས་	-9.69436
ཡུལ་གྱི་	-9.69438
བཀའ་བློན་མཆོག་གི	-9.69454
ནེ་	-9.6947
ལྷག་པར་	-9.69511
སྙན་ཐོ་	-9.69515
ཟེར་བའི་	-9.69522
▁དེ་ནས་རྒྱལ་པོ་	-9.69537
དང་བཅས་པའི་	-9.6956
སྨོན་ལམ་བཏབ་པ་	-9.69641
ནག་	-9.69683
▁གསར་འགོད་པས	-9.69708
བདག་ཅག་གི་	-9.6972
མང་དག་ཅིག་	-9.69763
འགོ་	-9.69854
མཇལ་	-9.69904
གང་ཡིན་པ་དེ་	-9.69914
སྒྱུར་	-9.69955
སྐུའི་	-9.69981
རྣམ་པ་དང་	-9.70028
གྱིས་ཤིག་	-9.7004
སློབ་ཁྲིད་	-9.70109
ཉེས་	-9.70115
འདས་པའི་	-9.70133
རྡ་སར་	-9.70164
རོ	-9.70197
སྐོར་ལ་	-9.702
ཐོབ་ནས་	-9.70208
སློབ་ཡོན་	-9.70234
བྱེད་ཀྱི་	-9.70236
་གཡུ་ཐོག་	-9.70242
ཐུབ་བསྟན་	-9.70275
རང་སྐྱོང་ལྗོངས་	-9.70305
སླེབ་	-9.70335
ཤཀྱ་	-9.7036
སེམས་ཁམས་རིག་པ	-9.70391
ཁོངས་ནས་	-9.70393
གཅིག་པ་	-9.70452
་ཡིན་	-9.70504
་རྣམས་ནི་	-9.70526
རིན་པོ་ཆེ་དང་་	-9.70585
ཕྱིན་ནས་	-9.7059
རྒྱལ་བའི་ཕོ་བྲང་	-9.70631
ཊ་	-9.70716
དེང་	-9.70776
གྲོས་ཚོགས་གོང་མ	-9.70841
མི་སྤྱོད་	-9.70972
ཚེ་རིང་ལགས་ཀྱིས་	-9.71
ར་གནས་པའམ་གལ་ཏེ་	-9.71033
ཐེབས་	-9.71101
ཡང་མི་	-9.7114
མཉམ་དུ་	-9.71174
▁རྒྱ་ནག་གི་	-9.71191
རི་མོ་	-9.71223
ཀུན་ལ་	-9.71229
ཡོང་གི་འདུག	-9.71233
ཏན་ཏན་	-9.7125
▁ཆོས་ཐམས་ཅད་	-9.7127
འདས་པའི་ལོ་ངོ་	-9.7127
ཕྱིར་མི་འོང་བ	-9.71336
ནོ་	-9.71347
རྣམ་པར་ཐར་པ་	-9.71422
འདྲ་བ་	-9.71523
བསླབ་	-9.71569
སྔོན་འགོག་	-9.71579
པར་བྱ་བའི་ཕྱིར་	-9.71601
ྱ	-9.71608
དྲི་མ་	-9.71673
གང་མང་	-9.71769
སེམས་ནང་	-9.71791
གནས་བརྟན་	-9.71834
བྱས་པས་	-9.71838
མཐུན་	-9.71945
སྟེང་དུ་	-9.71955
ཆེ	-9.71957
གཉེན་	-9.7196
གཞན་གྱིས་	-9.71965
འདུ་བྱེད་	-9.72024
ང་ཡི་	-9.72069
ཡོངས་སུ་གཏོང་བ	-9.72109
པར་འགྱུར་བ་	-9.72119
ས་མཚམས་	-9.72217
ལ་སྨྲས་པ་	-9.72335
▁ཁོང་གིས་	-9.72368
རྟེན་ཅིང་འབྲེལ་	-9.72375
ཡིན་གྱིས་	-9.72451
འདི་ལྟ་བུའི་	-9.7248
བསྐྱངས་	-9.72482
ཁྱི	-9.72517
མངོན་འདོད་	-9.72528
སྐུ་ཚབ་དོན་ཁང་	-9.72549
ཨ་རིའི་གྲོས་ཚོ	-9.72591
གཏམ་བཤད་	-9.72606
མང་པོར་	-9.7261
བཀའ་སྩལ་པ་	-9.72617
འདུག་པ་	-9.72673
▁གང་ཞིག་	-9.72728
ཡོང་གི་རེད	-9.72771
ཤཀྱ་ཐུབ་པ་	-9.72776
ད་དུང་	-9.72854
ཚོར་བ	-9.72891
དགེ་སྦྱོང་	-9.7291
རྣམ་པས་	-9.72926
སྐྱེད་མོས་ཚལ་	-9.72928
ཏོ་	-9.72936
ལས་བྱུང་བའི་	-9.72962
གཟུགས་ཀྱི་ཁམས་	-9.73026
་ལ	-9.73066
འདིའི་སྟེང་	-9.73083
མགྱོགས་མྱུར་	-9.7313
འདུག་སྟེ་	-9.73139
ཞི་བར་	-9.73265
ཡོད་མཁན་	-9.73293
སྲིད་བློན་	-9.73317
ར་འགྱུར་བ་	-9.73353
བའོ་་	-9.73387
པར	-9.73408
ཞེ་སྡང་	-9.73436
ར་བྱ་	-9.73467
དྲུང་	-9.73477
དག་དང་	-9.73494
ཕྲ	-9.73505
་ལི་	-9.73506
རྫོང་	-9.73558
སྟོད་	-9.7358
འགྲོ་བ་མི་	-9.73582
མ་ཡིན་ནོ་	-9.73665
ཀྱིས་གཙོས་	-9.73674
མདུན་	-9.7373
འོ	-9.73824
སུད་སི་	-9.73854
ཊ	-9.73909
▁བོད་མི་མང་སྤྱི	-9.73923
སྐྲ	-9.73955
མཐོང་སྟེ་	-9.73995
གནས་་	-9.74006
གིས་གཙོས་	-9.74111
ནུབ་ཕྱོགས་	-9.74124
འི་རྒྱལ་པོ་	-9.74171
ངན་སོང་	-9.74187
སྤྱིར་	-9.74214
ཐམས་ཅད་མཁྱེན་པ	-9.74226
དབང་སྒྱུར་	-9.74279
འདི་འདྲ་	-9.74299
གང་ཡང་མེད	-9.74344
ནང་ནས་	-9.74376
ཞུ	-9.74388
རྩ་ཁྲིམས་	-9.74416
ཇེ་	-9.74425
བཅུག་	-9.74507
ཁྱབ་བློན་ཆེན་	-9.74517
འདུ་འཛོམས་	-9.74612
་པ་བཅས	-9.74627
གཉིས་ལ་	-9.74683
རི་རབ་	-9.74802
སྟོབས་ཤུགས་	-9.74819
▁དམིགས་བསལ་	-9.74867
ཁྱེད་ཀྱིས་	-9.74903
པའི་སྐབས་	-9.74988
ཆོ་ག་	-9.75006
ཧིན་སྒོར་	-9.75016
ངེས་པར་འབྱུང་བར་	-9.75044
་ཞུ་རྒྱུ་ཡིན	-9.75059
ཀོ	-9.75111
གོང་མཐོར་གཏོང་	-9.75147
་བལ་འབྲུག་གསུམ་	-9.75275
དེང་དུས་ཤེས་ཡོན་	-9.75337
ཡོད་པས་	-9.75454
འཚོགས་	-9.75498
བལྟ་	-9.75506
འདོད་པས་	-9.75522
བཞིའི་	-9.75533
གིས	-9.75585
ཕེབས་པའི་	-9.75593
དང་ལྡན་པས་	-9.75601
རང་གིས་	-9.75626
ཡོངས་སུ་བསྔོ་བ	-9.75637
ངོ་བོ་	-9.7567
སྐྱིད་	-9.75701
ཏི་	-9.75707
འབྲེལ་རྒྱལ་ཚོགས་	-9.75772
ག་རེ་	-9.75804
བསྐྱེད་པ་	-9.75827
བཏང་སྙོམས་	-9.75859
▁བདག་ཅག་	-9.75879
ཉོན་མོངས་པའི་	-9.75886
འབའ་ཞིག་	-9.75936
སོ་སོ་	-9.75952
▁ཁོང་	-9.75966
བར་གྱི་	-9.75975
གནང་བཞིན་ཡོད	-9.75981
གསོག་	-9.76064
ཆིབས་སྒྱུར་བསྐྱང	-9.76067
ཁ་ཅིག་	-9.76151
མགོན་	-9.76183
ཞལ་འདེབས་	-9.76272
སེམས་ཁམས་རིག་པ་	-9.76293
ཆོ་འཕྲུལ་	-9.76295
ཆེན་པོ་དང་་	-9.76325
དགའ་བའི་	-9.76372
སོགས་ཀྱིས་	-9.76458
ཆོས་བསྟན་པ་	-9.76471
ཡོད་སྐོར་	-9.76474
བསླབ་བྱ་	-9.76505
དུ་གྱུར་པ་	-9.7652
▁དེ་ཕྱིར་	-9.76529
ཆོས་ནི་	-9.76555
ལགས་སམ་	-9.76561
བ་རེད	-9.76572
མ་ཡིན་པར་	-9.76583
པ་རྣམས་ལ་	-9.76596
བཞིན་ཡོད་པ་དང་	-9.76628
རུང་	-9.76648
རྩོད་པ་	-9.7667
གྱི་སྔ་དྲོ་	-9.76678
་བཞུགས་ཏེ་	-9.76682
གཏང་	-9.76702
སྲུང་བརྩི་	-9.76703
འོག་ཏུ་	-9.76729
མ་བྱས་	-9.76792
མགོན་མེད་	-9.76793
ཤུ	-9.76832
ཏིང་ངེ་འཛིན་འདི་	-9.7689
འཆི་	-9.769
རྒྱ་ནག་ནང་གི་	-9.76947
འི་ཚོགས་གཙོ་	-9.76971
རྒྱུ་དེ་	-9.77051
བོད་ཀྱི་རྒྱལ་དར་	-9.77073
ཁ་ཆེ་	-9.77145
རྡོ་རྗེ་གདན་དུ་	-9.77148
བཅུ་གཅིག་པ་	-9.77191
་མ་ཡིན་	-9.772
མཚུངས་	-9.77213
ཐོབ་པར་	-9.77319
ཚེ	-9.77404
ཕྱི་འབྲེལ་	-9.77434
ར་བྱ་བའི་ཕྱིར་	-9.77474
ནང་བཞིན་	-9.77477
ཟིན་པའི་	-9.77534
ཁྲག་	-9.7754
ཆོས་འབྲེལ་	-9.77582
མ་འོངས་	-9.7759
པར་འགྱུར་ཏེ་	-9.7767
བཀའ་ཆོས་	-9.7769
རྣམ་པར་བྱང་བ་	-9.77718
བཞིན་པར་	-9.77778
▁དཔལ་འབྱོར་	-9.77797
རོགས་	-9.77837
པ་སྟེ་	-9.77875
སློབ་ཕྲུག་རྣམས་	-9.77883
གོང་དུ་	-9.7789
ཅིང་་་	-9.77896
སྟབས་	-9.77943
སློབ་གྲྭར་	-9.78037
ལ་བརྟེན་	-9.78088
བར་ཆད་	-9.78145
དཔལ་འབྱོར་གྱི་	-9.78169
གཉེར་	-9.78193
ཨ་རིའི་ཕྱི་སྲིད་	-9.78204
▁ད་བར་	-9.78238
▁སེམས་ཅན་འདི་དག་	-9.78241
སློབ་སྦྱོང་བྱེད་	-9.78358
ར་གྱུར་པས་	-9.78359
པར་གྱུར་	-9.78372
གསལ་བཤད་	-9.78514
དང་ལྷན་ཅིག་	-9.78538
བརྟན་བཞུགས་	-9.78554
སྐོར་གསུངས	-9.78626
རྟག་	-9.78652
རྒྱ་གར་གནའ་རབས་	-9.78676
མངའ་སྡེའི་སྤྱི་	-9.78699
རྒྱུ་ཡིན་འདུག	-9.78704
བརྒྱབ་	-9.78716
མི་སྣང་བ	-9.78716
ཕྱི་ནང་	-9.78729
ན་གཞོན་	-9.7875
རྟེན་འབྲེལ་	-9.78798
གང་ཡིན་པ་འདི་ནི་	-9.7884
བཞིན་ཡོད་པ་	-9.78882
འབྲེལ་མཐུད་པ་	-9.79031
འཛམ་གླིང་མཉམ་	-9.79038
རྒྱ་ནག་དམར་ཤོག་	-9.79072
ཆེན་པོ་མཆོག་དང་	-9.79073
ཕྲུ་གུ་	-9.79083
ཞིང་་	-9.79158
ཕྲེང་བ་	-9.79187
དང་ལྷན་དུ་	-9.79193
ཁང་པ་	-9.79193
གྷ	-9.79247
བོད་སྐད་	-9.7927
སྨོན་	-9.79283
བརྩོན་	-9.79294
ཁ་ཟས་	-9.793
རྒྱལ་དབང་སྐུ་	-9.79311
སྤངས་	-9.79312
ང་ནི་	-9.79327
པར་འགྱུར་རོ་	-9.79333
རིམ་པས་	-9.79384
སྐྱེས་བུ་འདུལ་བ	-9.79484
▁ཁྱོད་ཀྱི་	-9.79489
འཁྲུངས་སྐར་	-9.79511
གསུང་བཤད་གནང་ཡོད	-9.79557
བཞི་པ་	-9.79603
ད་ལྟའི་ཆར་	-9.79624
ཏུ་གཟར་ནས་	-9.79746
བདུད་རྩི་	-9.79784
གནང་བ་རེད	-9.79954
▁བོད་དོན་	-9.79958
ཁ་ཆེའི་	-9.79993
དང་འབྲེལ་ནས་	-9.80039
སྟོབས་ཀྱིས་	-9.8004
བསྟན་ཏོ་་	-9.80095
འཇིག་	-9.80118
ལ་ལོངས་སྤྱོད་ཆེ	-9.80124
ཡོད་འདུག	-9.80175
འདི་ནས་	-9.80287
གུ་	-9.8031
ལི	-9.80347
ཚོགས་པས་	-9.80349
བརྡ་	-9.80399
ཅི་འདྲ་བ་	-9.80402
ཀྱི་ཕྱིར་	-9.8048
ཡོད་རེད	-9.80481
མ་བཅིངས་མ་གྲོལ་བ	-9.80526
དབུ་མའི་ལམ་	-9.80545
ན་ཅིག་ཕྱིར་འོང་བ	-9.80601
ཤར་ཕྱོགས་སུ་	-9.80621
འོག་ནས་	-9.80645
བརྟེན་	-9.80659
ཞིག་ལ་	-9.80659
དང་ལྡན་ཞིང་	-9.8067
ལངས་ཕྱོགས་	-9.80689
བརྒྱད་ཅུ་	-9.80722
གལ་ཆེན་པོ་	-9.80754
གཏོར་	-9.80805
འཆད་	-9.80811
ཤིང་་་	-9.80822
སླ	-9.80852
ཉིད་ཀྱི་	-9.80866
རྣམས་ནས་	-9.80873
དེ་འདྲའི་	-9.80961
ལགས་་	-9.80971
ཡོད་པར་བརྟེན་	-9.80975
དང་་དེ་བཞིན་དུ་	-9.80995
འི་སྤྱི་ཁྱབ་	-9.80996
གཏོང་བ་	-9.8103
དྲག་གནོན་	-9.81104
རྔ་	-9.81105
ཡོངས་ནས་	-9.81122
གཞིས་བྱེས་	-9.81147
མཉམ་ཞུགས་	-9.81176
གནང་རྒྱུའི་	-9.81243
མཐའ་གཅིག་ཏུ་	-9.81283
སངས་རྒྱས་ལ་	-9.81297
ཀྱིས་ཀྱང་	-9.813
བཙུན་པ་	-9.81321
ལགས་ལ་	-9.81332
▁འདིར་	-9.81348
ཨེ་ཤི་ཡའི་	-9.81389
ཆེ་ཤོས་	-9.81391
བདག་ཀྱང་	-9.81475
བོད་པ་	-9.81529
ཆོས་བཅུ་པོ་	-9.81542
འབྲུག་	-9.81632
ཀུན་དགའ་	-9.81649
གང་ཡིན་པ་དེ་དག་	-9.81686
བའི་ཕྱིར་	-9.8182
དཀར་པོ་	-9.81925
མ་ལུས་	-9.8194
རྟོག་པ་	-9.81945
▁ཁྱོད་ནི་	-9.81989
ཞེས་བྱའོ་	-9.82022
་ཀ་	-9.82037
གནས་ཏེ་	-9.82049
ལས་བྱུང་བ་	-9.82055
དྲ	-9.82055
ཉིད་དང་་	-9.82108
▁ཕྱི་ལོ	-9.82124
བསམ་གཏན་གྱི་	-9.82188
གླེང་སློང་	-9.8221
འཁོད་པ་	-9.82255
དགུང་གྲངས་	-9.82282
རྒྱལ་པོ་ཟས་གཙང་མ	-9.82333
གཟུངས་	-9.82333
ཁུ	-9.82347
བཟུང་སྟེ་	-9.82355
རྒྱས་པ་	-9.82384
རྒྱ་མཚོའི་	-9.82412
་ཆེན་	-9.82429
གལ	-9.82468
ཡིན་ཞེས་	-9.8251
སྣང་བའི་སྒོ་སྟེ་	-9.82555
བསྒྲགས་	-9.82586
གསུངས་་	-9.82604
ཡོན་ཏན་གྱི་	-9.82628
མ་རིག་པ་	-9.82676
▁རྒྱལ་བ་	-9.82735
ཉན་ཐོས་ཀྱི་	-9.82743
མི་རིགས་ཀྱི་	-9.82746
ཁས་ལེན་	-9.82794
ཐུབ་ཡོད	-9.82855
འཆར་སྣང་	-9.82856
བླ་	-9.8288
སྡུག་བསྔལ་བ་	-9.82882
ལས་འདས་པའི་	-9.82919
པ་ཡིས་་	-9.82944
སྐལ་བཟང་	-9.82967
སློབ་གཉེར་ཁང་	-9.82972
རྒྱ་གཞུང་གིས་	-9.82998
སུ་མི་མཐོང་ངོ་་་	-9.83066
ཤ་རིའི་བུས་	-9.83087
▁འབྱུང་འགྱུར་	-9.83094
གཞིས་ཆགས་ཀྱི་	-9.8314
ལགས་རྣམ་གཉིས་	-9.83215
ཁུར་	-9.83218
་ཏ་	-9.83268
སྲི་ཞུའི་ལས་བྱེད	-9.83292
མ་ཡིན་པའི་	-9.83315
གནང་མཛད་	-9.83319
ས་ཡ་	-9.83367
ཐོ	-9.83483
དགེ་སློང་གི་	-9.83495
བར་ཐུགས་རྗེ་ཆེ་	-9.8357
རྒྱ་ཆེན་པོ་	-9.83598
རྡོ་རྗེའི་	-9.83606
རྒྱུ་མེད	-9.83632
གསང་བ་	-9.837
ཡོང་ཐབས་	-9.83883
པི་	-9.83886
དང་རིག་གཞུང་	-9.83907
ཙམ་གྱིས་	-9.8391
ཐེངས་འདིའི་	-9.84023
▁གཞན་	-9.84186
རྣ་བ་དང་་སྣ་དང་་	-9.84212
པ་དེ་དག་	-9.84213
ལྷག་པའི་བསམ་པ་	-9.84225
བའམ་	-9.84254
མོའི་	-9.84257
གྱུར་པ་་	-9.84278
འཚོ་བའི་	-9.84279
དག་ལས་	-9.84281
ཡིད་ཀྱི་	-9.84293
ལག་ཏུ་	-9.84332
▁གྲོགས་པོ་དག་	-9.84354
མིན་པར་	-9.84383
ོ	-9.84413
འཛིན་བཟུང་	-9.84414
བྱེད་ཅིང་	-9.84476
ཡིན་འདུག་པ་བཅས	-9.8449
དབེན་པ་	-9.84499
མི་ཤེས་	-9.84546
སྔ་དྲོ་ཆུ་ཚོད	-9.84577
བསམ་བློའི་	-9.84647
ཁྲིམས་ལུགས་	-9.84762
ཡོང་བ	-9.84764
ནས་བཅོམ་ལྡན་འདས་	-9.84813
ཡོད་ཅེས་	-9.84852
བསྟན་གྱི་	-9.84861
ད་ལྟར་བྱུང་བའི་	-9.84873
ང་རང་	-9.84896
ཆད་པ་	-9.849
འཐོན་	-9.84933
རྨོངས་	-9.84951
▁ཁེ་ན་	-9.84993
ཡོད་པ་དེ་	-9.85084
ལས་བསྡོམས་	-9.85133
ཉམས་རྒྱུན་འཛིན་	-9.8515
ཡོད་ཅིང་	-9.85175
རྣམ་གཉིས་	-9.85183
འདི་དག་གིས་	-9.85249
ཚོགས་བཅར་བ་	-9.85292
ར་འགྱུར་བ་དང་་	-9.85296
ལྷ་མ་ཡིན་	-9.85316
དེད་དཔོན་	-9.85366
འཇིགས་མེད་	-9.8539
▁སྤྱི་ཚོགས་	-9.85393
ཚར་	-9.85425
གཅིག་གྱུར་	-9.85441
བྱས་པ་དང་	-9.85468
བསྙེན་བཀུར་	-9.85485
གཤིན་རྗེའི་	-9.85488
སྣ	-9.8551
དཔའ་བོ་	-9.85514
ཆུང་ངུ་	-9.85532
དང་་ཚེ་དང་ལྡན་པ་	-9.85564
▁ད་རེས་	-9.85597
དཔྱད་	-9.85727
ཁམས་གསུམ་	-9.85727
ཡི་རངས་	-9.85753
ཕྲག་	-9.85771
རིས་	-9.85772
འགོག་	-9.85786
་གང་	-9.8579
རྒྱལ་རིགས་	-9.85812
བ་མིའི་ཐོབ་ཐང་	-9.85813
འགག་	-9.85832
སྐར་མ་	-9.8587
མྱུར་	-9.8592
སྔ་	-9.85931
ནང་དུའང་	-9.85938
ཕྱིའི་	-9.86033
གཟུགས་རྣམས་	-9.86058
ར་འགྱུར་་	-9.86094
ཚིགས་སུ་བཅད་དེ་	-9.86108
བཅུའི་ལས་ཀྱི་ལམ་	-9.86108
བཙུན་མོའི་འཁོར་	-9.86116
དགའ་པོ་བྱུང་	-9.86135
▁ལོ་	-9.86158
ཞིག་ཀྱང་	-9.86184
བཞུགས་པ་	-9.86234
སེམས་ཤུགས་	-9.86364
ཤིང་ས་ལ་ཆེན་པོ་	-9.86373
མཇལ་འཕྲད་	-9.86506
ཆོས་སྟོན་པ་	-9.86533
རེ	-9.86565
འི་ནང་དུ་	-9.8658
ཕན་ཡོན་	-9.8659
▁དེ་མིན་	-9.86631
པ་ལགས་	-9.86669
ད་ལྟར་བྱུང་བ་	-9.8669
ཅི	-9.86719
རྗེས་སུ་དྲན་པ་	-9.86823
མངོན་པར་ཞེན་པ	-9.86907
དགའ་ཞིང་	-9.86916
སུས་ཀྱང་	-9.86954
སྨྲ་	-9.86965
འི་གསུང་བཤད་གནང་	-9.86991
ཀྱི་ཐད་དུ་	-9.87012
མ་ཐག་	-9.87024
སྐྱབས་མགོན་ཆེན་	-9.87033
མང་པོ་ཞིག་གིས་	-9.87047
བཅུ་དང་ལྡན་ན་	-9.87081
མངོན་སུམ་དུ་བྱ	-9.87091
འཇོམས་	-9.87109
▁བོད་ནང་གི་	-9.87187
གཅིག་ལ་གཅིག་	-9.87191
ཏོག་ཙམ་	-9.87194
འི་འབྲས་བུ་མངོན་	-9.87272
རྗེ་	-9.87282
ཚུད་	-9.87353
ཆོས་སྨྲ་བ་	-9.87375
▁དེའི་འོག་ཏུ་	-9.87396
བཟོས་	-9.87481
སྲ་བརྟན་	-9.87482
འགྱུར་རོ་་	-9.87502
དང་ལྡན་པ་དང་་	-9.87577
རྐྱེན་གྱིས་	-9.87586
བྱིན་པ་	-9.87762
དྲི་མེད་	-9.87805
བསྟི་གནས་ཁང་	-9.87929
ཐོབ་པར་འགྱུར་རོ་	-9.87969
ཆགས་པའི་	-9.87984
ཚངས་པར་སྤྱོད་པ	-9.88005
གྲུ་	-9.88013
ཚན་རིག་པ་	-9.88087
ཆུ	-9.88092
མཆོད་སྦྱིན་	-9.88105
པར་གྱིས་ཤིག་	-9.8811
གདུང་	-9.88149
ཁྲི་བཞི་སྟོང་	-9.88286
ཡོད་པར་	-9.8834
བཅོམ་	-9.88364
ཏ་ལའི་བླ་མ་	-9.88375
བོད་ཁྱིམ་	-9.88404
དོན་གཅོད་	-9.88409
གཏེར་	-9.88443
ཚུལ་བཞིན་	-9.8846
ཚད་མེད་	-9.88515
དགོན་	-9.88632
ཚོལ་	-9.88641
གླ	-9.88705
འབད་	-9.88712
མིག་གི་	-9.88729
ལྷོ་	-9.88729
▁བྲམ་ཟེ་	-9.88746
ཁུངས་	-9.88753
གོ་བསྡུར་	-9.88758
པ་ཡིན	-9.88801
བཏང་ཡོད	-9.8881
རབ་ཏུ་བྱུང་བ་	-9.88828
ར་འཚང་རྒྱ་བ	-9.88881
འཐབ་	-9.88882
བསྐོང་ཚོགས་གནང་	-9.88901
དགེ་བའི་ཆོས་	-9.88969
རྔམ་སྟོན་	-9.89022
རྒྱ་ནག་ནང་	-9.89048
བརྗོད་གཞི་	-9.89151
འཁྲབ་སྟོན་	-9.89155
སངས་རྒྱས་པའི་ཆོས	-9.89157
པ་དེའི་ཚེ་	-9.89174
འགའ་ཤས་	-9.89183
རྣམ་དཔྱོད་	-9.89197
སྐུ་པར་	-9.89204
གང་ན་	-9.89314
གོ་རྟོགས་སྤེལ་	-9.89327
ཐོག་མ་	-9.8933
ཁྱོད་ཀྱིས་དེ་	-9.89337
བརྟན་པ་	-9.89339
▁ཡང་ན་	-9.89341
འགྲོ་གྲོན་	-9.8935
སྲེད་པ་	-9.89362
བསགས་པ་	-9.8939
▁སྲིང་མོ་	-9.89416
ཁྲིམས་འཆར་	-9.89508
ལས་ཁུངས་དང་	-9.89513
ཚད་མེད་པ་	-9.89534
ིའི་	-9.89538
ོག་	-9.8956
བཞིན་འདུག	-9.89561
སྐུ་ཚབ་ཚོགས་ཆུང་	-9.89609
ནམ་མཁའ་ལ་	-9.89619
ཕོ་བྲང་	-9.89626
▁དེ་ཅིའི་སླད་དུ་	-9.89634
ཞུ་རྒྱུ་	-9.89651
རང་ཉིད་ཀྱི་	-9.89656
གསུངས	-9.89665
རྒྱབ་སྐྱོར་གྱི་	-9.89667
སྦྱིན་བདག་	-9.89738
ཏོག་དབྱིབས་	-9.8975
དགེ་ལས་སློབ་ཕྲུག	-9.89754
ཐེག་པ་ཆེན་པོའི་	-9.89758
མི་འགྱུར་	-9.89784
རེ་རེ་	-9.89806
མཚམས་འཇོག་	-9.89817
སྙིང་ཐག་པ་ནས་	-9.89826
རོ་་	-9.8987
སྒེར་	-9.8988
བཞག་པ་	-9.89977
སྦ	-9.90009
▁བོད་མིའི་སྒྲིག	-9.90051
སློབ་གྲྭ་ཁག་	-9.90067
པར་མི་བྱེད་	-9.90074
གནས་པར་མི་བྱའོ་་	-9.90086
བླ་ན་མེད་པ་	-9.9013
ལེགས་བཤད་དེ་དག་	-9.90146
ཆུང་མ་	-9.90177
བཀའ་དྲིན་རྗེས་དྲ	-9.90181
བྱེ་བ་ཕྲག་	-9.90217
▁བྱང་ཆུབ་	-9.90257
གྲ	-9.90258
ཐུབ་པ་དང་	-9.90292
སྐྱབས་སུ་འགྲོ་བ་	-9.90302
སྐད་འབོད་	-9.90308
ནན་	-9.90314
སྲིད་འཛིན་ཟུར་པ་	-9.90327
ལུང་པ་	-9.90329
▁མད་གལ་གྱི་བུ་དེ	-9.90392
བཞིན་ཡོད་སྟབས	-9.90447
ཏ་ལའི་བླ་མའི་	-9.90492
མཐུན་ཚོགས་པའི་	-9.90494
དཔུང་	-9.90523
བསྔགས་	-9.90534
རློམ་སེམས་སུ་མི་	-9.90576
ཡང་ཡིན་	-9.9062
འོས་བསྡུ་	-9.9066
ཞེན་	-9.90689
ེ	-9.90689
རྒྱུན་དུ་	-9.90691
ས་གནས་བོད་རིགས་	-9.90708
▁དེ་འདི་	-9.90727
བོ་་	-9.9073
ཚོང་ལས་	-9.90741
འགྲེམས་སྟོན་	-9.9078
བཏང་བ་	-9.90822
མིར་	-9.9083
▁བྱམས་པ་	-9.90831
བྱེད་རྒྱུའི་	-9.90894
དགོས་རྒྱུ་ཧ་ཅང་	-9.91013
ལྟོས་	-9.91077
སྟོན་ཏོ་་	-9.911
བྱེད་་	-9.91134
ཐུགས་རྗེ་ཆེ་ཞུས་	-9.91141
ཆོས་རྒྱལ་	-9.91194
▁གཙོ་བོ་	-9.91207
ཤ་ར་དྭ་ཏིའི་བུས་	-9.91293
ཆ	-9.91383
གྲོས་ཚོགས་འཐུས་མ	-9.91387
ཚུལ་བཞིན་དུ་	-9.91421
གཞུང་ཆེན་	-9.91431
དེ་ཉིད་དུ་	-9.91436
གོང་ས་མཆོག་གི་	-9.91447
བོད་ཀྱི་ཁོར་ཡུག་	-9.91448
འཛིན་རིམ་བཅུ་	-9.91467
དྲི་མ་མེད་པའི་	-9.91468
པ་རྣམས་ཀྱི་	-9.91489
བསྒོམ་	-9.91506
གསར་པ་ཞིག་	-9.91514
པར་བརྟེན	-9.91523
ར་སངས་རྒྱས་ནས་	-9.91526
ནགས་ཚལ་	-9.9159
གྱུར་་	-9.91595
ིང་	-9.91617
ལགས་ཀྱིས	-9.91667
གཟུགས་བརྙན་	-9.91737
པོས་	-9.91747
འདས་པ་ན་	-9.91769
སྦྱོང་བརྡར་	-9.9179
རྟོགས་པར་	-9.91793
▁ཕྱི་	-9.91811
སྙིང་བསྡུས་	-9.91814
ཇི་ཙམ་དུ་	-9.91831
འོངས་	-9.91844
སྙམ་དུ་	-9.91898
སྐྱེས་བུ་དམ་པ་	-9.91937
▁རྒྱ་ནག་གཞུང་གི་	-9.92002
སེམས་པ་	-9.92059
ས་ཏེ་	-9.9207
སྤྲུལ་	-9.92252
ཡིག་རྒྱུགས་	-9.92328
རྙོག་གྲ་	-9.92343
▁བྲམ་ཟེའི་ཁྱེའུ་	-9.92347
ཆོས་ཐམས་ཅད་ལ་	-9.92363
ན་ལེནྡྲའི་	-9.92516
▁དེ་དེ་བཞིན་	-9.92614
ཉལ་	-9.92646
པར་གྱུར་ན་	-9.92663
བོད་ཀྱི་རྩ་དོན་	-9.92682
བྱུང་ན་	-9.92709
རྟོག་	-9.92734
བལ་ཡུལ་	-9.92751
ཡང་དག་པར་འཛིན་	-9.92752
གྱིས་གཙོས་	-9.92841
མི་དམིགས་པ་	-9.92842
གྱུར་ཏེ་་	-9.92852
ཤིན་ཏུ་རྣམ་པར་དག	-9.92857
གྱུར་བའི་	-9.92867
སྐུལ་	-9.92869
དོང་	-9.92878
དགའ་བ་དང་	-9.92917
ཀྱི་སྤྱན་སྔར་	-9.9295
དྲུང་དུ་	-9.92983
ཟད་པ་	-9.93042
འོ་ཞེས་	-9.93055
གྱི་ཡོད	-9.93071
་ཆེན་དགེ་འདུན་	-9.93072
ལྟོ་འཕྱེ་ཆེན་པོ་	-9.93106
ཚེ་གཅིག་ཏུ་	-9.93128
འགྲེལ་	-9.9313
དེ་དག་ཐམས་ཅད་ནི་	-9.93183
དེ་ཚེ་	-9.93207
བལྟས་	-9.93276
ཉུང་	-9.93299
▁བུ་	-9.93412
ཡིན་འདུག	-9.93431
འགྲོ་བ་མི་རིགས་	-9.93448
བསྟན་བཅོས་	-9.93527
▁རིག་གཞུང་	-9.93548
དྲན་རྟེན་	-9.93581
སྦྱིན་པར་བྱེད་	-9.93599
གཡས་	-9.93675
ས་ཕྱོགས་གང་སར་	-9.9371
བཟང་སྤྱོད་	-9.93711
དེ་ལྟ་བུར་	-9.93714
གང་་་	-9.9375
རིག་གཞུང་དང་	-9.93884
འཇམ་	-9.93888
བསྐུལ་	-9.93903
་ཐམས་ཅད་སྤངས་ནས་	-9.93923
▁ཐེངས་འདིའི་	-9.93923
ཤ་སྟག་	-9.93941
ལ་མཆོད་པ་	-9.93967
གསང་སྔགས་	-9.94087
མེད་པའོ་་	-9.94147
ཚོང་པ་	-9.94157
ལེའུ་	-9.94183
ཡང་ཡང་	-9.94226
བརྒྱན་པ་	-9.94246
མང་ཚོགས་	-9.94248
སེམས་འཚབ་	-9.94295
ཀྱིས	-9.94384
དགའ་བ་དང་་	-9.94408
ཐལ་མོ་སྦྱར་ཏེ་	-9.94446
བཞག་སྟེ་	-9.94458
ང་ཉིད་	-9.94464
ཀྱིས་དེའི་ཚེ་	-9.94497
རྗེས་དྲན་	-9.94532
དམ་པའི་	-9.94535
པ་ཡིན་ན	-9.94538
བསྟན་་	-9.94616
ཤེས་རྟོགས་	-9.94629
ཤེས་པས་	-9.94663
ཟན་	-9.94672
▁འཕྲོད་བསྟེན་	-9.947
ནང་མི་	-9.94754
འབོད་	-9.94782
གོང་འཕེལ་	-9.94786
པར་གྱུར་་	-9.94795
ང་ཚོ་ཚང་མ་	-9.9483
ལྔ་བཅུ་	-9.94879
ལས	-9.9488
ཡུལ་མི་	-9.94897
པར་བྱ་	-9.949
ཆོས་ལུགས་ཀྱི་	-9.94917
གཟུགས་མེད་པའི་	-9.94918
གལ་ཆེ་	-9.94921
ལེགས་བཤད་	-9.94948
སྐྱེ་བོ་མང་པོ་	-9.94966
དུས་སྐབས་འདིར་	-9.95054
འདི་ལྟ་སྟེ་དཔེར་	-9.95087
སངས་རྒྱས་པའི་	-9.95099
▁གླེང་གཞི་	-9.95144
རག་	-9.95146
གོང་ས་མཆོག་	-9.95166
བོད་རིགས་ཡོངས་ལ་	-9.95183
མི་མང་སྤྱི་འཐུས་	-9.95187
དགེ་བསྙེན་	-9.95273
▁ཐོག་མར་	-9.95317
བཀའ་ཤག་	-9.95317
ཚུར་ཤོག་	-9.95355
མར་མེ་	-9.95359
བརྗོད་པར་བྱའོ་་	-9.95395
བུ	-9.95411
ང་ཡིས་	-9.95413
ཁེ་	-9.95538
སྔོན་རྩིས་	-9.95545
སྙམ་	-9.95576
པར་གྱུར་ཅིག་ཅེས་	-9.95587
ཞིག་ཆགས་	-9.95601
གཅིག་ལ་	-9.95607
འཇར་མན་	-9.95634
བྱེད་བཞིན་པའི་	-9.95642
སྟོན་པའི་	-9.95693
ཤེས་པའི་	-9.9572
འགྲོ་བཞིན་པའི་	-9.95759
ཇི་བཞིན་	-9.95788
སྤ	-9.95805
ཤེས་ཏེ་	-9.95838
▁ཕྱི་ལོ་གྱི་	-9.95925
སྦས་	-9.95963
འཕགས་པའི་བདེན་པ་	-9.95975
སོགས་ནས་	-9.9599
འདོད་པ་དང་་	-9.95995
འདུས་མ་བྱས་	-9.96
ཞེས་ཟེར་རོ་་	-9.96022
གྲོང་ཁྱེར་དུ་	-9.96028
▁ཅི་	-9.96033
ཞི་རྒོལ་	-9.96057
དཀའ་སྡུག་	-9.96064
ཆེར་	-9.96098
དགེ་སློང་མ་	-9.96133
གྲྭ་བཙུན་	-9.96139
བསྐྱར་ཞིབ་	-9.96157
ལུང་སྟོན་	-9.96203
འཛིན་གྲྭ་	-9.96225
བྲན་	-9.96231
▁གོང་དུ་	-9.96262
བཙན་	-9.96265
་ལུང་བསྟན་པ་གང་ཡ	-9.96265
ིན་པའི་སངས་རྒྱས་	-9.96266
སྒྲིག་གཞི་	-9.96335
ལས་ཡང་དག་པར་འདས་	-9.96394
ཟེར་རྒྱུ་འདི་	-9.964
བྱེད་ཅིང་་་	-9.96426
གསན་	-9.96434
བྱང་ཆུབ་ཏུ་སེམས་	-9.96453
མ་ལགས་	-9.96454
བླ་སྤྲུལ་	-9.96462
▁དེ་ཅིའི་ཕྱིར་	-9.96498
ལྷ་ཡི་	-9.96554
བཅུ་དྲུག་	-9.96649
སྙམ་སྟེ་	-9.96667
ཁྲ	-9.96674
གཡོ་	-9.96708
འཐོབ་	-9.96729
ཨོ་	-9.96734
▁དེ་དག་གི་	-9.96746
སློབ་ཁྲིད་གནང་	-9.96791
འཁྲིད་	-9.96831
བུའི་	-9.96842
བོད་མི་བཙན་བྱོལ་	-9.96857
▁བདག་ཀྱང་	-9.96918
འི་ཆོས་འདུལ་བ་ལ་	-9.96938
བུད་མེད་ཀྱི་	-9.9694
བདེན་པའི་	-9.97022
ཁོ་	-9.97038
ཁུལ་དེར་	-9.97105
གཅིག་མཚུངས་	-9.97115
མྱ་ངན་ལས་འདའ་བ	-9.97194
འགན་འཁུར་	-9.97194
བཀའ་བཞེས་བཟང་པོ་	-9.9723
ཁོ་ནའི་བསྟན་པ་ལ་	-9.97233
སྤངས་པ་	-9.97255
ལིད་ཙ་བི་དྲི་མ	-9.97258
བཀའ་སློབ་ལམ་སྟོན	-9.97276
ཧོང་ཀོང་	-9.97287
བུ་ཆེན་པོའི་མཚན་	-9.97289
སློང་	-9.97295
དུའང་	-9.9731
བདེ་དོན་	-9.97343
དེ་ལ་སྨྲས་པ་	-9.97347
མང་པོའི་	-9.97372
མི་རྟག་	-9.97387
བཀག་	-9.97422
གི་གནས་སྟངས་	-9.97435
དཔག་ཚད་	-9.97476
ལམ་གྱི་	-9.97502
ཉམས་པ་	-9.97505
ཚགས་ཚུད་	-9.97537
འདི་གཉིས་	-9.9761
མངོན་པར་སྤྲུལ་	-9.97618
བྱམས་	-9.97623
རྒྱལ་དབང་	-9.97637
མཉམ་ཞུགས་གནང་ཡོད	-9.97644
མི་མང་ལ་	-9.97647
རྒྱ་ནག་དང་	-9.97681
་སེམས་ཅན་	-9.97737
བའི་ནང་འཁོད་དོན	-9.97793
རབ་ཏུ་མཁྱེན་	-9.97801
ཡིན་ནམ་	-9.97817
ཕྱི་ལོ་བོད་མིའི་	-9.97876
ངྒེ་མཆོག་དང་	-9.97919
གླང་པོ་	-9.97968
▁དེ་ནས་དེ་	-9.97971
མཐུན་ཚོགས་ཀྱི་	-9.98024
ཁྲག་ཁྲིག་	-9.98088
ཚོགས་འདུའི་	-9.98108
་རྣམས་ཡིན་	-9.98117
འདི	-9.98178
འཚལ་བ་	-9.98191
ལན་འདེབས་	-9.98191
ཁྱེའུ་དེ་	-9.9824
ཕྱོགས་ཕེབས་གནང་	-9.98267
པའི་འཇིག་རྟེན་	-9.98269
ཤེས་པར་བྱ་	-9.98269
དཔུང་གི་ཚོགས་	-9.98306
གང་ཡིན་པ་དང་་	-9.9834
དེ་ཚོ་	-9.98342
ཡིན་ཏེ	-9.98354
འཁྲུངས་	-9.98423
ལ་གནས་པའི་	-9.9845
ཤོད་	-9.98477
ཞུ་བ་	-9.98478
ཟུང་	-9.98489
ར་ཡང་	-9.98528
བཏབ་	-9.98563
འབྱུང་བའི་	-9.9863
བྱས་ཤིང་	-9.98723
བཀ	-9.98757
ལ་གནས་	-9.98764
བརྒྱན་	-9.9878
མྱ་ངན་འདས་	-9.98862
ལམ་སྲོལ་	-9.98868
ཨེ་	-9.98884
མེད་ཀྱང་	-9.98947
པུས་མོ	-9.9898
གང་འདྲ་	-9.99036
ཡོད་དམ	-9.99045
སེང་གེའི་སྒྲ་	-9.99057
འཕྲོག་	-9.9908
བྱེད་སྟངས་	-9.99089
ནམ་རྒྱུན་	-9.991
ཁང་པ་བརྩེགས་པ་	-9.99117
དམིགས་བསལ་གྱི་	-9.99119
རབ་ཏུ་བྱུང་སྟེ་	-9.9913
འབྱིན་	-9.9915
ཉེ་ལམ་	-9.9917
བལྟ་ན་སྡུག་པ་	-9.9918
བཅའ་ཁྲིམས་	-9.99184
གནང་རྒྱུ་དང་	-9.99186
ལ་དོ་སྣང་	-9.99191
རྐྱེན་པས་	-9.99196
ཉེར་	-9.99202
རབ་ཏུ་འབྱུང་བར་	-9.99204
དེ་སྐད་	-9.99247
ཡོང་བཞིན་ཡོད	-9.99297
ཕེབས་ནས་	-9.99308
ཙམ་ཡང་	-9.99313
ཅ	-9.99328
གོ་རྟོགས་	-9.99352
བཟང་སྤྱོད་ཀྱི་	-9.99395
བཙོན་འཇུག་	-9.99429
དངོས་གནས་	-9.99436
འི་སྐུ་	-9.99439
སྨན་གྱི་	-9.99457
རེག་པ་	-9.99465
རྒྱབ་སྐྱོར་བ་	-9.99475
ཏིང་འཛིན་	-9.99489
ག་ལ་	-9.99526
བོད་མི་ཚོའི་	-9.99562
འབྱུང་་་	-9.9957
མཇུག་	-9.99589
་ཡི་	-9.99647
གོ་ཆ་	-9.99679
གཉིས་སྨན་	-9.99732
འདེགས་འབུལ་ཞུས་	-9.99741
ཆེན་པོ	-9.99769
གཟའ་པ་སངས་ཉིན་	-9.99771
ཐེ་ཙོམ་	-9.99774
སྐུའི་འཁྲུངས་	-9.99776
▁ཞེས་སོགས་ཀྱི་	-9.99794
ངག་དབང་	-9.99803
མེས་	-9.9983
འབྱུང་སྟེ་	-9.99836
ཡིན་པའི་ཕྱིར་རོ་	-9.99873
སོང་བ་	-9.99914
དེ་གཉིས་ཀྱིས་	-9.99923
ཆོས་དང་	-9.99949
རྙེད་པ་དང་	-9.99975
ཐལ་	-9.99984
ོ་་	-10.0002
འགའ་	-10.0008
སོ་ཞེས་	-10.0014
མྱ་ངན་ལས་འདས་ནས་	-10.0018
ཞིག་ཡོད	-10.002
སྔ་དྲོ་	-10.0021
འདུན་པ་	-10.0021
བགྱི་བའི་སླད་དུ་	-10.0028
པད་མའི་	-10.0031
ཚོགས་ཀྱི་	-10.0033
སྲང་	-10.0041
ཆོལ་གསུམ་	-10.0043
འི་སྟོབས་བཅུ་	-10.0044
འི་གནས་སུ་	-10.0045
ཉན་ཐོས་ཀྱི་ཐེག་པ	-10.0046
ཧུ་	-10.0047
▁དམ་པའི་ཆོས་	-10.0053
གནང་དགོས	-10.0058
ཡིད་དུ་འོང་བ་	-10.0061
ཐེག་པ་ཆེན་པོ་	-10.0061
ལན་གསུང་བ་ནས་དེ་	-10.0062
ཐུན་མིན་	-10.0065
སོ་སོའི་སྐྱེ་བོ་	-10.007
ལ་སྙོམས་པར་འཇུག་	-10.0071
ལགས་ཀྱིས་ས་གནས་	-10.0072
བྱེད་པ	-10.0073
ཡོང་དུས་	-10.0076
སྙིང་རྗེའི་	-10.0079
ཡོངས་སུ་དག་པ	-10.0084
ལ་མཚོན་ནའང་	-10.0086
འབྲས་སྤུངས་	-10.0088
འགྲེལ་བརྗོད་	-10.0089
བར་གྱུར་ཏོ་་	-10.009
ཞུགས་ནས་	-10.0094
ཆག་	-10.01
ཀྱི་ཚབ་ཞུས་ཏེ་	-10.0105
འཕྲུལ་	-10.011
ཧ་ཅང་ཡག་པོ་	-10.0113
དེའི་ཚེ་དེའི་ད	-10.0116
▁འགྲོ་བ་	-10.012
ཡང་དག་པར་ཞུགས་པ་	-10.0123
ཟུར་པ་	-10.0128
བརྒྱ་བྱིན་གྱིས་	-10.0131
རྒྱ་གཞུང་གི་	-10.0132
ཕྱི་ལོ་ཚེས་	-10.0135
གནས་སྟངས་སྐོར་	-10.0135
མལ་	-10.0143
ོང་	-10.0147
ཆེན་པོ་ཞིག་	-10.0151
སྨྲས་སོ་	-10.0157
རེས་	-10.0158
འདི་སྙམ་དུ་སེམས་	-10.016
དབང་དུ་	-10.016
འཕྲུལ་ཆས་	-10.0161
▁བསྐལ་པར་	-10.0163
མིས་	-10.0163
སྡོམ་	-10.0164
བཞིན་པ་	-10.0169
ཕབ་	-10.0175
གཟའ་སྤེན་པ	-10.0178
མཁས་པས་	-10.0178
ནས་དེ་	-10.0178
དང་དེ་བཞིན་	-10.0179
ནས་དེའི་ཕ་རོལ་	-10.018
གསལ་བ་	-10.0185
ར་མི་བགྱིད་	-10.0186
བཞུགས་སྒར་རྡ་སར་	-10.0187
ཁང་གི་འགན་འཛིན་	-10.0187
དགོངས་པ་བཞེས་	-10.0187
ཕྱག་རྟགས་	-10.0194
བྱེད་པ་་	-10.0195
སྲིད་དོན་ཚོགས་པ	-10.0199
་དེས་	-10.0199
ཐེངས་དང་པོ་	-10.0203
དཔོན་	-10.0203
འི་བཅའ་ཁྲིམས་	-10.0216
དུས་ཆེན་	-10.0217
ལུང་བསྟན་པ་	-10.0217
པུ	-10.0218
འི	-10.0221
རྒ	-10.0222
འདི་ལས་	-10.0222
བདེ་འཇགས་	-10.0223
བོད་དོན་བདེན་	-10.0227
གསུང་འཕྲིན་	-10.0228
མངོན་པར་རྟོགས་པ	-10.023
གོ་སྐབས་འདི་	-10.0242
ཀྱི	-10.0244
བོད་རིགས་ཚོགས་པ	-10.0248
ཤུགས་ཆེ་གནང་	-10.0249
གདོན་	-10.025
དེ་སྔོན་	-10.0252
ལུ	-10.0253
རིན་པོ་ཆེ་སྣ་	-10.0259
དུས་སྟོན་	-10.026
ཚན་པ་	-10.0261
ངེས་པར་འབྱུང་བ་	-10.0261
སྐུ་ཚེའི་འཕེན་པ་	-10.0273
མྱ་ངན་གུས་འདུད་	-10.0273
ཕྱུང་	-10.0274
འོང་བ་	-10.0274
བདག་མེད་	-10.0275
▁སྐད་ཡིག་	-10.0277
འགོག་པ་	-10.0282
▁ཤེས་ཡོན་	-10.0283
ངོམས་	-10.0285
སྐྱོབ་	-10.0288
ཁབ་	-10.0288
སྒང་	-10.0288
ྭ་	-10.0291
བསྐོར་བ་	-10.0292
མ་བྱུང་	-10.0293
མཆོག་གིས་གཙོས་	-10.0296
སྒྲོན་མ་	-10.0297
ཆང་	-10.0298
མི་ལོ་	-10.03
ཨི	-10.0302
སོ	-10.0306
བསྐོ	-10.0307
ལོ་འཁོར་	-10.0308
གོ	-10.0309
ལས་འདས་པ་	-10.031
སྐྱོ	-10.031
བེད་སྤྱོད་	-10.031
ཕྱག་ལས་	-10.0311
རང་བཞིན་གྱི་	-10.032
གནས་སྡོད་	-10.032
གཞུག་	-10.0321
བསམ་འཆར་	-10.0322
གཏན་འཁེལ་	-10.0324
སོགས་པ་དགེ་སློང་	-10.0332
▁དེ་ནས་དེའི་ཚེ་	-10.0339
སླད་དུ་	-10.0341
རབ་ཏུ་འབྱུང་བ	-10.0345
ལོ་ལྟར་	-10.035
ཆུད་	-10.0351
དཔོན་རིགས་	-10.0351
གི	-10.0354
ལ་བརྩོན་	-10.0355
པ་ལྟར་	-10.0357
གསུང་ཆོས་	-10.0359
གཡོས་	-10.0363
མངོན་པར་འདུ་བྱ་བ	-10.0371
བདེ་སྡུག་	-10.0375
སེང་གེའི་ཁྲི་	-10.0376
དི	-10.038
སྨན་རྩིས་ཁང་གི་	-10.0384
་དེ་ཚེ་	-10.0384
ར་གྱུར་ཏེ་	-10.0385
བོད་མིའི་ཐོག་	-10.0386
ཆེ་བསྟོད་	-10.0388
དགོས་པ་རེད	-10.0389
གཟེངས་བསྟོད་	-10.0391
རྒྱལ་ཁབ་ཁག་	-10.0391
ཡི	-10.0392
གཙོ་བོར་གྱུར་བའི	-10.0398
དྲི་མ་མེད་པ་	-10.0405
ཕྱོགས་ཀྱི་	-10.0405
འོད་གསལ་	-10.0408
སྨྲས་	-10.0411
རྗེས་སུ་ཡི་རངས་	-10.0415
ཀྱི་རྣམ་གྲངས་	-10.0416
འབར་	-10.0417
སྟོབས་ཆེན་	-10.042
དང་འདྲ་བ་	-10.0421
སྤོང་བ་	-10.0421
བུས་	-10.0435
ངོ་བོ་ཉིད་སྟོང་	-10.044
གཞས་	-10.0441
་མཆོག་དང་	-10.0441
བཤད་ཀྱི་ཡོད	-10.0446
གུས་	-10.0447
འབྱུང་གནས་	-10.0448
གནང་ཡོད་པ་མ་ཟད	-10.0449
ཐོགས་པ་	-10.0452
དགའ་བར་	-10.0464
དང་པོའི་	-10.0466
དང་་ལུས་དང་་ཡིད་	-10.0469
གློག་	-10.0471
སྟེན་	-10.0473
དམར་	-10.0475
ཚབས་ཆེ་	-10.0476
བྱ་རྒྱུ་ཡིན	-10.0477
ཏམ་	-10.0478
འབར་བ་	-10.048
ནད་གཞི་	-10.0484
ཨིན་	-10.0486
རྣ་བ་	-10.0487
སྒྲོགས་	-10.0492
དགོན་པར་	-10.0496
རྒྱ་ནག་གཞུང་	-10.0497
སྡིག་པའི་ལས་	-10.0499
གང་དང་གང་དུ་སྐྱེ	-10.0502
བཅོམ་པ་	-10.0503
རྩྭ་	-10.0504
སོང་ལ་	-10.0505
འཆི་མེད་	-10.0507
ཕྱག་རྒྱ་	-10.0509
འདུགཅེས་	-10.0509
སྐྱེ་མཆེད་དྲུག་	-10.051
སྐོར་གྱི་	-10.0515
པར་འགྱུར་བ་དང་་	-10.0521
སུས་	-10.0522
རྗེས་སུ་དྲན་	-10.0523
དབ	-10.0524
མཐོ་	-10.0524
གྲོང་ཁྱེར་གྱི་	-10.0528
བདུད་སྡིག་ཅན་	-10.0536
▁ང་རང་	-10.0541
ཤིང་ལྗོན་པ་	-10.0544
་འདོད་རྒུ་གླིང་	-10.0546
སུད་སིའི་	-10.0548
ཁྲི	-10.0548
ལྷུན་པོ་	-10.0554
ཕོ	-10.0558
ལོག་པར་	-10.0558
ཞེས་བརྗོད་	-10.0559
གྱོན་	-10.0564
བ་རྣམས་	-10.0565
ལྷ་སར་	-10.0566
སྐད་ཅིག་	-10.0568
འབྲེལ་མཐུད་	-10.057
ཆོས་གང་ཡང་	-10.0573
ནམ་མཁའི་	-10.0574
འགོ་བཙུགས་	-10.0574
བྱེད་པར་	-10.0577
ཞིག་གི་	-10.0582
ངེས་པར་འབྱུང་བ	-10.0583
་ཞིག་	-10.0585
ཅུང་ཟད་	-10.0585
འཆི་བ་	-10.0586
སྲེད་མེད་ཀྱི་བུ་	-10.0587
ནང་སྟོང་པ་ཉིད་	-10.0588
འགྲོ་སྟངས་	-10.0589
བསྡུས་	-10.059
ཐབས་དང་	-10.0591
མཛད་རྗེས་	-10.0592
ཡིད་ཀྱི་རྣམ་པར་	-10.0593
འགྲེལ་བཤད་	-10.0597
ནན་ཏན་	-10.0597
སྐྱེ་བའི་	-10.06
▁འདུ་བྱེད་	-10.0602
ཨ་རུ་ན་ཅལ་	-10.061
གཟབ་རྒྱས་ཞུས་ཡོད	-10.0611
རབ་ཏུ་ཤེས་	-10.0615
འགོད་	-10.0619
རྒྱུད་ཀྱི་	-10.0623
གང་གའི་ཀླུང་ག	-10.0623
▁ངའི་	-10.0625
▁བཟང་སྐྱོང་	-10.0631
བཞུགས་སྒར་དུ་	-10.0632
གཞུང་དང་གཞུང་	-10.0633
དེ་བས་	-10.0634
གཅིག་དང་	-10.0636
པའི་ཚིག་བླ་དགས་	-10.0637
མཐོན་པོ་	-10.0638
མཐའ་ཡས་པ་	-10.0641
རབ་ཏུ་ཤེས་སོ་་	-10.0643
ཞེས་བྱ་བ་དེ་ནི་	-10.0644
▁འདོད་ཆགས་	-10.0644
འཛིན་པ་དང་་	-10.0646
ལས་ཡོངས་སུ་ཐར་བ	-10.0648
དགྱེས་	-10.0657
དེ་རིང་འདིར་	-10.0665
བྱས་པ་ཡིན	-10.0671
རང་བྱུང་	-10.0671
ཁོང་ལ་	-10.068
འདབ་མ་	-10.068
ཇི་འདྲ་ཞིག་	-10.0681
ཁོ་བོ་	-10.0681
འདི་དག་ཐམས་ཅད་	-10.0683
ཐམས་ཅད་དང་་	-10.0685
ཡོད་པ་རྣམས་	-10.0689
བཀའ་མོལ་	-10.0693
་བཅས་	-10.07
མེ་ལ	-10.0703
གྱི་ཁམས་འདི་	-10.0708
བསྟི་གནས་	-10.0712
བརྙེས་	-10.0713
ཁག	-10.0715
རྒྱ་མཚོ་ཆེན་པོ་	-10.0716
གུས་པར་	-10.0716
▁འདིས་	-10.0718
སྤུ་	-10.0718
གནང་ནས་	-10.0718
གན་དུ་	-10.0718
ཡིད་འོང་	-10.0719
▁གང་ལ་	-10.072
ཐུགས་སུ་ཆུད་ནས་	-10.0723
སྐྲག་	-10.0724
གཞན་དག་ཀྱང་	-10.0724
བརྩི་	-10.0725
འི་འགན་འཛིན་	-10.0727
ཡོངས་གྲགས་	-10.0728
གནམ་གཤིས་	-10.0735
ཐ་དད་པ་	-10.0739
བྱིས་པའི་	-10.0742
▁སྐྱེས་བུ་	-10.0742
རྒྱུག་	-10.0742
པར་གྱིས་་	-10.0744
སེམས་ཅན་གང་དག་	-10.0748
ཡོངས་སུ་རྫོགས་	-10.075
ལྡི་ལིར་	-10.0751
ཡང་དག་པའི་མཐའ་	-10.0757
བསྲུངས་	-10.0761
རྒྱུ་ཡིན་པ་	-10.0762
འཐུས་མི་ལ	-10.0768
མེད་ལ་	-10.0773
དབུས་སུ་	-10.0773
བྱའོ་	-10.0774
རྒྱ་གར་ནང་གི་	-10.0777
གྱི་བར་དུ་	-10.0782
ཧིན་སྒོར་འབུམ་	-10.0782
མང་གཙོ་དང་	-10.0786
དབུགས་	-10.0787
སྲིད་གཞུང་	-10.0789
དང་མཐུན་པའི་	-10.0789
བསྒོམས་	-10.079
▁ང་ནི་	-10.0793
དེ་སྙེད་	-10.0796
་དེ་ལྟར་	-10.0798
འཁྲུག་	-10.08
འགྱུར་བའི་	-10.0801
བཟང་པོ་ཞིག་	-10.0804
འདུགཕྱོགས་མཚུངས་	-10.0806
དུས་དྲན་	-10.0807
བཞུགས་སོ་་	-10.0807
སུམ་ཅུ་རྩ་གསུམ་པ	-10.081
བཟའ་	-10.0811
དང་བསྟུན་	-10.0814
སྤྲོ་	-10.0819
ངོ་བོ་ཉིད་ཀྱིས་	-10.0821
ཕ	-10.0825
དཔག་མེད་	-10.0828
▁ཀྱེ་རྒྱལ་པོ་	-10.083
ལོ་རྒྱུས་ཀྱི་	-10.0831
▁འདས་པའི་ལོ་ངོ་	-10.0832
ཞག་	-10.0835
མི་དགེ་བའི་ཆོས་	-10.0847
ཕྱིན་པ་	-10.0847
ཡི་དགས་	-10.085
▁སྲེད་མེད་ཀྱི་བུ	-10.0851
ཚན་པའི་འགན་འཛིན་	-10.0852
སྐྱོད་	-10.0853
དང་ཐབས་ཅིག་ཏུ་	-10.0855
བ་བཏུད་དེ་	-10.0857
▁ཀ་ཤི་ཀ་	-10.0859
ཆོག	-10.0862
འདུན་	-10.0863
ཕུག་	-10.0867
དབུ་འབྱེད་གནང་	-10.0867
ཉམས་ཞིབ་ཁང་གི་	-10.0871
མེད་པ	-10.0874
འགྲན་བསྡུར་	-10.0875
མདུན་ལམ་	-10.0875
དམིགས་སུ་མེད་	-10.0876
ཧ་ལམ་	-10.0877
ཤེས་ནས་	-10.0877
བཟང་ཕྱོགས་ཀྱི་	-10.0879
པོ་དེ་དག་	-10.088
བདེ་གཤེགས་	-10.088
དེ་དང་འཐུན་པའི་	-10.088
སྡུག་བསྔལ་བ	-10.0885
ཐབས་མཁས་པ་	-10.0888
ཧ་ཅང་མང་པོ་	-10.0889
དེ་ཡང་མི་དམིགས་	-10.0889
དྲུག་ཅུ་	-10.0899
▁ལྷའི་	-10.0901
སྦྱར་བར་བྱའོ་་	-10.0902
▁ཁྱེད་	-10.0902
བླངས་པ་	-10.0905
མཆིས་པ་	-10.0911
འཕེལ་བ	-10.0915
ལོ	-10.0917
དེས་སྨྲས་པ་	-10.0919
▁སྲོག་ཆགས་	-10.0921
གཞོན་	-10.0927
རྒྱ་སྐྱེད་	-10.093
གྱི་ཁམས་མི་མཇེད་	-10.0933
དེ་ལ་ཡང་	-10.0934
པར་མི་འགྱུར་	-10.0937
འདྲི་	-10.0941
གསལ་བར་	-10.0941
གསོད་	-10.0941
▁ཕྱི་རྒྱལ་	-10.0944
མཛད་སྒོའི་	-10.0948
▁གོང་ས་	-10.0948
་འདི་ལྟར་	-10.0952
དྲིས་	-10.0955
དཔའ་	-10.0958
ཉི་མའི་	-10.0959
ངོན་སུམ་དུ་བྱེད་	-10.096
ིན་	-10.0962
ལྔའི་	-10.0962
ཚོགས་པ་དང་	-10.0962
ཀེ	-10.0966
ཆོས་ཀྱི་རྣམ་ག	-10.0967
བསྐོར་	-10.0968
གནམ་	-10.0969
རྨ་	-10.097
འདིར་ནི་	-10.0971
ཨུ་རུ་སུའི་	-10.0971
▁ཕྱིས་སུ་	-10.0974
ཚངས་	-10.0974
་གཡས་པའི་ལྷ་ང་	-10.0975
ཚུན་ཆད་	-10.0975
ཐོགས་ཏེ་	-10.0976
ཅེས་བྱ་སྟེ་	-10.0979
ལགས་ཀྱི་	-10.0981
པར་གྱུར་ཏོ་	-10.0983
བརྒྱུད་རིམ་	-10.0984
ཤོས་	-10.0984
བསམས་	-10.0987
རྣམ་རྟོག་	-10.0987
སི	-10.0988
ཆོས་དེ་དག་	-10.0989
▁དུས་རབས་	-10.099
▁དེ་འདྲའི་	-10.0991
ངོ་སྤྲོད་དང་	-10.0995
མང་ཚོགས་ཀྱི་	-10.0998
རྒྱ་ནག་ལ་	-10.0999
རྡོག་རོལ་གཏོང་	-10.1004
གཟིགས་འབུལ་ཞུས་	-10.1006
སུ་ཡང་	-10.1011
▁རྒྱ་གར་ནང་	-10.1016
དབུ་བཞུགས་ཐོག་	-10.1019
སྔོན་གྱི་མཐའ་	-10.1021
བོད་རྒྱའི་	-10.1021
རིགས་ཀྱི་བུ་ཆོས་	-10.1026
བློན་ཆེན་ཟུར་པ་	-10.1027
ལྟ་བུ་དང་་	-10.103
མ་སྐྱེས་པ	-10.1031
སྨན་རྩིས་ཁང་	-10.1031
ཕེབས་འབྱོར་སྐབས་	-10.1036
བསལ་	-10.1036
ཁག་གཅིག་ལ་	-10.1036
ཁ་གསལ་	-10.1036
བསྟན་ཏེ་	-10.1037
ནང་སྲིད་	-10.1039
དང་་བཟོད་པའི་	-10.1039
ཐུབ་པར་	-10.1039
གྲངས་གསུམ་རིང་	-10.1042
མཚན་མོ་	-10.1043
དེ་འདྲའི་ཐོག་ནས་	-10.1044
་པ་དང་	-10.1048
▁དུས་	-10.1052
པར་བྱེད་་	-10.1053
བཞུགས་སྒར་རྡ་ས་	-10.1055
འགྲོ་རྒྱུ་	-10.1056
མི་བྱེད་	-10.1057
ནག་པོ་	-10.1064
རྒྱུན་ལས་རྣམ་པ	-10.1064
འི་སྐོར་	-10.1065
▁འདས་པའི་	-10.1065
པ་ཡིན་ནོ་	-10.1065
བྱ་སྤྱོད་	-10.1066
ག་ལ་བ་དེར་སོང་	-10.1066
འབྲིང་	-10.1068
▁དགེ་སློང་དག་ང་	-10.1068
གཏན་	-10.1075
་བཏང་ངོ་་་	-10.1076
གོང་ནས་	-10.1078
་ཉིད་	-10.1081
རྫོགས་པའི་	-10.1087
མེ	-10.1094
བཟའ་བ་དང་བཅའ་བ་	-10.1097
སྔར་ལྷག་	-10.11
སྤྲུལ་པའི་	-10.1101
རིམས་སྔོན་འགོག་	-10.1103
ཚན་	-10.1103
ཚེ་རབས་	-10.1103
རྩོམ་ཡིག་	-10.1108
རྣམ་འགྱུར་	-10.111
སྨན་གྱི་རྒྱལ་པོ་	-10.111
དྲུང་ཆེ	-10.1112
རྣམ་པར་ཤེས་པ	-10.1112
▁དེ་གཉིས་	-10.1115
རིའི་	-10.1115
གྲང་	-10.1116
བྱུང་བར་	-10.1117
པར་འབྱུང་བ་	-10.1119
འགའ་ཞིག་	-10.1121
གནང་རྗེས་	-10.1124
གདན་ས་	-10.1124
གནོད་སེམས་	-10.1125
ཞུས་ཏེ་	-10.113
དགོན་སྡེ་	-10.1135
ཤེས་རབ་ཀྱིས་	-10.1136
གནས་པར་	-10.1138
གནང་སྟེ	-10.1139
དགྲ་བཅོམ་པ་ཉིད་མ	-10.1143
ར་མི་འགྱུར་	-10.1144
བཞིན་པ་དང་	-10.1147
བླ་ཆེན་	-10.1151
མཚན་མ་མེད་པ་དང་་	-10.1153
གཟུགས་སུ་	-10.1159
▁འགྲོ་བ་མིའི་	-10.1159
ཧོ	-10.1159
བག་ཆགས་	-10.116
ཡོངས་ཀྱི་	-10.1161
▁ཉོན་མོངས་པ་	-10.1163
ཕྱི་རོལ་གྱི་	-10.1164
བརྩམས་	-10.1167
ཐ་ན་	-10.1171
ཤེས་པ་ཞེས་བྱ་སྟེ	-10.1181
ཚིགས་	-10.1183
གཞུང་དང་	-10.1183
ཕེབས་སྐབས་	-10.1185
རྒྱལ་ས་ལྡི་ལིར་	-10.1187
་སྐོར་དང་	-10.1188
ལྟ་ཅི་སྨོས་	-10.1192
དུས་སྐབས་	-10.1195
རྒྱལ་པོས་	-10.1196
དེ་དག་ལས་	-10.1197
གས་ཀྱི་	-10.1197
ལ་བ	-10.1199
ཙམ་དུ་	-10.1202
བཀའ་ཤག་གིས་	-10.1202
བསྟོད་	-10.1205
གནས་ནས་	-10.1219
འི་གནས་	-10.122
གཏིང་ཟབ་	-10.1223
དགེ་འདུན་འཚོ་	-10.1224
གཙོས་པའི་	-10.1228
ཁག་དང་	-10.1231
ཟླ་བའི་	-10.1234
དུས་ཡུན་	-10.1238
བོད་མཐོ་སྒང་གི་	-10.1238
དགོངས་ཚུལ་	-10.1242
▁བསྐལ་པ་	-10.1242
ཆོས་ཀྱིས་	-10.1251
བླ་མེད་	-10.1251
ཆོ	-10.1256
གདུལ་བྱ	-10.126
དྷ་	-10.1263
འདས་པ་	-10.1263
པ་སོགས་	-10.1264
འགྱུར་ལྡོག་	-10.1264
བོད་མི་ཡོངས་ཀྱི་	-10.1264
ཁོངས་སུ་	-10.1264
བཀའ་སྩལ་ནས་	-10.1266
ཀྱི་སྲིད་བྱུས་	-10.1267
▁ཤིན་ཏུ་	-10.1267
བོར་	-10.1268
ཅེས་བྱའོ་་	-10.1268
སངས་རྒྱས་ཀྱིས་	-10.1274
ཆོས་འདི་	-10.1278
བཅས་པ་	-10.1296
་པ	-10.1297
བརྗོད་དུ་མེད་པ	-10.1301
་རུ་	-10.1304
་འདི་ནི་	-10.1304
གཙོ་	-10.1306
ཞུས་པ་དང་སྦྲགས	-10.1307
ལྷུང་	-10.131
རྩིས་ཞིབ་	-10.1311
སྡོད་ཁང་	-10.1314
སྐོམ་	-10.1316
སྐྱབས་བཅོལ་	-10.1317
རུས་	-10.1317
ཕེབས་བསུ་	-10.1318
ཡོང་རྒྱུར་	-10.1319
ཕྱི་ནང་གི་	-10.132
ལོ་རྒྱུས་ཐོག་	-10.1323
རིང་ལུགས་ཀྱི་	-10.1326
▁དེང་སང་	-10.1326
རིམ་གྱིས་	-10.1328
ཚེ་རིང་ལགས	-10.1332
གསར་འཛུགས་གནང་	-10.1333
གཙོ་བོ་ནི	-10.1334
སྒྱུ་མ་	-10.1335
བོད་མི་མང་	-10.1335
ཡོད་ན	-10.134
སྤྱི་ཚོགས་ཀྱི་	-10.1342
འཁོར་ལྷ་ཚང་བསོད་	-10.1345
ཐེ	-10.1349
▁ཡུལ་	-10.1349
གཟུང་	-10.1351
གང་མགྱོགས་	-10.1351
ཆོས་བསྟན་ཏེ་	-10.1352
མི་རབས་	-10.1354
ཐོག་དམ་བསྒྲགས་	-10.1355
བརྫུན་	-10.1356
གསོ་	-10.1359
གཙོ་བོར་	-10.136
གཟུགས་ཅན་སྙིང་པོ	-10.1361
གལ་ཆེའི་	-10.1365
སྤྱོད་པ་དང་་	-10.1366
མ་མཆིས་་	-10.1367
རྨོངས་པ་	-10.1367
ཉན་ཐོས་ཆེན་པོ་	-10.1369
རྫོགས་པར་	-10.1371
ཀརྨ་ཡེ་ཤེས་མཆོག་	-10.1371
ཡོད་པས	-10.1371
འག	-10.1372
བརྒྱ་ཕྲག་	-10.1373
མ་འོངས་པའི་	-10.1374
མེའི་	-10.1377
▁དྲང་སྲོང་	-10.1377
ཀྱི་ཐོག་ནས་	-10.1378
པར་གྱུར་ཅིག་	-10.1385
སྒ	-10.1389
▁ཧོང་ཀོང་	-10.1398
དེར་བརྟེན་	-10.1398
▁གང་གི་	-10.14
ུག་	-10.141
ཟད་པར་	-10.1413
ཐང་ལྷན་ཁང་གི་	-10.1416
མཛད་དེ་	-10.1417
འདོད་ན་	-10.1417
སུམ་ཅུ་	-10.1423
འི་འབྲས་བུ་དང་་	-10.1426
མིང་དང་གཟུགས་	-10.1427
དམ་པ་ཁོང་གི་	-10.1428
ཧ་ཅང་ཆེན་པོ་	-10.143
བརྡ	-10.143
▁བདེ་བར་གཤེགས་པ་	-10.1433
ཇ	-10.1435
སྤྱོད་པའི་	-10.1438
ཉན་ཐོས་དང་རང་	-10.1439
ར་བྱེད་པ་	-10.1444
▁རིགས་ཀྱི་བུ་འདི	-10.1446
བྱུང་བ་དང་	-10.1447
ཀྱ	-10.1449
སད་	-10.1455
ཚེ་དབང་རྒྱལ་པོ་	-10.1458
ཆ་ནས་	-10.1462
སྟོང་པར་	-10.1465
་ཇི་སྙམ་དུ་སེམས་	-10.1468
རྒྱལ་ཆེན་བཞིའི་	-10.1472
བྱིན་གྱི་རླབས་	-10.1472
་ཡིན་ཏེ་	-10.1474
བཀོད་ཁྱབ་	-10.1475
བོད་མི་དང་	-10.1477
་རྣམས་དང་་	-10.1478
མེད་པའི་ཕྱིར་	-10.1478
པར་མི་འགྱུར་རོ་་	-10.1481
ཐང་གི་	-10.1484
མོ་་	-10.1485
ཨར་	-10.1488
གྱིས་་	-10.1488
གློད་བཀྲོལ་	-10.1489
ེན་གཟབ་རྒྱས་ཞུས་	-10.1491
ལྟས་	-10.1491
ཏུ	-10.1492
མྱོང་ཡོད	-10.1492
གནང་ཡོད་འདུག	-10.1501
བག	-10.1506
ཨ་རིའི་གཞུང་གིས་	-10.1507
འགྲེམས་སྤེལ་	-10.1519
གསུང་འདོན་གནང་	-10.1519
སྐྱབས་མགོན་ཆེན་པ	-10.1521
ལྡན་་	-10.1523
བསྟན་པར་	-10.1524
གཞུང་མང་གཉིས་ནས་	-10.1524
ཐམས་ཅད་ལས་	-10.1525
མི་ཤེས་པ་	-10.1526
བཟོད་པའི་	-10.1528
ཇ་	-10.153
སྲིད་བྱུས་འོག་	-10.1533
གྲོས་	-10.1535
ཕེབས་ཐོན་གནང་	-10.1535
ཞུགས་ཏེ་	-10.1536
▁བཅུ་གང་ཞེ་ན་	-10.1541
རིས་མེད་	-10.1543
དེ་རེད	-10.1544
མགོ་བོ་	-10.1545
ཡོང་སྐབས་	-10.1546
སྔ་མ་	-10.1549
འགྲོ	-10.155
གནང་རྗེས	-10.1553
དང་་ཞེ་སྡང་དང་་	-10.1556
མི་མངའ་	-10.1557
་འཇིག་རྟེན་	-10.1562
པའི་ཆོས་	-10.1563
བགྱིས་	-10.1564
▁མད་གལ་གྱི་བུ་ང	-10.1569
དྲོ	-10.1579
པད་མ་དཀར་པོའི་	-10.1584
པྲ	-10.1585
མ་མཆིས་པར་	-10.1586
བཤམས་	-10.1586
ཕྱེ་	-10.1588
སྡོམ་པ་	-10.1592
རྒྱ་མིའི་	-10.1598
འཇིག་ཚོགས་ལ་ལྟ་བ	-10.16
མང་གཙོའི་ཀ་བ་	-10.1601
ཆོད་	-10.1604
མུན་པ་	-10.1607
ཤེས་་	-10.1607
་ཡིན་ནོ་	-10.1608
མི་བྱེད་་	-10.1612
ཨརྱ་	-10.1614
འཕར་	-10.1614
སྤྲོས་པ་	-10.1616
ཆུས་	-10.1616
སྭ་ཧ་	-10.1617
ཅེས་བྱ་བའི་	-10.162
དྲི་བར་ལན་འདེབས་	-10.1622
་ཡིན་དུ་བཅས་པའི་	-10.1623
ཞེ་	-10.1623
རྣམ་པ་གཉིས་	-10.1625
དགུང་ལོ་	-10.1627
བཀའ་སྩལ་ཏོ་	-10.1628
གཡོགས་	-10.163
བརྟན་བཞུགས་བསྟར་	-10.1635
སྦྱངས་	-10.1636
པ་མ་ཡིན་	-10.1641
གང་དག་གིས་	-10.1642
མཐར་གྱིས་	-10.1644
དམག་འཁྲུག་	-10.1644
འཁྱེར་	-10.1647
ཇི་སྙེད་ཡོད་པ་	-10.1647
རིན་པོ་ཆེས་	-10.1648
རིམ་གྲོ་	-10.1654
སྨྲ་བ	-10.1659
དྲག་པོ་	-10.1659
པའི་ནང་	-10.1661
སངས་རྒྱས་ཡེ་ཤེས་	-10.1662
རལ་གྲི་	-10.1665
ར་བྱས་ནས་	-10.1667
རྗེས་སུ་མི་མཐོང་	-10.1675
བར་གྱུར་	-10.1679
ལྷན་ཁང་གི་	-10.168
མངོན་པར་བསྟོད་དོ	-10.1682
རུ་ཁག་	-10.1686
སྣ་ཚོགས་ཀྱིས་	-10.1687
གཞུང་ནས་	-10.1691
དུས་ཐོག་	-10.1694
བསད་	-10.1697
ཞབས་འདེགས་	-10.1702
འཕྲལ་	-10.1705
རྣམ་རྒྱལ་	-10.1709
འི་རིང་	-10.1709
ནམས་སྟོབས་རྒྱལ་	-10.1709
གཉིས	-10.171
དབང་ཆེན་ལགས་	-10.1712
རོགས	-10.1713
མིག་གིས་	-10.1715
ལྟོ་	-10.1715
སྒེར་གྱི་	-10.172
་འདུ་བྱེད་རྣམས་	-10.1727
འབུམ་རམས་པ་	-10.1728
ལྟ་སྨོས་ཀྱང་ཅི་	-10.173
མ་ཡིན་གྱི་	-10.1733
གློ་བུར་དུ་	-10.1737
འོད་ཀྱིས་	-10.1741
བརྩོན་པ་	-10.1747
ལོ་ངོ་སྟོང་ཕྲག་	-10.1748
སྤོ་	-10.1748
དང་་ཤེས་རབ་ཀྱི་	-10.175
དྲུང་འཕར་	-10.1751
རྣམ་པར་གྲོལ་བའི་	-10.1753
བྲག་	-10.1755
ཆོས་སྟོན་ཏོ་་	-10.1756
བྱ་རྒྱུར་	-10.176
གཙོ་ཆེར་	-10.1762
རྣམ་པའི་	-10.1762
ལུས་པོའི་	-10.1762
མུས་ཡིན	-10.1764
གཤེགས་སོ་་	-10.1764
མདོ་སྡེ་འདི་	-10.1765
རྒྱ་གར་དུ་	-10.1771
པ་མེད་པ་དང་་	-10.1771
▁མི་རིགས་	-10.1773
སྐྱོ་བ་	-10.1775
ཟོས་	-10.1777
ཆོས་རྣམས་ཀྱི་	-10.1784
ཅེས་བྱ་བ་ཡོད་དེ་	-10.1785
ཐབས་ལ་མཁས་པ་	-10.1785
བསྲེགས་	-10.1786
བཏགས་	-10.1787
ཞིབ་ཕྲ་	-10.1789
བཙལ་	-10.179
འཕྲིན་ལས་	-10.1791
འཆང་	-10.1793
སྟ	-10.1794
ཡོངས་ཁྱབ་	-10.1796
རྒྱ་གར་གཞུང་གི་	-10.1796
བར་འགྱུར་	-10.1797
▁ཀ	-10.1797
་ཞེས་བྱའོ་་	-10.1798
བསགས་	-10.1804
ལོ་མ་	-10.1812
གྲོས་མཐུན་	-10.1812
▁ཆོས་རྣམས་	-10.1812
▁དེ་ནས་ཡང་	-10.1814
པ་ཡང་	-10.1814
གོང་ས་མཆོག་གིས་	-10.1816
དེ་འདྲ་ཞིག་	-10.1817
ཟུར་དུ་	-10.1817
ཟློག་	-10.1825
བདུད་རྩིའི་	-10.183
་བཅས་ཀྱི་	-10.1832
▁ག	-10.1833
རོལ་	-10.1834
བསྟོད་པ་	-10.184
མིག་གི་ཁམས་	-10.184
ས་ན་	-10.1842
རྣམ་པ་དུ་མ་	-10.1844
ཤེས་པར་	-10.1846
ཡོང་སླད་	-10.1848
ཡིན་ན	-10.1851
▁ཉི་ཧོང་	-10.1853
མཉམ་པར་	-10.1856
ང་མཉེས་པར་བྱས་ཏེ	-10.1861
ཚོལ་བ་	-10.1863
ར་བགྱིའོ་་	-10.1863
ཨེ	-10.1863
གི་དབང་པོ་ནི་	-10.1867
ནགས་	-10.1868
གཞན་དག་ལ་	-10.1871
དང་བཅས་པར་	-10.1872
དད་པས་	-10.1875
▁ཐེ་ཝན་	-10.1879
གྲོང་སྡེ་	-10.1881
དང་འདྲ་བར་	-10.1883
ཁང་དུ་	-10.1886
བསྐྱར་བཅོས་	-10.1886
མཛད་ནས་	-10.1888
བོད་ཀྱི་ཐུན་མིན་	-10.1889
འདུལ་བའི་	-10.1891
དཔག་ཏུ་མེད་པའི་	-10.1896
ཆོས་དེ་	-10.1904
▁ཉེ་ལམ་	-10.1904
ཞིག་ཡིན་པ་དང་	-10.1905
བྱ་བ་བཞུགས་ཏེ་	-10.1906
ལྟ་བ་དང་་	-10.1906
འཛིན་བཟུང་བྱས་	-10.1907
གང་གི་ཕྱིར་	-10.1909
མནར་གཅོད་	-10.191
རྗོད་	-10.1912
ལྡོག་	-10.1914
ཤུལ་	-10.1916
ཐམས་ཅད་མཁྱེན་པ་	-10.1919
གཉིས་དབར་	-10.192
▁དེས་དེར་	-10.192
▁བོད་པའི་	-10.1923
དེ་དག་དང་་	-10.1925
ཐབས	-10.1928
ཕམ་	-10.1929
སྲོལ་རྒྱུན་གྱི་	-10.1931
ཕྱིན་ཅི་ལོག་	-10.1936
ཚོང་དཔོན་	-10.1937
གྲགས་ཅན་	-10.1942
རྒྱ་ཆེན་	-10.1943
བརྒྱ	-10.1947
དགེ་ཚུལ་	-10.195
གཟའ་པ་སངས	-10.195
བཅྭ་བརྒྱད་	-10.195
འདི་སྙམ་དུ་	-10.1951
འགྲམ་	-10.1952
ཕྱོགས་དང་	-10.1954
གུ	-10.1957
གང་ལགས་	-10.1957
ཆོས་སྟོན་	-10.1958
ཐབས་ཤེས་	-10.1959
འབུམ་ཕྲག་	-10.1963
གཟིགས་སྐོར་	-10.1966
དུང་	-10.1967
ལྡང་	-10.1971
དམག་མི་	-10.1972
སྟོན་པར་བྱེད་པ་	-10.1979
སློབ་གཉེར་ཁང་གི་	-10.1986
ནང་ར	-10.1987
དངོས་པོ་མེད་པ་	-10.1987
གྲོང་ཁྱེར་ཆེན་པོ	-10.1988
མོར་	-10.1989
ལོགས་སུ་	-10.1992
རབས་	-10.1993
ལྷགས་ནས་	-10.1995
ལས་ཅི་བགྱིས་ན་	-10.1995
བ་ལྟ་ག་ལ་མཆིས་	-10.1995
སྐལ་	-10.1995
འདི་ལོའི་ཕྱི་ཟླ་	-10.1999
▁བསོད་ནམས་	-10.2
རྣམ་གཉིས་ཀྱིས་	-10.2002
▁རྒྱ་གཞུང་གིས་	-10.2003
དེ་མཐོང་ནས་	-10.2003
ད་རེས་	-10.2005
སློབ་ཕྲུག་གྲངས་	-10.2006
བསྐལ་པ་བཟང་པོ་	-10.2007
▁མ་ཕམ་པ་	-10.2007
བཙུགས་ནས་	-10.2009
▁སྡུག་བསྔལ་	-10.201
བར་བརྟེན་	-10.2014
ཅེས་བྱ་བ	-10.2015
བསྟན་ནས་	-10.2019
འཕྱ	-10.2021
པར་བྱེད་དེ་	-10.2023
མཚོན་ན་	-10.2025
རིན་	-10.2025
ལངས་	-10.2029
་དྭགས་པོ་བསོད་ནམ	-10.203
ང་དེའི་	-10.203
ལྡན་པ་ཞིག་	-10.2032
སྟག་	-10.2034
དོང་ངོ་་་	-10.2037
▁ལ་དྭགས་	-10.2039
སྔོན་དུ་	-10.2041
དུལ་བ་	-10.2043
རྣམས་ཀྱི་ནང་དུ་	-10.2043
འགན་འཛིན	-10.2044
ལམ་ལུགས་ནང་	-10.2048
འི་སྐབས་	-10.2051
ཡར་རྒྱས་ཐེབས་རྩ	-10.2051
ཕུལ་ཏེ་	-10.2054
ཁྱད་	-10.2054
ལྷ་དང་བཅས་པའི་	-10.2055
ནགས་ཁྲོད་	-10.2072
མགྲོན་འབོད་	-10.2076
འཚེ་བ་	-10.2076
སྟབས	-10.2078
ཐུབ་པ་ཞིག་	-10.2079
འདི་རྣམས་	-10.2084
ཁྲིད་དེ་	-10.2085
བླང་བ	-10.2089
པར་ཡང་	-10.2089
བསྐྱེད་ནས་	-10.2089
ར་བྱའོ་	-10.209
བཀའ་ཤག་ནས་	-10.21
ཕུལ་བ་	-10.2102
འི་རྒྱལ་པོ	-10.2103
ས་པ་	-10.2104
བཀྲ	-10.2104
སངས་རྒྱས་རྣམས་	-10.2106
མ་ཡིན་པ་དང་་	-10.2106
དུ་ཡོད་པའི་	-10.2107
ཚེ་དབང་	-10.2115
བསྐོ་གཞག་གནང་	-10.2116
སྨན་པའི་	-10.2124
དེས་ན་	-10.2125
ཀྱི་གྲོས་ཚོགས་	-10.2126
དགེ་སྦྱོང་དང་	-10.2129
ལག་འཁྱེར་	-10.213
སྐྱེའོ་	-10.2132
སྐྱེའི་	-10.2135
མཁན་དང་	-10.2136
་ཡིས་་	-10.2136
བྱམས་པ་དང་བརྩེ་བ	-10.2137
ཕྱག་འཚལ་ནས་	-10.2138
བོད་ནང་དུ་	-10.2138
འཛིན་པའི་	-10.2142
ལ་ལ་ནི་	-10.2144
འཛུམ་	-10.2151
ི་བྱེ་མ་སྙེད་དག་	-10.2152
ཕན་པ་	-10.2156
་ཡེ་ཤེས་	-10.2156
▁སྔོན་གྱི་	-10.2161
ཕྲག་དོག་	-10.2162
རྩ	-10.2164
གནང་དགོས་	-10.2165
དང་་བསམ་གཏན་གྱི་	-10.2169
ཁྱེད་ཅག་	-10.217
བྱས་་	-10.2174
ཡུམ་	-10.2177
དོན་དངོས་	-10.2178
མི་སྡུག་པ་	-10.2179
ལྷོ་ཨ་ཕི་རི་ཀའི་	-10.2181
མས་གང་གའི་ཀླུང་ག	-10.2182
ཉེ་བར་ཞི་བ	-10.2184
གནས་སྟངས་དང་	-10.2187
དང་་རྣམ་པར་ཤེས་པ	-10.2187
ཤོར་	-10.2191
སྲིད་བྱུས་ལ་	-10.2192
ཇི་ཡོད་	-10.2193
བོད་རིགས་སྤྱི་	-10.2194
རྣམས་ཀྱིས་མཆོད་	-10.2194
ར་འགྱུར་བའི་	-10.2197
སྐམས་	-10.2197
མ་ཐོབ་	-10.2198
མི་དགེ་བ་	-10.2199
ཚ་བ་	-10.221
ཕ་རན་སི་	-10.2213
འབྱུང་པོ་	-10.2217
པར་བྱའོ་	-10.2218
དང་མཉམ་དུ་	-10.2219
ཁྱེར་	-10.2225
གསོན་	-10.223
རྒྱ་མི་	-10.2238
ལ་འཇུག་པ་	-10.2243
མི་ཐུབ	-10.2245
▁ཁ་ཅིག་	-10.2247
ཕྱེ་མ་	-10.2252
ཙམ་ཞིག་	-10.2252
པ་ན་	-10.2252
འགན་འཛིན་རྣམ་པ	-10.2253
བོད་ནང་གི་ཛ་དྲག་	-10.2257
▁ད་དུང་	-10.2259
སྤྱི་ཡོངས་ཀྱི་	-10.2262
བབས་	-10.2262
སྤང་བ	-10.2263
ཧ་ལས་པའི་	-10.227
ནང་འཁོད་དོན	-10.227
ཁྲིམས་ཡིག་	-10.227
ལག་ལེན་	-10.2272
པ་དེར་	-10.2273
ཕྱིར་མི་ལྡོག་པ་	-10.2274
བ་བཏུད་ནས་	-10.2277
ཞུས་ནས་	-10.2277
གཟུགས་བཟང་ཞིང་	-10.2279
▁བུ་མོ་	-10.2279
▁འོད་སྲུང་	-10.2281
སྦེལ་ཇམ་	-10.2283
་མཆོག	-10.2285
གསུང་ཡོད	-10.2285
སྟོབས་དང་	-10.2287
ཅང་	-10.2288
ཁྲིམས་ཞིབ་ཁང་གི་	-10.2288
སྐྱེ་དགུ་	-10.2291
བསྐོ་གཞག་	-10.2295
བསྙེན་	-10.2297
བཀའ་དྲིན་བསྐྱངས་	-10.23
ཡན་	-10.23
དུས་ལ་བབ་	-10.2302
སྔོན་ལ་	-10.2303
རྫ	-10.2303
▁བཅོམ་ལྡན་འདས་ག	-10.2308
ལོ་་	-10.231
དེ་བཞིན་ཏེ་	-10.231
▁མཐའ་དོན་	-10.2311
ལྟར་མི་བལྟ་སྟེ	-10.2313
མགུ་བ	-10.2317
ནྡ	-10.2321
ལེགས་སོ་་	-10.2324
སྲུང་བརྩི་ཞུས་	-10.2328
གོང་གསལ་	-10.233
ཁག་ཅིག་	-10.2333
སྨོན་པ་མེད་པ་	-10.2335
སྤངས་ནས་	-10.2337
གྱུར་ནས་	-10.2338
བཅིངས་པ་	-10.2338
ཧར་	-10.234
རྒྱ་ནག་གིས་	-10.2344
ནང་པའི་ལྟ་གྲུབ་	-10.2347
ཉི་	-10.2347
འི་ཐོག་ནས་	-10.2347
འི་ཐོག་	-10.2348
དུད་འགྲོའི་སྐྱེ	-10.235
སྔོན་མ་	-10.2354
ཐབས་སུ་	-10.2357
པ་ཡིན་ཏེ་	-10.2358
ཞི་བ	-10.2358
དབང་པོའི་	-10.2361
ལམ་སྟོན་འོག་	-10.2362
དེ་དང་དེར་	-10.2363
ལ་མི་	-10.2365
འཚམས་གཟིགས་གནང་	-10.2366
དང་ལྡན་ན་	-10.2367
སྐ	-10.237
མཇུག་སྒྲིལ་	-10.237
ཕ་རོལ་གྱི་	-10.237
ལགས་བཅས་	-10.237
དཀའ་ཐུབ་	-10.2375
འདི་ལོའི་	-10.2377
བརྟག་	-10.2379
དྲིས་པ་	-10.2382
་བའི་རིགས་སུ་	-10.2388
བྱ་བ་དང་་	-10.239
བྱུང་སོང་	-10.2393
ལོང་	-10.2395
དུ་སྦྱར་རོ་་	-10.2398
བསམས་ནས་	-10.2401
བཞིན་ཡོད་པ་མ་ཟད	-10.2406
དགེ་བའི་རྩ་བ་རྣམ	-10.2407
སྤྱིའི་	-10.2407
རྣམ་པ་ཐམས་ཅད་དུ་	-10.2408
ཞུས་པའི་	-10.2409
ཚངས་པས་བྱིན་	-10.2409
ཆུ་སྲིན་	-10.2409
ཞུས་པ་ཡིན	-10.2411
ར་མི་བྱེད་དོ་་	-10.2413
མངོན་པར་འདུས་	-10.2415
ཕྱི་རོལ་	-10.2415
ད་རྡུལ་དངོས་ཁམས་	-10.2416
བོད་བསྟན་སྲིད་	-10.2416
དག་གིས་སྨྲས་པ་	-10.2417
བཅུ་གསུམ་	-10.2418
དེ་དང་རྐྱེན་དེ	-10.2418
ཇི་སྲིད་	-10.2418
བཞིན	-10.2418
མ་ཡིན་་	-10.2419
འུ་	-10.2421
བོ	-10.2422
རྒྱ་དཀར་ནག་གཉིས་	-10.2423
དོན་དམ་	-10.2425
མི་སེར་	-10.2428
ལ་བསྙེན་བཀུར་	-10.2429
ྭ་བརྒྱད་	-10.2429
སྤངས་ཏེ་	-10.2432
འབྱོར་པ་	-10.2433
བཅིངས་	-10.2434
རྐྱེན་གང་དག་གིས་	-10.2435
ཁག་གི་ནང་	-10.2436
རིགས་ལ་	-10.2439
དག་མངོན་པར་འདུས་	-10.2439
ར་བྱེད་དེ་	-10.2442
བཟློག་	-10.2444
གཞི	-10.2445
གངས་སྐྱིད་	-10.2446
བརྒྱ་སྟོང་དུ་མ་	-10.2446
གཟིགས་ནས་	-10.2448
འོན་ཀྱང་	-10.245
ཐུབ་ཐབས་	-10.2452
གོང་འཕེལ་གཏོང་	-10.2454
མཐོ་བ་	-10.246
ཀུན་ཀྱང་	-10.246
སྲེག་	-10.2462
གནད་འགག་	-10.2464
ན་ཚ	-10.2465
ཟེར་ནས་	-10.2466
བའི་དོན་དུ་སྔོན་	-10.2469
གང་དག་ཡིན་པ་	-10.2469
ཡངས་	-10.2469
ཨོ་གླིང་	-10.2471
▁སྲིད་པའི་	-10.2472
ཐབས་ཀྱི་	-10.2474
གྲོས་འཆར་	-10.2479
པའི་ཐོག་	-10.2482
གང་དང་གང་དུ་	-10.2486
ཉིད་ཀྱང་	-10.249
བོད་མི་རྣམས་ནས་	-10.249
མཆོད་སྦྱིན་གྱི་	-10.2491
སྦྱིན་པ	-10.2492
སྔོན་ཆད་	-10.25
གུས་པ་	-10.2505
བསླབ་པའི་གཞི་	-10.2508
འོག་མའི་འཐུས་མི་	-10.2511
གྱི་ཐོག་ནས་	-10.2513
ཞུགས་ཏེ་དེའི་ཚེ་	-10.2516
གྲོས་ཚོགས་སུ་	-10.2518
ཆེ་ཁག་	-10.252
▁རྒྱལ་བའི་	-10.2521
▁འདྲེན་པ་	-10.2521
ནང་པའི་ཆོས་	-10.2524
▁ཕྱི་དྲིལ་	-10.2525
འགྲིག་	-10.2532
▁འཕགས་པའི་	-10.2532
ཚངས་པ་མཚུངས་	-10.2537
ལ་མངོན་པར་ཞེན་པ་	-10.2539
དྲི་ཟ་	-10.254
སྐུ་མགྲོན་རྣམ་པ	-10.2541
ཡང་མ་ཡིན་ནོ་་	-10.2545
གསར་གཏོད་	-10.2546
སྐྱིལ་མོ་ཀྲུང་	-10.2546
་སིར་	-10.2548
དང་ལྡན་པར་	-10.2551
གྱི་སྲིད་བྱུས་	-10.2553
སྐྱེ་བོའི་ཚོགས་	-10.2553
ར་གྱིས་ཤིག་	-10.2556
▁ངོས་ཀྱི་	-10.2563
བཞུད་	-10.2563
མཐོ་སློབ་ཀྱི་	-10.2569
ཡིད་གཉིས་	-10.257
ནི་རབ་ཏུ་	-10.257
ལ་བཟོད་པ་	-10.2571
་སེམས་ཅན་ཐམས་ཅད་	-10.2579
དུས་རྒྱུན་དུ་	-10.258
བརྟན་ལྷིང་	-10.2586
སྟོང་པ་ཉིད་ལ་	-10.2589
དེ་སྐད་ཅེས་གསོལ་	-10.2589
ཁ་ཏོན་	-10.2593
འདོད་པ་རྣམས་ལ་	-10.2593
རྟེན་འབྱུང་	-10.2596
ཐེག་པ་ཆེན་པོ་ལ་	-10.26
བགྱིད་པ་	-10.2601
བཟུང་བ་	-10.2605
མཆོག་གིས་དབུས་	-10.2605
འདུས་མ་བྱས་ཀྱི་	-10.2606
ཟག་པ་ཟད་པ་	-10.2607
དྲ་ལམ་བརྒྱུད་	-10.2608
ཚོན་	-10.2611
་འཛུགས་ཀྱིས་	-10.2612
ཞི་གནས་	-10.2616
ཐམས་ཅད་དང་ལྡན་པ	-10.2621
འབད་བརྩོན་གནང་	-10.2623
སོ་སོས་	-10.2624
གསར་དུ་	-10.2625
ཡོ་བྱད་ཐམས་ཅད་	-10.2626
བ་དེ་	-10.2627
ཡུལ་དེའི་	-10.2629
ཞ	-10.263
ཚོགས	-10.2631
ཅེས་བྱ་བར་	-10.2631
▁དེ་ལྟ་བས་ན་	-10.2633
དུ་གནས་སྤོས	-10.2633
འགོ་འཁྲིད་	-10.2634
གནས་སྟངས་ཤིག་	-10.2635
▁དེ་སྔོན་	-10.2639
གྱུར་ཅིང་་་	-10.2639
ཕྱིར་ཡང་	-10.264
བགྱིའོ་་	-10.264
དགེ་འདུན་ལ་	-10.264
བཞོན་པ་	-10.2641
འཚམས་གཟིགས་	-10.2641
▁བོད་མི་ཚོས་	-10.2644
ནི་འདི་ལྟ་སྟེ་	-10.2647
ཀྱི་ཞིང་དེར་	-10.2649
རྒྱལ་བ་རིན་པོ་ཆེ	-10.265
བསླབས་	-10.2651
ར་གྱུར་པའི་	-10.2656
▁མེ་ཏོག་	-10.2659
འཚོལ་	-10.2662
མཐའ་དག་	-10.2662
ནས་ནི་་	-10.2663
བརྗོད་ཀྱི་ཡོད	-10.2664
གཞོན་ནུའི་	-10.2672
མུ་ཏིག་	-10.2674
འཐོར་	-10.2676
ཀར་ན་ཊ་ཀ་མངའ་སྡེ	-10.2676
སྐད་ཆ་བཤད་	-10.2681
ར་གྱུར་	-10.2681
བརྒྱུད་ལམ་	-10.2683
མི་གནས་	-10.2685
གྲོང་སྡེའི་	-10.269
དྲུང་གཞོན་	-10.269
འདུག་ཅེས་	-10.2692
ནང་ན་	-10.2692
ཡི་རངས་ཏེ་	-10.2699
བྱས་ཀྱང་	-10.27
་ཀྱི་རྩ་ཁྲིམས་	-10.2704
བསྡམས་	-10.2707
འདོད་ཆགས་ཀྱི་	-10.2707
འཕྲལ་དུ་	-10.2708
ལྷས་	-10.2714
འགགས་	-10.2716
ལ་མཚན་དང་་བ་དན་	-10.2716
ཅུང་ཟད་ཀྱང་	-10.2716
གོ་མཚོན་	-10.2717
སྤོང་	-10.2719
ཞིག་ཡིན་པ་	-10.2724
ཕྱག་འཚལ་	-10.2727
སྦྱང་	-10.2727
གསོ་བ་རིག་པའི་	-10.2729
སའི་ཁམས་	-10.2735
གནང་འདུགདེ་ཡང་	-10.2736
མ་འོངས་པ་	-10.2737
▁ཉན་ཐོས་	-10.274
བསྐལ་པ་གྲངས་མེད་	-10.2742
འོག	-10.2742
་བྱམས་པ་	-10.2745
ཆེ་མཐོང་	-10.2749
འོད་ཀྱི་	-10.2751
འདུགསྤྱིར་	-10.2754
གཅིག་ནི་	-10.2756
སླེབས་ཡོད	-10.276
བདུད་ཀྱི་	-10.2761
འགྲེལ་བཤད་རྒྱག་	-10.2764
དམན་	-10.2765
འབོད་སྐུལ་ཞུས་	-10.2765
སྨ	-10.2765
དུ་བྱུང་སྟེ	-10.2767
རྒྱ་ནག་ཝུ་ཧན་	-10.2767
གཟའ་མིག་དམར་ཉིན་	-10.277
ཉོན་མོངས་པ་མེད་པ	-10.2772
དེ་བདག་གིས་	-10.2777
སེམས་ཅན་དམྱལ་བ	-10.2782
དག་ན་	-10.2783
▁ཡོན་ཏན་	-10.2788
རྩོད་རྙོག་	-10.2788
ཆེད་ལས་	-10.2793
དེ་དག་གིས་ཀྱང་	-10.2796
གང་འདྲ་ཞིག་	-10.2797
མུ་སྟེགས་ཅན་	-10.2803
▁ཨིན་ཡུལ་	-10.2806
བཞེད་	-10.2809
དཔེར་ན	-10.2815
འི་སངས་རྒྱས་འོད་	-10.2817
མང་ཆེ་བ་	-10.2818
གང་བ་	-10.2824
གནང་རྒྱུ་ཡིན་	-10.2829
དེ་ཉིད་ཀྱིས་	-10.2831
དྲག་པོའི་	-10.2835
ཆོས་ཚོགས་	-10.2835
སྐར་མའི་རྒྱལ་པོ་	-10.2835
དཔལ་ཞེས་བྱ་བ་	-10.2836
རྒྱུ་བ་	-10.2836
བ་ལྟར་	-10.2837
རིག་སྔགས་	-10.2841
ཐོགས་ནས་	-10.2841
མིའམ་ཅིའི་	-10.2841
རྒྱལ་པོའི་ཁབ་ཏུ་	-10.2842
འོངས་པ་	-10.2842
གཞི་རིམ་	-10.2844
བགྱི་བ་	-10.2845
་མི་མཉེས་པར་མ་བ	-10.2848
ལྷ་དང་མི་དང་ལྷ་མ	-10.2849
རྒྱལ་སྤྱིའི་ནང་	-10.2852
རྔ	-10.2859
བསྐྱེད་དོ་་	-10.2862
ཆེ་ཞིང་	-10.2868
གླང་པོ་ཆེ་	-10.2869
རྣམས་ཀྱིས་ཀྱང་	-10.2873
འཁོར་དང་བཅས་པ་	-10.2873
▁དེ་ནས་དེས་	-10.2874
རྒྱབ་སྐྱོར་དང་	-10.288
ཐུབ་ཚེ་	-10.2882
ཟབ་པ་	-10.2883
བྱང་ཆུབ་སེམས་	-10.2883
ངེས་པ	-10.2886
འདམ་	-10.2886
ཐར་པ་	-10.2889
རྒྱ་ཆེ་བ་	-10.2891
འདུག་པ་དང་	-10.2897
བླང་	-10.29
བའི་ཐོག་ནས་	-10.29
འི་སྦྱིན་པ་	-10.2901
རྗེ་བཙུན་	-10.2904
གཟུགས་ཀྱིས་	-10.2906
སྤྲུལ་སྐུ་	-10.2909
▁མཁས་པ་	-10.2909
མི་མཇེད་ཀྱི་	-10.291
རྩེད་འགྲན་	-10.2913
ལྗོངས་	-10.2915
འཚོ་བར་	-10.2918
ཡིན་མིན་	-10.2919
ཐུགས་རྗེའི་	-10.2921
ས་གནས་འཐུས་ཚོགས་	-10.2923
འི་དབྱངས་ཀྱིས་	-10.2926
གསོས་	-10.293
ལགས་ཀྱིས་གཙོས་	-10.2931
རྒྱའི་	-10.2933
བར་བྱེད་དོ་་	-10.2938
▁བདག་ཉིད་	-10.2939
ཁྲིམས་ཀྱི་	-10.2939
གླུ་	-10.2943
འི་ངོ་བོ་ཉིད་	-10.2945
▁སློབ་ཕྲུག་	-10.2946
དབང་སྒྱུར་འོག་	-10.2947
མིན་པའི་	-10.2951
▁རང་གི་	-10.2953
ིར་	-10.2954
ཕུལ་ཡོད	-10.2955
ཉན་ཐོས་དང་་	-10.2955
མིན་་	-10.2958
▁དེ་ལ་འདི་སྐད་	-10.2959
བོད་དོན་སྐོར་	-10.2965
དཀའ་ངལ་དེ་དག་	-10.2968
ས་སོ་་	-10.2971
སྟོང་པ་ཉིད་ཀྱི་	-10.2973
ཐབས་བྱེད་བཞིན་	-10.2973
གནས་ཤིང་	-10.298
ཁྱིམ་མཚེས་	-10.2981
གཟོད་མ་ནས་	-10.2981
ཆིབས་བསྒྱུར་	-10.2982
ར་བྱ་བ་	-10.2982
ངོ་མ་	-10.2985
ཡངས་པ་	-10.2991
རླབས་ཆེན་	-10.2998
མཉམ་པ་	-10.2998
ཐོས་སོ་་	-10.2999
དུས་དུས་སུ་	-10.3
རྣམས་ཀྱི་དོན་	-10.3006
གཅིག་ཀྱང་	-10.3006
སྒྱུ་མའི་	-10.3008
རྒྱ་ཡིག་	-10.3009
▁སྟོན་པ་	-10.3009
བྱས་ཏེ	-10.301
ཆེན་མོའི་	-10.3015
གོང་གི་	-10.3016
ཚད་ལྡན་	-10.3016
དེ་དེ་བཞིན་ནོ་་	-10.3017
ཁྲི་ཕྲག་	-10.3023
ཀྱི་ངོ་བོ་ཉིད་	-10.3025
དམར་པོ་	-10.3027
དངོས་པོ་མེད་པར་	-10.3028
གཤེགས་ནས་	-10.303
ཁྱེད་རང་ཚོ་	-10.3031
བཅས་ཀྱིས་	-10.3032
གསུམ་བཅུའི་	-10.3034
བདག་ཉིད་ཀྱིས་	-10.3035
རྣམ་པར་མི་རྟོག་	-10.304
གནོན་ཤུགས་	-10.3045
བྱེད་སྒོ་	-10.3048
པ་རྣམས་ཡིན་ནོ་	-10.305
སྤུན་	-10.3051
མི་ནུས་སོ་་	-10.3051
འཇིག་པ་	-10.3051
དགོས་པའི་རེ་འདུན	-10.3054
མཐར་ཕྱིན་	-10.3054
མུ་མཐུད་གནས་	-10.3055
འགྲེམས་སྟོན་ཁང་	-10.3062
རེར་	-10.3062
ཆུ་ཀླུང་	-10.3065
མཇལ་འཕྲད་ཀྱིས་	-10.3066
སྟོང་ཕྲག་མང་པོ་	-10.3067
ཤེས་པའི་ཁམས་དང་་	-10.3067
སུམ་ཅུ་རྩ་གསུམ་	-10.3072
བསྒྲགས་གཏམ་	-10.3072
དེ་ལ་ནི་	-10.3075
རྒྱ་གར་གཞུང་མང་	-10.3076
་ཆོས་བཞི་དང་ལྡན་	-10.3081
ཚོ	-10.3087
བྱེད་དགོས་པ་དང་	-10.3089
▁དེ་ལས་	-10.3092
རེ་འདུན་	-10.3093
▁འདི་དག་ནི་	-10.3095
རྒྱ་འབྲེལ་མོལ་	-10.3095
ཁྲོ་བ	-10.3096
མང་ཚོགས་ནས་	-10.3098
ཡིན་སྐོར་	-10.3098
བཙས་	-10.3099
སྤོབས་	-10.31
སེམས་ཅན་དམྱལ་བར་	-10.3102
བཅོམ་ལྡན་འདས་ག	-10.3103
▁ས	-10.3106
འོང་	-10.3114
འཛམ་བུ་གླིང་	-10.3114
ཞེས་བྱ་སྟེ་	-10.3115
ཐེར་འབུམ་བདུན་	-10.3116
ཁང་གིས་	-10.3116
ཕུན་སུམ་ཚོགས་པ	-10.3117
རང་བཙན་	-10.312
བཀའ་འགྱུར་	-10.3122
མཚན་མ་མེད་པ་	-10.3122
སྒོའོ་་	-10.3129
ཤོག	-10.3129
འི་ལམ་	-10.313
▁གཟའ་ཟླ་བ	-10.3131
མི་འདོད་	-10.3131
ལྷའི་བུས་སྨྲས་པ་	-10.3135
སྐབས་འདིར་	-10.3136
ཨ་རིར་	-10.3136
རབ་ཏུ་དབྱུང་བ	-10.3139
སྨོན་ལམ་བཏབ་སྟེ་	-10.3142
སྤྲོ་བ་	-10.3143
དགོངས་དོན་	-10.3143
སོ་ནམ་	-10.3145
ལས་ཕྱིར་མི་ལྡོག་	-10.3145
གཏན་འཁེལ་ཡོད	-10.3146
ཆེད་ཕེབས་ཀྱིས་	-10.3149
ཞིག་བྱུང་ངོ་་་	-10.315
བདེན་པ་མཐོང་ནས་	-10.3157
ཚོགས་གཙོ་མཁན་པོ་	-10.3158
གནམ་ཐང་དུ་	-10.3162
ལན་གསུམ་བསྐོར་བ་	-10.3165
བལྟ་ན་སྡུག་ལ་	-10.3166
པོ་དང་་	-10.3167
▁ཁོང་གི་	-10.3169
བཞིན་ཡོད་པ་ལྟར	-10.317
ཉེ་བའི་	-10.3171
ལོ་རྒྱུས་ཐོག་ནས་	-10.3171
བོད་གཞུང་	-10.3173
གྷོ་	-10.3174
ལ་སྤྱོད་པ་ན་	-10.3177
བདེ་ལེགས་	-10.3178
▁ལམ་	-10.3179
སྒྲིབ་པ་	-10.3183
ནང་པ་སངས་རྒྱས་པ	-10.3183
ཀྱིས་དེ་སྐད་ཅེས་	-10.3185
▁དེ་ལྟ་བུའི་	-10.3187
དབུས་གཞུང་གི་	-10.3187
མྱོང་བ་	-10.3191
མ་འོངས་པའི་དུས་ན	-10.3196
སྨོན་ལམ་རྒྱག་	-10.3197
ཤས་	-10.32
ཉེན་ཁ་	-10.3207
སྤྱི་འཐུས་རྣམ་པ	-10.3208
ཚེ་རིང་ལགས་	-10.3215
སྐར་	-10.3219
ཕི	-10.322
▁དེས་ནི་	-10.3222
ལོག་པར་ལྟ་བ་	-10.3222
འབྲི་	-10.3224
ཞག་བདུན་	-10.3229
ཚིག་བླ་དགས་སམ་	-10.323
འབྱུང་ངོ་་་	-10.3233
གནང་རོགས་ཞེས་	-10.3234
འདིའི་ཐོག་	-10.3234
གཞིས་བཞུགས་	-10.3236
ལས་ཁུངས་ཀྱིས་	-10.3238
ཞུས་འདུག	-10.3238
པེ་ཅིང་	-10.3241
གནང་དགོས་པ་	-10.3242
ལྷག་མཐོང་	-10.3242
སྐྱེ་བ་དང་་	-10.3244
འདྲ	-10.3245
ཕྱིར་ལོག་	-10.3245
བ་ལང་	-10.3248
ཚོགས་ཆུང་ནས་	-10.3249
མས་གྲངས་མེད་པ་	-10.3251
གསལ་བསྒྲགས་སྤེལ་	-10.3253
ིག་	-10.3254
རབ་གནས་	-10.3257
ཅི་འདྲ་	-10.3261
བྱ་རྒྱུ་དང་	-10.3262
གནང་དང་གནང་མུས་	-10.3262
སྣེ་ལེན་	-10.3262
སྡིག་	-10.3265
་གང་ཞེ་ན་	-10.3268
དེ་རྣམས་	-10.3272
ངལ་རྩོལ་	-10.3274
པར་བྱ་་	-10.3274
ཕྱི་ནས་	-10.3275
གྱིས་སྨྲས་པ་	-10.3276
▁ཁོར་ཡུག་	-10.3276
འགོག་པ་ཤེས་པ་	-10.3279
ཝི་	-10.3285
ལས་བྱེད	-10.3285
གླང་	-10.3287
བྱ་བར་	-10.3289
ཁྱོན་དུ་	-10.329
གྲུབ་རྗེས་	-10.3292
གྲྭ་པ་	-10.3292
འགྱུར་བར་	-10.3292
ཕུལ་ལོ་་	-10.3298
ཤེས་པ་ཡང་དག་པར་འ	-10.3301
མྱུ་གུ་	-10.3302
སེམས་ནི་	-10.3303
བགོས་	-10.3307
ཕྱོགས་ཀྱི་ཆོས་	-10.3309
སེར་	-10.331
སྒྲོལ་	-10.3313
ཁྲིམས་མཐུན་	-10.3316
▁སྦྱིན་པ་	-10.3317
འགྲོའོ་་	-10.3318
རླུང་གི་	-10.3321
གནས་སྐབས་	-10.3321
ཚབ་	-10.3322
་ལགས	-10.3323
བྱུང་འདུག	-10.3327
ལྔ་བརྒྱ་པོ་	-10.3329
རེ་སྐུལ་	-10.333
སྐམ་	-10.3331
ུ	-10.3333
ཐུག་འཕྲད་ཀྱིས་	-10.3334
ལབ་	-10.3335
གཅིག་ལ	-10.3337
་ལགས་	-10.3343
བཞིན་ཡོད་ཀྱང་	-10.3344
བདག་གིས་ཐོས་པ	-10.3348
གཡུང་དྲུང་བོན་	-10.3349
སྤོས་ཀྱི་	-10.3354
▁སྦྱིན་པའི་	-10.3357
འཐོབ་་	-10.3358
བསྔགས་བརྗོད་དང་	-10.3359
གསུམ་དང་	-10.336
པ་དེས་	-10.336
མང་པོ་ཞིག་ལ་	-10.3364
▁རབ་འབྱོར་འདི་ལ་	-10.337
བྲིས་	-10.3378
ས་ཡོངས་སུ་	-10.3379
སོས་	-10.338
ཞུམ་	-10.3383
རྒྱལ་པོ་ཞེས་བྱ་བ	-10.3383
བར་འགྱུར་རོ་	-10.3384
པར་བགྱིའོ་་	-10.3385
མངའ་སྡེའི་ནང་	-10.3387
ཆིག་སྒྲིལ་	-10.3388
རྟག་པ་	-10.3394
བརྒྱབ་ནས་	-10.3394
ཁ་བ་	-10.3396
ཚོགས་དུས་	-10.3396
▁རང་	-10.3398
ཡོད་དམ་	-10.3399
▁དོན་དམ་པར་ན་	-10.3403
མི་བཟད་	-10.3404
སློབ་ཕྲུག་ཚོས་	-10.3405
ཏུ་ལུང་བསྟན་ཏོ་	-10.3407
གཏུགས་	-10.3408
རིའི་རྒྱལ་པོ་	-10.341
རྒྱ་མཚོ་ཆེན་པོ	-10.341
▁ཡི་གེ་	-10.3411
གྱུར་པའི་	-10.3411
སེམས་ཅན་དག་	-10.3411
འབྲུ་	-10.3412
ལ་བརྟེན་པའི་	-10.3414
བྱེ་	-10.3415
ཕྱོགས་གཅིག་ནས་	-10.342
དཔལ་ལྡན་བོད་མི་	-10.342
ན་ལེན	-10.342
ཞན་	-10.3423
སློབ་གྲྭའི་ནང་	-10.3424
ནམ་མཁའ	-10.3424
བསམ་ཡས་	-10.3426
རྫུ་འཕྲུལ་གྱིས་	-10.3429
▁སྟོང་གསུམ་གྱི་	-10.3433
གཙང་མ་	-10.3434
རི་བོ་	-10.3436
གཙུག་ལག་ཁང་གི་	-10.3436
མཉེས་པར་མ་བྱས་ལ་	-10.3437
འཆི་ཀར་	-10.3437
སྨོས་	-10.3438
ཕྱི་དངོས་པོའི་	-10.3438
ཐ་མ་	-10.3438
བྱེད་པས་	-10.3439
གླེང་	-10.344
▁མིག་	-10.344
བཞག་གོ་་	-10.3442
དེའི་དུས་	-10.3442
འཛམ་གླིང་ནང་གི་	-10.3443
ཆགས་ཀྱི་འདུག	-10.3443
སེམས་ཅན་གྱི་	-10.3443
གཏོང་མཁན་	-10.3446
གཏོང་དགོས	-10.3448
གདོང་ལེན་བྱེད་	-10.3449
སྟོབས་དང་ལྡན་པ་	-10.3451
འཐུས་མི་དང་	-10.3451
ཞིང་རྣམས་	-10.3452
་སྐོར་སོགས་གསུངས	-10.3453
ཕེབས་ཏེ་	-10.3458
མཐོང་ངམ་	-10.3461
རབ་ཏུ་བྱུང་ངོ་་་	-10.3465
འདྲ་་	-10.3466
རྣམ་པར་དག་པས་	-10.3468
ེད་	-10.3469
གི་ཡོད	-10.3471
་རྣམས་ཀྱིས་	-10.3475
པའི་ཡིད་སྐྱོའི་	-10.3476
མཉན་དུ་ཡོད་པ་ན་	-10.3476
གསོལ་བ་	-10.3477
་སྐོར་སོགས་ཀྱི་	-10.3479
དགོན་སྡེ་ཁག་	-10.3483
ཞི	-10.3486
བཤིག་	-10.3489
དགོས་ཞེས་	-10.3491
བཙན་དབང་འོག་	-10.3491
ཐུགས་འགན་བཞེས་	-10.3492
ན་སེམས་ཅན་	-10.3492
▁མི་མང་	-10.3493
མཉེས་	-10.3493
འདུ་ཤེས་མེད་	-10.3494
ཀུ	-10.3496
ཀྱེ་མ་	-10.3496
དེ་ཙམ་དུ་	-10.35
ནོན་	-10.3502
ལ་ལྟོས་	-10.3502
མགོ་བོས་ཕྱག་འཚལ་	-10.3503
བདག་ཅག་ལ་	-10.3506
སྐུ་ཚབ་རྣམ་པ	-10.3507
དུ་གྱུར་	-10.3508
ལག་ན་	-10.3513
དོད་	-10.3514
ཕན་ཐོགས་ཆེན་པོ་	-10.3515
ས་ཉོན་མོངས་པ	-10.3517
ཤ་སྟག་རེད	-10.352
མཆོག་ཕྱི་ལོ་	-10.3523
བྱས་པ	-10.3525
བསྩལ་	-10.3529
འགལ་	-10.3532
ལས་རིགས་	-10.3535
ཁུང་	-10.3535
པའི་སེམས་	-10.3535
མཚོན་པའི་	-10.3535
བཏང་བ་དང་	-10.3538
སོག་པོའི་	-10.3539
སྲིད་བཀའ་བློན་	-10.3539
མི་དམངས་	-10.354
ཡི་གེ་དྲུག་པ	-10.3545
དམ་པ་ཁོང་	-10.3546
ཕོ་མོ་	-10.3546
ཞུ་རྒྱུར	-10.3547
སོར་	-10.3548
་ལྟ་སྟེ་དཔེར་ན་	-10.3549
བདུན་གྱི་	-10.3549
ཆབ་	-10.3551
ནས་བཟུང་སྟེ་	-10.356
པའི་ཚིག་	-10.3562
རྒྱུ་ནི་	-10.3569
དེའི་འོག་ཏུ་	-10.3569
སྔོན་པོ་	-10.3571
འཕགས་བོད་གཉིས་	-10.3572
་དང་་ཡང་དག་པར་	-10.3573
བལྟས་ནས་	-10.3576
ཞུས་པར་	-10.3577
ར་གྱུར་ནས་	-10.3577
མི་དེ་	-10.3577
▁མགོན་པོ་	-10.3578
ལ་ཐུགས་རྗེ་ཆེ་ཞུ	-10.3579
ཕེབས་བསུའི་	-10.3583
རིགས་ལམ་	-10.3584
སྦེལ་ཀོབ་	-10.3585
བར་འགྱུར་་	-10.3588
ཆབ་སྲིད་བཙོན་ཟུར	-10.3592
▁བྱིས་པ་	-10.3592
འདེམས་སྒྲུག་	-10.3592
ཁྱད་པར་ཅན་	-10.3592
འོངས་ནས་	-10.3593
སྒྲ་དང་་དྲི་དང་	-10.3593
ཇི་ལྟར་སྔོན་ནས་	-10.3597
གཅིག་གི་སྟོབས་	-10.3598
ཤིང་གི་	-10.3601
ཆེས་ཐོག་མ་	-10.3602
སྐྱེ་བར་	-10.3606
དགེ་འདུན་གྱིས་	-10.3608
ཉེས་པར་སྤྱོད་པ	-10.361
ཁམས་ཤེས་པ་	-10.3616
མཚོན་ཆ་	-10.3621
རིས་ཀྱི་ལྷའི་བུ་	-10.3622
སྦྱིན་པ་སྦྱིན་	-10.3623
ཧི	-10.3624
ཐང་སྲུང་སྐྱོབ་	-10.3624
ན་གནས་པའི་	-10.3628
སྡུག་པ་	-10.3629
ན་རེ་	-10.3629
བཅུ་དྲུག་པའི་	-10.3631
ལུས་ནི་	-10.3634
མཐོང་ལགས་སོ་་	-10.3638
མཛད་ཡོད	-10.3639
ཐུན་མོང་	-10.3645
གོན་ཏ་ལའི་བླ་མ་	-10.3645
▁དེ་ལ་བརྟེན་ནས་	-10.3646
▁བྱང་ཆུབ་ཀྱི་	-10.365
བར་སྣང་	-10.3653
གྱི	-10.3653
ཞི་གནས་དང་	-10.3653
ངེས་སྟོན་པ་	-10.3657
མྱོང་བ	-10.3659
དོན་དམ་པའི་	-10.3663
གྲངས་མེད་པ་	-10.3666
ནི་གང་	-10.3667
ངར་	-10.367
་བའི་	-10.367
བཏང་བའི་	-10.3671
སྲིད་གཞུང་གི་	-10.3671
གྲུ	-10.3673
ལོན་པ་	-10.3674
བྱིན་ནས་	-10.3674
སྐྱེལ་	-10.3675
དགའ་སྤོབས་	-10.3675
ཀུན་ཏུ་རྒྱས་པ་	-10.3675
མངོན་སུམ་	-10.368
ཤེས་པ་འགོག་པ	-10.368
ཚོགས་འདུ་ཚོགས་	-10.3684
ཁྱད་ཆོས་	-10.3687
བསྒོམ་པ་	-10.3689
འདི་སྐད་	-10.3694
ཕྱེད་ཡོལ་ཆུ་ཚོད་	-10.3695
སུན་	-10.3695
ནས་ད་བར་	-10.3696
ཐ་དད་	-10.3697
མཛད་པ་་	-10.37
ནས་མཆེད་པའི་	-10.37
ལྷ་མ་ཡིན་གྱི་	-10.37
འགྲོ་བ	-10.3704
དབུ་འབྱེད་ཀྱི་	-10.3706
ཅེ	-10.3707
པ་ཞེས་བྱའོ་་	-10.3708
བོད་མི་ཚོ་	-10.371
འཁྲུགས་	-10.3713
བདག་ཅག་ནི་	-10.3714
ལ་གནས་ཏེ་	-10.3718
དམ་ཚིག་	-10.3719
འི་གཞིས་ཆགས་ཁག་	-10.3719
་ཇི་ལྟར་	-10.372
པང་ནས་སྐྱེས་	-10.3721
བསྟན་འགྱུར་	-10.3724
ཐལ་མོ་སྦྱར་ནས་	-10.3729
ཅི་ནས་	-10.373
▁ང་ཚོར་	-10.3737
བཏུད་	-10.3737
གཡར་	-10.3738
རྡོག་རོལ་བཏང་	-10.374
བགྱི་	-10.374
བར་གྱི་བསྐལ་པ་	-10.3741
མི་རྟག་པ་	-10.3743
ཚན་རིག་དང་	-10.3744
ཅིག་ཅེས་	-10.3745
ས་བསྐྱེད་བསྲིངས་	-10.3746
ལྷགས་	-10.3748
སྲིད	-10.3748
གཡུང་དྲུང་	-10.375
དག་པ་	-10.3751
ཤི་ནས་	-10.3752
ཞབས་ལ་མགོ་བོས་	-10.3755
ཀི	-10.3759
ཤར་ཏུར་ཀི་སི་ཐན་	-10.3762
སྡོང་པོ་	-10.3762
ཐུབ་རྒྱུ་རེད	-10.3764
བར་མ་	-10.3764
ལྷ་ཁང་	-10.3765
ཞུས་པ་དང་	-10.3766
དང་་དྲི་ཟ་དང་་	-10.3766
འཚམས་	-10.3766
ཞེས་པ་དེ་	-10.3767
བརྩོན་འགྲུས་བརྩམ	-10.3768
རང་གི་མཚན་ཉིད་	-10.3771
འཆམ་མཐུན་	-10.3774
ཕས་	-10.3779
འོ་ན་	-10.378
འི་མིང་	-10.3781
ར་འཚང་རྒྱ་བར་	-10.3782
གླུ་དབྱངས་	-10.3784
ཚིག་གིས་	-10.3786
དང་་ནམ་མཁའ་ལྡིང་	-10.379
རྣམས་ལ་ཡང་	-10.3792
དེའི་ནང་དུ་	-10.3793
བླ་མའི་	-10.3793
ཚོགས་ཁང་	-10.3795
ཀྱི་ཡོད་པ་རེད	-10.3799
འདི་ཉིད་དུ་	-10.3799
པའི་སེམས་ཅན་	-10.3801
པར་བྱ་བ་	-10.3802
ཕུགས་	-10.3803
རྩེ་མོ་	-10.3804
▁རྒྱལ་པོའི་	-10.3805
དེ་དང་དེ་དག་	-10.3806
ཐུགས་སྣང་	-10.3807
བསྡོམས་	-10.3813
ན་དེ་	-10.3813
གདུག་རྩུབ་	-10.3814
མཆོག་དགུང་གྲངས་	-10.3818
འཇུག་གོ་་	-10.3819
སོམ་ཉི་	-10.382
རྣམ་འདྲེན་	-10.3821
དེ་མཚུངས་	-10.3823
གོང་སྤེལ་	-10.3825
ལྟུང་བ་	-10.3826
དང་ལྡན་པ་ཡིན་	-10.3828
དགོད་	-10.3829
གཞུང་ཞབས་	-10.3831
སྒོ	-10.3832
པ་དེ་ནི་	-10.3833
བར་བྱའོ་་	-10.3838
མི་སྣང་བར་གྱུར་	-10.3839
དགེ་རྒན་དང་	-10.3839
ཧ་ཅང་ཡག་པོ་རེད	-10.3841
རྣམ་པར་སྨིན་པ	-10.3849
ཚུལ་དང་	-10.3852
བཀའ་དྲིན་སྩལ་	-10.3858
ནས་ཡིན་པའི་	-10.3859
ཐམས་ཅད་ནི་	-10.3859
▁སྔགས་	-10.3864
ལམ་དུ་	-10.3865
གསུངས་ཡོད	-10.3868
འི་སྒོ་ནས་	-10.387
་རྟག་ཏུ་	-10.387
ཀྲ	-10.387
འདབ་	-10.3873
སྡིག་པའི་གྲོགས་	-10.3874
ར་མི་འགྱུར་ཏེ་	-10.3875
▁རྣམ་པར་	-10.3875
གུང་	-10.3878
མ་དངུལ་	-10.3879
ལན་འདེབས་གནང་	-10.3884
ཐུགས་རྗེ་ཆེ་ཞེས་	-10.3885
རྣམ་པ་ཚོ་	-10.3886
ཁོ	-10.3888
ཁམས་ཀྱི་	-10.3888
སྒྲིལ་	-10.3889
ལག་བསྟར་གནང་	-10.3892
▁དེ་དག་ཐམས་ཅད་	-10.3894
ཆོག་མཆན་	-10.3899
▁ཐ་ན་	-10.39
ངོས་ལེན་	-10.39
་དང་ལྡན་པ་	-10.3901
དགོས་ཀྱི་འདུག	-10.3905
ལྟ	-10.3905
མགུལ་	-10.3911
ནོ་སྦེལ་	-10.3912
བཀོལ་སྤྱོད་	-10.3913
མཉེས་པར་བགྱིས་ཏེ	-10.3913
རྩོམ་སྒྲིག་པ་	-10.3913
སྤང་	-10.3915
རྣམ་ཐར་	-10.3916
སྐུ་ཚེ་	-10.3924
རབ་ཏུ་ཕྱུང་སྟེ་	-10.3925
་ཊི་	-10.3926
གནད་འགག་ཆེན་པོ་	-10.3928
རིག་བྱེད་	-10.393
འི་དབྱིངས་སུ་	-10.3931
སྦྱིན་སྲེག་	-10.3933
མི་བྱེད་པ་	-10.3935
ལྟར་ན	-10.3938
ཝི	-10.3939
གྱུར་ནས་་	-10.3942
ཕྱི་ལུགས་ལྟར་	-10.3943
ཨིན་ཡིག་	-10.3946
བསྐྱར་དུ་	-10.3947
ུད་	-10.3947
ཚོས་ཀྱང་	-10.3949
ཕེབས་པ་	-10.395
ཉིན་མོར་	-10.395
མ་ཐུབ་	-10.3951
▁ཁ་སང་	-10.3952
གནོད་པ་དང་ལྡན་	-10.3955
བྱས་ཏེ་་	-10.3956
བཅུའི་སྟོབས་	-10.3961
གཟུང་བའམ་	-10.3962
པ་དང་་་	-10.3964
པའི་རྐྱེན་གྱིས་	-10.3964
ལྟ་བའི་	-10.3965
▁གཟའ་ལྷག་པ	-10.3966
གསུང་བཤད་དང་	-10.3967
ལ་རབ་ཏུ་	-10.3969
བྱེད་པ་དང་	-10.3969
བཟང་པོའི་	-10.3972
རྒྱུགས་	-10.3973
ལྷར་བཅས་	-10.3974
གཞོན་པ་	-10.3976
རིམས་ནད་	-10.3976
མཐོང་བར་	-10.3983
དགའ་ལྡན་ཁྲི་	-10.3985
མ་བྱུང་བ་	-10.3985
ཝེ	-10.3987
▁དེའི་ནང་ནས་	-10.3992
བཞིན་ཡོད་སྐོར་	-10.3998
འོས་བསྡུ་ཆེན་མོ	-10.4001
རྩ་བ་ཉིད་ནས་	-10.4003
བརྩོན་འགྲུས་རྩོམ	-10.4005
བྱེད་ཀྱི་འདུག	-10.4005
བཏུལ་	-10.4005
▁སྐུ་ཞབས་	-10.4005
གཞིས་མི་	-10.4006
གནང་བ་དང་སྦྲགས	-10.4009
སེམས་ཅན་རྣམས་ཀྱི	-10.401
འཇོག་ཁང་དུ་	-10.4011
གསུམ་གྱིས་	-10.4011
བ་སོགས་	-10.4014
གཏིང་	-10.4015
ཁྱིམ་བདག་གཞན་ཡང་	-10.4016
ཁྱེད་ཀྱི་	-10.402
དང་འབྲེལ	-10.4021
ཅི་ཡོད་	-10.4022
སོ་སོར་རྟོག་པ	-10.4024
སྒྲ་སྐད་	-10.4024
འཁྱོག་བཤད་	-10.4028
▁ཁྱེའུ་	-10.4031
▁བསམ་གཏན་	-10.4033
འོ་མ་	-10.4036
ཅེག་	-10.4043
པས་་	-10.4046
བྱམས་པ་ཆེན་པོ་	-10.4046
ཡི་ནི་	-10.4046
གི་དངོས་པོ	-10.4046
ཞེས་ཟེར་	-10.4047
བྲམ་ཟེ	-10.4048
འབྱོར་བ་	-10.4051
གང་སར་	-10.4052
སྐོར་སོགས་	-10.4052
རྗེས་སུ་ཡི་རང་	-10.4054
འབྲེལ་མོལ་	-10.4056
འཇམ་དབྱངས་	-10.4058
ས་ཕྱོགས་	-10.4058
དེ་ལ་བརྟེན་ནས་	-10.4059
ལག་བསྟར་བྱས་	-10.4059
ར་མི་བྱེད་	-10.406
ཡོད་ཚེ་	-10.4062
དོན་ཡོད་	-10.4071
ར་མི་བྱའོ་་	-10.4072
ཆོས་རིག་	-10.4073
▁ཡང་སྒོས་	-10.4076
ྐྱེ་དགུའི་ཚེ་ལོ་	-10.4076
ཀུན་ཤེས་སོ་ཞེས་	-10.4076
ཁོ་བོའི་	-10.4076
ཤིན་ཏུ་མཉམ་པ་དང་	-10.4077
ཞི་བདེ་བག་ཕེབས་	-10.4079
གནས་སྟངས་ཐོག་	-10.4081
བརྟན་པོ་	-10.4085
གངས་ལྗོངས་	-10.4087
རིག་པ་ཐོབ་པ་	-10.4087
བདེ་བ་དང་་	-10.4088
གཡོ་བ་	-10.409
ཁྲོམ་སྐོར་	-10.409
འཇིགས་ཤིང་སྐྲག་	-10.409
བར་དུ་སྔ་མ་བཞིན་	-10.4092
མཇལ་འཕྲད་གནང་	-10.4095
དམ་བཅའ་	-10.4096
འདོང་	-10.4097
རྣམ་གྲངས་དེས་ན་	-10.4101
སྦྱོར་སྤྲོད་	-10.4102
ལྷན་	-10.4103
▁འདི་སྐད་	-10.4105
འབྱོར་ཞབས་ཞུ་ཁང་	-10.4112
ཁོ་ནས་	-10.4113
ཆུང་ཆུང་	-10.4115
་དང་་གསལ་བ་དང་་	-10.4116
ཕོ་བྲང་དུ་	-10.4116
མཆོག་ནས་	-10.4117
འཚལ་ལོ་་	-10.4118
གདན་ཞུ་	-10.4118
སྣང་གསལ་	-10.4119
དོ	-10.4121
ཀྱི་གྲོང་ཁྱེར་	-10.4121
བདུན་ཕྲག་	-10.4121
རྒྱུན་འཛིན་	-10.4124
འཛིན་ཅིང་	-10.4127
ཁྱེར་ཏེ་	-10.4127
▁སེམས་ཅན་གང་དག་	-10.4127
▁རྣམ་པར་ཤེས་པ་	-10.4128
རང་ལ་	-10.413
མི་ནུས་	-10.4133
བསྟི་གནས་ཁང་གི་	-10.4133
འདོད་པའི་ཡོན་ཏན་	-10.4136
ནས་ཡིན་པ་	-10.4137
གཞན་རྣམས་	-10.4137
གཟུང་བ	-10.414
དངོས་པོ་མེད་པ	-10.4145
▁ཕྱོགས་གཅིག་ཏུ་	-10.4149
སྤོང་བ	-10.4152
རིན་པོ་ཆེ	-10.4153
སྔོན་འགོག་གི་	-10.4155
མཐོང་བ་དང་་	-10.4158
སྔོན་འགྲོའི་	-10.4158
བཅངས་	-10.416
བདག་དབང་	-10.416
▁བཅོམ་ལྡན་འདས་ལ་	-10.4161
ཤིག	-10.4166
▁ལྷའི་དབང་པོ་	-10.4167
ཇེ	-10.4167
གྲག་	-10.4168
བསྐྱེད་དེ་	-10.4168
ཚོང་ཁང་	-10.417
▁འདི་གའི་	-10.4171
འགྱུར་ཏེ་་	-10.4173
ཕ་རན་སིའི་	-10.4175
རོལ་མོའི་སྒྲ་	-10.4175
▁མཉམ་འབྲེལ་	-10.4176
སྐྱེས་ཤིང་	-10.418
ཁག་ཏུ་	-10.4182
རྐང་ལག་	-10.4182
གངས་	-10.4183
གཙོ་བོར་གྱུར་པ	-10.4184
གནས་པས་	-10.4185
འཕགས་བོད་	-10.4185
དོན་རྐྱེན་	-10.4188
ཤེས་བྱ་	-10.4189
མེད་པར་གྱུར་	-10.4194
ལ་མཚོན་ན	-10.4197
པར་བྱེད་དོ་	-10.4198
སྔ	-10.4199
དབེན་པར་	-10.4203
བོད་མི་རིགས་	-10.4204
སངས་རྒྱས་ཐམས་ཅད་	-10.4211
ཆེད་ཕེབས་གནང་	-10.4211
པར་བགྱི་	-10.422
བྲམ་ཟེའི་	-10.4224
ལ་སེམས་	-10.4227
ནས་ཕྱི་ལོ་	-10.4227
ཁོང་ཚོར་	-10.423
རྣམ་པ་མང་པོ་	-10.4231
ལུས་སེམས་	-10.4232
རྒྱལ་བས་	-10.4233
སྲིད་པའི་	-10.4234
འགག་པ	-10.4239
ཞབས་སོར་བདེ་བར་	-10.424
ི་ཡ	-10.4242
ནམས་ཀྱང་	-10.4243
ཐབས་མཉམ་པ་བརྙེས་	-10.4243
དངངས་སྐྲག་	-10.4243
དབྱིབས་	-10.4244
སྟེ་བཞི་གང་ཞེ་ན་	-10.4246
ལ་རྟེན་གསུམ་	-10.4246
བསྟུན	-10.4248
ཁྱིམ་ཐབ་	-10.4253
རྒྱལ་ཁབ་གཞན་	-10.4253
ཀྱིས་གསུངས་པ་ལ་	-10.4257
མང་པོ་དག་	-10.4258
སྟོང་གི་	-10.4258
སེམས་ཀྱང་	-10.426
ལོ་གཉིས་	-10.4261
བོད་རང་བཙན་	-10.4263
ཐག་རིང་པོ་ཞིག་	-10.4264
གནག་	-10.427
གཞུང་ལ་	-10.4272
དང་མཇལ་འཕྲད་གནང་	-10.4281
པར་འགྱུར་བའི་	-10.4283
གཞོན་སྐྱེས་རྣམས་	-10.4285
▁དེ་གཉིས་ཀྱིས་	-10.4285
འགྱེད་	-10.4287
ཡུ་	-10.4288
འབྲེལ་མིན་པའི་	-10.4293
བྱོན་	-10.4294
འགྲོགས་	-10.4294
ཁྱད་པར་དུ་འཕགས་པ	-10.4295
ཐུབ་ན་	-10.4295
ཨུ་	-10.4297
གྲུབ་པ་	-10.4298
▁དབུ་མའི་ལམ་གྱི་	-10.4298
ཅེས་བྱ་བ་དང་་	-10.4301
ོར་	-10.4302
ར་བྱེད་དོ་	-10.4302
གཞུང་ལམ་	-10.4302
ཐུན་མོང་གི་	-10.4303
པའི་ཚེ་	-10.4304
བཀོད་པ་པོ་འདོད་	-10.4306
སྐོར་གསུང་	-10.4314
བསྒྲིལ་	-10.4316
ཚན་པའི་	-10.432
རྒྱ་ནག་ནང་དུ་	-10.4323
རྒྱ་གར་བ་	-10.4326
གང་བྱུང་	-10.4326
འོངས་ཏེ་	-10.4326
སེར་སྣ་	-10.4328
ཛ་	-10.4328
ཝར་	-10.4331
མཐོ་རིམ་	-10.4333
བཀའ་འཁྲོལ་	-10.4334
རྣམ་པ་ཚོས་	-10.4336
▁རྒྱ་རིགས་	-10.4336
ཆོས་རྣམས་ཐམས་ཅད་	-10.4337
ཤི	-10.4338
སྐྱེད་པ་	-10.4348
གཉིས་ནས་	-10.4348
ཡོང་བ་དང་	-10.4349
དེ་ནི་ཚུལ་ལ	-10.4353
འདས་པ་དང་་	-10.4354
འི་ལྷ་	-10.4355
▁རྩ་བའི་	-10.4356
སྐུ་ཉིད་	-10.4357
ཡུ་གུར་	-10.436
གནས་སྟངས	-10.4362
ཝེ་	-10.4362
ན་བཟའ་	-10.4363
བཀའ་སྩལ་	-10.4364
འི་ལས་	-10.4364
གོམས་གཤིས་	-10.4364
དར་སྤེལ་	-10.4365
ཡོད་མ་ཡིན་་	-10.4366
ལྷན་ཚོགས་སུ་	-10.4366
▁དབང་པོ་	-10.437
▁ཁྱེད་རང་ཚོ་	-10.4371
སྨྲེ་སྔགས་འདོན་པ	-10.4372
ལྟར་མི་བལྟ་སྟེ་	-10.4376
བཅས་ཏེ་	-10.4379
དོགས་	-10.438
ལ་སྤྱོད་པ་ནི་	-10.4385
ལ་དམ་བསྒྲགས་	-10.4385
སྐྱེ	-10.4387
བཞུགས་པའི་	-10.4387
▁ཆོས་ཀྱི་དབྱིངས་	-10.439
མཁན	-10.439
ལ་ཚིགས་སུ་བཅད་པ	-10.4392
གལ་ཆེ་ཤོས་	-10.4393
རྒྱལ་སྲས་	-10.4394
ཉི་ཧོང་གི་	-10.4395
འཆི་བའི་དུས་	-10.4395
མི་འབྱུང་	-10.4396
མི་ཚེ་	-10.4398
འཕོ་བ་	-10.4399
ལ་རྩིས་མེད་	-10.44
དང་བྲལ་བས་	-10.4402
པས་ན་	-10.4405
་པ་རེད	-10.4408
འི་གནས་སྟངས་	-10.4409
ངོ་་	-10.4412
་དུས་གཅིག་ན་	-10.4412
པ་དང་འདི་བཞིའོ་	-10.4412
ཚན་རིག་པས་	-10.4413
གཙང་མ་བཟང་པོ་	-10.4415
▁དེ་ལས་བཞེངས་ནས་	-10.4415
བ་སྤུའི་ཁུང་བུ་	-10.4416
སྐུ་ཕྲེང་	-10.4418
གཞུང་དེ་དག་	-10.4419
གསུང་འཕྲིན་ཞིག་	-10.4429
ནད་ཀྱིས་	-10.4429
འདྲ་བར་	-10.4431
དྲ་རྒྱ་བརྒྱུད་	-10.4432
འི་ཚོགས་	-10.4436
ཕྲན་	-10.4438
མཆོད་འབུལ་	-10.444
གསུམ་པོ་	-10.4441
ཐུགས་གསོ་	-10.4442
པ་ནས་	-10.4446
གནས་རིམ་	-10.4447
མ་པ་	-10.4449
གནང་སྐབས་	-10.445
ཅི་ནས་ཀྱང་	-10.4452
རྣ	-10.4452
ཧ་ལས་པ་	-10.4454
ཕྱིན་ཡོད	-10.4455
རྗེས་སུ་འཐུན་པ	-10.4456
འདུགའོན་ཀྱང་	-10.4458
ཕུ	-10.4459
ཞིང་བལྟ་ན་སྡུག་	-10.4459
ཡོད་པ་ཞིག་	-10.446
བྱེད་ཕྱོགས་ཀྱི་	-10.446
དང་བཅས་པ་དང་་	-10.4465
དེ་ཁོ་ན་	-10.4465
▁འདི་ལོར་	-10.447
་ཡོད་པ་བཅས	-10.4473
བྱེད་ཀྱི་མེད	-10.4473
ཚོགས་པ་ཁག་	-10.4476
བཙོན་	-10.4476
མེ་ཏོག་གི་	-10.4476
བེ	-10.4477
▁དེ་བས་ན་	-10.448
གྲོལ་བ་	-10.4484
བསྒྲུབས་ཏེ་གནས་པ	-10.4486
ནེ	-10.4489
ཡོངས་སུ་རྫོགས་པ་	-10.449
བྱེད་ཐུབ	-10.4492
བྱས་པར་	-10.4493
འབོད་སྐུལ་གནང་	-10.4495
གློད་བཀྲོལ་གཏོང་	-10.4498
འདི་ཡི་	-10.4499
སེར་སྐྱ་མི་མང་	-10.4501
སྟོབས་བཅུའི་	-10.4502
མི་ཡི་	-10.4502
རྩ་དོན་	-10.4503
སྒྲུབ་པ་དང་འབད་པ	-10.4504
གཡོག་འཁོར་	-10.4509
དམིགས་སུ་མེད་པ	-10.451
དོར་	-10.4514
ཕྱི་ཟླ་ཚེས་	-10.4515
རྐྱེན་གྱིས་ཚོར་བ	-10.4517
སྐབས་དེའི་	-10.4517
སྐུ་ལས་བསྐྱོན་	-10.452
རྒྱལ་གཅེས་པ་	-10.452
སྟོན་པ་དང་་	-10.4523
རོལ་མོ་	-10.4524
ཀྱི་རྣམ་གྲངས་འདི	-10.4525
སྤྱི་ཁྱབ་པ་	-10.4527
ཡོད་པ་ནི་	-10.4529
དེ་ཐོས་ནས་	-10.4531
▁སྐབས་དེ་དུས་	-10.4532
བསྒྲུབ་པ་	-10.4534
མ་ལགས་པ་	-10.4535
གདུགས་དང་་རྒྱ	-10.4537
དུ་ཡང་	-10.4538
སྐུ་ཚབ་དང་	-10.4538
གལ་ཆེན་པོ་ཡིན	-10.4542
ཡོང་རྒྱུ་	-10.4542
་དེ་དག་ཐམས་ཅད་	-10.4542
གྲངས	-10.4543
བརྙན་	-10.4544
ཤེས་པ་དང་་མཐོང་བ	-10.4545
སྨོན་ལམ་བཏབ་	-10.4546
སྐུ	-10.4547
ཟུང་འབྲེལ་	-10.4553
མ་མཆིས་པའི་	-10.4554
དཔེ་ཆ་	-10.4561
དུ་སྦྱར་ཏེ་དེ་	-10.4562
གྲོ	-10.4563
སྟོབས་ཀྱི་	-10.4563
རྩད་གཅོད་	-10.4563
སྡིག་པའི་	-10.4564
ཁྱེད་རང་ཚོས་	-10.4566
དགོས་སྐོར་	-10.4568
་ཡང་དག་པ	-10.457
ྲངས་ཉུང་མི་རིགས་	-10.457
ལས་སྐྱེས་པ་	-10.4572
ན་པ་	-10.4578
བརླ	-10.4579
གོ་འཕང་	-10.4582
མཁས་ཤིང་	-10.4584
གྲུབ་པའི་	-10.4586
ཞེས་ཞུ་རྒྱུ་ཡིན	-10.4589
མོས་མཐུན་	-10.4589
▁སྐབས་	-10.4591
▁ཀུན་རྫོབ་ཏུ་ན་	-10.4591
དབུལ་པོ་	-10.4593
གཞུང་ཚབ་	-10.4593
ན་གནས་པ་	-10.4597
སྩོལ་	-10.4602
བོད་དོན་ཆེད་	-10.4604
བར	-10.461
རྣམ་གྲངས་	-10.4614
འཛམ་གླིང་ཞི་བདེ་	-10.4615
▁གནོད་སྦྱིན་	-10.4618
ཀྱང་བརྩོན་པ་དང་	-10.462
▁དེ་ནས་ཁྱེའུ་	-10.4621
གློག་བརྙན་	-10.4623
བསྒྲུབས་པ་	-10.4623
བཞི	-10.4624
པ་ཡིན་་	-10.4627
བཟླས་	-10.4631
ཞུ་དགོས་	-10.4632
གཙོ་བོ་ནི་	-10.4634
མཉན་དུ་ཡོད་པ་ན་བ	-10.4637
ཚངས་པ་ཆེན་པོ་	-10.4639
སྙན་པ་	-10.464
ལྔ་སྟོང་	-10.4641
མཆོག་ཏུ་དགའ་བ་	-10.4642
དགེ་བ	-10.4643
འཁེལ་	-10.4647
ར་བ	-10.4647
གལ་ཆེན་	-10.4647
ལྷའི་མེ་ཏོག་	-10.4648
གཉིས་དང་	-10.465
དེ་སྔ་ཕྱི་ལོ་	-10.465
སྔོན་གྱི་གནས་	-10.4652
སྟོབས་བཅུ་	-10.4656
འཁོད་པའི་	-10.4657
ལ་སྤྱོད་པའི་	-10.4657
ར་མ་	-10.4657
ར་བྱ་སྟེ་	-10.4658
བདག་ཅག་གཉིས་	-10.4662
སེམས་ཅན་འདི་དག་	-10.4663
མི་ལོ་ཧྲིལ་པོ་	-10.4663
རྣམ་གྲོལ་	-10.4664
མི་སྐྱེ་བ་	-10.4664
འཁོད་ཡོད	-10.4665
འཆི་བའི་	-10.4667
ནས་ལོ་	-10.4667
རྒ་ཤི་	-10.4668
འི་ཚེ་	-10.467
▁མིའི་	-10.4671
བརྩམས་པ་	-10.4672
བསགས་པའི་	-10.4672
་སྒྲིབ་པ་ཐམས་ཅད་	-10.4673
མུས་	-10.4674
ཨིན་ཇིའི་	-10.468
སྟོན་ཅིང་	-10.4681
ལ་ཐུགས་རྗེ་ཆེ་	-10.4682
ཆུ་བོ་	-10.4682
ཡང་དག་པའི་ལྟ་བ་	-10.4684
ཁོ་ནའི་	-10.4686
ྭ	-10.4689
རྡུང་	-10.4691
རྣམས་ཀྱིས་ནི་	-10.4692
གསང་བའི་	-10.4699
ཀྱིས་དགོངས་པ་	-10.4699
ལེགས་པར་བརྒྱན་	-10.47
པའི་སྐུའི་འཁྲ	-10.4701
▁སེམས་ཅན་རྣམས་	-10.4701
▁ཁྱད་པར་	-10.4702
ཡིན་པ	-10.4705
དགའ་བས་	-10.4706
ས་འདི་སྐད་ཅེས་	-10.471
འགན་འཛིན་དང་	-10.471
དེའི་ཚེ་ན་	-10.4713
རིས་ཀྱི་ལྷ་རྣམས་	-10.4715
▁ཕྱི་ལོ་ཉིན་	-10.4715
འོས་འདེམས་	-10.4716
སྦྱར་ཏེ་	-10.4718
རླུང་གི་ཁམས་	-10.4719
▁ནང་སྲིད་	-10.4722
གི་སྐུ་ཚབ་	-10.4725
ཡོང་ཆེད་	-10.473
བོད་སྨན་	-10.473
གནས་སྟངས་ལ་	-10.473
ཐུབ་མེད	-10.473
རྫིང་	-10.4731
བརྙེས་པ་	-10.4732
སྐུ་ཚབ	-10.4733
མཐ	-10.4733
མདུན་ན་འདོན་	-10.4735
ཏིང་འཛིན་འདི་	-10.4738
རང་ཉིད་ཀྱིས་	-10.4741
མཁྱེན་ནས་	-10.4744
ལྷ་དང་་ཀླུ་དང་་	-10.4746
བཀའ་ཟུར་	-10.4753
ཐོབ་བོ་་	-10.4754
ཧུ	-10.4754
འི་རང་སྐྱོང་གི་	-10.4755
གྲངས་འབོར་	-10.476
ལོངས་སུ་སྤྱོད་	-10.476
དམུས་ལོང་	-10.476
འཛིན་བྱེད་ཀྱི་བུ	-10.476
དགོས་པ་མ་ཟད	-10.476
གནས་གཙང་མའི་	-10.476
གང་ལེགས་	-10.4761
དྷ	-10.4762
▁ཐུགས་རྗེ་ཆེ	-10.4762
དང་་ཚངས་པ་དང་་འཇ	-10.4762
ཁྱབ་བསྒྲགས་	-10.4763
དངོས་ཤུགས་	-10.4763
▁རྒྱལ་ཁབ་	-10.4764
ཉིན་རེ་བཞིན་	-10.4766
བྱང་ཆུབ་ལས་	-10.4767
ངས་ནི་	-10.4768
འདི་ཉིད་ལ་ས	-10.4768
ཟླ	-10.4768
གསོལ་སྟོན་	-10.4769
ཁྱེད་ལ་	-10.477
ྱེད་ཀྱི་ཚལ་	-10.477
གུ་ཡངས་	-10.477
བྱམས་པའི་སེམས་	-10.477
མཆི་	-10.477
དད་ལྡན་	-10.477
མཆིས་ཏེ་	-10.4771
ཨོ་སི་ཀྲོ་ལི་ཡ	-10.4771
ཚོགས་འདུ་ཐེངས་	-10.4772
རྒྱལ་ས་ལྷ་སར་	-10.4772
སྒྲ་དབྱངས་	-10.4772
བྱས་པ་ཡིན་ན་	-10.4777
་དང་་མཁས་པ་	-10.4777
གཞན་ཞིག་	-10.4777
ཚུལ་ཁྲིམས་དང་་	-10.4778
འཐོབ་པ་	-10.478
དོན་དག་	-10.478
རྒས་	-10.4781
བའི་ཕྱིར་རོ་	-10.4783
ལ་མ་བརྟེན་པའི་	-10.4789
རྣམས་ལ་ནི་	-10.4794
ཟབ་ཅིང་	-10.4795
སྲིད་ཚབ་	-10.4797
བྲལ་བ་	-10.4798
ཐོགས་མེད་	-10.4799
བསམ་མི་ཁྱབ་་	-10.4804
ཕྱིན་པ་རེད	-10.4806
གོམ་པ་	-10.4807
རྒྱ་གར་དབུས་	-10.4809
པ་ཞིག་རེད	-10.4812
ཕྱ	-10.4813
བྱོས	-10.4814
ལོགས་	-10.4814
དོན་གྱི་	-10.4817
བརྗོད་དུ་མེད་པ་	-10.4818
ས་གཞི་	-10.4819
འི་སྒྲིག་འཛུགས་	-10.4819
འཆར་འགོད་	-10.4821
སྐྲུན་	-10.4825
གཞན་ཕན་	-10.4826
གནའ་བོའི་	-10.4826
ཁ་རས་	-10.4827
དགོངས་འཆར་	-10.4827
ཚིག་བླ་དགས་	-10.4829
སྙན་ཐོའི་ནང་	-10.4832
འདུ་བ	-10.4834
འཇིག་རྟེན་པའི་	-10.4834
ག་འདྲ་	-10.4836
སེང་གེའི་	-10.4836
་ཞིག་རེད	-10.4838
ཐུ	-10.4839
འདོད་པའི་ཁམས་	-10.4844
མཐོ་རིས་	-10.4847
གསར་འགོད་པས་	-10.4847
ལྟ་བུ	-10.4847
ལེགས་སྦྱར་གྱི་	-10.4851
སློབ་གཉེར་གནང་	-10.4851
དཔེ་མཚོན་	-10.4853
ལྷག་ཙམ་	-10.4854
གསོལ་མགྲོན་ཁང་དུ	-10.4855
དགེ་སྦྱོང་ག་ཏ་མ་	-10.4855
བརྙས་	-10.4855
བོད་ནས་	-10.4856
གནས་སོ་	-10.4858
གསོལ་་	-10.4859
ཕྱི་སྲིད་	-10.4859
སློབ་ཕྲུག་གི་	-10.4859
ཀླད་པ་	-10.4861
གཅིག་སྒྲིལ་	-10.4861
རྫི	-10.4861
ཕྱི་དྲིལ་ལས་ཁུངས	-10.4862
ཡོངས་སུ་བསྐོར་	-10.4866
གཞིས་ཆགས་ཁག་གི་	-10.4868
▁མི་གང་	-10.4869
གྱི་ལམ་ནས་	-10.4873
བཙོ	-10.488
དག་ཡིན་ནོ་་	-10.4885
རྒྱུ་རྐྱེན་	-10.4885
ཐོབ་པའི་	-10.4887
ཟངས་དཀར་	-10.4891
འགྱུར་ཏེ་	-10.4894
▁དེ་ནས་ཁྱིམ་བདག་	-10.4894
ས་དེ་	-10.4896
ཡོངས་སུ་གཟུང་བ་	-10.49
རྒྱ་ནག་གཞུང་ནས་	-10.4903
ཟག་པ་མེད་པའི་	-10.4903
བརྡ་ལན་	-10.4904
རྣམས་ལགས་	-10.4905
གནང་ཕྱོགས་	-10.4906
གཤེགས་པ་	-10.4906
སོ་སོ་ནས་	-10.4908
རིག་པའི་རྣམ་གཞག་	-10.4909
རྣམ་པར་དག་	-10.4912
སྟོན་པས་	-10.4915
ཡང་མེད་དོ་་	-10.4916
ཇི་ལྟ་བུ་	-10.4916
ཅིའི་སླད་དུ་	-10.4918
པ་འདི་	-10.4918
བཤད་སྒྲུབ་	-10.4918
བཙལ་བ	-10.492
གསུང་གི་	-10.4921
མཐར་ཐུག་	-10.4925
མཚུངས་མེད་	-10.4927
དབུ་འཛུགས་གནང་	-10.4927
བྲོ་	-10.4927
རྣམ་པ་གསུམ་	-10.4931
སྲིན་པོ་	-10.4931
དེ་དག་ལ་ཡང་	-10.4931
བཟང་བ་	-10.4933
བོད་རང་སྐྱོང	-10.4933
ཚོགས་བཅར་བ་ཡོངས་	-10.4934
བྱང་ཆུབ་ཀྱང་	-10.4934
མཐོང་བ	-10.4936
ཡོངས་སུ་དག་	-10.4936
མཆོག་འདི་	-10.4936
ཡོ་རོབ་	-10.4939
དུས་གཞན་ཞིག་ན་	-10.4939
རང་རེའི་	-10.4939
དྲི་བ་དྲིས་ལན་	-10.4939
དུས་ནས་དུས་སུ་	-10.4939
ལས་བྱུང་	-10.494
ཉོན་མོངས་པ་རྣམས་	-10.494
མཐུན་འགྱུར་གནང་	-10.4942
བརྗེད་	-10.4942
དམ་དྲག་	-10.4943
བ་ཞིག་	-10.4943
བགྱིས་པ་	-10.4944
ཡང་དང་ཡང་དུ་	-10.4945
ཉེས་དམིགས་སུ་	-10.4947
འདུས་བྱས་ཀྱི་	-10.4955
ཆུང་བ་	-10.4955
ཡི་རང་	-10.4957
མཛད་དོ་་	-10.4959
བཅུག་ནས་	-10.496
གཞན་དག་ལ་ཡང་	-10.4972
རྒྱལ་ས་ལྡི་ལི་	-10.4977
ལ་གནས་པར་	-10.4977
ཕྱི་དྲིལ་བོད་	-10.4978
མཆོད་པར་	-10.4978
བསམ་གཏན་དང་པོ་	-10.4981
སུམ་དུ་བྱས་སོ་་	-10.4982
ནི་གང་ཡིན་	-10.4986
ལྷན་ཚོགས་ཐོག་	-10.499
བྱུགས་	-10.499
དབྱར་	-10.4996
▁ལྔ་དང་ལྔ་བཅུའི་	-10.4997
ཆོག་པའི་	-10.4998
སྲེད་	-10.4999
མཐོང་ཞིང་	-10.5
ཡང་བརྗོད་དུ་	-10.5005
པས་ན་་	-10.5006
ཕྱུང་སྟེ་	-10.5007
མ་སུ་རི་བོད་ཁྱིམ	-10.5009
བྱེད་ཕྱོགས་	-10.5009
འགྱོད་པ་	-10.5012
ཏ་ལའི་བླ་མ་མཆོག་	-10.5013
་གཏན་མི་དམིགས་	-10.5016
བདེ་བ་དང་	-10.5016
ཤར་ཕྱོགས་	-10.5019
ཕན་གྱི་	-10.5023
ཙམ་རིང་	-10.5024
ལ་བཀོད་དོ་་	-10.5026
བཞི་པོ་	-10.5028
སུ་ནི་	-10.5029
ཅན་དུ་	-10.503
ཁྱེད་ཚོ་	-10.5031
▁དེས་བསམས་པ་	-10.5034
▁ང་ཚོ་ཚང་མ་	-10.5034
མན	-10.5035
གྱི་སྔ་དྲོར་	-10.5035
▁རིན་པོ་ཆེའི་	-10.5035
ཅིག	-10.5035
འཐུས་	-10.5037
བརྩིས་	-10.504
གནང་གྲུབ་མཚམས་	-10.5044
གཅིག་པོ་	-10.5045
འཇིག་རྟེན་སྐྱོང་	-10.5047
▁ཉོན་མོངས་	-10.5049
འདུགདེ་ནས་	-10.5049
ལེགས་སྐྱེས་	-10.505
▁སྐྱེ་བ་	-10.5051
ཀྱི་ཡན་ལག་བདུན་	-10.5051
ཚོགས་པ	-10.5053
ནོ	-10.5058
འཕྲད་བཞིན་པའི་	-10.5058
པོ་་	-10.5062
གཏད་	-10.5063
འི་གཟུགས་	-10.5063
མཐུན་འབྲེལ་	-10.5067
རིགས་ཀྱི་	-10.5067
གྱུར་ན་་	-10.5068
▁ཆོས་ཐམས་ཅད་ནི་	-10.507
པ་ཀུན་འབྱུང་བ་	-10.5076
རིང་དུ་	-10.5076
ཡེ་ཤེས་མཐོང་བ་	-10.5078
རྒྱུ་མ་ཟད	-10.5082
གནང་དང་གནང་བཞིན་	-10.5084
▁མདོ་སྡེ་	-10.5084
དབྱེ་འབྱེད་	-10.5084
སྦྲང་	-10.5084
གཅིག	-10.5085
འི་ཆོས་རྣམས་	-10.5085
ལྷའི་མིག་	-10.5086
འཛམ་གླིང་ཞི་བདེ	-10.5087
ེད་པའི་དབུ་ཁྲིད་	-10.5089
བཞིན་པ་དེ་དག་	-10.509
་ཞེས་	-10.5091
དགོངས་བཞེས་	-10.5093
རྒྱ་མི་རིགས་	-10.5094
ཆོས་མཉན་པའི་	-10.5095
སྤེལ་བའི་	-10.5095
དམ་ཆོས་	-10.5096
སྐྱེ་བར་འགྱུར་	-10.5097
ལྷའི་བུ་མོ་	-10.5098
སྒྲ	-10.5099
འཁྲུལ་	-10.5102
ཐོབ་པར་འགྱུར་་	-10.5107
་དག་ཡང་དག་པ	-10.5109
ཆགས་འདུག	-10.5112
དང་་ལྷ་མ་ཡིན་དང་	-10.5114
དབང་ཆ་	-10.5114
ཡིན་ཞིང་་	-10.5115
ཞུ་གཏུག་	-10.5119
ཤེས་ཁོང་དུ་ཆུད་	-10.5119
ངེས་ཡིན	-10.512
རྣམ་པར་སེལ་བས་	-10.5121
པི་བང་	-10.5121
ཆོས་ཀྱི་ཚུལ་	-10.5122
བཙུན་མོ་	-10.5122
བསྒྱུར་བཅོས་	-10.5123
རྒྱུ་ཞིང་	-10.5124
ང་ཚོ་ཚང་མས་	-10.5126
ཞུས་དོན་ལྟར་	-10.5127
བརླག་	-10.5128
རྒྱལ་བུ་རྒྱལ་	-10.5128
ལྷན་ཁང་	-10.513
ཚངས་པས་བྱིན་གྱི	-10.513
གསེར་གྱི་ཁ་དོག་	-10.5131
ཁ་ཞེ་གཉིས་མེད་	-10.5135
ཕྱིས་སུ་	-10.5136
▁ཅེས་གསུང་	-10.5137
འཐུངས་	-10.5139
▁རང་དབང་ཅན་གྱི་	-10.5142
འི་སྤྱི་ཚོགས་	-10.5146
འདིས་ནི་	-10.5147
བ་ཡིན་ན་	-10.5149
ནི་བདག་	-10.515
སྒར་	-10.5152
ཞོ་	-10.5158
ཕྱིར་མི་ལྡོག་པར་	-10.5163
མཉམ་འབྲེལ་གྱི་	-10.5165
སྤྱི་ཚོགས་དང་	-10.5165
གནང་དོན	-10.5168
སྤང་བའི་ཕྱིར་	-10.5169
ཞིང་བསོད་ནམས་དག་	-10.5169
འབྱུང་ཁུངས་	-10.5172
ཁོང་དུ་ཆུད་	-10.5175
ཕྱོགས་བཅུ་	-10.5175
བགྲང་	-10.5176
བྱའི་	-10.5178
ས་ཟླ་འོད་གཞོན་ནུ	-10.5179
ཇིམ་མེག་གྷོ་ཝན་	-10.5181
བྱེད་ཀྱི་ཡོད་པ་	-10.5183
ཉིད་ལ་	-10.5183
དང་བསྟུན	-10.5184
པ་བཞི་	-10.5186
བསྐྱེད་མ་ཐག་ཏུ་	-10.519
སྐྱེ་བ་མེད་པ་	-10.5193
ཕུད་	-10.5194
ཅི་ལགས་	-10.5196
གཞུ	-10.5197
ངོས་ནས་ཀྱང་	-10.5198
མཆི	-10.52
དབུས་འོས་བསྡུ	-10.5203
སྤྲོས་	-10.5204
ཁོང་ཚོས་	-10.5204
སེར་སྐྱའི་གནས་	-10.5205
ི་བ	-10.5205
འདི་རྣམས་ཀྱིས་	-10.5206
▁ཚོར་བ	-10.5208
དགའ་བསུའི་	-10.5208
འབྲོས་	-10.5208
སྟོང་ཉིད་	-10.5217
དེ་རིང་གི་	-10.5219
བྱ་རྒྱུ	-10.5221
▁བདུད་	-10.5221
དགའ་བསུ་	-10.5221
སླར་གསོ་	-10.5226
གྲངས་ཚད་	-10.5227
ངོ་ཤེས་	-10.5228
ཡིད་བདེ་བ་སྐྱེས་	-10.523
ཕན་བདེ་	-10.5232
གཡོན་	-10.5233
▁གོང་གསལ་	-10.5234
གྲྭ་ཚང་	-10.5235
ཅན་དང་་	-10.5235
ཛ་དྲག་གནས་སྟངས་	-10.5237
ཆབ་སྲིད་ཚོགས་པ་	-10.5238
ལུང་བསྟན་ཏོ་་	-10.524
་ཞེས་བྱ་བ་	-10.5241
བཤད་པའི་	-10.5241
མཐའ་མའི་	-10.5242
བྱམས་པའི་	-10.5243
ོལ་	-10.5244
བྱིན་ནོ་་	-10.5245
ུའུ་	-10.5246
ས་མཚམས་སུ་	-10.5246
▁སྐབས་རེ་	-10.5249
་ར	-10.5249
ཅན་ཞིག་	-10.525
བསྡུ་	-10.5251
མི་གནས་པ་	-10.5251
མི་གཡོ་བ་	-10.5252
བལྟ་བར་བྱའོ་་	-10.5256
ཆབ་སྲིད་བཙོན་པ་	-10.5256
གཉེན་པོ་	-10.5256
དཔྱད་པ་	-10.5257
སྨྲ་བ་དང་་	-10.5258
ྱང་ཆུབ་སེམས་དཔས་	-10.5259
ཇོ་	-10.526
པ་ཚོས་	-10.526
པའི་སླད་དུ་	-10.5263
ཞིང་ཡོངས་སུ་དག་པ	-10.5266
ཐང་དང་	-10.5267
རློམ་སེམས་	-10.5272
ཇི་འདྲ་	-10.5273
ཡག་ཤོས་	-10.5273
སུ་གྱུར་པ་	-10.5273
ཀྱི་ཕུང་པོ་	-10.5274
རྡོ་རྗེ་ལགས་ཀྱིས	-10.5276
བསྔགས་པ་བརྗོད་	-10.5276
བདེ་བ	-10.5278
སྦྲུལ་	-10.528
སྦྲེལ་རྒྱལ་ཚོགས་	-10.5281
ྲ	-10.5282
དེ་ལྟ་བུ་ནི་	-10.5282
▁གང་ཚེ་	-10.5285
མི་དགའ་	-10.5288
ཉིན་གཅིག་	-10.529
ལ་བ་	-10.5292
མཆིས་་	-10.5295
ཨན་	-10.5297
ལྗགས་	-10.5298
ཚང་མའི་	-10.5299
ཁྱིམ་གྱི་	-10.53
ཀརྨ་	-10.5301
སོང་ངམ	-10.5302
བྱུང་བར་གྱུར་ཏོ་	-10.5304
བཟང་སྐྱོང་	-10.5305
སྐུ་འཚོ་བཞུགས་	-10.5306
སྐྲ་དང་ཁ་སྤུ་	-10.5306
སྨིན་སྩལ་ཐོབ་སྟེ	-10.5306
འི་རིའི་རྩེ་མོ་	-10.5307
དཔལ་ན་ལེན	-10.5309
རིག་པར་བྱའོ་་	-10.5309
དམན་པ་	-10.531
ལོ་མང་རིང་	-10.531
ཕྱེད་ཡོལ་ཆུ་ཚོད	-10.531
གཟའ་མཇུག་	-10.5312
ཉེན་རྟོག་པས་	-10.5312
ཀྱིས་ནི་	-10.5313
གི་ནང་	-10.5314
་སྤྱད་པར་འཚལ་ལོ་	-10.5316
སྦར་སེལ་	-10.5318
དད་པ་དང་	-10.5319
སོགས་ཀྱི་ཐོག་	-10.5324
གང་ཡོད་	-10.5325
འཐུན་པར་	-10.5326
བྲམ་ཟེ་དང་་	-10.5327
ཕྱི་མའི་མཐའ་	-10.5329
ཤེས་ཡོན་ལམ་ལུགས་	-10.5329
བརྟན་པའི་	-10.5332
ཁོང་དུ་ཆུད་པར་	-10.5332
སྒྲ་ཡང་	-10.5333
རྒྱུན་ལྡན་	-10.5335
ལ་རྣམ་པར་	-10.5335
ཁོང་རྣམས་	-10.5336
དངུལ་ཁང་	-10.5336
ངོ་མཚར་དུ་གྱུར་	-10.5336
▁ང་ཡི་	-10.5338
ར་བ་	-10.5339
ཚོང་འབྲེལ་	-10.5339
་འདུག་པ་བཅས	-10.534
གསུང་རབ་	-10.5342
སྨོན་ལམ་གྱི་	-10.5344
སྡེ་སྣོད་གསུམ་	-10.5346
སྤེལ་བ་	-10.5346
▁གོང་ས་མཆོག་གི་	-10.5349
སུ་ལ་ཡང་	-10.5353
ལེན	-10.5353
རྐང་པ་ལ་ཕྱག་འཚལ་	-10.5354
གྱུར་ཡོད	-10.5355
འདུ་ཤེས་དང་་	-10.5357
དབང་བསྐུར་	-10.5358
མ་སྐྱེས་པ་	-10.5359
དགུན་	-10.5369
ཁྲི་ཉིས་སྟོང་	-10.537
སྣ་ཚོགས་ཀྱི་	-10.5373
མི་རྣམས་ཀྱིས་	-10.5373
བགོ་འགྲེམས་	-10.5377
བསྐྱར་	-10.5377
▁སེམས་ཅན་དེ་དག་	-10.538
སྔོ་	-10.5383
བོད་ཕྲུག་	-10.5384
རྒྱལ་པོའི་བུ་	-10.5385
ལ་དྭགས་སུ་	-10.5386
འདི་ག་	-10.5386
དེ་བཞིན་ཉིད་དང་་	-10.5387
▁སྐུ་	-10.5391
ཐུབ་པ་ཡིན་ན་	-10.5391
ནི་སངས་རྒྱས་	-10.5391
ཕྱོགས་ནས་	-10.5397
ནང་ན་ཡང་	-10.5398
མེ་ཏོག་དང་་	-10.5398
ཕུང་པོའི་	-10.5399
སྡེ་ཚན་གྱི་	-10.5401
ཐུབ་པ	-10.5402
སྲོག་གཅོད་པ་	-10.5402
སོང་ཤིག་	-10.5402
གནས་ཀྱི་	-10.5405
དད་ལྡན་ཆོས་ཞུ་བ་	-10.5407
སྨོན་པ་	-10.5409
བཀའ་ལན་སྩལ་	-10.5409
ཉོན་ཅིག་	-10.541
དགོས་པ་ཧ་ཅང་	-10.5411
མི་ཤེས་སོ་	-10.5412
ཕ་མས་	-10.5413
གཟིགས་པ་	-10.5414
ཕེབས་པར་	-10.5416
ཚུལ་དུ་	-10.5416
རྫུན་	-10.5417
ཞབས་འབྲིང་	-10.5418
ད་པ་	-10.5418
ལྷག་པ་	-10.542
ལ་མོས་པ་	-10.5421
རྣམ་པར་རིག་པ་	-10.5422
འི་ཁམས་ཤེས་པ་	-10.5425
དེ་དེ་བཞིན་ཏེ་	-10.5432
▁ཚིག་	-10.5433
མཐའ་མ་	-10.5438
ཆོས་དད་	-10.5444
ཡོད་པ་ལྟར་	-10.5444
ཡེ་	-10.5448
མི་མཉམ་པ་དང་མཉམ་	-10.545
ཚང་བར་	-10.5451
ཕ་མ་གཉིས་	-10.5453
▁ད་ཐེངས་	-10.5456
ཙན་དན་	-10.5458
བདག་གི་ལུས་	-10.5458
བདུན་པ་	-10.5459
མགོན་སྐྱབས་	-10.5459
ཉམས་ཞིབ་པ་	-10.546
ཀྱི་ཆེད་དུ་	-10.5461
ཤིང་དགེ་སློང་	-10.5464
ཡུལ་འཁོར་	-10.5464
དགུང་གྲངས་ཕེབས་	-10.5465
པེ	-10.5465
དངོས་པོར་	-10.5466
ུངས་སྐར་དུས་ཆེན་	-10.5468
ལམ་སྟོན་གནང་	-10.5469
འི་སྒྲ་	-10.5471
སྙིང་པོའི་	-10.5472
ཆེ་ཆུང་	-10.5474
པར་རིས་	-10.5474
བྱམས་བརྩེ་དང་	-10.5476
རྗེས་དྲན་གྱི་	-10.5477
རྣམས་ཀྱི་གནས་	-10.5479
སྐྱེ་བོ་མང་པོ་ལ་	-10.5479
འི་མཆོད་རྟེན་	-10.5479
ར་བགྱིད་	-10.5482
ཞུས་དང་ཞུ་མུས་	-10.5482
རིག་ནས་	-10.5483
དགེ་སློང་དེ་དག་	-10.5486
རབ་ཏུ་བྱུང་	-10.5488
སྒྲིབ་པ་ཐམས་ཅད་	-10.5489
བོད་མཐོ་སྒང་	-10.5489
ཕྲིན་ལས་	-10.549
འཇིག་རྟེན་ཕ་རོལ་	-10.5491
མ་སོང་	-10.5491
རྒན་པ་	-10.5491
ཕྲེང་	-10.5491
ཁ་ན་མ་ཐོ་བ་	-10.5492
ཡིན་པར་བརྟེན་	-10.5494
ལུང་དུ་མ་བསྟན་པ	-10.5494
ཉི་ཁྲི་ཐུབ་པ་ན་	-10.5495
རེ་རེའི་	-10.5496
སྒྲོལ་དཀར་	-10.5496
ཟིན་བྲིས་	-10.5496
ཀྱི་དབང་པོའི་	-10.5497
སྐྱེ་བར་འགྱུར་བ་	-10.5498
ལྟ་བར་གྱུར་པ་	-10.5499
འདུག་པར་བྱའོ་་	-10.5499
ཁྱབ་སྤེལ་	-10.5499
མི་འ	-10.5499
▁མ	-10.55
གདོང་ལེན་	-10.5501
དགོས་དམིགས་	-10.5501
གྲུབ་པའི་རྒྱུ་	-10.5502
འཇིགས་སྣང་	-10.5502
ངལ་སེལ་	-10.5504
དང་ལྡན་པ	-10.5506
▁གང་ཡང་	-10.5507
ས་ལ་བཙུགས་ཏེ་	-10.5508
རྒྱལ་པོ་དེ་	-10.5509
སྐུའི་ཡང་སྲིད་	-10.5514
སྒྲོལ་མ་	-10.5518
དྲུག་གི་	-10.5518
ནམ་མཁའ་མཐའ་ཡས་	-10.552
་བསམ་གྱི་འདུག	-10.5523
བཟའ་བ	-10.5523
བྱེད་ན་	-10.5524
སྣ་མང་	-10.553
ནུས་སྟོབས་	-10.553
བོད་ཐོག་འཛིན་	-10.553
མི་དགའ་བ་	-10.5536
བགྲེས་ཡོལ་	-10.5537
ཚོགས་འདུ་ཞིག་	-10.5537
སྐུ་ཞབས་ཨ་	-10.5538
རྩེད་མོ་	-10.5539
▁རླུང་	-10.554
གདུངས་	-10.5545
ཐམས་ཅད་མཁྱེན་	-10.5546
ཕུན་སུམ་ཚོགས་	-10.5548
དང་བསླབ་པའི་གཞི་	-10.5548
ཆོས་ཀྱི་རྒྱལ་པོ	-10.5549
རྒྱུའི་ཐོབ་ཐང་	-10.5551
ལྷགས་་	-10.5552
བྱ་བའི་	-10.5553
སྐྱེ་དགུའི་བདག་	-10.5556
འཛུལ་	-10.5557
ཁྲུ	-10.5558
ཡིན་ནོ་ཞེས་	-10.5558
བཙན་བྱོལ་བ་	-10.5559
་འགོག་པ་དང་་ལམ་	-10.5564
ལ་སྙིང་བརྩེ་བ	-10.5569
རེ་རེ་བཞིན་	-10.5573
སྣང་བར་གྱུར་ཏོ་་	-10.5573
ངེད་	-10.5574
དབང་པོ་དང་་	-10.5574
མཉམ་ཞིང་	-10.5575
མི་བྱེད་དོ་་	-10.5575
ཐེ་ཝན་ནང་	-10.5577
བདེན་པར་	-10.5578
སྙམ་དུ་མི་སེམས་	-10.5579
▁ཁྱེད་ཀྱིས་	-10.558
ཁྱབ་གདལ་	-10.558
▁ད་ནི་	-10.5583
ལན་གསུམ་	-10.5584
ཐད་དུ་	-10.5587
ཡིན་ཏེ་་	-10.5589
བླང་དོར་	-10.5591
འགྲོ་བ་ཐམས་ཅད་	-10.5592
ཐེག་པ་ཆེན་པོ	-10.5594
བོད་རྒྱ་གཉིས་	-10.5599
ཡོད་པ་ལྟར	-10.56
མུ	-10.5606
རུལ་	-10.5608
པར་མ་གྱུར་	-10.561
ལ་ཡང་དག་པར་	-10.5611
ཚོགས་ཆེན་གྱི་	-10.5611
མཆོག་རྣམ་གཉིས་	-10.5612
བསིལ་	-10.5613
▁འདོད་པ་	-10.5614
ཨ་རི་དང་	-10.5616
ཆེན་པོ་མཆོག་གིས	-10.5617
ལྷག་བསམ་	-10.5618
མཆོགདེ་བཞིན་	-10.5621
ན་འདུག་པ་	-10.5624
ཡོད་པ་མ་རེད	-10.5625
དེ་ཉིད་ཀྱི་	-10.5625
ཞུགས་སོ་་	-10.5628
དགོངས་པ་རྫོགས་	-10.5629
▁བྱང་ཨ་རིའི་	-10.563
▁བདག་ཅག་གིས་	-10.5632
སྟེང་གི་ནམ་མཁའ་ལ	-10.5634
རིམ་པའི་	-10.5635
གནོན་	-10.5636
དེའི་ཐོག་ནས་	-10.5644
བསྲེག་	-10.5645
ཐོག་རྒྱབ་སྐྱོར་	-10.5647
ཁྱིམ་བདག་དེས་	-10.5648
དོན་དམ་པར་	-10.5649
མ་མཆིས་པ་དང་་	-10.5649
མངོན་པར་བསྒྲུབས་	-10.5649
ཚོགས་ཆུང་གིས་	-10.5652
དུས་ཀྱི་	-10.5654
▁ལྷ་རྣམས་	-10.5655
དྲང་	-10.5656
སྐུ་གཟུགས་	-10.5657
▁གསར་འགོད་པ	-10.5657
▁དགེ་རྒན་	-10.5664
འབྲོག་	-10.5666
པར་རིག་ནས་	-10.5666
▁བྱང་ཆུབ་ནི་	-10.5667
མདོ	-10.5669
སྒྲིག་འཛུགས་ལ་	-10.5669
མུར་	-10.5669
འི་མང་གཙོའི་	-10.5669
ནས་བོད་མིའི་	-10.5671
ཀྱི་ཚོགས་གཙོ་	-10.5672
ར་མི་འགྱུར་བ་	-10.5675
དང་མཚུངས་པ་	-10.5677
ུར་	-10.5678
གནད་	-10.5678
བྱེད་པ་པོ་	-10.5682
མྱ་ངན་ལས་འདས་	-10.5683
དབུ་མ་	-10.5684
ཐབས་ཟླར་བབ་པ་ལ	-10.5687
ཧིན་བོད་མཛའ་	-10.5687
མ་བྱེད་ཅིག་	-10.5687
འགྲན་སྡུར་	-10.5687
མཁྱེན་པ་ཉིད་དུ་	-10.569
སྔ་འགྱུར་རྙིང་མ	-10.569
སྙིང་བསྡུས་ཤིག་	-10.5693
རིག་འཛིན་	-10.5693
▁སོ་སོའི་	-10.5694
མདོར་བསྡུས་	-10.5694
འདུ་ཤེས་མེད་མིན་	-10.5695
ཡོང་བཞིན་འདུག	-10.5695
ས་ཤིག་	-10.5695
རང་བཞིན་ལྡན་པའི་	-10.5696
ལྷ་དང་མི་	-10.5698
▁གཞོན་ནུ་འདི་དག་	-10.5699
འབྱེད་	-10.5704
ཁྲིམས་སུ་	-10.5704
ཞི་བདེ་དང་	-10.5706
མི་ནུས་་	-10.5706
བཞིས་	-10.5707
སྦིར་	-10.5708
ལས་གཞིའི་	-10.5708
ངོ་ཚ་	-10.571
ཇི་སྙེད་ཅིག་	-10.571
་མཆོག་གི་	-10.571
་མ་ཧ་	-10.5711
ཇི་སྐད་སྨྲས་པ་	-10.5713
ལ་མངོན་པར་	-10.5713
དེང་དུས་	-10.5714
རང་རིགས་	-10.5714
མཛའ་བརྩེའི་	-10.5714
བའི་སྐབས་	-10.5714
དགོས་དོན་ནི	-10.5715
པའི་ལས་དེའི་	-10.5715
ཤོ	-10.5715
གི་ཡོད་པ་རེད	-10.5716
དགོས་པ་ཞིག་	-10.5717
་ཆེན་རིན་པོ་ཆེ	-10.5718
ཚོགས་འདུའི་ཐོག་	-10.5718
ཁྱིམ་བདག་དེ་	-10.5718
གང་ནས་	-10.5719
ཡོངས་སུ་གང་བ	-10.572
▁བདག་ལ་	-10.572
འབྲེལ་བ་ཡོད	-10.5721
བོད་མི་ནང་ཁུལ་	-10.5724
ལམ་སྟོན་དང་	-10.5725
གྲོང་ཁྱེར་ནས་	-10.5727
སྣང་བའི་	-10.5728
ཁ་ནས་	-10.5729
་སྟབས	-10.573
རྒྱལ་སྤྱིའི་ཐོག་	-10.5731
འགྲོ་་	-10.5731
སྐོར་བཀའ་སློབ་	-10.5733
འདི་ཁོ་ན་ཡིན་ཏེ	-10.5733
གནད་དོན་སྐོར་	-10.5733
ལ་འཚམས་འདྲི་	-10.5737
ཡོན་ཏན་གྱི་ཚོགས་	-10.5738
ལ་ཡིད་ཆེས་	-10.5741
ཀྱི་རེད	-10.5742
ཇི་སྲིད་འཚོ	-10.5744
པ་རྣམས་དང་་	-10.5744
ལ་དགའ་བ་	-10.5745
ལས་དོན་ཐོག་	-10.5745
ལྷ་སའི་	-10.5745
རོགས་རམ་གནང་	-10.5748
▁ཨ་	-10.5749
གདགས་པ་	-10.575
ཏོ	-10.5751
ད་ལྟར་གྱི་	-10.5752
ཆེ་ཞུ་རྒྱུ་ཡིན	-10.5753
ལྟ་གྲུབ་མི་འདྲ་བ	-10.5754
མི་སྣང་	-10.5755
མེར་	-10.576
ཐུག་འཕྲད་	-10.5764
དགོན་སྡེ་ཁག་གི་	-10.5767
བརྒྱག་	-10.5767
ཡོངས་སུ་དག་པའི་	-10.5768
བཤད་དུ་གསོལ་	-10.5771
ཟེར་རྒྱུ་	-10.5776
མི་སྐྱེ་	-10.5776
གཞོན་ནུར་གྱུར་པ་	-10.5778
ཡིན་གྱི་	-10.5779
ལྟ་ཞིང་	-10.5782
གསར་པའི་	-10.5783
སྤར་	-10.5784
▁ཅེས་སོགས་	-10.5786
དགོས་གལ་	-10.5787
རྨི་ལམ་དུ་	-10.5788
བགྱིད་པ་དང་་	-10.5788
ལ་ཤིན་ཏུ་	-10.5789
རྨི་ལམ་ལྟ་བུ	-10.579
དབང་པོ་ཤེས་པ་	-10.579
འདོགས་	-10.579
གྱུར་བ་	-10.5791
ལུས་དང་སེམས་	-10.5791
བུམ་པ་	-10.5794
དགག་	-10.5794
ཡོངས་སུ་འཛིན་པ	-10.5796
བཏགས་པ་	-10.5796
▁རྒྱུ་མཚན་	-10.58
ག་ཚོད་	-10.58
འཕངས་	-10.58
གཟི་བརྗིད་ཀྱིས་	-10.5801
རྡོག་རྩ་གཅིག་	-10.5803
མཐོང་ནས་ཀྱང་	-10.5803
ཨེ་ཤི་ཡ་	-10.5807
ཐོས་ན་	-10.5807
བཀོད་པ་པོ་	-10.5808
འཁོར་གྱི་	-10.5808
ཞེས་བགྱི་བ་	-10.581
ར་བྱའོ་ཞེས་	-10.5811
ཟངས་	-10.5812
གནས་པར་བྱེད་	-10.5815
ི་བྱེ་མ་སྙེད་	-10.5816
འགྲེལ་བརྗོད་གནང་	-10.5817
རྒྱུ་གལ་ཆེན་པོ་	-10.5818
དེབ་སྐྱེལ་	-10.5822
གསོ་བ་རིག་པ་	-10.5823
གཞི་རྩའི་འགྲོ་	-10.5824
དབུ་འབྱེད་མཛད་	-10.5824
ཐུབ་རྒྱུ་	-10.5824
ངག་གི་ལས་	-10.5825
དཀྲུག་	-10.5826
རླབས་	-10.5826
རྡ་ས་གངས་སྐྱིད་	-10.5827
དུ་མའི་	-10.583
རྣ་བའི་རྣམ་པར་	-10.5831
▁སྐྱེས་བུ་དམ་པ་	-10.5836
རྗེས་སུ་འབྲང་བ་	-10.5836
ཉེ་དབང་ད	-10.5836
སྟེང་གི་	-10.5838
ཞེའམ་	-10.5839
རྒྱ་ནག་གཞུང་དང་	-10.5841
ཁོར་ཡུག་གི་	-10.5841
འདེམས་	-10.5841
ཤེས་ཤིང་	-10.5843
གོ་བ	-10.5843
འདུག་པར་	-10.5847
ཚོགས་དྲུང་	-10.5847
དྲ་བ་	-10.5851
བྱས་པ་དེ་	-10.5857
ཞུ་གི་ཡོད	-10.5859
གྲོས་བསྡུར་	-10.5859
ཆུང་ངུ	-10.5862
རབ་བྱུང་	-10.5863
བསྟན་པ་འདི་	-10.5863
བརྗེ་ལེན་	-10.5865
ཞིག་སྤེལ་	-10.5867
ཚོགས་པ་ཁག་གི་	-10.5868
སྨད་འཚོང་མ	-10.5868
འཚོ་བྱེད་	-10.5868
གཟབ་	-10.5868
དྲི་ཟའི་	-10.5868
ཐོས་པས་	-10.5869
གསུང་བ་	-10.5871
རྣམས་ཡོངས་སུ་	-10.5874
མ་འགགས་པ་	-10.5878
འི་གཞུང་མང་གཉིས་	-10.588
ང་བཅས་པའི་ལྷ་	-10.5881
སྨོན་པ་མེད་པའི་	-10.5882
སྐབས་སུའང་	-10.5883
མཐོང་བས་རྣམ་པར་ག	-10.5883
▁བུ་མོས་སྨྲས་པ་	-10.5884
དགའ་བར་བྱེད་	-10.5885
བོད་མི་ས་ཡ་དྲུག་	-10.5886
ཡོངས་སུ་སྨིན་པ	-10.5886
འབྲུ	-10.5887
ལྟ་བུ་ཞིག་	-10.5887
ས་འདི་	-10.5889
དེ་ཁོ་ན་བཞིན་དུ་	-10.5889
ཉམས་བཞེས་	-10.5889
▁གང་ཡིན་བརྗོད་ན་	-10.5891
ཞུ་བ་ཞུས་པ་	-10.5894
གནས་པ་དང་	-10.5896
རྒྱབ་ལྗོངས་	-10.5899
▁དེ་ནས་རྒྱལ་པོ	-10.59
དོན་གྱི་ཕྱིར་	-10.5901
དགེ་བ་དང་མི་	-10.5901
ཉེ་འཁོར་	-10.5904
གོ་ཆ་ཆེན་པོ་	-10.5904
དུ་གཞུག་པར་བྱ་	-10.5905
རྡ་རམ་ས་ལར་	-10.5906
མར་གྱི་ཉིང་གུ	-10.591
དབང་ཕྱུག་མཆོག་	-10.5911
སྒྲོན་	-10.5911
གད	-10.5912
དང་བྲལ་ཞིང་	-10.5913
སིལ་	-10.5914
བྱུག་པ་	-10.5915
ཉེ་དུ་	-10.5917
གླང་པོ་ཆེ	-10.592
ལེགས་སྦྱར་	-10.592
བར་བརྟེན	-10.592
འདོར་	-10.5921
་ཇི་སྙེད་པ་ཉིད་	-10.5923
གུས་པར་སྨྲ་བ	-10.5923
དུ་འགྲོ་	-10.5925
བྱེད	-10.5927
གདུལ་བ	-10.5931
ཁང་བཟངས་	-10.5931
▁འདུ་བྱེད་ཀྱི་	-10.5933
མཉམ་པ་ཉིད་ཀྱིས་	-10.5935
ལྷན་ཅིག་ཏུ་	-10.5939
དྲུང་ཆེའི་	-10.5944
ཕ་རོལ་ཕྱིན་་	-10.5946
▁དེའི་ཐོག་	-10.5947
ཐམས་ཅད་ཡོངས་སུ་	-10.5947
ལྟ་རྟོག་	-10.5948
དང་་དུད་འགྲོ	-10.5951
བྷོ	-10.5951
་དང་་སྡུག་བསྔལ་བ	-10.5951
དེ་དེ་བཞིན་	-10.5954
འཚེ་མེད་ཞི་བ	-10.5956
རྣམས་སྡུག་བསྔལ་	-10.5957
རེད་བསམ་གྱི་འདུག	-10.596
དཀའ་ངལ་སེལ་	-10.5962
དབང་ཕྱུག་གི་	-10.5966
ཆོས་ལུགས་ཚང་མས་	-10.5968
ིག་རྟེན་སྐྱོང་བ་	-10.5971
འདི་བརྒྱུད་	-10.5971
གལ་གནད་	-10.5975
རྒྱལ་ཁབ་དང་	-10.5977
▁ཐམས་ཅད་མཁྱེན་པ	-10.5978
དབང་པོ	-10.5978
་སོ་སོ་ཡང་དག་པར་	-10.5985
▁ཨ་རི་	-10.5986
གཏན་འབེབས་གནང་བ་	-10.5989
འཁོད་ནས་	-10.599
འི་སེམས་ཅན་རྣམས་	-10.5991
གློ་	-10.5992
རོགས་ཚོགས་	-10.5995
འི་བར་ལ་	-10.5995
ཀུན་དགའ་ར་བ	-10.5996
འི་ཆོས་ཅན་ནོ་	-10.5999
གསལ་པོར་	-10.6
ཡོངས་སུ་བཟུང་བ་	-10.6001
དཔེ་བྱད་བཟང་པོ་	-10.6003
་ཙ	-10.6004
ང་དང་	-10.6005
ཁྲུས་	-10.6008
་དེ་འདི་	-10.6009
བཞིན་ནོ་་	-10.6009
རྒྱུན་མི་འཆད་པར་	-10.601
ཁ་པར་	-10.6011
བཀུར་	-10.6012
པ་ཞེས་བྱ་བའི་	-10.6013
མ་ཡིན་པས་	-10.6014
▁རྡ་ས་	-10.6015
རྒྱུད་གཅིག་	-10.6015
ཞིག་ཡིན་སྟབས	-10.6016
དུལ་	-10.6017
བསོད་སྙོམས་ལ་	-10.6017
འདི་དག་ལ་	-10.602
དོན་ལྡན་གླིང་	-10.6024
▁བལ་ཡུལ་	-10.6025
མུ་མཐུད་ནས་	-10.6027
བཞི་བཅུ་	-10.6027
གཉིད་	-10.6028
པར་བྱེད་ཅིང་་	-10.6028
▁ད	-10.6028
གཟབ་རྒྱས་	-10.6029
བརྙན་ཐུང་	-10.6033
ཟས་སྦྱིན་གྱི	-10.6039
མ་ལགས་སོ་་	-10.6043
▁དེ་དེ་ལྟར་	-10.6044
འཇིག་རྟེན་ཁམས་	-10.6045
བགྲོ་གླེང་གནང་	-10.6046
འདི་ལྟ་བུ་འདི་	-10.6048
གཞིས་ལུས་	-10.6049
གནང་མཁན་ཡོངས་ལ་	-10.605
ལ་སྤྱོད་པས་	-10.605
ཁ་བྲལ་	-10.6051
བསམ་བློ་བཏང་ནས་	-10.6053
དབྱེ་	-10.6053
ལྷ་རྣམས་ཀྱིས་	-10.6053
ཡར་རྒྱས་ཕྱིན་	-10.6058
པའི་ཚེ་་	-10.6061
རྫོགས་པར་བྱ	-10.6062
པའི་སླད་དུའོ་་	-10.6063
ཚོགས་གཙོ་མཆོག་	-10.6064
དྲི་བར་	-10.6064
དགོན་པ་དང་	-10.6064
ཁྲིམས་རྩོད་པ་	-10.6064
གཉེར་གསར་འགོད་པ་	-10.6066
▁རིག་པ	-10.6067
བསམ་བློའི་ནང་	-10.6068
བཟོ་གྲྭ	-10.6068
གྲུབ་མཚམས	-10.607
་ན་བདག་	-10.6072
ལྔ་བརྒྱ་ཙམ་	-10.6074
དྲ་ཚིགས་	-10.6076
ཉན་ཞིབ་	-10.608
རེག་པ་ལ་གནས་སམ་	-10.6083
ྲོལ་སྙམ་འམ་	-10.6083
མར་དང་ཞུན་མར་དང་	-10.6083
ཆོས་སུ་བཏགས་པ་	-10.6083
ཉན་ཐོས་ཀྱི་སའམ་	-10.6083
མཛོད་ཅིག་	-10.6083
སྐུའི་འཕྲོད་བཞེ	-10.6084
དྲ་ཐོག་	-10.6086
སྒྲོགས་སྦྱང་གནང་	-10.6087
གཙོ་འཛིན་	-10.6089
དང་་མིའམ་ཅི་དང་་	-10.6089
འི་སངས་རྒྱས་ཀྱི་	-10.6089
ཞལ་ཟས་	-10.609
ཅི་ཡང་	-10.6091
དང་་དགེ་བསྙེན་	-10.6092
རིག་པར་བྱ་སྟེ་	-10.6093
སྐུ་མགྲོན་དུ་	-10.6094
▁རིམ་པས་	-10.6095
སྒྲོག་	-10.6097
རྒྱས་པར་བྱས་ནས་	-10.61
གཟུགས་ནི་	-10.6102
འི་ཕོ་བྲང་འཁོར་	-10.6102
བསིལ་བར་གྱུར་པ་	-10.6102
མི་འཇིགས་	-10.6104
་མ	-10.6104
ལྷན་འཛོམས་ཐོག་	-10.6105
མི་འགྱུར་རོ་་	-10.6105
ངྒ་	-10.6108
ཏོག་	-10.611
འོངས་ཏེ་ཞེས་བྱ་བ	-10.6113
མང་པོ	-10.6113
▁སློབ་གྲྭའི་	-10.6113
ནས་ཕེབས་པའི་	-10.6113
བོར་ཏེ་	-10.6115
རྣམ་གྲངས་འདིས་	-10.6116
འབེབས་	-10.6116
་འཐོབ་ཏུ་རུང་ན་	-10.6118
བགྱིས་ལགས་	-10.6118
ིས་	-10.6121
་རྒྱལ་བ་	-10.6124
ན་བ	-10.6124
ལྷན་འཛོམས་ཀྱིས་	-10.6125
▁ཕྱི་ལོ་གཟའ་ཉི་མ	-10.6125
བཙན་བྱོལ་ནང་	-10.6125
བཤད་ན་	-10.6125
ཚེའི་ཚད་	-10.6127
ཅུང་	-10.6127
མཚམས་སུ་	-10.6128
ནམ་མཁའི་ཁམས་	-10.6134
གནོན་ཤུགས་སྤྲོད་	-10.6134
ལ་གནས་ཤིང་	-10.6135
ཅེས་སོགས་ཀྱི་	-10.6135
གཞི་ནས་	-10.6135
སོང་་་	-10.6136
བཅད་དེ་	-10.6136
ཞུ་མཁན་	-10.6137
ས་པའི་འགོག་པ་	-10.6139
སྙིང་རྗེ་ཆེན་པོ	-10.6142
ཕུལ་བའི་	-10.6144
མིག་གི་རྣམ་པར་	-10.6144
ཀྱི་ཞིང་དེ་ན་	-10.6144
དགའ་མོས་	-10.6145
གལ་ཆེ་བ་	-10.6145
པ་ཉིད་ཀྱི་ཕྱིར་	-10.6147
བཅོམ་ལྡན་	-10.6148
མཐོང་བའི་	-10.6148
ཕྱག་དར་	-10.615
འཁོར་བར་	-10.615
བཅོ་ལྔ་	-10.6151
ཀྲི	-10.6151
ཟུང་འབྲེལ་ཐོག་	-10.6153
སྐྱེད་སྲིང་	-10.6155
གོ་སྒྲིག་ཞུས་	-10.6157
འགྲོ་ཞིང་	-10.6157
ཕྲད་	-10.6158
བཞུགས་ཁྲིར་	-10.616
་དང་ལག་མཐིལ་དུ་	-10.6161
བརྗོད་པར་	-10.6163
བསླབས་ནས་	-10.6163
འཕྲད་བཞིན་ཡོད	-10.6164
འཛམ་གླིང་ཡོངས་ལ་	-10.6166
ཨ་རིའི་རྒྱལ་	-10.6168
སྨོན་ལམ་གྱི་དབང་	-10.617
ཁྲིམས་འགལ་	-10.617
གཟུགས་དང་་	-10.617
བྱེད་བཞིན་ཡོད་པ་	-10.6171
སྟོང་ཕྲག་དུ་མ་	-10.6171
ལ་ཕན་	-10.6172
རབ་ཏུ་བྱུང་བའི་	-10.6173
ཆོས་ཀྱི་རང་བཞིན་	-10.6177
འོད་སྲུང་ཆེན་པོ་	-10.6178
ཡིད་ཀྱི་ལས་	-10.6179
སྐྱོང་སྤེལ་གསུམ་	-10.6184
ཞབས་ཞུ་	-10.6187
དབང་ཕྱུག་དང་་	-10.6189
སྟོབས་དང་་	-10.6189
ད་བར་བོད་མི་	-10.6189
ལ་གནོད་	-10.6189
▁དེ་དག་ལ་	-10.6193
ཉམས་སུ་མྱོང་བ	-10.6194
ཤེས་ཡོན་དང་	-10.6194
ཐུན་	-10.6195
ཉེ་བར་གཞག་པར་བྱ	-10.6195
དཔེ་མཛོད་ཁང་	-10.6195
ལོ་རྒྱུས་ནང་	-10.6199
མི་འགྱུར་བ་དང་་	-10.6199
རང་ལོ་	-10.62
སེམས་ཀྱི་རྒྱུད་	-10.6202
སྦྱངས་པ་	-10.6202
གཡ	-10.6203
དེ་ཐམས་ཅད་	-10.6205
རྒོད་	-10.6205
སྐུ་ཚེ་ཞབས་པད་	-10.6206
ལས་དོན་སྤེལ་	-10.6209
གྱིས་ཤིག་ཅེས་	-10.6213
ྲུང་གི་བསྟན་པ་ལ་	-10.6214
རང་དབང་དང་	-10.6214
ཤིས་	-10.6214
བདག་གིས་ཀྱང་	-10.6217
རྣམས་ལས་	-10.6217
གཅ	-10.6218
ཀྱི་གནས་སྟངས་	-10.6219
མི་སྒེར་	-10.6224
ཕ་ཡུལ་	-10.6225
འཐུང་	-10.6226
བསྐོར་ཅིང་	-10.6226
▁ཟླ་བ་	-10.6228
དོན་ཁང་གི་	-10.623
་ཞེས་བྱ་བའི་	-10.6233
ཚད་མ	-10.6234
ཞེས་བྱ་	-10.6234
ཕྱིར་རྒོལ་བར་	-10.6235
རིམ་པར་	-10.6237
མཁན་ཚོས་	-10.6238
མིའམ་ཅི་	-10.6238
ཐུགས་བསྐྱེད་	-10.6238
རྒྱུ་ཡིན་པ་བཅས	-10.6241
གང་གའི་ཀླུང་	-10.6242
ལྟ་བུ་རེད	-10.6242
བསྐོར་ཏེ་	-10.6243
བཞི་པའི་	-10.6245
ཁག་ནས་	-10.6246
ཡོད་མ་རེད	-10.6246
ལྷན་ཚོགས་སྐབས་	-10.6247
གསུང་གི་འདུག	-10.6249
་འདུག	-10.625
དོང་སྟེ་	-10.6252
▁ཤེས་ལྡན་དག་	-10.6254
རང་བཞིན་ནི་	-10.6255
དེ་དག་ཚང་མ་	-10.6256
རྣམས་སམ་	-10.6257
ས་ཡང་དག་པ	-10.6258
དེར་ནི་	-10.6258
གོང་མའི་	-10.626
དེ་དག་ཏུ་	-10.6263
དེ་འདྲ་བ་	-10.627
▁གཞུང་འབྲེལ་	-10.6271
གི་གོ་སྒྲིག་འོག་	-10.6275
དང་བྲལ་བའི་	-10.6275
མིའི་ལྷན་སྐྱེས་	-10.6275
འདི་ཡིས་	-10.6275
བྱུང་མེད	-10.628
ཉེས་དམིགས་	-10.628
▁གྲོང་ཁྱེར་	-10.6281
དགེ་མཚན་	-10.6282
བདག་མེད་པའི་	-10.6282
སྙམ་པའི་	-10.6284
བྲེགས་	-10.6286
རོ་མྱང་བ་མེད་པར་	-10.6287
བསྣུན་	-10.6287
བྱིན་རླབས་	-10.629
ནི་འདི་ཡིན་ཏེ་	-10.6293
གཞིར་	-10.6294
མར་མེ་ཞལ་ཕྱེ་	-10.6294
པ་མེད་	-10.6297
ནང་པའི་གཞུང་	-10.6299
ཇི་ལྟ་བུར་	-10.6299
བྱ་དགོས་	-10.63
གཏོང་ཐབས་	-10.6301
དབུལ་	-10.6302
སྒྲིབ་	-10.6308
རྗེས་སུ་བསྟན་པ་	-10.6308
ཁྱེད་རང་	-10.631
སེང་གེའི་ཁྲི་ལ་	-10.6312
དེའི་མིང་	-10.6314
བཙུན་པ་ཤ་རིའི་བུ	-10.6315
ཡུ	-10.6318
ལྟུང་	-10.6319
ཕན་ཚུན་དབར་	-10.632
བྱེད་ཀྱི་ཚལ་དུ་	-10.6323
སྐྱ་	-10.6326
ཟབ་མོ་འདི་ལ་	-10.6326
གཞིས་ཆགས་ཁག་	-10.6327
སྲིད་སྐྱོང་དང་	-10.633
བདུན་ཅུ་	-10.633
བ་ནི་	-10.6331
རིང་པོ་	-10.6331
བགྱི་་	-10.6334
ཤེས་པར་བྱ་བའི་	-10.6336
ཙམ་ནས་	-10.6337
དགོན་པ	-10.6338
རང་བཞིན་ཅན་	-10.6338
བྱིན་ཏེ་	-10.6338
▁དེ་དུས་	-10.6339
འི་སྟོབས་བཅུ་དང་	-10.6339
ཁྲིམས་ཐག་བཅད་	-10.6339
ཕྱིན་ཆད་	-10.634
གཏོར་བཤིག་བཏང་	-10.6341
བདུད་ཀྱི་ལས་	-10.6341
▁སེམས་ཅན་དམྱལ་བ་	-10.6343
▁བོད་མི་རྣམས་	-10.6343
ནི་མ་ཡིན་ནོ་་	-10.6345
ཆོས་ཀྱང་	-10.6345
ཐུང་	-10.6346
ཞིག་ལ་ངོས་འཛིན་	-10.6347
བྱར་	-10.6347
གཏི་མུག་གི་	-10.6347
ཞིག་ཡིན་ཞིང་	-10.6348
འགུལ་	-10.6349
པ་ལྟར	-10.635
གལ་ཆེན་པོ་ཡིན་པ་	-10.6351
སློབ་ཕྲུག་ཚོར་	-10.6354
ཇི་བྱུང་	-10.6355
མངོན་པར་བསྟོད་	-10.6356
ཉིན་ལྟར་	-10.6356
དགོས་པ་དེ་	-10.6358
ཤ་རིའི་བུ་དང་	-10.6358
མཉན་	-10.6361
དང་ལྷག་པར་	-10.6364
དང་བོད་མིའི་	-10.6364
པའི་ཕྱིར་རོ་	-10.6366
སྣེ་	-10.6367
རྣམས་དང་་་	-10.6368
དེ་ཉིན་	-10.6369
ཞིག་ཡིན་	-10.6369
བརྗོད་སྐབས་	-10.6375
དང་བྲལ་	-10.6377
བཅ	-10.6379
སྡིངས་ཆ་	-10.6379
ཁྱེན་པ་སྐྱེས་བུ་	-10.6381
འི་འདུ་ཤེས་	-10.6381
དགོངས་གཞི་	-10.6382
པོ་དང་	-10.6385
དེ་འདི་	-10.6386
དྲི་ཞིམ་	-10.6387
ཁྲིམས་ཞིབ་ཁང་	-10.6389
ཕྱི་དྲོ་ཆུ་ཚོད་	-10.6389
བྱེད་ཐབས་	-10.6391
རྒྱགས་	-10.6391
བསྟན་ལ་	-10.6392
བྱས་ནས་་	-10.6394
མཁན་པོ་དང་	-10.6394
་རི་	-10.6394
དུ་ར	-10.6394
ཟེར་ན་	-10.6395
བརྟགས་	-10.6395
བསྟན་པར་བྱའོ་་	-10.6396
མངོན་པར་ཤེས་པའི་	-10.6397
གཞས་སྣ་འཁྲབ་སྟོན	-10.6397
ཐོག་མའི་	-10.6398
མཐུན་ཚོགས་	-10.64
འི་བར་གྱི་	-10.64
▁དེས་ཀྱང་	-10.6403
▁བླ	-10.6403
སློབ་སྤྱི་	-10.6403
ཀྱི་དེ་བཞིན་ཉིད་	-10.6405
ཤིང་དྲུང་	-10.6405
ཀྱི་རྐྱེན་པས་	-10.6406
རབ་ཏུ་དགའ་བ	-10.6406
གནང་གལ	-10.6406
མང་ཤོས་	-10.641
སྐོ	-10.641
མེད་སྟབས	-10.6412
པར་བཞེད་ན་ནི་	-10.6412
སྲ	-10.6413
དགོས་རྒྱུ	-10.6413
▁ངས་ནི་	-10.6414
སྐུ་ངལ་	-10.6414
མི་ཆོག་པའི་	-10.6415
བགྱིས་ཏེ་	-10.6416
བཞིན་པ་དེར་	-10.6417
ཆོས་ལུགས་ནང་ཁུལ་	-10.6418
རྩིས་མེད་	-10.6418
▁ཚེས་	-10.642
མཐོ་སློབ་ཏུ་	-10.642
ནྟ	-10.6421
▁བོད་དང་	-10.6424
▁ལྷ་ཡི་	-10.6424
བྱང་ཨ་རི་	-10.6431
དང་རྒྱལ་སྤྱིའི་	-10.6432
སྨྲས་ཏེ་	-10.6432
ཡག་པོ་ཞིག་	-10.6433
རྡོ་རྗེ་ལགས	-10.6434
ལས་བྱེད་དང་	-10.6435
ནས་ལོ་ངོ་བའི་	-10.6436
མི་འགྲོ་	-10.6437
མངོན་ཤེས་	-10.644
ཤེས་ཡོན་ཐོག་	-10.6442
སྒོམ་པ་	-10.6445
▁ཅིའི་ཕྱིར་	-10.6445
དགུང་	-10.6446
ཆེད	-10.6446
▁ཀུན་འབྱུང་བ་དང་	-10.6447
མངོན་པར་འབྱུང་བ	-10.6455
འབྲེལ་བ་ཡོད་པ་	-10.6457
རིག་གཞུང་གི་	-10.6458
བརྒྱ་སྟོང་མང་པོ་	-10.6458
གཅིག་ཙམ་	-10.646
རྒྱལ་ཁ་ཐོབ་	-10.6461
རྗེས་སུ་འབྲང་བ	-10.6462
ལེགས་གྲུབ་བྱུང་	-10.6464
ཁྱོན་བསྡོམས་	-10.6464
སྲིན་མོ་	-10.6465
མ་ལུས་པར་	-10.6467
ལ་ཐུགས་བརྩེ་བ	-10.6468
བྷེ	-10.6468
གྱིས་ལ་	-10.6471
བསྐལ་པར་ལན་གསུང་	-10.6474
བཤད་དོ་་	-10.6477
ལུས་མེར་བསྲེགས་	-10.6478
འཇིག་རྟེན་མ	-10.6478
སྡེ་དཔོན་	-10.6479
ཕེབས་འདུག	-10.648
སྒང་ལ་	-10.6481
ར་གྱུར་ལ་	-10.6482
▁ལྷའི་བུ་དག་	-10.6487
སྐོར་གོ་རྟོགས་	-10.6487
ལུས་ཀྱིས་	-10.6491
ཨ་རིའི་ནང་	-10.6493
བརྩེ་བ	-10.6493
ཕྱིན་ཏེ་	-10.6494
འདས་ནས་	-10.6495
ཕྱོགས་བཅུར་	-10.6495
རྡོ་རྗེས་བཅོམ་ནས	-10.6496
ཚོགས་ཆེན་ཐོག་	-10.6496
དེ་ལྟ་དེ་ལྟར་	-10.6497
རླངས་འཁོར་	-10.6497
སྡུག་སྦྱོང་	-10.6498
འཛམ་གླིང་ཁྱོན་དུ	-10.6498
ཀྱང་མི་	-10.6499
སྔ་རྗེས་	-10.6499
གནང་རྒྱུ	-10.6501
རྗེ	-10.6501
ཀུན་སློང་	-10.6502
རྩ་བའི་	-10.6506
གཤམ་གསལ	-10.6507
དབུགས་འབྱིན་	-10.651
ལྟ་བར་	-10.6513
གཞིར་བཞག་	-10.6514
བཙོན་འཇུག་བྱས་	-10.6516
མེད་པའི་བར་དག་	-10.6516
མི་རྣམས་ལ་	-10.6517
ཊར་	-10.6518
སྣང་ངོ་་་	-10.652
སློབ་འཁྲིད་	-10.6521
ཉར་	-10.6521
▁རྒྱ	-10.6523
ཟུང་ཤིག་	-10.6525
▁ཚངས་པའི་	-10.6527
སྲིད་དོན་ཚོགས་མི	-10.653
གས་པ་	-10.6531
ལེགས་པར་བརྒྱན་པ་	-10.6532
ཐམས་ཅད་དུ་ཡང་	-10.6532
བོད་རྒྱལ་ཁབ་	-10.6533
གསལ་བཤད་གནང་	-10.6534
གཤེགས་ཏེ་	-10.6535
སྐྱ	-10.6536
བརྒྱ་དང་	-10.6536
བཅས་ཀྱི་ཐོག་	-10.6538
ལོངས་སྤྱོད་ཆེ་བ་	-10.6539
མྱ་ངན་མེད་	-10.6545
དུས་བཀག་	-10.6546
འོད་དཔག་མེད་	-10.6547
འཆང་བ་	-10.6547
སྣའི་རྣམ་པར་	-10.6549
བདེན་པའི་ཚིག་	-10.6549
སྟོན་ཏོ་	-10.655
རྒྱལ་ས་ལྡི་ལིར་ར	-10.6554
འདིས་ན་བདག་	-10.6555
ཞིང་དགའ་ལ་	-10.6556
སྐྱབས་བཅོལ་བ་	-10.6561
ྟ	-10.6562
གཟབ་རྒྱས་ཞུས་	-10.6563
རྒྱལ་ཁབ་ཁག་གི་	-10.6563
དེ་སྲིད་	-10.6564
འཁྲི	-10.6567
ཕྱག་འཁྱེར་	-10.6567
མཛད་རིམ་	-10.657
གསུམ་གྱི་བར་དུ་	-10.657
ས་གནས་བོད་མི་	-10.657
གནོད་པ	-10.6571
རྣམ་པར་རྟོག་པ	-10.6572
སེར་པོ་	-10.6573
▁དེ་ཡིས་	-10.6573
ི་སི་	-10.6573
▁ཆུ་	-10.6574
དམ་པའི་ཆོས་ཀྱི་	-10.6574
དག་སྣང་	-10.6574
ཏུ་གྱུར་པ་	-10.6575
དགེ་སློང་རྣམས་	-10.6575
ལས་ཁུངས་ཁག་གི་	-10.6576
ཁྲིམས་ཞིབ་པ་གཞན་	-10.6576
▁གཞི་རྩའི་	-10.6577
བདག་དང་	-10.6578
་དེ་བཞིན་	-10.6579
བསམ་གཏན་བཞི་དང་་	-10.658
ལས་གྲུབ་པའི་	-10.6584
ཉམ་ང་བ་ཉུང་ངམ་	-10.6586
ས་སྒོ་ངའི་སྦུབས་	-10.6586
ཆུ་ཚོད	-10.6586
གཉིས་པའི་	-10.6586
ེའུ་	-10.6588
གསར་འགོད་པའི་	-10.659
ས་ཤིང་མུན་པ་བསལ་	-10.6591
ལ་ཕྱག་འཚལ་	-10.6592
འགྲུལ་བཞུད་	-10.6595
ཡིན་ནའང་རེད	-10.6601
ཀྱི་སྒོ་ནས་	-10.6602
་པར་བརྟེན	-10.6602
རང་གི་ལུས་	-10.6603
བགྲང་བ	-10.6607
ཧུར་ཐག་	-10.6609
་མེད་་	-10.661
སོ་སོའི་སྐྱེ་བོ	-10.6611
གཅེར་བུ་པ	-10.6611
བྱེད་དོ་	-10.6616
གནས་པ་དང་་	-10.6619
འཁོར་བཞི་པོ་	-10.6619
སེམས་ཅན་དེ་དག་ལ་	-10.662
ལྡ	-10.662
ལས་ཁུངས	-10.6623
བཀའ་དྲིན་ཆེ་	-10.6624
དབུ་འཛུགས་ཀྱིས་	-10.6625
ཕལ་ཆེ་བ་	-10.6626
རྣམས་ཀྱི་དོན་བྱ	-10.6627
▁དེའི་བཙས་སྟོན་	-10.6627
ཅརྱ་ཡེ་ཤེས	-10.6629
རང་དབང་གི་	-10.6629
་ཟབ་མོ་འདི་	-10.663
སྟོང་པ་ཉིད་ཀྱང་	-10.6634
▁དེ་ནས་དྲང་སྲོང་	-10.6636
བརྒྱ་བྱིན་དང་་	-10.6637
གནས་ན་	-10.6638
བཙན་འཛུལ་	-10.6638
སྡུད་	-10.664
ས་པ་དེ་དང་དེར་	-10.6641
ཚོགས་གཙོ་དང་	-10.6641
ར་མི་འགྱུར་རོ་	-10.6641
སྲིད་བྱུས་ཀྱི་	-10.6641
གཟི་	-10.6644
རྒྱུ་སོགས་	-10.6645
ལོ་སྟོང་ཕྲག་	-10.6647
ཁྱེད་གཉིས་	-10.665
ཐོབ་པས་	-10.665
ལྷག་པའི་	-10.665
ཅི་ལྟར་	-10.6653
ལྟ་སྐྱོང་	-10.6654
འགྲེམས་	-10.6657
གཏོང་གི་ཡོད	-10.666
བ་རྣམས་ལ་	-10.6662
འཐུན་	-10.6663
བསྒོ་བ་	-10.6667
ཐེག་	-10.6669
ཚོགས་ཀྱིས་	-10.6672
བསྟན་པ་བཞིན་ནོ་་	-10.6672
སྤྱོད་ཅིང་	-10.6675
བཏོན་པའི་	-10.6676
ཀྱི་བརྙན་འཕྲིན་	-10.6677
མྱ་ངན་ལས་འདའ་བ་	-10.6678
འི་དུས་	-10.6681
བཅུའི་	-10.6683
མཐོང་བས་	-10.6684
འཇིག་རྟེན་ལ་	-10.669
བ་བཅས་	-10.669
ཁོང་ཁྲོ་	-10.6691
ཀོང་	-10.6692
ཉེ་བར་གནས་པ་	-10.6693
སྦེང་ལོར་	-10.6695
དཔེ་མཛོད་ཁང་གི་	-10.6697
ལྡན་ཞིང་	-10.6698
ཡིད་མི་བདེ་བ	-10.6702
འགྲིག་གི་	-10.6703
▁ལྷ་དག་	-10.6703
ཕེབས་འབྱོར་གནང་	-10.6704
མཉན་དུ་ཡོད་པར་	-10.6706
ཤ་ཟ་	-10.6707
གཟེངས་སུ་ཐོན་པ	-10.6708
ཧུར་བརྩོན་	-10.6708
གསོད་ཁྲག་སྦྱོར་	-10.6708
▁དེ་ཡང་ཕྱི་ལོ་	-10.6708
བརྡུངས་	-10.6708
སྔ་དྲོ་ཤམ་ཐབས་	-10.6708
མཇུག་སྡོམ་	-10.6709
ཤི་བའི་འོག་ཏུ་	-10.6709
མུན་	-10.6709
གངས་ཅན་	-10.671
ཁྱིམ་ནས་ཁྱིམ་	-10.6711
འཁྲུག་པ་	-10.6712
འོས་འདེམས་བྱས་པ	-10.6714
བླུགས་	-10.6714
མང་པོ་ཡོད	-10.6715
སྩལ་བའི་	-10.6716
་ཁམས་གསུམ་པའི་	-10.6718
བོད་ཡིག་ནང་	-10.6719
ཕྱོགས་སྒྲིག་	-10.6719
ལོར་	-10.6721
ལས་ཡང་དག་པར་འདའ་	-10.6722
ཀྱི་ཕྱིར་དང་་	-10.6722
གསོ	-10.6723
རྒྱ་མིས་	-10.6723
ཡེ་ཤེས་གཟིགས་པ་	-10.6725
ལྷག་པའི་བསམ་པས་	-10.6726
བྱས་པར་བརྟེན་	-10.6729
ཏིང་འཛིན་མཆོག་	-10.673
ཟས་སྦྱིན་	-10.673
བློ་གྲོས་དང་་	-10.6732
▁ཡིན་ནའང་	-10.6732
▁བཙུན་པ་བདག་	-10.6733
མཚོན་ནའང་	-10.6734
སྤོབས་པ་ཟད་མི་	-10.6737
ལྟ་བ	-10.6739
འགོར་	-10.674
ར་བྱ་་	-10.6742
ཕུན་ཚོགས་ལགས་	-10.6743
ཀྱང་མི་གནས་པར་	-10.6744
རིང་བ་	-10.6744
་རྣམས་ཡིན་ནོ་	-10.6746
ཆུང་མ་ལ་བུ་ཆགས་	-10.6746
དུས་དྲན་ཐེངས་	-10.6746
རིམས་ཀྱི་	-10.6746
སྟོབས་ལྡན་	-10.6747
མེད་སྟབས་	-10.6749
འཚམས་འདྲི་ཞུས་	-10.6754
ཡུན་	-10.6755
སྤོ	-10.6758
སྐྱེ་གནས་	-10.6759
ཡང་རུང་སྟེ་	-10.676
ཁང་ནས་	-10.6762
དགོས་པའི་སྐོར་	-10.6763
འཕྲོས་	-10.6764
ཁག་པོ་རེད	-10.6764
གི་མཐར་ཐུག་པ་	-10.6766
རྒས་གསོ་ཁང་	-10.6772
▁དགེ་བ་	-10.6772
ལྷན་དུ་	-10.6773
ཁྱེའུ་གཟུགས་བཟང་	-10.6774
ལྷོ་སྤྱི་	-10.678
ར་བྱ་བསྙེན་པར་	-10.6781
ཡོད་ལ་	-10.6781
བཞག་པའི་	-10.6787
ཐུབ་མཁན་	-10.6788
མེ་ཏོག་གི་ཆར་	-10.679
བི་	-10.6791
རྒྱགས་པ་	-10.6791
ད་ཐེངས་	-10.6794
དུད་འགྲོ་	-10.6794
སྣེ་ཁྲིད་	-10.6796
སྲོ	-10.6797
ཆབ་སྲིད་དང་	-10.6798
དང་་སྐྱེ་བ་	-10.6801
ཚང་བ་	-10.6802
རོགས་ཞེས་	-10.6802
ཆོས་བཞིན་དུ་	-10.6803
སྲུང་བ་	-10.6803
ལ་གདོང་ལེན་	-10.6803
▁འབྲེལ་ཡོད་	-10.6804
་མེད་པར་གྲགས་པ་	-10.6808
དབང་བསྒྱུར་	-10.6808
སྨོན་པ་མེད་	-10.6808
བོད་ནང་གི་འགྲོ་བ	-10.6814
བར་བྱེད་་	-10.6815
རྨ	-10.6816
གདུགས་དང་	-10.6816
བཞིན་ཡོད་སྟབས་	-10.6818
འོད་སྲུང་དང་	-10.682
བོར་ནས་	-10.6821
གླང་པོ་ཆེའི་	-10.6821
ཡུད་ཙམ་	-10.6823
་སྟེ་་	-10.6826
བྱམས་པ་དང་	-10.6826
ཆེན་པོ་མཆོག་ནས་	-10.6827
སྐབས་རེ་	-10.6828
ཤི་བ་	-10.6828
འཇོམས་པ་	-10.6828
སྦྱིན་པར་བྱེད་པ་	-10.6833
▁རིམ་བཞིན་	-10.6836
ཁག་གཅིག་དང་	-10.6837
རྡོ་རྗེ་ལགས་	-10.6838
གདུག་རྩུབ་ཅན་	-10.6839
ནང་དོན་	-10.684
གནང་བ་ལྟར	-10.6841
▁ཕྱོགས་བཅུའི་	-10.6841
པར་མི་བྱའོ་་	-10.6842
རྗོད་པར་བྱེད་	-10.6842
ནས་ལོ་ངོ་	-10.6843
འདྲ་མིན་གྱི་	-10.6844
▁དེ་ཟླ་བ་དགུའམ་	-10.6845
་ལ་སོགས་པ་	-10.6845
དེར་ཡང་	-10.6846
བཙུགས་པ་	-10.6848
དང་་ཆོས་	-10.6848
ས་ཁུལ་དུ་	-10.685
ནོར་འཁྲུལ་	-10.685
སོག་པོ་	-10.6852
ན་དུ་	-10.6853
དྲི་བ	-10.6856
ཁྱེའུ་འདིའི་མིང་	-10.6856
ཡུ་རོབ་རྒྱལ་ཁབ་	-10.6857
ཡོ་	-10.6859
ཤེས་རིག་བ	-10.6859
འདུད་	-10.6861
པ་གང་ཞེ་ན་	-10.6862
བསུ	-10.6862
ཡོངས་ཀྱིས་	-10.6862
རྣམ་པར་དག་པའི་	-10.6872
ངོས་འཛིན་གནང་	-10.6873
དམའ་	-10.6873
་ཤེས་པ་གང་གིས་	-10.6875
ཐོས་པར་	-10.6877
ཡིན་པས་ན་	-10.688
ཆོས་ཟབ་མོ་	-10.6882
མོན་གྷོ	-10.6883
ཐོན་པ་	-10.6884
ཉེ་བར་ལེན་པ	-10.6884
རྩེ	-10.6887
ཐེམ་སྤང་བཀའ་རྒྱ་	-10.6887
ཕྱག་འཚལ་ལོ་་	-10.6888
གཡོ	-10.689
ཟག་པ་	-10.6891
གསུམ་པའི་	-10.6893
མྱོས་	-10.6896
ངག་གི་	-10.6897
བཀག་སྡོམ་	-10.6899
ལས་འགུལ་བ་	-10.6901
སློབ་གྲྭ	-10.6903
གཞིས་ཆགས	-10.6903
▁རྒྱ་གར་གནའ་རབས་	-10.6904
རྩ་བ་ནས་མེད	-10.6904
འདྲ་བའི་སེམས་	-10.6904
འདུག་གོ་	-10.6906
ཐང་གི་གནས་སྟངས	-10.6906
མི་དགོས་པར་	-10.6914
ལེགས་སྦྱར་སྐད་	-10.6914
རྒྱ་གར་ལ་	-10.6916
འཐབ་རྩོད་ཐོག་	-10.6917
ཞིག་སྟེ་	-10.6918
བཏོན་པ་	-10.692
་ཤུགས་ཆེ་བཏོན་	-10.692
པར་ཤོག་	-10.6921
འཐུས་མི	-10.6921
གྲངས་གཉིས་རིང་	-10.6925
བལ་ཡུལ་ནང་	-10.6925
ི་ལྗོངས་ཡར་རྒྱས་	-10.6925
ཅིང་རྗེད་པ་དང་	-10.6926
ས་ཤིང་	-10.6926
སྦྱིན་གནས་	-10.6926
ལྷག་བསམ་རྣམ་དག་	-10.6927
ལོ་བཅུ་ལོན་པ	-10.6927
མ་ཆགས་	-10.6928
བ་དན་	-10.6929
འཇིགས་པ་མེད་པ	-10.6931
ཉེན་རྟོག་	-10.6933
ཕྱོགས་བཞིར་	-10.6934
དྲི་མ་མེད་	-10.6934
དེར་བརྟེན་ང་ཚོས་	-10.6934
ཆོས་ཚོགས་ཐེངས་	-10.6935
གསོལ་འདེབས་ཞུ	-10.6937
གང་པོ་	-10.6938
འབྱུང་བར་འགྱུར་བ	-10.6938
དེ་གཉིས་ལ་	-10.6938
ལེགས་བཅོས་	-10.6939
ཡོད་པ་དེར་	-10.6939
▁བོད་རིགས་	-10.6941
དམ་པ་དེ་ཉིད་	-10.6942
ཆོག་པ་	-10.6943
ཡོངས་སུ་ཤེས་པ	-10.6948
ཚུར་ཤོག་ཅེས་བྱ་བ	-10.6948
མ་མཆིས་པ་ལགས་	-10.6949
དེས	-10.6951
གཅིག་གྱུར་གྱི་	-10.6951
ཕའི་	-10.6954
སེར་སྐྱ་མང་ཚོགས་	-10.6954
བོད་ཕྱི་ནང་གཉིས་	-10.696
མངོན་པར་ཤེས་པས་	-10.696
བཀོད་ཡོད	-10.696
ལ་ཞུགས་པ་	-10.6961
བསྐྱོན་	-10.6965
སྲིད་པར་	-10.6966
▁ཅི་ནས་ཀྱང་	-10.6969
བཛྲ་	-10.6973
ཕྱོགས་གཞན་ཞིག་	-10.6975
▁འཁོར་	-10.6975
བྱུང་ཚེ་	-10.6975
མི་མངའ་་	-10.6975
ལ་སོགས་པས་	-10.6981
རྡ	-10.6981
ུས་ན་དྲང་སྲོང་	-10.6982
སྣུམ་	-10.6982
རྙིང་པ་	-10.6982
བོད་མི་རྣམས་ཀྱི་	-10.6982
བཟོས་པ་	-10.6985
ཁྲོད་ནས་	-10.6988
▁ཁྱེད་ཚོས་	-10.6989
འདུ་བྱེད་ཐམས་ཅད་	-10.699
རྒྱན་གྱིས་བརྒྱན་	-10.699
དང་བླངས་	-10.6991
ཟིན	-10.6993
ཉིན་རེའི་	-10.6993
མྱ་ངན་འདས་པ་	-10.6994
དགོས་ཀྱི་	-10.6994
དུ་མི་	-10.6996
མཆོག་ནི་	-10.6997
གཉིས་ཀ	-10.6997
▁བརྩོན་འགྲུས་	-10.6999
བཞུགས་གནས་	-10.6999
མཚན་མ་མེད་	-10.7
མ་ཡིན་ནམ་	-10.7
མི་གཟུང་བར་	-10.7
རྩེད་	-10.7
ཐར་བར་	-10.7001
བཀའ་སློབ་སྩལ་བ་	-10.7001
སྟོང་པ་ཉིད་དུ་	-10.7001
ཆོས་ཕྱོགས་	-10.7004
སེལ་བ་	-10.7005
ཀའ་བློན་པདྨ་དབྱང	-10.7007
ཕ་རོལ་ཏུ་	-10.7007
དང་མཉམ་པ་	-10.7009
ལ་ཕྱག་འཚལ་ལོ་	-10.7009
འོག་གི་	-10.7011
སྐུ་མགྲོན་རྣམས་	-10.7011
▁དྲན་པ་	-10.7011
གནང་བ་ལྟར་	-10.7012
མེད་པ་ཡིན་	-10.7012
སྙོམས་པར་འཇུག་པ	-10.7012
དོན་གཉེར་	-10.702
འི་བར་དུ་ཡང་	-10.702
ནོར་བུ་ལགས་ཀྱིས་	-10.7022
ཡིན་སྐོར་དང་	-10.7025
ཕན་ཐོགས་ཧ་ཅང་	-10.7027
གཏོང་རྒྱུ་	-10.7028
་ནམ་མཁའི་སྙིང་པོ	-10.7028
▁སྲིད་པ་	-10.7028
དབུ་བརྙེས་ནས་ལོ་	-10.7033
སོ་སོའི་ནང་	-10.7036
ཅན་་	-10.7036
རྟོགས་ནས་	-10.7036
བརྐྱང་	-10.7037
གཟུགས་ཅན་	-10.7039
ེར་	-10.7044
མ་དང་་	-10.7045
ཁང་གི་ལས་བྱེད་	-10.7047
▁ལྷ་མོ་	-10.7051
མཐིལ་	-10.7051
རང་སྐྱོང་ར	-10.7051
་སིངྒ་	-10.7054
གྲྭ་ཚང་གི་	-10.7055
ནང་མཉམ་ཞུགས་	-10.7055
ཉོ་	-10.7056
ས་པའི་	-10.7059
དོ་བདག་	-10.7061
དྲུག་པོ་	-10.7065
མངོན་པར་དགའ་བ	-10.7068
ཡུ་རོབ་སྤྱི་	-10.7068
▁དེ་བཞིན་དུ་མིག་	-10.7069
སྦུ	-10.707
སོང་བ་ལས་	-10.7071
གཅིག་མཚུངས་རེད	-10.7073
སྦྱིན་པ་དང་་	-10.7074
ཡོངས་སུ་མི་སྐྱོ་	-10.7074
འི་རྒྱལ་ཚབ་	-10.7076
▁དེ་བཞིན་རྒྱ་གར་	-10.7076
བཅས་པའི་	-10.7077
ཚོགས་གཙོ	-10.7077
དྲ་རྒྱ་	-10.7079
གནས་དང་	-10.708
ཨོ་སི་ཊོ་ལི་ཡའི་	-10.7082
▁འཇིག་རྟེན་གྱི་	-10.7083
རང་དབང་འཐབ་རྩོད་	-10.7084
སྤྱོད་་	-10.7084
སྐོར་གླེང་སློང་	-10.7085
ཀྱིས་ཐོག་མར་	-10.7086
་ནི	-10.7088
སྙམ་པ་	-10.709
འབྱུང་ཞིང་	-10.7095
གསོ་རིག་	-10.7097
ལོའི་	-10.7098
གོམས་	-10.7101
བྱེད་ལ་	-10.7103
སྦྱར་བ་	-10.7103
མཐོ་སློབ་ཁང་གི་	-10.7103
གཞུང་མང་གཉིས་	-10.7105
གི་བསྟན་པ་ལ་	-10.7106
མི་འདོད་པ་	-10.7108
རྣམ་པར་གྲོལ་	-10.7109
མཚན་ཉིད་མེད་པའི་	-10.7109
ལྷན་ཅིག་ཏུ་རྩེ་	-10.711
སྔགས་ཀྱི་	-10.7111
མི་གནས་སོ་་	-10.7111
ོད་	-10.7113
ཆེ་་	-10.7115
་ཕུན་ཚོགས་མཆོག་	-10.7116
▁ང་རྒྱལ་	-10.7116
སྤེལ་བཞིན་ཡོད	-10.7117
བདམས་ཐོན་བྱུང་བ	-10.7117
▁མ་འོངས་པའི་	-10.7118
ལོངས་	-10.7123
▁ཀླུ་	-10.7129
མིན་པའི་ཚོགས་པ་	-10.713
སྙམ་དུ་བསམས་ནས་	-10.7131
ཟེར་དུས་	-10.7133
ཐེབས་རྩ་ཁང་	-10.7134
ཨུད་པ་ལ་	-10.7135
གཞས་སྣ་	-10.7136
▁བསྐལ་པ་བྱེ་བ་	-10.7137
མངལ་	-10.7139
ཡོད་སྐོར་གསུངས	-10.7139
འཇིག་རྟེན་མགོན་	-10.7142
བྱ་རྒྱུ་དེ་	-10.7142
གདུག་པ་	-10.7146
བསྐྱོད་པ་ཡང་ངམ་	-10.7148
རབ་རྒྱས་གླིང་	-10.7148
རབ་རིབ་	-10.7148
འདུས་ཏེ་རེག་པའི་	-10.7148
རྐྱང་རྐྱང་	-10.7148
ངག་དབང་ཐོགས་མེད་	-10.7148
ལྟུང་བའི་རྩ་བ་	-10.7148
ཕྱིན་ཅད་	-10.7149
མཆོད་སྡོང་	-10.7149
མ་ནིང་	-10.7149
དགྲ་བཅོམ་	-10.7152
ས་ཤིང་དོན་	-10.7152
ལས་ཁུངས་ཁག་	-10.7153
སུམ་ཅུ་རྩ་བདུན་	-10.7153
དར་འཕེལ་	-10.7153
དང་་ཡིད་མི་བདེ་བ	-10.7154
སློབ་སྟོན་	-10.7154
བསྡད་ཡོད	-10.7157
གཙུག་རྒྱན་	-10.7159
ཞིག་རེད་འདུག	-10.7159
རྒྱ་གར་བྱང་ཤར་	-10.7161
▁དབུས་	-10.7162
མཆོག་བཅས་	-10.7163
འཇམ་ཞིང་	-10.7164
གཏོང་རྒྱུའི་	-10.7166
བཙུན་མ་	-10.7169
མཇལ་ཁ་	-10.7171
ཨ་རིའི་བོད་དོན་	-10.7172
དྲི་མ་དང་བྲལ་བ་	-10.7173
▁ས་གནས་འགོ་འཛིན་	-10.7173
▁སྟོང་པ་ཉིད་	-10.7179
ཡར་རྒྱས་ཀྱི་	-10.7179
བྱ་སྟེ་	-10.718
གཏུམ་	-10.7182
བཙ	-10.7183
▁ཆོས་རྣམས་ཀྱི་	-10.7185
པར་མི་བྱེད་དོ་་	-10.7187
▁སྐད་ཡིག	-10.7188
ཡོང་བ་ཞུ	-10.7188
ད་ལྟར་འབའ་ཞིག་	-10.7189
ཡིན་སྐོར་གསུངས	-10.719
གོ་ལའི་	-10.7191
▁ཁྱིམ་	-10.7195
▁སླར་ཡང་	-10.7196
ཞེས་བྱས་ནས་	-10.7198
ཡུན་རིང་པོར་	-10.72
སེམས་ཅན་དེ་དག་གི	-10.72
གཡས་གཡོན་	-10.72
མི་ཆོག	-10.7204
པས	-10.7205
་ཏི་	-10.7207
བདེ་སྐྱིད་གླིང་	-10.7207
པར་བྱ་སྟེ་	-10.7207
བ་དུརྱ་	-10.7208
གོང་མའི་འཐུས་མི་	-10.7209
མཐའ་གསལ་ཐབས་	-10.7211
ཞུ་རྒྱུ	-10.7211
སྐར་དུས་ཆེན་	-10.7215
གཏོང་བཞིན་ཡོད	-10.7217
ལྷག་པའི་ང་རྒྱལ་	-10.7219
འགྲོ་བ་ལྔ	-10.722
མངའ་བ་	-10.7222
▁གྲོགས་པོ་	-10.7222
གདུལ་བར་བྱ་བ	-10.7223
རྣམ་པར་མི་རྟོག་པ	-10.7224
ཆོས་ཀྱི་སྦྱིན་པ་	-10.7224
ལ་ཕན་ཐོགས་	-10.7225
དོ་དམ་	-10.7226
ཆོས་འཕེལ་	-10.7227
བླ་བྲང་	-10.7232
ཕྱིན་པའི་	-10.7234
བཅས་ཀྱི་སྐོར་	-10.7236
ཚིགས་བཅད་	-10.7237
སྐྱོང་མཆོག་ལ་	-10.724
རྣམ་པར་འཇིག་པ་	-10.7241
ན་དགེ་སློང་	-10.7242
བཅོམ་ལྡན་འདས་འོ	-10.7243
ངོ	-10.7244
དྲན་གསོ་	-10.7246
ཞབས་འདེགས་སྒྲུབ་	-10.7247
ཤེས་རབ་སྙིང་པོ་	-10.7247
གྲངས་ཐོ་	-10.7249
པར་རིག་པར་བྱའོ་་	-10.725
དབང་ཕྱུག་ལགས་	-10.7252
ར་གྱུར་་	-10.7253
ལོ་ལྔ་	-10.7256
དགོས་གལ	-10.7258
སྐལ་བ་	-10.7261
སུ་གྱུར་	-10.7262
བར་མི་འགྱུར་	-10.7264
གཡུལ་	-10.7264
སྟོབས་དང་ལྡན་པ	-10.7264
ལྷག་པ་ཚེ་རིང་	-10.7267
སྐུ་ཉིད་མཆོག་	-10.7268
བི	-10.7268
མཆུ་	-10.7268
ངོ་བོར་	-10.727
ལོག་པ	-10.727
བཞི་པོ་དེ་དག་	-10.7272
ཀུན་ཏུ་ཤེས་	-10.7275
དགོན་པའི་ནང་	-10.7276
དགའ་ཚོར་	-10.7281
ལྡང་བ་	-10.7282
དོན་དུ་གཉེར་བ་	-10.7283
དབང་ཕྱུག་ཆེན་པོ་	-10.7284
ཅོ	-10.7284
རིག་པ་དང་་	-10.7285
བཤོས་གསོལ་	-10.7286
འགོ་ཁྲིད་ཚོས་	-10.7287
བཀའ་བློན་རྣམ་པ	-10.7288
ཅོད་པན་	-10.7292
དང་་རྣམ་པར་	-10.7293
ེས་	-10.7295
དགོས་དོན་	-10.7295
ཚིགས་སུ་བཅད་པ་འད	-10.7295
ི་ཏ་	-10.7296
རྟོགས་པའི་	-10.7296
དགོས་པ་སོགས་	-10.7297
ཨུ་རུ་སུ་	-10.7298
སེམས་པ་བཟང་པོ་	-10.7299
▁བཙན་བྱོལ་	-10.73
བལྟ་བར་	-10.7301
དེ་ལྟ་བུ་དག་	-10.7302
▁འགྲོ་བའི་	-10.7302
བཟོས་ཡོད	-10.7303
▁རབ་འབྱོར་འདི་	-10.7303
སྤྱི་དང་ལྷག་པར་	-10.7305
ཧན་	-10.7305
གདགས་	-10.7306
གང་གིས་ཀྱང་	-10.7306
སྤྱི་མོས་	-10.7308
སློབ་ཕྲུག་དང་	-10.7308
དཔལ་ལྡན་བཀའ་ཤག་	-10.7308
འགོག་པ	-10.7309
་དགེ་ཚུལ་	-10.731
ཞིག་ཡོད་པ་	-10.7314
ཅིག་ཤོས་	-10.7314
ལྷ་མོ་སྒྱུ་འཕྲུ	-10.7316
རྗེས་འབྲང་	-10.7319
ལེགས་པར་གྲུབ་	-10.7321
བཅར་འདྲི་	-10.7321
ཚབས་ཆེན་	-10.7323
དེ་ཉིད་ལ་	-10.7326
གྱུར་ཅིང་	-10.7326
མ་ལགས་་	-10.7327
གང་ལས་	-10.7329
སྐུ་དབང་	-10.733
ཁྱད་ལས་	-10.7331
ལྟར་་	-10.7334
་དེས་ནི་	-10.7335
སླ་བ་	-10.7335
དང་་་དེ་བཞིན་	-10.7336
བྱེ་བ་ཕྲག་བརྒྱ་	-10.7338
▁དེ་རིང་གི་	-10.7341
དམའ་བ	-10.7342
ཐོབ་ཐབས་	-10.7345
གྱུར་པ་དེའི་ཚེ་	-10.7345
ར་བྱ་བའི་དོན་དུ་	-10.7345
ངས་ཀྱང་	-10.7346
ཐོས་མ་ཐག་ཏུ་	-10.7348
རྣམ་པར་འཇིག་པ	-10.7349
མ་ཡིན་ཞིང་་	-10.7349
སྦར་སིལ་	-10.735
ཡང་རུང་་	-10.735
▁དེ་སྐད་ཅེས་	-10.7353
▁ལུས་ཀྱི་	-10.7355
ུས་ན་རྒྱལ་པོ་	-10.7356
པ་དང	-10.7356
དཀའ་ངལ་ཧ་ཅང་	-10.736
ཉི་ཟླ་	-10.7363
བར་མཉམ་པ་	-10.7363
ཡིན་པའི་ངོས་ནས་	-10.7364
རྒྱ་གར་དབུས་སའི་	-10.7368
ཆགས་སྡང་	-10.7368
བདེ་བས་	-10.7369
འདིས་བདག་	-10.7371
ལག་མཐིལ་	-10.7373
་ཞིང་བདག་ཉིད་	-10.7374
འདི་ལྟ་བུ་ཞིག་	-10.7375
གྲུལ་བུམ་	-10.7375
མེད་ཕྱི་རོལ་ན	-10.7375
སྤུངས་	-10.7376
ཚོགས་རྣམས་	-10.7378
བུ་ཕྲུག་	-10.7379
སྣུམ་འཁོར་	-10.7384
མདོ་སྨད་	-10.7388
ཁ་སང་	-10.7389
འཕྲལ་མར་	-10.7389
ཡུལ་གྲུ་ཁག་ཏུ་	-10.739
གདོད་	-10.739
ཐམས་ཅད་ཡང་དག་པར་	-10.7391
མཉམ་རུབ་ཀྱིས་	-10.7392
ཐར་པའི་སྒོ་གསུམ་	-10.7392
ཁྱེར་ནས་	-10.7393
ཕུང་པོ་ཆེན་པོ་	-10.7395
གཞིས་ཆགས་དང་	-10.7397
ཕག	-10.7397
བཀའ་དགོངས་	-10.7397
ར་སྤྲོད་	-10.7398
འོན་ཏེ་	-10.7398
ཀླུ	-10.7399
མདོ་འདི་	-10.74
▁སློབ་དཔོན་	-10.74
ཐམས་ཅད་དང་བྲལ་བ་	-10.7403
གསོལ་ཚིགས་	-10.7405
དབེན་པའི་	-10.7405
བྱེད་བབ་	-10.7406
་ཞེས་བརྗོད་པ་དང་	-10.7407
ཡུ་རོབ་གྲོས་ཚོགས	-10.7407
ཇུ	-10.7407
ས་སུ་	-10.7407
མང་མོས་	-10.741
ཚོགས་འདུར་	-10.741
ཡང་སྤྲུལ་	-10.741
པའི་ཕྱིར་ཏེ་	-10.7411
བཤད	-10.7412
དེའི་ལུས་	-10.7413
ཐོབ་པར་གྱུར་ཏོ་་	-10.7415
སྨྲ་་	-10.7419
འདྲེས་	-10.7422
བཅུ	-10.7425
ལ་གནོད་པ་	-10.7426
མཚུངས་པ་	-10.7427
ས་གནས་གང་དུ་	-10.743
དོན་ཁང་	-10.743
ུན་	-10.7431
ཐོགས་པ་མེད་པའི་	-10.7433
གནས་ཡོད	-10.7435
པ་དེ་དག་ཐམས་ཅད་	-10.7435
ལ་མཁས་པ་དང་་	-10.7435
མགྲོན་ཁང་	-10.7436
་དེ་དག་ཀྱང་	-10.7437
ཚད་མའི་གཞུང་	-10.7437
ཤེས་པའོ་་	-10.7439
འཇིགས་པ་དང་་	-10.744
ངས་པ་ལྟ་བུར་	-10.7441
བྲལ་བ་རྣམས་ཡིན་	-10.7442
འཕྲོད་	-10.7443
གཞུང་མང་	-10.7443
ཐུན་མོང་ནས་	-10.7444
རང་ཁྱིམ་དུ་	-10.7445
འི་སྡུག་བསྔལ་	-10.7446
ཇི་ལྟ་བ་	-10.7448
སྡེ་ཚན་ཁག་གི་	-10.7448
▁ཕྱི་ལོ་རྒྱ་གར་	-10.745
བསྟར་	-10.7451
ལྷན་ཅིག་	-10.7456
བོད་མིས་	-10.7456
་ཊ	-10.7456
▁བདག་ཅག་ནི་	-10.7458
སྐྱེ་མཆེད་དང་་	-10.7459
འཕར་མ་	-10.7462
▁བདག་གིས་ཀྱང་	-10.7464
་ཝན་	-10.7464
ད་སྲུང་ཞེས་བྱ་བ་	-10.7465
ཆར་པ་	-10.7466
སྲིད་བྱུས་དེ་	-10.7467
འི་རང་སྐྱོང་ཡོང་	-10.7467
སྒྲུབ་པའི་	-10.7467
▁ཚངས་པ་	-10.747
▁ཁམས་གསུམ་	-10.747
པེ་ཅིང་དུ་	-10.7471
ཆ་ཤས་	-10.7471
མ་འོངས་པ་དང་་	-10.7474
གླིང་དུ་	-10.7474
བགོ་བཤའ་	-10.7474
གོངས་མཐའ་དག་	-10.7476
གཞིས་ཆགས་ཁག་ཏུ་	-10.7476
བསལ་བ	-10.7477
རྣམ་པ་དྲུག་ཏུ་	-10.7479
ི་དག་བཀའ་སྩལ་ཏོ་	-10.748
ཁྱེད་ཚོས་	-10.748
ལས་ཐར་	-10.7482
རི་ཁྲོད་	-10.7483
ཡོད་པའི་ནང་ནས་	-10.7484
སེམས་ཅན་གྱི་ཁམས་	-10.7487
ཡུན་རིང་པོ་ནས་	-10.749
བསྡུར་	-10.7491
ཕྱི་ལོ	-10.7492
པར་སྤྱོད་པ་	-10.7493
དོགས་པ་	-10.7494
དེད་དཔོན་ཆེན་པོ་	-10.7497
འཇུ	-10.7498
ཟིལ་གྱིས་གནོན་པ	-10.75
▁ཙན་དན་སྦ	-10.7501
ཆགས་པ་རེད	-10.7502
སེར་སྐྱ་	-10.7503
འདྲའོ་་	-10.7505
པགས་པ་	-10.7506
ཨ་མ་	-10.7507
་ལྟར་ན	-10.7508
བ་དེ་ནི་	-10.7508
བརྗོད་ཀྱི་འདུག	-10.7509
འདི་ལྟ་བུར་	-10.7512
བརྟེན་ནས་	-10.7517
གི་བར་དུ་	-10.7518
སློབ་ཕྲུག་རྣམས་ལ	-10.7521
པར་སྐྲུན་	-10.7521
བར་བྱ་བའི་ཕྱིར་	-10.7524
བཀྲམ་	-10.7525
དམ་པ་དེ་ཉིད་ཀྱི་	-10.7526
དེ་བཞིན་གཤེགས་	-10.7536
ཡོངས་སུ་སྔོ་བ	-10.7537
སྤྱི་འཐུས་ཀྱི་	-10.7539
ལ་རྟེན་	-10.754
འཐོབ་བོ་	-10.754
ངོ་ཞེས་	-10.7542
སྒྲ་འབྱིན་	-10.7543
ཕྱི་ལོ་ནས་བཟུང་	-10.7544
ྟོང་ཉིད་ཀྱི་ལྟ་བ	-10.7546
བོད་ལུགས་	-10.7551
སྨོན་འདུན་	-10.7553
ཕྱོགས་ཐད་	-10.7554
རྫིང་བུ་	-10.7555
▁སྣང་བ་བྱ	-10.7556
མི་ཟད་པ་	-10.7557
གཟའ་	-10.7558
བཀའ་སློབ་ཕེབས་	-10.7559
བཙུན་	-10.7559
ཨི་ཊ་ལིའི་	-10.7561
གསུང་གི་ཡོད	-10.7563
ར་གྱུར་པ་དང་་	-10.7566
མཐུས་	-10.7568
འཁུར་	-10.7571
སྤྱོད་དང་	-10.7571
་བྱམས་པས་	-10.7573
ར་མཚོན་ན་	-10.7573
བལྟས་ན་	-10.7575
ཞོར་	-10.7575
འདའ་	-10.7579
དབྱིག་	-10.7579
མཐོ་རིས་དང་ཐར་པ	-10.758
ངལ་	-10.7584
གནས་ཡུལ་	-10.7585
དབྱུང་བ	-10.7586
ཤེས་པ་དེ་	-10.7587
རི་དགས་ཀྱི་	-10.7588
▁མངའ་སྡེའི་	-10.7588
འཚམ་པ	-10.7589
དྲང་བདེན་	-10.7592
བཀའ་སྩལ་པ་དང་་	-10.7593
▁ལ་ལ་ནི་	-10.7594
ལུག	-10.7595
པ་ཉིད་	-10.7596
སེལ་བར་	-10.7598
ཙམ་དུ་ཟད་དོ་	-10.7603
འི་མཚན་	-10.7604
པར་གྱུར་ལ་	-10.7605
བསྟུད་མར་	-10.7607
རིང་པོར་མི་ཐོགས་	-10.7607
མ་ཡིན་པ་བཟློག་ལ་	-10.7607
བརྒྱ་རྩ་བརྒྱད་	-10.7608
་གནས་སྦྱིན་པར་བྱ	-10.7608
བརྒྱུད་གསུམ་ནས་	-10.7608
དཔེར་ན་རྨི་ལམ་ན་	-10.7609
དེ་སྔའི་	-10.7612
བསྡུས་པ་	-10.7616
རྒྱུ་མཚན་དུ་བྱས་	-10.7617
ཟླ་འདིའི་	-10.7617
ལུང་རྟོགས་	-10.7617
མུས་རེད	-10.7618
དུས་ཚིགས་	-10.762
ནོ་བེལ་ཞི་བ	-10.7621
▁རྒྱུ་གང་	-10.7623
ཆེད་ཕེབས་གནང་ཡོད	-10.7624
ཡངས་པའི་	-10.7626
ཡང་ཇི་སྐད་	-10.7627
རྡུལ་བྲལ་	-10.7628
ཀྱིས་དགེ་སློང་	-10.7629
སློང་བ་	-10.763
ཡན་ལག་བརྒྱད་	-10.7631
ལེགས་སོ་ཞེས་	-10.7632
འཐུས་མི་རྣམ་པས་	-10.7635
རྣམ་པར་སྤྲོས་པ	-10.7637
ལངས་ཏེ་	-10.7637
མང་པོའི་ནང་	-10.7639
ཐང་ལ་	-10.7639
་པའི་ཕྱིར་	-10.764
ར་གྱུར་པ་ལ་	-10.7641
ལ་མཁས་	-10.7642
ཡོད་པ་ཞིག་རེད	-10.7642
གྱིས	-10.7643
ཉན་ཐོས་ཀྱི་དགེ་	-10.7644
ཅི་དགོས་	-10.7647
སྨྱོ	-10.7647
སྙམ་མོ་	-10.765
གནང་བར་བརྟེན་	-10.7653
བསྒོ་	-10.7654
འི་ཚུལ་གྱིས་	-10.7655
འབྲས་ལྗོངས་	-10.7656
་རོ་དང་་རེག་	-10.7656
རབ་དང་རིམ་པ་	-10.7659
འཇིག་རྟེན་གསུམ་	-10.766
གང་དག་ཡིན་པ་དེ་ད	-10.7661
ལྷན་ཚོགས་ཤིག་	-10.7662
ལ་གཞོལ་བ	-10.7663
ེའི་	-10.7666
འདུགགཞན་ཡང་	-10.7667
སློབ་མའི་	-10.7667
དེ་དེ་དང་	-10.7668
▁དཔའ་བོ་	-10.7668
འབད་བརྩོན་བྱེད་	-10.7669
ནས་བོད་ཀྱི་	-10.7669
ཕུལ	-10.767
ཤྲི་	-10.7672
་ཆོས་འདི་	-10.7673
་སྙིང་པོ་	-10.7675
ལྷན་ཚོགས་ཐེངས་	-10.7675
བོད་ཡིག་ཚན་པའི་	-10.7676
དངོས་པོ་མེད་	-10.7677
ཉོ	-10.7677
ར་བྱ་བ་དང་་	-10.7678
ཏིང་འཛིན་འདི་ནི་	-10.7679
དེ་ཧ་ཅང་	-10.7679
དེའི་གཟེངས་རྟགས་	-10.7687
མེད་དུ་	-10.7689
སྐྱེ་མཆེད་རྣམས་	-10.7689
དེང་རབས་	-10.7689
མགྲིན་	-10.7691
བདེན་དོན་	-10.7691
རྣམས་ལ་སྨྲས་པ་	-10.7693
བཞུགས་མོལ་	-10.7696
སོང་བ་དང་་	-10.7696
ཆོས་ཀྱི་ཁམས་	-10.7702
སྣང་བ	-10.7704
མཐོ་ཤོས་	-10.7708
ཐུབ་པ་ཡིན་ན	-10.7708
གླེང་སློང་གནང་	-10.7711
འཛམ་གླིང་མི་མང་	-10.7713
དར་རྒྱས་	-10.7717
ཆོས་གང་ལ་ཡང་	-10.7717
རིགས་པ་	-10.7718
རྫོགས་པར་བྱས་ཏེ་	-10.7721
གདན་འདྲེན་ཞུས་	-10.7724
▁སུ་དག་	-10.7724
རྒྱ་ནག་ཏུ་	-10.7725
གྲོས་གཞི་	-10.7728
▁དམ་པ་ཁོང་གིས་	-10.7729
བཀའ་དྲུང་ཡིག་ཚང་	-10.7731
ཀུན་ཆུབ་པར་བྱེད་	-10.7732
གྱུར	-10.7732
བསྙེན་བཀུར་བྱེད་	-10.7733
ཀྱི་བར་	-10.7734
་སི་	-10.7737
མི་བྱ་་	-10.7737
▁ཏིང་ངེ་འཛིན་	-10.7738
བཞི་དང་་	-10.7738
དབང་བསྐུར་བ་	-10.7738
གཅད་	-10.7739
དེ་སྲིད་དུ་	-10.774
ལེན་པ་མེད་པ	-10.774
གདུང་བ་	-10.7741
་འཛུགས་ཕྱི་དྲིལ་	-10.7741
ཟློས་གར་ཚོགས་པས་	-10.7742
ཆགས་པར་	-10.7743
རྒྱུའི་ཞལ་བཞེས་	-10.7743
འཐབ་རྩོད་ཀྱི་	-10.7745
ཙམ་ལས་	-10.7746
མཛད་་	-10.7748
བཀའ་སློབ་སྩལ་ཡོད	-10.775
རྒྱལ་པོ་སྡོང་པོ	-10.7751
དང་ལེན་	-10.7752
ཧི་མ་ཅལ་	-10.7754
བསླབ་གཞི་	-10.7755
དམ	-10.7756
དྲིལ་བུ་	-10.7761
མྱ་ངན་ལས་འདའ་བར་	-10.7762
▁ཚོགས་འདུ་	-10.7762
ཀྱི་མེད	-10.7763
ལྗོངས་ཀྱི་	-10.7765
པའི་གནས་ཚུལ་	-10.7765
ལྷམ་	-10.7768
འི་སྣོད་	-10.7768
ཟིལ་གྱིས་མནན་ནས་	-10.7768
▁ཇི་ཙམ་ན་	-10.7769
ལོ་རྒྱུས་དང་	-10.7771
མཇུག་སྐྱོང་	-10.7772
ནད་ཐམས་ཅད་	-10.7773
ཐོབ་པར་འགྱུར་	-10.7773
དུ་འགྱུར་	-10.7775
ལས་གཞན་	-10.7776
མཁས་དབང་དང་	-10.7777
གནས་ཚད་	-10.7781
ལོ་ན་	-10.7781
ཚོ་ལའང་	-10.7782
འཚེ	-10.7782
དང་བོད་	-10.7782
ཡིད་དུ་འོང་བའི་	-10.7783
ཡིད་སྐྱོའི་	-10.7784
རྣམས་ལ་དགེ་བའི་	-10.7785
ལྟ་བུས་	-10.7786
མཛད་སྒོ་གྲོལ	-10.7787
རྫོང་དཔོན་	-10.7792
དགའ་བར་གྱུར་ནས་	-10.7792
སློབ་སྟོན་པ་	-10.7795
ཐུབ་པའི་རེ་བ་	-10.7796
ཁྲོ་	-10.7796
ཀྱི་ཡོད་སྟབས	-10.7797
▁མདོར་ན་	-10.7797
▁སངས་རྒྱས་དང་	-10.7797
སོགས་ལ་བརྟེན་ནས་	-10.7798
པར་འགྱུར་བ	-10.78
་ལེ	-10.7803
མ་མཆིས་པ་ལགས་སོ་	-10.7805
ཤིག་རེད	-10.7807
འདི་དག་གི་	-10.7809
འཐོབ་པར་འགྱུར་བ་	-10.7809
དང་རྒྱབ་སྐྱོར་	-10.7809
རྒྱལ་ཁ	-10.7811
བཙན་འཛུལ་བྱས་	-10.7813
བརྒྱད་པ་	-10.7814
གསུང་པ་	-10.7814
ཁག་གཅིག་གི་	-10.7814
ལས་དོན་ཚན་པའི་	-10.7815
བསྐྱེད་པའི་ཕྱིར་	-10.7815
ཚིམ་	-10.7817
དགེ་སློང་དེ་	-10.7817
པས་ཀྱང་	-10.7818
དག་དང་་་	-10.7821
▁དེར་བརྟེན་ང་ཚོ་	-10.7823
མི་དབང་	-10.7825
བློ་སྐྱེས་པ་	-10.7825
གཞིའི་	-10.7827
ལྟ་བར་གནས་པ་དེ་	-10.7828
ཉལ་བ་	-10.7831
སྨྲ	-10.7832
རེག་བྱ་	-10.7833
པ་ཞེས་བྱ་བ་	-10.7833
་པུར་	-10.7836
ཐམས་ཅད་ལ་ཡང་	-10.7836
མི་མཁས་	-10.7839
ཚང་འཛོམས་ཀྱིས་	-10.7839
མི་རྟོག་	-10.7839
བྱམས་བརྩེ་ལྡན་པ་	-10.7842
ཁེངས་	-10.7843
▁སྐད་ཡིག་སོགས་	-10.7844
▁ཕུང་པོ་	-10.7845
མཚན་དུས་དྲུག་ཏུ་	-10.7846
གདམས་ངག་	-10.7846
བསྟི་གནས་ཁང་དུ་	-10.7847
ཕ་མ་གཉིས་ཀྱིས་	-10.7848
་འཛུགས་ཀྱི་སྲིད་	-10.785
འདྲ་མཉམ་	-10.7851
ངེས་རེད	-10.7853
བགེགས་	-10.7854
བདུན་པའི་	-10.7855
མགྲོན་འབོད་ལྟར་	-10.7855
འབུ	-10.7856
ཁ་གཏད་	-10.7858
འབུལ་བཞེས་མཛད་	-10.7864
▁བདེ་གཤེགས་	-10.7865
ཧོར་	-10.7865
བཙོན་ཁང་ནང་	-10.7866
ཤེལ་	-10.7867
པ་ཐམས་ཅད་	-10.7867
ཕྱིར་ལྡོག་པ	-10.7868
མྱ་ངན་ལས་འདས་སོ་	-10.7869
མང་གཙོ་ཚོགས་པའི་	-10.7869
སྤེལ་ཡོད	-10.7869
དང་ལྡན་་	-10.7872
བྱེད་སྒོར་	-10.7872
ཀྱི་ལས་འགུལ་	-10.7875
ལ་ཞུས་པ་	-10.7876
དང་ལྡན་པ་ཡིན་ནོ་	-10.7878
སྙམ་དུ་སེམས་	-10.7878
འཇམ་དབྱངས་ཆོས་	-10.788
ཁེབས་	-10.7882
ཐུབ་རྒྱུའི་	-10.7887
ཀྱི་སྐུ་ཚབ་	-10.7891
དཔག་	-10.7892
▁རྒྱལ་	-10.7892
་བི་	-10.7894
▁སྲིད་སྐྱོང་	-10.7894
ཙན་དན་གྱི་	-10.7894
གལ་གནད་སྐོར་	-10.7896
མཇལ་དར་	-10.7898
རྩ་བ་བསྐྱེད་ནས་	-10.7899
▁དེ་ནས་དེ་དག་	-10.79
སྨྲའོ་་	-10.7901
ཀྱང་རུང་་	-10.7901
པོ་དག་	-10.7904
ཐག་ཆོད་	-10.7905
བར་གྱུར་ཏེ་	-10.7908
རྒྱ་གར་དང་	-10.7909
སྤྱི	-10.7909
▁སུ་ལ་	-10.7911
ཁྲོམ་	-10.7914
རྒྱུ་ཡིན་པའི་	-10.7915
མཛད་ཅིང་	-10.7915
ཡ་མཚན་	-10.7916
འོས་པ་	-10.7918
ྦྱིན་པ་དག་སྦྱིན་	-10.7919
མ་ཐོས་	-10.7919
ལ་བབ་	-10.7919
ཤེས་ཡོན་ཅན་	-10.7919
མཛེས་པར་	-10.792
ཕན་ཚུན་དུ་	-10.7921
དངོས་གཞི་	-10.7921
བདག་མེད་པ་	-10.7923
མཐོ་སློབ་ནས་	-10.7926
་མེད་པ་དང་་	-10.793
བཙུགས་ཏེ་	-10.7931
▁བསྟན་འཛིན་	-10.7933
སྨན་ཞབས་པ	-10.7933
མི་རུང་	-10.7934
ཀྱི་འདུག	-10.7934
བྱང་བར་གྱུར་ཏོ་	-10.7934
་བསམ་པ་	-10.7939
བཅད་ནས་	-10.7942
ཚུལ་གྱིས་	-10.7944
ཤར་ཕྱོགས་ཀྱི་	-10.7946
བདེ་བའི་ཡོ་བྱད་	-10.7948
ཡི་དགས་ཀྱི་	-10.7949
བྱུང་བ	-10.7949
ཐམས་ཅད་བསྡུས་པ	-10.795
ཕྱུང་བ་	-10.7951
བསྐྱེད་པའི་	-10.7952
རྣམ་པར་གནོན་	-10.7955
ཕ་རོལ་ཕྱིན་	-10.7956
བྱང་ཆུབ་ཀྱི་ལམ་	-10.7957
▁རབ་འབྱོར་གལ་ཏེ་	-10.7961
སེམས་ཅན་ཀུན་གྱི་	-10.7962
ས་གནས་ཁག་	-10.7964
གསུངས་འདུག	-10.7966
ཡུལ་གྲུ་	-10.7967
ཡོད་པ་འདི་	-10.7968
ས་བསམས་པ་	-10.7969
བསྐལ་བརྒྱར་བརྟན་	-10.797
མེད་པ་ཉིད་	-10.7971
ི་སྤྱོད་པ་	-10.7971
སྒྲས་	-10.7972
དག་གོ་་	-10.7973
མྱངས་	-10.7973
ཚན་རིག་གི་	-10.7974
▁ཆབ་སྲིད་	-10.7975
སྐྱོང་མཆོག་དང་	-10.7975
དགེ་བའི་ལས་	-10.7975
མི་ཚེའི་ནང་	-10.7976
བྱེད་པ་ནི་	-10.7977
གླེང་སྟེགས་	-10.7978
གོང་ཚེས་ཉིན་	-10.7979
▁འདི་ལོའི་	-10.798
ཊི	-10.7981
ཇི་སྲིད་དུ་	-10.7981
རྒྱ་གར་ནས་	-10.7982
འབར་བ	-10.7982
ཚེ་བརྟན་	-10.7982
རྒྱང་	-10.7982
བདེན་མཐའ་གསལ་	-10.7983
ཚ་བའི་	-10.7984
མ་མཐོང་	-10.7984
▁འོན་ཏེ་	-10.7989
གཟུགས་མེད་པ་	-10.799
བྱེད་ཅེ་ན་	-10.7993
དེ་བས་ཀྱང་	-10.7996
སྐུ་ལས་	-10.8003
བདག་ཉིད་ཆེན་པོ་	-10.8003
ོས་	-10.8007
བདག་པོ་ཚངས་པ་	-10.8011
རང་སྐྱོང་	-10.8011
ཤེས་ཀྱི་ཡོད	-10.8012
སྤྱི་ཚོགས་ལ་	-10.8012
འི་དྲུང་དུ་	-10.8012
གཅིག་རྐང་འཛིན་	-10.8014
དེ་གཉིས་ཀྱི་	-10.8015
ལས་གཞི་ཁག་	-10.8016
སྤྱན་སྔར་	-10.8016
བའི་སྨོན་འདུན་	-10.8016
རྨིས་	-10.8016
དེ་འདྲ་བའི་	-10.8016
སུམ་	-10.8018
▁ཐོས་ནས་ཀྱང་	-10.8018
རྗེ་ཙོང་ཁ་པ་	-10.8018
གནོད་སྦྱིན་གྱི་	-10.8019
▁རྒྱ་ནག་དམར་ཤོག་	-10.802
ཡི་དམ་	-10.8023
གཉིས་པོ་	-10.8024
ཐབས་མེད	-10.8026
་བྷ་	-10.8026
བསྒྱུར་བ་	-10.8026
ཕྱི་ལོ་ཟླ་	-10.8027
རྒྱ་ནག་མི་མང་	-10.8029
གདུལ་	-10.8029
ཤེས་རིག་དྲུང་ཆེ	-10.803
ག་ལ་བ་དེར་དོང་	-10.8031
འདི་ཉིད་ལ་	-10.8032
སྤྱི་ཚོགས་ཞབས་ཞུ	-10.8033
རྒོལ་	-10.8035
ཐུགས་སྨོན་	-10.8035
འབུལ་ལམ་ཞུས་	-10.8036
བཅུད་	-10.8036
ཁམས་རྣམས་	-10.8037
རིན་མེད་	-10.8038
ནད་ཡམས་འདི་	-10.8038
རྡུལ་ཕྲན་མཚོན་ཆ་	-10.804
བ་སྟེ་	-10.8041
རྣམས་ཀྱི་ནི་	-10.8042
དེའི་དྲུང་དུ་	-10.8042
དབར་གྱི་	-10.8045
འེ་	-10.8046
སྲོལ་ཡོད	-10.8048
མིག་དཔེ་	-10.805
ལས་ཀ་བྱེད་	-10.8051
རྒྱལ་པོ་དེའི་	-10.8052
གཟུགས་ལ་	-10.8052
དོན་དམ་པ་	-10.8053
གྲོན་	-10.8053
ཁྲིད་ནས་	-10.8055
འཚེ་མེད་ཞི་བ་དང་	-10.8056
བམ་	-10.8056
དེ་སྐད་ཅེས་	-10.8058
རྣམ་ཐོས་ཀྱི་བུ	-10.8064
ལྷག་མ་	-10.8064
མོས་པ་སྣ་ཚོགས་	-10.8064
ཞུ་དགོས	-10.8066
▁གསོལ་པ་བཙུན་པ་	-10.8067
དོ་སྣང་དང་	-10.8068
་ཡ	-10.8068
ཇི་སྐད་	-10.8069
ལ་རབ་ཏུ་གནས་	-10.807
བཙན་བྱོལ་བ་ཆགས་	-10.8071
ཀྱི་ལས་རིམ་	-10.8071
སྟོན་པར་འགྱུར་	-10.8072
ཐུབ་པ་བྱུང་	-10.8072
བཞིན་པ་ལྟར	-10.8073
དག་ལ་ཡང་	-10.808
ཡི་གེའི་	-10.8082
ཆབ་སྲིད་ཚོགས་པ	-10.8082
ཡིན་པའི་ཆ་ནས་	-10.8084
ལ་བཀོད་	-10.8084
བཀྲེས་	-10.8085
སྐྱེས་པ་དང་་	-10.8086
▁ཁོང་ནི་	-10.8086
མས་མི་མཇེད་འདིར་	-10.8087
གས་ཏེ་	-10.8087
▁སྔ་མོ་	-10.8087
དད་པའི་	-10.8088
མཛད་འཆར་	-10.8089
མ་གྱུར་	-10.8089
དྲ་བ་ཅན་གྱི་འོད་	-10.8089
ནོར་རྒྱས་གླིང་	-10.8089
བརྒྱའི་ཆར་ཡང་	-10.8089
ཏུ་ལན་གསུང་སྟེ་	-10.8089
གོ་ལའི་ཚ་དྲོད་	-10.809
འཚམས་འཕྲིན་	-10.809
ཕེབས་ཐོན་གྱིས་	-10.809
ཚ་བ་དང་	-10.809
མང་ཙམ་	-10.8092
དགེ་བའི་རྩ་བའི་	-10.8093
འཚལ་་	-10.8094
རིགས་པའི་ལམ་ནས་	-10.8094
རྒྱ་མཚོ་ལགས་	-10.8094
གྱུར་ཀྱང་་་	-10.8094
སྤྱི་ཟུར་	-10.8095
ལས་ཁང་	-10.8097
ཡིད་ནི་	-10.8098
སྣང་བས་	-10.8098
▁དེ་ནས་ལྷའི་བུ་	-10.8099
མལ་ཆ་	-10.8099
རིང་ནས་	-10.81
▁མི་མཆོག་	-10.8101
ཐམས་ཅད་ཀྱིས་ཀྱང་	-10.8102
ིག་རྡུལ་མེད་ཅིང་	-10.8104
གཞིས་བྱེས་བོད་མི	-10.8106
བཅོལ་	-10.8106
དབང་ཕྱུག་གིས་	-10.8106
སུ་ཝི་	-10.8108
གོས་ངུར་སྨྲིག་	-10.811
ཞིག་འདུག	-10.8113
དང་ཐུན་མོང་དུ་	-10.8115
ལུས་ཀྱི་ལས་	-10.8115
མེད་པར་འགྱུར་རོ་	-10.8118
སྤྱི་འཐུས་རྣམ་པ་	-10.8118
ས་དེའི་ཕྱིར་	-10.8118
མགོན་པོ་མཆོག་	-10.812
གི་འགན་འཛིན་	-10.8121
བསམ་གཏན་དང་་	-10.8122
▁ཉི་མ་	-10.8122
ཆུ་མཛོད་	-10.8124
ཨོ་སི་ཀྲི་ལི་ཡ	-10.8124
རྒྱལ་པོའི་ཁབ་ན་	-10.8126
ཕྲ་བ	-10.8127
ཆོས་འཁོར་	-10.8127
མཉན་པའི་ཕྱིར་	-10.8131
ལ་དམིགས་པ་	-10.8132
བཞི་དང་	-10.8133
སྙེད་	-10.8134
གཞག་པར་བྱ་	-10.8135
རིས་མེད་ཀྱི་	-10.8135
ཟིལ་	-10.8136
སྨྲ་བའི་	-10.8136
འཐོབ་སྟེ་	-10.8136
ཡོད་པར་བརྟེན	-10.8138
ཁྱོན་ནས་	-10.8138
ཁྱིམ་བདག་དེའི་	-10.8138
བྱུས་	-10.8139
གསན་གཟིགས་གནང་	-10.814
དམ་པ་ཁོང་གིས་	-10.8144
དེར	-10.8144
▁རི་	-10.8145
གནང་གི་ཡོད་པ་	-10.8147
པི	-10.8148
ཡོན་གནས་	-10.8148
་དྲི་ཟར་བཅས་	-10.8149
སློབ་སྤྱི་དང་	-10.8149
བཟོ་བཞིན་ཡོད	-10.815
ནི་ཆོས་ཐམས་ཅད་	-10.8151
མཁོ་	-10.8152
བདེན་པ་དང་	-10.8153
▁སྔོན་	-10.8155
གཅིག་གིས་གཅིག་	-10.8158
འཇིག་རྟེན་གྱིས་	-10.816
▁ཧི་མ་ཅལ་མངའ་སྡེ	-10.8161
ལྔ་པོ་	-10.8162
དྲུག་པ་	-10.8164
ལྷན་རྒྱས་	-10.8164
སརྦ་	-10.8168
རབ་ཏུ་མཁྱེན་ཏེ	-10.8168
གི་ཐོག་ནས་	-10.8176
རྣམས་ཀྱི་མཆོག་	-10.8177
བྱེ་བ་སྟོང་ཕྲག་	-10.8177
གྲོངས་	-10.8178
བརྒྱབ་པ་	-10.818
མེད་མཁན་	-10.818
ལ་གཞི་མེད་དོ་	-10.8182
གྲུབ་བསྟུན་	-10.8184
ཅི་ཞིག་བྱ་	-10.8186
མ་མཆིས་ཤིང་	-10.8187
ྒྱལ་རིགས་སྤྱི་བོ	-10.8191
མེད་པའི་ཕྱིར་རོ་	-10.8192
འི་མཚན་ཉིད་	-10.8192
ཐུབ་ཀྱི་རེད	-10.8193
འཁྲབ་	-10.8193
་གྷ	-10.8194
མེད་པ་ལ་	-10.8196
རིག་གཞུང་དེ་དག་	-10.8197
ཁོན་	-10.8197
འོ་་འདི་ནི་	-10.8197
རྗེས་སུ་འབྲང་	-10.8199
བསླབས་ཏེ་	-10.8199
མེད་པ་སྟེ་	-10.82
གསོ་བ་	-10.8201
▁ང་ཚོའི་ངོས་ནས་	-10.8202
ཡོངས་སུ་དག་པ་དང་	-10.8204
བསྐྱེད་དམ་བཅའ་	-10.8208
ཚོགས་གཙོའི་	-10.8209
ཉེས་ཆད་	-10.821
ཟིལ་གྱིས་ནོན་	-10.8211
ཐེངས་གཉིས་པ་	-10.8213
ཆོས་སྨྲ་	-10.8214
ལྷ་མི་	-10.8215
མི་གཙང་བ་	-10.8216
ཆོས་རྒྱལ་ཁྲི་	-10.8216
དུས་སྐབས་སུ་	-10.8217
འི་ཡེ་ཤེས་མཐོང་བ	-10.8218
ཉུང་མི་རིགས་ཀྱི་	-10.822
་ལྗོངས་ཟེར་བའི་	-10.822
འདུ	-10.8222
གན	-10.8223
རུ	-10.8223
སྲོང་བཙན་སྒམ་པོ	-10.8224
ཆེན་པོ་བྱུང་	-10.8225
དུ་བཅུག་ནས་	-10.8227
རྒྱ་མཚོ་ཆེན་པོར་	-10.8228
དབང་ཕྱུག་མཆོག	-10.8231
བློ་ཕམ་	-10.8231
་པྲ་	-10.8232
སྙམ་པ་དང་་	-10.8234
ཐོས་པའི་	-10.8234
དུ་མས་	-10.8235
བརྩེ་	-10.8235
ལམ་གྱིས་	-10.8237
ཟློས་གར་	-10.824
དྲུང་ནས་	-10.824
ཐེག་པ་པའི་གང་ཟག་	-10.8243
འི་ཚིག་གིས་	-10.8245
དགེ་རྒན་གྱི་	-10.8245
ཚིམ་པ	-10.8246
་བར་འདོད་པས་	-10.8246
འོན་	-10.8248
རྣམ་པར་གྲོལ་བ	-10.8256
ར་སི་	-10.8259
གདོན་མི་ཟ་བར་	-10.826
བཀླགས་	-10.8261
་མ་ཟད	-10.8261
སྦེ	-10.8265
་བརྩོན་འགྲུས་	-10.8268
མི་ཉམས་གོང་འཕེལ་	-10.8269
ལོ་ངོ་བཅུ་ཕྲག་	-10.827
བོད་མི་ཡོངས་ནས་	-10.827
ས་གནས་མི་མང་	-10.8271
རྩེ་བ་	-10.8274
ཞུ་འདོད་བྱུང	-10.8276
ཞུ་རྒྱུ་བཅས	-10.8276
འོས་བསྡུ་ལས་ཁང་	-10.8277
བསྐལ་པར་	-10.8278
དགོས་ན་	-10.8278
▁ཞེས་སོགས་	-10.828
དང་་གོས་དང་་	-10.8281
་དཔའ་བོ་	-10.8282
མཆོག་གི་སྐུའི་	-10.8286
འདྲ་ཞིག་ཡིན་རུང་	-10.8287
ཁུག་	-10.8289
བཞིན་པའི་སྐོར་	-10.829
རྐྱང་	-10.829
མྱ་ངན་ལས་འདས་པར་	-10.829
གྱི་མཛད་སྒོ་	-10.829
བཀྲུས་	-10.8291
སྦྱིན་པ་བྱིན་	-10.8292
བྱང་ཆུབ་ནི་	-10.8295
བསླེབས་	-10.8296
བཅས	-10.8296
▁དེའི་ནང་	-10.8297
ནང་གསེས་	-10.8305
བ་ཡིན་ན	-10.8305
ྒྱལ་པོའི་ཕོ་བྲང་	-10.8306
ཡོད་པ་མ་ཡིན་	-10.8306
ཆེན་པོ་དང་ལྡན་པ་	-10.8308
བ་བཅས	-10.8309
འཇིགས་པའི་	-10.8309
ཕྱི་རྒྱལ་དུ་	-10.831
ཕྱི་རོལ་དུ་	-10.831
འི་ཡང་སྲིད་	-10.8311
སྙིང་པོར་	-10.8311
རྣམ་པར་ཐར་པའི་	-10.8312
ཞིག་གི་ནང་	-10.8314
གསར་འགྱུར་ཚན་པ	-10.832
སྡང་	-10.832
▁ཅེས་སོགས་གསུངས	-10.8323
ཆོས་སྟོན་ཏེ་	-10.8325
▁ཁྱེད་ཅག་	-10.8325
དམིགས་བསལ་གྱིས་	-10.8325
གསོ་སྦྱོང་	-10.8326
རྩི་བཞིན་ཡོད	-10.8326
ལེ་ལོ་	-10.8327
བློན་ཆེན་མཆོག་	-10.8327
ླ་སྤྲུལ་ཡང་སྲིད་	-10.8328
ཡིད་དུ་མི་འོང་བ་	-10.8329
ནི་སེམས་ཅན་	-10.833
སྤྱི་ཚོགས་ཁྲོད་	-10.8331
སློབ་གྲྭ་དང་	-10.8332
▁ཡང་དག་	-10.8333
ཁྱམས་	-10.8336
ཤི་འཕོས་ཏེ་	-10.8336
ང་སང་པོའི་དབྱངས་	-10.8339
ཅོན་ཏ་ར	-10.8339
ཡན་ལག་དང་ཉིང་ལག་	-10.8339
བདུད་བརྗེད་ངས་	-10.8339
་གྲུབ་བཅུ་བདུན་	-10.834
བསྲུང་བ་	-10.834
སྤྱད་ནས་འཆི་ཀར་	-10.834
བརྫུན་དུ་སྨྲ་བ	-10.834
▁ཀྱེ་མི་ཁྱོད་	-10.8341
གཅིག་པུའི་	-10.8342
འཁྲུངས་སྐར་གྱི་	-10.8342
ལས་འགན་རང་འཇགས	-10.8342
འཇགས་	-10.8342
ཤོ་ཟུར་	-10.8344
མི་འབྱེད་དོ་་	-10.8344
ཤེས་སོ་	-10.8345
རྣམ་པར་སེལ་བ་	-10.8346
ནི་བྱང་ཆུབ་བོ་་	-10.8346
ཡོང་མི་	-10.8346
ལ་མ་ལྟོས་པར་	-10.8346
▁རིགས་དེ་ནི་	-10.8347
འི་གོ་སྒྲིག་འོག་	-10.8347
རྣམ་གྲངས་འདི་ལ་	-10.8347
བཞིན་ཡོད་པས	-10.8348
ཁ་ན་མ་ཐོ་བ་མེད་པ	-10.8348
ཡིད་དུ་མི་འོང་བ	-10.835
ཞལ་ལག་	-10.8351
བྲ	-10.8352
ཀྱི་ནང་དུ་སྐྱེ་བ	-10.8353
ཡེ་ཤེས་ཀྱིས་	-10.8353
བཤགས་	-10.8354
འཚམས་གཟིགས་སུ་	-10.8356
འི་ཡོན་ཏན་	-10.8358
་རྒྱུན་དུ་ཞུགས་པ	-10.8362
▁ཕན་ཚུན་	-10.8367
རིམ་དུ་གནས་སྤར	-10.8367
དང་ལྡན་པར་འགྱུར་	-10.8369
ནིའུ་ཡོག་	-10.8369
▁རྒྱ་ནག་གིས་	-10.8369
་འཆི་བ་	-10.8371
པར་བགྱིད་	-10.8371
སྟོན་ཏེ་	-10.8372
ཉོན་	-10.8375
ཕེབས་པའི་སྐུའི་	-10.8375
▁ནད་ཡམས་	-10.8376
འདོད་པ་ན་སྤྱོད་པ	-10.8381
ན་ཡང་མི་གནས་སོ་	-10.8382
མཚན་གནས་	-10.8383
ཁྱབ་འཇུག་	-10.8385
བཀག་ཉར་བྱས་	-10.8386
སྟོན་པར་བྱེད་	-10.8389
ལ་ཆོས་ཀྱི་མ	-10.8392
མེ་ཏོག་སྣ་ཚོགས་	-10.8392
ཐོགས་པ་མེད་པ་	-10.8393
ཚོགས་བཅར་བ་རྣམས་	-10.8393
ཡང་དག་པར་བསྟན་	-10.8394
མི་སྐྲག་	-10.8394
འི་དེ་བཞིན་ཉིད་	-10.8394
མ་བྱས་པར་	-10.8395
སྒྲེང་འཛུགས་གནང་	-10.8397
དྲང་པོ་	-10.8398
མཆོད་པའི་	-10.8405
ཉམ་ཆུང་	-10.8406
རྒྱ་ནག་ནས་	-10.8406
དབུལ་བ	-10.8407
བློའི་རྣམ་གཞག་	-10.8419
སྒྱུ་མ་ལྟ་བུ	-10.8419
ི་སྤྱོད་པ་ལ་	-10.842
འཆི་འཕོ་	-10.8422
ཆབ་སྲིད་ཐོག་ནས་	-10.8425
འི་ཆོས་ཉིད་	-10.8425
མ་མཆིས་ཏེ་	-10.8426
ལམ་ལུགས་ལ་	-10.8427
་དེ་དག་གིས་	-10.8427
དང་འབྲེལ་ཡོད་	-10.8427
▁འདི་ག་ཕྱི་དྲིལ་	-10.8428
བཀྲ་ཤིས་ལྷུན་པོ	-10.8428
རི་མོར་	-10.8431
གནང་བཞིན་པ་	-10.8434
གནས་ཚུལ་ཐོན་	-10.8434
བསྡུ་བ	-10.8434
ཞེ་ན་རབ་འབྱོར་	-10.8434
གི་རེད	-10.8435
ཚད་ལྡན་ཞིག་	-10.8435
བདག་ཉིད་ཀྱི་	-10.8436
ལེབ་	-10.8438
རྣམ་པར་བྱང་བ	-10.8438
ཐ་མ	-10.8439
འགྲུབ་པར་འགྱུར་	-10.844
▁མཛད་སྒོའི་ཐོག་	-10.8441
ལ་སྐྱོན་བརྗོད་	-10.8442
བྱེད་སའི་	-10.8444
གཞིར་བཞག་ཐོག་	-10.8445
སྐུ་ཕུང་	-10.8445
་གསལ་རྒྱལ་གྱིས་	-10.8445
▁རིན་པོ་ཆེ་	-10.8446
བོད་རིགས་སྤུན་ཟླ	-10.8449
འོད་གསལ་བ་	-10.8451
་ལགས་ཀྱིས་	-10.8451
བྲམ་ཟེ་དེ་	-10.8451
རྒྱལ་རབས་	-10.8453
ཕྱོགས་གཅིག་	-10.8454
འགྲོ་རྒྱུ་རེད	-10.8456
བཅོ་བརྒྱད་	-10.8457
འགྱུར་བ་གཏོང་	-10.8457
སྟོན་ཅིག་	-10.8457
རུམ་	-10.8457
་སྭ་ཧ་	-10.8458
འཛིན་སྐྱོང་གི་	-10.8459
སེང་	-10.8459
སྤྱི་སྒེར་	-10.846
སྨན་ཁང་དུ་	-10.8463
གང་ཡིན་པའི་	-10.8464
བཀའ་བློན་རྣམ་པ་	-10.8464
ཕྱི་སྟོང་པ་ཉིད་	-10.8465
ཡེ	-10.8465
▁ང་ཡིས་	-10.8465
ལྷན་ཚོགས་ནས་	-10.8466
ཉུང་དུ་འགྲོ་	-10.8467
བཅོམ་ནས་	-10.8471
བྱང་ཆུབ་མཆོག་	-10.8472
ཁྱབ་པར་	-10.848
ནད་པའི་	-10.8481
▁ཞེས་འཁོད་འདུག	-10.8481
དག་གིས་ཀྱང་	-10.8481
ཉེ་འགྲམ་	-10.8481
དཔེར་ན་སྐྱེས་བུ་	-10.8482
པར་འགྱུར་ལ་	-10.8484
ཐེ་ཝན་གྱི་	-10.8485
གསུམ་ལ་	-10.8486
ལུས་ལས་	-10.8486
དྲིལ་	-10.8486
མཆེད་	-10.8487
ག་ནི་འདི་ལྟ་སྟེ་	-10.8489
བ་ལས་	-10.8492
ང་ཚོ་བོད་མི་	-10.8493
བདེ་བར་གཤེགས་པས་	-10.8496
གདའ་	-10.8498
འདྲིས་	-10.8498
▁འཛམ་གླིང་གི་	-10.85
མི་དགེ་བའི་ལས་	-10.8502
བསྒྲུབ་རྒྱུ	-10.8502
ུལ་	-10.8502
རབ་ཏུ་ཐོབ་པ	-10.8503
ཟང་ཟིང་	-10.8504
འདུས་པའི་	-10.8507
དྲན་པ་རྙེད་	-10.8508
བྱས་དང་བྱེད་	-10.851
གོད་ཆག་	-10.851
བཀུར་སྟི་བྱེད་	-10.8513
བསྒྲགས་པ་	-10.8514
▁དེ་ཡང་ཐོག་མར་	-10.8514
འགན་དབང་	-10.8515
ར་འགྱུར་བ	-10.8515
བྱེད་དགོས་ཞེས་	-10.8517
བཤད་རྒྱུ་	-10.8518
▁དགེ་བའི་	-10.852
འབྲུ་མར་	-10.8522
སྐོར་སྤྲོ་འཆམ་པ་	-10.8523
པའོ་་་	-10.8524
བསམ་བློར་	-10.8525
ཡོངས་སུ་སྦྱང་བ་	-10.8527
ཉིན་རྒྱབ་ཆུ་ཚོད་	-10.8527
ས་གནས་འགོ་འཛིན	-10.8528
སུ་ཡོད་པའི་	-10.8529
ལ་ལེགས་སོ་ཞེས་	-10.8532
འཇོ	-10.8532
ར་བགྱི་	-10.8535
མཐོང་མཆན་	-10.8535
ཧི་མ་ལ་ཡ་རི་	-10.8536
རྒྱ་ཆེ་མང་ཚོགས་	-10.8539
སུ་དག་	-10.8541
ཤེས་རྟོགས་བྱུང་	-10.8542
བཞེས་ཏེ་	-10.8546
བྱ་རྒོད་ཀྱི་	-10.8549
སེམས་ཅན་རྣམས་ནི་	-10.8549
ཉེན་རྟོག་པ་	-10.8549
ར་བྱས་སོ་་	-10.8551
སླེབས་པ་རེད	-10.8551
་འཛུགས་ངོས་ནས་	-10.8553
▁འཛིན་སྐྱོང་	-10.8553
▁སུད་སིའི་	-10.8553
▁སྐབས་དེའི་	-10.8553
མོ་ཧ	-10.8555
རྫུ་འཕྲུལ་ཆེ་	-10.8555
དྲང་བ	-10.8556
ཆུ་དང་	-10.8556
ཅི་ཡང་མི་	-10.8558
པད་	-10.8559
ཐོགས་པ་མེད་པར་	-10.8559
སྨན་པས་	-10.856
མི་མཐུན་པ་	-10.8561
ཡིན་པས	-10.8562
ཀྱེ་	-10.8565
འོས་པའི་	-10.8566
་དེ་ཕྱིར་	-10.8567
བདག་གི་བུ་	-10.8569
ཤི་ཡ་	-10.857
ན་ག	-10.8571
ལང་ཚོ་	-10.8574
ལྷན་ཁང་ཁག་གི་	-10.8574
ཕྱིར་ཞིང་	-10.8576
བསམ་བློ་བཏང་	-10.8578
དགེ་སྦྱོང་ངམ་	-10.8578
ཨ་སྒོར་	-10.8581
ཨིན་ཡུལ་གྱི་	-10.8581
རེབ་གོང་	-10.8582
ཀློ	-10.8583
སྐྱི	-10.8584
འདུས་ཏེ་	-10.8585
སྤྲིན་གྱི་	-10.8588
སྙིང་པོ་མེད་པ་	-10.859
▁གཞན་གྱི་	-10.8591
དབུ་འཛུགས་	-10.8591
ལྐོག་	-10.8592
རྣམ་པར་ཐར་པ་བ	-10.8592
ནས་བོད་	-10.8592
པར་བྱེད་པའི་	-10.8593
དགོན་སྡེ་གྲྭ་ཚང་	-10.8593
ཆེད་རྩོམ་	-10.8594
སྣང་་་	-10.8594
་ཡང་མེད་གཉི་ག	-10.8595
རྨ་བྱ་	-10.8595
འཇམ་མགོན་རྒྱལ་བ	-10.8596
ཐུགས་འཚབ་	-10.8596
ལས་གུད་ན་ཡང་	-10.8596
ཀ་སྦུག་	-10.8596
རུ་སོག་	-10.8596
ཚན་པོ་ཆེ་ཆེན་པོ་	-10.8596
གདན་བཤམས་པ་	-10.8596
གཙེ་བ	-10.8597
འབ	-10.8597
སྟོབས་དང་བདེ་བར་	-10.8597
བརྣབ་སེམས་	-10.8597
བྱེད་མཁན་གྱི་	-10.8598
སྤྱད་ནས་	-10.8599
ཟས་དང་སྐོམ་	-10.8599
དུ་མར་	-10.8599
འབངས་	-10.8599
འོད་མའི་ཚལ་བ	-10.8599
གཡེང་	-10.86
ཆོམ་རྐུན་	-10.86
▁དེ་ཉིན་	-10.8602
▁དཀའ་ངལ་	-10.8602
ཡོངས་སུ་ཚོལ་བ	-10.8602
མིང་འདི་ཞེས་བྱ་བ	-10.8602
ཞིབ་ཚགས་པོ	-10.8603
ྐུའི་འཁྲུངས་སྐར་	-10.8605
གདངས་	-10.8605
མུ་སྟེགས་	-10.8609
ལ་ཕྱག་འཚལ་ཞིང་	-10.8609
ལག་ལེན་བསྟར་	-10.8609
དུས་བབ་	-10.8613
འདོད་པ	-10.8613
པ་ཡིན་ནའང་	-10.8616
ཕྱུག་	-10.8616
བསྐོར་བའི་	-10.8616
སྐྱེ་མཆེད་ཀྱི་	-10.8617
དབེན་	-10.8618
སྲི་ཞུ་	-10.8618
འདུགལྷག་པར་	-10.8621
ལྷུང་བཟེད་ཐོགས་	-10.8621
ལས་རོགས་	-10.8621
གནད་དོན་ཐོག་	-10.8623
རྣམས་ལའང་	-10.8624
དཔལ་འབྱོར་དང་	-10.8624
ལྡན་པ་་	-10.8627
ཀྱིས་བརྒྱན་པ་	-10.8629
དང་ལྡན་ཏེ་	-10.8629
བཏང་སྟེ	-10.863
བཀའ་དྲིན་ཆེན་པོ་	-10.8631
ལས་བྱས་པའི་	-10.8632
དམིགས་སུ་མ་མཆིས་	-10.8632
ྨྲ་བརྗོད་རང་དབང་	-10.8632
ཇུས་	-10.8633
ཐེངས་མང་	-10.8634
འཆང་བ་དང་་ཀློག་པ	-10.8634
ར་མཛད་དོ་་	-10.8635
སྐྱབས་སུ་	-10.8636
གྱེན་དུ་	-10.8638
སྟངས་འཛིན་	-10.8638
པའི་སྐོར་	-10.8639
ཤེས་པ་གང་ཞེ་ན་	-10.8639
ངོས་འཛིན་བྱེད་	-10.864
ཡང་རུང་	-10.8641
ལག་པས་	-10.8642
ཕྲུ་གུའི་	-10.8645
ཤག་	-10.8645
སྐབས་ནས་	-10.8647
རྣམ་པར་བྱང་བའི་	-10.8647
ར་འགྲུབ་པ་དེ་	-10.865
ཚིགས་སུ་བཅད་པ	-10.865
▁ཤེས་རིག་	-10.8652
ཁག་པོ་	-10.8653
སྙམ་ནས	-10.8653
▁བཀའ་ཤག་སྐབས་	-10.8654
བལྟམ་	-10.8655
གདན་ཞུ་གནང་	-10.8655
གསོལ་བ་བཏབ་	-10.8656
མྱོང་མེད	-10.8658
▁དགོན་པ་	-10.8659
མ་སྐྱེས་	-10.866
རླུང་གིས་	-10.8661
འི་སྐྱེ་གནས་དང་་	-10.8661
དུ་བཅུག་	-10.8661
སྐད་ཆ་ཤོད་	-10.8661
་ཧུ་ཕཊ་	-10.8661
རྣམ་མང་	-10.8663
ཟག་པ་དང་བཅས་པ	-10.8663
པ་ལྟ་བུ་	-10.8664
རང་གི་ཐོག་ནས་	-10.8668
བལྟ་བ	-10.867
▁གལ་སྲིད་	-10.867
བསྐྱེད་པར་བྱའོ་་	-10.8671
ཡང་གཞན་	-10.8671
རང་ཡུལ་	-10.8672
སྲི་ཞུ་བ་	-10.8672
མཚམས་འཇོག་དགོས་པ	-10.8673
གང་ཤེས་རབ་ཀྱི་	-10.8674
ངན་པའི་	-10.8674
དགའ་བྱེད་	-10.8675
རབ་ཏུ་བྱུང་་་	-10.8676
འི་ར	-10.8679
ལ་མངོན་པར་བརྩོན་	-10.868
དང་་དགེ་བསྙེན་མ་	-10.8681
བཞི་དང་ལྡན་ན་	-10.8681
ཕོགས་	-10.8682
ེ་རུ་	-10.8683
ལེགས་སོ་	-10.8683
མྱ་ངན་བྲལ་	-10.8687
རེད་དམ	-10.8688
བྲི	-10.8688
ཨིན་ཇི	-10.8693
འདོད་ཅིང་	-10.8693
▁འཛམ་གླིང་ནང་	-10.8695
▁རིན་ཆེན་	-10.8695
ཕྱིར་སྤྱན་སྔར་འ	-10.8696
སྭ	-10.8698
སྤོང་བར་བྱེད་	-10.8699
ནི་རབ་	-10.8699
▁གང་ན་	-10.87
ལེ་ལོ་ཅན་	-10.8703
མཛངས་པ་	-10.8704
བལྟའོ་་	-10.8706
བདག་ཉིད་ཀྱང་	-10.8706
བུ་མོའི་	-10.871
འགྲོ་གི་རེད	-10.8712
འི་ཆོས་ཅན་	-10.8715
བཟོ་མཁན་	-10.8715
རྒྱུའི་ཁས་ལེན་	-10.8717
བོད་ཐོག་	-10.8717
ཆོས་རྣམ་པར་དག་པ་	-10.8719
གསལ་བའི་	-10.872
▁དེར་ནི་	-10.8722
གྲོས་ཚོགས་ནས་	-10.8723
བྷུ	-10.8723
ཆེན་པོ་དེ་	-10.8724
▁ཕྱི་ལོ་ཨ་རིའི་	-10.8726
ཚོང་དཔོན་གྱི་བུ་	-10.8727
▁དེ་བས་	-10.8727
ཡོད་པའི་བོད་མི་	-10.8729
བཏང་བ་མ་ཟད	-10.873
དགུ	-10.8733
མནར་མེད་	-10.8735
བསྙད་	-10.8737
པ་མ་གཏོགས་	-10.8737
མགྱོགས་	-10.8739
གྲོལ་བ	-10.8739
ནམ་མཁའི་སྙིང་པོ་	-10.874
དང་་སེམས་ཅན་	-10.8741
བྱས་ནས	-10.8742
ཐེ་བྱུས་བྱེད་	-10.8743
མེད་པར་འགྱུར་	-10.8745
ཕུང་	-10.8745
ཐོན་པའི་	-10.8745
ཞིང་དུ་	-10.8747
བྱམས་པ	-10.8748
བཙན་བྱོལ་བ་རྣམས་	-10.8752
སྐུ་ཚེའི་	-10.8752
སུ་འདྲ་ཞིག་	-10.8753
▁སྨན་	-10.8755
མཚན་མར་	-10.8758
འཁྲུལ་འཁོར་	-10.8759
གསལ་རྒྱལ་	-10.876
བྱ་རྒྱུ་རེད	-10.876
▁ཐུབ་པ་	-10.876
གཟིགས་སྐོར་དུ་	-10.8761
འདི་དག་ཀྱང་	-10.8761
ཐུགས་སུ་ཆུད་	-10.8762
ལ་བསྔགས་བརྗོད་	-10.8763
པར་གྱུར་པ་དང་་	-10.8764
མཆོགགྲོས་ཚོགས་	-10.8766
བཏང་བ་རེད	-10.8767
སྲུང་སྐྱོབ་ཆེད་	-10.8768
ནས་དེས་	-10.8771
དཀྱིལ་	-10.8775
སྐྱོབ་པ	-10.8775
བླ་ཆེན་རྣམ་པ	-10.8778
བག་ཡོད་	-10.8781
དངུལ་གྱི་	-10.8781
▁དམ་པ་དེ་ཉིད་	-10.8781
འདི་ལྟར་བདག་གིས་	-10.8782
བ་དེ་དག་	-10.8783
སླུ་བ	-10.8785
ར་བྱེད་པ་དང་་	-10.8787
ད་ནི་	-10.879
བསྙེན་བཀུར་བྱས་	-10.879
ཕུང་པོ་ལྔ་	-10.8796
ནས་གསུང་པའི་	-10.8797
བསོད་ནམས་གླིང་	-10.8798
པ་ཡིན་ཞེ་ན་	-10.8798
ཟབ་མོའི་	-10.8798
་མེད་	-10.8801
▁ལྟ་བ་	-10.8802
ཕྱི་ལོ་ཉིན་	-10.8805
ཞིང་ཆེན་	-10.8805
བཀའ་དྲུང་	-10.8806
རིང་བསྲེལ་	-10.8806
གནོད་སེམས་མེད་པ	-10.8808
འཇ	-10.8809
སྙི	-10.8811
བེད་སྤྱོད་གཏོང་	-10.8811
མང་དུ་ཐོས་པ་	-10.8812
ཅི་ཡང་མེད་	-10.8812
དགའ་བར་གྱུར་ཏེ་	-10.8814
རྒྱལ་བུ་རྒྱལ་བ	-10.8814
མ་སྐུ་མཆོག་	-10.8816
གྲོལ་བར་	-10.8817
ངོས་འཛིན་ཞུ་	-10.8817
ལེའུ་ཞེས་བྱ་སྟེ་	-10.8818
མཉན་པ	-10.8818
བསྡུས་པའི་	-10.882
བགོས་ནས་	-10.882
འདེགས་འབུལ་ཞུས	-10.8821
རོགས་པ་	-10.8823
ནི་ཆོས་ཉིད་ཀྱིས་	-10.8826
ཧ་ཅང་གསལ་པོ་རེད	-10.8827
བཙན་དབང་	-10.8827
བདག་ཅག་ཀྱང་	-10.8828
དགོས་བྱུང་	-10.8828
ལྷན་སྐྱེས་	-10.8828
འི་རིགས་	-10.8828
འགན་འཛིན་གཞོན་པ་	-10.883
་ན	-10.8831
ཅེས་བཀའ་སློབ་སྩལ	-10.8832
འི་ཆོས་ཀྱི་	-10.8834
ཟོས་ནས་	-10.8835
ལས་གཞི་སྤེལ་	-10.8836
ལས་བྱེད་རྣམ་པ	-10.8837
འཆ	-10.8839
་ཤེས་རབ་	-10.8839
▁བོད་མཐོ་སྒང་གི་	-10.884
མ་བྱས་པ་	-10.884
འད	-10.8841
ཛ་དྲག་ངལ་སེལ་	-10.8842
བསྐྱར་གསོ་ཡོང་	-10.8843
ཁའི་	-10.8844
རྒྱུའི་ཉེན་ཁ་	-10.8844
ཤི་བའི་	-10.8844
ཁལ་མུག་	-10.8844
ཁྱོན་ཡོངས་ལ་	-10.8845
་བཀའ་བརྒྱུད་	-10.8847
ྗོད་དུ་མེད་པའི་	-10.885
འཛུམ་པ་མཛད་	-10.885
ལ་མངོན་པར་བསྟོད་	-10.8854
འདི་གཉིས་ཀྱིས་	-10.8855
དོང་ནས་	-10.8856
འདི་ནས་ཤི་འཕོས་	-10.8857
མེད་པ་ནི་	-10.8857
མི་འམ་ཅིའི་	-10.8857
རྒ་བ་དང་་ན་བ་དང་	-10.8859
མཁའ་ལམ་བརྒྱུད་	-10.8859
རྒྱད་ལ་བསམ་གཏན་པ	-10.8859
ྱ་ཀ་ལན་ད་ཀ་གནས་པ	-10.8859
ཡུལ་མ་ག་དྷའི་	-10.8859
མེད་ནའང་	-10.8859
རྒྱབ་ཀྱིས་ཕྱོགས་	-10.8859
བདུགས་	-10.886
རྩེ་ཕུད་	-10.886
སྒོའི་	-10.886
རྫུ་འཕྲུལ་གྱི	-10.886
ཀྲུང་དབྱང་	-10.886
ཡངས་ཤིང་རྒྱ་ཆེ་བ	-10.886
འཁྲུག་རྩོད་	-10.8861
ཆོད་སེམས་བརྟན་པོ	-10.8862
རྒྱུས་མངའ་	-10.8862
▁དེ་དང་ཆབས་ཅིག་	-10.8864
དྭང་བླངས་	-10.8864
རྒྱུའི་ཐད་	-10.8866
མཆིའོ་་	-10.8867
་དེ་དག་དང་་	-10.887
མི་དེས་	-10.887
ཡོངས་སུ་བཤད་པའི་	-10.8871
དཔང་རྟགས་	-10.8871
ཆོས་མ་ཡིན་པ་	-10.8871
ལ་སློབ་པ་	-10.8871
གིས་སྨྲས་པ་	-10.8872
རིག་པ	-10.8873
ནང་གསལ་	-10.8873
ཚོགས་འདུ་འཚོགས་	-10.8874
ཀྱི་སླད་དུ་	-10.8875
ར་སངས་རྒྱས་ཏེ་	-10.8876
ཇི་སྙེད་པ་	-10.8877
རྣམ་པར་སྤོང་བ	-10.8877
རེ་རེ་ལ་ཡང་	-10.8878
དེའི་སྐོར་	-10.8879
ཚེ་འཕོས་པ་	-10.888
▁འཇམ་དཔལ་འདི་	-10.888
བོད་ས་བཙན་བཟུང་	-10.8881
ཧ་ཅང་ཡག་པོ་བྱུང་	-10.8881
སྲུང་སྐྱོབ་ཀྱི་	-10.8883
འགྱུར	-10.8884
པ་ཡི་	-10.8885
མཛའ་	-10.8886
ལ་དམིགས་ནས་	-10.8887
ཚུལ་བཞིན་ཡིད་ལ་	-10.8887
▁མྱུར་དུ་	-10.889
ཚིག་འདི་སྐད་ཅེས་	-10.8893
ཁྱེད་རྣམས་	-10.8894
ལས་དོན་རྣམས་	-10.8895
གསུང་་་	-10.8896
ཡོང་རྒྱུ་རེད	-10.8897
བརྩི་བཀུར་	-10.8899
འགྱུར་རོ་	-10.89
ལྟ་བུའོ་་	-10.89
ཐེངས་གཉིས་	-10.8902
▁ནད་པ་	-10.8903
ཉན་པ་	-10.8904
འི་དོན་	-10.8904
རྒྱབ་གཉེར་	-10.8905
ཡོངས་རྫོགས་ལ་	-10.8905
དང་་དགེ་སློང་མ་	-10.8906
▁ཁ་དོག་	-10.8906
སྐུ་ཚབ་དོན་ཁང་གི	-10.891
འདྲ་བའི་	-10.891
བཞུགས་ནས་	-10.891
ཟག་	-10.8911
ཞེས་བཀའ་སློབ་སྩལ	-10.8913
ཀླུང་	-10.8914
དུ་བྱུང་ངོ་་་	-10.8914
སྐྱབས་གནས་	-10.8914
སྤྱད་དེ་	-10.8915
གང་དང་ལྡན་པས་	-10.8916
ནང་ལ་	-10.8917
བརྩེགས་	-10.8919
ེ་སི་	-10.8921
རྩེ་ཞིང་དགའ་	-10.8924
▁ཉིན་	-10.8925
ཀླུའི་	-10.8925
མངོན་པར་བསྒྲུབ་པ	-10.8926
ཁང་པའི་	-10.8927
གང་ཡང་རུང་བ་	-10.8927
བསྐོང་	-10.893
ཁོ་མོ	-10.8931
་ཀུན་དགའ་ར་བ་ན་	-10.8934
འཁྲུལ་པ་	-10.8935
ཚོགས་མི་རྣམས་	-10.8936
གི་དགེ་འདུན་ལ་	-10.8937
འཚོང་	-10.8939
་པ་གསལ་པོ་རེད	-10.894
ཐུབ་པ་དེ་	-10.8949
རྒྱལ་པོ་དེས་	-10.8949
དམིགས་པར་	-10.895
ནི་གང་ལགས་	-10.8951
དེའི་ཆུང་མ	-10.8952
དྲང་སྲོང་དེ་	-10.8952
གྱུར་པས་	-10.8953
དེས་དེ་	-10.8956
▁དེ་ཡིན་དུས་	-10.8956
འཇིག་རྟེན་དག་ན་	-10.8956
རྩུབ་	-10.8957
བསྟབས་	-10.8957
ནད་རྟགས་	-10.8958
རང་བཙན་ཐོབ་	-10.8959
མི་མང་རྣམས་ལ་	-10.8959
བར་སྣང་ལ་	-10.8962
ལྔ་དང་	-10.8962
སེམས་ཀྱི་ཞི་བདེ་	-10.8963
གཅིག་གྱུར་རེད	-10.8965
བྷི་	-10.8966
བསམ་གཏན་གླིང་	-10.8966
ཕྱི་རྒྱལ་ཡུལ་གྲུ	-10.8967
ཟག་པ་མེད་པ	-10.8967
སྣང་བར་	-10.8969
བསྟེན་པ་	-10.8969
རྒྱལ་བའི་སྲས་	-10.8971
ཚོགས་ཆུང་ཞིག་	-10.8974
ཟེར་བ་དང་	-10.8974
བཞི་པོ་འདི་དག་	-10.8976
ཨ་རི་གཞུང་གིས་	-10.8977
ནས་རྒྱ་གར་	-10.8978
རྒྱ་བོད་	-10.8979
▁འདོད་པའི་	-10.8982
མིང་འདོགས་པར་	-10.8982
པའི་དབྱིངས་	-10.8983
མཆོངས་	-10.8986
བྱ་དགའ་	-10.8987
སྨོད་	-10.8988
གནོད་སེམས་ཀྱི་	-10.8988
ཤིག་ཅེས་	-10.8988
ར་བྱས་	-10.8989
བཅུ་གཅིག་	-10.8989
རུས་པ་	-10.899
▁ལོ་ངོ་	-10.8991
▁རྣལ་འབྱོར་	-10.8993
བཅས་ཡིན	-10.8995
མེད་པར་གྱུར་ཏེ་	-10.8996
དགོས་པ་ཞིག་རེད	-10.8997
ཚང་མས་མཁྱེན་གསལ་	-10.8998
ཐུར་	-10.9
་བ་དང་་	-10.9001
▁སྐྱེ་བོ་	-10.9002
བགྱིས་ནས་	-10.9004
མཛོད་་	-10.9004
▁སྨན་ཆེན་	-10.9005
འཐུན་པ་	-10.9007
ཕ་མ་དང་	-10.9008
དམ་པ་མཆོག་	-10.9011
པ་རྣམས་ཀྱིས་	-10.9012
ཡལ་	-10.9012
གསུམ་དུ་	-10.9013
▁བཟོད་པ་	-10.9014
པོ་ཞིག་	-10.9014
▁ཟབ་སྦྱོང་	-10.9015
གཉིས་ཀའི་	-10.9015
ཆོས་མཉན་པ	-10.9015
ཐུབ་མིན་	-10.9016
ཚོད་དཔག་	-10.9017
མི་རྒོད་	-10.9017
ཚེ་རིང་ལགས་དང་	-10.9018
ཞུམ་པ་མེད་པའི་	-10.9018
▁ཟླ་	-10.9019
བསྲུང་	-10.902
▁རྒྱ་མཚོ་	-10.902
དང་ཕྲད་	-10.902
མཇལ་ཁ་ཞུས་	-10.9022
ལས་དོན་ཁག་	-10.9022
རློམ་སེམས་སུ་	-10.9026
རྒྱ་ཆེ་སྤེལ་	-10.9027
བྱུང་བར་གྱུར་	-10.9027
ལྷ་མིན་	-10.9029
▁གལ་ཏེ་མི	-10.903
ཞིག་ཡིན་པའི་ཆ་ནས	-10.903
མཆོག་སྤྲུལ་	-10.9032
▁བདེ་སྲུང་	-10.9032
གསར་འགོད་པ་བཅས་	-10.9032
▁རྡོ་རྗེ་	-10.9033
འི་རྣམ་གཞག་	-10.9034
ཁམས་དང་་	-10.9034
ལམ་ལྷོངས་	-10.9035
པོའམ་	-10.9037
དང་བསྟུན་ནས་	-10.9038
ཡང་ཡོད་	-10.9039
སྦྱར་ནས་	-10.9039
▁སྦེལ་ཇམ་	-10.9041
དོ་ཞེས་	-10.9043
བསྟན་དུ་གསོལ་	-10.9044
བསྒྲལ་	-10.9044
དགེ་བཙུན་	-10.9044
འདྲ་པོ་	-10.9047
འཆད་པ་	-10.9048
ཆེན་པོ་དང་	-10.9049
དེ་ལྟ་ལགས་སོ་	-10.905
ཞུ་སྙན་	-10.9055
▁དེ་ཉིད་	-10.9056
འཕགས་པའི་ཡུལ་	-10.9057
བར་འགྱུར་ཏེ་	-10.9059
གྲོང་དུ་	-10.9062
ཝང་	-10.9063
རྣམ་པར་སྤངས་པ	-10.9064
བསྙེན་བཀུར་བྱ་བ	-10.9064
ཏོག་དབྱིབས་ནད་	-10.9064
ཕྱིན་པ་ཡིན་ན་	-10.9064
བར་གྱུར་ནས་	-10.9065
ཀྱང་ཡིན་	-10.9066
རབ་ཏུ་འབྱུང་	-10.9067
མཐོང་གི་འདུག	-10.9072
ཏིང་ངེ་འཛིན་དེ་	-10.9072
ཚོར་བའི་	-10.9074
་ལ་མི་ཤེས་པ་དག་	-10.9074
ར་བསྐོ་གཞག་གནང་	-10.9075
འདི་ལོར་	-10.9077
ཚེ་རིང་མཆོག་	-10.9078
▁པད་མའི་དཔལ་གྱི	-10.9078
མི་བཟད་པ་	-10.9079
དུས་གསུམ་མ	-10.908
སྨན་པ་དང་	-10.9082
ར་རྟེན་གཞི་བྱས་	-10.9084
བསྣམས་	-10.9088
དེ་མཐོང་མ་ཐག་ཏུ་	-10.9089
ཁྲིམས་སྒྲིག་	-10.9092
ཡེ་ཤུ་	-10.9095
འདུག་པའི་	-10.9096
རྒྱལ་ཁབ་འདྲ་མིན་	-10.9096
ཚུལ་ཁྲིམས་འཆལ་པ་	-10.9097
ཡོད་པ་སོགས་	-10.9097
བོད་རྒྱལ་ཁབ་ཆེན་	-10.9099
འཐེན་	-10.9099
ཕྱོགས	-10.91
གྲོང་རྡལ་	-10.9101
བཙན་བྱོལ་བའི་	-10.9102
དུ་ཕེབས་	-10.9102
གནས་ཚུལ་ལ་	-10.9104
ལ་ཆགས་པ	-10.9104
ངོ་མཚར་རྨད་དུ་	-10.9104
རྒྱུའི་ཚབ་ཏུ་	-10.9105
མི་ཞིག་	-10.9105
སྐྱེ་ཞིང་	-10.9105
ལ་མི་ལྟ་བ	-10.9108
སེམས་ཅན་གྱི་དོན་	-10.9109
▁གོང་ས་མཆོག་གིས་	-10.911
ཇོ་བོ་	-10.911
འི་གྲོང་ཁྱེར་	-10.9111
སྡིགས་	-10.9112
དགེ་འདུན་ཆེན་པོ་	-10.9113
བཞག་ཡོད	-10.9114
ནས་གསེར་དང་བོང་	-10.9115
རིགས་དབྱེ་འབྱེད་	-10.9116
བྱེད་རྒྱུ་དེ་	-10.9116
བཀྲོལ་	-10.9116
སེན་མོ་	-10.9116
དྲུང་ཆེ་ཀརྨ་	-10.9118
སྒྱུ་	-10.9118
དངོས་པོ་ཡར་རྒྱས་	-10.9119
ཀྱི་ཚོགས་གཙོ	-10.912
ཤེས་པ་དང་	-10.9121
བྱེད་ཅིང་་	-10.9121
▁མེ་	-10.9121
ཆེད་འབད་བརྩོན་	-10.9122
གཞོན་སྐྱེས་ཚོར་	-10.9123
འི་རང་བཞིན་ཅན་	-10.9125
སོང་བའི་	-10.9125
དང་ལྡན་པ་ནི་	-10.9126
པ་ནས་བཟུང་ད་བར་	-10.9127
ཤེས་བཞིན་དུ་	-10.9128
ཚན་དུས་གསུམ་སྟེ་	-10.9129
ཞྭ་	-10.9129
འགྲིམ་འགྲུལ་	-10.9129
གཙིགས་ཆེར་འཛིན་	-10.9129
ར་སངས་མ་རྒྱས་	-10.9129
བཀའ་མཆིད་	-10.9129
དྲང་སྲོང་ཀ་ནེ་ཡ	-10.9129
ཚེས	-10.9129
བསྡུ་བའི་དངོས་པོ	-10.9129
གོ་ལའི་གནམ་གཤིས་	-10.913
དོན་ཐམས་ཅད་གྲུབ་	-10.9131
ཐོ་གཞུང་	-10.9131
ཁྱེད་རང་ཚོར་	-10.9132
་མོ་	-10.9133
བྱུང་བར་བརྟེན་	-10.9134
ཇི་ལྟ་བུའི་	-10.9134
ནུས་པ་མཉམ་སྤུངས་	-10.9134
མཚོན	-10.9135
བྱད་གཟུགས་	-10.9136
དངོས་འབྲེལ་	-10.9136
རྒྱ་སྐད་	-10.9137
ནི་བདག་གི་	-10.9137
བ་ནས་བསྐལ་པ་བར	-10.9138
གནང་བྱུང་	-10.914
དབུས་གཙང་	-10.9142
འི་བར་དང་་	-10.9142
ཐུགས་འགན་	-10.9143
བྲང་	-10.9143
བསྡུས་ནས་	-10.9144
▁ཁོང་ཚོས་	-10.9144
ཀྱི་ཞིང་འདི་ནས་	-10.9145
མདངས་	-10.9146
ལས་དོན་གནང་ཕྱོགས	-10.9149
པ་དེ་ལྟ་བུ་ནི་	-10.9151
ཚོགས་ཁང་གསར་པའི་	-10.9153
ཀུན་ཆུབ་པ	-10.9153
སྲུང་བརྩིའི་	-10.9153
སྤྱི་ནོར་ས་	-10.9153
▁ལྷའི་བུ་མོ་	-10.9154
བཀག་འགོག་	-10.9155
སྟོང་ཞེས་བྱ་བར་	-10.9157
ཁམས་སུ་	-10.9157
ཨ་མདོ་	-10.9159
དཀའ་སེལ་	-10.9161
ལྟུང་བ	-10.9161
ཞུ་བ་ལུང་བསྟན་པ	-10.9165
ཤིང་རྟའི་	-10.9167
▁བོད་མི་ཚོར་	-10.917
ཆོས་ལུགས་ཚང་མར་	-10.917
▁འདི་ན་	-10.917
ལོ་བཅུ་གཉིས་	-10.9173
▁རང་སངས་རྒྱས་	-10.9175
སྐབས་ཀྱི་	-10.9176
བོད་ནི་	-10.9179
ཟུང་དྲུང་	-10.918
བསྲུང་བ་དང་་	-10.9181
བརྒྱར་	-10.9182
དང་མི་རིགས་	-10.9184
མཉམ་རུབ་	-10.9184
འཚེ་བ་མེད་པའི་	-10.9186
དང་ལྡན་པ་ཞིག་	-10.9187
འི་སེམས་ཅན་	-10.9188
རྩ་ཆེན་པོ་	-10.9189
གང་ཡང་མེད་པར་	-10.919
འགག་པ་	-10.919
ཐིགས་པ་	-10.9191
པར་མི་འགྱུར་བ་	-10.9194
འདི་ཉིད་ཡིན་ཏེ་	-10.9196
བཅུག་པ་	-10.9197
ཤེས་པ་དེ་ཡང་དག་པ	-10.9198
བདུད་ཀྱིས་	-10.9198
སྨྲས་པ་བུ་མོ་	-10.9199
ལངས་ནས་	-10.9199
ཡང་སྲིད་ཐག་གཅོད་	-10.9199
བཏིང་	-10.92
དད་ལྡན་མང་ཚོགས་	-10.92
▁སུད་སི་	-10.9201
པ་དེ་ཉོན་ཅིག	-10.9202
ཞེས་བགྱི་བ	-10.9202
འི་ཁྲོད་	-10.9202
ཞུ་ཡི་ཡོད	-10.9204
ཉིན་མཚན་	-10.9205
བཀོད་པའི་	-10.9207
རྒྱལ་སྤྱིའི་བོད་	-10.9208
་རི་ཡ	-10.9209
་བྱེ་བ་ཁྲག་ཁྲིག་	-10.9209
བོད་མི་གྲངས་	-10.9209
རྐང་པ་ལ་	-10.9209
▁སྤྱན་རས་གཟིགས་	-10.921
་ཐེག་པ་རབ་མཆོག་	-10.921
ཆུའི་ཁམས་དང་	-10.9211
་ཏི	-10.9213
ཁལ་	-10.9214
ཁེལ་	-10.9214
ཤེས་པར་གྱིས་་	-10.9216
ལས་རྣམས་	-10.9216
བཙན་ཁྲིད་བྱས་	-10.9216
འབྱུང་བ་ཆེན་པོ་	-10.9216
པ་མེད་པར་	-10.9217
▁དྲི་བ	-10.9217
▁ལྷ་དང་མི་	-10.9218
མཉམ་འཛོམས་	-10.9219
▁ཀོ་རི་ཡ	-10.9219
སྟོང་སྟེ་	-10.9221
དགེ་སྦྱོང་གི་	-10.9222
དྷ་ར་	-10.9222
འདི་བཤད་པ་ན་	-10.9222
ནི་མི་	-10.9223
མཐུན་འགྱུར་རོགས་	-10.9223
▁ཕྲུ་གུ་	-10.9223
བསྐོར་བར་	-10.9223
གནོད་པ་ཆུང་ངམ་	-10.9224
བལ་ཡུལ་ནང་གི་	-10.9226
སེམས་ཏེ་	-10.9228
དོན་འདི་	-10.923
ཚོར་སྣང་	-10.9231
་ཕུན་ཚོགས་མཆོག	-10.9233
པ་རྣམས་ལགས་	-10.9233
འི་སེམས་ཀྱིས་	-10.9236
གིས་གསུང་དོན	-10.9236
བརྟགས་པ་	-10.9237
དང་་ཆོས་དང་་	-10.9237
བསྒྲུབས་ནས་	-10.9237
མི་བདེ་བ་	-10.9239
་དམ	-10.9239
ཇེ་ཆེར་འགྲོ་	-10.924
དབང་སྒྱུར་བྱས་	-10.924
བཟོ	-10.9241
མེག་	-10.9242
མཐའ་མར་	-10.9243
འི་ཆེད་	-10.9243
མད	-10.9245
ྦ	-10.9247
དུ་གནས་	-10.9248
མ་གྱུར་ཅིག་ཅེས་	-10.9248
བདུད་རྣམས་	-10.9249
གནས་བབ་ཚད་ལྡན་	-10.925
ཕྱིའི་རྒྱལ་ཁབ་	-10.9252
ཆོས་ཀྱི་སྒོ་	-10.9252
དོག་	-10.9253
མཐོང་ངོ་་	-10.9253
མར་མེ་མཛད་	-10.9253
དགོས་པ་ལས་	-10.9254
▁དེ་མཚུངས་	-10.9255
པ་ཉིད་ཀྱི་བར་དུ་	-10.9258
ི་ཀ	-10.9259
གནང་ཡོད་པ་རེད	-10.9259
ལྡན་གྱི་	-10.9259
ཁྲེ	-10.926
ཕན་པའི་	-10.9261
སེམས་དང་སེམས་	-10.9261
གནས་སྟངས་ཆགས་ཡོད	-10.9262
སོར་མོ་	-10.9264
དཀྲུགས་	-10.9264
རྒྱུ་སྐར་	-10.9266
སླད	-10.9267
དུ་འགྲོ་བའི་ལམ་	-10.9269
འི་འདམ་དུ་བྱིང་བ	-10.927
མང་ཚོགས་ཁྲོད་	-10.927
ཁྱེའུ་དེས་	-10.927
གྱི་དཀྱིལ་འཁོར་	-10.9271
ནང་གནས་སྡོད་	-10.9275
སྡིག་པ་ཐམས་ཅད་	-10.9275
གོ་སྒྲིག་འོག	-10.9276
འཕེལ་བར་འགྱུར་	-10.9276
▁དེང་དུས་	-10.9278
འདྲི	-10.9278
བོད་ཀྱི་བདེན་	-10.9279
ཕྱི་ལོ་ནས་	-10.9281
ལུང་འདྲེན་	-10.9282
ཞུས་པ་ལྟར་	-10.9283
ཉི་ཤུ་རྩ་གཅིག་	-10.9286
སྒྲ་སྙན་	-10.9286
གནས་ནང་འཁོད་དོན	-10.9286
མཉམ་ཞུགས་ཀྱིས་	-10.9286
ཐག་རིང་པོ་	-10.9288
རྗེས་འབྲང་པ་	-10.9288
འདི་འདྲའི་	-10.9289
བུ་དེ་	-10.9291
རིམས་ཁྱབ་གདལ་	-10.9292
▁མཁན་པོ་	-10.9293
པའི་འོག་ཏུ་	-10.9294
ཞུ་བར་	-10.9294
ཞུ་བའི་	-10.9297
ཡོ	-10.9299
ཆོས	-10.9299
ཞུ་གལ	-10.93
དང་ལྡན་པར་གྱུར་	-10.93
བོད་ནང་ཕར་	-10.9303
སྦྱིན་པར་བྱའོ་་	-10.9304
ཐ་མར་	-10.9305
དབུ་ཁྲིད་པའི་	-10.9306
མངའ་སྡེའི་གཞུང་	-10.9309
གང་ཡང་མེད་	-10.9309
འབུལ་རྒྱུ་	-10.931
ལྟ་གྲུབ་དང་	-10.931
གཞུང་ལུགས་	-10.931
རྐ	-10.9312
བཙན་བྱོལ་དུ་ཕེབས	-10.9312
ཡོང་མཁན་	-10.9313
རྣམ་པར་གཟིགས་	-10.9314
དེང་སང་	-10.9315
བཀུར་འོས་	-10.9315
ཞེས་སྨྲས་ནས་	-10.9316
ཚབ་ཏུ་	-10.9319
ཆུ་ཚོད་ཙམ་ལ་	-10.9319
དཀར་པོའི་	-10.9319
གཟིགས་འབུལ་	-10.932
དང་་སྟོབས་དང་་	-10.9322
མཆིས་སོ་་	-10.9322
ནིའུ་ཛི་ལེན	-10.9323
གོང་ས་མཆོག་ལ་	-10.9323
ཆེན་པོ་ཡོད	-10.9323
དམ་བཅས་པ་	-10.9324
མི་མང་ཚོས་	-10.9324
བྱས་པ་ཡིན་ན	-10.9329
བརྗོད་དོ་་	-10.933
བྱེད་པར་འགྱུར་་	-10.933
ཀླུ་སྒྲུབ་ཀྱི་	-10.933
ཟིན་པ་དང་	-10.9333
བོད་གངས་ཅན་གྱི་	-10.9334
འགྲོ་བ་དང་་	-10.9336
ཕྱོགས་ཕེབས་	-10.9338
▁ལྡི་ལི་	-10.9338
ཤེས་ལྡན་	-10.9339
བར་གྱུར་་	-10.9341
ལོ་གསུམ་	-10.9342
དཀའ་རྙོག་སེལ་	-10.9342
ནི་ཤིན་ཏུ་	-10.9343
དམག་ཆེན་གཉིས་པ	-10.9344
བཟླས་པ	-10.9347
མཐུན་པ	-10.9347
་མཆོག་ལ་	-10.9348
འཁོད་འདུག	-10.9348
འདོང་བ	-10.9348
ལས་ཐོག་	-10.9349
ཆོས་བརྒྱུད་ཁག་	-10.9349
མཁན་རིན་པོ་ཆེ་	-10.9352
བརྟ	-10.9352
སྤྱི་ཡོངས་	-10.9354
གཉི་ག་	-10.9354
རྒྱ་མཚོ	-10.9355
མཚན་རྟགས་བཀོད་	-10.9356
རབ་ཞི་	-10.9357
ག་གི་	-10.9357
སོགས་སུ་	-10.9358
ལྷོ་ཕྱོགས་སུ་	-10.9358
པ་ཞིག་ཡིན	-10.9359
སྡུག་བསྔལ་བ་དང་་	-10.9361
▁ཞེས་གསུང་	-10.9363
ཤིག་ཡིན	-10.9365
▁རྣམ་པར་ཤེས་པའི་	-10.9365
ཕྲུག་	-10.9366
ན་ཡང་་་	-10.9371
མངོན་པར་འགྲུབ་	-10.9373
ཡོང་རྒྱུའི་	-10.9373
ནས་དར་བའི་	-10.9374
གཅིག་གིས་ནི་	-10.9374
བདེ་བ་འདོད་པ་	-10.9375
ར་སངས་རྒྱས་པའི་	-10.9376
བསླབས་པ་	-10.9376
བཏང་་་	-10.938
ཉེ་བ་	-10.938
ཟ་བ	-10.938
འི་གཞུང་	-10.9381
བརྒལ་	-10.9382
འཆིང་བ་	-10.9382
མོད་	-10.9382
བློས་གཏོང་	-10.9386
སྲིད་བློན་མཆོག་	-10.9386
འཇུག་པའི་	-10.9387
རྗེས་སུ་མ་མཐོང་	-10.939
བཏོན་ནས་	-10.9391
བགྲོ་གླེང་དང་	-10.9392
ར་བྱེད་པའི་	-10.9392
བྱིན་ན་	-10.9394
བསམ་པའི་	-10.9395
དམིགས་ཡུལ་གཙོ་བོ	-10.9396
རེད་མ་གཏོགས་	-10.9396
ཆུ་ཡི་	-10.9396
ཁྱོད་ཀྱང་	-10.9398
བློ་ལྡན་	-10.9401
དབུ་འཛིན་	-10.9401
བསྡམས་པ་	-10.9402
ཁོང་ནི་	-10.9402
སྐྱེ་བ་མེད་པ་དང་	-10.9403
ཀྱིས་བསམས་པ་	-10.9403
སྐྱོ་བ	-10.9404
འདེགས་འབུལ་	-10.9404
འཚོ་རྟེན་	-10.9404
དང་་དགའ་བ་དང་་	-10.9404
ཁྱབ་པ་	-10.9405
ཕེབས་པ་དང་	-10.9405
ཀ་ན་ཊ་ཀ་མངའ་སྡེ	-10.9407
ཕྱི་གསལ་ནང་གསལ་	-10.9407
རྒྱ་ནག་སྐམ་ས་	-10.9407
ཐུན་མོང་མིན་པའི་	-10.9408
ཡིད་ལ་ཟུང་ཤིག་དང	-10.9408
ཚོགས་མགོན་དུ་	-10.9408
བཀའ་བསྡུར་གནང་	-10.9408
ཐོབ་ཐང་རྩོད་ལེན་	-10.9409
▁མཁྱེན་	-10.941
དོང་སྟེ་ལྷགས་ནས་	-10.941
བྱམས་སྙིང་རྗེ་	-10.941
མཆོད་པ་བྱས་	-10.9413
རང་གཅེས་འཛིན་	-10.9413
སྤྲ	-10.9413
རྣམ་པར་དག་པའོ་་	-10.9415
ཤིག་ཆགས་ཡོད	-10.9416
སེམས་ཁྲལ་	-10.9418
གཞན་ནི་བརྫུན་ནོ་	-10.9418
བཙན་དབང་གིས་	-10.9418
ཀིརྟི་	-10.9418
བསམས་བཞིན་དུ་	-10.9418
དབང་པོ་རྣམས་	-10.9418
རྒྱ་ནག་གཞུང་ཚབ་	-10.9421
མཐའ་མྱུར་དུ་གསལ་	-10.9421
གང་ལ་ལ་ཞིག་	-10.9421
གླིང་གི་	-10.9422
ཐོབ་ཐང་དང་	-10.9422
བྲོས་	-10.9422
ལགས་ནས་	-10.9422
ལུས་ཀྱང་	-10.9425
ཚོགས་མིའི་	-10.9426
མཚོན་གྱིས་	-10.9426
ཟུག་རྔུ་	-10.9427
ཆེ་ཞིང་མཐུ་ཆེ་བ	-10.9429
ཚེའི་	-10.943
་པར་བརྟེན་	-10.9431
ར་འགྱུར་གྱི་	-10.9431
སུའང་	-10.9431
ཡིན་འདུགདེ་ཡང་	-10.9431
རང་ནས་	-10.9431
་ཆོས་བཞི་པོ་	-10.9431
མི་མངའ་བ་	-10.9432
ཚོགས་པའི་ཚོགས་མི	-10.9437
འཛིན་རིམ་	-10.9437
སྣང་བ་ཆེན་པོས་	-10.9438
མ་བ	-10.9438
ཐོག་ཏུ་	-10.9439
གཟའ་ཟླ་བའི་ཉིན་	-10.9439
སྔོན་དུ་འགྲོ་བ་	-10.944
སྲིད་བྱུས་དང་	-10.944
ཁ་ལོ་སྒྱུར་བ་	-10.9441
བྱོན་པ་	-10.9441
ཀྱི་བསམ་པ་	-10.9442
གསར་བཟོ་	-10.9442
མི་ནུས་སོ་	-10.9443
ལས་མི་	-10.9443
པར་བྱ་བ་དང་་	-10.9445
བཅར་ནས་	-10.9446
འདྲེན་པས་	-10.9447
བྱས་པ་དེས་	-10.9448
བ་དེས་	-10.945
དང་་སྙིང་རྗེ་	-10.9451
ཕྱག་རོགས་	-10.9453
འཚེ་བ་མེད་པ་	-10.9455
ཕོངས་	-10.9457
བོད་མི་དེ་དག་	-10.9458
འཕེལ་རིམ་	-10.9459
སྲིད་གསུམ་	-10.9459
དོན་ལྟར	-10.946
གང་དུའང་	-10.9465
འདུ་འཛོམས་ཐོག་	-10.9465
▁ཕྱི་ལོ་དཔལ་ལྡན་	-10.9465
བྱང་བ	-10.9467
འཛུལ་ཞུགས་	-10.9468
ཟིང་	-10.9468
འདུ་ཤེས་འཛིན་	-10.947
་དག་གིས་	-10.9471
འཚང་རྒྱ་	-10.9471
བྱེད་བཞིན་པར་	-10.9471
ལྡན་པའི་ཐོག་ནས་	-10.9474
ཚིག་འབྲུ་	-10.9475
བཤད་་	-10.9476
ཞང་	-10.9476
པར་བྱ་གོར་མ་ཆག་	-10.9478
མི་འབྱུང་་	-10.9478
གང་ལགས་པ་དེ་	-10.9479
ཀུན་འབྱུང་	-10.9483
ཟེར་བ་ཞིག་	-10.9483
ཁྱེའུ་དེ་གཉིས་	-10.9484
ཝན་	-10.9486
ཕྱོགས་མཚམས་	-10.9487
མཛད་གཙོ་རྣམ་པ་	-10.9487
ལོ་བརྒྱད་	-10.9489
གཏོགས་པ་	-10.949
སྙན་སེང་ཞུས་	-10.9492
འཐོབ་པ་དང་་	-10.9493
སེམས་ཤིང་	-10.9495
▁འདི་འདྲའི་	-10.9496
འགྱུར་མེད་	-10.9497
པ་ཉིད་ཀྱི་བར་	-10.9499
བོད་དེ་	-10.9499
ཤན་	-10.9499
མེ་ཏོག་རྒྱས་	-10.9499
འགྲོ་ཚུར་འོང་གི་	-10.95
འཕགས་པའི་ཡུལ་དུ་	-10.95
སྐུ་ཞབས་ཁོང་	-10.9501
མི་དགོས་	-10.9501
ཁ་ཤས་ཀྱིས་	-10.9501
ལྟ་བུ་ཆགས་ཡོད	-10.9502
ནྡྲ	-10.9504
ན་འདུག་	-10.9504
བཀའ་ལུང་	-10.9506
ཡོད་སྐབས་	-10.9506
པ་དག་ཡིན་ནོ་་	-10.9507
བྱས་འདུག	-10.9508
རྣམ་པར་ཐར་པ་དང་་	-10.9509
གསོ་སྐྱོང་	-10.9509
▁ཕྱོགས་གཅིག་ནས་	-10.951
ཞི་ཞིང་	-10.9511
སིམ་	-10.9511
འཁོར་ལོའི་	-10.9514
ལྡུམ་ར་	-10.9514
མཆིས་ནས་	-10.9514
རྣམ་པར་རྟོག་	-10.9515
▁ཁང་པ་བརྩེགས་པ་	-10.9516
གོ་སྐབས་འདྲ་མཉམ་	-10.9516
སྟོང་གསུམ་	-10.9517
ཡིན་ནོ་སྙམ་ནས་	-10.9517
ཡུག་	-10.9518
སྲིད་འཛིན་མཆོག་	-10.9519
དམངས་	-10.9519
བོར་བ་	-10.9521
ཆོ་ག	-10.9522
པར་བྱེད་པའོ་་	-10.9523
འགྲོས་	-10.9524
མི་འདྲ་བའི་	-10.9527
ནད་མནར་	-10.9527
སྐྲག་པ	-10.953
ལས་ཀྱིས་	-10.9531
འཛིན་དུ་བཅུག་	-10.9531
མདོར་ན་	-10.9531
གཉིས་ཀར་	-10.9537
ཏིལ་	-10.9538
ཐབས་མཁས་	-10.9538
▁ཅི་ནས་	-10.9539
བྱ་བ	-10.9539
འབྱོར་སྐབས་	-10.9539
འཕྲོད་བསྟེན་གྱི་	-10.9539
རྣམ་གཞག་	-10.9541
བདུག་པ་དང་་སྤོས་	-10.9542
ཚོགས་གཙོས་	-10.9542
ཚོགས་པར་	-10.9543
གནང་བཞིན་པའི་	-10.9543
གཏན་དུ་	-10.9545
སྡེ་ཚན་ཁག་	-10.9545
རྒྱུན་ཆད་	-10.9549
ཁྲིམས་འཆར་གསར་པ་	-10.9549
མཁྲེགས་	-10.955
མགྲིན་ཚབ་པ་	-10.9552
ནང་སྲིད་དྲུང་ཆེ	-10.9553
འཚེ་བ་མེད་པ་དང་	-10.9553
མིག་ནི་	-10.9553
གོ་བསྡུར་གནང་	-10.9553
སྤོང་བ་དང་་	-10.9553
དང་་ཆུ་	-10.9554
མ་ཐུབ་པའི་	-10.9557
བཀོད་ནས་	-10.956
ར་སངས་རྒྱས་པ་	-10.956
འཁོར་བ་འཇིག་	-10.9562
མཐོ	-10.9563
ན་རྒྱལ་པོ་	-10.9565
ཏྲ	-10.9567
མྱངས་དང་མྱོང་	-10.9567
སྙིང་རྗེ	-10.9569
ཚུལ	-10.9571
་དང་་ཀུན་ཆུབ་པར་	-10.9571
འཛམ་གླིང་གང་སར་	-10.9572
ཅེས་པའི་	-10.9573
འི་དོན་དུ་	-10.9575
▁ཀྱེ་མི་	-10.9577
སྲོག་ཆགས་བྱེ་བ་	-10.9578
འདི་ཁོ་ན་	-10.9578
རྗེས་སུ་ཆགས་པ	-10.9579
▁དེའི་སྐབས་	-10.958
ལྷགས་པ་	-10.9582
དཔས་བྱིན་	-10.9582
ཆགས་ཡོད་པ་	-10.9585
བསོད་ནམས་མ་ཡིན་པ	-10.9585
ནི་འཛམ་གླིང་ནང་	-10.9585
ཞུ་དགོས་པའི་	-10.9589
ལ་རྒྱབ་སྐྱོར་དང་	-10.959
ཞོ	-10.9591
ཆུར་	-10.9592
ཁུལ་ནས་	-10.9593
བྱ་བ་ནི་	-10.9594
མི་མང་རྣམས་	-10.9594
ཕྱོགས་བསྐྱོད་	-10.9595
ཁོག་	-10.9595
གླིང་ཆེན་	-10.9597
པ་དང་བཀུར་སྟི་ལ་	-10.9597
དཀ	-10.9598
ཐོན	-10.9601
ཉུང་ངུ་	-10.9602
མཛའ་བཤེས་	-10.9602
སྙིང་སྟོབས་དང་	-10.9603
ལ་བཟོད་པ་ཐོབ་པ	-10.9603
ཨ་རིའི་གཞུང་	-10.9604
འོང་བ	-10.9605
ནས་མི་སྣང་བར་	-10.9606
▁སུད་སི	-10.9606
མ་ཡིན་ལ་	-10.9606
མངའ་ཁོངས་	-10.9607
ནི་འཇིག་རྟེན་	-10.9608
འི་གཏམ་	-10.9608
ཕྱི་དངོས་པོ་	-10.9611
▁ཕ་རན་སི	-10.9612
བོད་དང་བོད་མིའི་	-10.9614
བཤད་ལུང་	-10.9616
ཕྱག་རྟགས་ཕུལ་	-10.9617
སྲུ	-10.9617
བྱང་ཆུབ་ཀྱི་ས	-10.9618
རྣམ་པར་དག་པ་དང་་	-10.9619
རྒྱལ་གཅེས་	-10.9621
སྟོན་ལ་	-10.9622
ལ་དད་པ་	-10.9623
ཆེན་པོ་མཆོག་སྐུ་	-10.9624
མི་ཕོད་	-10.9625
འོས་འདེམས་བྱུང་བ	-10.9625
▁ལྷག་པར་ཕྱི་ལོ་	-10.9626
མེའི་ཕུང་པོ་	-10.9628
སྲིང་	-10.9628
བསམ་གཏན་བཞི་པ	-10.9629
འཆམ་	-10.9639
པར་བགྱི་་	-10.9641
གནང་སྐྱོང་ཡོང་བ	-10.9641
རྒན་ཞུགས་	-10.9641
རྒལ་	-10.9641
གཞན་དང་	-10.9642
▁ལག་པ་	-10.9645
བསམས་ཏེ་	-10.9645
སྔར་བས་	-10.9648
སྟེང་གི་བར་སྣང་ལ	-10.9649
མཐུ་ཆེ་བ་	-10.9651
དངོས་པོའི་	-10.9654
ནམ་མཁའ་ལྡིང་	-10.9655
རྩོམ་པ་དང་་	-10.9655
དོན་གྲུབ་ལགས	-10.9656
བསྟན་པར་བྱ་	-10.9661
རྟེན་གཞི་	-10.9661
འབོད་སྐུལ་ཡང་	-10.9662
མཇལ་དར་སྒྲོན་	-10.9664
དང་བྲལ་བ་དང་་	-10.9666
ར་གྱུར་ཅིག་	-10.9667
རྒྱལ་པོ་སྡོང་པོ་	-10.9669
▁དེའི་ཚེ་ན་	-10.967
ལྔ་གང་ཞེ་ན་	-10.9673
དགོས་འདུན་	-10.9673
གསར་རྒྱག་	-10.9673
དུར་ཁྲོད་	-10.9674
འགྲོ་རྒྱུའི་	-10.9674
ཟད་དོ་་	-10.9675
བསྲུང་བར་	-10.9675
འབབ་པ	-10.9676
གློ་བུར་	-10.9679
འཕྲུལ་དབང་བྱེད་	-10.968
དྲུང་ཆེ་དང་	-10.968
ཅན་དུ་གྱུར་	-10.9681
པའི་སྲིད་བྱུས་	-10.9682
ཟེར	-10.9683
ལྷོད་	-10.9684
འདི་ལ་ནི་	-10.9684
པ་འདི་ནི་	-10.9685
ཧོང་ཀོང་གི་	-10.9685
▁དུས་མ་ཡིན་པར་	-10.9686
མི་མང་པོ་ཞིག་	-10.969
དགའ་བོ་	-10.9691
ཟླ་འོད་གཞོན་ནུ	-10.9692
ར་གནས་པའི་བར་དེ་	-10.9693
ཡི་གེར་བྲིས་	-10.9693
སེལ་ཐབས་	-10.9693
རྙེད་མི་དཀའ་་	-10.9693
གསེར་དང་་དངུལ་	-10.9693
སྦན་ད་ར་	-10.9693
ནང་བོད་མིའི་	-10.9693
ཤས་ཆེར་	-10.9694
གཞིས་སྒར་	-10.9694
གླང་པོའི་	-10.9694
མ་ཞི་བ	-10.9694
སྐུ་གསུང་ཐུགས་	-10.9695
བླ་བྲང་འཕགས་པ་	-10.9695
བར་བྱེད་པ་	-10.9695
ཡུལ་གྲུ་ཁག་	-10.9696
གཟུངས་ཀྱི་སྒོ་	-10.9696
ཐེར་འབུམ་	-10.9697
ཡོད་སྐོར་སོགས་	-10.9697
ཟང་ཟིང་མེད་པའི་	-10.9698
རིང་པོར་	-10.9698
ནད་ཡམས་ཁྱབ་གདལ་	-10.9698
དཀའོ་་	-10.9699
དྲི་ཟའི་རྒྱལ་པོ་	-10.97
པར་མི་བྱ་	-10.9701
ཐུགས་བརྩོན་	-10.9701
▁སྒྲ་	-10.9701
ཀྱིས་མཐོང་ན་དགའ་	-10.9702
འཁོར་ལོ་བསྐོར་བ	-10.9703
བརྒྱད་ཁྲི་	-10.9704
འདུག་སྤྱོད་གསུམ་	-10.9705
སེམས་ཅན་གང་	-10.9707
བསྐྱེད་དོ་	-10.9708
ངག་གིས་	-10.9708
འཛིན་པར་བྱེད་	-10.9709
དང་་ཡུལ་འཁོར་དང་	-10.971
སྣོད་དུ་	-10.971
▁དུད་འགྲོ་	-10.971
འགྲོ་འོང་	-10.971
འགྲོ་ལུགས་	-10.9711
▁ཚེ་དང་ལྡན་པ་དག་	-10.9714
རྒྱལ་ཁབ་གཅིག་	-10.9714
ཆོས་སུ་	-10.9717
འི་འདུ་ཤེས་དང་་	-10.9717
ཁས་བླངས་	-10.9718
གསལ་འདོན་	-10.9718
མི་དང་མི་མ་ཡིན་པ	-10.9719
ལྟ་བར་གནས་པ་ནས་	-10.9721
གནས་སྡོད་བོད་མི་	-10.9722
འདུལ་བར་	-10.9722
འགྲོ་བཞིན་པ་	-10.9723
ལམ	-10.9726
བརྩིས་ནས་	-10.9727
སྲན་	-10.9727
རྣམ་རྒྱལ་གྲྭ་ཚང་	-10.9727
ཨ་མ	-10.9727
མ་ཡིན་ཏེ་་	-10.9728
རྩོམ་པ་པོ་	-10.9728
རྒྱུ་ཡིན་སྟབས	-10.9732
ས་བརྒྱན་པ་	-10.9734
པ་ནས་བཟུང་	-10.9737
རྫོགས་པ་	-10.9737
འགྱུར་ཞིང་་་	-10.9738
ས་ཡང་	-10.9739
་ཞིག་བྱུང་སྟེ་	-10.974
སྣང་བར་གྱུར་	-10.9748
བཅས་ཁྱོན་	-10.9749
སྟེང་ནས་	-10.9749
ལ་ཡང་མི་	-10.9752
གྱུར་ཏེ	-10.9753
ས་གནས་སོ་སོར་	-10.9753
ཐེ་བྱུས་	-10.9755
བརྗོད་ན་	-10.9756
▁དེའི་ཐོག་ནས་	-10.9757
▁དེ་བཞིན་ཕྱི་ལོ་	-10.9759
དགོས་མིན་	-10.9759
ྱོ	-10.9761
རྒྱལ་དར་	-10.9762
གཅིག་པུར་	-10.9762
བཞིན་པ་རེད	-10.9762
ཕོ་ཉ	-10.9765
དོན་ལ་	-10.9768
བཀའ་ཤག་སྐབས་	-10.9769
གནས	-10.9771
གསུམ	-10.9771
ང་རང་ཚོ་	-10.9771
ངོར་	-10.9773
ཆོས་ཀྱི་གཏམ་	-10.9773
སྒོ་བརྒྱབ་	-10.9776
བལྟ་བའི་ཕྱིར་	-10.9782
མདོ་སྔགས་	-10.9783
དཔེ་ཟུར་དབང་འདུ	-10.9784
དུས་ན་	-10.9784
གང་ཡང་མེད་དོ་་	-10.9786
ལ་བརྩོན་པ	-10.9786
རྟེན་འབྲེལ་མཚོན་	-10.9788
ཡལ་ག་	-10.9788
མོས་པའི་	-10.979
བཀུར་བ	-10.979
བསྟན་པ་འཛིན་	-10.9791
ཡར་རྒྱས་དང་	-10.9792
▁འདུན་པ་	-10.9795
ཞེ་ན་འདི་ལྟར་	-10.9801
དང་་ཚུལ་ཁྲིམས་	-10.9802
▁འོ་ན་	-10.9803
སྐུ་བརྙན་	-10.9804
བློས་	-10.9805
ཟ་བ་	-10.9805
མི་འམ་ཅི་	-10.9808
མཁྱེན་པའི་	-10.9809
བལྟ་བ་དང་་	-10.9809
མིང་འདི་ཞེས་བ	-10.981
▁དེ་ཡང་ཕྱི་ཚེས་	-10.981
རབ་ཏུ་ཤེས་ཏེ་	-10.9811
མི་འཇུག་	-10.9812
ཚང་མའི་ནང་	-10.9812
རང་བྱང་ཆུབ་	-10.9813
དཀའ་རྙོག་སེལ་ཐབས	-10.9816
ཇི་སྙེད་པ་་	-10.9816
ལ་སློབ་སྦྱོང་	-10.9817
▁རྒྱལ་པོས་	-10.9818
པའི་སྨོན་འདུན་	-10.9819
▁མིའམ་ཅིའི་	-10.9822
ཁོང་ཁྲོ་བ	-10.9823
ལྔ་པ	-10.9823
གནང་དགོས་རྒྱུ་	-10.9824
ཚངས་པར་སྤྱད་པ་	-10.9825
སྐྱིད་སྡུག་	-10.9826
ཉིས་བརྒྱ་	-10.9826
འི་ལས་འགུལ་	-10.9827
འདི་ལྟ་བུ་དག་	-10.9828
གཉིས་ནི་	-10.9829
སྒྲོགས་པ་	-10.9829
ཐུབ་རྒྱུར་	-10.9832
དང་སྟབས་བསྟུན་	-10.9833
རྗེས་སུ་ཡི་རང་བ	-10.9834
ག་ཏ་མ་	-10.9837
དུ་མ་དག་	-10.984
ཏང་	-10.9841
དེ་འདྲར་	-10.9842
▁ཕྱིན་ནས་	-10.9842
གང་ཡོད་པ་	-10.9843
སྐུ་ཚབ་འཐུས་མི་	-10.9843
▁སྤྱིར་བཏང་	-10.9845
གསལ་འདོན་གནང་	-10.9846
བྱེད་པར་འགྱུར་	-10.9846
དག་མཐོང་ན་	-10.9847
ལ་ཡོད་པའི་	-10.985
བཅོམ་ལྡན་འདས་ལས་	-10.9853
▁རྒྱ་	-10.9854
ཀྱི་ཡོད་པ་དང་	-10.9856
ཆོས་ལུགས་ཕན་ཚུན་	-10.9856
བྱིན་པས་	-10.9858
རྒྱལ་བུ་	-10.9858
ཕེ	-10.9859
ནས་ཕྱུང་སྟེ་	-10.9861
དགྲ་བཅོམ་པ	-10.9861
ངན་འགྲོ་	-10.9862
སོང་བ་དང་	-10.9863
མཛད་རྣམ་	-10.9863
རྣམ་པར་གཞག་པ་	-10.9865
་བོད་རིགས་སྤྱི་	-10.9866
དང་་མྱ་ངན་དང་་	-10.9866
▁སོག་པོ	-10.9866
པའི་སྐབས་སུ་	-10.9867
ཆོས་བཤད་	-10.9868
བླངས་སོ་་	-10.9868
དགོས་ཀྱི་ཡོད་པ	-10.9869
་ཏིང་འཛིན་	-10.987
མ་ལགས་སོ་	-10.9871
རྔ་པ་	-10.9873
་ཨ	-10.9874
སྤེལ	-10.9875
གོང་སྤེལ་གཏོང་	-10.9875
དགོས་མཁོ་ཡོད་པ	-10.9876
གཟིགས་འབུལ་ཞུས	-10.9878
བྱུང་ངོ་་	-10.9879
▁ཁ	-10.988
བ་ཡིན་	-10.988
འདུག་གམ	-10.988
རྣམ་པར་བསྒྲགས་པ	-10.9882
སྐབས་འདིར	-10.9883
ཁོང་ཚོའི་	-10.9883
སློབ་སྦྱོང་གནང་	-10.9888
པ་སྟེ་་	-10.9889
གཏོར་བཤིག་	-10.989
གྲགས་པའི་	-10.989
གཞན་མུ་སྟེགས་ཅན་	-10.9891
དྲགས་	-10.9891
ཉམས་པ་སླར་གསོ་	-10.9892
དེ་ལྟ་ན་	-10.9892
དགེ་བཤེས་མ་	-10.9892
འཚལ་ཏེ་	-10.9893
དེ་སྐད་ཅེས་སྨྲས་	-10.9896
དགེ་ལས་	-10.9896
ལས་འདས་	-10.9897
བར་སྣང་ལས་	-10.9898
▁ཕྱི་ལོ་བཟུང་	-10.9898
སེམས་ཁུར་	-10.9898
ཕྱུགས་	-10.9898
དང་་བཟོད་པ་དང་་	-10.9901
རྒྱལ་ཁབ་ཅིག་	-10.9902
བཞད་	-10.9903
པོ་འདི་དག་	-10.9904
འདི་དག་སྨྲས་སོ་་	-10.9904
གཤིས་	-10.9906
ཕུལ་ནས་	-10.9906
་ཕག་	-10.9907
ཞུ་སྐབས་	-10.9907
▁མཐའ་དོན	-10.9908
བཅའ་བ	-10.9909
མུན་པ་མུན་ནག་	-10.9909
རྒྱུ་ཡིན་སྐོར་	-10.991
བྱ་དགོས	-10.9911
་མཁས་པ་	-10.9912
དེ་ཡིན	-10.9912
གི་གསུང་རབ་ལ་	-10.9913
ནང་བསྟན་	-10.9914
སེམས་ཅན་དག་པ་	-10.9914
བཅུ་བཞི་པ་	-10.9915
དབུས་བོད་མིའི་	-10.9917
དང་ལྡན་པ་ཡིན་ཏེ་	-10.9917
རྡུལ་མེད་	-10.9917
ཆགས་བསྡད་ཡོད	-10.9917
བྱའོ་སྙམ་ནས་	-10.9918
མཆོད་པ་དང་་	-10.992
སློབ་གཉེར་བྱེད་	-10.9927
སོན་པའི་	-10.9927
ཕྱི་དྲོ་ཆུ་ཚོད	-10.9928
མང	-10.9928
ཆིངས་ཡིག་	-10.9928
ཀུན་རྫོབ་	-10.993
གདན་འདྲེན་ཞུ་	-10.993
ཐོས་པ་དང་་	-10.9932
སྤྲས་པ་	-10.9932
བདེ་ཐང་	-10.9935
▁སྙམ་ནས་	-10.9936
ཤུགས་ཆེ་གནང་ཡོད	-10.9937
དཔལ་མགོན་	-10.9939
སྡེ	-10.9941
དྲན་སྐུལ་	-10.9942
གཞ	-10.9942
སྙན་སྒྲོན་	-10.9944
་གང་གིས་	-10.9949
བཙས་པ་	-10.9949
སྤུན་མཆེད་	-10.9949
ཨོ་སི་ཀྲི་ལི་ཡ་	-10.9952
ཤེས་པ་ཡོངས་སུ་	-10.9953
ཚེས་གཟའ་ཟླ་བ	-10.9954
ཕ་མ	-10.9954
ཆོས་ཀྱི་རྒྱལ་པོ་	-10.9955
ཀྱི་ཚབ་ཞུས་ཏེ	-10.996
མ་དགོན་	-10.996
ཆོས་བསྟན་	-10.9961
སྤྱད་པ་སྤྱོད་	-10.9963
བཞག་ན་	-10.9963
▁ཡབ་	-10.9963
གཙ	-10.9964
མི་ཤེས་ཏེ་	-10.9964
འི་སྒོ་	-10.9964
གྲིབ་	-10.9965
སྤངས་ཤིང་	-10.9967
རིམ་གྲོ་བྱས་	-10.9968
འི་སྡེ་དང་་	-10.9968
ཁྲིམས་ཞིབ་པ་	-10.9968
གཉིས་པའོ་་	-10.9969
▁དང་པོ་	-10.9969
འཆག་	-10.9969
བསྟ	-10.9971
ི་ལི་	-10.9973
ི་ཧ	-10.9975
དེའི་ལུས་ལ་	-10.9977
བུ་དང་	-10.9978
སྡེའི་	-10.998
མྱོང་ཚོར་	-10.9981
རབ་ཏུ་ཞི་བར་	-10.9981
སྦྱོར་བས་	-10.9982
་མཛད་པ་མཉམ་པ་དང་	-10.9983
ཞུགས་པའི་	-10.9983
མངོན་པར་སྒྲུབ་པ་	-10.9983
གཏོར་མ་	-10.9983
གཅིག་ནི	-10.9984
དོན་ཚན་བཅུ་བདུན་	-10.9985
དུད་ཚང་	-10.9986
དང་བཅས་པས་	-10.9986
ན་སངས་རྒྱས་	-10.9986
བགྲོད་པ་གཅིག་པ	-10.9986
དེ་ཆགས་ཡོད	-10.9987
རབ་ཏུ་གཡོས་	-10.9987
དགའ་དད་སྤྲོ་	-10.9987
ཕུགས་རྒྱང་རིང་པོ	-10.9987
ལོ་རེ་བཞིན་	-10.9987
ཅེཀ་	-10.9987
ལྗོངས་རྒྱུ་ཞིང་	-10.9988
ཁྲོ་བོ་གཏུམ་པོ	-10.9988
རོགས་གནང་ཞེས་	-10.9989
འབྲིང་རིམ་	-10.9989
ཡན་ཆད་	-10.9989
བསྒྱུར་བཀོད་ཁང་	-10.9989
སོག	-10.999
་མེད་པར་གྲགས་པས་	-10.9992
རྒྱལ་བུ་གཞོན་ནུ་	-10.9992
ལྷའི་ནང་དུ་	-10.9994
བྱས་དང་བྱེད་མུས་	-10.9995
དགོན་སྡེ་ཁག་ཏུ་	-10.9995
སོ་སོར་རྟོག་སྟེ་	-10.9995
སྣང་གསལ་ཞལ་ཕྱེ་	-10.9997
▁གཞན་དུ་ན་	-10.9998
དེ་རིགས་	-11.0001
ལན་བདུན་	-11.0001
བྱེད་དགོས་རྒྱུ་	-11.0001
བསོད་ནམས་ཆེན་པོ་	-11.0001
པ་ཙམ་གྱིས་	-11.0004
▁རྒྱ་ནག་ནང་	-11.0004
དུམ་བུ་	-11.0005
ཁོང་རྣམ་པའི་	-11.0007
འི་ཕུང་པོ་	-11.0007
བྱེད་རྒྱུར་	-11.0007
མཚན་ཉིད་གཅིག་	-11.0007
ང་ཚོའི་ངོས་ནས་	-11.0007
གཏན་ཉིན་སློབ་གྲྭ	-11.0008
ཡུ་གུར་མི་རིགས་	-11.0009
ཅན་དུ་འགྱུར་རོ་་	-11.0009
གསུམ་པའོ་་	-11.0009
▁ཆོས་ལ་	-11.0012
ལྷན་ཅིག་གནས་པ	-11.0012
▁ཁྱོད་ལ་	-11.0012
▁རྒྱུན་དུ་ཞུགས་པ	-11.0013
མེ་སྐྱོན་	-11.0013
▁ཆོས་སྨྲ་བ་	-11.0013
བླ་གོས་	-11.0014
བགྱིད་་	-11.0015
ཟང་ཟིང་གི་	-11.0017
ཡ་རབས་བཟང་སྤྱོད་	-11.0018
དགེ་རྒན་རྣམ་པས་	-11.0018
དེང་གི་	-11.0019
ཡིད་གཟབ་	-11.0019
དོན་དེ་	-11.002
ལ་རྣམ་པར་སྨིན་པ	-11.002
དྲོད་	-11.0021
བསྒྲིགས་	-11.0021
སྲུང་སྐྱོབ་བྱེད་	-11.0021
གསོལ་ཏེ་	-11.0021
འདུགདེ་བཞིན་	-11.0021
བྱས་པ་བརྒྱུད་	-11.0023
མགོ་སྐོར་	-11.0023
གསོལ་ནས་	-11.0023
ཊེ	-11.0024
ི་སྤྱོད་པ་གང་	-11.0024
ཆོས་ཀྱང་སྟོན་ཏོ་	-11.0025
རིགས་པས་	-11.0025
ཇེ་མང་དུ་འགྲོ་	-11.0025
མངོན་སུམ་དུ་བྱ་བ	-11.0026
▁ཡིད་	-11.0026
བོད་གངས་ཅན་	-11.0027
བོད་ཟླ་	-11.0027
གྱི་བླ་སྤྲུལ་	-11.0027
བོད་མི་ཞིག་	-11.0027
རྣམ་ཐོས་ཀྱི་བུའ	-11.0029
▁ཕྱག་འཚལ་	-11.003
ཁང་ནས་བཏང་གན	-11.0031
སྐྱེད་པར་བྱེད་	-11.0032
ལ་ཕན་པའི་ཕྱིར་	-11.0033
སྐྱོང་ཡོང་བའི་	-11.0034
བརྗོད་པར་བྱ་སྟེ་	-11.0035
སྙིང་པོའོ་	-11.0036
ེ་བ་ལ་བཙུད་པ་ནི་	-11.0036
དང་བཅས	-11.0036
ར་བྱས་ནས་བད	-11.0037
སྒྲོམ་གཞི་	-11.004
སྙན་ཞུ་	-11.004
དབུ་བརྙེས་	-11.0041
དམིགས་པའི་	-11.0042
འི་རྩ་བ་	-11.0043
གཅིག་པ་རེད	-11.0044
སྐོམ་པ་	-11.0044
མ་འདྲེས་པའི་	-11.0046
▁འཇིག་རྟེན་མགོན་	-11.005
ཚགས་	-11.0051
འཇིག་རྟེན་ལོང་བ	-11.0051
དེ་བཞིན་ཕྱི་ལོ་	-11.0051
ཆེན་པོ་མཆོག་བོད་	-11.0051
ཤཀྱའི་	-11.0052
▁རྒྱལ་ཚོགས་ཀྱི་	-11.0052
རྨང་གཞི་	-11.0053
འི་སྤྱོད་ཡུལ་	-11.0054
རྐང་གཉིས་	-11.0055
ཡར་རྒྱས་འགྲོ་	-11.0055
་ཁི	-11.0056
ཕྱུག་ལ་དབང་བྱེད་	-11.0056
མནར་	-11.0057
ལས་བྱས་པ་	-11.0057
གྱི་སྒོ་ནས་	-11.0058
ཀྱི་མ་རེད	-11.0059
ཡོངས་སུ་རྟོག་པ་	-11.006
མངོན་པར་འཕགས་པ་	-11.0062
▁ཆོས་གང་	-11.0065
ཕྱག་ལས་གནང་མཁན་	-11.0065
གཞུང་འབྲེལ་མི་སྣ	-11.0065
རྙེད་ན་	-11.0066
ཡལ་བར་	-11.0069
ཡིན་པར་ངོས་འཛིན་	-11.0069
བྱས་པ་དང་་	-11.0069
ཚོགས་ཡོད	-11.0072
བདུག་པ་	-11.0072
སྣང་སྟེ་	-11.0072
སློབ་མ་རྣམས་	-11.0072
ཡུལ་གྲུ་ཁག་གི་	-11.0072
ཤར་བ་	-11.0072
ཕྲོགས་	-11.0073
འབྲེལ་བའི་སྐོར་	-11.0075
རིམས་ཀྱི་རྐྱེན་	-11.0075
སྤྱན་གྱིས་	-11.0076
མདོ་རྫོགས་སོ་་་	-11.0077
ཇེ་སྡུག་ཏུ་འགྲོ་	-11.0079
པར་བྱེད་ཅིང་	-11.008
▁ཕྱི་ལོ་ནས་	-11.008
རུང་བ་	-11.0081
ཐོག་ལའང་	-11.0082
ལས་བརྩམས་ཏེ་	-11.0082
ཐག་བཅད་	-11.0083
འགོ་བཙུགས་པ་	-11.0085
བོད་ཆོལ་ཁ་གསུམ་	-11.0086
ཆོས་ཡོངས་སུ་ཚོལ་	-11.0089
ཟོང་	-11.009
རྣ་བ	-11.0091
བསད་པ་	-11.0091
བསྡད་པ་རེད	-11.0091
རྗེད་	-11.0091
སུན་གཙེར་	-11.0092
སྐོར་གསུང་བཤད་	-11.0096
རྒྱན་ཐམས་ཅད་	-11.0098
འགགས་པས་	-11.0102
ནི་སངས་རྒྱས་ཀྱི་	-11.0102
ཁུ་བ་	-11.0103
མེ་ཏོག་གིས་	-11.0104
ེའི་རྣམ་པར་	-11.0104
ངེས་པའི་ཚིག་	-11.0105
གཏན་ནས་	-11.0107
ཆུ་སྐྱ	-11.0108
སི་ཊ	-11.0109
▁གང་དུ་	-11.0109
གོ་སྒྲིག་གནང་བ	-11.011
ཞེས་བྱ་བའམ་མི་	-11.011
མ་གཏོགས	-11.0111
ཡོང་གི་ཡོད་པ་	-11.0112
གྱི་རྣམ་པ་	-11.0114
པར་ཐུགས་རྗེ་ཆེ་	-11.0115
ར་མཛད་	-11.0115
ལ་དགའ་	-11.0116
ལས་གཞིར་	-11.0117
་ཛ	-11.0117
ཉིས་སྟོང་	-11.0119
ཤེས་པ་སྟེ་	-11.012
ཀླུ་ཡི་	-11.0121
སླེ	-11.0122
རྗོད་ཀྱི་ཡོད	-11.0124
སྔ་དྲོ་ཆུ་ཚོད་ལ་	-11.0126
བཙུགས་པའི་	-11.0127
མེད་ཅེས་	-11.0127
དོན་དང་	-11.0127
སྤོང་ཞིང་	-11.0128
ཁྲོ་བའི་	-11.0129
ལྟེ་གནས་	-11.0129
བརྒྱད་སྟོང་	-11.0131
འཕེལ་རྒྱས་	-11.0134
ཞིག་གནས་པ་དེས་	-11.0135
སློབ་སྦྱོང་གི་	-11.0135
མཐུན་འགྱུར་འོག་	-11.0135
བོད་དོན་ཞུ་གཏུག་	-11.0138
རྣམ་ཤེས་	-11.0138
བསྐོར་བ་བྱས་ནས་	-11.0139
མི་ལེན་	-11.0139
དེ་ལྟ་བས་ན་བ	-11.0139
བདུད་ཐམས་ཅད་	-11.0139
གནས་སྟངས་ཇི་ཡིན་	-11.014
ཡོངས་སུ་ཤེས་པ་	-11.0141
གཅོད་པ་	-11.0143
གནའ་རབས་	-11.0144
ཡང་རབ་ཏུ་ཤེས་	-11.0145
སྙམ་དུ་དགོངས་ནས་	-11.0147
བོད་དོན་ལ་	-11.0148
དྲང་བདེན་དང་	-11.0149
བརྗོད་དེ་	-11.015
མ་རུངས་	-11.0154
སྒྲོ	-11.0155
པར་མི་ནུས་	-11.0156
བྱས་ལ་	-11.0157
གཟིར་བ	-11.0157
རྗེས་སུ་བལྟ་བ	-11.0158
▁ཡུན་རིང་པོ་ནས་	-11.0159
ཚད་མེད་པ་བཞི་	-11.016
ངེས	-11.0161
དགེ་སློང་གིས་	-11.0161
ལ་མི་གནས་	-11.0162
ཝི་ཏི་ནམ་	-11.0162
བཀང་	-11.0162
གཟུངས་སྔགས་	-11.0162
ཞུ་དགོས་པ	-11.0162
འི་བུ་	-11.0163
ཐད་ཀར་འབྲེལ་བ་	-11.0164
བསྒོམས་པ་	-11.0164
བུ་མོ་དེ་	-11.0165
ཀུན་ནས་ལྡང་བ་	-11.0165
ས་གསོལ་པ་	-11.0166
སློབ་ཕྲུག	-11.0168
རྒྱུའི་འཆར་གཞི་	-11.0168
སོ་སྙམ་ནས་	-11.017
དང་འཐུན་པ་	-11.017
འགྲོ་བཞིན་ཡོད་པ་	-11.0176
སྐྲག་ཅིང་	-11.0176
གཞན་དག་གིས་	-11.0176
་ཞེས་བྱ་བ	-11.0177
▁གཞིས་ཆགས་	-11.0178
དགའ་བ	-11.0179
▁ཚོགས་ཆེན་	-11.0179
ཚད་མ་རིག་པ་དང་	-11.0179
ཉི	-11.0181
བསོད་ནམས་བསྟན་	-11.0181
པར་འགྱུར་ཞིང་་	-11.0186
བསམ་གཏན་བཞི་དང་	-11.0189
གདུལ་བྱ་	-11.019
འདོད་པ་དག་	-11.0193
མགོ་ལ་	-11.0193
འགོག་རྐྱེན་	-11.0193
རྣམ་པར་འདྲེན་པ་	-11.0194
སྣེ་འཁྲིད་	-11.0196
▁ཞེ་སྡང་	-11.0197
སྐྱོར་	-11.0198
ཚགས་ཚུད་པོ་	-11.0198
▁དེར་བརྟེན	-11.0199
ངོན་པར་བརྩོན་པར་	-11.02
ཆོས་གང་	-11.02
ལྟ་ཅི་སྨོས་ཏེ་	-11.0202
མིའི་རྣམ་དཔྱོད་	-11.0202
ཆོས་གྲོགས་	-11.0203
བོད་མི་ཡོངས་	-11.0206
ཆོས་སྟོན་པ	-11.0207
བགྲོ་གླེང་གི་	-11.0208
མི་ཡིས་	-11.0208
▁དུས་ཚོད་	-11.0211
གཡུ	-11.0212
སྐྱེ་བོ་མང་པོས་	-11.0217
སྨོན་ལམ་འདེབས་	-11.0218
ཁང་དང་	-11.0219
གསུངས་སོ་་	-11.0222
འདི་འདྲ་བ་	-11.0222
ཁྱོན་ཡོངས་ཀྱི་	-11.0223
་ཐ	-11.0223
བོད་མི་ཡོངས་ལ་	-11.0226
ལས་འཕགས་པ	-11.0226
གཙོ་ཆེ་ཤོས་	-11.0229
ག་ལས་	-11.023
དཀའ་རྙོག་	-11.0232
ཚོགས་གཙོ་ལ	-11.0233
བར་སྐབས་	-11.0235
བསྐོ་ལྷན་ཁང་གི་	-11.0236
མེ་ལོང་	-11.0236
བརྟག་དཔྱད་བྱས་	-11.0236
ནེ་རུ་	-11.0237
ྱུག་པ་དང་་ཕྱེ་མ་	-11.0241
མཆིས་ན་	-11.0241
དགུ་པ་	-11.0244
འབྲེལ་མ་ཡིན་པའི་	-11.0244
མངོན་པར་རྟོགས་པ་	-11.0244
ཡོད་སྐོར	-11.0251
དར་བའི་	-11.0253
དམིགས་པ་ཅན་	-11.0255
ཁ་ཅིག་གིས་ནི་	-11.0255
འདུག་པ་དང་་	-11.0256
་པད་མའི་དཔལ་གྱི	-11.0256
ཁྲོ	-11.0256
འདྲེན་པའི་	-11.0257
མ་འདྲ་བ་	-11.0258
ཆོས་ཐམས་ཅད་ཀྱང་	-11.0258
ནགས་ཁུང་	-11.0259
དཔར་	-11.0261
ཟེར་གྱི་ཡོད	-11.0262
གཉིས་རིང་	-11.0263
ནི་རྟག་ཏུ་	-11.0265
▁བགྲོ་གླེང་	-11.0266
བཤད་ཀྱི་འདུག	-11.0267
བཅུག་སྟེ་	-11.0269
སུད་ཚོང་	-11.0269
གྱི་ལས་གཞི་	-11.027
རྒྱལ་བསྟན་ཡོངས་	-11.0272
འི་གསར་འགོད་	-11.0273
▁ཚུལ་ཁྲིམས་ཀྱི་	-11.0274
ད་ཞིའི་གཙུག་རྒྱན	-11.0275
རྒྱལ་མཆོག་	-11.0275
མི་གྲངས	-11.0275
སྤངས་པས་	-11.0278
རྒྱལ་ཁའི་ངང་གྲོལ	-11.0279
▁བདག་ཅག་གཉིས་	-11.028
བྲལ་བའི་	-11.028
་རགས་	-11.0281
ཡ་ལ	-11.0281
བསྐྱབ་པ	-11.0282
▁དེ་འདྲ་	-11.0282
ལ་ཇི་ལྟར་མ	-11.0283
ཐལ་བ	-11.0284
▁སློབ་གྲྭ་	-11.0284
དེ་གའི་	-11.0285
ཁག་ནང་	-11.0286
ེ་ཝི་	-11.0286
མང་བ	-11.0286
▁ཕ་མ་	-11.0288
ལྗང་	-11.029
རིས་སུ་མ་ཆད་པའི་	-11.029
རྔ་རོལ་དང་བཅས་	-11.029
གསོལ་ཇ་འབྲས་སིལ་	-11.029
སྦྲ་གཉིས་ཚེ་རྒྱལ	-11.029
བསམ་པ་གཅིག་མཐུན་	-11.029
སྡིངས་ཆའི་སྟེང་	-11.029
སེམས་དང་སྲོག་གི་	-11.029
གཤེགས་སུ་གསོལ་	-11.029
མུན་པ	-11.029
བླ་མེད་དུ་ཆེ་	-11.029
ལྷུང་བཟེད་བསྣམས་	-11.0291
▁ཀྱེ་ཀྱེ་	-11.0291
་རྟག་པར་རྗེས་སུ་	-11.0291
ནད་རྟགས་ཡོད་མེད་	-11.0291
ཡོད་ཅེས་བྱ་བའམ་	-11.0291
རྒན་རབས་	-11.0292
སྒྲོགས་སྦྱང་ཞུས་	-11.0292
ུས་འཁོར་དབང་ཆེན་	-11.0292
བརྒྱ་ཕྲག་སྟོང་	-11.0293
ནམ་མཁའ་དང་མཚུངས་	-11.0293
ཡོད་པའི་སྐོར་	-11.0293
བོད་དོན་ཞུ་སྐུལ་	-11.0294
ཚུལ་ཁྲིམས་སྲུང་བ	-11.0295
ཁེ	-11.0295
འདོན་གནང་མཛད་	-11.0296
ས་གནང་བར་རིག་ནས་	-11.0296
གཏོང་དགོས་པའི་	-11.0297
་འདྲེན་པ་	-11.0297
་ཤུགས་མཉམ་པ་དང་	-11.0298
དེ་དང་དེ་དག་ཏུ་	-11.0299
བསུའི་སྣེ་ལེན་	-11.03
ལན་གསུམ་དུ་བཟླས་	-11.03
དབྱེ་བ་མེད་པར་	-11.0302
▁དགེ་སྦྱོང་	-11.0302
བོད་ས་དབང་སྒྱུར་	-11.0303
གླུ་དང་	-11.0305
གོ་ཆ་བགོས་	-11.0306
▁འདི་དག་	-11.0306
དབྱེ་བ་	-11.0307
ལས་མངོན་པར་འདུ་	-11.0307
བྱས་ཚེ་	-11.0307
འབུལ་ཞུས	-11.0309
ལ་མངོན་པར་ཞེན་པ	-11.0309
རྡོ་རྗེ་གདན་གྱི་	-11.0309
ཀྱི་དངོས་པོ་ལས་	-11.031
▁དེ་དགྲ་བཅོམ་པ	-11.031
ཀྱི་གནད་དོན་ཐད་	-11.0312
རྒྱལ་སྤྱི་	-11.0313
སླེབས་པ་	-11.0313
མི་རྟག་ཅེས་བྱ་བ	-11.0313
འབྲེལ་ཚོགས་པའི་	-11.0314
ལྷ་དང་	-11.0314
ཆེད་དུ་བརྗོད་པ་	-11.0315
གི་ལས་བྱེད་	-11.0316
མོས་པ་དང་་	-11.0316
འགྲོ་གི་ཡོད	-11.0317
མན་ངག་	-11.0318
ལ་བརྟེན་ཏེ་	-11.0318
ས་མཆོག་གིས་	-11.032
རྣག་	-11.032
བསམ་ཤེས་	-11.0321
བོད་ཀྱི་བླ་ན་མ	-11.0321
▁ད་ལྟར་	-11.0321
རིག་པ་བཞི་དང་་	-11.0323
སྐུ་ཉིད་ཀྱི་	-11.0323
རྒྱ་དམར་གཞུང་གི	-11.0323
གཞོག་	-11.0324
འདོད་པའི་ཕྱིར་	-11.0324
ཀུན་ཏུ་སྦྱོར་བ་	-11.0325
བཅར་བ་ཡིན	-11.0325
ཐོགས་པ་དང་་	-11.0325
སྐྱེས་པའམ་	-11.0328
སྟངས་དང་	-11.0328
སྐྱེའོ་་	-11.0332
ཕྱུག་པོ་	-11.0332
ཕྱེ་མ་དང་་	-11.0332
དགེ་སློང་འདི་	-11.0333
བཞེས་མཁན་	-11.0333
དེའི་ཐད་དུ་	-11.0334
ཞལ་གྱི་	-11.0334
འགོ་འཛུགས་གནང་	-11.0334
་བོ་	-11.0335
ཆོས་ཉན་	-11.0335
འདི་འདྲ་ཞིག་	-11.0337
ཀྱི་ཚིག་བླ་དགས་	-11.0339
གཟིམ་ཆུང་ཕོ་བྲང་	-11.034
ཡོངས་སུ་སྤྱད་པ	-11.0341
གྱི་གནས་སྟངས་	-11.0342
ས་སྐྱ	-11.0343
[...]
