<unk>	0
<s>	0
</s>	0
▁the	-2.66119
▁of	-3.25972
▁and	-3.50211
▁to	-3.91517
s	-4.06461
▁in	-4.19842
▁a	-4.37259
ed	-4.38549
▁	-4.4522
▁is	-4.48155
▁that	-4.54667
ing	-4.69329
,	-4.70495
▁they	-4.73554
▁one	-4.81434
▁are	-4.95383
▁he	-4.98354
▁with	-4.9836
▁as	-4.98579
▁not	-5.02313
▁this	-5.05548
.	-5.10803
▁it	-5.11825
▁all	-5.16532
▁be	-5.18197
▁who	-5.21378
▁will	-5.23647
▁for	-5.29795
▁i	-5.32523
▁you	-5.34418
d	-5.36966
▁was	-5.43576
▁by	-5.46848
▁have	-5.50279
▁from	-5.50398
▁his	-5.53317
▁beings	-5.53529
ly	-5.5393
▁their	-5.58858
▁bless	-5.65558
▁on	-5.67225
▁great	-5.71915
▁or	-5.73098
▁those	-5.75789
▁there	-5.78169
▁bodhisattva	-5.82969
▁dharma	-5.84476
▁do	-5.91163
▁were	-5.9405
▁when	-5.9407
▁so	-5.97202
▁them	-6.02093
▁then	-6.0393
▁what	-6.04651
▁an	-6.09574
▁should	-6.10437
▁at	-6.1154
▁knowledge	-6.12665
▁no	-6.1553
e	-6.17666
t	-6.17916
▁thusgone	-6.20449
y	-6.21348
▁had	-6.23701
▁has	-6.26534
▁like	-6.27207
▁these	-6.28843
▁buddha	-6.29114
▁him	-6.30962
▁bodhisattvas	-6.3295
▁world	-6.33659
▁perfect	-6.33935
▁if	-6.36073
▁wisdom	-6.4721
▁how	-6.48285
▁king	-6.5004
▁my	-6.50711
▁being	-6.50742
▁such	-6.51318
▁time	-6.51324
▁other	-6.521
▁up	-6.52666
▁which	-6.53079
▁noble	-6.57556
▁through	-6.58449
▁said	-6.5921
▁also	-6.60011
▁may	-6.60223
▁mind	-6.63478
▁into	-6.6454
▁The	-6.64837
▁without	-6.66013
▁way	-6.67315
▁phenomena	-6.67641
▁we	-6.68526
▁transcendent	-6.70577
▁perfection	-6.70987
▁understand	-6.72317
▁buddhas	-6.74171
▁but	-6.7499
▁your	-6.7618
▁four	-6.76974
▁would	-6.77192
▁lord	-6.8053
▁gods	-6.81825
▁ones	-6.82024
en	-6.82964
▁many	-6.83123
▁monks	-6.84434
▁forth	-6.85605
▁“	-6.85833
▁because	-6.86543
▁son	-6.86798
▁even	-6.889
▁Tibet	-6.89032
▁body	-6.89351
▁become	-6.91006
▁me	-6.92944
▁about	-6.93982
▁qualities	-6.94921
▁can	-6.95619
▁nature	-6.97251
▁any	-6.97887
▁enlightenment	-6.98591
▁nor	-6.98741
▁sentien	-6.99563
▁just	-7.00018
▁venerable	-7.00235
▁same	-7.00785
▁after	-7.01813
▁out	-7.01887
▁see	-7.02051
▁well	-7.0316
▁practice	-7.03558
▁does	-7.05458
▁ten	-7.05864
▁path	-7.06544
▁teaching	-7.07326
▁awakening	-7.07419
▁now	-7.07631
▁hav	-7.08099
▁its	-7.08221
▁people	-7.08886
▁asked	-7.09694
▁correctly	-7.10489
▁three	-7.10666
▁un	-7.10916
▁where	-7.11232
▁some	-7.11726
▁emptiness	-7.12205
-	-7.12548
▁hundred	-7.15815
▁element	-7.16047
▁go	-7.16726
▁did	-7.16985
▁supreme	-7.18016
▁taught	-7.19905
▁suffering	-7.2013
▁thousand	-7.20345
▁consciousness	-7.20464
▁think	-7.2237
▁come	-7.2349
▁hear	-7.23832
▁householder	-7.24189
▁five	-7.24371
▁s	-7.24384
▁attain	-7.24403
▁saradvatiputra	-7.24438
▁replied	-7.24951
▁free	-7.25098
▁tathagata	-7.25115
▁(	-7.25313
▁two	-7.26793
ti	-7.27959
▁things	-7.28207
:	-7.2848
▁know	-7.28483
▁name	-7.28987
▁others	-7.29154
▁realms	-7.29195
▁thus	-7.29317
▁cessation	-7.29376
▁why	-7.29923
▁Chinese	-7.30119
▁bhagavan	-7.30424
▁thought	-7.31324
▁known	-7.32589
▁Tibetan	-7.33177
▁conduct	-7.34379
▁made	-7.3459
▁includ	-7.34646
related	-7.35302
’	-7.36226
▁subhu	-7.37014
▁young	-7.37452
▁words	-7.37841
▁present	-7.38564
▁form	-7.38595
▁existence	-7.38971
al	-7.39224
▁brahmin	-7.39497
▁In	-7.40271
▁man	-7.4127
▁past	-7.41288
▁she	-7.42211
▁make	-7.42466
▁possess	-7.43196
▁away	-7.43383
es	-7.43444
▁life	-7.43647
▁teach	-7.4412
▁before	-7.44308
▁therefore	-7.44406
▁means	-7.45326
▁her	-7.46171
▁realm	-7.46279
▁power	-7.46576
▁desire	-7.46595
▁upon	-7.4668
▁completely	-7.46708
▁light	-7.47235
▁pure	-7.47706
”	-7.48293
▁long	-7.49042
▁went	-7.49243
▁wish	-7.49322
▁called	-7.50615
▁virtue	-7.50707
▁could	-7.51046
▁manifest	-7.51715
▁give	-7.52062
▁among	-7.52231
▁order	-7.52908
▁while	-7.53351
▁p	-7.53676
▁shall	-7.5401
▁awaken	-7.54934
▁birth	-7.5541
n	-7.55414
very	-7.55552
▁never	-7.55593
▁within	-7.55709
th	-7.56184
▁actions	-7.58234
▁beyond	-7.58846
▁merit	-7.59251
▁ask	-7.59306
▁manjusri	-7.60107
▁good	-7.61853
▁state	-7.62002
▁person	-7.62708
▁Lama	-7.62758
▁mental	-7.6281
▁six	-7.62922
▁physical	-7.62937
▁take	-7.63011
▁forms	-7.63418
▁lead	-7.63645
▁only	-7.64457
▁born	-7.64922
▁humans	-7.66005
▁arhat	-7.66446
▁more	-7.66493
▁excellent	-7.66519
▁right	-7.66666
▁universe	-7.66777
▁over	-7.67275
▁place	-7.67506
imilarly	-7.68677
▁complete	-7.68789
▁must	-7.68929
▁than	-7.69005
▁times	-7.69018
▁own	-7.6939
▁flowers	-7.69908
▁roots	-7.70049
▁day	-7.70187
▁meditative	-7.7068
▁toward	-7.7069
▁divine	-7.71199
▁death	-7.71284
▁buddhahood	-7.71807
▁bring	-7.7205
▁tathagatas	-7.72465
▁ananda	-7.72605
either	-7.73351
▁n	-7.73369
▁themselves	-7.73907
▁eight	-7.74186
▁precious	-7.75468
▁China	-7.75512
▁please	-7.75675
▁monk	-7.75925
▁doctrine	-7.76014
▁here	-7.76088
▁saw	-7.77083
▁us	-7.77352
▁joy	-7.77423
able	-7.77442
▁down	-7.7844
▁seat	-7.78783
▁eons	-7.79109
▁our	-7.79491
▁mahasattva	-7.79918
▁unsurpassed	-7.80046
▁cause	-7.80315
▁became	-7.80598
▁attained	-7.80787
▁generosity	-7.8081
▁powers	-7.81458
▁since	-7.81689
▁seven	-7.8197
▁consider	-7.82114
▁concentration	-7.82738
▁water	-7.82799
▁genuine	-7.82957
▁always	-7.84113
▁following	-7.84271
▁sound	-7.84633
▁nirvana	-7.85763
▁yet	-7.86227
▁eyes	-7.86443
▁first	-7.86499
▁sensory	-7.86639
▁liberation	-7.87673
▁abiding	-7.87836
▁too	-7.8787
▁self	-7.88273
▁teachings	-7.88585
▁whether	-7.88799
▁discipline	-7.89083
▁feet	-7.89231
a	-7.89626
▁came	-7.89959
▁regard	-7.90079
▁teacher	-7.90455
▁enlightened	-7.90837
▁took	-7.91633
▁sangha	-7.91951
▁attributes	-7.92113
)	-7.92341
▁am	-7.9237
▁respect	-7.92515
each	-7.92912
▁similar	-7.93596
▁say	-7.93786
▁sense	-7.94097
▁brahma	-7.9424
ies	-7.94311
▁entire	-7.94352
▁wonder	-7.9459
▁set	-7.94808
ion	-7.95943
▁food	-7.96146
▁compassion	-7.96694
▁listen	-7.96962
▁maudgalyayana	-7.9701
▁master	-7.98693
▁head	-7.99056
▁numerous	-7.99636
▁omniscience	-7.99636
▁sariputra	-8.00179
▁samadhi	-8.0025
▁years	-8.0063
▁origin	-8.00851
▁empty	-8.01002
▁insight	-8.01021
wise	-8.01391
▁living	-8.01723
▁o	-8.01737
▁Dalai	-8.01969
▁Tibetans	-8.02089
▁another	-8.02492
▁minds	-8.03206
▁future	-8.03355
ever	-8.03569
▁lotus	-8.03814
▁child	-8.0505
▁enter	-8.05453
▁endow	-8.05565
ble	-8.05686
▁family	-8.05774
▁number	-8.05991
▁offerings	-8.06023
▁sage	-8.0612
▁together	-8.06255
▁kasyapa	-8.06256
▁beautiful	-8.06789
▁happiness	-8.06795
▁sons	-8.07008
▁absorption	-8.07399
▁anything	-8.07679
▁m	-8.08099
▁space	-8.09312
▁remaining	-8.09492
▁single	-8.09569
▁once	-8.09684
▁A	-8.10024
▁thousands	-8.10111
▁human	-8.1014
▁non	-8.10466
▁end	-8.10541
▁hand	-8.10973
▁various	-8.11859
▁vehicle	-8.12275
▁fire	-8.12518
▁understanding	-8.12568
▁praise	-8.12863
▁bodies	-8.13413
▁going	-8.13511
▁eye	-8.13722
▁prince	-8.1384
▁rebirth	-8.13849
▁full	-8.14788
▁kinds	-8.15272
▁level	-8.15441
▁inconceivabl	-8.16079
▁remain	-8.1622
▁equal	-8.16272
▁senior	-8.16291
▁wealth	-8.16529
▁fruit	-8.1654
▁gave	-8.16889
▁might	-8.16924
▁benefit	-8.17193
▁act	-8.17313
▁view	-8.17535
▁strength	-8.1786
▁guide	-8.1869
▁due	-8.18879
▁diligence	-8.1916
▁different	-8.19287
▁look	-8.1956
▁apprehend	-8.19571
worthy	-8.19575
▁faith	-8.19797
▁feelings	-8.20043
▁himself	-8.20423
▁mere	-8.20455
▁abide	-8.20536
▁someone	-8.20571
▁canno	-8.20638
▁homage	-8.20676
▁until	-8.21833
▁both	-8.22035
▁concern	-8.22275
▁under	-8.22456
▁hell	-8.22764
▁jewels	-8.22974
▁engage	-8.23001
▁attachment	-8.23486
▁heaven	-8.23544
▁let	-8.24402
▁city	-8.24713
▁This	-8.24823
▁virtuous	-8.24853
▁states	-8.25165
▁ocean	-8.26157
▁still	-8.27206
▁thoughts	-8.27253
▁speech	-8.27388
▁b	-8.27522
▁tree	-8.27784
ness	-8.27904
▁perceive	-8.27951
▁example	-8.27958
▁lower	-8.2805
▁nothing	-8.28177
▁emotions	-8.29066
▁jewel	-8.29289
...	-8.29525
▁directions	-8.29545
▁ignorance	-8.29568
▁sat	-8.29726
▁million	-8.29918
▁again	-8.29937
ween	-8.29958
▁god	-8.30038
▁whom	-8.30629
▁seek	-8.30703
▁trees	-8.30885
▁skill	-8.30932
▁love	-8.30958
▁highest	-8.31036
▁fall	-8.31047
▁wise	-8.31446
▁peace	-8.31462
▁fully	-8.31809
▁palm	-8.3182
oreover	-8.31917
ous	-8.31953
▁causes	-8.32215
▁moon	-8.32224
ity	-8.32536
▁gone	-8.32859
▁father	-8.32942
fold	-8.33021
▁indeed	-8.33127
▁absence	-8.3328
▁mindfulness	-8.33292
▁arise	-8.33427
er	-8.33772
▁sacred	-8.3444
▁harm	-8.34648
▁eon	-8.34921
▁point	-8.34961
▁afflictions	-8.34978
▁established	-8.35132
▁perceptions	-8.35188
▁utter	-8.35194
▁earth	-8.35222
▁accept	-8.3579
▁knowing	-8.359
▁hands	-8.36006
▁hundreds	-8.36028
▁certain	-8.3614
▁reality	-8.3618
▁correct	-8.3662
▁sky	-8.36743
▁I	-8.36822
▁soon	-8.36942
▁saying	-8.37056
▁passed	-8.37094
▁kings	-8.37146
”.	-8.37189
▁experience	-8.37385
▁worlds	-8.37408
▁gold	-8.38078
▁miraculous	-8.38334
on	-8.38399
ance	-8.38439
▁given	-8.38478
▁rest	-8.38642
▁innumerabl	-8.38808
▁lives	-8.38819
filled	-8.38911
▁It	-8.39126
i	-8.39293
▁faculties	-8.39363
▁aggregates	-8.39562
▁presence	-8.39744
▁vein	-8.39755
▁enjoy	-8.39788
▁offering	-8.39873
▁verses	-8.40038
▁appear	-8.40116
during	-8.40341
▁purity	-8.40399
▁anyone	-8.4045
▁gateway	-8.40563
▁essential	-8.4077
▁white	-8.40969
▁bet	-8.4104
out	-8.41214
▁turn	-8.41593
▁assembly	-8.41803
▁live	-8.41951
excelle	-8.42021
▁seen	-8.42174
▁bowed	-8.42293
▁adorned	-8.42515
▁elements	-8.42638
▁infinite	-8.42699
▁liberated	-8.43191
▁manner	-8.43286
se	-8.43332
▁part	-8.43386
▁home	-8.43603
▁notion	-8.43732
▁travel	-8.43769
▁abandon	-8.43817
▁cast	-8.44177
▁Lhasa	-8.44532
▁t	-8.44868
▁wheel	-8.4493
▁true	-8.44959
▁real	-8.44983
▁delight	-8.45086
▁lived	-8.45934
▁every	-8.46098
▁men	-8.46329
▁truth	-8.46348
▁profound	-8.46434
▁meaning	-8.46539
▁predispos	-8.4709
▁sake	-8.47121
▁case	-8.47597
itions	-8.47722
▁mantra	-8.47943
▁mountain	-8.48036
▁arrived	-8.48388
▁most	-8.48556
▁training	-8.4897
tally	-8.49088
▁facult	-8.4928
▁evil	-8.49281
▁speak	-8.49426
▁days	-8.49486
▁appeared	-8.4981
▁views	-8.49985
▁spiritual	-8.50615
▁else	-8.50624
▁anger	-8.50734
▁left	-8.50844
▁put	-8.51026
▁sutra	-8.51212
▁mara	-8.51233
▁retinue	-8.51301
▁dwell	-8.51488
▁request	-8.51535
▁dream	-8.51828
▁action	-8.51982
▁result	-8.52419
owing	-8.52419
▁thinking	-8.52681
▁women	-8.5269
▁arhats	-8.52849
▁old	-8.52882
▁sandalwood	-8.52904
▁yaksa	-8.53066
▁countless	-8.53139
▁respond	-8.5344
▁off	-8.53463
▁high	-8.53466
▁spoke	-8.53949
▁aspects	-8.54099
▁palace	-8.54317
▁train	-8.54452
▁sravakas	-8.54509
▁vast	-8.54537
▁began	-8.54539
▁woman	-8.54558
▁ground	-8.54622
▁side	-8.54784
▁parents	-8.54916
▁next	-8.55239
▁maintain	-8.55329
the	-8.55406
▁naga	-8.55875
▁back	-8.55884
▁sakra	-8.55975
▁conditions	-8.56085
ship	-8.56136
▁display	-8.56196
▁cultivate	-8.56296
▁much	-8.56316
▁giving	-8.56541
▁seeing	-8.56766
▁children	-8.57399
▁exist	-8.57425
▁afflict	-8.57608
▁receive	-8.5762
▁limitless	-8.57847
▁follows	-8.57969
▁reborn	-8.58116
▁however	-8.58844
▁immeasurable	-8.58878
▁created	-8.58899
ood	-8.58966
▁house	-8.59655
▁offered	-8.59704
▁skillful	-8.59723
▁Government	-8.5979
▁pass	-8.60811
▁approach	-8.60926
▁alms	-8.61241
▁found	-8.61321
▁cut	-8.6165
▁establish	-8.61655
▁clear	-8.62086
).	-8.62199
▁night	-8.62228
▁gain	-8.6228
▁karma	-8.62343
▁alone	-8.63659
▁wife	-8.63862
▁practiced	-8.63892
▁find	-8.64113
▁characteristics	-8.64381
▁higher	-8.64426
▁devas	-8.64491
▁billion	-8.64806
▁offer	-8.64904
▁everything	-8.6518
litary	-8.65342
▁honor	-8.65417
▁convention	-8.65468
self	-8.65529
▁die	-8.65637
▁though	-8.65924
▁twenty	-8.6598
▁hearers	-8.66179
▁situated	-8.66208
▁bhiksus	-8.66217
▁need	-8.66313
▁regent	-8.66473
▁refuge	-8.66488
▁jina	-8.66519
▁kind	-8.66724
▁patience	-8.67009
▁recite	-8.6706
▁nagas	-8.67079
▁support	-8.6718
▁pay	-8.67261
▁millions	-8.67339
▁sun	-8.67496
▁difficult	-8.67524
▁objects	-8.67719
▁eighteen	-8.67819
in	-8.67891
▁afflictive	-8.6809
▁along	-8.68268
▁explained	-8.68281
▁friends	-8.68348
▁signs	-8.68487
▁underst	-8.68695
▁temple	-8.69216
▁perception	-8.69469
▁cease	-8.69563
▁al	-8.6964
▁sugata	-8.69714
▁lack	-8.69921
▁aspirations	-8.70112
▁country	-8.70607
▁meditation	-8.70856
▁hearing	-8.71055
▁girl	-8.71072
▁ways	-8.71427
▁boy	-8.71517
▁system	-8.71525
▁robes	-8.71591
▁constitute	-8.7178
▁lion	-8.72157
▁knows	-8.72188
▁root	-8.72263
▁far	-8.72416
o	-8.72419
▁rain	-8.72488
▁su	-8.72636
▁perfections	-8.72793
▁forest	-8.72966
▁use	-8.73342
▁accomplish	-8.73529
▁fear	-8.7367
▁done	-8.73915
▁land	-8.73918
▁teaches	-8.74098
▁keep	-8.74121
▁according	-8.74267
mative	-8.74531
▁sublime	-8.74732
▁learned	-8.74996
▁develop	-8.75129
▁marks	-8.75165
▁types	-8.75165
rought	-8.75215
▁achieve	-8.75296
▁nonapprehensi	-8.75309
▁protect	-8.75422
▁ripened	-8.7596
m	-8.76017
le	-8.76234
▁holy	-8.76579
▁mountains	-8.76663
▁female	-8.76756
▁voice	-8.77001
r	-8.7713
▁quickly	-8.77392
▁second	-8.77438
▁incense	-8.77669
▁deeds	-8.77776
▁reside	-8.77925
▁de	-8.7799
▁heritage	-8.78255
▁accord	-8.7843
h	-8.78461
▁hair	-8.78834
▁attainment	-8.79081
▁died	-8.79339
▁taken	-8.79369
▁armor	-8.79436
▁tongue	-8.79733
▁verse	-8.7993
▁practices	-8.8002
▁led	-8.80127
▁sand	-8.80154
▁drink	-8.80262
▁stainless	-8.80406
▁sent	-8.80452
▁nose	-8.80545
▁nam	-8.80742
ld	-8.81005
▁vajra	-8.81158
▁pleasure	-8.8118
▁aspiration	-8.81405
▁buddhafield	-8.81489
▁flower	-8.81507
▁carry	-8.81626
▁subject	-8.8184
▁serve	-8.82361
▁face	-8.82374
▁distinct	-8.82405
▁ultimate	-8.82517
▁stream	-8.82606
nt	-8.8282
▁later	-8.82828
▁follow	-8.8285
▁wishes	-8.83242
▁vision	-8.83261
an	-8.83299
▁happy	-8.83607
▁names	-8.83723
▁explain	-8.83796
▁army	-8.84084
ard	-8.84102
▁none	-8.8416
▁pain	-8.84328
▁freedom	-8.84561
▁itself	-8.84675
▁show	-8.84834
▁7	-8.84928
▁fact	-8.84931
▁rise	-8.85005
▁river	-8.85268
▁destroyed	-8.85348
▁something	-8.85349
▁spoken	-8.85369
▁moment	-8.85761
▁hold	-8.8587
▁reach	-8.86024
▁wind	-8.8607
▁worship	-8.86104
▁taste	-8.86229
▁nine	-8.8624
▁dependent	-8.86331
▁large	-8.86574
▁ganges	-8.86597
▁above	-8.86598
▁designation	-8.86953
▁bowl	-8.86991
▁whoever	-8.87039
▁making	-8.87457
3	-8.8764
▁leave	-8.87664
▁help	-8.87718
entered	-8.88049
▁small	-8.88097
▁wrong	-8.88344
▁Buddha	-8.88395
▁avalokitesvara	-8.88894
ce	-8.8893
▁reached	-8.8901
▁persons	-8.89171
▁stay	-8.89175
▁obtain	-8.89328
▁T	-8.89399
▁re	-8.89479
▁individual	-8.89571
re	-8.89814
▁constant	-8.90044
▁pratyekabuddhas	-8.90106
▁basis	-8.90266
▁religious	-8.90269
▁mother	-8.90305
▁irreversibl	-8.90394
▁provide	-8.90453
▁splendor	-8.90575
▁venerate	-8.90613
▁internal	-8.90716
▁total	-8.90723
▁today	-8.90868
▁royal	-8.91068
▁negative	-8.9123
▁garland	-8.91273
▁force	-8.9173
▁east	-8.9181
▁remember	-8.91911
▁return	-8.92122
▁ethical	-8.92253
▁srava	-8.9254
▁although	-8.92698
▁play	-8.92722
▁victorious	-8.92943
▁universal	-8.9296
▁H	-8.93036
▁color	-8.93295
▁age	-8.93362
▁longer	-8.93405
▁On	-8.93521
▁darkness	-8.9363
▁doubt	-8.93718
ver	-8.93864
▁preceptor	-8.9397
▁ascetic	-8.94384
▁trained	-8.94386
▁field	-8.94467
▁around	-8.94738
▁realize	-8.9491
sti	-8.9498
▁f	-8.95222
▁trichiliocosm	-8.95725
▁gathered	-8.95753
P	-8.95954
▁activities	-8.96094
▁courtyard	-8.96434
less	-8.96475
▁delighted	-8.96486
▁acts	-8.96716
▁displease	-8.96808
▁kimnara	-8.96893
▁calm	-8.97171
▁comes	-8.97515
▁unborn	-8.97526
▁samsara	-8.97527
▁nonexisten	-8.97761
▁arising	-8.97808
▁ordination	-8.98237
▁nonaris	-8.98449
▁reason	-8.98494
▁Mao	-8.98693
▁strong	-8.98841
▁based	-8.98928
ic	-8.9897
▁ripening	-8.99247
▁eloquence	-8.99328
▁ordinary	-8.99352
▁realized	-8.99449
▁daughters	-8.99618
▁tolerance	-8.99704
▁work	-8.9987
▁further	-8.99874
▁craving	-9.00084
▁third	-9.00135
▁rose	-9.00135
▁activity	-9.00142
▁Independence	-9.00438
▁truths	-9.00477
▁accomplished	-9.00512
▁milk	-9.00609
▁used	-9.0078
▁tell	-9.00855
▁object	-9.00874
▁terms	-9.01012
▁fundamental	-9.01201
▁Panchen	-9.01592
▁against	-9.01605
▁throne	-9.01723
IT	-9.01852
▁conditioned	-9.01865
w	-9.01867
▁addressed	-9.0217
▁perform	-9.02203
▁prophesie	-9.02384
▁fruition	-9.02494
▁applications	-9.0251
▁red	-9.02524
▁pride	-9.03068
▁attitude	-9.03071
▁stability	-9.03092
▁main	-9.03402
▁dedicate	-9.03521
▁–	-9.03815
▁ripen	-9.0383
▁unsurpassabl	-9.03848
▁According	-9.03855
▁pleasant	-9.03857
▁om	-9.03928
▁final	-9.03984
▁new	-9.04171
15	-9.0437
▁maha	-9.04447
▁History	-9.04632
▁developed	-9.04679
),	-9.04736
▁essence	-9.0497
▁acquire	-9.04977
▁However	-9.0499
▁fine	-9.05343
▁Beijing	-9.05799
▁former	-9.0606
”,	-9.0609
▁possible	-9.06192
▁whole	-9.06367
▁question	-9.06398
▁quintillion	-9.06952
▁State	-9.07293
▁Occupation	-9.07347
▁gifts	-9.07511
▁For	-9.07545
▁emanation	-9.07545
▁golden	-9.07588
▁get	-9.07628
to	-9.07649
▁eighty	-9.07736
05	-9.07831
▁previous	-9.07864
▁feel	-9.08025
▁pleased	-9.08098
▁fault	-9.08354
▁kingdom	-9.08424
he	-9.08466
▁S	-9.08511
▁eat	-9.08515
▁superior	-9.0855
little	-9.08586
c	-9.08712
▁twelve	-9.08949
▁bliss	-9.09018
▁extreme	-9.09203
▁mount	-9.09268
▁Buddhism	-9.09365
04	-9.09525
practicing	-9.09556
▁months	-9.0978
▁maitreya	-9.09791
▁analogy	-9.09795
▁answered	-9.09939
▁source	-9.10087
▁deliver	-9.10137
▁previously	-9.10468
interior	-9.10511
▁last	-9.10698
▁poor	-9.10748
like	-9.10839
▁blue	-9.11059
ment	-9.11631
▁grains	-9.11676
▁parasol	-9.11818
▁garden	-9.11819
▁monastery	-9.1183
▁causal	-9.11895
▁branch	-9.12082
▁disciples	-9.12164
▁achieved	-9.12235
▁Page	-9.12235
▁effort	-9.12669
▁elephant	-9.12675
▁purified	-9.12738
▁chapter	-9.1274
▁pray	-9.12818
▁bad	-9.12845
AM	-9.12858
11:	-9.12873
▁music	-9.12927
▁gandharvas	-9.12976
▁ago	-9.13046
▁blissful	-9.13086
▁external	-9.13129
▁felt	-9.13135
▁comprehend	-9.13138
▁mendicant	-9.13173
▁few	-9.13221
te	-9.13237
▁perseverance	-9.13498
▁grasping	-9.13568
▁produced	-9.13569
▁purification	-9.13632
▁heads	-9.13634
▁sameness	-9.13689
▁ill	-9.14312
▁protector	-9.14363
▁ears	-9.14366
▁proper	-9.14488
▁heart	-9.14594
▁blood	-9.14598
▁teachers	-9.14635
▁want	-9.14784
▁notions	-9.15001
▁burn	-9.15484
▁friend	-9.15895
▁knower	-9.15915
▁rely	-9.16478
▁instead	-9.16521
▁killed	-9.16896
▁discourse	-9.1695
▁defin	-9.16956
▁fields	-9.16965
▁pleas	-9.17338
▁depart	-9.17372
▁sakyamuni	-9.17386
▁focus	-9.17409
▁Buddhist	-9.17599
▁He	-9.17652
▁sutras	-9.17719
▁goddess	-9.17853
▁group	-9.17882
read	-9.17902
▁questions	-9.17971
▁equanimity	-9.18084
▁perfume	-9.18264
▁contemplate	-9.18406
▁grant	-9.18443
▁believe	-9.18564
▁appearance	-9.18652
▁rajagrha	-9.18702
▁narayana	-9.18703
▁gained	-9.1881
▁realization	-9.18869
▁dwelling	-9.19027
▁monasteries	-9.1915
▁peaceful	-9.19159
▁hard	-9.19364
▁revealed	-9.19418
▁intention	-9.19429
and	-9.19594
▁fetter	-9.19711
▁pleasures	-9.19744
▁smell	-9.19918
▁bear	-9.20078
▁observe	-9.20126
▁silver	-9.20161
idden	-9.20277
▁nonentit	-9.2038
▁Empire	-9.20953
▁grove	-9.20958
▁transcend	-9.21184
▁touch	-9.21201
▁disappear	-9.21249
▁welfare	-9.21411
▁karmic	-9.21411
EN	-9.21802
▁surrounded	-9.21928
▁direction	-9.21953
▁loving	-9.21956
▁returned	-9.22157
▁illness	-9.22248
▁ultimately	-9.22284
▁animals	-9.22426
▁abandoned	-9.22432
ve	-9.22466
l	-9.22544
▁cloud	-9.22544
ers	-9.22765
▁proceed	-9.22803
▁vinaya	-9.22938
▁India	-9.23122
▁places	-9.23161
▁tru	-9.23183
▁But	-9.2324
▁liberate	-9.23318
▁allow	-9.23425
▁inherent	-9.23467
▁emancipat	-9.23586
▁discern	-9.2367
▁yourself	-9.23953
▁yes	-9.24017
▁arises	-9.24203
▁best	-9.24629
▁butter	-9.24728
▁As	-9.24856
▁cyclic	-9.2514
▁affliction	-9.25286
▁freed	-9.25525
▁householders	-9.25576
▁impermanent	-9.25622
▁limb	-9.25655
▁immediately	-9.25707
▁daughter	-9.25717
▁powerful	-9.26166
▁accordingly	-9.26586
▁magical	-9.26669
▁declared	-9.26822
as	-9.26877
▁lotuses	-9.27011
▁rather	-9.27077
▁seated	-9.27257
▁systems	-9.27426
▁thirtytwo	-9.27549
▁perceiv	-9.27564
▁reverend	-9.27565
▁flesh	-9.27591
▁upper	-9.27637
▁behold	-9.27653
▁attainments	-9.27764
▁remained	-9.27779
▁sages	-9.2802
▁account	-9.28034
▁rejoice	-9.28042
▁destroy	-9.28077
▁roar	-9.28102
▁ministers	-9.28122
▁remains	-9.2817
▁dispatche	-9.28391
▁inexpressibl	-9.28477
▁secret	-9.29005
▁air	-9.29013
by	-9.29022
▁There	-9.29234
ry	-9.29253
▁open	-9.29497
▁gathering	-9.29636
▁sister	-9.29697
ful	-9.29838
▁P	-9.29946
▁queen	-9.30016
▁renown	-9.3002
▁uphold	-9.30134
▁etc	-9.30157
ory	-9.30297
▁walk	-9.30464
taking	-9.30616
▁shoulder	-9.30776
▁coming	-9.30912
▁youth	-9.30986
▁intrinsic	-9.31015
upon	-9.31307
▁maras	-9.31315
▁oh	-9.31392
▁authorities	-9.31519
▁TAR	-9.31524
▁formed	-9.31564
▁leader	-9.31858
▁consist	-9.32038
▁performed	-9.32177
ive	-9.3223
▁continued	-9.32254
▁contact	-9.32282
▁powder	-9.32559
▁Emperor	-9.32573
▁fill	-9.32718
▁material	-9.32786
▁accomplishment	-9.32809
▁appropriate	-9.32825
▁joyful	-9.32841
void	-9.32861
▁THE	-9.33043
▁inside	-9.33075
▁Revolution	-9.33171
▁resid	-9.33632
▁fell	-9.33677
▁goes	-9.33731
▁suffer	-9.33737
st	-9.33797
▁People	-9.33914
▁prostrate	-9.33988
led	-9.33999
▁held	-9.34071
▁Central	-9.34134
▁thirty	-9.34247
▁stupa	-9.3433
▁becomes	-9.34716
▁accumulation	-9.34866
▁delusion	-9.34954
▁reflect	-9.3504
▁benefits	-9.3508
▁actualize	-9.35121
▁committed	-9.35247
▁methods	-9.35253
▁If	-9.35299
▁near	-9.35321
▁prepared	-9.3537
▁join	-9.35454
▁attend	-9.35617
▁womb	-9.35647
▁drdhamati	-9.35651
▁impossible	-9.35651
▁behind	-9.35656
▁control	-9.35728
▁overcome	-9.35833
▁create	-9.35908
▁lifespan	-9.3618
▁CPC	-9.36187
▁matter	-9.36474
▁torment	-9.36509
▁sakya	-9.36569
▁condition	-9.36578
▁unconditioned	-9.36719
▁void	-9.36727
▁Khan	-9.36732
▁boundless	-9.3677
▁special	-9.36782
is	-9.3682
▁novice	-9.36953
▁levels	-9.37349
▁saha	-9.37443
▁factors	-9.37558
ther	-9.37566
▁attach	-9.37719
▁word	-9.37798
▁formless	-9.38031
▁tame	-9.38044
▁holding	-9.38076
▁M	-9.38248
▁everyone	-9.38402
joined	-9.38437
ern	-9.38621
▁entities	-9.38709
▁spread	-9.38786
▁impermanence	-9.389
▁ever	-9.38916
▁delightful	-9.38939
▁sight	-9.38963
▁kindness	-9.39001
rays	-9.39302
▁sitting	-9.39449
▁restraint	-9.39499
▁superknowledges	-9.396
▁story	-9.39615
▁gift	-9.3973
▁either	-9.3981
▁scatter	-9.39843
▁jambudvipa	-9.39964
▁cloth	-9.39969
or	-9.40091
▁ordained	-9.40117
vaha	-9.40207
▁instructed	-9.40332
▁domain	-9.40394
▁At	-9.40469
raja	-9.4047
▁elephants	-9.40488
▁trillion	-9.40598
▁bow	-9.4065
covered	-9.40804
▁Han	-9.4083
lessness	-9.40915
▁important	-9.41075
▁dispatch	-9.4122
▁sights	-9.41263
▁doubts	-9.41501
▁emerge	-9.41536
▁intelligence	-9.41634
▁front	-9.41654
▁merchants	-9.41659
▁discernment	-9.41731
urthermore	-9.41734
▁clothing	-9.41755
▁victory	-9.41816
▁greater	-9.4184
▁countries	-9.42222
▁bhagavat	-9.42361
▁pursue	-9.42397
▁directly	-9.42428
bhuti	-9.42517
▁lamp	-9.42595
est	-9.42602
▁guard	-9.42641
▁swift	-9.42755
▁origination	-9.42822
▁ritual	-9.43023
▁center	-9.43312
▁illusion	-9.43329
▁anywhere	-9.43344
▁relative	-9.43526
▁becom	-9.43596
▁don	-9.43621
▁meditate	-9.43665
▁instructions	-9.43695
▁obtained	-9.43713
▁Great	-9.4375
▁absorptions	-9.43817
▁expert	-9.43839
▁precepts	-9.4395
▁speaking	-9.43978
▁conceived	-9.44141
▁south	-9.44263
▁disappeared	-9.44396
▁express	-9.44425
▁forces	-9.44508
▁government	-9.4453
▁arose	-9.44539
▁seed	-9.44568
▁Cultur	-9.44627
▁accumulated	-9.44667
▁engaged	-9.4469
▁lay	-9.44758
▁alas	-9.44791
▁wood	-9.44795
▁victor	-9.44825
▁elder	-9.44848
▁shine	-9.44973
▁destruction	-9.45079
▁military	-9.45119
▁retain	-9.45126
▁sever	-9.45237
▁avoid	-9.45292
▁class	-9.45361
▁rule	-9.45388
▁prais	-9.45802
three	-9.45976
▁inner	-9.45978
▁collection	-9.4614
▁started	-9.46179
▁generated	-9.46185
▁equipoise	-9.46215
▁paths	-9.4655
u	-9.46708
▁brother	-9.46713
▁D	-9.46984
▁feeling	-9.47028
▁black	-9.47046
▁particular	-9.47276
▁method	-9.47277
▁hero	-9.47309
▁beginning	-9.47387
▁relations	-9.47406
▁medicine	-9.4744
▁2	-9.47514
▁trust	-9.47702
▁local	-9.47768
▁smile	-9.47866
▁religion	-9.47922
▁whatsoever	-9.47996
▁maturity	-9.48086
▁gate	-9.48178
▁applied	-9.48208
▁gentle	-9.48318
▁venerat	-9.48364
▁apart	-9.48561
▁troops	-9.48596
▁exalted	-9.48613
▁When	-9.48661
▁gautama	-9.48674
▁banners	-9.48801
▁increase	-9.48881
▁learning	-9.48967
▁hells	-9.49008
▁population	-9.49192
▁substance	-9.49196
▁senses	-9.49198
▁fearlessness	-9.49242
▁peak	-9.49381
▁indra	-9.49632
▁apply	-9.49758
▁middle	-9.49808
▁majesty	-9.49901
▁horses	-9.49971
▁attendant	-9.50034
▁reject	-9.50116
ation	-9.50122
▁receiv	-9.50199
▁omniscien	-9.50408
▁cycle	-9.50423
▁illuminat	-9.50449
▁miracles	-9.50471
▁intent	-9.50485
▁call	-9.50558
▁inquire	-9.50661
▁spirits	-9.50873
▁crown	-9.509
▁kill	-9.50907
▁transcendence	-9.51058
▁E	-9.51189
▁officials	-9.51195
▁clothes	-9.5124
▁proportion	-9.51241
▁makes	-9.51294
▁sit	-9.51358
▁move	-9.51447
▁foot	-9.51544
▁expanse	-9.51643
▁arms	-9.51704
▁answer	-9.51993
▁concepts	-9.52236
▁abodes	-9.52255
▁PRC	-9.52269
▁lions	-9.52298
▁composite	-9.52418
▁points	-9.5254
▁followers	-9.52558
▁jeta	-9.5275
▁reveal	-9.52759
▁animal	-9.52834
▁separate	-9.52881
▁resolve	-9.53065
▁diligent	-9.53293
▁C	-9.53461
▁false	-9.5359
▁demigods	-9.5371
L	-9.53997
▁nei	-9.54145
▁phenomenon	-9.54155
▁grass	-9.54178
▁thing	-9.54188
▁command	-9.54322
▁hum	-9.54361
▁rivers	-9.54884
▁produce	-9.54885
▁poison	-9.55155
▁year	-9.55177
▁send	-9.55238
▁absolute	-9.55291
▁defilement	-9.55397
▁prosperity	-9.55433
▁sphere	-9.55459
▁treasure	-9.55491
▁north	-9.55567
▁prayers	-9.55585
ish	-9.55602
▁sleep	-9.55622
▁village	-9.55951
▁Mongols	-9.56047
▁inferior	-9.56068
▁garuda	-9.56082
▁scent	-9.56241
▁array	-9.5625
▁instruments	-9.56253
▁respectful	-9.56316
▁blind	-9.56673
▁yellow	-9.56717
▁British	-9.56751
▁virtues	-9.56888
▁formation	-9.56994
▁weapons	-9.57063
▁kne	-9.57213
▁bhadrapala	-9.57372
▁d	-9.57558
▁descend	-9.57647
▁cognition	-9.5765
ika	-9.57663
▁w	-9.57668
not	-9.57827
▁sal	-9.57923
▁B	-9.57929
▁monarch	-9.5793
▁lost	-9.58158
▁vow	-9.58197
▁region	-9.58227
▁direct	-9.58374
▁disturb	-9.58465
▁chariot	-9.5869
▁garment	-9.58694
▁century	-9.58708
▁unequal	-9.58762
▁klesa	-9.58811
▁deep	-9.58857
▁distance	-9.5893
▁dharmas	-9.58992
▁subtle	-9.59072
▁park	-9.59095
▁stop	-9.59182
▁immaculate	-9.59358
▁concludes	-9.59537
▁engag	-9.5979
▁ear	-9.59815
▁Mongolia	-9.59987
▁characteristic	-9.60031
▁leaves	-9.60081
▁asuras	-9.60164
▁Manchu	-9.60169
▁mundane	-9.60184
▁short	-9.60191
▁ornaments	-9.60288
▁servants	-9.60359
▁guides	-9.6045
▁abode	-9.60746
▁permanent	-9.60784
▁study	-9.60799
▁exhausted	-9.60899
▁inspire	-9.60955
▁bound	-9.61043
S	-9.61178
▁bhiksu	-9.61278
▁universes	-9.61308
▁proclaim	-9.61328
▁followed	-9.61352
▁charioteer	-9.61386
▁signlessness	-9.6142
▁language	-9.61487
most	-9.61609
▁interest	-9.61651
▁natural	-9.61774
▁continue	-9.61777
▁passion	-9.61961
▁anguish	-9.62077
▁adopted	-9.62112
▁bases	-9.62114
▁soldiers	-9.62158
▁princes	-9.62282
distant	-9.62294
nvirtuous	-9.62419
▁associated	-9.62662
▁common	-9.62737
▁ajita	-9.6279
▁exactly	-9.62802
▁fearless	-9.62809
▁kaus	-9.62824
▁war	-9.62843
▁accepted	-9.63254
▁emerged	-9.63276
▁possesse	-9.63383
ng	-9.63438
▁suddhodana	-9.63454
▁caus	-9.63472
▁foremost	-9.63474
▁latter	-9.63485
▁compassionate	-9.63491
▁heap	-9.6378
▁attention	-9.64179
▁aware	-9.6437
▁doing	-9.64434
▁demons	-9.64764
▁inclinations	-9.64946
▁vessel	-9.64948
▁allowed	-9.64974
▁creatures	-9.65088
▁illus	-9.65141
▁robe	-9.65193
▁reflection	-9.65214
tial	-9.65265
▁2008	-9.65307
▁concept	-9.6554
▁proclaimed	-9.65555
▁varanasi	-9.65566
▁ensure	-9.65593
▁period	-9.65642
▁cool	-9.65721
▁bright	-9.65927
ting	-9.66144
▁meal	-9.66161
▁sixty	-9.66165
▁h	-9.66281
▁refrain	-9.66289
▁sorrow	-9.66303
▁sickness	-9.6631
▁defilements	-9.66331
▁law	-9.6634
▁half	-9.66463
▁towns	-9.66714
▁outside	-9.66745
▁instant	-9.66929
▁grew	-9.67009
▁Therefore	-9.67009
▁brahmadatta	-9.67014
▁purify	-9.67023
▁extent	-9.67028
▁male	-9.67185
▁perfected	-9.6746
▁cross	-9.67507
▁See	-9.67621
▁union	-9.67703
▁paid	-9.67821
▁1988	-9.67844
ya	-9.68114
▁mine	-9.68243
▁leaders	-9.68274
▁thorough	-9.68455
one	-9.68467
▁read	-9.6896
▁regarded	-9.69165
▁ghee	-9.69187
▁Thus	-9.69217
▁relatives	-9.69228
▁sources	-9.69384
▁gems	-9.69534
▁dreams	-9.69659
▁dharmabhanaka	-9.69932
▁service	-9.7015
▁influence	-9.7016
▁strive	-9.70218
O	-9.70302
▁lords	-9.70347
▁1	-9.70399
▁morning	-9.70684
▁cities	-9.70727
▁cultivat	-9.70762
▁adhere	-9.70877
▁conceptual	-9.70999
▁wear	-9.71063
▁area	-9.71107
▁areas	-9.71146
▁described	-9.71182
at	-9.71214
▁vows	-9.71376
▁stoo	-9.71386
▁candraprabha	-9.71431
▁complexion	-9.71447
▁wholesome	-9.71451
▁rejoiced	-9.71474
▁dust	-9.71494
▁term	-9.71495
▁limit	-9.71539
▁occur	-9.71626
▁sweet	-9.71736
▁partake	-9.71864
▁members	-9.71878
▁lands	-9.71942
▁glori	-9.7196
▁practitioners	-9.72127
▁dreadful	-9.72186
▁gandharva	-9.72382
▁amount	-9.72508
▁road	-9.72549
▁care	-9.72742
▁stand	-9.72746
▁stated	-9.72906
▁solid	-9.72938
▁analysis	-9.72954
▁deva	-9.73081
▁meet	-9.73125
▁generate	-9.73213
▁syllables	-9.73221
turned	-9.73453
▁inexhaustibl	-9.7368
▁ability	-9.73707
▁Dharma	-9.73714
▁unimpeded	-9.73721
▁built	-9.73818
▁thirst	-9.7392
▁caste	-9.73931
▁sakyas	-9.7397
▁visit	-9.74061
▁One	-9.7417
▁witness	-9.74208
▁relinquish	-9.74451
▁families	-9.74494
▁grasped	-9.74512
▁O	-9.74564
▁wealthy	-9.74678
▁spirit	-9.74683
▁detail	-9.74874
▁international	-9.75296
▁formations	-9.75361
▁deer	-9.75413
▁observ	-9.75413
fter	-9.75573
ally	-9.75576
▁associate	-9.75639
▁relate	-9.75749
▁sick	-9.76076
▁hardship	-9.76093
▁measure	-9.76166
▁says	-9.76261
▁Some	-9.76323
▁mouth	-9.76374
accompanied	-9.76397
▁results	-9.7657
▁development	-9.76638
▁wander	-9.76748
▁tied	-9.76912
▁eliminate	-9.76969
▁features	-9.76985
▁th	-9.76995
▁recit	-9.77061
▁exert	-9.77299
▁Ky	-9.7743
▁masters	-9.77506
▁N	-9.77546
▁students	-9.77558
▁health	-9.7757
▁solitude	-9.77655
▁contain	-9.77659
▁quality	-9.7773
▁gather	-9.7776
▁sole	-9.7781
▁devoted	-9.77817
▁burned	-9.77952
▁austerit	-9.78046
placed	-9.78239
▁hung	-9.78247
▁imagine	-9.78405
▁Shakabpa	-9.78461
▁unfathomabl	-9.78463
▁foreign	-9.78539
▁independence	-9.78605
▁adopt	-9.78745
▁circle	-9.78774
▁actually	-9.78789
over	-9.7879
id	-9.78828
▁instruction	-9.78835
▁foundation	-9.78853
▁position	-9.78854
▁knee	-9.78891
▁fulfill	-9.78895
▁talk	-9.78923
▁provid	-9.78954
▁oneself	-9.79125
▁extra	-9.79152
▁enough	-9.79274
▁encounter	-9.79297
▁verbal	-9.79297
▁less	-9.79301
▁reference	-9.7931
▁bestow	-9.79412
▁grain	-9.79583
▁lacking	-9.79619
▁progress	-9.79647
▁task	-9.79842
▁dedication	-9.80173
▁count	-9.80192
▁early	-9.80627
▁otherwise	-9.80872
us	-9.80909
▁renunciation	-9.80945
▁Mel	-9.80951
▁Kham	-9.80999
▁parts	-9.81042
▁prophec	-9.81051
▁seeds	-9.81122
▁illuminate	-9.81217
▁exclusive	-9.81435
▁iron	-9.81591
old	-9.81659
▁change	-9.81684
ant	-9.81701
The	-9.81742
tion	-9.81752
▁seal	-9.81753
▁opportunity	-9.81755
▁fifty	-9.81756
▁attentive	-9.8178
ka	-9.81977
▁equality	-9.81985
▁afraid	-9.82075
▁letters	-9.82238
▁text	-9.82307
▁involve	-9.82512
▁bodhi	-9.82554
▁sangharaksita	-9.82596
▁west	-9.82619
▁prostrations	-9.82634
▁2005.	-9.82671
▁definitive	-9.82724
▁experienced	-9.82805
▁letter	-9.82983
▁tranquil	-9.83329
▁strife	-9.8344
TH	-9.8345
▁sacrifice	-9.83535
▁10	-9.83605
▁youthful	-9.83641
▁intermedia	-9.83696
▁continent	-9.83743
▁By	-9.83784
▁tamed	-9.83965
▁standing	-9.84051
▁fortunate	-9.84065
▁fail	-9.84181
▁hatred	-9.84296
▁March	-9.84297
▁motivation	-9.84298
▁recognize	-9.8432
▁arrival	-9.8432
▁Soviet	-9.84407
▁low	-9.84427
▁mansion	-9.84741
▁finally	-9.84798
▁stain	-9.84811
▁course	-9.84851
▁licchavi	-9.85158
▁subsequent	-9.85189
▁cover	-9.85198
▁recitation	-9.85201
▁sixteen	-9.85207
▁villages	-9.85207
▁protection	-9.85292
it	-9.85432
NG	-9.85901
▁beryl	-9.86029
▁unpleasant	-9.86031
▁content	-9.86051
▁uttara	-9.86129
▁confidence	-9.86161
▁His	-9.86414
▁type	-9.86465
▁statement	-9.86597
▁demonstrate	-9.8665
▁destitut	-9.86695
▁grasp	-9.86695
▁mass	-9.86745
▁size	-9.86768
▁independent	-9.86815
▁wished	-9.86822
▁conviction	-9.86912
▁run	-9.86946
▁arisen	-9.86972
▁defeat	-9.86985
▁relics	-9.87077
▁holder	-9.87169
being	-9.87257
▁carrie	-9.87515
▁draw	-9.87682
▁idea	-9.8772
▁3	-9.87739
▁personal	-9.88029
▁enjoyed	-9.88066
▁border	-9.88298
▁reasons	-9.88323
▁steadfast	-9.88683
▁assumptions	-9.88688
▁Committee	-9.88706
▁PA	-9.8871
▁unique	-9.88751
▁magnificent	-9.8876
tine	-9.88916
▁tendenc	-9.88917
▁absorbed	-9.88939
▁disciplined	-9.88988
▁2007	-9.89023
▁purpose	-9.8907
▁application	-9.89141
▁elaborate	-9.89159
▁oil	-9.89293
▁We	-9.89336
▁political	-9.89366
▁sign	-9.89476
▁weak	-9.89501
▁embrace	-9.89594
▁regret	-9.89616
▁fame	-9.89772
company	-9.89872
▁sure	-9.89977
▁forests	-9.90141
▁pearls	-9.90164
▁takes	-9.90205
▁fragran	-9.90384
LL	-9.90492
▁mahayana	-9.90496
▁fortune	-9.9054
▁Party	-9.90596
▁Mongolian	-9.90631
▁flags	-9.9071
▁engender	-9.90717
▁nuns	-9.91117
▁colors	-9.91135
▁killing	-9.91202
▁close	-9.91295
▁obscurations	-9.913
▁recognized	-9.91328
▁These	-9.91396
▁compounded	-9.91446
▁escape	-9.91464
mati	-9.91514
▁engagement	-9.91577
▁throw	-9.9178
▁break	-9.91881
▁1959	-9.91958
▁encourage	-9.91974
aging	-9.92077
▁start	-9.92136
▁Russian	-9.92211
▁All	-9.92243
UM	-9.92295
INATI	-9.9231
▁1999	-9.92329
▁parinirvana	-9.92336
▁bhaisajya	-9.9235
▁deities	-9.92353
▁retention	-9.92356
▁clan	-9.92381
maudgalyayana	-9.92512
IGHT	-9.92623
hip	-9.92684
▁actualized	-9.92732
▁extend	-9.92749
edong	-9.92789
▁message	-9.92916
▁process	-9.93114
▁stable	-9.93131
▁birds	-9.93208
MENT	-9.93245
▁maturation	-9.93272
▁bodhisatva	-9.93327
▁defeated	-9.9334
▁dying	-9.9341
▁classes	-9.93479
▁wonderful	-9.93482
▁residence	-9.93537
▁permission	-9.93594
▁diminish	-9.93617
▁multitude	-9.93692
▁distinguish	-9.93718
▁wild	-9.93757
▁cling	-9.94015
▁unhindered	-9.94216
▁entry	-9.94247
▁PLA	-9.94256
▁enemies	-9.94311
▁aspire	-9.94333
▁possessions	-9.94483
▁needed	-9.94515
▁vimala	-9.94628
▁nonvirtue	-9.94764
▁nondual	-9.94784
▁grow	-9.94833
▁expression	-9.94834
▁construction	-9.94856
▁endless	-9.94938
▁dis	-9.9505
▁shin	-9.95091
▁crystal	-9.95165
▁echo	-9.95177
▁entrust	-9.9519
pa	-9.95279
▁provisions	-9.95321
▁meaningful	-9.95407
▁dry	-9.95553
▁conflict	-9.95778
▁tantra	-9.95825
▁door	-9.95965
▁odor	-9.96089
▁garments	-9.96122
▁glory	-9.96223
▁lightning	-9.96229
▁protected	-9.96324
▁vaisravana	-9.96364
▁extensively	-9.96383
▁ease	-9.96478
▁reign	-9.96653
entities	-9.96796
▁resemble	-9.96803
ty	-9.96968
▁Russia	-9.96972
▁hence	-9.96983
▁residing	-9.97063
▁capital	-9.97067
▁everywhere	-9.97105
▁abundant	-9.97109
▁exhaustion	-9.97144
▁awareness	-9.97188
▁pursuit	-9.97212
▁continuously	-9.97217
▁soft	-9.97338
▁modalit	-9.9738
▁vehicles	-9.9738
▁legs	-9.97441
cient	-9.97517
▁crowd	-9.97557
▁materials	-9.97666
▁write	-9.97683
▁ornament	-9.97732
▁super	-9.97818
hanov	-9.97897
▁c	-9.97999
of	-9.98061
▁tirthika	-9.98078
▁easy	-9.98123
▁tamer	-9.982
▁entity	-9.98254
▁flow	-9.9827
uan	-9.98291
▁rice	-9.98355
vana	-9.98425
▁meeting	-9.98612
▁forty	-9.98717
▁positive	-9.98798
▁recollection	-9.98863
▁try	-9.98871
▁sometime	-9.98985
▁habitual	-9.99072
▁authority	-9.99073
▁renunciant	-9.99075
▁eventually	-9.99075
▁incantation	-9.99141
▁commit	-9.99207
▁And	-9.99285
mahoragas	-9.99333
▁r	-9.99356
▁druma	-9.99365
▁revere	-9.99529
▁sea	-9.99728
▁banner	-9.99817
▁turning	-9.99821
cy	-9.99866
▁status	-10
▁radiant	-10.0008
▁dedicat	-10.0012
▁dark	-10.0015
▁Agreement	-10.0017
▁star	-10.0019
▁Amdo	-10.0022
▁fulfilled	-10.0022
sensory	-10.0025
▁songs	-10.0031
▁raksasa	-10.0042
▁met	-10.005
▁flourish	-10.0051
ssed	-10.0055
▁relat	-10.0065
▁acquired	-10.0066
▁horse	-10.008
▁writing	-10.0082
▁conquered	-10.0084
▁describe	-10.0087
▁sarvani	-10.0108
▁affairs	-10.011
▁maiden	-10.0111
▁arrive	-10.0117
▁decided	-10.0125
▁national	-10.014
▁syllable	-10.0141
▁general	-10.0143
▁lifetimes	-10.0185
▁lake	-10.0185
▁monastic	-10.0186
▁livelihood	-10.0188
▁individuals	-10.0203
varanaviskambhin	-10.0207
▁Monastery	-10.021
▁community	-10.021
▁earlier	-10.021
▁ordinand	-10.021
▁minor	-10.021
▁sesame	-10.021
▁presented	-10.0216
▁wide	-10.0233
▁addition	-10.025
▁eating	-10.0262
▁enjoyment	-10.0262
▁lineage	-10.0296
▁uprising	-10.0297
▁Fro	-10.0303
▁nectar	-10.0313
▁arrogance	-10.0313
▁sprout	-10.0313
▁unceasing	-10.0313
▁filth	-10.0317
▁devotion	-10.0317
▁better	-10.032
▁creation	-10.0332
▁incant	-10.0334
▁search	-10.0353
▁actual	-10.036
▁official	-10.0364
▁psycho	-10.0372
▁removed	-10.0376
▁liberations	-10.038
▁chief	-10.0383
ou	-10.0384
▁principle	-10.0389
▁situation	-10.0392
▁firm	-10.0394
▁visual	-10.0414
▁needs	-10.0414
▁shortcomings	-10.0417
physical	-10.0418
▁sir	-10.0419
▁ceased	-10.0419
▁patient	-10.0421
▁ruler	-10.0432
prabha	-10.0435
▁enduring	-10.0438
▁guardians	-10.0451
nce	-10.0459
▁completed	-10.0474
▁rare	-10.0485
▁Nepal	-10.0516
▁profit	-10.0519
▁major	-10.052
▁history	-10.0538
▁written	-10.0542
that	-10.0544
▁prevent	-10.0559
▁stones	-10.0579
▁happen	-10.0583
▁intense	-10.0589
▁central	-10.0594
▁extensive	-10.0601
▁sword	-10.0605
▁transformed	-10.0606
▁mantras	-10.0611
▁skin	-10.0626
▁realiz	-10.0629
▁marvel	-10.0631
uring	-10.0631
▁invited	-10.0658
▁U	-10.0661
▁recollect	-10.0662
▁education	-10.0665
▁tri	-10.0671
▁meru	-10.0681
▁Then	-10.0697
▁divisions	-10.0707
▁drum	-10.0721
▁endure	-10.0734
▁kolita	-10.0736
▁candamaharosana	-10.0736
▁melodious	-10.0737
▁wicked	-10.0748
▁occurred	-10.0749
▁begging	-10.0755
▁town	-10.0756
▁aim	-10.0756
▁ointment	-10.0759
▁crossed	-10.0762
▁satisfied	-10.077
▁script	-10.0771
▁ha	-10.0776
p	-10.0779
▁Indian	-10.0781
▁serv	-10.0782
▁cla	-10.0786
▁exertion	-10.0795
▁tens	-10.0799
▁flames	-10.0803
▁companions	-10.0806
▁agreement	-10.0823
cross	-10.0829
▁therein	-10.0832
▁prayer	-10.0833
▁occasion	-10.0835
▁Gyatso	-10.0845
▁clearly	-10.0845
▁especially	-10.0845
▁feast	-10.0846
▁pacify	-10.0849
ang	-10.0849
▁priests	-10.0852
▁movement	-10.0857
▁arrested	-10.0883
▁connected	-10.0904
▁donn	-10.0907
▁prosper	-10.0908
▁shore	-10.0918
▁bhuta	-10.0922
▁assume	-10.0934
▁struggle	-10.0941
▁prophes	-10.0947
▁sharp	-10.0951
g	-10.0953
▁foolish	-10.0955
▁tangible	-10.0957
▁territory	-10.0958
▁examine	-10.0963
▁precisely	-10.0963
▁dispel	-10.0974
▁longing	-10.0977
▁yog	-10.0983
▁pieces	-10.1005
▁decline	-10.1015
▁transform	-10.1015
▁sort	-10.1019
▁transmigrate	-10.103
▁mention	-10.1032
▁refers	-10.1034
▁share	-10.1038
▁sensation	-10.1047
▁coral	-10.105
▁conventional	-10.1052
▁events	-10.1053
▁Shakya	-10.1066
▁magadha	-10.1068
▁conquer	-10.1072
▁possession	-10.1087
ility	-10.1092
▁seized	-10.1093
▁meant	-10.1115
▁conception	-10.1122
▁stupas	-10.1125
▁learn	-10.1131
▁approache	-10.1137
hook	-10.1139
▁wanted	-10.1158
▁cultivation	-10.116
▁pris	-10.1171
Skt	-10.1176
▁auspicious	-10.1176
▁devadatta	-10.1179
▁variety	-10.1179
▁summon	-10.1181
▁bondage	-10.1184
▁vajrapani	-10.119
▁lies	-10.121
▁pore	-10.1211
▁illusions	-10.1216
▁L	-10.1221
▁include	-10.1227
▁sufferings	-10.1227
▁remove	-10.1236
▁string	-10.124
▁foods	-10.1241
▁mix	-10.1252
mundane	-10.1258
▁luminous	-10.1292
▁physician	-10.1292
▁necessary	-10.1292
▁behalf	-10.1296
▁recognition	-10.1301
▁begin	-10.1303
▁feudal	-10.1312
▁joyous	-10.1318
▁20	-10.1319
▁sumeru	-10.1327
▁tradition	-10.1335
▁malic	-10.1344
▁ratna	-10.135
▁accumulations	-10.1352
▁supra	-10.1369
▁minister	-10.1391
▁moved	-10.1402
▁primordial	-10.141
▁rebirths	-10.1423
▁circumstances	-10.1427
▁1996	-10.1432
▁dear	-10.1439
▁links	-10.1449
▁nonconceptual	-10.147
▁regress	-10.1471
▁celebrat	-10.1473
▁fled	-10.1478
▁majest	-10.1503
▁Liberation	-10.1523
▁akasagarbha	-10.1523
▁kept	-10.1523
▁policy	-10.1524
▁terrifying	-10.1526
▁location	-10.153
▁adornment	-10.1531
▁resound	-10.1538
▁deity	-10.1539
▁distress	-10.1546
▁amazing	-10.155
▁lose	-10.1552
f	-10.1591
▁emerg	-10.1592
kirti	-10.1593
▁cure	-10.1594
▁disease	-10.1626
▁vanquish	-10.1626
▁5	-10.1626
▁mothers	-10.1628
▁steps	-10.1629
▁angr	-10.1629
▁Republic	-10.1636
▁Manchus	-10.1637
▁overjoyed	-10.1641
▁upatisya	-10.1641
▁padmasrigarbha	-10.1641
▁diverse	-10.1643
▁equilibrium	-10.1644
▁4	-10.1649
▁blazing	-10.1649
▁fit	-10.165
▁diseases	-10.1656
▁kn	-10.1663
▁naturally	-10.169
▁ray	-10.1697
▁fingers	-10.171
▁statues	-10.171
▁granted	-10.1741
▁drums	-10.1747
ative	-10.1749
▁schools	-10.1749
▁proud	-10.176
▁hesitation	-10.176
▁reforms	-10.1766
▁protectors	-10.177
▁se	-10.1783
▁conch	-10.1785
▁studie	-10.1802
▁depend	-10.1815
▁scriptures	-10.1819
▁merits	-10.1819
▁maintained	-10.1839
▁properly	-10.1839
colored	-10.1849
▁yama	-10.1853
▁undertake	-10.1854
▁rich	-10.1871
▁aspect	-10.1873
li	-10.1878
ise	-10.188
frightened	-10.1887
▁silk	-10.1888
man	-10.1893
▁designated	-10.1898
urt	-10.1913
▁bones	-10.1915
▁medicines	-10.1916
▁pull	-10.1917
▁sustain	-10.1922
▁sought	-10.193
▁An	-10.1937
▁renounce	-10.1937
ew	-10.1964
▁2006	-10.1968
nts	-10.1968
▁homes	-10.1974
▁occurs	-10.1975
particularly	-10.1982
▁title	-10.199
▁prasenajit	-10.2002
▁bodhicitta	-10.2002
kimnaras	-10.2002
▁mentally	-10.2004
▁14	-10.2008
▁month	-10.201
▁forsake	-10.2015
▁mindful	-10.2027
▁broken	-10.2084
ted	-10.2097
version	-10.21
▁happened	-10.21
▁corpse	-10.2111
▁miracle	-10.2116
▁kapila	-10.2118
rew	-10.2121
gged	-10.2124
▁Sichuan	-10.2125
▁Walt	-10.2126
▁big	-10.2126
▁money	-10.2129
▁leadership	-10.2131
nko	-10.2137
▁dead	-10.214
▁announced	-10.2145
▁aside	-10.2155
▁stayed	-10.2157
▁peasants	-10.2166
▁suitable	-10.218
▁To	-10.2185
▁suppose	-10.2191
outer	-10.2202
▁release	-10.2221
natural	-10.2226
▁riches	-10.2235
▁entrance	-10.2241
▁houses	-10.2244
▁battle	-10.2246
▁engendered	-10.2247
▁anathapindada	-10.2251
▁aggregate	-10.2251
▁heat	-10.2278
pressed	-10.2287
▁visualize	-10.2307
▁emanate	-10.2345
▁temples	-10.2351
▁store	-10.2355
▁clean	-10.2371
▁traditional	-10.2372
▁merchant	-10.2374
▁priest	-10.2375
▁Communist	-10.2375
▁contemplation	-10.2376
▁enemy	-10.2377
▁Chapter	-10.2377
▁ceremony	-10.2377
▁mirage	-10.2378
▁endeavor	-10.2379
▁Path	-10.2379
▁consent	-10.2381
▁silent	-10.2383
▁enable	-10.2384
▁length	-10.2385
▁mandala	-10.2388
▁carri	-10.2388
▁favor	-10.2399
▁cold	-10.2401
▁discrimination	-10.2404
fulfill	-10.2404
▁leav	-10.2404
▁range	-10.2404
sam	-10.241
▁grounds	-10.2429
▁salt	-10.2431
truck	-10.2442
▁silence	-10.2446
▁holders	-10.245
▁brahmas	-10.2458
▁fixate	-10.2464
▁bl	-10.2466
▁yojana	-10.2505
▁mirror	-10.2505
▁Holiness	-10.2505
▁summer	-10.2506
▁inconceivab	-10.2515
▁behavior	-10.2517
▁permitted	-10.2517
▁below	-10.2519
▁emanat	-10.2523
▁arranged	-10.2543
served	-10.2554
▁attract	-10.2582
▁weary	-10.2599
▁conferr	-10.2599
▁images	-10.2609
rely	-10.2623
▁regions	-10.2624
▁success	-10.2628
▁compare	-10.2635
▁envy	-10.2635
▁reverence	-10.2637
▁assemblies	-10.2637
▁satisfy	-10.2637
▁Middl	-10.2638
▁relation	-10.264
▁culture	-10.2644
all	-10.265
ary	-10.2654
▁song	-10.2664
▁armed	-10.2669
celes	-10.267
▁1997	-10.2673
▁social	-10.2677
F	-10.2706
four	-10.2709
▁veda	-10.2714
I	-10.2726
▁declare	-10.2744
▁bimbisara	-10.2767
▁beneficial	-10.277
▁context	-10.277
▁charge	-10.2775
▁candra	-10.2782
ri	-10.2782
▁reform	-10.2788
▁fast	-10.2817
vati	-10.2829
▁experiences	-10.2847
▁vessels	-10.2882
such	-10.2891
▁destin	-10.2892
▁eliminated	-10.2898
▁Smith	-10.29
▁ambrosia	-10.29
▁mahausadhi	-10.29
▁radiance	-10.29
▁propaganda	-10.29
▁fierce	-10.2903
▁pillar	-10.2904
▁poisonous	-10.2908
▁belong	-10.2909
▁efforts	-10.2917
▁refine	-10.2918
▁moving	-10.2921
▁harmful	-10.2922
▁specific	-10.2928
▁comprise	-10.2931
▁May	-10.2934
▁obstacles	-10.294
▁severa	-10.2952
▁acala	-10.2956
▁shows	-10.2957
▁undergo	-10.2958
ring	-10.296
▁shake	-10.2961
▁shown	-10.2974
▁dispense	-10.2986
▁top	-10.3014
sultant	-10.302
▁groups	-10.3028
▁rulers	-10.3035
▁acclaim	-10.3035
▁Bogoslovsky	-10.3035
▁Army	-10.3035
▁prison	-10.3036
▁response	-10.3038
▁height	-10.3039
▁Communists	-10.3041
▁contamina	-10.305
uta	-10.3057
▁base	-10.306
▁appointed	-10.3064
rim	-10.307
▁construct	-10.308
▁divided	-10.308
▁lute	-10.3081
▁supported	-10.3081
▁fo	-10.3085
ated	-10.3089
▁Du	-10.3107
▁drawn	-10.3144
▁cases	-10.3148
▁signless	-10.3172
▁opposition	-10.3172
▁ignorant	-10.3174
▁demonic	-10.3175
inghai	-10.3176
▁conclusion	-10.3178
▁unvirtuous	-10.318
▁relationship	-10.3181
▁illu	-10.3181
▁reply	-10.3183
▁fifth	-10.3192
▁masses	-10.3195
▁1993	-10.3198
▁listeners	-10.3199
▁instruct	-10.3205
sory	-10.3207
▁finish	-10.3211
▁often	-10.3214
▁lamps	-10.3218
▁retreat	-10.3222
▁target	-10.3223
▁deeply	-10.3231
▁fixat	-10.3236
▁crushed	-10.3248
▁experienc	-10.326
▁investigate	-10.3263
▁line	-10.3266
▁stage	-10.327
ir	-10.3297
▁subdue	-10.3306
▁limited	-10.3307
▁amitabha	-10.3311
▁necklace	-10.3312
▁caught	-10.3312
▁unhappiness	-10.3312
▁Of	-10.3314
▁effect	-10.3314
▁goal	-10.3316
▁generous	-10.3317
▁misery	-10.3317
▁Mahayana	-10.3322
▁petal	-10.3325
▁mo	-10.3326
▁book	-10.3337
▁beaut	-10.3339
▁nation	-10.3343
tic	-10.3349
▁agreed	-10.3352
eeth	-10.3358
▁terrifie	-10.337
▁practic	-10.337
▁exception	-10.338
▁prepare	-10.3402
▁continual	-10.3422
▁limits	-10.3429
brows	-10.3432
loved	-10.3445
▁experts	-10.3445
▁dharani	-10.3456
sri	-10.3473
▁mean	-10.3475
▁ah	-10.3477
▁F	-10.3495
ni	-10.3496
▁sad	-10.3497
▁arrow	-10.3502
▁signed	-10.3506
▁conceit	-10.3514
▁art	-10.3515
▁devo	-10.3519
▁medicin	-10.3546
▁season	-10.3554
▁watch	-10.3557
▁circumambulat	-10.3567
▁address	-10.3569
▁ca	-10.357
▁lines	-10.3594
▁fifteen	-10.3595
▁bloom	-10.3596
▁misdeed	-10.3597
▁13	-10.3601
▁rival	-10.3604
▁exclaimed	-10.3606
▁examination	-10.3608
certainty	-10.3617
▁1978	-10.3619
▁cognize	-10.3621
▁k	-10.3625
▁issued	-10.3645
▁conceptualize	-10.3652
▁lamas	-10.3662
▁trade	-10.3673
▁visibl	-10.3685
held	-10.3694
▁li	-10.3704
▁suchness	-10.3705
▁manifestations	-10.3706
▁circumambulate	-10.3709
▁harsh	-10.371
▁wearing	-10.3726
▁basic	-10.3738
▁flavor	-10.3739
▁sukhavati	-10.374
▁incalculabl	-10.374
▁negotiations	-10.374
▁wives	-10.3742
hu	-10.3746
▁blossom	-10.3747
▁mistaken	-10.3748
▁school	-10.3752
▁illustrate	-10.3772
▁controlled	-10.3776
nd	-10.3781
▁wait	-10.3783
▁pledge	-10.3793
▁trans	-10.3804
hat	-10.3818
from	-10.3821
mentioned	-10.3826
▁assent	-10.3835
▁im	-10.3835
▁representatives	-10.3836
▁transferr	-10.3836
▁extended	-10.3856
datta	-10.3862
▁creat	-10.3863
▁contained	-10.3874
▁monarchs	-10.3886
▁recipient	-10.3887
▁unobstructed	-10.3888
▁assistance	-10.3888
▁marry	-10.389
▁expound	-10.3892
▁translated	-10.3893
▁herbs	-10.3894
▁belief	-10.3905
▁extraordinar	-10.3907
▁bird	-10.391
▁Western	-10.3912
▁spine	-10.3924
▁Bo	-10.3934
▁Red	-10.394
▁entertain	-10.3943
▁democrati	-10.3945
▁inspir	-10.3947
▁st	-10.395
▁ensue	-10.3952
▁asoka	-10.3965
am	-10.3971
▁indulge	-10.3985
▁pursu	-10.4008
red	-10.4017
▁public	-10.4018
▁G	-10.402
▁myriad	-10.4036
▁phantom	-10.4036
▁vimalateja	-10.4036
▁mahakasyapa	-10.4036
▁attempt	-10.4037
▁nationalities	-10.4037
▁primary	-10.4038
▁welcome	-10.4042
▁purna	-10.4044
▁role	-10.4049
▁impure	-10.4052
▁practitioner	-10.4052
▁apprehension	-10.4053
▁topic	-10.4056
▁fragrance	-10.4056
▁Mongol	-10.4058
▁journey	-10.4058
▁organs	-10.4065
▁alive	-10.407
▁concerned	-10.407
▁transfer	-10.4071
ady	-10.4073
▁shape	-10.4073
▁arm	-10.4075
syllable	-10.4078
▁spring	-10.4079
▁ma	-10.408
▁strike	-10.4085
ar	-10.4087
▁ponder	-10.4094
▁With	-10.4111
▁Ming	-10.4112
▁flaw	-10.4116
▁R	-10.4121
▁lift	-10.4132
akirti	-10.4136
.”	-10.4137
assembled	-10.415
▁bee	-10.4173
▁neutral	-10.418
equal	-10.4186
▁wrote	-10.4187
▁saffron	-10.4187
▁mahavidya	-10.4187
▁excrement	-10.4187
▁peacock	-10.4187
▁arrogant	-10.4188
▁captain	-10.4188
▁armies	-10.419
▁Chamdo	-10.4191
▁surrounding	-10.4203
▁bath	-10.4204
▁match	-10.4204
▁ourselves	-10.4205
▁student	-10.4211
▁instructor	-10.4211
▁meritorious	-10.4215
▁obscuration	-10.422
▁distinction	-10.4238
kusumitabhijna	-10.4242
▁reflected	-10.4255
see	-10.4258
▁conceptualiz	-10.4261
▁l	-10.4273
▁con	-10.4274
▁nonhumans	-10.4279
▁intellect	-10.4286
▁claim	-10.4287
▁serious	-10.4314
▁Kublai	-10.4341
ent	-10.4342
▁Tang	-10.4344
▁property	-10.4345
▁hunger	-10.4347
▁migration	-10.4348
▁fond	-10.4352
▁Atisha	-10.4353
▁assurance	-10.4356
▁stories	-10.436
ha	-10.436
▁brilliant	-10.4373
real	-10.4377
▁prisoners	-10.4378
ons	-10.4394
▁bull	-10.4395
▁Man	-10.4413
▁collect	-10.4427
▁tall	-10.4434
▁beautifie	-10.4439
▁invisib	-10.4439
▁late	-10.444
▁household	-10.4442
▁chant	-10.4447
ities	-10.4474
king	-10.4479
▁discourses	-10.4493
▁intentions	-10.4496
▁hears	-10.4496
▁principal	-10.4497
▁discomfort	-10.4497
▁autonomy	-10.4497
▁unwavering	-10.4497
▁benefactor	-10.4498
▁unbearable	-10.4499
▁cried	-10.4502
▁dawn	-10.4505
▁easily	-10.4505
▁beaten	-10.4506
▁laid	-10.4514
▁participate	-10.452
▁discard	-10.4523
fore	-10.4536
▁2005	-10.4554
▁ble	-10.4561
essed	-10.4577
▁encouraged	-10.4589
▁greatly	-10.4591
▁conceive	-10.462
pirationlessness	-10.4621
▁immediate	-10.4628
▁19	-10.4636
▁books	-10.4655
▁Britain	-10.4656
▁dhyana	-10.4656
▁novitiate	-10.4656
▁capacity	-10.4656
▁offspring	-10.4656
▁lamentation	-10.4657
▁continuity	-10.4658
▁chanda	-10.4659
▁decay	-10.4661
▁11	-10.4661
▁stages	-10.4662
▁entail	-10.4664
▁contemplat	-10.4667
▁selflessness	-10.4668
▁destination	-10.4669
▁conducted	-10.4671
▁demon	-10.4671
▁production	-10.4675
▁disciple	-10.4687
▁reincarnation	-10.4688
▁vijaya	-10.4688
▁widely	-10.4693
leagues	-10.4699
▁indication	-10.4706
▁nanda	-10.4715
▁provinces	-10.472
▁involv	-10.4749
▁attracted	-10.4757
▁mid	-10.4757
imply	-10.4762
▁imbue	-10.4766
▁gaze	-10.4769
▁aid	-10.4784
Chinese	-10.4801
▁entourage	-10.4817
▁wilderness	-10.4817
▁misfortune	-10.4817
▁comparison	-10.4817
▁broad	-10.4821
▁fathom	-10.4824
▁subhadra	-10.4824
▁poverty	-10.4825
▁hot	-10.4829
nel	-10.4833
▁authentic	-10.4836
▁bhiksuni	-10.4836
▁amid	-10.4838
▁information	-10.4843
▁reading	-10.485
▁particles	-10.4854
▁procedure	-10.4858
▁image	-10.4862
▁swords	-10.4864
▁yogin	-10.487
aving	-10.4891
▁dog	-10.4898
▁texts	-10.4907
▁deaths	-10.4911
▁pot	-10.4916
▁snakes	-10.4918
▁aroma	-10.4925
▁abilities	-10.4927
▁league	-10.4945
▁exists	-10.4946
▁dre	-10.495
▁crush	-10.4973
erse	-10.4976
▁copper	-10.4981
▁bewilder	-10.4981
▁aniruddha	-10.4981
▁encapsulate	-10.4981
▁temperament	-10.4981
▁mahesvara	-10.4985
▁nevertheless	-10.4986
▁sexual	-10.4991
itory	-10.4998
▁vimal	-10.4998
▁Since	-10.5003
kara	-10.501
▁vajri	-10.501
▁hope	-10.5012
▁bell	-10.5019
▁pisaca	-10.5045
ra	-10.505
▁forget	-10.5056
▁released	-10.5059
▁court	-10.5062
▁workers	-10.5063
▁collected	-10.5076
ched	-10.5086
▁desir	-10.5103
▁closed	-10.5108
▁wandering	-10.5117
hose	-10.5124
k	-10.5127
▁degenerate	-10.5132
▁issue	-10.5136
▁dogs	-10.5138
▁thunderbolt	-10.5148
▁krakucchanda	-10.5148
▁miserliness	-10.5148
▁ugly	-10.5149
▁succeed	-10.515
▁April	-10.5152
ne	-10.5158
▁bandits	-10.5163
▁meditat	-10.5164
heroes	-10.5174
▁captured	-10.5175
body	-10.5186
born	-10.5187
▁objective	-10.5189
▁Ch	-10.5247
▁plac	-10.526
▁fool	-10.5278
▁hostil	-10.5283
▁curv	-10.5284
▁lust	-10.529
▁quick	-10.5293
▁attractive	-10.5317
▁jasmine	-10.5317
▁prominent	-10.5317
▁resplenden	-10.5317
▁uncompounded	-10.5318
▁unwholesome	-10.5318
▁improper	-10.5318
▁data	-10.5319
▁antigods	-10.5319
▁embark	-10.532
▁sovereign	-10.5321
▁extremist	-10.5321
▁preta	-10.5325
▁altruistic	-10.5326
▁cadres	-10.5328
▁spot	-10.533
▁holds	-10.5358
▁refused	-10.5362
▁reported	-10.5368
▁touche	-10.537
▁conditioning	-10.5391
▁lad	-10.5404
▁dirt	-10.5414
▁ponds	-10.5422
endra	-10.5424
▁East	-10.5433
ought	-10.5462
▁disturbed	-10.5464
with	-10.5465
▁instructors	-10.5467
▁ph	-10.5486
▁Nagarjuna	-10.549
▁Lamp	-10.549
▁modern	-10.5492
▁society	-10.5494
▁deceased	-10.5495
▁aggression	-10.5495
▁treatises	-10.5496
using	-10.5496
▁gradually	-10.5496
▁praye	-10.551
definitely	-10.5511
▁repeatedly	-10.5511
▁appropriat	-10.5514
▁patron	-10.5517
▁danger	-10.5529
▁opponents	-10.5551
▁sides	-10.5555
▁bathe	-10.5568
▁cow	-10.557
▁site	-10.557
avici	-10.5572
▁co	-10.5577
▁waste	-10.5586
light	-10.5612
▁guardian	-10.5614
vast	-10.5628
▁faithful	-10.5653
▁demand	-10.5662
▁denizen	-10.5665
▁tremendous	-10.5665
boo	-10.5667
▁famous	-10.5675
▁resources	-10.5677
▁perhaps	-10.5679
▁working	-10.5679
▁breath	-10.568
▁inform	-10.5685
called	-10.5689
▁inhabit	-10.569
▁forsak	-10.5692
▁ruling	-10.5695
▁Re	-10.5696
▁commend	-10.5707
arisen	-10.5708
▁vanish	-10.5711
▁simpl	-10.5716
▁Hav	-10.5719
▁revolution	-10.5724
▁6	-10.5728
▁nun	-10.5739
▁bam	-10.575
▁figure	-10.5756
▁delude	-10.576
▁opened	-10.5799
▁greatness	-10.5801
▁incomparabl	-10.5814
▁preserve	-10.5823
▁increased	-10.5826
▁striv	-10.5841
▁proclamation	-10.5844
▁save	-10.5846
▁October	-10.5848
▁upananda	-10.585
▁impurit	-10.5856
b	-10.5858
▁Three	-10.586
▁carefully	-10.5862
▁sumati	-10.5869
▁moral	-10.5871
▁sh	-10.5872
▁composed	-10.5873
▁rear	-10.5878
▁mode	-10.5885
▁famine	-10.5888
▁lifetime	-10.5899
spite	-10.5902
▁sravaka	-10.5903
▁raised	-10.5905
▁threat	-10.5905
▁manifestation	-10.591
▁2004	-10.5915
▁functions	-10.5918
▁worth	-10.5929
▁documents	-10.5939
▁pr	-10.5943
ts	-10.5979
▁host	-10.598
▁gaz	-10.5988
▁belonging	-10.5988
loud	-10.599
ov	-10.6007
▁brillian	-10.6012
▁Province	-10.6025
▁laziness	-10.6026
▁nonbuddhist	-10.6026
▁negativity	-10.6026
▁nonperception	-10.6026
gone	-10.6027
▁horde	-10.6029
▁shelter	-10.6029
▁possibly	-10.6031
▁Human	-10.6031
▁approval	-10.6033
▁cotton	-10.6035
▁sovereignty	-10.6036
▁entirety	-10.604
▁wash	-10.6042
▁per	-10.6044
▁cap	-10.6045
tytwo	-10.6047
▁quarter	-10.6052
▁inquir	-10.6061
▁1987.	-10.6066
▁guerrillas	-10.6072
▁ceasing	-10.6078
▁transgression	-10.6078
▁elaboration	-10.6078
▁voices	-10.6079
▁ideas	-10.608
▁error	-10.6083
shone	-10.6084
▁rejected	-10.6087
men	-10.6087
▁outshine	-10.609
▁17	-10.6096
▁Now	-10.611
▁represents	-10.6115
▁restrain	-10.6126
▁resides	-10.6127
▁mouths	-10.614
▁agree	-10.6143
▁lying	-10.615
▁sticks	-10.6151
▁wet	-10.6156
are	-10.616
▁contented	-10.6173
▁nirgrantha	-10.6211
▁duties	-10.6211
▁lazy	-10.6211
▁summit	-10.6211
candra	-10.6212
▁fresh	-10.6212
▁acquisition	-10.6213
▁fashion	-10.6215
▁coins	-10.6218
▁disk	-10.6222
▁overpower	-10.6224
▁taxes	-10.6225
▁preacher	-10.6228
iness	-10.623
▁trunk	-10.6231
▁plant	-10.624
▁terror	-10.6248
▁delegation	-10.6264
▁rites	-10.6266
▁mentioned	-10.6268
▁dress	-10.6269
▁round	-10.6279
▁expressions	-10.6286
▁matters	-10.6295
▁selfaris	-10.6308
▁build	-10.6313
▁sway	-10.6324
▁emperors	-10.6332
▁secure	-10.6333
▁terrifi	-10.6347
▁quarrel	-10.6361
▁attack	-10.638
▁languages	-10.6386
anuary	-10.6398
▁Sakya	-10.6399
▁ksatriya	-10.6399
▁dipamkara	-10.6399
▁impediment	-10.6399
▁dullness	-10.6401
▁De	-10.6403
▁qui	-10.6404
▁frighten	-10.6406
▁least	-10.6409
▁treasures	-10.6409
▁increasing	-10.6416
▁harmony	-10.6418
▁Guards	-10.6424
▁rock	-10.643
▁W	-10.6431
▁carriage	-10.6433
▁2000	-10.6433
raksa	-10.6434
▁National	-10.6436
um	-10.6444
elated	-10.6448
▁walls	-10.6451
▁spend	-10.6455
▁husband	-10.6456
▁Truth	-10.6458
▁2003	-10.6458
▁heroic	-10.6473
▁stretch	-10.6491
▁9	-10.6502
▁arriv	-10.6503
lly	-10.6505
▁differently	-10.6526
▁treat	-10.6529
▁sagara	-10.6531
▁incorrect	-10.6537
▁yogi	-10.6548
▁1960	-10.6559
▁vase	-10.6563
▁dwel	-10.658
▁November	-10.6592
▁irreproachabl	-10.6592
▁honey	-10.6592
▁except	-10.6593
▁elsewhere	-10.6593
▁August	-10.6596
▁Norbu	-10.6596
▁era	-10.6596
▁anoint	-10.6598
uality	-10.6602
▁thunder	-10.6604
▁donations	-10.6609
▁mahastham	-10.6613
▁transformation	-10.6614
▁subjects	-10.6615
▁modes	-10.6626
▁raksasi	-10.6627
▁desirable	-10.6628
▁tam	-10.663
▁unatta	-10.6636
▁flawless	-10.6642
▁commitment	-10.6655
▁step	-10.6658
▁optic	-10.6666
▁sub	-10.6666
▁promise	-10.6669
▁hundredth	-10.6673
▁numbers	-10.6676
bearing	-10.6676
▁Asia	-10.6679
▁settle	-10.6692
▁founded	-10.6702
▁swan	-10.6703
▁division	-10.6715
▁18	-10.6716
▁continu	-10.6717
▁fighting	-10.6727
▁worshiped	-10.6729
▁post	-10.6731
▁totall	-10.6736
▁anti	-10.6743
▁split	-10.6747
▁invariabl	-10.6749
▁devotee	-10.6757
▁desired	-10.6765
▁ashes	-10.6772
▁bedd	-10.6776
▁sing	-10.6777
▁comprehensi	-10.6779
▁conventions	-10.6781
▁cuckoo	-10.6788
▁samantabhadra	-10.6788
▁thirtyseven	-10.6788
▁fraction	-10.6789
▁advice	-10.679
▁Foreign	-10.6793
▁identity	-10.6793
▁intelligent	-10.6801
▁unshakabl	-10.6806
ll	-10.6808
▁disintegrate	-10.681
▁smrti	-10.6817
▁pervade	-10.682
▁vaisa	-10.6821
▁spears	-10.6832
▁grown	-10.6832
▁tip	-10.6834
▁rishi	-10.6838
▁promised	-10.6841
▁explanation	-10.6853
▁beginner	-10.6853
uestion	-10.686
▁guru	-10.6872
▁indivisibl	-10.6889
▁attacked	-10.6889
▁vanished	-10.6891
▁works	-10.6926
▁beg	-10.6932
▁cart	-10.6932
▁strongly	-10.6939
▁cost	-10.6948
▁ruin	-10.6969
▁fight	-10.6986
▁buffalo	-10.6988
▁harbor	-10.6988
▁Shigatse	-10.6988
▁harem	-10.6988
▁Tsong	-10.6989
▁territories	-10.6989
▁reliable	-10.6991
▁wor	-10.6992
▁accepta	-10.6999
▁visited	-10.7002
▁economic	-10.7015
▁located	-10.7017
▁scriptur	-10.702
▁lot	-10.7022
▁kinsm	-10.7028
▁2001	-10.7033
idity	-10.7034
▁brothers	-10.7037
photo	-10.7042
▁sacrifici	-10.7043
▁terribl	-10.7046
▁undefi	-10.7046
▁kinnara	-10.7049
▁births	-10.7049
▁discovered	-10.7056
▁island	-10.7057
▁vulture	-10.7057
▁punishment	-10.7057
▁coupl	-10.7059
▁representative	-10.7062
▁noose	-10.7064
▁stick	-10.707
▁problems	-10.7096
▁structure	-10.7103
▁modest	-10.7108
▁blow	-10.7109
▁dispute	-10.7135
▁load	-10.7135
▁won	-10.7139
▁character	-10.7146
▁gentlem	-10.7147
▁exquisite	-10.7162
ling	-10.7165
▁liberat	-10.7165
▁hurt	-10.7166
▁value	-10.7166
▁fac	-10.7167
▁physically	-10.7168
▁pratyekabuddha	-10.7178
▁arouse	-10.718
▁unhapp	-10.7187
labha	-10.7191
▁eggshell	-10.7192
▁identify	-10.7192
▁Reconstruction	-10.7192
▁tripitaka	-10.7192
▁impartial	-10.7193
▁confess	-10.7193
▁remainder	-10.7193
▁spouse	-10.7194
▁Point	-10.7197
▁analyze	-10.72
▁Dynasty	-10.7202
▁sinful	-10.7205
▁middl	-10.7206
kuta	-10.7206
▁September	-10.7208
▁morality	-10.7209
▁stopped	-10.7213
existence	-10.7215
▁tribute	-10.7216
▁inspiration	-10.7216
▁di	-10.7227
nic	-10.7231
▁harshly	-10.7231
▁Chairman	-10.724
▁fitting	-10.7243
forced	-10.7246
▁padma	-10.7248
▁restored	-10.7248
▁char	-10.7251
▁smil	-10.7258
▁stabilit	-10.7259
▁emperor	-10.7265
▁pearl	-10.7266
▁goods	-10.7283
▁borders	-10.7289
sands	-10.7295
▁emitt	-10.7301
▁waters	-10.7307
▁passes	-10.7307
▁connect	-10.7307
▁adorn	-10.7308
▁referr	-10.7308
▁attache	-10.7313
la	-10.7316
▁homeless	-10.7316
▁yearn	-10.7319
na	-10.7329
▁changed	-10.7329
ist	-10.7333
▁unti	-10.7337
▁newly	-10.7338
▁stupid	-10.7339
▁extremes	-10.7346
▁blessings	-10.735
hang	-10.7362
▁beliefs	-10.7378
ma	-10.7379
▁couple	-10.7392
▁broke	-10.7392
usita	-10.7396
▁repay	-10.7397
▁kalandakaniva	-10.74
▁winter	-10.74
▁postulant	-10.7401
▁honest	-10.7401
▁cymbals	-10.7405
▁preced	-10.7405
▁malicious	-10.7407
▁smear	-10.741
▁inhabitants	-10.741
▁surge	-10.7413
▁sa	-10.7416
▁abandonment	-10.7417
▁decree	-10.7422
▁lady	-10.7424
▁ambans	-10.7436
▁fixed	-10.7437
▁humble	-10.7437
▁sensations	-10.744
▁deal	-10.744
▁concealed	-10.7443
▁1992	-10.7448
▁blade	-10.7453
ning	-10.7455
▁applying	-10.7456
▁illnesses	-10.7457
,”	-10.7462
▁neck	-10.7472
▁onepointed	-10.7475
▁drop	-10.7477
▁rid	-10.7479
▁seals	-10.7495
▁statements	-10.7512
▁pick	-10.7514
ur	-10.7519
▁g	-10.7543
▁interpret	-10.7543
▁immatur	-10.7546
▁separat	-10.7565
iang	-10.7565
some	-10.758
formed	-10.7585
▁Part	-10.7598
▁recall	-10.7606
▁shot	-10.7607
▁Ngabo	-10.7613
▁Khapa	-10.7613
▁immense	-10.7613
▁Although	-10.7613
▁apprentice	-10.7613
▁jackal	-10.7613
▁relief	-10.7613
▁square	-10.7613
▁texture	-10.7614
▁agon	-10.7615
▁depth	-10.7615
▁avaric	-10.7616
▁thirteen	-10.7618
▁seem	-10.762
▁deceit	-10.7622
▁doorway	-10.7631
▁drape	-10.7637
▁unite	-10.765
▁ahead	-10.7653
▁traditions	-10.7653
▁stride	-10.7654
▁trouble	-10.7669
▁oppos	-10.7675
▁green	-10.7678
▁imbu	-10.7686
▁lam	-10.7687
▁Union	-10.7691
▁scope	-10.7694
▁administration	-10.7696
▁snake	-10.7698
▁severe	-10.7701
fools	-10.7707
▁counter	-10.771
▁8	-10.7713
they	-10.7714
▁vassal	-10.7716
▁applie	-10.7718
▁bearer	-10.7722
▁kumarabh	-10.7724
▁banks	-10.7724
▁consummat	-10.773
▁agent	-10.7731
▁employ	-10.7738
minated	-10.7738
▁formati	-10.7744
▁camp	-10.7746
▁sisters	-10.7749
▁Li	-10.7749
▁respects	-10.7755
▁measures	-10.7758
plete	-10.7763
M	-10.7764
▁hearer	-10.7785
▁render	-10.7808
va	-10.781
▁brave	-10.7815
▁shawl	-10.783
▁staff	-10.783
▁samyaksambuddha	-10.783
ome	-10.783
▁unguent	-10.783
▁disregard	-10.7831
▁crest	-10.7832
▁slander	-10.7832
▁absent	-10.7833
▁turns	-10.7835
▁spheres	-10.7835
▁importance	-10.7836
▁adept	-10.7838
▁Bon	-10.7839
ko	-10.784
▁sri	-10.7842
▁pertain	-10.7851
▁gopa	-10.7856
pacified	-10.7857
▁destroyer	-10.7858
▁occupied	-10.7863
▁entit	-10.7868
▁prostrat	-10.7876
▁tears	-10.7886
▁ste	-10.7887
prapta	-10.7897
five	-10.7898
▁thousandth	-10.7903
▁doctor	-10.7919
▁flame	-10.793
▁rever	-10.7932
▁respected	-10.7933
▁treated	-10.7935
▁sport	-10.7941
▁sect	-10.7941
time	-10.7949
▁seventh	-10.7973
▁na	-10.7976
▁motion	-10.7978
▁astonish	-10.7978
▁cave	-10.7978
world	-10.7986
▁thiev	-10.7988
▁transgressions	-10.7991
▁engendering	-10.8004
▁jar	-10.8011
▁rank	-10.8014
edited	-10.8017
▁enhance	-10.8028
▁building	-10.8029
▁historical	-10.8034
▁blaze	-10.8036
▁supplicate	-10.8045
▁celiba	-10.8049
▁identical	-10.8052
▁immortality	-10.8053
▁abroad	-10.8055
▁elimination	-10.8059
▁treasury	-10.8059
ch	-10.8066
▁dried	-10.8069
▁distinctive	-10.8071
ila	-10.8073
▁dualistic	-10.8078
lternatively	-10.808
▁perish	-10.808
▁examin	-10.8083
▁setting	-10.809
manda	-10.81
dian	-10.8127
▁resembl	-10.8127
▁invitation	-10.8143
▁blame	-10.8145
▁nonhuman	-10.8145
▁statue	-10.8148
▁petition	-10.8166
▁30	-10.8182
▁difference	-10.8184
mely	-10.8185
▁bit	-10.8195
▁utpala	-10.8205
▁roads	-10.8224
▁cry	-10.8241
▁claims	-10.8247
▁invite	-10.8249
▁shoot	-10.8252
ical	-10.8257
rising	-10.8272
▁General	-10.8279
▁jealous	-10.8279
▁Uprising	-10.828
▁musitasmrti	-10.828
▁belongs	-10.828
▁remote	-10.828
▁recount	-10.828
▁market	-10.8282
▁hostility	-10.8282
▁mahabrahma	-10.8282
▁brief	-10.8282
▁insubstantial	-10.8283
▁successive	-10.8283
▁ride	-10.8284
▁happily	-10.8285
▁kokalika	-10.8285
▁kumbhanda	-10.8285
▁rebellion	-10.8287
▁contemplations	-10.8292
roletaria	-10.8295
▁custom	-10.8297
▁usual	-10.8297
▁December	-10.8297
▁mids	-10.8299
▁published	-10.8301
ging	-10.8308
▁consort	-10.831
▁tribes	-10.832
▁rules	-10.8322
▁That	-10.8325
▁arrows	-10.8327
▁loud	-10.8335
▁soul	-10.8336
▁firmly	-10.8339
▁enthrall	-10.8339
▁eaten	-10.8348
ily	-10.8349
▁muru	-10.8355
ghosa	-10.8359
▁peoples	-10.8364
▁detachment	-10.8377
▁antidote	-10.8379
▁finger	-10.8393
▁mission	-10.8406
▁tara	-10.841
▁discourage	-10.8411
▁sour	-10.8412
▁determination	-10.8427
▁snow	-10.8435
▁figures	-10.8453
ersman	-10.8456
▁list	-10.8463
▁environment	-10.8466
▁pu	-10.8469
▁notice	-10.847
▁warm	-10.8476
▁examined	-10.8476
day	-10.8486
▁analog	-10.8494
▁oppose	-10.8495
▁virupa	-10.8512
▁abstain	-10.8513
▁continuous	-10.8514
▁completion	-10.8515
▁countryside	-10.8515
▁Way	-10.8516
▁esteem	-10.8517
▁tisya	-10.8521
▁respective	-10.8523
▁lie	-10.8525
▁hunter	-10.8526
▁roam	-10.8527
▁wailing	-10.8528
▁crops	-10.8529
2	-10.8532
▁respectively	-10.8542
▁1958	-10.8543
▁repeated	-10.8543
▁thorn	-10.8551
▁hairs	-10.8554
▁bind	-10.8562
ING	-10.8564
netra	-10.8572
▁bed	-10.8576
▁dance	-10.8578
▁pond	-10.8584
D	-10.8591
▁sarva	-10.8591
wood	-10.8592
▁Even	-10.8594
▁pa	-10.8606
▁earring	-10.8608
▁revolutionary	-10.8613
odernization	-10.8613
▁16	-10.8613
▁afterward	-10.8616
▁ag	-10.8618
ana	-10.8633
▁consideration	-10.8634
tained	-10.8637
▁faultless	-10.8642
▁consume	-10.8643
▁roof	-10.8646
▁No	-10.8654
▁plants	-10.8655
▁br	-10.8664
▁suit	-10.8672
selves	-10.868
–	-10.868
▁Lo	-10.8695
▁rights	-10.8698
▁accrue	-10.8705
aking	-10.8706
distracted	-10.8713
▁net	-10.8734
▁vital	-10.8743
ian	-10.8748
▁USSR	-10.875
▁discursive	-10.875
▁upasika	-10.875
▁gadgadasvara	-10.875
▁peerless	-10.875
evertheless	-10.875
▁pour	-10.8751
▁proponent	-10.8751
▁deception	-10.8751
▁guidance	-10.8752
▁burst	-10.8754
▁chakra	-10.8756
▁inter	-10.8756
▁Rinpoche	-10.8756
▁livestock	-10.8756
▁cord	-10.8756
▁courage	-10.8758
▁1950	-10.8759
▁executed	-10.8759
▁What	-10.8778
▁concerns	-10.8784
▁cele	-10.8794
▁K	-10.88
▁obscur	-10.8802
▁ar	-10.8803
▁shave	-10.8808
▁2009	-10.8808
▁upset	-10.8809
▁yoga	-10.8819
▁Hi	-10.8825
▁2.	-10.8829
▁ended	-10.8829
▁independently	-10.8835
▁atoms	-10.8835
sa	-10.8842
▁baskets	-10.8844
▁tremble	-10.8847
ess	-10.8852
▁rebels	-10.8856
▁beat	-10.8858
▁factor	-10.8858
▁translation	-10.8862
dharma	-10.8864
▁administrative	-10.8866
▁instance	-10.8866
▁meat	-10.8881
▁refugees	-10.8895
A	-10.8899
▁permit	-10.89
▁venera	-10.8903
▁bank	-10.891
▁thread	-10.8911
▁searching	-10.8913
▁disposition	-10.8915
▁calculate	-10.8942
▁flag	-10.8949
▁12	-10.895
▁1987	-10.8962
▁argue	-10.8968
▁party	-10.8971
▁effective	-10.8971
▁heed	-10.8978
priest	-10.8978
▁add	-10.8989
▁exhibit	-10.899
ichen	-10.8993
▁grief	-10.8994
▁papiyan	-10.8994
▁Affairs	-10.8994
▁quantity	-10.8994
▁scrutiny	-10.8994
▁secular	-10.8994
▁disengagement	-10.8994
▁unmistaken	-10.8994
▁continuum	-10.8994
▁description	-10.8996
▁memory	-10.8997
▁possibility	-10.8998
▁Gansu	-10.9
▁naked	-10.9
▁Goldstein	-10.9
▁profundit	-10.9
▁cattle	-10.9
▁ascertain	-10.9009
pointed	-10.9013
▁portion	-10.9013
▁fa	-10.9017
▁rag	-10.9017
▁restore	-10.9022
▁positions	-10.9031
urine	-10.9033
okhang	-10.9035
▁western	-10.9045
▁reli	-10.9049
Tibetan	-10.906
▁simha	-10.9067
▁indulg	-10.908
▁meetings	-10.9086
▁beggars	-10.9087
▁quake	-10.9089
esvara	-10.909
▁shower	-10.9091
▁determine	-10.9094
▁intend	-10.91
▁civilization	-10.9106
be	-10.9115
▁member	-10.9122
une	-10.9123
age	-10.9133
▁session	-10.9134
▁boil	-10.9135
▁seventy	-10.9139
▁flee	-10.9157
▁sin	-10.9161
▁aksobhya	-10.9174
settled	-10.9181
▁persevere	-10.9199
virtuous	-10.9204
▁refuse	-10.9207
▁v	-10.9209
▁yana	-10.9224
▁inappropriate	-10.9226
▁advance	-10.9228
▁3.	-10.9232
▁smooth	-10.9244
▁Potala	-10.9244
▁savior	-10.9244
▁upasaka	-10.9244
▁socialism	-10.9244
▁implore	-10.9245
▁guise	-10.9246
▁dharmakaya	-10.9246
▁fellow	-10.9247
▁eliminat	-10.9247
▁flood	-10.925
ism	-10.9254
▁splend	-10.9258
▁implied	-10.9271
▁fixation	-10.9271
▁dynasty	-10.9277
ized	-10.9278
▁mandarava	-10.9285
▁document	-10.9293
sleep	-10.9295
▁style	-10.9299
▁nowhere	-10.9302
▁drinking	-10.9303
▁unsu	-10.9304
▁hearts	-10.9315
▁translator	-10.9324
▁cook	-10.9326
▁ran	-10.9335
▁memorize	-10.9343
▁proffer	-10.9349
▁radiate	-10.9353
▁South	-10.9355
▁weapon	-10.9362
▁conversation	-10.9364
▁debate	-10.9367
▁rains	-10.9367
▁bag	-10.937
▁organize	-10.939
▁delud	-10.9396
▁customs	-10.9396
mitra	-10.9413
ied	-10.9423
yana	-10.9423
▁whos	-10.9423
▁simple	-10.9426
▁belonged	-10.9427
▁venom	-10.9437
son	-10.9438
▁growing	-10.9448
▁relieve	-10.9448
▁evidence	-10.945
for	-10.945
▁careless	-10.946
▁got	-10.9463
▁So	-10.9464
dden	-10.9464
▁choos	-10.9465
▁fade	-10.9475
▁1.	-10.9478
▁anga	-10.9481
nam	-10.9482
▁contribute	-10.9484
▁torture	-10.9491
▁beds	-10.9497
▁jalini	-10.95
▁barley	-10.95
▁despair	-10.95
▁significance	-10.95
▁earnest	-10.9501
▁glow	-10.9501
▁hollow	-10.9501
▁satisfaction	-10.9501
▁legitimate	-10.9502
▁philosophy	-10.9502
▁confusion	-10.9503
▁2001.	-10.9503
▁drawing	-10.9503
▁combination	-10.9503
▁cries	-10.9503
▁obstruct	-10.9504
▁gemstone	-10.9507
▁items	-10.9509
▁majority	-10.9511
leg	-10.9511
▁rejoicing	-10.9515
▁kasi	-10.9525
▁managed	-10.9527
▁denote	-10.9531
▁legal	-10.9531
▁assist	-10.9532
▁wounded	-10.9539
destructi	-10.9544
▁interrupted	-10.9549
▁Gold	-10.9555
▁disassociate	-10.9555
▁tired	-10.9557
▁combined	-10.9557
▁perpetual	-10.9558
▁loss	-10.9564
▁bodi	-10.9564
▁bark	-10.9573
▁gnosis	-10.9585
▁eloquent	-10.9585
▁kingdoms	-10.9588
▁1966	-10.959
▁ninety	-10.9591
▁fruitful	-10.9606
▁1,	-10.9617
▁consequences	-10.962
▁indicate	-10.9622
atory	-10.9625
▁caravan	-10.9625
ter	-10.9625
garbha	-10.9629
▁problem	-10.9629
▁fears	-10.9631
▁tactil	-10.9631
▁project	-10.965
deva	-10.9655
ept	-10.9661
rs	-10.9674
▁represent	-10.968
ious	-10.9683
voidness	-10.9684
ization	-10.9686
▁sp	-10.9688
more	-10.9697
▁nonreturn	-10.971
▁Only	-10.9713
▁interfere	-10.9722
▁kin	-10.9724
▁current	-10.9734
▁decorate	-10.9736
▁press	-10.9745
7	-10.9746
▁cl	-10.9751
which	-10.9758
▁Sonam	-10.9762
▁Wisdom	-10.9763
▁reluctan	-10.9763
▁Songtsen	-10.9763
▁kaineya	-10.9763
▁centuries	-10.9763
▁resort	-10.9763
▁misconduct	-10.9763
▁forbearance	-10.9764
▁contrary	-10.9764
▁viradatta	-10.9764
▁Region	-10.9764
▁Nepalese	-10.9764
▁heavy	-10.9767
▁venu	-10.9768
▁suddenly	-10.9769
▁Later	-10.9771
▁keen	-10.9773
▁representation	-10.9773
▁foreigners	-10.9775
▁righteous	-10.9775
▁gaya	-10.9775
▁raise	-10.9778
▁2000.	-10.9778
▁kankar	-10.9781
▁Kuomintang	-10.9784
▁extinguish	-10.9787
▁existent	-10.9788
▁rub	-10.9797
ried	-10.98
▁price	-10.98
ay	-10.9803
▁wield	-10.9805
▁characterize	-10.9813
▁States	-10.9815
▁ship	-10.9815
▁fish	-10.9824
▁streets	-10.9827
▁exceeding	-10.9831
▁principles	-10.9835
▁mi	-10.9838
▁phrase	-10.9841
▁transmigrat	-10.9842
▁accumulate	-10.9846
ali	-10.9852
▁remed	-10.9858
▁intended	-10.9864
▁actualiz	-10.9866
ung	-10.9884
▁unity	-10.989
▁indicated	-10.9891
ding	-10.9892
▁slice	-10.9894
▁perspective	-10.9896
▁Archive	-10.9896
▁hermitage	-10.9896
▁canopie	-10.9903
▁transgress	-10.9903
▁seems	-10.9906
▁valuable	-10.9916
▁gem	-10.9918
▁heal	-10.9925
▁neighbor	-10.9931
ratna	-10.9949
▁naksatraraja	-10.9961
▁unconta	-10.9978
▁conduc	-10.9987
▁disturbance	-10.999
▁initial	-11.0005
▁successful	-11.0007
▁reasoning	-11.0009
▁imperial	-11.0012
▁straight	-11.0014
▁sam	-11.0025
▁commission	-11.0028
▁French	-11.0032
ajrayana	-11.0033
▁posture	-11.0033
▁Council	-11.0034
▁Gyantse	-11.0034
▁volition	-11.0034
▁agitation	-11.0034
▁Experience	-11.0034
▁Development	-11.0034
▁mahendrasena	-11.0034
▁sex	-11.0034
▁lattice	-11.0034
▁surface	-11.0034
▁archery	-11.0035
▁excellence	-11.0037
▁sarvarthasiddha	-11.0037
▁induce	-11.0039
▁awoke	-11.0039
▁relevant	-11.0041
▁weep	-11.0042
▁excessive	-11.0042
Mongolian	-11.0043
▁discover	-11.0043
▁cherish	-11.0045
lli	-11.0046
▁suite	-11.0046
▁First	-11.0047
▁Kashag	-11.0047
▁connection	-11.0055
fully	-11.006
▁fair	-11.0065
▁pierce	-11.0075
people	-11.0081
▁reduced	-11.0091
▁vi	-11.0093
▁pri	-11.0094
▁hall	-11.0096
▁guards	-11.0101
▁rope	-11.0101
▁mindset	-11.0107
▁fines	-11.0114
een	-11.0123
▁comparable	-11.0123
▁determined	-11.0128
asoka	-11.0132
produced	-11.0136
▁multi	-11.0137
▁safe	-11.0152
▁emit	-11.0163
▁servant	-11.0176
▁discussion	-11.0178
▁observation	-11.0178
gratitude	-11.0178
▁distraction	-11.0184
▁slaves	-11.0193
▁flat	-11.0198
▁arrest	-11.0208
▁club	-11.0212
▁assembl	-11.0221
▁careful	-11.0242
▁15	-11.0249
▁slighte	-11.0256
▁pronounce	-11.0262
▁burden	-11.0264
▁web	-11.0272
▁venerati	-11.0272
▁thick	-11.0274
▁amaz	-11.0284
ving	-11.0288
fortunate	-11.0294
▁effects	-11.0296
▁displeas	-11.031
▁prisons	-11.031
▁Gampo	-11.031
▁cushion	-11.031
▁gesture	-11.031
▁banyan	-11.031
▁River	-11.0311
▁steward	-11.0311
▁admiration	-11.0312
▁mutual	-11.0312
▁jambu	-11.0313
▁huge	-11.0317
▁udumbara	-11.0318
▁February	-11.0318
▁Andrugtsang	-11.0318
▁believ	-11.0323
▁throat	-11.0323
▁transmigration	-11.0324
▁ethics	-11.0324
▁management	-11.0326
▁permanence	-11.033
▁Kokonor	-11.0333
▁memorial	-11.0335
▁treaty	-11.0336
▁Most	-11.0336
▁corresponding	-11.0338
▁association	-11.0338
▁regardless	-11.0343
▁educated	-11.0345
▁knowable	-11.0355
▁feed	-11.036
▁suzerainty	-11.0363
▁1973	-11.038
▁slay	-11.0387
▁defile	-11.0389
▁preach	-11.0396
▁advanced	-11.0396
▁traverse	-11.0397
▁exile	-11.0402
vigat	-11.0407
▁exhaust	-11.0421
▁comfort	-11.0427
▁unskill	-11.0433
▁expresse	-11.0439
▁recogniz	-11.0446
▁parable	-11.0447
▁sang	-11.0448
ual	-11.045
▁varuna	-11.0456
▁harvest	-11.046
▁accomplishments	-11.0463
▁50	-11.0463
▁21	-11.0464
▁Line	-11.0465
▁establishment	-11.0466
▁details	-11.0482
▁distribute	-11.0485
▁lit	-11.0485
▁New	-11.0494
▁shade	-11.0511
▁appeal	-11.0514
▁eternal	-11.0517
▁audience	-11.0521
▁overwhelm	-11.0524
▁mahoraga	-11.0547
dhara	-11.0547
▁labour	-11.0559
▁amaze	-11.0561
dding	-11.0575
side	-11.058
▁29	-11.0592
▁reliquar	-11.0596
▁skull	-11.0596
▁diversity	-11.0596
▁invasion	-11.0597
▁courtesan	-11.0597
▁daily	-11.0597
▁disillusion	-11.0597
▁clairvoyance	-11.0597
▁cakravartin	-11.0598
▁degeneration	-11.0598
▁hi	-11.06
▁significant	-11.0601
▁transport	-11.0603
▁unknown	-11.0604
▁sw	-11.0611
▁pacification	-11.0612
▁robbers	-11.0613
▁eager	-11.0614
▁delegates	-11.0618
▁foul	-11.0619
▁violated	-11.0622
▁catch	-11.0623
▁confuse	-11.0642
▁doors	-11.0659
▁uns	-11.0659
▁despi	-11.0662
▁digest	-11.0663
▁immoral	-11.0669
two	-11.0676
▁organizations	-11.0679
▁tune	-11.0683
▁breach	-11.0694
ned	-11.0695
▁pools	-11.0701
▁tight	-11.0725
▁nations	-11.0732
▁affected	-11.0735
▁immutabl	-11.0739
▁tak	-11.0746
▁acquir	-11.0747
birth	-11.075
▁cured	-11.0751
▁marriage	-11.0752
▁surpass	-11.0754
▁consequence	-11.0755
▁chest	-11.076
▁immerse	-11.076
▁ab	-11.0762
▁floor	-11.0773
▁hide	-11.0775
▁kneel	-11.0778
▁generat	-11.08
seeing	-11.0807
▁access	-11.0808
▁claimed	-11.0811
ara	-11.0815
▁definition	-11.082
▁scale	-11.0834
▁meanings	-11.0835
ini	-11.0837
▁greed	-11.0838
▁periods	-11.0843
▁wage	-11.0844
▁60	-11.0845
▁decrease	-11.0846
▁disclose	-11.0855
▁winds	-11.086
rank	-11.0867
▁23	-11.087
▁stingin	-11.0873
▁greet	-11.0875
▁Europe	-11.0886
▁hut	-11.0887
els	-11.0888
▁apsaras	-11.089
▁International	-11.089
▁rahula	-11.089
▁responsibility	-11.089
▁emerald	-11.089
▁irreversibility	-11.089
▁Through	-11.0892
▁decisive	-11.0892
▁empowerment	-11.0892
▁monkhood	-11.0893
▁simultaneously	-11.0893
cured	-11.0894
▁penetrate	-11.0895
▁blister	-11.0904
▁div	-11.0904
▁1980	-11.0906
▁restoration	-11.0906
▁miserabl	-11.0907
▁bile	-11.0908
▁strewn	-11.0915
coming	-11.0916
▁conform	-11.0943
▁farmers	-11.0946
▁gust	-11.0949
▁climb	-11.0954
▁ancestors	-11.0962
▁inquirer	-11.0967
converted	-11.0968
▁Four	-11.0972
serfs	-11.0983
▁crying	-11.0986
▁uncreat	-11.0995
▁station	-11.1005
▁sprinkle	-11.1005
▁dies	-11.1008
iche	-11.1018
▁mir	-11.1025
emonic	-11.1046
▁younger	-11.1053
▁marked	-11.1059
▁differences	-11.1067
▁section	-11.1076
▁nail	-11.1088
rd	-11.1095
▁Tsang	-11.1114
▁Th	-11.112
life	-11.1121
comparable	-11.1129
▁lama	-11.1129
▁suffered	-11.1145
▁drap	-11.1146
▁pre	-11.1151
sip	-11.1166
▁sooth	-11.1171
▁threaten	-11.1171
▁remind	-11.1181
nceforth	-11.1191
▁immovable	-11.1193
▁necessities	-11.1193
▁rabbit	-11.1193
▁sanctuar	-11.1193
▁sequester	-11.1193
▁quadrillion	-11.1193
▁feudalism	-11.1193
▁economy	-11.1194
▁supriya	-11.1194
▁Also	-11.1194
▁nonabiding	-11.1194
▁dull	-11.1195
▁fourteen	-11.1195
▁uninterrupted	-11.1195
ksa	-11.1196
▁crossroad	-11.1196
▁suspended	-11.1197
▁(“	-11.1198
▁medium	-11.1198
▁exchange	-11.12
▁reverse	-11.1201
▁contradict	-11.1202
▁Manchuria	-11.1208
▁forever	-11.1214
▁West	-11.1215
▁1970	-11.1215
dhaka	-11.1218
▁replaced	-11.1219
▁Here	-11.1223
▁occurrence	-11.123
▁unobs	-11.123
▁bitter	-11.1231
▁meaningless	-11.1232
▁supplies	-11.1233
▁officers	-11.1234
▁bonds	-11.1247
▁concluded	-11.1253
▁nonreturner	-11.1256
▁nomads	-11.1258
guided	-11.1264
▁consult	-11.1264
▁katyayana	-11.1274
▁report	-11.1275
▁event	-11.1279
uly	-11.129
▁assum	-11.1294
ta	-11.1303
▁recalled	-11.1329
▁residents	-11.1331
▁yours	-11.1332
▁originate	-11.1335
bhuta	-11.1342
▁25	-11.1354
▁discuss	-11.1356
▁skills	-11.1357
▁shared	-11.1369
rabhuta	-11.1377
▁cogniti	-11.1381
▁2008.	-11.1396
▁immers	-11.1397
▁worker	-11.1398
▁suvarn	-11.1399
▁follower	-11.1403
▁resident	-11.1404
mauli	-11.1406
▁formal	-11.1407
▁civil	-11.1419
▁namely	-11.1425
▁travers	-11.1427
▁scripture	-11.1436
▁telling	-11.1436
,000	-11.144
lain	-11.1448
hou	-11.1456
▁renounc	-11.146
▁trembl	-11.1468
liberation	-11.1482
▁van	-11.1483
▁metal	-11.1488
▁aggressive	-11.1506
▁clergy	-11.1506
▁elixir	-11.1506
▁luminosity	-11.1506
▁zenith	-11.1506
▁Enlightenment	-11.1506
▁Regent	-11.1506
▁oblation	-11.1506
▁escort	-11.1506
▁philosophical	-11.1506
▁beseech	-11.1506
▁ratnakara	-11.1506
unnan	-11.1506
▁forgiveness	-11.1507
▁unchanged	-11.1507
▁kaundinya	-11.1507
▁govinda	-11.1508
▁sixtyfour	-11.1508
▁cultural	-11.1509
▁wrathful	-11.1509
▁Commission	-11.1511
▁tathata	-11.1513
▁imputation	-11.1513
▁English	-11.1514
▁contentment	-11.1515
▁sikhin	-11.1515
▁ribb	-11.1517
▁police	-11.1518
▁mayadevi	-11.152
▁lament	-11.1521
▁uncertainty	-11.1521
▁heir	-11.1522
▁subh	-11.1523
▁wishlessness	-11.1531
this	-11.1531
ia	-11.1536
▁skandhas	-11.1536
▁donkeys	-11.1539
▁temporary	-11.1543
▁code	-11.1544
▁selfless	-11.1551
▁pus	-11.1554
▁befriend	-11.1557
K	-11.1571
cultivation	-11.1576
▁purely	-11.1577
▁extoll	-11.1578
▁thank	-11.1588
▁scholars	-11.1591
ambi	-11.1593
▁vaisravanas	-11.1593
▁standards	-11.1601
▁grace	-11.1606
ong	-11.1612
▁units	-11.1613
▁extract	-11.1615
▁writes	-11.1616
▁abuse	-11.163
▁introduced	-11.164
our	-11.1648
▁burnt	-11.1651
▁arrests	-11.1662
▁seize	-11.167
▁lifted	-11.1673
adulter	-11.1677
▁changes	-11.169
▁opinion	-11.1691
ying	-11.1699
▁ne	-11.1707
▁sprinkl	-11.1711
▁incur	-11.1714
▁disputes	-11.1715
▁finding	-11.1717
▁UN	-11.1723
hi	-11.1727
G	-11.173
ill	-11.1758
▁steal	-11.1772
▁deprive	-11.1789
▁gautam	-11.179
▁issues	-11.1791
▁cruel	-11.1798
▁medi	-11.1813
▁31	-11.1819
▁span	-11.182
seven	-11.182
▁27	-11.1823
▁spell	-11.1825
▁Maitreya	-11.1828
▁autumn	-11.1828
▁utensil	-11.1828
▁Gyenlog	-11.1828
▁Geshe	-11.1828
▁effigy	-11.1829
▁sugar	-11.183
▁consecration	-11.1832
▁baby	-11.1833
▁courageous	-11.1833
▁empower	-11.1834
form	-11.1835
▁oxen	-11.1835
▁useful	-11.1836
▁categories	-11.1837
▁confident	-11.1837
▁spontaneous	-11.1838
▁prophecies	-11.1839
▁security	-11.1839
propensities	-11.1843
▁losses	-11.1844
▁immaterial	-11.1845
▁accurately	-11.1846
▁revel	-11.1847
ice	-11.1848
▁pressure	-11.1853
▁involvement	-11.1856
▁1968	-11.1862
ewels	-11.1865
factory	-11.1869
▁disintegration	-11.1871
▁parties	-11.1873
▁tigers	-11.1876
▁si	-11.1877
▁nurses	-11.1879
▁viru	-11.1879
▁rituals	-11.1886
▁healer	-11.1894
▁quarrels	-11.1895
▁seren	-11.1898
0	-11.1899
▁forward	-11.1908
▁spreading	-11.1915
▁saved	-11.1915
▁news	-11.1921
▁grand	-11.1925
▁dependence	-11.1941
▁familiar	-11.1949
▁worked	-11.1961
eight	-11.1973
stine	-11.1977
▁reception	-11.1984
▁confine	-11.2013
▁unit	-11.202
▁messenger	-11.2023
▁camps	-11.2023
▁empire	-11.2027
▁defend	-11.203
▁piece	-11.2033
▁European	-11.2037
▁po	-11.2045
▁explanations	-11.2051
▁introduc	-11.2053
▁deceive	-11.2062
ro	-11.2066
ate	-11.2072
▁absorb	-11.2074
bhu	-11.2076
▁kala	-11.2084
▁Suc	-11.2087
▁reads	-11.2092
▁deposit	-11.2099
limited	-11.2101
▁expand	-11.2107
▁stone	-11.211
▁function	-11.2121
el	-11.2129
▁recent	-11.2136
elt	-11.214
▁active	-11.2141
▁suppress	-11.215
▁Drepung	-11.2162
▁anavatapta	-11.2162
▁leprosy	-11.2162
▁Sikang	-11.2162
▁Assembly	-11.2162
▁sterling	-11.2162
▁juice	-11.2162
▁mathara	-11.2162
▁repulsive	-11.2162
▁Administration	-11.2162
▁jump	-11.2163
▁Amban	-11.2163
▁preparing	-11.2165
▁bo	-11.2166
voluntary	-11.2167
▁haught	-11.2172
▁radio	-11.2172
▁subsume	-11.2175
▁encouraging	-11.2176
▁populated	-11.2181
▁driven	-11.2186
▁growth	-11.2187
▁adhering	-11.2187
▁beard	-11.2188
▁fed	-11.2188
▁compatible	-11.2189
1.	-11.2195
▁thereafter	-11.2195
▁hidden	-11.2198
▁generals	-11.2201
phat	-11.2204
▁giver	-11.2209
▁required	-11.2213
neath	-11.2214
Great	-11.222
▁acknowledged	-11.2231
▁dispelled	-11.2242
▁ge	-11.2245
ten	-11.2248
▁Whi	-11.2248
▁migrate	-11.2248
naksatraraja	-11.2255
prajapati	-11.2263
proclaimed	-11.2266
apprehensible	-11.2267
▁consistent	-11.2279
quarters	-11.2283
da	-11.2288
▁devour	-11.2295
ence	-11.2301
▁ward	-11.2302
▁nails	-11.2305
▁dur	-11.2307
▁introduce	-11.2309
ks	-11.2314
splitting	-11.2317
▁She	-11.2324
4	-11.2325
Tibet	-11.2333
▁appreciate	-11.2337
▁repeat	-11.2351
9	-11.2364
▁mark	-11.2368
upali	-11.2368
▁Minister	-11.2368
▁reward	-11.2369
▁basket	-11.2372
▁initiation	-11.2378
▁mud	-11.2379
▁sentence	-11.238
▁room	-11.2383
▁province	-11.2385
ach	-11.2396
▁commitments	-11.2397
▁refer	-11.24
▁ratnava	-11.2403
▁affect	-11.2412
tu	-11.2414
▁conjure	-11.2428
▁cant	-11.2436
▁interests	-11.2439
disturbed	-11.2442
▁consecrate	-11.245
▁laws	-11.2459
▁stray	-11.2461
▁convert	-11.2461
▁contaminat	-11.248
▁resolved	-11.248
▁pro	-11.2481
▁vigor	-11.2486
C	-11.2488
▁win	-11.2497
ottamaprabhasri	-11.2506
▁excruciating	-11.2506
▁leisure	-11.2506
▁Kuzmin	-11.2506
▁Stalin	-11.2506
▁cowherd	-11.2506
▁School	-11.2506
▁occupation	-11.2506
▁dominion	-11.2507
▁supratisthita	-11.2507
▁Meanwhile	-11.2507
▁supuspa	-11.2507
▁expansion	-11.2507
▁vimalanetra	-11.2507
▁regular	-11.2508
▁imagination	-11.2509
▁isudhara	-11.2509
▁refinement	-11.251
▁intoxicat	-11.2511
▁bend	-11.2511
▁eminent	-11.2511
▁secondary	-11.2512
▁smoke	-11.2512
AND	-11.2513
▁kubera	-11.2515
▁violation	-11.2516
▁covetousness	-11.2516
▁somewhere	-11.2516
▁vicious	-11.252
▁Convention	-11.2525
▁quiver	-11.2529
▁rescue	-11.2532
▁isolated	-11.2539
▁yuan	-11.2541
▁miser	-11.2541
▁reactionary	-11.2543
▁Furthermore	-11.2546
animate	-11.2548
▁touching	-11.2549
▁homa	-11.255
▁insult	-11.2551
▁War	-11.2551
▁mature	-11.2553
▁1964	-11.2554
▁cows	-11.2556
▁factions	-11.2561
▁et	-11.2567
▁assemble	-11.257
▁violence	-11.258
▁violent	-11.2583
▁agreements	-11.2583
▁normal	-11.2587
▁sara	-11.2588
▁planet	-11.2592
Tsang	-11.2599
▁pen	-11.2604
Tib	-11.2614
sive	-11.2615
▁e	-11.262
▁converse	-11.2623
▁agreeable	-11.2634
▁28	-11.2642
▁hop	-11.2642
▁mistakes	-11.2646
▁Ling	-11.2648
▁grows	-11.2649
▁planted	-11.2658
▁pretens	-11.2664
▁ta	-11.2664
6.	-11.2665
▁slight	-11.2667
▁dispell	-11.267
smell	-11.268
attachment	-11.2704
▁spen	-11.2706
▁wall	-11.2712
ial	-11.2713
▁produc	-11.2714
▁compell	-11.2725
bringing	-11.2726
▁derive	-11.2726
▁degree	-11.2728
▁beggar	-11.2728
ings	-11.2729
▁buildings	-11.2733
▁govern	-11.2739
▁opening	-11.2739
▁talks	-11.274
▁craft	-11.2747
▁worse	-11.2748
▁Culture	-11.2749
ecause	-11.2753
who	-11.2753
balan	-11.2757
▁propagate	-11.2769
lips	-11.2771
▁safeguard	-11.2771
tory	-11.2772
avel	-11.2774
▁mango	-11.2775
▁captivat	-11.278
▁leap	-11.2784
▁curl	-11.2787
v	-11.2807
▁omen	-11.2815
▁mad	-11.2826
▁criticize	-11.2829
▁hook	-11.2832
▁compar	-11.2837
▁precise	-11.2837
pradipa	-11.2838
▁fig	-11.2839
▁22	-11.2847
▁revile	-11.285
if	-11.2855
▁feat	-11.2856
▁plan	-11.2857
▁unfold	-11.2862
▁hypocrisy	-11.2864
▁topknot	-11.2864
▁disheartened	-11.2864
▁enmity	-11.2864
▁mahapadma	-11.2864
▁parrot	-11.2864
▁Publications	-11.2864
▁shudder	-11.2864
▁Sangha	-11.2864
▁enthusiasm	-11.2864
▁exegete	-11.2864
indolabharadvaja	-11.2864
▁resistance	-11.2864
▁ailment	-11.2864
▁departure	-11.2865
yfour	-11.2866
▁Under	-11.2867
▁dense	-11.2867
▁laymen	-11.2867
▁prior	-11.2867
▁feeble	-11.2867
▁accompany	-11.2867
▁renu	-11.2868
videha	-11.2869
▁separation	-11.2869
▁erroneous	-11.287
▁ratnaketu	-11.2871
ev	-11.2874
▁creator	-11.2877
▁double	-11.2879
▁motivated	-11.2879
▁ga	-11.288
▁ol	-11.288
▁science	-11.2881
▁guid	-11.2885
▁communes	-11.2891
▁circl	-11.2895
▁differentiate	-11.2896
▁yogini	-11.2897
▁Heaven	-11.2901
quired	-11.2904
lt	-11.2906
▁1979	-11.291
▁Chang	-11.2915
aka	-11.2919
▁emergenc	-11.2922
▁disparage	-11.2924
▁games	-11.2925
▁decre	-11.2943
▁minorities	-11.2952
▁fly	-11.2952
▁evening	-11.2953
▁gentl	-11.2959
▁executioner	-11.296
▁vases	-11.2972
kula	-11.2973
▁fearful	-11.2974
▁products	-11.2975
barbarians	-11.2978
▁pair	-11.298
▁industri	-11.2985
▁Unite	-11.299
▁rises	-11.2993
▁commenc	-11.3005
▁demonstrat	-11.3007
▁campaign	-11.3008
darsana	-11.3008
▁empires	-11.301
▁disrespect	-11.3024
▁murder	-11.3026
▁preserved	-11.3028
grasp	-11.3046
▁caves	-11.305
▁citra	-11.3057
▁pacifie	-11.3063
▁36	-11.3066
▁ananta	-11.3071
▁sins	-11.3078
▁inherently	-11.3086
▁kseman	-11.3092
▁festival	-11.3094
▁inclin	-11.3098
▁la	-11.3104
▁commander	-11.3118
un	-11.3121
ure	-11.3133
ook	-11.3148
▁pit	-11.3153
▁mani	-11.3178
▁fever	-11.3184
▁Militar	-11.3187
▁original	-11.3188
▁chamber	-11.3191
▁quiet	-11.3202
▁magnificen	-11.3202
▁remark	-11.3203
determination	-11.3218
▁24	-11.3226
▁acknowledge	-11.3227
▁pregnan	-11.3233
▁Bhutan	-11.3234
▁candrasurya	-11.3234
▁neglect	-11.3234
▁sustenance	-11.3234
▁vairocana	-11.3234
▁telegram	-11.3234
▁Phagpa	-11.3234
▁invincib	-11.3234
▁communities	-11.3234
▁delicious	-11.3234
▁emaciat	-11.3234
▁abundance	-11.3234
▁subordination	-11.3234
▁sibling	-11.3234
▁savage	-11.3234
▁vipasyin	-11.3235
▁purana	-11.3235
▁private	-11.3235
▁sheep	-11.3235
▁Work	-11.3237
▁begun	-11.3237
▁anxiety	-11.3238
▁installed	-11.3239
▁affection	-11.3241
▁Institute	-11.3241
od	-11.3242
▁Gelug	-11.3243
▁consequently	-11.3243
▁thrill	-11.3243
▁key	-11.3243
▁Tashilhunpo	-11.3243
▁machine	-11.3244
▁defect	-11.3245
erial	-11.3246
▁frown	-11.325
▁Bureau	-11.3253
▁confus	-11.3255
▁business	-11.3256
▁fought	-11.3259
▁relish	-11.3261
▁torch	-11.3264
pathy	-11.3264
▁leaf	-11.3277
▁unrest	-11.3278
▁titles	-11.3278
radatta	-11.328
▁corps	-11.3282
miri	-11.3291
arrow	-11.33
▁articles	-11.3303
▁invariab	-11.331
▁shells	-11.3311
▁puspa	-11.3312
▁elucidate	-11.3339
▁amass	-11.335
▁40	-11.3357
▁mis	-11.3361
▁illumine	-11.3364
▁conflicts	-11.3371
look	-11.3376
▁agni	-11.3384
retired	-11.3387
▁added	-11.339
om	-11.3391
ither	-11.3392
les	-11.3393
▁70	-11.3408
▁strengthen	-11.3426
▁ethnic	-11.343
▁judge	-11.3433
▁wa	-11.3434
well	-11.3447
7.	-11.3456
▁mistake	-11.346
▁circles	-11.3462
▁fox	-11.3467
▁gatherings	-11.3467
▁stomach	-11.3481
▁opponent	-11.3482
▁beast	-11.3483
▁resolution	-11.349
ah	-11.3497
▁attacks	-11.3499
▁Tib	-11.35
▁defil	-11.3527
work	-11.3528
▁exceed	-11.3529
▁imply	-11.3537
▁str	-11.3554
6	-11.3558
▁collapse	-11.3568
▁en	-11.3585
ipped	-11.3595
▁popular	-11.3607
▁gross	-11.3617
▁Enlai	-11.3618
▁Gyaltsen	-11.3618
▁diadem	-11.3618
▁allperva	-11.3619
▁jivaka	-11.3619
▁visvabhu	-11.3619
▁ksemadatta	-11.3619
▁commentary	-11.3619
▁resentment	-11.3619
▁category	-11.3619
▁infantry	-11.3619
▁adversaries	-11.3619
▁editor	-11.3621
▁Urn	-11.3621
▁opposite	-11.3623
▁lump	-11.3623
▁acquisitive	-11.3625
▁convey	-11.3625
In	-11.3626
▁insert	-11.3627
▁beverages	-11.3627
free	-11.3629
▁reliance	-11.3629
▁critical	-11.3629
▁supply	-11.3633
”).	-11.3635
▁singlepointed	-11.3635
▁Genghis	-11.3638
▁intimidated	-11.3641
▁existed	-11.3641
▁90	-11.3646
▁chance	-11.3648
▁windows	-11.3649
▁clearminded	-11.3651
▁pleasur	-11.3652
▁resolute	-11.3652
▁nationality	-11.3656
▁reproach	-11.3657
▁relinquishment	-11.366
▁beating	-11.3664
▁km	-11.3664
▁erected	-11.3667
▁salute	-11.368
▁cats	-11.3681
▁socialist	-11.3684
▁mentality	-11.369
▁thresh	-11.369
▁sincere	-11.3712
ces	-11.3716
▁wounds	-11.3716
▁camel	-11.3716
you	-11.3717
▁apprehensible	-11.3719
▁unlike	-11.3723
ions	-11.3725
▁arguments	-11.3734
▁ankle	-11.3741
▁healing	-11.3742
▁powerless	-11.3745
pratibhana	-11.375
▁warriors	-11.3755
▁riding	-11.3757
▁districts	-11.376
.3	-11.3765
▁originated	-11.3766
▁lap	-11.3776
▁develops	-11.3803
ns	-11.3806
▁sections	-11.3806
▁discourag	-11.3806
▁distribut	-11.3808
▁flute	-11.3829
▁link	-11.383
▁Do	-11.3832
▁fold	-11.3838
▁disciplines	-11.3843
▁edge	-11.3846
kind	-11.3847
long	-11.3847
▁45	-11.3852
▁lea	-11.3858
▁King	-11.3862
▁needles	-11.3862
▁advise	-11.3867
▁kick	-11.3871
▁strik	-11.3877
▁committ	-11.3878
▁Bodhisattva	-11.3879
”)	-11.388
▁loft	-11.388
▁envoy	-11.3882
▁demigod	-11.3889
▁district	-11.3892
▁constructed	-11.3895
▁centre	-11.3905
wards	-11.3907
mpati	-11.3909
▁2002.	-11.3914
▁1962	-11.3923
▁prevented	-11.3931
▁cup	-11.395
gates	-11.3961
▁26	-11.3962
▁ho	-11.3962
rthern	-11.3966
ngs	-11.3984
▁reduce	-11.3992
▁decorat	-11.3994
▁sending	-11.3999
▁goals	-11.4003
ke	-11.401
▁4.	-11.4014
cal	-11.4015
▁studies	-11.4015
▁Deng	-11.4017
▁require	-11.4017
▁Ministry	-11.4018
▁constellation	-11.4018
▁dhrtisena	-11.4018
▁magistrate	-11.4018
▁Palden	-11.4019
▁Tsongkhapa	-11.4019
▁asvajit	-11.4019
▁potential	-11.4019
uanye	-11.4019
▁Instead	-11.4019
▁destructive	-11.4019
▁sank	-11.4019
▁outflow	-11.402
▁unstable	-11.402
▁organiz	-11.4021
▁Hong	-11.4021
▁sanjayin	-11.4021
▁failed	-11.4022
▁alert	-11.4024
▁instantaneously	-11.4026
▁bhumi	-11.4028
ariness	-11.4031
▁counteract	-11.4037
▁Sikkim	-11.4039
▁Madhyamaka	-11.4039
▁bejewel	-11.4042
▁convened	-11.4045
hood	-11.4047
▁observance	-11.4047
▁KMT	-11.4049
▁dhrt	-11.405
▁multiple	-11.4051
uch	-11.4056
alms	-11.4062
▁hours	-11.4071
▁conscious	-11.4074
▁goats	-11.4074
▁suggested	-11.4078
▁demonstrations	-11.4085
theless	-11.409
drawn	-11.4093
▁eradicate	-11.4094
ite	-11.4095
▁citizens	-11.4097
▁impair	-11.4101
▁hill	-11.4104
▁La	-11.4117
▁Maoists	-11.4118
▁dissolve	-11.4118
ex	-11.4119
▁1991	-11.4123
▁igno	-11.4128
▁confer	-11.414
▁46	-11.4148
▁repro	-11.415
▁quell	-11.4152
▁maya	-11.4165
east	-11.4173
▁gandha	-11.4176
▁bows	-11.4178
▁crows	-11.4179
vara	-11.4179
▁Lamas	-11.4182
broken	-11.4183
pt	-11.4186
▁Ho	-11.4186
▁va	-11.4193
▁crave	-11.4196
▁choice	-11.4202
▁possessor	-11.4204
▁design	-11.4211
ust	-11.4219
territorial	-11.4241
▁scholar	-11.4255
sambhava	-11.4257
▁witnesses	-11.4262
▁flourishing	-11.4269
▁conceited	-11.4271
loka	-11.4279
rying	-11.4279
▁miri	-11.428
me	-11.428
ose	-11.429
▁component	-11.4292
thrown	-11.4294
▁superknowledge	-11.4294
▁creature	-11.4298
▁warrior	-11.4299
▁wanderer	-11.43
▁week	-11.4304
▁emulate	-11.4307
▁jnana	-11.4307
▁jaya	-11.4311
ference	-11.4321
▁difficulty	-11.4322
▁friendly	-11.4327
▁canop	-11.4329
▁errors	-11.4331
▁2,	-11.4335
▁blessing	-11.4348
▁gunarajaprabha	-11.4348
▁regain	-11.4363
reover	-11.4368
string	-11.4374
▁decision	-11.4376
ny	-11.4376
▁refute	-11.438
ner	-11.4382
▁dharanis	-11.4384
▁damage	-11.4385
▁rang	-11.4385
included	-11.4389
.5	-11.4401
▁Ngaw	-11.4401
▁muster	-11.4409
▁promote	-11.4412
lves	-11.4413
▁tax	-11.443
▁eclipse	-11.4434
▁annex	-11.4435
karunika	-11.4435
▁Dharamsala	-11.4435
▁Tulku	-11.4435
▁altruism	-11.4435
▁conscientious	-11.4435
▁kalyanamitra	-11.4435
▁misconstrue	-11.4435
▁palanquin	-11.4435
▁jungle	-11.4435
▁ideology	-11.4435
▁Karmapa	-11.4436
▁twice	-11.4436
▁forehead	-11.4436
▁motherland	-11.4436
▁expelled	-11.4436
▁unchanging	-11.4436
bsang	-11.4436
▁World	-11.4437
▁injury	-11.4437
▁revelation	-11.4437
▁ablaze	-11.4438
▁nonaffliction	-11.4438
going	-11.4439
▁nirg	-11.444
▁grind	-11.444
do	-11.444
▁Two	-11.4442
▁crooked	-11.4442
▁knife	-11.4442
▁bali	-11.4443
▁nearby	-11.4445
▁kanthaka	-11.4445
▁boat	-11.4445
▁Shakyamuni	-11.4445
▁Ganden	-11.4446
▁lo	-11.4452
rati	-11.4452
▁agitated	-11.4457
▁du	-11.4459
▁yield	-11.4461
▁entreat	-11.4462
▁vatsa	-11.4463
▁clutche	-11.4468
▁elegant	-11.4468
▁agriculture	-11.4471
▁prohibited	-11.4473
▁survive	-11.4474
▁cleans	-11.448
▁imposed	-11.4482
▁matr	-11.4491
acchat	-11.4491
▁Ma	-11.4491
▁1956	-11.4494
▁guns	-11.4496
▁deed	-11.4499
▁selfcontrol	-11.4499
▁fabrics	-11.4513
▁needle	-11.4514
▁ascend	-11.4517
▁collections	-11.4524
▁logic	-11.4529
▁audi	-11.4538
1,	-11.4542
▁39	-11.4543
▁1990	-11.4544
▁sink	-11.4546
▁Unit	-11.4547
those	-11.4548
▁core	-11.4551
▁Bell	-11.4555
▁stole	-11.4562
▁par	-11.4567
▁weeks	-11.4572
▁asita	-11.4576
T	-11.4578
▁veer	-11.458
erely	-11.4581
▁band	-11.4587
spoken	-11.4589
killed	-11.4592
▁execution	-11.4597
eaceful	-11.4598
▁ba	-11.46
▁commanders	-11.46
▁PR	-11.4604
▁ruined	-11.4608
▁halt	-11.4611
B	-11.462
▁trace	-11.4621
▁knot	-11.4625
▁reports	-11.4625
▁definite	-11.4627
▁1953	-11.463
▁inspiring	-11.4638
▁midd	-11.4639
▁contacts	-11.4646
▁flash	-11.4647
▁sama	-11.465
▁alike	-11.4654
▁natures	-11.4655
▁persist	-11.466
▁flawed	-11.4662
▁Gu	-11.4663
vikram	-11.4667
ining	-11.4668
▁revolt	-11.4669
▁row	-11.4675
▁sects	-11.4679
▁subordinate	-11.468
.2	-11.4694
estima	-11.4697
▁Not	-11.4698
0,000	-11.4701
avyuha	-11.4704
▁1951	-11.4715
▁appropriati	-11.4736
impair	-11.4738
▁2002	-11.4754
▁subsidi	-11.4754
▁invalid	-11.4758
▁instrument	-11.4759
rounded	-11.4762
▁crack	-11.4768
▁stead	-11.4771
▁pile	-11.4771
▁rite	-11.4775
▁investigat	-11.4775
▁delay	-11.478
8.	-11.4783
▁lesse	-11.4783
▁sala	-11.4802
ered	-11.4805
▁conceal	-11.4807
sattva	-11.4808
▁arrange	-11.4813
▁Sha	-11.4814
▁ox	-11.4836
po	-11.4843
▁German	-11.485
includ	-11.485
▁loved	-11.4852
▁exact	-11.4852
▁simile	-11.4857
▁prajna	-11.4858
3.	-11.4861
▁embrac	-11.4864
4.	-11.4865
▁Apparently	-11.487
▁appellation	-11.487
▁commerce	-11.487
▁drunk	-11.487
▁fatigue	-11.487
▁ayatana	-11.487
iaoping	-11.487
▁ceremonies	-11.487
▁survey	-11.487
▁fortnight	-11.487
apanese	-11.487
▁foretell	-11.487
▁displeasure	-11.4871
▁singular	-11.4871
▁lasso	-11.4871
▁Sometimes	-11.4872
▁duty	-11.4873
▁rotten	-11.4873
▁banned	-11.4873
▁sweat	-11.4873
▁waist	-11.4874
▁statehood	-11.4875
▁triple	-11.4875
▁pervad	-11.4875
▁dangerous	-11.4876
▁Ages	-11.4877
▁shackles	-11.488
▁Northern	-11.4881
▁scientific	-11.4882
▁arrangement	-11.4883
▁1912	-11.4883
▁chatter	-11.4884
▁predict	-11.4888
▁Germany	-11.489
▁medical	-11.489
▁owner	-11.4895
metic	-11.4896
▁approved	-11.4897
▁largest	-11.4899
patriotic	-11.4901
▁dynasties	-11.4905
▁ra	-11.4905
▁sufficient	-11.4906
▁excite	-11.4907
▁joint	-11.491
▁hurl	-11.4911
▁Prison	-11.4913
▁worshipped	-11.4913
▁subdu	-11.4913
▁difficulties	-11.4916
▁ignored	-11.4919
▁confirmed	-11.4921
▁1952	-11.4921
▁evident	-11.4922
▁changing	-11.4922
▁handful	-11.4923
▁1906	-11.4926
▁purposeful	-11.4928
▁descendants	-11.4928
▁successfully	-11.4929
bility	-11.4933
▁religions	-11.4937
▁paper	-11.4941
▁via	-11.4944
havyuha	-11.4947
▁mixe	-11.4949
▁concentrated	-11.4951
▁suppressed	-11.4967
9.	-11.4969
▁1981	-11.497
vyuha	-11.4977
▁eradicated	-11.4978
dy	-11.498
▁shoes	-11.4982
▁dropped	-11.4987
traits	-11.4988
▁honors	-11.499
▁38	-11.4996
citt	-11.5
▁crowns	-11.5009
▁prim	-11.5011
standing	-11.5013
▁lowly	-11.5013
▁sell	-11.5014
▁deepen	-11.5017
▁imperialists	-11.5017
▁clans	-11.5022
▁companion	-11.503
ine	-11.5036
▁ash	-11.5047
so	-11.5061
▁49	-11.5067
olation	-11.507
▁personally	-11.507
▁Ts	-11.5073
▁trainings	-11.5078
▁ru	-11.5096
▁construe	-11.5119
▁wine	-11.512
▁stat	-11.5121
▁viewer	-11.5121
eshe	-11.5134
▁dipa	-11.5141
▁pur	-11.5147
▁income	-11.5156
▁innumerab	-11.5156
▁vis	-11.5157
1	-11.5158
ears	-11.5164
▁pretext	-11.5168
▁consisted	-11.5169
▁shadow	-11.518
▁failure	-11.5182
▁obstacle	-11.5188
hara	-11.5192
▁gai	-11.5193
▁terrors	-11.5195
▁risen	-11.5198
▁pool	-11.5199
▁wool	-11.5201
▁rob	-11.5202
▁stock	-11.5203
▁diamond	-11.5203
▁standard	-11.5205
▁ties	-11.5205
▁prompt	-11.5205
ending	-11.5221
▁slave	-11.5225
kumarabh	-11.5227
bhi	-11.523
▁nadi	-11.5234
▁implement	-11.5234
▁obey	-11.5241
▁moons	-11.5243
▁adopting	-11.5249
▁unatt	-11.525
▁Buddhists	-11.5252
▁emulat	-11.5258
▁kos	-11.5264
▁route	-11.5264
▁u	-11.5289
▁laten	-11.5289
new	-11.5293
▁Hence	-11.5305
cessation	-11.5311
▁complex	-11.5312
7,	-11.5314
yukta	-11.5317
▁Manjushri	-11.5324
▁Perhaps	-11.5324
▁Prefecture	-11.5324
▁ammunition	-11.5324
▁assimilation	-11.5324
▁jaladhara	-11.5324
▁tomorrow	-11.5324
▁Congress	-11.5325
▁astringent	-11.5325
▁enormous	-11.5325
hongguo	-11.5325
▁Report	-11.5325
▁transmission	-11.5325
▁kosala	-11.5325
▁contingent	-11.5325
▁birch	-11.5325
▁residue	-11.5325
▁Consequently	-11.5325
▁Among	-11.5325
▁Kagyu	-11.5325
▁pluck	-11.5325
▁pavilion	-11.5325
▁puja	-11.5325
▁embody	-11.5326
▁average	-11.5326
poch	-11.5326
igme	-11.5327
▁preeminen	-11.5327
▁vitality	-11.5328
▁bedeck	-11.5328
▁ganga	-11.5328
▁foster	-11.5328
▁wrongdoing	-11.5329
▁Tenzin	-11.5331
▁adherence	-11.5333
▁sweep	-11.5334
▁unmoving	-11.5334
▁NPC	-11.5335
▁beginningless	-11.5336
▁depressed	-11.5338
▁substantial	-11.5339
▁uncertain	-11.5339
▁counties	-11.5339
▁nominal	-11.5341
▁bride	-11.5341
▁upright	-11.5341
▁Autonom	-11.5341
▁Gurkhas	-11.5341
▁comport	-11.5342
▁worry	-11.5347
▁waver	-11.5347
▁deny	-11.535
▁1949,	-11.5352
▁luster	-11.5359
▁hanging	-11.5363
▁oncereturner	-11.5363
▁PC	-11.5365
▁corporeal	-11.5366
▁wave	-11.5368
▁crane	-11.537
▁saila	-11.5372
▁initially	-11.5373
▁Other	-11.5374
▁accuse	-11.5374
ological	-11.5376
▁inquiry	-11.5376
▁amrta	-11.5377
▁Lies	-11.5381
▁searches	-11.5381
▁processes	-11.5387
China	-11.5393
▁Norbulingka	-11.5397
much	-11.5403
▁protests	-11.5404
▁1995	-11.5412
▁54	-11.5413
▁tee	-11.5414
▁movements	-11.5424
▁suggests	-11.5426
▁expanded	-11.5427
vas	-11.5433
▁imp	-11.5435
▁stationed	-11.544
▁enhanced	-11.5441
▁shooting	-11.5442
▁lakes	-11.5446
▁tire	-11.5449
undifferentiated	-11.5453
ok	-11.5455
▁criticized	-11.5459
im	-11.5461
▁Confucian	-11.5464
▁clarifie	-11.5474
▁seasons	-11.5475
▁melod	-11.549
ves	-11.5499
▁crafts	-11.5499
era	-11.5499
▁reincarnate	-11.5513
▁orders	-11.5517
▁consum	-11.5524
six	-11.5524
▁argument	-11.5531
piritual	-11.5536
▁deriv	-11.5542
▁harvests	-11.5546
▁supposed	-11.5548
5	-11.5557
▁Al	-11.5561
▁cu	-11.5568
▁Sun	-11.5569
▁owners	-11.5569
▁ver	-11.5571
▁44	-11.5577
lying	-11.5584
▁sacrifices	-11.5587
res	-11.5608
▁foundations	-11.5612
▁container	-11.5614
ached	-11.5621
▁measur	-11.5628
▁behave	-11.563
▁posts	-11.5633
▁agents	-11.5634
▁rudra	-11.5635
E	-11.5642
yang	-11.5644
▁Sutra	-11.5658
▁garrison	-11.5661
▁aberration	-11.5663
▁declaration	-11.5664
▁organization	-11.5665
▁capa	-11.5667
▁shrine	-11.5667
”:	-11.5668
▁shame	-11.5669
ON	-11.5669
▁conqueror	-11.5674
▁obscure	-11.5686
▁Da	-11.5688
▁encircl	-11.5688
▁composition	-11.569
tting	-11.5692
adana	-11.5693
ides	-11.5706
▁detach	-11.5709
▁disrupt	-11.5713
▁recover	-11.5721
stray	-11.5722
▁settl	-11.5753
▁fle	-11.5753
▁interrupt	-11.5754
▁imperialist	-11.5756
▁saving	-11.5756
5.	-11.5768
▁promulgate	-11.5769
▁Wang	-11.577
▁clarifi	-11.5777
▁Be	-11.5787
▁comfortabl	-11.5798
▁BODHI	-11.5801
▁pratimoksa	-11.5801
▁Constitution	-11.5801
▁Klinov	-11.5801
▁Marxism	-11.5801
▁PERFECTION	-11.5801
▁TEACHINGS	-11.5801
▁foedestroyer	-11.5801
▁lokayata	-11.5801
▁nondispers	-11.5801
▁Kingdom	-11.5801
ATURE	-11.5801
▁visakha	-11.5801
▁morsel	-11.5801
▁imperceptible	-11.5801
▁seclusion	-11.5801
▁pandaka	-11.5801
▁injuries	-11.5801
▁Local	-11.5801
▁apparition	-11.5801
▁slowly	-11.5802
▁appreciation	-11.5802
▁intensity	-11.5802
▁feasible	-11.5803
injiang	-11.5804
▁sujata	-11.5804
▁investigation	-11.5805
▁breast	-11.5805
▁padmasri	-11.5805
▁impart	-11.5808
▁enthusiastic	-11.5808
▁CIA	-11.5809
▁Ladakh	-11.5812
▁capacities	-11.5812
▁roasted	-11.5812
▁strata	-11.5813
▁foreordain	-11.5814
▁poisons	-11.5814
▁worms	-11.5815
▁Sera	-11.5815
▁sequence	-11.5816
▁innate	-11.5817
▁remov	-11.5818
▁prediction	-11.5821
▁favour	-11.5829
▁glad	-11.5831
▁drdha	-11.5832
▁penetrat	-11.5833
▁phase	-11.5833
▁doctrinal	-11.5834
▁Before	-11.5838
▁White	-11.5839
▁fourline	-11.584
▁muni	-11.5842
▁ve	-11.5846
▁aggregat	-11.5846
▁dweller	-11.5848
▁sobha	-11.585
eva	-11.5852
▁athlete	-11.5855
▁hither	-11.586
▁institutions	-11.5865
rom	-11.5869
parasites	-11.5874
▁hierarchs	-11.588
▁tranquili	-11.5881
▁consecrat	-11.5882
▁1976	-11.5885
▁afar	-11.5886
bala	-11.589
il	-11.5894
▁How	-11.5897
▁omens	-11.59
▁stealing	-11.5901
▁distorted	-11.5903
▁walkway	-11.5903
▁scar	-11.5903
▁traders	-11.5913
▁elevat	-11.5915
▁colored	-11.5918
thi	-11.592
▁threatening	-11.5922
▁lend	-11.5925
▁compos	-11.5939
romises	-11.594
▁mucilinda	-11.5941
▁crimes	-11.5943
▁35	-11.5946
▁exp	-11.5948
▁households	-11.5962
his	-11.5963
▁yoke	-11.5967
▁unend	-11.5968
▁version	-11.5968
▁blend	-11.5976
how	-11.5979
pit	-11.5979
▁bore	-11.5981
▁Woeser	-11.5982
▁presentation	-11.5982
▁danc	-11.5983
▁garb	-11.5984
asena	-11.5984
de	-11.5987
▁fevers	-11.5994
67.	-11.6003
armed	-11.6006
▁surya	-11.6009
black	-11.6011
▁disagree	-11.6012
we	-11.6015
▁Liu	-11.6022
▁overcom	-11.6026
grant	-11.6027
▁yanas	-11.6029
serf	-11.6031
usvara	-11.6032
has	-11.6037
▁implie	-11.6046
ayers	-11.6049
ref	-11.6054
dressed	-11.6061
▁mans	-11.6067
▁yaks	-11.6072
▁secretly	-11.6077
▁convince	-11.6091
▁Wu	-11.6095
▁trick	-11.6103
.21	-11.6103
▁additional	-11.6109
▁values	-11.6113
▁Nam	-11.612
▁Is	-11.6124
rning	-11.6127
vious	-11.6129
struggle	-11.6131
.40	-11.6149
chen	-11.6151
▁hopes	-11.6152
air	-11.6156
dhvaja	-11.6161
▁peasant	-11.6162
▁motionless	-11.6167
▁barbarians	-11.6172
▁communist	-11.6175
iputra	-11.6178
ages	-11.618
▁mendican	-11.6181
▁dangers	-11.6182
▁stem	-11.6185
▁descende	-11.6188
▁ka	-11.6192
▁objectives	-11.6193
line	-11.6201
▁magic	-11.6202
▁accumulat	-11.6206
ink	-11.621
▁clod	-11.6211
▁searched	-11.6226
▁responsib	-11.6235
▁troubles	-11.6237
▁radiat	-11.6243
▁posit	-11.6248
ability	-11.6258
minded	-11.6259
▁signing	-11.6259
suitable	-11.6262
▁preoccup	-11.6264
▁divide	-11.6265
▁34	-11.6265
▁capture	-11.6268
.31	-11.6271
▁apparent	-11.6272
▁relationships	-11.6282
▁satisfie	-11.6283
▁hinder	-11.6285
▁stands	-11.6287
4,	-11.6295
ehicle	-11.63
garjita	-11.6301
▁Ledovsky	-11.6301
▁Society	-11.6301
▁magnolia	-11.6301
▁protuberance	-11.6301
▁punyottama	-11.6301
▁umbrella	-11.6301
▁Office	-11.6301
▁opportunities	-11.6301
▁domestic	-11.6301
▁reputation	-11.6301
▁uncountabl	-11.6301
▁widespread	-11.6301
▁conquest	-11.6301
▁turtle	-11.6301
▁Parenti	-11.6301
▁policies	-11.6301
▁simhala	-11.6301
▁sarika	-11.6302
▁footprint	-11.6302
point	-11.6302
▁ninth	-11.6302
▁planned	-11.6302
▁annihilation	-11.6302
▁ownership	-11.6303
▁unclean	-11.6303
▁hateful	-11.6304
▁sahadeva	-11.6304
▁Econom	-11.6305
▁eleven	-11.6305
▁append	-11.6306
▁illustration	-11.6307
▁LAM	-11.6308
descending	-11.6311
▁rupakaya	-11.6312
▁probably	-11.6312
▁Last	-11.6312
▁available	-11.6312
▁originating	-11.6315
▁jail	-11.6316
▁compris	-11.6317
▁missing	-11.6318
merged	-11.6318
▁confiscated	-11.6319
▁census	-11.632
▁32	-11.6322
▁elected	-11.6322
▁bolt	-11.6325
▁criticism	-11.6326
▁facts	-11.6326
abilities	-11.6331
▁ut	-11.6334
▁pastures	-11.6334
▁analytic	-11.6336
▁headquarters	-11.6338
▁Kardze	-11.6339
▁defence	-11.6341
▁vais	-11.6345
▁condemn	-11.635
▁annihilate	-11.6351
▁teams	-11.6362
▁model	-11.6363
ripu	-11.6367
.47	-11.6379
ground	-11.6396
▁2009.	-11.6396
SPIR	-11.6402
ww	-11.6404
▁infinity	-11.6406
▁generations	-11.6412
▁rent	-11.6413
▁rsi	-11.6414
▁encircle	-11.642
ese	-11.6426
▁33	-11.6431
grahas	-11.6432
.4	-11.6447
▁flock	-11.6448
▁singled	-11.6449
cognized	-11.6451
▁blinded	-11.6461
wax	-11.6466
up	-11.6468
▁wake	-11.6478
▁tantras	-11.649
▁cared	-11.6493
sciences	-11.6494
▁Wei	-11.6495
▁keeper	-11.6495
▁transit	-11.6497
▁prabh	-11.6497
▁Sevent	-11.6498
▁42	-11.65
▁thigh	-11.65
.14	-11.651
▁accus	-11.6514
ghosas	-11.6518
▁bury	-11.6524
term	-11.6526
samudgata	-11.6529
no	-11.6543
▁relie	-11.6543
3,	-11.6547
▁aloe	-11.6549
▁Know	-11.6551
▁dispassion	-11.6551
sirsa	-11.6557
▁57	-11.6562
▁boon	-11.6571
▁leg	-11.6577
way	-11.6593
yeshe	-11.6604
dvipa	-11.6606
▁shout	-11.6606
mukha	-11.661
precedent	-11.6613
vin	-11.6615
▁hover	-11.6616
▁64	-11.6616
▁dislike	-11.6647
▁dissolut	-11.6652
▁los	-11.6655
▁neutralize	-11.6656
▁43	-11.6668
▁emotion	-11.6669
▁pala	-11.667
▁identification	-11.6679
▁influences	-11.6684
passionate	-11.6686
2.	-11.6687
▁untouchable	-11.669
▁guerrilla	-11.669
▁80	-11.6693
consciousness	-11.6709
.38	-11.6711
break	-11.6713
separabl	-11.6713
▁abhi	-11.6716
▁assign	-11.6719
▁American	-11.6721
▁1959.	-11.6728
▁strange	-11.6732
▁tea	-11.6734
▁urg	-11.6736
.36	-11.6746
▁Politic	-11.6749
▁Subsequent	-11.6752
▁wh	-11.6763
▁dependently	-11.6765
stand	-11.6768
▁gr	-11.6773
adaman	-11.6782
▁noise	-11.6793
integrated	-11.6798
▁wo	-11.6802
▁1954	-11.6814
▁ceaseless	-11.6817
inity	-11.6824
▁Besprozvannykh	-11.6827
▁Nanjing	-11.6827
▁candapradyota	-11.6827
▁dharmadinna	-11.6827
▁inalienable	-11.6827
▁pancasikha	-11.6827
▁parivrajaka	-11.6827
▁schism	-11.6827
▁engulf	-11.6827
▁intercourse	-11.6827
▁clarity	-11.6827
▁midnight	-11.6827
▁Commentary	-11.6827
▁burns	-11.6827
▁undaunted	-11.6827
▁forbidden	-11.6828
▁plague	-11.6828
▁incapa	-11.6828
▁Lake	-11.6829
▁deaf	-11.6829
▁exposition	-11.683
▁stabilization	-11.6836
▁sunlight	-11.6836
eard	-11.6839
▁Guohua	-11.6839
▁Dartsedo	-11.6839
▁Nikolsky	-11.6839
▁combat	-11.6839
▁suicide	-11.6839
▁misguided	-11.6839
▁vegadharin	-11.684
▁robbed	-11.684
▁illegal	-11.684
▁embodiment	-11.684
▁elucidation	-11.6841
▁homeland	-11.6842
▁narrow	-11.6842
jnajnanabhi	-11.6844
ants	-11.6847
▁Over	-11.6849
▁dung	-11.6853
▁devote	-11.6856
▁gap	-11.6858
▁1965	-11.6861
▁Follow	-11.6869
▁Rights	-11.6869
▁undertaking	-11.6883
et	-11.6884
achieving	-11.6888
▁Out	-11.689
▁vanquishe	-11.6892
▁Dzungars	-11.6893
▁evolution	-11.6895
▁liberati	-11.6895
▁capab	-11.6898
OM	-11.6899
▁Hu	-11.6901
▁collapsed	-11.6903
▁blocked	-11.6911
▁punished	-11.6915
authorized	-11.6918
▁1957	-11.6919
▁pack	-11.692
▁agar	-11.6924
▁seriously	-11.6926
▁conceptuality	-11.6927
▁48	-11.6931
▁ghosts	-11.6935
▁symbols	-11.6936
):	-11.6936
pati	-11.6937
▁insatiabl	-11.6939
▁tortured	-11.6942
76	-11.6943
▁painted	-11.6951
▁lame	-11.6954
▁channels	-11.6959
▁county	-11.6961
whether	-11.6961
▁authors	-11.6962
▁achievements	-11.6962
▁1998	-11.6965
▁125	-11.6966
there	-11.6973
▁luna	-11.698
▁discussed	-11.6984
▁soup	-11.6984
ut	-11.6991
8	-11.6995
▁More	-11.7006
▁wail	-11.7008
▁37	-11.7021
ins	-11.7025
▁degrees	-11.7032
▁fate	-11.7033
base	-11.7041
▁forc	-11.7049
▁caring	-11.705
▁lick	-11.7052
▁St	-11.7054
▁sva	-11.7072
▁despise	-11.7085
▁alleviate	-11.7091
▁seer	-11.7101
▁51	-11.7101
inking	-11.7107
bodhi	-11.7107
▁consummate	-11.7111
▁illuminati	-11.7111
SA	-11.7116
other	-11.7118
chub	-11.712
nother	-11.712
dwelling	-11.7124
althy	-11.7129
▁advocate	-11.7132
▁padmotta	-11.714
▁tur	-11.714
▁detachments	-11.7145
▁Religio	-11.7172
▁threats	-11.7178
5,	-11.7178
▁admire	-11.7193
▁date	-11.7195
▁conclude	-11.7204
▁Truths	-11.721
▁exclude	-11.7214
▁differ	-11.7219
▁pos	-11.7226
msa	-11.724
gravel	-11.7241
▁office	-11.7241
▁Snow	-11.7243
ree	-11.7244
go	-11.7244
▁channel	-11.7246
▁disintegrat	-11.7247
▁passage	-11.7251
▁calculation	-11.7256
▁hate	-11.7257
▁street	-11.7259
▁boun	-11.7262
▁spear	-11.7262
▁Maoist	-11.7263
▁achievement	-11.7265
▁stamp	-11.7268
▁neighbour	-11.7275
▁paint	-11.7278
▁remorse	-11.7284
▁reincarnations	-11.7287
▁surrender	-11.7292
▁udayi	-11.7292
will	-11.7296
▁plead	-11.7305
oppressed	-11.7309
sky	-11.7311
ded	-11.7313
destroyed	-11.7317
▁brow	-11.7329
▁performance	-11.7331
▁exercise	-11.7332
▁discontent	-11.7336
▁decide	-11.7341
▁discriminat	-11.7346
▁protest	-11.735
awful	-11.7357
▁frequent	-11.7359
▁weaken	-11.7364
▁focuse	-11.7375
IR	-11.7377
▁pra	-11.738
▁exhort	-11.7381
▁Dromt	-11.7383
▁District	-11.7383
▁Kumbum	-11.7383
▁aphorism	-11.7383
▁dharmadhatu	-11.7383
▁plentiful	-11.7383
▁unrelenting	-11.7383
▁Lithang	-11.7383
▁Thubten	-11.7383
▁Conference	-11.7383
▁facilities	-11.7383
▁gatekeeper	-11.7383
▁ghosadatta	-11.7383
▁negativities	-11.7383
▁Finally	-11.7383
▁razor	-11.7383
▁Tenpa	-11.7383
▁initiative	-11.7383
▁divisive	-11.7383
▁equipment	-11.7383
▁unrival	-11.7384
▁preliminary	-11.7384
▁ineffabl	-11.7385
▁laypeople	-11.7385
▁twentyeight	-11.7387
▁desist	-11.7389
▁married	-11.739
vadana	-11.739
UAL	-11.739
▁amusement	-11.7391
▁infant	-11.7394
▁Moscow	-11.7395
▁wondrous	-11.7395
▁liberator	-11.7396
▁imprisoned	-11.7396
▁philosopher	-11.7398
▁atmosphere	-11.7399
▁Religion	-11.7399
▁cleanse	-11.7401
▁treaties	-11.7402
▁loose	-11.7403
▁offense	-11.7404
ural	-11.7404
▁vigilant	-11.7406
▁symbol	-11.7407
▁lett	-11.7409
▁launched	-11.7409
▁abolished	-11.741
▁fin	-11.7415
▁auspiciousness	-11.7422
▁peril	-11.7422
▁1955	-11.7428
▁illuminator	-11.7432
▁builder	-11.7434
▁contempt	-11.7435
▁treatment	-11.7435
▁endur	-11.7444
▁1975	-11.7446
▁1985	-11.745
▁aristocrats	-11.7451
hao	-11.7453
▁mentors	-11.7455
▁disorders	-11.7458
▁severely	-11.7463
▁enjoin	-11.7463
ul	-11.7466
bha	-11.7466
kin	-11.7467
bhadra	-11.7475
▁float	-11.7476
pped	-11.7481
rn	-11.7482
▁manju	-11.7482
▁Translat	-11.7484
▁Conce	-11.7484
▁downward	-11.7485
▁occasions	-11.7488
▁abused	-11.749
▁reversed	-11.75
▁dissimilar	-11.7502
▁chains	-11.7503
▁Un	-11.7504
▁herd	-11.7518
adatta	-11.7521
▁Old	-11.7522
▁backward	-11.7523
ip	-11.7533
▁formally	-11.7534
▁shrines	-11.7544
▁satiate	-11.7545
▁declarations	-11.7545
▁da	-11.7553
▁monarchy	-11.7555
ith	-11.7558
▁laud	-11.756
▁car	-11.7562
▁fe	-11.7567
▁oversee	-11.7576
▁peer	-11.758
▁crow	-11.7588
aimed	-11.7597
▁uproot	-11.7598
▁poisoned	-11.7603
based	-11.7607
.29	-11.761
ohn	-11.761
▁bushe	-11.7611
▁myna	-11.7615
rained	-11.7615
▁spin	-11.762
▁tie	-11.7622
▁employed	-11.7623
▁Ar	-11.7625
▁rough	-11.7627
▁preserv	-11.7632
▁prescribe	-11.7637
▁trample	-11.7637
angu	-11.765
▁suns	-11.7654
sults	-11.7661
▁yath	-11.7662
▁Lin	-11.7663
.39	-11.7664
▁sho	-11.7665
DI	-11.7674
ubsequently	-11.768
▁multipl	-11.7681
▁combin	-11.7689
▁pill	-11.7697
satru	-11.7698
minority	-11.7703
▁describ	-11.7704
▁intellectual	-11.7708
ampa	-11.7708
revolutionary	-11.7715
▁downfall	-11.7717
ize	-11.7726
lls	-11.773
ties	-11.7736
8,	-11.7738
fighting	-11.7738
▁Andre	-11.7741
▁block	-11.7741
ible	-11.7741
▁conditional	-11.7756
▁expect	-11.776
▁rounds	-11.776
▁amogha	-11.7761
cluded	-11.7765
chan	-11.7766
▁deport	-11.777
ared	-11.7773
year	-11.7774
rous	-11.7777
▁brain	-11.7778
.12	-11.7781
▁chain	-11.7783
▁precede	-11.7785
▁tail	-11.7788
▁immeasurab	-11.7795
▁trial	-11.78
▁55	-11.7805
ie	-11.7806
acity	-11.7808
▁sessions	-11.7813
esults	-11.7817
▁impression	-11.7819
▁oral	-11.7819
▁elde	-11.7819
ridge	-11.7819
▁caturmaharaj	-11.7823
aprapt	-11.7824
▁inscription	-11.7826
▁patrons	-11.7829
▁attraction	-11.7831
cloud	-11.7831
▁abbot	-11.7832
▁advantage	-11.7834
▁95	-11.7835
▁particle	-11.7835
▁constituent	-11.7836
▁Friend	-11.7844
▁prisoner	-11.7848
▁visualiz	-11.7849
pp	-11.785
▁belly	-11.7852
surpassed	-11.7853
▁upward	-11.7859
▁trader	-11.7862
ak	-11.7873
▁41	-11.7881
npa	-11.7887
sutra	-11.7909
▁85	-11.7909
▁sites	-11.7909
▁sakras	-11.7918
▁voyage	-11.7954
▁confront	-11.7965
ances	-11.7965
proof	-11.7966
mitayus	-11.7967
▁Department	-11.7971
▁Robert	-11.7971
▁bracelet	-11.7971
▁equivalent	-11.7971
▁receptacle	-11.7971
▁retribution	-11.7971
▁incessant	-11.7971
▁uruvilva	-11.7971
▁Soepa	-11.7971
▁afternoon	-11.7971
▁cavalry	-11.7971
▁jnanabala	-11.7971
irmitavasavartin	-11.7971
▁energy	-11.7971
▁unattractive	-11.7971
▁sugarcan	-11.7971
▁kettledrum	-11.7971
▁glass	-11.7971
▁swamp	-11.7971
▁Temple	-11.7971
▁malign	-11.7971
▁network	-11.7971
▁pamsu	-11.7972
▁guhyaka	-11.7972
▁affectionate	-11.7972
▁contrast	-11.7972
▁straw	-11.7972
▁congregation	-11.7972
▁undoubtedly	-11.7973
▁partridge	-11.7973
iranjan	-11.7973
▁intact	-11.7973
▁northeast	-11.7973
▁enthrallment	-11.7973
▁steep	-11.7973
▁arous	-11.7973
▁slaughter	-11.7974
▁vagisvar	-11.7975
▁starving	-11.7976
▁salutation	-11.7976
▁cubit	-11.7977
▁dominant	-11.7977
▁paran	-11.7977
▁monster	-11.7978
▁celibate	-11.7979
▁sadden	-11.7979
▁breeze	-11.7981
▁visnu	-11.7981
▁thicket	-11.7982
▁rallies	-11.7983
▁seventeen	-11.7983
▁President	-11.7984
▁inheritance	-11.7984
▁spoil	-11.7985
▁accomplishe	-11.7985
▁illumin	-11.7985
▁annexation	-11.7986
▁undistracted	-11.7986
▁obliged	-11.7986
▁participation	-11.7987
▁hail	-11.7987
▁idle	-11.7988
▁princess	-11.7988
▁assured	-11.7988
▁dhatu	-11.7988
▁charity	-11.7989
▁graha	-11.7992
▁accusation	-11.7994
▁tend	-11.7994
▁Second	-11.7995
▁dragg	-11.7997
FE	-11.7999
▁frequently	-11.8
▁initiated	-11.8
▁unification	-11.8002
▁battles	-11.8002
▁farther	-11.8004
▁erect	-11.8005
▁shaven	-11.8007
▁Lord	-11.8009
known	-11.8015
ntiquity	-11.8016
▁democracy	-11.8016
▁matur	-11.8017
▁10,	-11.8019
tuck	-11.802
pani	-11.802
▁tolerate	-11.8023
.60	-11.8028
ey	-11.8029
▁gripp	-11.803
tra	-11.803
▁bhaya	-11.803
▁imperishab	-11.8032
▁Kadam	-11.8033
▁smaller	-11.8034
▁1972	-11.8034
▁High	-11.8034
▁valleys	-11.8035
▁bubbles	-11.8043
▁depriv	-11.8051
83	-11.8052
▁conceiv	-11.8057
▁directives	-11.8058
▁Muslims	-11.806
▁prabha	-11.806
atsen	-11.8063
▁media	-11.8068
▁por	-11.8071
▁lu	-11.8074
.20	-11.8076
liness	-11.8077
▁suffic	-11.8079
discipline	-11.8081
▁supporters	-11.8086
▁fasten	-11.8089
▁cal	-11.809
▁bars	-11.8091
▁repeating	-11.8094
▁noncondition	-11.8096
▁1994	-11.8097
▁constituents	-11.8109
▁advantages	-11.811
taught	-11.811
▁1977	-11.8118
▁chiefs	-11.8126
▁utterance	-11.8126
▁qu	-11.8128
▁trap	-11.8128
▁sum	-11.8129
▁reservation	-11.8135
tiful	-11.8137
▁officially	-11.8139
▁72	-11.8142
▁ridicule	-11.8143
macakrapravartin	-11.8148
▁61	-11.8153
▁sap	-11.8153
▁hu	-11.8157
▁59	-11.8158
ager	-11.8163
▁shak	-11.8166
▁rate	-11.8172
▁bhadra	-11.8174
▁thin	-11.8175
wang	-11.8176
▁stirr	-11.8181
guarded	-11.8181
▁stalk	-11.8189
went	-11.8201
▁deceiv	-11.8204
▁Gus	-11.8207
▁subjugate	-11.8213
▁nomad	-11.8217
▁126	-11.8222
onsequences	-11.823
▁favorable	-11.823
R	-11.8233
▁atom	-11.8236
▁metals	-11.8238
▁transcende	-11.8239
▁140	-11.824
▁52	-11.8247
parents	-11.8253
▁defame	-11.8257
▁curd	-11.8259
eriod	-11.8264
▁worrie	-11.8267
▁grave	-11.8275
▁cur	-11.8277
rself	-11.8277
▁auster	-11.8287
▁exceptional	-11.8312
▁scorch	-11.8319
▁65	-11.832
traya	-11.8325
▁manif	-11.8332
▁63	-11.8333
▁68	-11.8341
▁visits	-11.8341
▁56	-11.835
▁suggest	-11.836
▁perpetuate	-11.8363
▁infern	-11.8363
▁adherent	-11.8367
U	-11.837
▁peacefully	-11.837
We	-11.8374
▁vultures	-11.8378
ston	-11.8384
▁blemish	-11.8395
▁charm	-11.8397
.48	-11.8401
▁wound	-11.8402
▁chase	-11.8402
shore	-11.8405
▁mar	-11.8427
.37	-11.8427
▁freely	-11.8427
▁Song	-11.8446
▁fat	-11.8455
▁horri	-11.8457
▁repair	-11.8458
appraisa	-11.8462
▁stir	-11.8463
▁slope	-11.8467
▁committee	-11.8469
arts	-11.847
▁generation	-11.8471
▁victim	-11.8472
eval	-11.8472
▁celebrate	-11.8474
▁crime	-11.8477
ani	-11.8477
▁laugh	-11.8485
▁interpretation	-11.8489
▁thirtyth	-11.849
nistha	-11.8497
ravakayana	-11.8504
▁punish	-11.8506
▁rouse	-11.8509
utonomous	-11.8516
cardin	-11.8523
what	-11.8525
harm	-11.8526
▁trie	-11.8534
rived	-11.8553
▁dish	-11.8558
▁bare	-11.856
▁test	-11.8563
▁100	-11.8567
▁obvious	-11.8567
when	-11.8581
chi	-11.8582
cause	-11.8585
rings	-11.8589
▁Initially	-11.8596
▁London	-11.8596
▁Taiwan	-11.8596
▁Turkestan	-11.8596
▁atharva	-11.8596
▁cataract	-11.8596
▁ceremonial	-11.8596
▁crocodile	-11.8596
▁grateful	-11.8596
▁necessarily	-11.8596
▁pancala	-11.8596
▁yajur	-11.8596
▁longevity	-11.8596
▁betroth	-11.8596
▁ecsta	-11.8596
▁mahagovinda	-11.8596
▁jnanottama	-11.8596
▁starvation	-11.8596
▁Nyima	-11.8596
▁cliff	-11.8596
▁disenchant	-11.8596
▁vidyadhara	-11.8596
▁sextillion	-11.8596
▁Chengdu	-11.8596
▁buddhadharma	-11.8596
▁Harrer	-11.8596
▁horseback	-11.8596
▁circum	-11.8596
▁Phuntsok	-11.8596
▁Palace	-11.8596
▁nihilism	-11.8596
▁erudit	-11.8597
▁confidential	-11.8597
▁transportation	-11.8598
▁rahu	-11.8598
▁campaka	-11.8598
▁Sino	-11.8598
▁mahabala	-11.8599
▁southeast	-11.8599
▁meantime	-11.8599
▁insignificant	-11.8599
▁buried	-11.8599
▁Tantra	-11.86
CTION	-11.86
▁altogether	-11.86
▁venture	-11.8601
▁rational	-11.8602
▁Sangy	-11.8602
▁tongues	-11.8603
▁expectation	-11.8605
▁lifeforce	-11.8605
▁assert	-11.8607
▁mahadevi	-11.8608
▁quench	-11.8608
▁strew	-11.8609
▁surprising	-11.8609
▁grabb	-11.8609
▁Charter	-11.8609
▁grammar	-11.8609
▁Sanskrit	-11.8609
▁barbaric	-11.8609
▁integrity	-11.861
▁rifles	-11.861
▁shouting	-11.861
▁172	-11.8611
▁experiential	-11.8611
▁voluntari	-11.8611
▁1913	-11.8611
ocre	-11.8611
▁politics	-11.8612
▁identified	-11.8613
▁solution	-11.8615
▁Deput	-11.8615
▁awake	-11.8616
▁abhaya	-11.8618
▁khans	-11.8618
▁forgive	-11.8622
▁benevolent	-11.8623
.56	-11.8624
▁obviously	-11.8625
▁offensive	-11.8628
▁lustful	-11.8628
▁recorded	-11.8629
▁labor	-11.8636
.6	-11.8637
▁closer	-11.864
▁shut	-11.8641
ional	-11.8651
▁exercised	-11.8655
▁harmonious	-11.8658
▁risk	-11.866
akama	-11.8662
srigarbha	-11.8662
▁stressed	-11.8662
making	-11.8663
▁69	-11.8664
▁prostitute	-11.867
▁wax	-11.8671
▁riri	-11.8673
▁1961	-11.8676
▁essenceless	-11.8681
▁47	-11.8687
vali	-11.8687
▁gangs	-11.8687
▁settlements	-11.8692
▁disperse	-11.8695
14	-11.8698
▁beams	-11.87
▁travele	-11.87
▁suppli	-11.87
emin	-11.8701
▁forgetful	-11.8707
clined	-11.8709
▁1989	-11.8709
ntities	-11.8714
ely	-11.8715
▁incinerate	-11.8722
▁linked	-11.8736
▁finite	-11.8737
▁pronounc	-11.8738
▁owned	-11.8739
ken	-11.8745
▁corners	-11.8748
priyadarsana	-11.8748
▁Chush	-11.875
tiny	-11.8752
akayika	-11.8754
▁overwhelming	-11.8757
▁author	-11.8758
▁untouchables	-11.8762
▁upwards	-11.8766
sadha	-11.8767
▁introspective	-11.8771
.24	-11.8772
▁incomplete	-11.8773
otpa	-11.8781
▁rupa	-11.8782
rapture	-11.8782
▁87	-11.8784
untaint	-11.8791
▁trail	-11.8806
▁tender	-11.881
ists	-11.8811
▁switch	-11.8814
rab	-11.8821
▁beatings	-11.8825
ithy	-11.883
lu	-11.8831
▁maker	-11.8833
▁78	-11.8834
▁devout	-11.8837
▁untru	-11.8841
amed	-11.8847
muru	-11.8848
▁staged	-11.8851
▁bi	-11.8852
▁glor	-11.8854
▁laywomen	-11.8857
▁sarvasattva	-11.8859
▁suffers	-11.8865
▁2006.	-11.8868
▁66	-11.8874
▁existents	-11.8879
mi	-11.8883
▁vomit	-11.8887
▁rg	-11.8888
▁strongm	-11.8889
▁elderly	-11.8889
▁senti	-11.8889
▁defeats	-11.889
▁nurture	-11.8891
RI	-11.8893
▁71	-11.8894
▁coproduc	-11.8895
▁purposes	-11.8895
▁vajras	-11.8898
▁jubila	-11.8902
▁eternalis	-11.8904
▁Ann	-11.8913
▁distractions	-11.8915
▁secrets	-11.8929
dadhar	-11.8929
ura	-11.894
peaceful	-11.8949
0,	-11.8954
▁sens	-11.8958
▁Hand	-11.8961
▁plane	-11.8968
▁analyz	-11.8968
▁rage	-11.8969
ery	-11.8972
eces	-11.8975
nanda	-11.8975
qualif	-11.8981
▁reed	-11.8982
afraid	-11.899
fused	-11.8991
▁lots	-11.8994
▁82	-11.8996
▁CC	-11.8997
favorable	-11.9004
▁balance	-11.9007
▁happening	-11.9013
▁ex	-11.9017
▁Treat	-11.9019
▁Mi	-11.9022
skandha	-11.9029
▁bu	-11.903
division	-11.9033
arana	-11.9036
▁drops	-11.9045
▁boundar	-11.9049
▁ki	-11.905
ile	-11.9055
▁husbands	-11.9057
▁scare	-11.9057
.28	-11.9062
▁disengag	-11.9062
▁transien	-11.9071
▁stud	-11.9074
▁soil	-11.9085
▁subside	-11.9096
▁materialist	-11.9099
▁pois	-11.9104
svara	-11.9105
▁73	-11.9107
ge	-11.9107
▁communication	-11.9121
▁Khampa	-11.9122
▁elite	-11.9124
western	-11.9125
volved	-11.9126
arata	-11.9126
▁butcher	-11.9129
▁Golok	-11.9132
▁ghost	-11.9135
▁relic	-11.9137
ments	-11.9138
▁upholder	-11.9148
iled	-11.9149
▁brandish	-11.915
vich	-11.9152
▁parent	-11.9158
▁dharmapar	-11.9159
▁squander	-11.9165
hila	-11.917
▁nameand	-11.9175
rows	-11.9178
▁topics	-11.9179
aya	-11.918
ga	-11.9182
▁gossip	-11.9184
TION	-11.9187
rice	-11.919
▁stok	-11.9193
.1	-11.9194
▁oncereturn	-11.9206
▁storm	-11.9206
▁dig	-11.9207
▁improve	-11.9214
▁participat	-11.922
▁painting	-11.9222
▁rash	-11.9229
▁mat	-11.9234
▁hri	-11.9238
older	-11.9257
▁1958.	-11.9259
▁sequential	-11.9262
▁deceptive	-11.9262
▁kurukull	-11.9262
▁leopard	-11.9262
▁pepper	-11.9262
▁rhinoceros	-11.9262
▁Nichol	-11.9262
▁lizard	-11.9262
▁vagina	-11.9262
▁gandhottama	-11.9262
▁unfeasible	-11.9263
▁boulder	-11.9263
▁Stages	-11.9263
▁hereditary	-11.9263
▁Hongli	-11.9263
▁nourishment	-11.9264
izing	-11.9264
Essence	-11.9264
▁officiant	-11.9265
▁refusal	-11.9265
▁boundaries	-11.9265
▁counselor	-11.9265
▁brahmakayika	-11.9266
▁withdrawal	-11.9267
▁desert	-11.9267
ER	-11.9267
▁pebble	-11.9267
▁nandika	-11.9268
▁specifically	-11.9269
▁Book	-11.9269
▁fearsome	-11.927
▁undermine	-11.927
▁ideological	-11.9271
▁lucid	-11.9271
▁kanakamun	-11.9272
▁shirt	-11.9272
▁implementation	-11.9273
▁chosen	-11.9274
▁surendra	-11.9275
▁ravine	-11.9276
▁Asanga	-11.9277
▁chairman	-11.9277
▁intervention	-11.9277
bu	-11.9278
▁hereafter	-11.9279
▁subjugation	-11.9279
▁infirm	-11.928
▁Dzungaria	-11.9282
any	-11.9282
kov	-11.9283
yesan	-11.9286
▁rot	-11.9286
▁regulations	-11.9287
flux	-11.9287
▁blindness	-11.9288
▁abyss	-11.929
itude	-11.929
▁fluid	-11.929
▁urna	-11.9291
▁accustom	-11.9293
▁suzerain	-11.9294
▁drove	-11.9294
2,	-11.9295
▁prerequisite	-11.9295
▁uneven	-11.9296
▁raids	-11.9297
▁copies	-11.9299
ternal	-11.93
500	-11.9301
▁apparently	-11.9302
▁arada	-11.9302
▁rubbing	-11.9303
▁defined	-11.9304
jayin	-11.9304
▁nonduali	-11.9305
▁superiority	-11.9306
▁deject	-11.9309
▁corrupt	-11.9312
▁plains	-11.9314
▁censer	-11.9316
▁enact	-11.9319
▁banished	-11.932
▁1903	-11.9323
▁estimates	-11.9327
▁meters	-11.9328
▁helpless	-11.9332
▁insects	-11.9333
▁62	-11.934
▁naksatra	-11.9343
▁continues	-11.9346
▁achiev	-11.9346
▁Secretary	-11.9353
▁habits	-11.9359
▁damaged	-11.9361
▁surpasse	-11.9364
▁bread	-11.9364
▁86	-11.9367
worship	-11.9369
▁tr	-11.937
▁protectorate	-11.9373
▁1984	-11.9373
▁lash	-11.938
.8	-11.9381
▁repressions	-11.9383
▁brahmavi	-11.9384
▁cleave	-11.9385
▁failing	-11.9385
▁withdrawn	-11.9391
▁shell	-11.9392
mentation	-11.9396
▁onwards	-11.9397
ped	-11.9398
▁spur	-11.9399
wa	-11.9402
▁kumara	-11.9405
▁requisite	-11.9407
▁beautify	-11.9408
▁asura	-11.9408
sible	-11.9409
▁bite	-11.9412
▁Hear	-11.9421
▁notic	-11.9424
▁neighbours	-11.9426
.43	-11.9427
▁Art	-11.9427
▁remedie	-11.9431
▁mourn	-11.9438
▁panic	-11.944
▁Land	-11.9447
earing	-11.9447
▁j	-11.945
▁67	-11.9457
▁Sutras	-11.946
▁polluted	-11.9461
▁ap	-11.9462
▁correspond	-11.9468
▁74	-11.9469
▁logical	-11.9474
▁conjur	-11.9475
▁accommodate	-11.9488
▁centres	-11.9492
▁perished	-11.9494
▁shar	-11.9496
▁envoys	-11.9498
▁mu	-11.95
▁folk	-11.9503
▁ch	-11.9504
▁fetch	-11.9504
gs	-11.9508
▁grounded	-11.9509
ula	-11.951
▁Alta	-11.9515
▁dispens	-11.9522
▁tha	-11.9522
▁1967	-11.9547
▁le	-11.9551
▁ja	-11.9556
▁truthful	-11.9556
neous	-11.9557
▁nucle	-11.9558
per	-11.9564
▁veil	-11.9567
▁nonpower	-11.9569
x	-11.9572
▁5.	-11.9572
ainted	-11.9575
▁commissions	-11.9581
hed	-11.9588
▁eradicat	-11.9589
▁Sever	-11.959
.35	-11.9595
▁alight	-11.9598
▁avoided	-11.9599
▁spare	-11.9603
haras	-11.9603
▁plans	-11.9605
▁deathless	-11.9607
these	-11.9611
▁sta	-11.9614
eventeen	-11.9616
▁fl	-11.9621
▁Chen	-11.9626
▁fur	-11.9629
widths	-11.9629
▁maitr	-11.9633
▁resist	-11.9635
▁Modern	-11.9636
▁Refuge	-11.9652
▁courses	-11.9653
”),	-11.9654
stems	-11.9655
▁sur	-11.9662
▁looke	-11.9664
▁defam	-11.9664
wing	-11.9669
rever	-11.9672
▁symbolize	-11.968
▁distinguishe	-11.968
▁anim	-11.9683
Han	-11.9685
▁sarvasa	-11.9685
human	-11.9689
sura	-11.9699
▁playful	-11.9703
Woeser	-11.9708
71	-11.9709
▁grac	-11.9719
▁punishments	-11.9728
▁Peri	-11.9731
khai	-11.9734
ajata	-11.9744
acked	-11.9754
disturbance	-11.9757
apan	-11.976
▁yasod	-11.976
▁hunt	-11.9781
▁161	-11.9791
grasping	-11.9805
▁corner	-11.9806
▁165	-11.9808
▁nights	-11.9811
happy	-11.9811
▁Khutuktu	-11.9813
ations	-11.9816
▁kha	-11.9817
▁fun	-11.9821
▁sermon	-11.9824
eye	-11.9829
▁operation	-11.9829
▁beguil	-11.9832
▁fingernail	-11.9838
▁preparation	-11.9838
▁farmer	-11.9841
▁ancestor	-11.9845
▁tons	-11.9848
▁tricks	-11.985
▁department	-11.985
▁label	-11.9853
▁supple	-11.9856
finity	-11.986
ulsion	-11.9869
even	-11.9869
.27	-11.9871
ight	-11.9871
▁84	-11.9873
▁pig	-11.9873
meter	-11.9876
▁Peace	-11.9877
▁127	-11.9877
▁drive	-11.9884
▁game	-11.9884
▁nourish	-11.9885
.13	-11.9886
79	-11.989
▁manufacture	-11.9893
pathetic	-11.9896
▁borrow	-11.9907
▁inflict	-11.9907
.68	-11.9909
▁plate	-11.991
▁Us	-11.9912
▁provoke	-11.9914
eth	-11.9916
▁75	-11.992
▁ordain	-11.9941
▁conclusions	-11.9947
different	-11.9948
▁supplicat	-11.9949
▁gradual	-11.9949
▁emotional	-11.9957
▁nityo	-11.9968
▁immortal	-11.9975
▁Kozlov	-11.9977
▁Ovchinnikov	-11.9977
▁introspection	-11.9977
▁krki	-11.9977
▁sthavira	-11.9977
▁streamenterer	-11.9977
▁dazzl	-11.9977
▁literature	-11.9977
▁consumption	-11.9977
▁countenance	-11.9977
▁Emptiness	-11.9977
▁cemeter	-11.9977
▁vidyamantra	-11.9977
▁arthamati	-11.9977
▁katyayanaputra	-11.9977
▁illustrious	-11.9977
▁summary	-11.9977
▁Ngari	-11.9977
arlung	-11.9977
Leninism	-11.9977
▁indescribabl	-11.9977
▁imprisonment	-11.9977
▁abusive	-11.9977
▁discord	-11.9978
▁herdsmen	-11.9978
▁patronage	-11.9978
▁Godan	-11.9979
inhua	-11.9979
▁swallow	-11.9979
▁Karma	-11.9979
▁principalities	-11.9979
▁nandaka	-11.998
▁soothe	-11.998
▁tailor	-11.998
thousand	-11.998
▁shapeshifter	-11.9981
▁yak	-11.9981
▁distan	-11.9981
▁busy	-11.9982
▁dakini	-11.9982
▁meadows	-11.9983
▁Kol	-11.9985
▁limitations	-11.9986
.116	-11.9988
▁pitcher	-11.9988
▁board	-11.999
▁Thought	-11.999
▁marut	-11.999
▁cream	-11.9991
▁Nyingma	-11.9992
▁Avalokiteshvara	-11.9992
▁candle	-11.9993
▁doubtful	-11.9993
▁multistor	-11.9994
▁shift	-11.9994
▁Tsering	-11.9994
▁vasava	-11.9994
▁1914	-11.9995
▁assistant	-11.9997
.16	-11.9997
▁potter	-12.0002
▁privileges	-12.0003
adha	-12.0004
▁manual	-12.0006
ze	-12.0006
▁Kong	-12.0007
kha	-12.0007
▁torrent	-12.0008
▁chew	-12.0009
▁France	-12.0011
ors	-12.0011
▁aircraft	-12.0011
▁misunderstand	-12.0012
▁Perfection	-12.0012
▁paradise	-12.0013
▁utilise	-12.0015
▁governance	-12.0015
▁brood	-12.0015
▁deeper	-12.0015
▁flight	-12.0016
▁ideal	-12.0021
▁forgotten	-12.0024
▁pacifier	-12.0025
UE	-12.0027
▁Code	-12.0028
▁melted	-12.0032
orous	-12.0032
▁epidemics	-12.0034
▁disappoint	-12.0035
▁para	-12.0035
▁rama	-12.0038
▁distribution	-12.0039
▁jyotis	-12.0042
▁stronger	-12.0044
▁miles	-12.0046
▁defini	-12.0053
▁visesa	-12.0054
▁legally	-12.0056
▁Tri	-12.0057
uti	-12.0065
▁aryas	-12.0069
▁smashed	-12.0073
▁invoke	-12.0073
▁promulgated	-12.0076
▁bhisma	-12.008
▁Democra	-12.0084
vedas	-12.0087
ayan	-12.0089
▁strict	-12.009
prabhasa	-12.0092
▁estates	-12.0092
▁faced	-12.0095
▁weakened	-12.0101
.45	-12.0102
▁94	-12.0104
▁grandfather	-12.0105
▁reflects	-12.0105
▁Burma	-12.0108
.42	-12.0114
▁dakinis	-12.0119
▁refin	-12.0121
▁6,	-12.0123
▁163	-12.0125
erses	-12.0126
▁constitution	-12.0128
ssels	-12.014
▁81	-12.0145
osity	-12.0146
.15	-12.0149
ain	-12.0156
.62	-12.0158
▁em	-12.0159
lender	-12.0166
▁relentless	-12.0167
nta	-12.0173
▁unh	-12.0175
nnual	-12.0177
dipa	-12.0183
▁inseparabl	-12.0184
▁Are	-12.0187
▁dandapa	-12.0187
▁91	-12.0195
▁quo	-12.0195
ified	-12.0196
▁Tashi	-12.0206
▁Lha	-12.0208
gandham	-12.0216
▁53	-12.0217
▁delica	-12.022
.84	-12.0222
▁58	-12.0229
▁cares	-12.0237
▁tantr	-12.0238
agram	-12.0238
▁tally	-12.0243
▁tread	-12.0244
▁arya	-12.0245
▁imper	-12.0249
nets	-12.025
▁braid	-12.0253
▁placement	-12.0275
▁vain	-12.0276
▁tast	-12.028
.53	-12.028
▁Similar	-12.0281
▁partial	-12.0287
▁aksaya	-12.0294
▁donor	-12.0295
▁pal	-12.0305
kasyapa	-12.0306
▁gi	-12.0317
▁width	-12.032
▁bone	-12.0321
istic	-12.0324
ketu	-12.0326
▁minority	-12.0327
▁Stand	-12.0327
first	-12.0328
▁exiles	-12.0334
▁Bing	-12.0335
▁understandings	-12.0338
CE	-12.0338
9,	-12.0342
▁urinate	-12.0343
pe	-12.0346
▁discussions	-12.0346
▁projects	-12.035
shed	-12.0352
ca	-12.0371
▁deplet	-12.0371
▁Le	-12.0375
▁conversations	-12.0375
fall	-12.0376
6,	-12.0379
▁roofs	-12.0382
▁fr	-12.0383
com	-12.0392
▁liber	-12.0393
▁extinct	-12.0412
▁card	-12.0414
riti	-12.0415
.22	-12.0419
Buddhist	-12.0421
▁march	-12.0421
▁peri	-12.0424
▁ranks	-12.0427
▁89	-12.0428
▁120	-12.0429
▁magnif	-12.0429
▁intoxicate	-12.0434
▁93	-12.0435
▁saci	-12.0437
▁beside	-12.0439
local	-12.044
vajra	-12.0442
distance	-12.0444
▁164	-12.0444
▁endured	-12.0449
permission	-12.0455
TCHRD	-12.0455
▁wi	-12.0456
education	-12.0461
▁orb	-12.0464
proportion	-12.0465
▁manage	-12.0468
▁hellbeing	-12.047
▁surviv	-12.0472
▁attribute	-12.0472
▁108	-12.0475
▁poorly	-12.0476
▁137	-12.0476
folk	-12.0476
▁val	-12.0482
▁insist	-12.0486
▁arrives	-12.0487
▁beginners	-12.0487
▁taint	-12.0496
It	-12.0505
night	-12.0529
ellbeing	-12.0537
▁rebel	-12.0539
▁belongings	-12.0549
tical	-12.0553
owed	-12.0555
▁92	-12.0556
▁embodi	-12.0559
▁prove	-12.0561
▁intentional	-12.0562
▁sail	-12.0567
▁organ	-12.057
stri	-12.0574
ena	-12.0576
▁dharm	-12.0581
▁contract	-12.0581
▁funeral	-12.0581
▁surround	-12.0582
▁beam	-12.059
▁Marxist	-12.0594
▁expose	-12.0599
amsara	-12.06
▁uniform	-12.0601
▁circumstance	-12.0607
eanwhile	-12.0609
was	-12.061
▁founder	-12.061
▁repression	-12.0611
trained	-12.0611
▁contradiction	-12.0614
▁parap	-12.0614
ways	-12.0615
▁tribe	-12.0618
▁amban	-12.0621
▁pierc	-12.0622
mbassador	-12.0627
hav	-12.0627
▁friendship	-12.0632
▁northwest	-12.0642
▁Mo	-12.0648
.34	-12.0652
▁diploma	-12.0652
▁infer	-12.0654
▁strikes	-12.0659
▁withhold	-12.0663
▁Governor	-12.067
rendered	-12.0677
▁unsee	-12.0679
▁apple	-12.0681
▁traveler	-12.0685
▁export	-12.0687
▁wars	-12.0688
▁effortless	-12.0689
▁propos	-12.0692
iterally	-12.0701
▁volume	-12.0703
▁pe	-12.0711
▁surp	-12.0714
▁unde	-12.0719
ide	-12.0723
▁wrap	-12.0725
118	-12.0732
▁bar	-12.0734
▁wrath	-12.0738
▁alcohol	-12.0739
▁hue	-12.0742
▁regime	-12.0744
▁adapt	-12.0745
▁ambrosial	-12.0746
▁Mount	-12.0746
▁DHAR	-12.0746
▁Dipamkara	-12.0746
▁Nagchu	-12.0746
▁Nyamdrel	-12.0746
▁Pandita	-12.0746
▁Plateau	-12.0746
▁Shikai	-12.0746
▁antelope	-12.0746
▁caretaker	-12.0746
▁concrete	-12.0746
▁currency	-12.0746
▁fervent	-12.0746
▁maintenance	-12.0746
▁nirmanakaya	-12.0746
▁reprimand	-12.0746
▁salendraraja	-12.0746
▁succumb	-12.0746
▁Exposition	-12.0746
▁Cixi	-12.0746
▁Delhi	-12.0746
▁supremacy	-12.0746
▁County	-12.0746
▁dishonest	-12.0746
▁financial	-12.0746
▁physique	-12.0746
▁unrighteous	-12.0746
▁wreath	-12.0746
▁Short	-12.0746
▁University	-12.0746
▁166	-12.0747
▁nationalism	-12.0747
▁Court	-12.0747
▁caitya	-12.0747
▁nunner	-12.0747
▁climate	-12.0748
▁terrace	-12.0748
ingwu	-12.0748
▁storehouse	-12.0749
▁rogue	-12.0749
▁humility	-12.0751
▁David	-12.0751
▁infallible	-12.0752
▁gorge	-12.0752
▁cheerful	-12.0752
▁feather	-12.0753
Waddel	-12.0753
▁scold	-12.0753
▁Monks	-12.0753
ds	-12.0754
▁moisten	-12.0755
ow	-12.0755
▁bandhumat	-12.0755
Chief	-12.0757
percussion	-12.0758
▁comprehensive	-12.0758
▁siddhartha	-12.0758
▁clairvoyant	-12.0759
▁rapidly	-12.0759
▁hour	-12.0762
▁bottom	-12.0762
▁unified	-12.0762
▁Life	-12.0762
▁migrants	-12.0764
▁enterprises	-12.0764
▁warmth	-12.0765
▁oppression	-12.0765
▁mahanama	-12.0766
▁leftover	-12.0768
▁Lam	-12.0769
▁prolong	-12.0769
▁City	-12.077
▁selected	-12.0774
▁perishable	-12.0775
ellow	-12.0776
▁subsist	-12.0777
▁wrinkle	-12.0778
▁Kai	-12.078
▁await	-12.0781
▁Member	-12.0781
▁scrutinize	-12.0783
ounds	-12.0783
▁sinew	-12.0783
▁brutal	-12.0785
▁shocked	-12.0786
▁obligations	-12.0786
▁88	-12.0791
▁whe	-12.0794
▁assertion	-12.0794
▁personality	-12.0794
▁monuments	-12.0797
▁classified	-12.0798
▁nice	-12.0802
.114	-12.0808
▁thrive	-12.0811
▁chose	-12.0812
▁sym	-12.0812
▁97	-12.0813
present	-12.0817
▁nurse	-12.0826
▁chiliocosm	-12.0828
urely	-12.083
etsun	-12.0831
▁176	-12.0833
▁insisted	-12.0837
▁laughing	-12.0837
▁135	-12.0837
▁179	-12.0839
▁monkeys	-12.0839
OD	-12.084
rts	-12.0847
▁eyewitness	-12.0847
▁pointless	-12.0848
▁1986	-12.0851
state	-12.0852
▁hoist	-12.0852
▁diplomat	-12.0853
▁fuel	-12.0856
▁supplication	-12.0859
▁min	-12.086
▁77	-12.0861
▁surrendered	-12.0876
▁Nur	-12.0882
▁decreased	-12.0891
.7	-12.0892
dness	-12.0894
▁committees	-12.0913
▁slopes	-12.0919
▁bho	-12.0921
rtya	-12.0922
▁105	-12.0931
▁reassure	-12.0936
▁sla	-12.0938
▁entere	-12.0938
nning	-12.0942
▁domains	-12.0943
▁79	-12.0944
▁cha	-12.0946
▁combine	-12.0947
ccompanied	-12.0951
▁situations	-12.0951
▁bas	-12.0956
purification	-12.0969
▁184	-12.0972
▁aberrations	-12.0976
▁writings	-12.0979
0.	-12.0986
▁Bogd	-12.0991
▁graceful	-12.0991
▁approximate	-12.0993
ime	-12.0997
▁theocratic	-12.0998
great	-12.1
aked	-12.1008
west	-12.1008
▁decisions	-12.101
▁pruden	-12.1012
rmative	-12.1014
.55	-12.1016
rata	-12.1017
.70	-12.1019
icken	-12.103
▁noon	-12.1037
▁ratn	-12.1039
ries	-12.1042
▁ador	-12.1044
ged	-12.1058
▁churn	-12.1059
▁Ph	-12.1063
▁analyzed	-12.1067
tyeight	-12.107
veda	-12.1072
▁legion	-12.1075
▁tide	-12.1077
▁demanding	-12.108
▁stopp	-12.1082
▁table	-12.1087
TA	-12.1087
isvara	-12.1089
▁reache	-12.1093
▁182	-12.1094
termination	-12.1102
▁wither	-12.1109
▁131	-12.1109
▁Inde	-12.111
▁beans	-12.1112
119	-12.1123
▁contentio	-12.1125
gupta	-12.1128
▁multipli	-12.1133
▁enrich	-12.114
tyseven	-12.1156
thing	-12.1156
▁disturbances	-12.1158
▁tamala	-12.1161
▁aff	-12.1163
▁uj	-12.1163
▁deficien	-12.1165
sya	-12.1176
ravati	-12.1183
resting	-12.1184
▁check	-12.1186
▁openly	-12.1187
con	-12.1188
▁suvarna	-12.1188
▁brahmana	-12.1188
”...	-12.1206
uration	-12.1207
▁gun	-12.1208
▁dogma	-12.1212
▁dances	-12.1219
▁samaya	-12.1219
▁bold	-12.122
▁antidotes	-12.1222
owl	-12.1223
▁indolen	-12.1232
although	-12.1236
nana	-12.1236
ba	-12.1241
▁refresh	-12.1246
▁badly	-12.1247
▁doctors	-12.1248
hur	-12.1252
▁af	-12.1256
vinaya	-12.1258
▁122	-12.1262
▁oils	-12.1271
▁vassals	-12.1272
gnosis	-12.1279
▁fabric	-12.1282
▁invad	-12.1291
movement	-12.1296
▁fro	-12.1298
▁Ha	-12.1301
▁185	-12.1303
▁origins	-12.1305
translator	-12.1307
▁104	-12.1315
▁157	-12.1319
▁98	-12.132
immolat	-12.132
▁Rib	-12.1322
reservation	-12.1325
iced	-12.1326
▁subjugat	-12.1326
▁services	-12.1329
▁96	-12.1329
virya	-12.1332
ended	-12.1339
▁plough	-12.134
▁purifie	-12.134
▁180	-12.1348
mbini	-12.1357
▁10.	-12.1358
mucilinda	-12.1364
kayika	-12.1365
▁treasur	-12.1368
je	-12.1371
ench	-12.1374
▁specifi	-12.1379
.61	-12.1381
▁prefer	-12.1388
luded	-12.1389
.18	-12.139
▁vic	-12.1393
buddhi	-12.1395
▁183	-12.1398
hor	-12.1403
▁Co	-12.1404
▁rip	-12.1405
▁toss	-12.1409
▁shapes	-12.1411
▁incinerat	-12.1412
▁Bu	-12.1412
▁guarantee	-12.1414
▁193	-12.1417
▁hierarch	-12.142
▁republic	-12.1426
inal	-12.1428
▁conference	-12.1433
▁contribution	-12.1435
▁log	-12.1436
hasvara	-12.1438
▁disparag	-12.1438
▁newspaper	-12.1438
▁proposal	-12.1442
▁demonstration	-12.1452
conceptions	-12.1453
▁thamzing	-12.1454
▁feature	-12.1454
▁allsee	-12.1455
▁estate	-12.1456
▁picture	-12.1456
▁Every	-12.1457
▁175	-12.1457
▁knowledges	-12.1459
▁payment	-12.146
▁occurr	-12.146
ointed	-12.1472
▁sl	-12.1473
rakuta	-12.1477
divided	-12.1482
▁article	-12.149
▁permeate	-12.1497
then	-12.1497
ping	-12.1498
▁extinguishe	-12.15
▁194	-12.1503
▁mer	-12.1505
▁Kh	-12.1507
▁mahaka	-12.1507
▁animate	-12.1508
tri	-12.1511
▁134	-12.1511
▁sari	-12.1517
▁kalam	-12.1521
ho	-12.1522
▁Fan	-12.1525
.63	-12.1534
▁Ga	-12.1541
ottara	-12.1542
gandha	-12.1544
▁film	-12.1547
ru	-12.1557
117	-12.1559
▁drip	-12.1559
146	-12.1563
▁Korea	-12.1567
▁nonmerit	-12.1567
101	-12.1569
▁immeasurabl	-12.1569
▁Alex	-12.1571
▁stepp	-12.1574
ACTI	-12.1574
▁global	-12.1575
▁baseless	-12.1576
▁elegan	-12.1577
angtze	-12.1579
▁Sautman	-12.1579
▁TEACH	-12.1579
▁assiduous	-12.1579
▁episode	-12.1579
▁facilitate	-12.1579
▁hallucination	-12.1579
▁hermaphrodite	-12.1579
▁inconspicuous	-12.1579
▁malevolen	-12.1579
▁patricide	-12.1579
▁pinnacle	-12.1579
▁sapphire	-12.1579
▁terminology	-12.1579
▁Internet	-12.1579
▁dissatisfaction	-12.1579
▁sinicization	-12.1579
▁sisyaka	-12.1579
▁framework	-12.1579
▁scream	-12.1579
▁Ribao	-12.1579
▁easier	-12.1579
▁Lhoka	-12.1579
▁communism	-12.1579
▁quiescen	-12.1579
▁England	-12.158
▁chaff	-12.158
▁Wangyal	-12.158
▁employees	-12.158
▁lifestyle	-12.158
▁dusk	-12.158
▁Temur	-12.158
▁Resident	-12.158
▁craftsman	-12.158
▁gracious	-12.158
▁businessmen	-12.1581
▁sloth	-12.1581
▁contradictory	-12.1581
▁dinna	-12.1581
▁expansive	-12.1582
▁safety	-12.1582
▁ferry	-12.1582
▁enumeration	-12.1582
▁Meditation	-12.1582
▁Maoism	-12.1582
▁glance	-12.1583
▁plunge	-12.1583
▁Tangut	-12.1584
▁layman	-12.1586
▁colony	-12.1586
▁strategic	-12.1586
▁Nations	-12.1586
▁abdom	-12.1586
uddha	-12.1587
▁guest	-12.1587
▁fleeting	-12.1587
obstructed	-12.1588
▁unclear	-12.1589
▁expedition	-12.1589
▁AD	-12.1589
▁pillow	-12.1591
▁inherited	-12.1592
▁impoverished	-12.1592
▁industry	-12.1592
▁sealed	-12.1592
▁submitted	-12.1593
▁modernization	-12.1593
▁enlist	-12.1594
▁farming	-12.1594
▁nonregressi	-12.1594
▁collective	-12.1594
▁magician	-12.1595
▁enchant	-12.1596
▁gandhahasti	-12.1596
▁hurried	-12.1596
▁twentyfour	-12.1596
▁resumed	-12.1596
▁concentrate	-12.1597
▁conjunction	-12.1597
▁honour	-12.1598
▁Soon	-12.1598
ilateral	-12.1598
▁decades	-12.1598
▁admitted	-12.1599
▁distortion	-12.1599
▁129	-12.1599
▁cakravala	-12.16
▁124	-12.16
▁grappl	-12.1601
▁1938	-12.1602
▁deserve	-12.1604
▁affirm	-12.1604
▁armlet	-12.1605
▁annual	-12.1606
ubbish	-12.1609
▁1940	-12.1609
autonomous	-12.1612
▁linger	-12.1614
▁abhava	-12.1614
▁valid	-12.1615
▁Ray	-12.1615
▁helpful	-12.1616
▁caraka	-12.1617
▁entrances	-12.1624
IS	-12.1624
hout	-12.1626
▁160	-12.1626
▁insurgents	-12.1628
▁sarasvati	-12.1629
▁occupy	-12.1629
ath	-12.1633
▁174	-12.1633
▁106	-12.1636
▁useless	-12.1636
▁somebody	-12.1638
▁dismissed	-12.1641
▁rolling	-12.1641
▁Lion	-12.1644
▁scorn	-12.1649
▁posters	-12.1654
▁1904	-12.1656
▁maharajas	-12.1658
.95	-12.1658
urable	-12.1661
▁gandi	-12.1662
▁156	-12.1668
▁nirmanarat	-12.1668
▁stilled	-12.1669
▁nourished	-12.1672
▁bees	-12.1673
▁imagining	-12.1673
▁specialist	-12.1676
emen	-12.1683
▁bricks	-12.1683
▁defecate	-12.1685
▁worshipp	-12.1688
▁sentiments	-12.1692
▁1982	-12.1694
▁unb	-12.1695
▁162	-12.1696
NCE	-12.1697
▁obstructions	-12.1698
perceptible	-12.1698
san	-12.1699
kang	-12.1704
▁reviv	-12.1706
▁legends	-12.1708
▁Far	-12.171
si	-12.1711
▁114	-12.1715
▁spr	-12.1716
▁Let	-12.1719
▁186	-12.1725
▁unper	-12.1726
▁burdens	-12.1727
▁128	-12.1736
▁expedien	-12.1742
▁fingernails	-12.1745
▁preparations	-12.1745
▁implemented	-12.1749
▁duck	-12.175
▁76	-12.1762
▁unto	-12.1762
▁potas	-12.1773
▁calculated	-12.1775
▁tourists	-12.1778
knowing	-12.1779
▁victims	-12.1785
tribute	-12.1786
headed	-12.1793
▁strengthened	-12.1795
.93	-12.1795
▁caturmaharaja	-12.1796
.94	-12.1796
▁systematic	-12.1801
tamed	-12.1802
ened	-12.1808
▁calculations	-12.1808
▁captivate	-12.181
▁com	-12.1818
▁inflicted	-12.1819
came	-12.182
eyed	-12.183
verse	-12.1837
yatha	-12.1846
ification	-12.1847
pointedness	-12.1847
▁typical	-12.1854
▁progressive	-12.1857
together	-12.187
▁nut	-12.1872
▁astonishing	-12.1874
iva	-12.1884
▁flatter	-12.1886
▁denigrate	-12.1889
▁stomachs	-12.1892
▁incorporat	-12.1894
▁twi	-12.1896
▁attire	-12.1905
▁technic	-12.1906
.80	-12.1909
▁congratulat	-12.1911
▁ksema	-12.1914
▁150	-12.1916
consider	-12.1924
▁messages	-12.1929
▁Gur	-12.1934
vari	-12.1937
ury	-12.1939
▁applica	-12.1945
▁convinc	-12.1946
.54	-12.195
▁siddha	-12.1953
▁rooms	-12.1955
▁warn	-12.1973
▁pupp	-12.1974
inality	-12.1977
own	-12.1982
▁transmit	-12.1986
ear	-12.1988
▁15,	-12.1997
▁110	-12.2001
▁Sa	-12.2003
▁Fr	-12.2004
▁fan	-12.2013
.52	-12.2015
▁teem	-12.2016
▁observations	-12.2017
▁amuse	-12.2017
▁99	-12.2031
vici	-12.2043
htt	-12.2046
▁178	-12.2047
▁Nor	-12.2049
.17	-12.2049
▁sundara	-12.2053
▁dha	-12.2055
▁artist	-12.2056
▁wrapp	-12.2067
▁rul	-12.2069
▁prohibit	-12.2075
ananda	-12.2078
lico	-12.2083
liberated	-12.2088
shamed	-12.2089
▁tear	-12.2089
.166	-12.209
ture	-12.2105
alized	-12.211
MA	-12.2112
spoke	-12.212
ff	-12.2128
come	-12.2132
▁171	-12.2135
national	-12.2137
darsin	-12.2143
stra	-12.2144
▁unt	-12.2153
▁Turki	-12.2156
class	-12.216
▁1983	-12.2173
second	-12.2173
▁structures	-12.2176
ering	-12.2178
proved	-12.2181
▁primar	-12.2183
▁denounce	-12.2184
.64	-12.2186
▁Lev	-12.2189
gar	-12.219
tributaries	-12.2213
▁smash	-12.2215
▁delegations	-12.2219
polluted	-12.2223
▁173	-12.2224
ashed	-12.2225
▁Er	-12.2234
ati	-12.2234
▁aspir	-12.2236
▁alr	-12.2242
slaves	-12.2254
lasses	-12.2257
▁Rule	-12.2257
▁168	-12.2263
▁sab	-12.2264
▁befall	-12.2266
katyayana	-12.2267
▁advanc	-12.2267
ab	-12.2272
▁rott	-12.2276
easants	-12.2281
ets	-12.2294
▁enclose	-12.2295
▁Ngo	-12.2301
.41	-12.2305
▁170	-12.231
ange	-12.2315
▁Chi	-12.2319
▁herder	-12.2321
▁examples	-12.2322
206	-12.2324
▁169	-12.2325
sika	-12.2337
▁1991.	-12.2338
▁broadcast	-12.2339
IC	-12.2342
▁prefecture	-12.2346
▁landowner	-12.2346
▁criminal	-12.2346
▁slogan	-12.2349
▁newborn	-12.235
▁Muslim	-12.235
▁hospital	-12.2354
▁comment	-12.2355
▁perva	-12.2357
▁exhibition	-12.2359
weary	-12.2361
▁legend	-12.2366
▁tiger	-12.2369
hanu	-12.2369
▁directive	-12.2371
took	-12.2372
hand	-12.2372
▁bridge	-12.2376
ttled	-12.2383
▁conclud	-12.2389
▁settlement	-12.2389
▁egg	-12.2391
▁integra	-12.2399
hung	-12.24
hong	-12.2403
▁bud	-12.2404
▁aka	-12.2405
▁sensu	-12.2406
▁courts	-12.2409
akula	-12.242
▁quak	-12.2421
axes	-12.2423
▁indefatigabl	-12.2424
waters	-12.2427
▁mahamaya	-12.2435
bhijna	-12.2437
▁interesting	-12.2439
semen	-12.2452
▁rud	-12.2456
▁mrgara	-12.2457
▁mats	-12.2458
▁samsar	-12.2458
▁mahacakrava	-12.2464
▁accurate	-12.2464
▁welcom	-12.2464
▁shi	-12.2466
med	-12.247
.19	-12.248
▁flour	-12.2485
▁calamit	-12.2486
decision	-12.2488
▁Further	-12.2488
▁embarrass	-12.2488
▁inopportune	-12.2488
▁kumuda	-12.2488
Bundesarchiv	-12.2488
▁Dhargy	-12.2488
▁Obviously	-12.2488
▁Shantideva	-12.2488
▁Sharawa	-12.2488
▁ajnatakaundinya	-12.2488
▁bouquet	-12.2488
▁cauldron	-12.2488
▁krsna	-12.2488
▁kusinagar	-12.2488
▁kutagara	-12.2488
▁staircase	-12.2488
▁susthita	-12.2488
▁ferocious	-12.2488
▁unquantifiab	-12.2488
▁Monasteries	-12.2488
▁aristocracy	-12.2488
▁disgust	-12.2488
▁Bathang	-12.2488
▁Lanzhou	-12.2488
▁trumpet	-12.2488
▁vetala	-12.2488
▁ghosila	-12.2488
sitigarbha	-12.2488
▁groundskeeper	-12.2488
▁arbitrar	-12.2488
▁scheme	-12.2488
▁dismember	-12.2489
▁Tsarong	-12.2489
▁remnant	-12.2489
▁suspicious	-12.2489
▁riverbank	-12.2489
▁enraptur	-12.2489
▁circular	-12.2489
▁soandso	-12.2489
▁sukharaja	-12.2489
▁thwart	-12.2489
▁shatter	-12.2489
▁dreadlock	-12.2489
▁107	-12.2489
▁pardon	-12.2489
▁krtya	-12.2489
ksipta	-12.249
▁knives	-12.249
▁technology	-12.249
▁kamala	-12.249
▁Consul	-12.249
▁Huang	-12.249
▁validity	-12.2491
▁thirtysix	-12.2491
your	-12.2491
▁cheek	-12.2492
▁covetous	-12.2492
▁priority	-12.2493
▁trident	-12.2493
PEND	-12.2493
▁falsehood	-12.2493
147	-12.2493
▁bharadvaja	-12.2494
▁yaksini	-12.2494
▁shield	-12.2494
▁anniversary	-12.2494
▁denied	-12.2495
▁vaspa	-12.2495
▁infraction	-12.2495
▁reduction	-12.2496
▁Fundamentals	-12.2496
▁guile	-12.2496
▁Lhalu	-12.2496
▁vegetables	-12.2497
▁fortitude	-12.2497
▁dozens	-12.2498
▁avadavat	-12.2498
▁grab	-12.2498
▁twig	-12.2498
▁112	-12.2499
▁superimposition	-12.25
▁rebelled	-12.25
▁creeper	-12.25
▁santamati	-12.2501
uffe	-12.2503
▁detained	-12.2503
▁administer	-12.2503
▁Buddhadharma	-12.2504
▁gouge	-12.2504
can	-12.2504
▁stingy	-12.2504
▁197	-12.2505
▁Why	-12.2505
▁Tog	-12.2506
▁PSB	-12.2506
▁regulated	-12.2506
▁REL	-12.2506
▁clique	-12.2507
▁License	-12.2507
▁cowrie	-12.2507
▁unitary	-12.2507
▁irrigation	-12.2508
.32	-12.2509
▁kataputanas	-12.251
▁mindstream	-12.251
.88	-12.251
SS	-12.2512
▁periphery	-12.2512
sugandha	-12.2513
▁southwest	-12.2514
collectivization	-12.2515
▁voyager	-12.2515
▁uplift	-12.2516
▁drown	-12.2516
▁statistics	-12.2517
▁looting	-12.2518
▁princesses	-12.2519
▁estimated	-12.2523
▁phu	-12.2524
grazing	-12.2525
▁strictly	-12.2525
▁Briefly	-12.2526
▁113	-12.2526
▁preconception	-12.2527
▁emotionally	-12.2528
▁115	-12.2529
confirmation	-12.2529
▁practically	-12.253
▁stanza	-12.2531
▁bourgeois	-12.2532
▁Hinayana	-12.2533
▁imperialism	-12.2533
▁reserved	-12.2533
▁disadvantage	-12.2534
▁1945	-12.2534
▁mortars	-12.2536
▁techniques	-12.2536
▁impulses	-12.2538
▁entertainment	-12.2538
tha	-12.2538
▁unsuccessful	-12.2539
▁kalons	-12.2541
their	-12.2543
▁IN	-12.2544
▁promptly	-12.2547
▁trucks	-12.2548
▁emphasized	-12.2551
▁straighten	-12.2557
siege	-12.2558
▁Mc	-12.2558
▁frontier	-12.2559
▁improved	-12.2563
.58	-12.2563
.110	-12.2563
▁hindrances	-12.2563
▁GENERA	-12.2564
▁Ful	-12.2564
▁interference	-12.2565
▁curse	-12.2572
.)	-12.2576
▁liar	-12.2576
aware	-12.2577
▁kaku	-12.2579
▁withdraw	-12.258
▁hammer	-12.2582
fo	-12.2585
▁incarnations	-12.2586
rise	-12.2588
▁integrate	-12.259
metric	-12.2592
▁currently	-12.2592
▁assail	-12.2597
▁jah	-12.2599
▁scribe	-12.2607
▁Di	-12.261
▁1950–19	-12.2611
▁desolat	-12.2614
▁uncovered	-12.2617
▁reincarnated	-12.2618
▁nothingness	-12.2618
▁publications	-12.2618
▁embodie	-12.2621
▁rebuke	-12.2621
haci	-12.2628
▁slogans	-12.263
▁mon	-12.2633
▁corals	-12.2635
▁injured	-12.2642
▁Eight	-12.2642
ked	-12.2647
ttvapriyadarsana	-12.2657
▁Shi	-12.2658
.51	-12.266
▁seiz	-12.266
▁gruel	-12.2661
▁Me	-12.2662
nstru	-12.2664
▁corresponds	-12.2664
▁governments	-12.267
▁nonvirtu	-12.2672
nding	-12.2674
▁rally	-12.2682
▁recommend	-12.2683
▁terminate	-12.2685
▁strengthening	-12.269
.33	-12.2695
▁scattering	-12.2698
▁announce	-12.2706
▁shy	-12.271
.25	-12.271
▁discussing	-12.2711
▁revil	-12.2714
▁hacke	-12.2716
▁comfortable	-12.2719
▁sew	-12.2722
▁grieve	-12.2726
▁Americans	-12.2738
anov	-12.2738
▁murderer	-12.274
▁greeting	-12.274
▁Chu	-12.2744
▁aspirationless	-12.2747
▁wane	-12.2748
vel	-12.2749
▁hole	-12.2752
▁samanta	-12.276
▁insulted	-12.2761
▁181	-12.2769
▁frame	-12.2771
▁rib	-12.2772
▁binding	-12.2786
recious	-12.2786
.59	-12.2789
▁himavat	-12.2797
▁158	-12.2797
var	-12.2801
dh	-12.2801
▁censure	-12.2801
▁backs	-12.2802
▁sha	-12.2805
▁gu	-12.2806
▁dr	-12.2808
nseparabl	-12.2808
last	-12.2808
▁188	-12.2819
▁kuru	-12.282
N	-12.2823
▁degenerated	-12.2823
▁helper	-12.2824
▁hack	-12.2827
▁132	-12.283
▁189	-12.2834
▁fam	-12.2838
▁executions	-12.2839
▁ama	-12.284
▁spott	-12.2842
▁fi	-12.2852
▁sc	-12.2854
▁salve	-12.2855
▁177	-12.2857
▁drain	-12.2857
ming	-12.2864
.50	-12.2864
chre	-12.2871
▁initiations	-12.2872
▁megh	-12.2872
▁breathing	-12.2874
▁sumu	-12.2875
aring	-12.2876
▁incurr	-12.2884
▁propose	-12.2884
▁weari	-12.2885
▁Who	-12.2885
nappropriat	-12.2888
nis	-12.2893
aks	-12.2893
▁bhadras	-12.2894
▁mrga	-12.2895
▁Charl	-12.2895
hita	-12.2896
arjuna	-12.2898
▁opinions	-12.2898
▁wors	-12.2903
▁Ne	-12.2918
.100	-12.2923
▁designate	-12.2933
▁wan	-12.2934
.23	-12.2939
violence	-12.294
▁ladd	-12.2942
▁cognizan	-12.2942
▁buy	-12.2959
▁declined	-12.2967
▁product	-12.297
edam	-12.2983
▁Bil	-12.2984
chin	-12.2987
▁12,	-12.2987
heri	-12.2995
inous	-12.3
▁ending	-12.3007
▁200	-12.3007
ron	-12.3008
yi	-12.3021
▁mahas	-12.3021
▁159	-12.3026
ell	-12.3031
▁cited	-12.3033
tpada	-12.3039
ven	-12.3042
its	-12.3043
nes	-12.3044
▁145	-12.3044
▁ari	-12.3047
▁chas	-12.3048
ral	-12.3059
.44	-12.306
ot	-12.3063
▁Su	-12.3065
have	-12.3066
▁discriminate	-12.307
master	-12.3083
ttle	-12.309
ambo	-12.3097
▁concordan	-12.3098
rush	-12.311
111	-12.3116
dhi	-12.3119
tible	-12.3128
▁outcaste	-12.313
hips	-12.3132
petal	-12.3132
mounted	-12.3135
iments	-12.314
▁gurus	-12.3149
▁Ru	-12.3152
▁differentiat	-12.3153
▁tra	-12.3169
▁associat	-12.3171
conceptual	-12.3177
through	-12.3179
blind	-12.3181
▁Ba	-12.3185
verted	-12.319
Indian	-12.3199
▁demands	-12.3199
213	-12.3203
OU	-12.3208
▁Cu	-12.3212
▁subsid	-12.3214
rebels	-12.3214
chamber	-12.3215
dropped	-12.3217
Four	-12.3217
.66	-12.3221
llen	-12.3222
.57	-12.3223
▁dispers	-12.3228
▁suffuse	-12.3233
▁4,	-12.3236
estim	-12.3247
▁nonspecifi	-12.3249
▁theft	-12.3255
▁ingest	-12.3257
▁Barbar	-12.3262
▁Relations	-12.3268
▁weight	-12.327
ality	-12.3272
208	-12.3274
aras	-12.3279
composite	-12.3284
pplies	-12.3285
▁witnesse	-12.3294
.86	-12.3296
▁submit	-12.3302
▁AP	-12.3307
▁Don	-12.3311
tive	-12.3312
let	-12.3314
▁hit	-12.3319
▁ni	-12.332
▁err	-12.3327
▁debtor	-12.3329
▁House	-12.333
asvin	-12.3332
▁program	-12.3335
▁defense	-12.3336
▁disciplin	-12.3337
▁disagreement	-12.3347
▁candidate	-12.3349
▁institution	-12.3351
her	-12.3352
▁disorder	-12.3353
▁Guard	-12.3354
▁publication	-12.3355
▁urin	-12.3358
▁bande	-12.3361
▁mentor	-12.3363
▁confirm	-12.3364
▁officer	-12.3364
▁brahm	-12.3369
TT	-12.3372
▁obstruction	-12.3375
▁133	-12.3376
▁emphasis	-12.3377
▁vari	-12.3378
sh	-12.3381
▁supplie	-12.3383
▁nephew	-12.3389
ison	-12.3393
lied	-12.3396
▁130	-12.3404
DO	-12.341
agama	-12.3414
▁steer	-12.3416
▁team	-12.3419
▁Austria	-12.342
▁candana	-12.3421
inlaw	-12.3426
.87	-12.3428
17	-12.3428
▁Hal	-12.3429
handed	-12.3431
▁giri	-12.3434
▁expel	-12.3437
▁agricultur	-12.3445
▁reinforce	-12.3449
.72	-12.345
▁desperate	-12.3452
▁Shen	-12.3452
▁deprecat	-12.3453
pour	-12.3453
▁banish	-12.3455
▁merchan	-12.3459
xi	-12.3462
▁flam	-12.3473
▁research	-12.3482
▁page	-12.3483
▁supporter	-12.3484
151	-12.3486
▁mathematic	-12.3488
▁cultures	-12.3488
▁Association	-12.3488
▁Cittamatra	-12.3488
▁Dorjiev	-12.3488
▁Khrushchev	-12.3488
▁Martynov	-12.3488
▁Nguyen	-12.3488
▁applaud	-12.3488
▁carpenter	-12.3488
▁dusprasaha	-12.3488
▁enthronement	-12.3488
▁forcibly	-12.3488
▁matricide	-12.3488
▁pliancy	-12.3488
▁pradyota	-12.3488
▁superficial	-12.3488
▁dollars	-12.3488
▁penalties	-12.3488
▁reckon	-12.3488
▁acquiesce	-12.3488
▁fickle	-12.3488
▁Kreisel	-12.3488
▁Article	-12.3488
▁fissure	-12.3488
▁marketplaces	-12.3488
▁vayu	-12.3488
▁Biao	-12.3488
▁3.0)	-12.3488
▁nostril	-12.3488
▁deputy	-12.3489
▁moisture	-12.3489
▁penalty	-12.3489
dundubhisvara	-12.3489
▁potalaka	-12.3489
▁parnasa	-12.3489
▁platform	-12.3489
▁tuft	-12.3489
▁Crossing	-12.3489
▁impostor	-12.3489
controver	-12.3489
▁prophetic	-12.3489
▁ninetynine	-12.3489
▁mathematician	-12.3489
▁motif	-12.3489
▁unerring	-12.3489
▁unreliable	-12.3489
▁commentaries	-12.3489
▁gladden	-12.3489
▁Commander	-12.3489
▁cooperation	-12.3489
▁undiminish	-12.3489
▁storage	-12.3489
▁stuff	-12.3489
Renmin	-12.349
▁historiography	-12.349
▁exhalation	-12.349
▁inhalation	-12.349
▁murk	-12.349
▁102	-12.349
▁Carol	-12.3491
▁improving	-12.3491
▁calamities	-12.3491
▁pyre	-12.3492
▁cleft	-12.3492
▁clashes	-12.3493
meric	-12.3493
▁deliberately	-12.3493
▁junction	-12.3493
▁properties	-12.3495
▁singleminded	-12.3495
▁convoy	-12.3496
▁Khanate	-12.3496
▁Centre	-12.3496
▁spiteful	-12.3497
▁crippled	-12.3497
▁constructive	-12.3497
▁qualifications	-12.3497
▁North	-12.3498
shek	-12.3498
▁secretary	-12.3498
▁prize	-12.3499
▁propriet	-12.3499
▁agencies	-12.35
▁propound	-12.35
▁pitiful	-12.3501
▁wrecked	-12.3502
▁astrology	-12.3503
▁falter	-12.3504
▁nilambaradhara	-12.3507
▁kakhorda	-12.3508
▁communicate	-12.3508
▁Tsenpo	-12.3509
▁Kailash	-12.3509
▁reactionaries	-12.3509
▁Guide	-12.3509
haca	-12.3509
.107	-12.351
.90	-12.351
▁traditionalism	-12.351
▁supervision	-12.3512
▁instigators	-12.3512
▁restrictions	-12.3512
raka	-12.3513
▁visitors	-12.3514
▁hierarchy	-12.3514
▁Tsar	-12.3514
▁yaso	-12.3514
▁entranceway	-12.3514
▁121	-12.3516
▁errand	-12.3516
▁husk	-12.3517
▁dancers	-12.3517
imsa	-12.3517
▁outfit	-12.3518
▁formulation	-12.3519
▁chop	-12.3519
ames	-12.3519
▁FOR	-12.3522
▁betray	-12.3524
▁1948	-12.3524
▁109	-12.3526
▁provinc	-12.3527
▁riots	-12.3527
ache	-12.3529
▁analogous	-12.3529
xture	-12.353
rode	-12.3531
▁sudharma	-12.3532
▁suspect	-12.3532
reaches	-12.3533
emeral	-12.3535
▁causality	-12.3536
▁tsampa	-12.3537
▁uncle	-12.354
▁debts	-12.3542
▁demotion	-12.3542
▁himalaya	-12.3543
▁highlands	-12.3544
▁causation	-12.3544
▁arches	-12.3544
▁fee	-12.3545
▁shops	-12.3547
▁demoness	-12.3549
▁poet	-12.3549
land	-12.3551
▁Tris	-12.3553
▁imprints	-12.3561
▁complain	-12.3562
▁fighters	-12.3563
▁Church	-12.3567
▁aji	-12.3569
.117	-12.357
▁pett	-12.3579
umi	-12.3583
153	-12.3584
▁pronouncements	-12.3587
▁putanas	-12.3587
▁cars	-12.3588
▁192	-12.3589
▁meditators	-12.3594
▁clock	-12.3594
▁exported	-12.3596
trepid	-12.3597
mpassion	-12.3599
rethr	-12.3601
▁harass	-12.3601
▁reasonable	-12.3605
.83	-12.3605
▁destiny	-12.3608
.9	-12.3608
where	-12.3609
sion	-12.3613
madan	-12.3613
▁Hui	-12.3618
▁vajradhara	-12.362
outh	-12.3621
▁similarity	-12.3624
▁familiarize	-12.3633
.92	-12.364
▁format	-12.364
▁dispersed	-12.3643
▁wavering	-12.3645
▁expected	-12.3647
▁exhibitions	-12.3649
▁spill	-12.365
▁candidates	-12.3651
rea	-12.3654
▁promoted	-12.3654
desirable	-12.3655
▁incorporate	-12.3657
▁pulverize	-12.3658
▁pictures	-12.3661
▁143	-12.3662
▁sarthavaha	-12.3664
▁lip	-12.3668
▁Af	-12.3676
▁frolick	-12.3677
▁mute	-12.3677
▁provisional	-12.3677
▁contradictions	-12.3678
▁supplement	-12.368
▁race	-12.3683
▁steppe	-12.3685
▁199	-12.3686
▁Situ	-12.3689
▁mudra	-12.3693
▁1974	-12.3697
ualization	-12.3701
▁butchers	-12.3703
▁samantaprabha	-12.371
▁indi	-12.3714
▁savor	-12.3715
▁stric	-12.3718
▁environmental	-12.3718
▁disseminate	-12.3719
▁interpretations	-12.3721
▁juni	-12.3726
▁rea	-12.3732
translatoreditor	-12.3737
▁instill	-12.374
▁gan	-12.374
▁speaker	-12.3742
▁adversit	-12.3744
▁wasted	-12.3745
vira	-12.3746
aster	-12.3749
▁survived	-12.375
▁abbots	-12.3754
▁safeguarded	-12.376
▁offices	-12.3762
▁My	-12.3763
alada	-12.3765
▁signifie	-12.3766
▁28,	-12.3766
▁reverent	-12.3771
▁ensu	-12.3772
▁sibi	-12.3773
ampati	-12.3776
▁1999)	-12.3776
▁candali	-12.3776
▁communists	-12.3777
▁intestine	-12.3779
▁sentiment	-12.3782
▁198	-12.3785
▁advis	-12.3785
▁symp	-12.3787
▁diamonds	-12.3794
▁fruitless	-12.3796
liest	-12.3797
▁tools	-12.3798
▁mock	-12.3798
▁ego	-12.3811
dhura	-12.3812
▁1947	-12.3814
▁kau	-12.3814
▁Ti	-12.3823
▁versions	-12.3825
▁recollections	-12.3826
▁commence	-12.3828
.123	-12.3829
EM	-12.383
▁delusions	-12.3836
▁webs	-12.3836
usa	-12.3843
▁ratnaprabha	-12.3844
eph	-12.3847
preksin	-12.3851
ancy	-12.3851
▁sunk	-12.3857
manifest	-12.3859
unda	-12.386
OO	-12.3861
▁196	-12.3865
▁envelop	-12.3866
▁Pr	-12.3868
▁outcast	-12.3868
▁nonpurificat	-12.3871
▁belittle	-12.3871
▁encompass	-12.3879
please	-12.3888
▁highway	-12.3888
▁bloat	-12.3901
sena	-12.3905
▁Russians	-12.391
▁solve	-12.3915
▁Will	-12.3918
▁155	-12.392
▁Europeans	-12.3928
verge	-12.3933
lokapalas	-12.3935
vimalaprabhasas	-12.3939
▁wheat	-12.394
▁sarvasattv	-12.3943
vicinit	-12.3943
han	-12.3943
karna	-12.3945
▁jnan	-12.3945
▁ardent	-12.3946
103	-12.3947
org	-12.3955
▁WI	-12.3959
▁separately	-12.3962
▁costs	-12.3962
▁procure	-12.3969
▁kama	-12.3969
good	-12.3973
▁prices	-12.3975
▁originates	-12.3977
.89	-12.398
roduction	-12.4003
▁Ka	-12.4007
▁faction	-12.4009
▁incredibl	-12.4011
curred	-12.4025
apari	-12.4027
ita	-12.4027
loft	-12.4031
▁142	-12.404
▁urge	-12.4053
▁Mos	-12.4055
▁authorize	-12.4061
nched	-12.4064
turbed	-12.4066
view	-12.4067
existent	-12.4075
lets	-12.4075
▁arch	-12.4081
▁roll	-12.4081
origination	-12.4083
▁saga	-12.4088
▁digg	-12.4092
▁Tse	-12.4101
dise	-12.4101
level	-12.4103
148	-12.4113
▁breathe	-12.4122
sed	-12.4126
▁Dr	-12.4127
rolled	-12.4129
sum	-12.413
▁116	-12.4133
▁Dra	-12.4134
both	-12.4137
▁Sh	-12.4145
▁123	-12.4147
▁1911	-12.4149
▁brahminic	-12.415
▁Go	-12.415
▁fu	-12.4159
▁reliev	-12.4167
▁disgrace	-12.4172
▁allocation	-12.4173
▁retort	-12.4179
ims	-12.4183
▁Imperial	-12.4196
civilized	-12.4198
rum	-12.4204
▁award	-12.4206
▁anothers	-12.4207
ig	-12.4212
ED	-12.4218
▁realizations	-12.4223
dair	-12.4227
tejas	-12.4231
ric	-12.4235
▁firefl	-12.4237
.81	-12.424
Mao	-12.4247
ont	-12.425
▁loot	-12.4253
▁Ge	-12.4253
continent	-12.4261
ather	-12.4261
Chandra	-12.4263
lin	-12.4264
▁storie	-12.4268
▁prajapati	-12.4269
nga	-12.427
▁declar	-12.4274
▁rinse	-12.4274
▁elaborations	-12.4285
bark	-12.4286
heir	-12.4289
▁ro	-12.4294
:30	-12.4295
blemish	-12.4296
If	-12.4297
Chairman	-12.4318
lev	-12.4318
vine	-12.4323
minorities	-12.4325
parallel	-12.4331
irs	-12.4331
aims	-12.4334
▁memoriz	-12.4338
gyal	-12.4339
der	-12.4348
berry	-12.4348
▁doom	-12.4349
mantra	-12.4349
nks	-12.4354
affected	-12.4357
▁chapters	-12.4358
satisfied	-12.4364
use	-12.4369
▁illustrat	-12.4373
▁waved	-12.4376
.91	-12.4378
subha	-12.4378
without	-12.438
▁ratnapa	-12.4386
▁Ra	-12.4389
▁var	-12.4389
▁frolic	-12.4393
▁handle	-12.4398
▁resolv	-12.4399
▁feared	-12.4411
▁concur	-12.4414
▁liver	-12.4414
.96	-12.4417
▁uragasa	-12.4418
▁Dzungar	-12.4425
▁rubb	-12.4425
▁187	-12.443
▁laps	-12.4432
87	-12.4434
annot	-12.4434
ails	-12.4434
solved	-12.4438
ines	-12.4441
▁habit	-12.4444
steps	-12.4445
▁san	-12.4447
chu	-12.445
hina	-12.4451
▁soldier	-12.4455
ad	-12.4456
▁inclination	-12.4457
▁141	-12.4458
▁regiment	-12.4461
▁altar	-12.4463
▁brick	-12.4464
▁bubble	-12.4465
part	-12.4467
▁5,	-12.4471
▁job	-12.4472
vrat	-12.4474
▁Cho	-12.4476
▁colour	-12.4478
ntil	-12.4484
min	-12.4486
▁alliance	-12.449
.106	-12.4493
gata	-12.4497
mdhara	-12.4506
.30	-12.4507
▁behav	-12.4507
▁exclaim	-12.4509
▁governor	-12.4517
▁interrupti	-12.4518
used	-12.452
▁equ	-12.4525
▁onward	-12.4525
▁herds	-12.4532
atall	-12.4537
▁nondharm	-12.4552
▁monkey	-12.4553
under	-12.4555
▁minute	-12.4556
▁wick	-12.4556
▁154	-12.4561
mo	-12.4562
139	-12.4562
▁auto	-12.4563
▁wrestl	-12.4564
▁donate	-12.4569
▁consequent	-12.4571
urban	-12.4573
▁144	-12.4573
ibala	-12.458
▁America	-12.4584
▁church	-12.4585
▁distort	-12.459
.67	-12.4591
▁goat	-12.4595
lay	-12.4597
▁Kagy	-12.4598
▁partak	-12.4598
▁Gangdru	-12.4599
▁Geluk	-12.46
▁apramana	-12.46
▁dauntless	-12.46
ECOM	-12.46
▁Calcutta	-12.46
▁Erfeng	-12.46
▁Group	-12.46
▁Grunfeld	-12.46
▁Khalkha	-12.46
▁Paramitayana	-12.46
▁Petersburg	-12.46
▁Tsethang	-12.46
▁Tuguhun	-12.46
▁adventitious	-12.46
▁alphabet	-12.46
▁artillery	-12.46
▁criteria	-12.46
▁custody	-12.46
▁demeanor	-12.46
▁enthroned	-12.46
▁hunchback	-12.46
▁illegitimate	-12.46
▁inadequate	-12.46
▁indisputabl	-12.46
▁kasisundari	-12.46
▁kidney	-12.46
▁legitimacy	-12.46
▁samapatti	-12.46
▁squeeze	-12.46
▁swastika	-12.46
▁turmoil	-12.46
▁ungrateful	-12.46
▁Ramoche	-12.46
▁crescent	-12.46
▁sarvavit	-12.46
▁Dromo	-12.46
▁Garland	-12.46
▁Monlam	-12.46
▁Thomas	-12.46
▁railway	-12.46
▁crisis	-12.46
▁dishevel	-12.46
▁navigator	-12.46
▁paritta	-12.46
▁coincide	-12.46
▁skeptic	-12.46
▁pauper	-12.46
▁untenable	-12.46
▁Simla	-12.46
▁hawk	-12.46
vaijayant	-12.46
▁Eventually	-12.46
▁Dzong	-12.46
▁champion	-12.46
▁leaflets	-12.46
▁coercion	-12.46
▁abstention	-12.46
▁bluish	-12.46
▁congress	-12.46
▁remembrance	-12.46
▁svastika	-12.46
▁Thupt	-12.46
▁charisma	-12.46
▁artificial	-12.46
▁coarse	-12.46
▁pancika	-12.46
▁quantities	-12.46
▁Namgyal	-12.46
▁dishonor	-12.46
▁draft	-12.46
▁suspicion	-12.46
▁whirl	-12.46
▁pandava	-12.46
▁Tsangpo	-12.46
Regulations	-12.46
▁wobble	-12.46
▁nontrainee	-12.46
▁nineteen	-12.46
.10	-12.46
▁shriek	-12.46
responsibilities	-12.4601
▁manibhadra	-12.4601
▁warrant	-12.4601
▁gloom	-12.4601
▁UK	-12.4601
▁dignitaries	-12.4601
▁ratnasri	-12.4601
▁gratify	-12.4601
but	-12.4601
▁vassalage	-12.4602
▁acute	-12.4602
▁propagator	-12.4602
▁presumption	-12.4602
▁assuage	-12.4602
hai	-12.4602
▁organism	-12.4602
▁obsession	-12.4602
▁rumor	-12.4603
▁import	-12.4603
▁cruelty	-12.4603
▁promulgation	-12.4603
▁indicative	-12.4604
kundala	-12.4604
▁fragment	-12.4604
▁fortress	-12.4605
ajra	-12.4605
▁roadside	-12.4605
▁mediation	-12.4605
Resolution	-12.4607
▁Peng	-12.4608
rushed	-12.4608
▁Reting	-12.4608
▁salary	-12.4609
▁jambhala	-12.4611
▁basically	-12.4611
embers	-12.4612
▁sewn	-12.4612
▁kinship	-12.4612
▁balaha	-12.4613
▁fatal	-12.4614
▁138	-12.4615
▁clarify	-12.4615
▁compiled	-12.4616
.108	-12.4616
▁suprabuddha	-12.4617
▁instincts	-12.4618
▁balm	-12.4619
wort	-12.462
▁serfdom	-12.4622
▁dialogue	-12.4622
▁sambhogakaya	-12.4622
▁Domogatskikh	-12.4622
▁Padmasambhava	-12.4622
▁viraja	-12.4622
▁anxious	-12.4622
▁Women	-12.4623
▁musician	-12.4623
▁BC	-12.4623
▁prevail	-12.4624
▁vivid	-12.4625
▁participants	-12.4626
▁sculptures	-12.4626
▁taper	-12.4627
▁250	-12.4629
▁Consequen	-12.4629
▁webb	-12.463
▁activists	-12.4631
▁imputed	-12.4632
▁bundle	-12.4632
▁impede	-12.4633
▁demolished	-12.4633
▁ripe	-12.4633
▁guilty	-12.4635
▁pestle	-12.4636
▁Liao	-12.4636
▁210	-12.4637
▁indulgence	-12.4638
cked	-12.464
▁compromise	-12.464
▁discerni	-12.464
dradatta	-12.4641
▁tents	-12.4641
▁timid	-12.4642
▁aristocrat	-12.4643
.143	-12.4644
▁unbl	-12.4645
▁gav	-12.4647
▁Hao	-12.4648
▁confiscation	-12.4654
▁trend	-12.4654
▁exploitation	-12.4654
▁Understand	-12.4656
▁exploit	-12.4657
▁190	-12.4658
▁campa	-12.4658
149	-12.4659
▁birthplace	-12.466
▁justified	-12.4662
▁allegedly	-12.4662
.49	-12.4663
▁selfish	-12.4664
▁merc	-12.4665
▁pilgrims	-12.4665
▁track	-12.4666
▁vyuharaj	-12.467
▁perplex	-12.4671
▁funds	-12.4671
▁triumphed	-12.4672
▁couch	-12.4673
▁limpi	-12.4673
▁invocation	-12.4677
▁accelerate	-12.4677
ci	-12.4684
▁unlikely	-12.4687
.73	-12.4688
faced	-12.469
▁donated	-12.4691
▁desponden	-12.4691
▁viper	-12.4692
▁journalists	-12.4693
▁practical	-12.4701
▁persistent	-12.4703
.101	-12.4704
zen	-12.4705
about	-12.4706
che	-12.4706
▁impose	-12.4706
▁objectify	-12.4707
▁justice	-12.4707
▁enlarge	-12.4707
▁pogroms	-12.4709
▁misconceptions	-12.471
▁fabricat	-12.4712
atha	-12.4715
▁fabricate	-12.4715
▁broom	-12.4718
▁electric	-12.472
▁jyoti	-12.4721
▁signal	-12.4724
▁Bet	-12.4726
down	-12.473
.74	-12.4735
waves	-12.4736
▁humanity	-12.4738
▁Mari	-12.4742
▁annihilated	-12.4744
▁visva	-12.4749
araksa	-12.4749
▁attributed	-12.475
▁weakening	-12.475
▁megha	-12.475
▁Blo	-12.4751
▁copy	-12.4754
ient	-12.4764
site	-12.4769
▁ignore	-12.4771
▁centers	-12.4772
▁regenerate	-12.4779
▁occasional	-12.478
▁contracts	-12.4781
▁prose	-12.4782
▁tomb	-12.4782
emptiness	-12.4786
▁proposals	-12.4793
▁6.	-12.4798
atriotic	-12.4805
▁sul	-12.4808
▁reduc	-12.4809
▁polite	-12.481
▁claw	-12.4821
eating	-12.4821
▁publicly	-12.4825
teric	-12.4827
cious	-12.4828
▁sung	-12.4828
▁raising	-12.4828
▁jayas	-12.4831
▁indicat	-12.4833
OLO	-12.4834
placement	-12.4843
.163	-12.4843
eau	-12.4848
▁satya	-12.4851
maitr	-12.4858
▁puspava	-12.4866
▁functioning	-12.4866
set	-12.4869
str	-12.487
▁culminat	-12.4872
▁parallel	-12.4876
clusion	-12.488
▁buddhaya	-12.4881
▁exhal	-12.4884
▁exempt	-12.4888
219	-12.4889
▁speed	-12.4892
imper	-12.4894
.69	-12.4894
▁throug	-12.49
wo	-12.4907
▁monastics	-12.4907
▁finance	-12.4909
▁bigge	-12.4909
cords	-12.491
▁reconcile	-12.4912
uck	-12.4925
▁print	-12.4935
▁chast	-12.4947
▁fleeing	-12.4948
▁dispos	-12.4949
▁tributaries	-12.495
dence	-12.4952
▁stocks	-12.4957
▁career	-12.4957
▁Choek	-12.496
pan	-12.4963
▁disengage	-12.4979
cakrapravartin	-12.4981
apprais	-12.4983
▁danas	-12.4986
here	-12.4987
▁ensur	-12.4988
.85	-12.499
match	-12.4994
▁controls	-12.4995
har	-12.4995
diction	-12.4997
▁deviat	-12.5
▁refugee	-12.5
▁ple	-12.5001
signed	-12.501
▁speci	-12.5018
.26	-12.503
▁saliva	-12.5031
▁Prim	-12.5043
▁constructions	-12.5047
z	-12.5047
▁sparkl	-12.5047
tified	-12.5052
▁Dar	-12.5059
▁Em	-12.5066
▁spit	-12.5076
▁revise	-12.5084
hree	-12.5087
▁brim	-12.5087
ceptual	-12.509
▁11.	-12.5091
lled	-12.5092
▁Ministers	-12.5099
.82	-12.5117
many	-12.5123
▁Or	-12.5128
▁escap	-12.5131
sara	-12.5132
▁nonact	-12.5134
cchattra	-12.5137
▁apprehensi	-12.5138
▁allocat	-12.5139
▁incline	-12.5143
▁comply	-12.5148
▁invade	-12.515
▁vii	-12.5153
ber	-12.5155
▁accompani	-12.5162
▁chao	-12.5162
▁kata	-12.5166
vimala	-12.5172
aduma	-12.5181
hen	-12.5191
▁serf	-12.5197
▁Ros	-12.5203
▁8.	-12.5203
▁Mar	-12.5204
▁stu	-12.5206
omic	-12.5209
▁prob	-12.521
203	-12.5213
.121	-12.5213
▁spectr	-12.5217
lung	-12.5223
▁Ged	-12.5226
iable	-12.5227
▁195	-12.523
▁rut	-12.5232
▁avert	-12.5234
▁insan	-12.5239
raged	-12.5242
beings	-12.5245
▁191	-12.5251
.113	-12.5258
.46	-12.5258
city	-12.5263
ably	-12.5267
amount	-12.5274
▁Buddhas	-12.5293
▁stations	-12.5294
ogether	-12.5297
▁strat	-12.5298
wage	-12.5301
saw	-12.5304
▁vijay	-12.5307
▁aunt	-12.5314
apriyadarsana	-12.5318
lies	-12.5326
seen	-12.5329
cies	-12.5332
▁missions	-12.5335
visuddha	-12.534
trill	-12.5347
allow	-12.535
▁slip	-12.5356
TI	-12.5358
▁201	-12.5367
▁bog	-12.5367
asri	-12.5369
kama	-12.5372
▁diminishe	-12.5373
ighty	-12.5374
TL	-12.538
▁tooth	-12.5382
▁persever	-12.5385
dha	-12.5386
▁vali	-12.5409
▁necks	-12.5412
▁Law	-12.5412
▁colonial	-12.5413
integration	-12.5415
▁checker	-12.5415
▁quote	-12.5417
ndian	-12.5428
fulness	-12.5431
▁anus	-12.5432
.118	-12.5435
aught	-12.5444
sign	-12.5453
eries	-12.5464
athed	-12.5465
▁thirtyt	-12.5469
ottama	-12.548
activity	-12.5483
ware	-12.5485
Mah	-12.5489
▁forceful	-12.5491
▁wrongful	-12.5491
▁impos	-12.5492
tail	-12.5493
silver	-12.5495
anja	-12.5501
▁woke	-12.5502
milk	-12.5505
▁spi	-12.5508
▁continua	-12.5509
revealed	-12.551
urists	-12.5513
determinat	-12.5517
▁secur	-12.5522
trial	-12.5525
▁fumigate	-12.5534
▁liberal	-12.554
▁accompanie	-12.5542
ls	-12.5556
▁dim	-12.5559
vow	-12.5559
administrative	-12.556
▁swor	-12.5563
cuda	-12.5564
yad	-12.5564
▁allocate	-12.5566
▁deteriorate	-12.5566
▁nama	-12.5567
▁petitioner	-12.5569
backward	-12.5571
audience	-12.5572
.77	-12.5572
Art	-12.5573
Rebels	-12.5573
abhyudgata	-12.5574
ightened	-12.558
▁14,	-12.558
▁136	-12.5581
▁noted	-12.5584
.78	-12.5585
dakini	-12.5588
▁dharmata	-12.5591
▁Prince	-12.5594
protected	-12.5599
urning	-12.5606
green	-12.5611
rta	-12.5611
▁castle	-12.5614
▁negotiate	-12.562
blemishe	-12.5629
▁controll	-12.5629
▁culminati	-12.563
16	-12.5637
tysix	-12.5644
deficienc	-12.5645
ier	-12.5645
astra	-12.5651
▁207	-12.5651
enceforth	-12.5654
created	-12.5659
urchen	-12.5661
difference	-12.5664
onceptualization	-12.5664
eadquarters	-12.5672
▁adversar	-12.5674
garjitasvararaja	-12.5678
▁gaganag	-12.568
▁Ottoman	-12.568
▁plateau	-12.568
▁jo	-12.5681
action	-12.5681
▁burial	-12.5681
▁zone	-12.5682
cheng	-12.5683
copying	-12.5691
angerous	-12.5693
ewel	-12.5696
sarthavaha	-12.5698
▁revis	-12.5699
mbi	-12.5699
▁bra	-12.5704
imacy	-12.5706
▁Khoshut	-12.5707
▁portrait	-12.5707
▁sanction	-12.5708
▁chronicle	-12.5711
▁valley	-12.5711
▁donkey	-12.5711
▁shun	-12.5718
▁descendant	-12.572
▁leak	-12.5724
incarnated	-12.5725
▁spic	-12.5726
▁consultation	-12.5727
▁stabilize	-12.5729
▁shed	-12.5731
▁incarnation	-12.5735
▁chair	-12.5737
▁alo	-12.5738
lumn	-12.5739
▁punya	-12.574
founded	-12.5741
ration	-12.5742
▁marking	-12.5743
▁semi	-12.5745
▁clos	-12.5747
fluent	-12.5749
▁assess	-12.575
▁insect	-12.575
▁meditator	-12.5755
–11	-12.5756
toms	-12.5756
▁successor	-12.5757
▁coil	-12.5759
▁paralyze	-12.5761
▁1.2	-12.5767
distorted	-12.5773
step	-12.5775
tly	-12.5794
nine	-12.5795
▁appoint	-12.5796
buddhayana	-12.58
rselves	-12.5805
lative	-12.5806
▁Secret	-12.5808
bad	-12.5817
▁educate	-12.5828
▁Dorje	-12.5829
▁pitch	-12.5831
xious	-12.5831
science	-12.5835
▁memor	-12.5835
▁trad	-12.5841
▁administrat	-12.5844
▁counsel	-12.5844
▁rati	-12.5845
▁melt	-12.5849
▁Georg	-12.5849
▁Propagand	-12.585
▁dichotom	-12.585
effrey	-12.585
▁Festival	-12.585
▁KARMA	-12.585
▁Lifanyuan	-12.585
▁Nehru	-12.585
▁Patsab	-12.585
▁Prasangika	-12.585
▁Recently	-12.585
▁Shrijnana	-12.585
▁Tsaparang	-12.585
▁amrapali	-12.585
▁balacakravartin	-12.585
▁custodian	-12.585
▁exorcis	-12.585
▁glitter	-12.585
▁impeccabl	-12.585
▁javelin	-12.585
▁kacankala	-12.585
▁kilometres	-12.585
▁lavish	-12.585
▁liquor	-12.585
▁memoirs	-12.585
▁oleander	-12.585
▁persuade	-12.585
▁portico	-12.585
▁rhetoric	-12.585
▁shepherds	-12.585
▁shroud	-12.585
▁suburbs	-12.585
▁tortoise	-12.585
▁unexpected	-12.585
▁vindhya	-12.585
▁exhilarat	-12.585
▁museum	-12.585
▁Reflect	-12.585
▁gosaliputra	-12.585
▁monitor	-12.585
▁vasuki	-12.585
▁Gegen	-12.585
▁latecomer	-12.585
▁circumspect	-12.585
▁augur	-12.585
▁Dhondup	-12.585
▁Lotsawa	-12.585
▁compensation	-12.585
▁bonfire	-12.585
▁forfeit	-12.585
▁solemn	-12.585
▁dimension	-12.585
▁societies	-12.585
▁swordsmith	-12.585
▁Roman	-12.585
▁Stupa	-12.585
▁Khitan	-12.585
▁Authorities	-12.585
▁guilds	-12.585
▁Search	-12.585
▁Gedun	-12.585
▁Treatise	-12.585
▁armpit	-12.585
▁cluster	-12.585
▁wholehearted	-12.585
▁swirl	-12.585
▁requirements	-12.585
▁embassy	-12.585
▁prick	-12.585
▁gleam	-12.585
▁hypocritical	-12.5851
▁disdain	-12.5851
▁dissemination	-12.5851
▁Susan	-12.5851
▁carved	-12.5851
▁capitalism	-12.5851
▁exemplar	-12.5851
▁impatient	-12.5851
▁frivolous	-12.5852
▁orphan	-12.5852
▁Today	-12.5852
▁legislation	-12.5852
▁vimalacandra	-12.5852
CL	-12.5853
▁hanker	-12.5853
▁Common	-12.5853
▁register	-12.5853
▁uncommon	-12.5853
▁Nationalities	-12.5853
carin	-12.5853
▁anantarasmi	-12.5854
▁sudden	-12.5854
▁receptiv	-12.5854
▁neigh	-12.5854
▁aditya	-12.5854
▁obstructive	-12.5855
logical	-12.5855
▁greatgrand	-12.5856
.102	-12.5856
▁subjugator	-12.5857
▁clair	-12.5857
▁mountaintop	-12.5857
▁Natural	-12.5858
▁acquisitiveness	-12.5858
▁confession	-12.5858
iveness	-12.5858
▁shrew	-12.5858
intao	-12.5859
▁220	-12.5859
▁untrustworth	-12.5859
▁seedsyllable	-12.5861
▁archit	-12.5861
▁narratives	-12.5861
▁scorpions	-12.5861
▁inexp	-12.5861
▁Trainings	-12.5862
▁mortality	-12.5863
▁135-	-12.5863
▁brass	-12.5864
▁deprivation	-12.5864
q	-12.5864
.112	-12.5865
srikuta	-12.5867
▁devastated	-12.5867
▁firewood	-12.5867
▁intensively	-12.5868
tinent	-12.5868
▁thumb	-12.5868
▁dissuade	-12.5868
▁acquaint	-12.5869
▁yawn	-12.5871
▁talent	-12.5872
▁compact	-12.5873
▁Dow	-12.5874
▁Ngaba	-12.5874
▁Confucius	-12.5875
▁Education	-12.5875
▁Parliament	-12.5875
▁Declaration	-12.5875
▁proficient	-12.5875
▁Tsongdu	-12.5875
▁CER	-12.5876
▁colonies	-12.5876
▁bhall	-12.5877
▁materialism	-12.5879
▁farms	-12.588
▁quest	-12.588
▁Front	-12.588
.144	-12.588
▁Darma	-12.588
▁fiction	-12.5881
▁panel	-12.5881
▁exeges	-12.5883
▁sk	-12.5884
▁empti	-12.5884
▁1939	-12.5888
▁partially	-12.589
▁bond	-12.589
▁perpetuat	-12.589
sized	-12.5891
▁concise	-12.5893
▁dismayed	-12.5893
▁inevitable	-12.5894
▁stronghold	-12.5894
▁Khenp	-12.5894
▁railing	-12.5895
▁literally	-12.5895
▁elections	-12.5895
▁minerals	-12.5896
akrtsna	-12.5897
ress	-12.5897
▁Take	-12.5897
▁ravishing	-12.5899
▁oldest	-12.59
▁brimm	-12.5903
nst	-12.5903
▁pitaka	-12.5905
kyi	-12.5907
▁Premier	-12.5911
▁villagers	-12.5911
▁Black	-12.5912
loyalty	-12.5914
▁1930	-12.5916
▁photographs	-12.5918
▁Paul	-12.5918
▁1969,	-12.5919
onto	-12.5921
.156	-12.5921
.65	-12.5924
▁divan	-12.5924
▁guna	-12.5925
.139	-12.5925
anet	-12.5926
qualities	-12.5927
▁realizers	-12.5928
Lamaism	-12.5929
▁1920	-12.5929
kh	-12.593
▁temporar	-12.5933
lizab	-12.5934
▁organised	-12.5934
▁twent	-12.5934
▁ambassadors	-12.5939
▁disput	-12.5941
▁vik	-12.5942
.97	-12.5946
▁refus	-12.5947
▁affluen	-12.5948
▁sagarava	-12.595
▁alab	-12.5952
.178	-12.5952
orture	-12.5952
▁renunciate	-12.5954
▁bhaga	-12.5959
rrow	-12.5959
▁recently	-12.596
ired	-12.5961
202	-12.5964
▁Six	-12.5964
▁flies	-12.5965
LO	-12.5967
▁hunting	-12.597
▁Thousand	-12.5978
▁receptive	-12.598
▁earn	-12.598
▁reek	-12.598
▁permeat	-12.5981
▁chairs	-12.5985
▁moonstone	-12.5985
▁ceded	-12.5986
.11	-12.5988
▁judgment	-12.5989
atura	-12.5992
▁portraits	-12.5994
▁Khoshuts	-12.5994
▁chronicles	-12.5994
.136	-12.5996
may	-12.5997
▁transition	-12.5998
▁contracted	-12.6001
.196	-12.6002
▁Christin	-12.6003
stern	-12.6005
▁shelling	-12.6007
▁announcement	-12.6008
▁juris	-12.6011
▁outcome	-12.6011
.98	-12.6013
▁regiments	-12.6013
▁God	-12.6015
absorptive	-12.6015
▁plank	-12.6023
stu	-12.6023
matically	-12.6024
▁purge	-12.6032
▁Ni	-12.6032
shi	-12.6032
▁1910	-12.6033
▁cooking	-12.6035
far	-12.6035
▁landlords	-12.6036
▁hid	-12.6038
▁eggs	-12.6039
▁exquisitely	-12.6042
▁waterfall	-12.6044
▁subordinated	-12.6049
▁establishe	-12.605
condemned	-12.6053
▁divest	-12.6054
▁Up	-12.606
▁justify	-12.6061
▁newspapers	-12.607
▁Long	-12.6071
▁squat	-12.6072
▁godsthe	-12.6072
▁1963	-12.6072
Back	-12.6074
▁qualifie	-12.6074
▁compete	-12.6076
▁whomever	-12.6076
▁pigs	-12.6081
▁Ou	-12.6087
suyama	-12.6089
dolence	-12.609
▁violate	-12.609
conquering	-12.609
ehind	-12.6091
▁tactic	-12.6093
isa	-12.6101
ward	-12.6102
.127	-12.6103
▁hari	-12.6108
▁karna	-12.6111
▁plain	-12.6112
▁disrupted	-12.6114
▁didn	-12.6114
.126	-12.6121
hosts	-12.6124
nasal	-12.6134
▁Mu	-12.6135
vrsabha	-12.6139
nocent	-12.614
▁reaction	-12.6144
▁mama	-12.6144
▁integr	-12.6147
▁santi	-12.6147
true	-12.6149
▁satata	-12.6151
antamati	-12.6152
▁map	-12.6155
▁sandal	-12.616
▁Dian	-12.6162
▁alarm	-12.6167
▁pervert	-12.6169
▁manu	-12.6181
▁sprk	-12.6182
▁22,	-12.6185
▁rates	-12.6186
▁inward	-12.6189
▁passages	-12.619
▁cou	-12.6205
▁misinterpret	-12.6205
tached	-12.6207
▁raft	-12.6208
▁Ran	-12.6208
▁Gr	-12.6211
▁cakrava	-12.6219
▁qua	-12.6219
50,000	-12.6229
▁soak	-12.6229
appropriately	-12.6232
ki	-12.6233
▁gray	-12.6235
▁garrisons	-12.6242
kusa	-12.6242
gon	-12.6243
▁influen	-12.6243
▁routes	-12.625
▁Highe	-12.6256
▁dealing	-12.6257
now	-12.6264
veral	-12.6265
gama	-12.6268
ao	-12.627
▁canons	-12.629
ol	-12.629
.206	-12.6293
▁Trade	-12.6294
rification	-12.63
holder	-12.6301
▁customar	-12.6302
act	-12.6302
104	-12.6303
▁preferr	-12.6305
duced	-12.6311
mitabhi	-12.6312
▁reap	-12.6313
▁revers	-12.6316
▁Lu	-12.6319
▁repudiate	-12.632
ert	-12.6321
▁legitimize	-12.6321
pi	-12.6326
buddha	-12.6327
▁selfrestrain	-12.6327
rajnaparamita	-12.6329
▁twin	-12.633
pada	-12.6333
tract	-12.6335
▁resolutions	-12.6337
ands	-12.6338
▁paramou	-12.6344
▁nihilist	-12.6347
▁vara	-12.6347
qing	-12.6347
▁amogh	-12.6349
▁cooperate	-12.6352
omatic	-12.6353
ich	-12.6355
▁twentynin	-12.6357
▁disguis	-12.6363
▁sentences	-12.6371
158	-12.6374
▁dug	-12.6374
▁prasanta	-12.6385
▁admir	-12.6394
215	-12.6394
▁Ku	-12.6395
▁fec	-12.6396
▁Rong	-12.6398
▁nest	-12.6405
ching	-12.6407
▁driv	-12.6412
▁ratnamu	-12.6414
▁indras	-12.6414
NTR	-12.6417
ap	-12.6419
▁magn	-12.6424
range	-12.643
layers	-12.6434
hey	-12.6442
204	-12.6449
▁mati	-12.645
apana	-12.645
board	-12.6452
ction	-12.6453
▁Ca	-12.6457
▁Dor	-12.6468
▁chests	-12.647
▁1.5	-12.6473
▁freedoms	-12.6474
21.	-12.6478
my	-12.6478
lar	-12.6479
blade	-12.6479
▁hal	-12.6483
▁Cha	-12.6484
▁dye	-12.6488
▁mah	-12.6488
▁marriages	-12.6495
violent	-12.6497
▁167	-12.6499
▁distract	-12.6501
▁seas	-12.6506
.148	-12.6514
▁bro	-12.6515
▁mal	-12.6522
ata	-12.6524
vikridita	-12.6526
▁18,	-12.6533
▁hermitages	-12.6545
225	-12.6547
.140	-12.6548
hing	-12.6548
▁beards	-12.6551
aruna	-12.656
▁kes	-12.6563
▁thinker	-12.6564
▁stro	-12.6572
phala	-12.6575
▁Bi	-12.6586
riva	-12.6591
sentien	-12.6594
▁heel	-12.6596
▁abs	-12.6601
▁nurtur	-12.6608
▁Ke	-12.6612
▁rider	-12.6618
▁mines	-12.6621
▁heedless	-12.6622
sented	-12.6623
▁push	-12.6624
▁kun	-12.6626
▁dual	-12.6628
lang	-12.6628
▁dam	-12.6631
▁pathway	-12.6638
▁pha	-12.6641
▁ugli	-12.6649
ub	-12.6651
▁repel	-12.6652
▁Much	-12.6672
▁Dan	-12.6675
218	-12.6676
▁invitations	-12.6679
▁summarize	-12.668
du	-12.668
tree	-12.668
▁Se	-12.6689
▁costu	-12.6704
▁amounts	-12.6704
akoti	-12.6706
ja	-12.6708
▁entertained	-12.6708
▁bh	-12.6713
khya	-12.6714
▁recalls	-12.6716
▁disguise	-12.6717
▁sukha	-12.6722
▁Ta	-12.6725
▁Protect	-12.6729
▁Pel	-12.6737
ump	-12.6742
▁announc	-12.6744
▁ski	-12.6745
▁wipe	-12.6749
ointment	-12.6751
84	-12.6752
This	-12.6754
▁1971	-12.6755
▁score	-12.6756
▁ang	-12.676
.103	-12.6761
▁mound	-12.6769
rmed	-12.6771
▁gre	-12.6779
▁crumbl	-12.6787
▁1967.	-12.6787
mang	-12.679
H	-12.6792
dada	-12.6797
sacrifice	-12.6801
op	-12.6805
▁vice	-12.6818
bar	-12.6821
sing	-12.6828
▁permitt	-12.6829
million	-12.6831
keep	-12.684
cognitions	-12.6843
qu	-12.6846
adhara	-12.6848
cili	-12.6851
▁ridicul	-12.6855
▁magnetiz	-12.6862
▁kinnar	-12.6866
▁jay	-12.6868
ascetic	-12.6869
internal	-12.6869
▁8,	-12.6874
▁elucidat	-12.6875
retch	-12.6879
▁egois	-12.6882
▁outshin	-12.689
▁Nep	-12.6897
thern	-12.6898
quell	-12.6903
kar	-12.6906
ISTE	-12.691
▁restor	-12.691
▁madhya	-12.6911
▁unco	-12.6913
▁seller	-12.6914
▁muc	-12.6917
▁siri	-12.6924
Manchu	-12.6941
For	-12.6943
lapsed	-12.6952
▁operate	-12.6955
▁saint	-12.6956
IM	-12.6957
99	-12.6958
▁Revolutionar	-12.6958
dala	-12.696
written	-12.6968
▁jnanas	-12.6968
liant	-12.6968
feudal	-12.697
smith	-12.698
Western	-12.6981
58	-12.6985
atyekabuddhayana	-12.6994
suzerainty	-12.6996
There	-12.6997
pots	-12.6999
▁purchas	-12.7001
theocratic	-12.7003
ume	-12.7004
▁univers	-12.7004
equality	-12.7005
gruel	-12.7005
gicians	-12.7016
▁Tru	-12.7017
ituation	-12.7023
scale	-12.7023
▁tant	-12.7024
trouble	-12.7025
formation	-12.7029
grandfather	-12.7031
▁harit	-12.7033
▁sow	-12.7034
meritorious	-12.7042
38	-12.7042
▁incident	-12.7043
fifth	-12.7048
▁etymologi	-12.7052
▁reverberate	-12.7066
▁ide	-12.7069
▁yogis	-12.7077
▁abate	-12.708
mandarava	-12.7082
▁estimate	-12.7083
▁sol	-12.7084
lama	-12.7092
▁qualifi	-12.7096
nitive	-12.7099
▁resin	-12.7104
edding	-12.7106
developed	-12.7108
▁ink	-12.7108
▁inauspicious	-12.7111
▁Richard	-12.7111
▁Ever	-12.7118
▁Mountain	-12.7121
205	-12.7122
▁Reds	-12.7124
▁Nazi	-12.7128
▁fright	-12.7128
top	-12.7133
AR	-12.7134
▁vaca	-12.7135
▁skeleton	-12.7136
▁misconception	-12.7136
▁pogrom	-12.7137
▁improvement	-12.7143
▁pronouncement	-12.7143
were	-12.7143
▁landlord	-12.7144
▁airport	-12.7145
▁bandit	-12.7146
ease	-12.7146
▁drug	-12.7147
▁putana	-12.7153
▁vasu	-12.7153
ducts	-12.7156
▁replenish	-12.7166
▁maharaja	-12.7166
▁rescu	-12.7169
▁outline	-12.718
▁triumph	-12.7184
▁trip	-12.7185
▁gen	-12.7187
▁7.	-12.7189
▁bha	-12.7191
carya	-12.7193
157	-12.7198
▁characters	-12.72
ys	-12.7201
ars	-12.7202
▁spark	-12.7204
▁1949	-12.7207
▁induct	-12.7208
▁dwindle	-12.721
▁edit	-12.7213
▁pose	-12.7219
▁xxi	-12.7225
▁vats	-12.7227
▁initiate	-12.7238
▁shav	-12.7245
300	-12.7245
coherent	-12.7247
▁instantaneous	-12.725
▁fare	-12.7253
▁faint	-12.7256
▁embellish	-12.726
welf	-12.7261
▁exchang	-12.7262
▁convene	-12.7264
▁wearer	-12.7267
▁inhal	-12.7271
▁revive	-12.7271
rnament	-12.7272
masters	-12.7272
To	-12.7274
venues	-12.7275
▁cremat	-12.7276
▁Brief	-12.7277
▁kettle	-12.7277
▁vardhamana	-12.7278
uotations	-12.7278
ounghusband	-12.7278
▁CPSU	-12.7278
▁Catanese	-12.7278
▁Documents	-12.7278
▁Hitler	-12.7278
▁Labrang	-12.7278
▁Milarepa	-12.7278
▁Politburo	-12.7278
▁REFUGE	-12.7278
▁William	-12.7278
▁assimilating	-12.7278
▁commemorat	-12.7278
▁emissaries	-12.7278
▁karnikara	-12.7278
▁oxygen	-12.7278
▁progenitor	-12.7278
▁recruit	-12.7278
▁reservoir	-12.7278
▁suspension	-12.7278
▁thangkas	-12.7278
▁turbulen	-12.7278
▁unshakeable	-12.7278
▁unstinting	-12.7278
▁Afghanistan	-12.7278
▁Miwoche	-12.7278
▁Radio	-12.7278
▁apasmara	-12.7278
▁dialect	-12.7278
▁sterilized	-12.7278
▁Nyemo	-12.7278
▁Thailand	-12.7278
▁absurd	-12.7278
▁assassin	-12.7278
▁embryo	-12.7278
▁energetic	-12.7278
▁vacillat	-12.7278
▁Aryadeva	-12.7278
▁Samye	-12.7278
▁hitakama	-12.7278
▁liquid	-12.7278
▁ratnarci	-12.7278
▁Wencheng	-12.7278
▁inconsistent	-12.7278
▁taksaka	-12.7278
▁balcon	-12.7278
▁grenades	-12.7278
▁Taiping	-12.7278
▁Markham	-12.7278
▁ransom	-12.7278
▁Munke	-12.7278
▁ensnare	-12.7278
▁pipes	-12.7278
▁random	-12.7278
▁bhadrika	-12.7278
▁nightingale	-12.7278
▁warfare	-12.7278
▁benediction	-12.7278
▁persecution	-12.7278
▁reconciliation	-12.7278
▁Strong	-12.7278
▁surname	-12.7279
▁Next	-12.7279
▁udayana	-12.7279
▁shrub	-12.7279
▁subahu	-12.7279
▁behaviour	-12.7279
▁crucial	-12.7279
▁padmagarbha	-12.7279
▁abhidharma	-12.7279
▁borderlands	-12.7279
Red	-12.7279
▁Ghar	-12.7279
▁Deutsen	-12.7279
ecture	-12.7279
▁merupradipa	-12.7279
▁incisive	-12.7279
▁percentage	-12.7279
▁Gyeltsen	-12.728
▁Fifth	-12.728
▁Appearances	-12.728
▁expense	-12.728
▁holidays	-12.728
▁reunite	-12.728
▁Third	-12.728
▁signature	-12.728
▁vul	-12.728
▁repositories	-12.728
▁stump	-12.7281
▁eclips	-12.7281
▁gnos	-12.7281
▁categoriz	-12.7281
▁xii	-12.7281
▁Daily	-12.7281
▁circulation	-12.7281
▁mobility	-12.7282
▁eyeball	-12.7282
▁transmitter	-12.7282
▁junior	-12.7282
▁kasika	-12.7282
▁reverential	-12.7283
▁musk	-12.7283
▁planning	-12.7283
ultim	-12.7283
▁mistreat	-12.7283
▁complexity	-12.7285
▁roubles	-12.7285
▁Start	-12.7285
▁Hundred	-12.7286
uff	-12.7287
▁impetuous	-12.7287
▁fiftie	-12.7287
▁Kalon	-12.7287
▁potent	-12.7288
cumen	-12.7289
▁horror	-12.729
▁futil	-12.729
67	-12.729
▁concoct	-12.729
▁asamkhyeya	-12.729
▁accidentally	-12.729
▁boxes	-12.7291
▁excesses	-12.7291
▁engraved	-12.7291
▁patterns	-12.7291
▁admonish	-12.7291
▁daggers	-12.7291
▁domination	-12.7291
.189	-12.7292
▁decreasing	-12.7292
▁temporal	-12.7293
▁confrontation	-12.7293
▁researchers	-12.7294
Serf	-12.7294
abhijna	-12.7294
▁Karen	-12.7294
.137	-12.7294
▁principality	-12.7295
angled	-12.7296
▁unfounded	-12.7296
▁reserves	-12.7296
▁investment	-12.7296
▁valgu	-12.7298
▁outsider	-12.7298
▁halfmo	-12.7298
.138	-12.7299
▁ornate	-12.7299
▁immobiliz	-12.7301
.155	-12.7301
.171	-12.7301
▁eulogize	-12.7302
di	-12.7302
knowledge	-12.7303
▁1969	-12.7303
▁dirgha	-12.7304
▁promotion	-12.7304
▁pretentious	-12.7306
▁slumber	-12.7306
▁CPPCC	-12.7306
▁telegraph	-12.7307
▁mobilized	-12.7307
▁indigenous	-12.7307
▁ratnacchattra	-12.7307
▁goiter	-12.7307
▁Representative	-12.7308
▁afford	-12.7309
▁sincerity	-12.7311
▁restricted	-12.7311
▁cho	-12.7311
▁entangle	-12.7311
▁hectares	-12.7313
▁ambition	-12.7314
▁mercy	-12.7315
▁advisers	-12.7317
▁Edit	-12.7317
▁cloak	-12.7317
simha	-12.7318
▁yasas	-12.7321
.195	-12.7321
▁unenlightened	-12.7321
▁Ro	-12.7321
▁slavery	-12.7322
▁Practice	-12.7323
▁option	-12.7323
▁inmates	-12.7326
▁mandalas	-12.7327
▁usage	-12.7328
▁appointment	-12.7329
▁manure	-12.7329
▁Dorjee	-12.733
.141	-12.733
▁businesses	-12.7331
▁splinter	-12.7334
▁sunanda	-12.7334
▁prospects	-12.7336
▁activate	-12.7337
▁fulfil	-12.7337
hard	-12.7343
▁corruption	-12.7344
▁balls	-12.7345
”.1	-12.7347
▁Mary	-12.7348
▁pandita	-12.7348
▁dripp	-12.7348
▁obstructor	-12.7348
▁evict	-12.7348
.154	-12.7349
▁president	-12.7349
▁Small	-12.7349
▁township	-12.7351
▁fainted	-12.7354
▁snare	-12.7355
ating	-12.7356
▁antithe	-12.7358
▁ow	-12.7358
▁viewpoints	-12.7358
.134	-12.7359
▁victories	-12.7359
95	-12.7361
▁flexib	-12.7362
▁Autonomy	-12.7363
TRU	-12.7365
▁observers	-12.737
▁incomparab	-12.7371
▁ya	-12.7375
▁kapil	-12.7378
▁urgent	-12.7379
▁Austrian	-12.7379
▁Teachings	-12.7379
▁craz	-12.738
▁fists	-12.7382
▁basin	-12.7383
.151	-12.7383
▁padmottara	-12.7384
▁sant	-12.739
hyen	-12.7392
pers	-12.7393
ksma	-12.7393
▁splittist	-12.7394
▁breed	-12.7395
▁genital	-12.7396
▁canvas	-12.7397
▁historians	-12.74
▁imported	-12.7409
▁enabl	-12.7411
▁reinforced	-12.7413
cognizing	-12.7414
▁plot	-12.7416
▁chaste	-12.7417
▁subha	-12.7418
▁disharmon	-12.7418
▁covet	-12.7422
▁skeletons	-12.7424
radhara	-12.7427
▁motivate	-12.7427
.147	-12.743
▁orient	-12.7433
▁spe	-12.7434
▁housing	-12.7435
▁wrestler	-12.7435
▁arena	-12.7442
▁variet	-12.7443
▁copie	-12.7444
▁maps	-12.7446
▁inexpressib	-12.7447
▁resent	-12.745
▁console	-12.7453
▁Kar	-12.746
fusion	-12.7463
▁interior	-12.7463
▁santa	-12.7464
cha	-12.7469
asmipratimandita	-12.7475
nk	-12.7475
▁ek	-12.7475
▁cakra	-12.7477
▁Bal	-12.7481
▁moderat	-12.7485
▁hang	-12.7487
▁gets	-12.749
▁folly	-12.749
▁disagreements	-12.7491
raya	-12.7492
▁repell	-12.7492
▁disclos	-12.7504
▁nerve	-12.7505
▁hospitals	-12.7506
▁bridges	-12.7511
▁chained	-12.7512
▁prefectures	-12.7512
▁landowners	-12.7513
▁revolutionaries	-12.7522
right	-12.7529
ora	-12.7529
.130	-12.7534
▁blam	-12.7534
gre	-12.7547
▁Tian	-12.7548
ief	-12.7551
hearted	-12.7551
vrtta	-12.7552
▁seduc	-12.7553
▁prov	-12.7557
▁volumes	-12.7558
”.34	-12.7561
bbed	-12.7564
▁obeyed	-12.7565
▁accru	-12.7567
ili	-12.7575
▁operations	-12.7578
▁criminals	-12.7583
off	-12.7594
▁elites	-12.7595
minal	-12.7597
rrupted	-12.7598
ram	-12.7599
▁communications	-12.7602
found	-12.7604
▁paintings	-12.7607
guard	-12.7607
tray	-12.7609
▁sil	-12.7611
orthern	-12.7612
mount	-12.7621
religious	-12.7629
▁cons	-12.7629
▁aud	-12.7633
▁negotiat	-12.7638
uated	-12.7639
212	-12.7639
▁boats	-12.764
▁uprisings	-12.7645
▁interven	-12.7645
▁buddh	-12.7646
ively	-12.7647
em	-12.7647
▁stare	-12.7648
▁seeker	-12.7651
▁determin	-12.7652
stride	-12.7653
▁2)	-12.7666
▁enclos	-12.7668
▁anupama	-12.767
huti	-12.7671
▁kausa	-12.7679
third	-12.7684
▁Gal	-12.7685
▁rats	-12.7688
ade	-12.7689
▁sim	-12.769
▁appease	-12.769
▁Hor	-12.7693
▁skandha	-12.7693
▁unskillful	-12.7693
▁goose	-12.7695
▁noises	-12.7695
antaprabha	-12.7697
TC	-12.7697
.142	-12.7697
jug	-12.7709
▁gau	-12.7712
ph	-12.7714
▁mol	-12.7728
suta	-12.7729
iq	-12.7738
▁mail	-12.7742
▁vasudha	-12.7743
▁quintessen	-12.7746
llies	-12.7746
scendant	-12.7755
▁inappropriately	-12.7755
ringing	-12.7758
▁sheet	-12.7762
▁conquerors	-12.7762
▁ratnasikh	-12.7764
▁suffus	-12.7767
▁overly	-12.777
skin	-12.7775
▁ban	-12.7776
▁suddha	-12.7776
ala	-12.7778
▁toleran	-12.778
▁Hall	-12.7782
▁complet	-12.7785
ES	-12.78
.164	-12.7801
75	-12.7802
Da	-12.7809
bimba	-12.7818
▁Nyen	-12.7819
▁protrude	-12.7819
▁clap	-12.7824
▁expos	-12.7825
▁horrifi	-12.7825
▁specifie	-12.783
locked	-12.7837
▁utpalas	-12.7839
▁irate	-12.7839
▁Being	-12.784
▁shameless	-12.7841
▁Si	-12.7841
erson	-12.7847
▁irre	-12.7854
ssembled	-12.7858
▁hun	-12.7859
adarsin	-12.7861
”.2	-12.7862
▁unrul	-12.7866
▁aura	-12.7869
▁nonconcept	-12.787
▁deficienc	-12.787
ick	-12.7872
▁Emp	-12.7877
▁eulog	-12.7878
▁Marc	-12.7885
als	-12.7886
laws	-12.7886
bei	-12.7887
.109	-12.7902
▁stance	-12.7906
aw	-12.7907
▁extr	-12.7912
65	-12.7913
▁rins	-12.7916
▁palas	-12.792
rso	-12.7921
4,000	-12.7923
occurrence	-12.793
▁pacifi	-12.7931
tute	-12.7933
▁messengers	-12.7933
▁sensemedi	-12.7947
▁react	-12.7952
▁16,	-12.7954
▁protective	-12.7959
app	-12.7962
sees	-12.7967
.75	-12.7974
araka	-12.7975
▁quot	-12.7976
▁wages	-12.7976
▁19,	-12.798
pired	-12.7983
.125	-12.7983
ually	-12.7984
away	-12.7989
▁offend	-12.7994
▁ac	-12.7997
udent	-12.7999
▁floors	-12.8001
▁30,	-12.8005
▁Hol	-12.8006
ats	-12.8009
.115	-12.8016
▁reader	-12.8021
shape	-12.8024
tative	-12.8024
▁Los	-12.8027
▁3)	-12.8028
▁swell	-12.8032
▁intersecti	-12.8033
.111	-12.8034
ometimes	-12.8037
▁fist	-12.8039
▁Luk	-12.8041
ushi	-12.8044
▁audiences	-12.8045
▁snipe	-12.8052
▁Alt	-12.8063
▁sundar	-12.8066
ipa	-12.8074
▁vidya	-12.8074
akara	-12.8082
ced	-12.8084
▁perspectives	-12.8087
11	-12.809
▁Tan	-12.8093
▁earning	-12.8094
Lama	-12.8097
verything	-12.8099
▁ku	-12.8102
▁Archives	-12.8114
▁styles	-12.8116
daka	-12.8118
▁strand	-12.8122
▁debates	-12.8124
▁swo	-12.8128
aged	-12.8135
▁17,	-12.8144
▁Nga	-12.8144
▁dec	-12.8151
omni	-12.8153
while	-12.8155
dan	-12.8162
REE	-12.8164
.124	-12.8166
▁16.	-12.8167
pu	-12.818
▁utiliz	-12.8181
defender	-12.8188
▁har	-12.8192
raw	-12.8198
▁Son	-12.8203
▁excel	-12.8204
jiang	-12.8212
uli	-12.8214
▁struggl	-12.8239
ocana	-12.8241
insight	-12.8244
ones	-12.8248
differentiated	-12.8253
atiputra	-12.8256
▁reemerge	-12.8256
▁strip	-12.8261
13.	-12.8265
▁insi	-12.8265
ama	-12.8272
ticed	-12.8285
▁extrem	-12.8287
▁fol	-12.8287
▁edition	-12.829
▁visuddha	-12.8294
▁aboli	-12.8295
▁sweets	-12.8299
bi	-12.8301
.203	-12.8308
▁candr	-12.8312
tong	-12.8317
continuous	-12.8318
▁vibrate	-12.8323
field	-12.8325
homage	-12.8325
▁encompasse	-12.8329
co	-12.8333
vikridit	-12.8337
▁rations	-12.8348
▁tim	-12.8362
▁Mai	-12.8363
▁mor	-12.8367
370	-12.8368
▁objection	-12.8372
▁rasmi	-12.838
▁sak	-12.8384
▁chasti	-12.8389
erry	-12.839
66	-12.8392
den	-12.8394
▁inevitabl	-12.8394
dependence	-12.8397
Peace	-12.8399
▁Spe	-12.8402
▁ball	-12.8403
ps	-12.8406
Lhasa	-12.8407
billion	-12.8409
▁Pa	-12.8412
ud	-12.8416
▁pla	-12.8424
▁throng	-12.8428
▁plural	-12.843
▁iv	-12.8445
▁cra	-12.8446
▁pas	-12.8449
raging	-12.8458
same	-12.8462
.205	-12.8466
.204	-12.8466
▁bureaucrat	-12.8469
▁Kath	-12.8472
asket	-12.8473
wadays	-12.8486
gain	-12.8487
▁profus	-12.8491
▁blemishe	-12.8496
▁dar	-12.8498
▁impale	-12.8499
▁thre	-12.8502
▁fix	-12.8502
207	-12.8506
▁famines	-12.851
ari	-12.8513
grand	-12.8514
8).	-12.8516
▁brahmani	-12.8517
bhijnajnana	-12.8518
▁video	-12.8524
▁rai	-12.8525
▁satiat	-12.8527
iant	-12.8528
actic	-12.8528
▁unre	-12.8528
ran	-12.8528
▁dirgh	-12.854
▁weakness	-12.8544
▁revolutions	-12.8545
blue	-12.8548
iling	-12.8549
inate	-12.855
44	-12.855
▁Pho	-12.8553
▁incite	-12.8553
▁extol	-12.8556
round	-12.8562
People	-12.8566
upper	-12.857
▁Turk	-12.857
▁transi	-12.8573
posed	-12.8576
nned	-12.8576
kindness	-12.8576
siddhi	-12.8578
illed	-12.8581
contain	-12.8582
.318	-12.8586
half	-12.8588
▁tier	-12.8593
foreign	-12.8608
▁Origin	-12.8609
▁record	-12.8609
▁deteriorat	-12.8613
antaka	-12.862
confidence	-12.8621
▁cat	-12.8621
milarly	-12.8622
spiritual	-12.8626
Amdo	-12.8628
priya	-12.8635
exploiters	-12.8642
▁chime	-12.8643
▁terr	-12.8643
▁enumerate	-12.8653
arranged	-12.8656
tributary	-12.8661
revolutionaries	-12.8664
Norbulingka	-12.8665
ethnic	-12.8667
▁violat	-12.8673
.168	-12.8675
.99	-12.8676
▁finer	-12.8679
au	-12.8682
▁crev	-12.8684
oth	-12.8684
products	-12.8684
tualization	-12.8693
inpa	-12.8694
▁thr	-12.8696
conscious	-12.8697
comfortable	-12.8697
ple	-12.8699
▁compel	-12.8702
rent	-12.8703
▁replace	-12.8704
▁horn	-12.8705
inhabit	-12.871
khanda	-12.8714
utrid	-12.8719
▁sya	-12.8721
▁ignor	-12.8721
dated	-12.8736
lashes	-12.8742
opa	-12.8743
▁gooseb	-12.8748
▁athlet	-12.8749
ected	-12.8758
▁induc	-12.8759
▁compuls	-12.876
▁kim	-12.8766
▁proof	-12.8767
▁Catholic	-12.8774
▁Bar	-12.8777
29	-12.878
oes	-12.8783
gestion	-12.8785
▁interval	-12.8788
▁exhortation	-12.879
idated	-12.879
▁Olympic	-12.8794
▁offender	-12.8795
▁warehouse	-12.8799
▁350	-12.8801
giving	-12.8802
▁historian	-12.8802
▁Power	-12.8803
▁journalist	-12.8803
▁hindrance	-12.8804
▁epidemic	-12.8805
agamin	-12.8806
▁gir	-12.8807
▁tourist	-12.8807
▁partner	-12.8808
▁Right	-12.8813
▁crop	-12.8813
.145	-12.8815
ement	-12.8817
▁cale	-12.8824
▁motive	-12.8828
▁stri	-12.883
▁window	-12.883
▁commune	-12.8833
▁vir	-12.8833
▁loka	-12.8834
▁lean	-12.8841
▁meditations	-12.8843
▁dismiss	-12.8847
▁rende	-12.8849
▁alien	-12.8853
▁unmov	-12.8858
taka	-12.8861
araraja	-12.8864
▁benevolen	-12.887
▁lat	-12.8871
WER	-12.8872
▁circulat	-12.8872
▁nonmind	-12.888
omen	-12.8882
▁alternative	-12.8883
–198	-12.8886
▁Bod	-12.889
demonstra	-12.8892
▁approve	-12.8898
▁particulars	-12.8899
lus	-12.89
East	-12.8902
▁relinquishe	-12.8904
▁boast	-12.8908
smrti	-12.891
▁shock	-12.891
▁writer	-12.8911
▁rapid	-12.8917
▁excess	-12.8919
▁capabilit	-12.892
▁anxiet	-12.8926
tan	-12.8926
▁guilt	-12.8926
▁ev	-12.8928
▁overthrow	-12.893
▁loyal	-12.8931
▁crim	-12.8933
.129	-12.8939
▁injure	-12.894
PERI	-12.8943
▁Islam	-12.8944
NR	-12.8944
▁Pacific	-12.8944
▁Public	-12.8945
hangzhung	-12.8945
▁peculiar	-12.8945
asubandhu	-12.8945
▁Bharkhor	-12.8945
▁Braun	-12.8945
▁Buddhapalita	-12.8945
▁Chancellor	-12.8945
▁Gartok	-12.8945
▁Hopkins	-12.8945
▁Kalimpong	-12.8945
▁Kelsang	-12.8945
▁Kyichu	-12.8945
▁League	-12.8945
▁Lungshar	-12.8945
▁Museum	-12.8945
▁Negotiations	-12.8945
▁Ragdi	-12.8945
▁Ravdan	-12.8945
▁Schaefer	-12.8945
▁Siberia	-12.8945
▁academic	-12.8945
▁aprameya	-12.8945
▁assault	-12.8945
▁breastfeed	-12.8945
▁curiosity	-12.8945
▁diminution	-12.8945
▁energies	-12.8945
▁epitome	-12.8945
▁explicit	-12.8945
▁hiranya	-12.8945
▁kneecaps	-12.8945
▁krosa	-12.8945
▁mrdanga	-12.8945
▁necessity	-12.8945
▁pollution	-12.8945
▁preamble	-12.8945
▁prestige	-12.8945
▁sabotage	-12.8945
▁spectacle	-12.8945
▁thoroughbred	-12.8945
nirmita	-12.8945
▁Nyarong	-12.8945
▁Sangui	-12.8945
▁disobey	-12.8945
▁illiterate	-12.8945
proxim	-12.8945
▁Previously	-12.8945
▁Ribush	-12.8945
▁Shanghai	-12.8945
▁Taiji	-12.8945
▁ajivika	-12.8945
▁brhaspati	-12.8945
▁Manchukuo	-12.8945
▁dewdrop	-12.8945
▁competition	-12.8945
▁ganapati	-12.8945
▁Chandrakirti	-12.8945
▁exploration	-12.8945
▁Khuree	-12.8945
▁portray	-12.8945
▁delineate	-12.8945
▁ratnakusuma	-12.8945
▁asylum	-12.8945
▁box	-12.8945
▁MPR	-12.8945
▁receipt	-12.8945
▁Derge	-12.8945
▁conservation	-12.8945
Mandate	-12.8945
▁yasahprabha	-12.8945
▁linguistic	-12.8945
▁Himalayas	-12.8945
ANS	-12.8945
▁Dharmapala	-12.8945
▁unacceptable	-12.8945
▁infatuat	-12.8945
▁seizure	-12.8945
▁ulka	-12.8945
▁bourgeoisie	-12.8945
▁tumor	-12.8945
▁Federation	-12.8945
▁dichiliocosm	-12.8945
▁extension	-12.8945
▁crawl	-12.8945
▁dwarf	-12.8945
▁Grace	-12.8945
▁purnabhadra	-12.8946
▁vam	-12.8946
.41–4	-12.8946
▁reckless	-12.8946
▁Khanbal	-12.8946
▁reaffirm	-12.8946
▁compilation	-12.8946
▁lionthrone	-12.8946
▁Birth	-12.8946
▁gourd	-12.8946
▁paragraph	-12.8946
▁sramana	-12.8946
▁eagle	-12.8946
▁Gangdruk	-12.8946
▁girdle	-12.8946
▁suvikranta	-12.8946
▁denial	-12.8946
▁plaster	-12.8946
▁interdependent	-12.8946
▁pataha	-12.8946
▁hurry	-12.8946
legacy	-12.8947
▁smart	-12.8947
▁vajradakini	-12.8947
▁firearms	-12.8947
▁vilify	-12.8947
▁masaka	-12.8947
▁consensu	-12.8947
.133	-12.8947
▁disampati	-12.8947
▁stitch	-12.8948
▁redistribution	-12.8948
▁hydro	-12.8948
▁axle	-12.8948
▁chicken	-12.8948
▁spacious	-12.8949
▁overflow	-12.8949
▁veranda	-12.8949
▁locus	-12.8949
▁aparajit	-12.895
▁Cyn	-12.895
▁fertile	-12.895
▁Buddhahood	-12.8951
▁zealous	-12.8951
▁rainbow	-12.8952
▁spiral	-12.8952
▁percent	-12.8952
.165	-12.8952
▁Often	-12.8953
▁Dharmakirti	-12.8953
▁Shamar	-12.8953
.190	-12.8953
▁Canon	-12.8954
▁scarce	-12.8954
▁mahacandra	-12.8954
▁expung	-12.8954
▁xxii	-12.8954
▁disbanded	-12.8954
▁Corps	-12.8955
▁mules	-12.8955
pari	-12.8956
ealthy	-12.8957
▁revitalizer	-12.8957
▁Guge	-12.8958
.120	-12.8958
▁childhood	-12.8958
▁correspondent	-12.8958
▁boots	-12.8958
▁dignitar	-12.8959
▁nonsense	-12.8959
▁shrink	-12.896
▁Oirats	-12.896
▁Dogras	-12.896
▁grievances	-12.896
▁Kalmyks	-12.8961
▁quotations	-12.8961
▁mahakala	-12.8961
▁furious	-12.8961
.185	-12.8961
▁layperson	-12.8961
▁affix	-12.8961
.193	-12.8962
▁swear	-12.8963
▁glorify	-12.8963
▁Commissioner	-12.8964
aurava	-12.8965
▁prey	-12.8965
kumara	-12.8966
▁209	-12.8966
▁interact	-12.8967
▁intolerable	-12.8968
▁putref	-12.8968
▁negation	-12.8968
▁Clear	-12.8971
▁wrongdoer	-12.8971
▁lac	-12.8972
▁dismounted	-12.8972
▁lock	-12.8972
▁comp	-12.8973
▁repositor	-12.8973
▁noteworthy	-12.8973
.131	-12.8973
▁dynamic	-12.8974
▁excuse	-12.8974
▁celebrations	-12.8975
▁snapp	-12.8975
▁resettled	-12.8976
▁misapprehension	-12.8978
▁poster	-12.8978
▁Dadu	-12.8978
▁Przewalski	-12.8978
▁enclosure	-12.8979
▁curtain	-12.8979
▁Order	-12.8979
▁prana	-12.8979
.150	-12.8979
▁Usually	-12.898
▁solicit	-12.898
▁matted	-12.898
▁archa	-12.8981
▁intimidation	-12.8981
▁complaint	-12.8981
▁laborers	-12.8982
▁ingots	-12.8983
▁Struggle	-12.8983
▁dump	-12.8983
fur	-12.8984
▁obst	-12.8985
179	-12.8985
▁detainees	-12.8985
▁Wood	-12.8985
▁allies	-12.8986
.162	-12.8987
▁Thank	-12.8988
▁intensified	-12.8988
▁xvii	-12.8988
▁lists	-12.8989
▁invit	-12.8989
kalika	-12.8991
par	-12.8991
▁vasavartin	-12.8991
▁manufacturing	-12.8991
▁kan	-12.8991
▁opportune	-12.8992
▁shortage	-12.8995
,400	-12.8995
▁Dengo	-12.8996
trustworth	-12.8996
▁Place	-12.8997
▁valor	-12.8997
▁niece	-12.9001
▁photo	-12.9002
▁commoners	-12.9004
▁Korean	-12.9005
mpact	-12.9007
▁1933	-12.9007
▁unknowing	-12.9007
▁saturat	-12.9008
▁canon	-12.9009
▁annually	-12.901
▁turban	-12.9011
▁altitudes	-12.9011
▁patche	-12.9012
267	-12.9012
▁loans	-12.9012
rita	-12.9012
▁classics	-12.9013
▁vowels	-12.9016
▁breeding	-12.9021
40	-12.9024
▁postal	-12.9025
sided	-12.9025
▁Changes	-12.9025
delli	-12.9029
▁bombing	-12.9031
.149	-12.9031
▁reappeared	-12.9031
▁Drag	-12.9036
▁221	-12.9036
▁crash	-12.9037
.202	-12.9038
▁adulter	-12.9039
355	-12.9039
▁fabrications	-12.904
▁swe	-12.9041
▁foundry	-12.9041
▁graduate	-12.9043
eat	-12.9046
▁incoherent	-12.9047
228	-12.9047
▁sigh	-12.9047
atung	-12.9049
▁bomb	-12.9049
▁vigorous	-12.9051
261	-12.9053
360	-12.9056
▁truce	-12.9056
▁Traditional	-12.9058
etting	-12.9059
▁twentyseven	-12.9061
▁1946	-12.9065
▁Uighurs	-12.9066
▁intens	-12.9068
▁indefatigab	-12.9068
▁1907	-12.9071
▁somewhat	-12.9073
putra	-12.9073
▁festiv	-12.9074
.153	-12.9074
▁cens	-12.9074
zi	-12.9074
▁lustr	-12.9075
▁angada	-12.9077
▁spies	-12.9078
▁chat	-12.9082
▁unaccompanied	-12.9082
372	-12.9084
uperintendent	-12.9086
▁supervis	-12.9086
▁1905	-12.9087
▁argu	-12.9089
▁tales	-12.9091
▁warehouses	-12.9092
▁Mind	-12.9093
▁Powers	-12.9093
▁inexhaustib	-12.9093
laughter	-12.9095
52	-12.9095
▁pretend	-12.9096
.184	-12.9097
▁handl	-12.9097
▁poorer	-12.9099
▁records	-12.9102
▁gal	-12.9102
▁drugs	-12.9102
.182	-12.9103
▁belts	-12.9105
▁Make	-12.9105
▁leftists	-12.9106
▁warning	-12.9107
▁pedi	-12.9112
▁karsa	-12.9113
▁revived	-12.9113
mputation	-12.9115
▁Day	-12.9118
Geography	-12.9118
ends	-12.9126
▁tad	-12.913
▁spirituality	-12.9131
▁Tran	-12.9138
▁emphasize	-12.9138
38.	-12.9142
▁1923	-12.9144
gotten	-12.9145
▁undermined	-12.9146
▁nonac	-12.9147
▁jobs	-12.9149
▁Gang	-12.9151
▁metaphysic	-12.9151
▁jingl	-12.9151
liday	-12.9152
gi	-12.9152
termed	-12.9153
▁inhale	-12.9156
maki	-12.916
▁descen	-12.916
udi	-12.9166
specific	-12.9167
rifl	-12.9167
centered	-12.9168
skirt	-12.9168
▁effectively	-12.9169
▁jambha	-12.9172
▁oblivio	-12.918
▁omni	-12.9181
hua	-12.9182
jection	-12.9183
▁mandate	-12.9186
asse	-12.919
▁labels	-12.919
anwhile	-12.9192
▁historically	-12.9192
▁y	-12.9192
242	-12.9194
▁stool	-12.9196
ecurity	-12.9197
▁pages	-12.92
▁tu	-12.9201
▁fragil	-12.9202
▁spokes	-12.9202
ag	-12.9208
▁tatha	-12.9209
▁skand	-12.921
▁discus	-12.9211
▁praiseworthy	-12.9211
▁contamination	-12.9212
▁1932	-12.9213
▁15.	-12.9213
▁jang	-12.9214
▁revolve	-12.9215
▁Gan	-12.9216
▁hoo	-12.922
▁delivere	-12.9222
▁Mich	-12.9222
▁subrahma	-12.9222
▁spiritually	-12.9223
▁longliv	-12.9224
▁vacu	-12.9226
▁Na	-12.9229
▁photos	-12.923
▁Typical	-12.9231
▁listener	-12.9232
▁tributary	-12.9236
▁deported	-12.9238
▁referent	-12.9241
▁ratifi	-12.9241
adavatara	-12.9245
▁cards	-12.9247
▁Tantr	-12.9256
▁postulate	-12.9256
▁dice	-12.9264
▁loan	-12.9266
patriots	-12.9271
▁hesitat	-12.9273
os	-12.9273
▁ideals	-12.9282
▁purchase	-12.9283
As	-12.9284
stones	-12.9285
364	-12.9287
ipela	-12.9287
▁republics	-12.9288
▁Guang	-12.9296
▁uncon	-12.9296
▁unlo	-12.9298
wed	-12.9303
86	-12.9304
122	-12.9307
▁mile	-12.9314
▁tol	-12.9314
▁departments	-12.9315
▁devi	-12.9315
itable	-12.9317
herry	-12.932
gunarajaprabhasa	-12.9323
▁nameless	-12.9327
▁embodies	-12.9328
▁dally	-12.9328
▁Patric	-12.9335
ould	-12.9338
▁hurtful	-12.9338
▁withdr	-12.9339
▁acceptable	-12.9341
▁delayed	-12.9341
▁suppressi	-12.9345
▁dispelle	-12.9346
▁stamps	-12.9346
▁jet	-12.9347
bo	-12.9348
varta	-12.9349
estruction	-12.935
ceived	-12.9352
iage	-12.9352
▁consolidate	-12.9358
should	-12.9366
▁defi	-12.9369
anshan	-12.9374
cilind	-12.9375
agupta	-12.9377
▁mosqu	-12.9386
anne	-12.94
bitten	-12.94
ahala	-12.9403
notes	-12.9403
.177	-12.9403
▁Others	-12.9404
tains	-12.9407
▁thro	-12.9413
▁pisaci	-12.9413
astri	-12.9417
▁erran	-12.9417
▁performances	-12.9418
ft	-12.9423
kong	-12.9425
▁Ki	-12.9425
▁choosing	-12.9426
CEPT	-12.9435
.183	-12.944
ndolence	-12.9442
iprabha	-12.9446
▁Sal	-12.9447
gree	-12.9449
▁impur	-12.9449
song	-12.9455
non	-12.9459
▁deem	-12.9464
▁Regard	-12.9464
gen	-12.9466
▁sheath	-12.9469
▁wearin	-12.9469
llowing	-12.9472
▁soot	-12.9475
tika	-12.9476
.200	-12.948
180	-12.948
etch	-12.9481
▁Formal	-12.9482
▁prompted	-12.949
.159	-12.9491
vi	-12.9493
zang	-12.9494
▁Bas	-12.9495
sipat	-12.9496
gic	-12.9497
▁cul	-12.9499
▁infectio	-12.9499
▁dh	-12.9501
▁hub	-12.9505
rang	-12.9507
lap	-12.9514
▁experiencer	-12.9515
▁cower	-12.9516
cent	-12.9516
upati	-12.9518
oid	-12.952
wanted	-12.9521
▁prickl	-12.9521
iving	-12.9523
ms	-12.9524
lutions	-12.9526
▁abid	-12.9527
mer	-12.953
▁wr	-12.9531
bout	-12.9533
que	-12.9545
▁plea	-12.9547
.215	-12.9553
actors	-12.9555
▁maximi	-12.9555
▁maid	-12.9557
▁sen	-12.9565
.244	-12.9565
▁undefeat	-12.9565
▁dissolves	-12.9574
253	-12.9575
-15	-12.9578
fang	-12.9587
334	-12.9588
▁halls	-12.959
▁raze	-12.9593
49	-12.9594
lmsman	-12.9598
▁belt	-12.9599
▁Kang	-12.9605
▁proliferate	-12.9611
avati	-12.9617
power	-12.9627
▁tissue	-12.9629
▁Con	-12.9632
motion	-12.964
▁festivals	-12.9648
▁14.	-12.9649
▁chambers	-12.9652
▁stru	-12.9653
ested	-12.9654
▁convict	-12.9654
wit	-12.9662
▁ounce	-12.9667
gging	-12.9667
isin	-12.9669
▁ri	-12.9669
▁Turkis	-12.9671
cher	-12.9675
retche	-12.9681
des	-12.9686
▁foc	-12.969
▁nila	-12.9691
▁bid	-12.97
ayana	-12.9701
imat	-12.9702
rupa	-12.9707
thless	-12.9709
▁fier	-12.9711
▁(1	-12.9712
▁ji	-12.9712
thought	-12.9713
▁fann	-12.9714
128	-12.9714
▁delivery	-12.9718
▁launch	-12.9722
▁vibrat	-12.9729
afflict	-12.973
▁herding	-12.9731
eeling	-12.9734
▁ram	-12.9736
maid	-12.9736
elling	-12.974
▁327	-12.9743
00,000	-12.9762
▁kiss	-12.9776
nan	-12.9778
▁dualis	-12.9779
82	-12.9787
antarasm	-12.9788
ows	-12.9794
▁unha	-12.9798
▁congregate	-12.98
end	-12.9803
tics	-12.9807
▁exclud	-12.9809
▁Lind	-12.981
32.	-12.9811
55.	-12.9817
▁dissolv	-12.982
▁ours	-12.9821
states	-12.983
▁1908	-12.9833
▁interprete	-12.9849
▁hasty	-12.9853
.218	-12.9855
▁Anne	-12.9863
▁concer	-12.9864
▁inflate	-12.9871
▁rous	-12.9881
imagin	-12.9882
istha	-12.9884
ton	-12.9887
▁humor	-12.9897
og	-12.99
▁valuables	-12.9912
ikh	-12.9915
▁marit	-12.9915
▁forum	-12.9915
zhen	-12.9921
▁equip	-12.9923
▁sold	-12.9924
lower	-12.9929
them	-12.9934
inner	-12.9935
respect	-12.9955
▁user	-12.9955
▁entr	-12.9964
▁approximat	-12.9967
atters	-12.9967
▁jing	-12.9969
7)	-12.9972
precious	-12.9977
▁dev	-12.9981
▁vasum	-12.9985
AT	-12.9985
festo	-12.9997
90	-12.9998
▁choices	-13.0003
▁tw	-13.0006
tinies	-13.0009
ird	-13.0013
avast	-13.0017
▁alleviat	-13.0019
erve	-13.0019
▁plent	-13.0022
▁bandha	-13.0027
▁Po	-13.0028
▁bill	-13.0031
uni	-13.0036
▁Any	-13.0038
rets	-13.0041
▁divergen	-13.0057
▁te	-13.0059
47	-13.0062
▁coronat	-13.0068
ounding	-13.0069
living	-13.0069
▁afterwards	-13.008
▁stored	-13.0081
▁ti	-13.0082
spirited	-13.0085
tributes	-13.0085
scribed	-13.0089
▁instances	-13.0091
▁suryaprabha	-13.0094
ocks	-13.01
sman	-13.012
▁Shan	-13.0122
▁vile	-13.0126
immed	-13.0133
ina	-13.0139
ava	-13.0146
▁mus	-13.0148
aded	-13.0154
riving	-13.0156
ove	-13.0163
▁enrol	-13.017
▁Tsog	-13.0172
kas	-13.0172
zhi	-13.0173
ovsky	-13.0179
lotus	-13.0182
▁destructi	-13.0184
ndoubtedly	-13.0199
▁Peter	-13.0203
▁reel	-13.0208
▁paca	-13.0209
160	-13.0212
▁Ri	-13.0213
mala	-13.022
correctly	-13.0223
▁excret	-13.0225
cted	-13.0228
▁rush	-13.023
food	-13.023
paryan	-13.0231
▁alter	-13.0234
▁steed	-13.0245
▁maxim	-13.0247
▁nonoriginati	-13.0252
▁accommodat	-13.0253
▁melodi	-13.0256
hani	-13.0259
▁invok	-13.0265
pider	-13.0269
rown	-13.0271
tality	-13.0281
▁contemporar	-13.0281
▁cont	-13.0296
▁25.	-13.0296
sins	-13.0302
▁boar	-13.031
161	-13.0313
▁articulate	-13.0314
fied	-13.0315
▁scal	-13.0322
nze	-13.0324
ules	-13.0324
▁outsh	-13.0327
ii	-13.0329
▁sumerus	-13.0335
–1	-13.0343
▁jnanava	-13.0355
established	-13.0358
doing	-13.0358
▁Mass	-13.0361
▁stranger	-13.0364
▁Arab	-13.037
government	-13.0384
controlled	-13.0393
aneous	-13.0396
hol	-13.0398
meditation	-13.0399
▁chim	-13.0403
avasa	-13.0403
lten	-13.0409
▁1966.	-13.0413
she	-13.0416
▁nonceas	-13.0425
tai	-13.0441
learned	-13.0446
garland	-13.0457
▁FR	-13.0459
til	-13.0465
originated	-13.0467
▁Gy	-13.0472
unt	-13.0473
sks	-13.0474
ren	-13.0478
bushel	-13.0483
▁Trans	-13.0485
flower	-13.0485
figure	-13.0487
hair	-13.0488
▁challenge	-13.0497
▁Where	-13.0504
▁adult	-13.0504
external	-13.0514
hill	-13.0515
ksu	-13.0516
Mongolia	-13.0517
building	-13.0519
▁advers	-13.0521
felt	-13.0529
tarik	-13.0531
ctively	-13.0541
305	-13.0542
dualistic	-13.0544
▁factual	-13.0549
▁mystic	-13.056
▁cell	-13.0567
arity	-13.0567
tended	-13.0588
development	-13.059
ike	-13.0592
▁colo	-13.0594
▁migrat	-13.0594
Soviet	-13.0597
▁acknowledg	-13.06
▁shop	-13.0603
rna	-13.0608
▁atten	-13.0612
illions	-13.0613
Kangyur	-13.0615
pisaci	-13.0621
lost	-13.0621
▁Differen	-13.0627
▁corrected	-13.0628
aments	-13.0629
conceptuality	-13.0637
modern	-13.064
Since	-13.064
economic	-13.0641
▁formula	-13.0642
▁Kya	-13.0643
▁khara	-13.0643
sessions	-13.0647
General	-13.0649
▁cite	-13.0652
dynasty	-13.0657
▁merci	-13.0657
New	-13.066
discretion	-13.0663
▁Actual	-13.0663
Secretary	-13.0665
▁cle	-13.0665
▁jagat	-13.0667
bitter	-13.0669
lest	-13.0669
volume	-13.067
performance	-13.0678
▁remedi	-13.0678
rapped	-13.0681
naksatra	-13.0687
revolution	-13.0688
▁pledg	-13.0691
▁vas	-13.0694
disintegration	-13.0695
▁padm	-13.07
▁hedge	-13.0701
▁sympath	-13.0702
▁hoar	-13.0702
▁recur	-13.0705
zing	-13.0711
▁spite	-13.0713
▁pil	-13.0716
ug	-13.0719
▁hunch	-13.072
▁sto	-13.0724
▁Again	-13.0725
▁lapse	-13.0727
▁secondly	-13.0729
applying	-13.0731
ders	-13.0732
▁Ab	-13.0736
▁Mang	-13.0737
▁Administrati	-13.0747
Let	-13.0749
rahasta	-13.0749
▁phenomen	-13.0758
ided	-13.0769
▁En	-13.0773
▁ved	-13.0776
▁INT	-13.0777
trans	-13.0778
▁firstly	-13.0779
hes	-13.0782
▁temper	-13.0782
▁profess	-13.0783
▁supervise	-13.0789
▁blacksmith	-13.0794
lik	-13.0795
[...]
