<unk>	0
<s>	0
</s>	0
་	-3.32338
▁	-3.37732
དང་	-4.65546
ལ་	-4.93626
བྱང་ཆུབ་སེམས་དཔའ	-5.41532
ནས་	-5.41578
འི་	-5.44601
ས་	-5.47028
ནི་	-5.54283
དེ་	-5.62101
དང་་	-5.68634
ན་	-5.82128
བཅོམ་ལྡན་འདས་	-5.94374
མ་	-6.05192
▁དེ་ནས་	-6.07192
ར་	-6.07885
ཡང་	-6.1163
མི་	-6.1912
ཀྱི་	-6.20362
འདི་	-6.23385
ཀྱིས་	-6.28777
པ་	-6.33458
▁བཅོམ་ལྡན་འདས་	-6.38705
གྱི་	-6.39034
དེ་དག་	-6.41954
བོད་མིའི་	-6.43917
་སེམས་དཔའ་ཆེན་པོ	-6.44786
▁དེ་	-6.4542
ལས་	-6.46844
དེ་བཞིན་གཤེགས་པ	-6.48921
ཏེ་	-6.49957
རྣམས་	-6.50955
ཡོད	-6.51416
ཀྱང་	-6.5383
སངས་རྒྱས་	-6.53932
དུ་	-6.54661
པའི་	-6.58932
སྐྱབས་མགོན་	-6.58957
བ	-6.63764
དག་པར་རྫོགས་པའི་	-6.66441
ལ	-6.67797
▁དེ་བཞིན་	-6.68294
ནང་	-6.69029
དེ་བཞིན་གཤེགས་པ་	-6.7013
རེད	-6.71046
གི་	-6.73202
ཕ་རོལ་ཏུ་ཕྱིན་པ་	-6.74532
▁ཕྱི་ལོ་	-6.74697
ཆོས་	-6.76023
སྟེ་	-6.78916
འཇིག་རྟེན་	-6.80105
སྤྱི་ནོར་གོང་ས་	-6.83192
བ་	-6.86794
གང་	-6.90059
དག་	-6.91111
པར་	-6.95678
ས	-6.98124
ཞིང་	-7.00114
སོགས་	-7.01254
ཐོག་	-7.02765
དེས་	-7.02975
སྒྲིག་འཛུགས་ཀྱི་	-7.05456
ཐམས་ཅད་	-7.05541
་དང་	-7.06711
རྒྱ་ནག་གཞུང་གིས་	-7.07181
གནས་	-7.08864
དེའི་	-7.10547
སུ་	-7.10937
▁དེ་བཞིན་དུ་	-7.12894
ཆེན་པོ་	-7.13562
་དང་་	-7.15316
གིས་	-7.17947
གྱིས་	-7.19658
ཞིག་	-7.20406
བྱང་ཆུབ་	-7.20833
དེ་ནི་	-7.21929
ཞེས་	-7.23271
བར་	-7.24361
ཤིང་	-7.25444
བོད་ཀྱི་	-7.26033
བླ་ན་མེད་པ་ཡང་	-7.26995
སངས་རྒྱས་ཀྱི་	-7.27493
ཡོངས་སུ་	-7.27701
པ	-7.28122
མཆོག་	-7.28381
སེམས་	-7.28461
ར	-7.32595
སྐབས་	-7.32947
ཤིན་ཏུ་	-7.32972
འོ་་	-7.3341
རབ་ཏུ་	-7.35008
སེམས་ཅན་	-7.3549
བདག་	-7.36399
རྒྱ་གར་	-7.36511
འམ་	-7.36696
▁དེ་ཡང་	-7.37272
དེར་	-7.37317
པ་དང་	-7.37673
པ་དང་་	-7.38796
ཇི་ལྟར་	-7.38891
བྱེད་	-7.40092
▁བོད་མིའི་	-7.40809
པས་	-7.41149
▁ཤ་ར་དྭ་ཏིའི་བུ་	-7.41226
དེ་ལ་	-7.41623
ང་	-7.42029
མ	-7.43446
བཅས་	-7.45316
བྱས་ནས་	-7.45585
འདི་ནི་	-7.45637
དེ་ལྟར་	-7.45829
བཅོམ་ལྡན་འདས་ཀྱི	-7.46057
▁བཙུན་པ་	-7.462
ཅིང་	-7.47312
རྣམས་ཀྱིས་	-7.48417
▁རིགས་ཀྱི་བུ་	-7.4861
དཔལ་ལྡན་སྲིད་	-7.4962
མཆོག་གིས་	-7.50199
ཕྱི་ལོ་	-7.50299
གཉིས་	-7.50466
▁དེར་བརྟེན་	-7.51819
ཧ་ཅང་	-7.52261
དེ་བཞིན་དུ་	-7.52889
འདི་ལྟ་སྟེ་	-7.53192
ག	-7.53827
▁དེ་ལ་	-7.5386
ངས་	-7.53881
ར་འགྱུར་རོ་་	-7.56185
གནང་	-7.56433
བོད་	-7.56669
རྣམས་ལ་	-7.57369
་དགྲ་བཅོམ་པ་ཡང་	-7.57502
རྒྱལ་སྤྱིའི་	-7.57537
བྱུང་	-7.58549
འདུག	-7.59011
དེ་བཞིན་	-7.59241
ལ་འདི་སྐད་ཅེས་	-7.59338
སོ་་	-7.59455
བའི་	-7.59942
རྒྱུ་	-7.61487
སྡུག་བསྔལ་	-7.61541
རྗེས་	-7.61638
ན	-7.6164
ཁྱོད་	-7.61641
ཤེས་པ་	-7.61896
ཆེན་པོ་མཆོག་གིས་	-7.6212
ཤེས་རབ་ཀྱི་	-7.62318
མང་པོ་	-7.63129
ཞུ་རྒྱུ་ཡིན	-7.64015
ལྟར་	-7.64639
ལུས་	-7.65308
རྣམ་པར་	-7.65341
གསུང་བཤད་གནང་	-7.66804
རྣམས་ཀྱི་	-7.67009
ཚོགས་	-7.6716
བཞིན་	-7.67874
ཞེས་བྱ་བ་	-7.68139
ཆེད་	-7.68234
ཆོས་ཀྱི་	-7.68478
རྒྱལ་པོ་	-7.69005
རིགས་	-7.69133
གྲོས་ཚོགས་	-7.69229
བཞིན་དུ་	-7.69429
▁སངས་རྒྱས་	-7.7037
དོན་	-7.70616
འཕྲོད་བསྟེན་	-7.71345
གཟུགས་	-7.71511
གཞན་	-7.71785
▁འོན་ཀྱང་	-7.72532
འདིར་	-7.7351
གཅིག་	-7.74534
འགྲོ་བ་མིའི་ཐོབ་	-7.75236
▁དེས་	-7.76109
དགེ་སློང་	-7.76749
▁གཞན་ཡང་	-7.76833
ཚེ་དང་ལྡན་པ་	-7.76996
དང་འབྲེལ་བའི་	-7.77653
ཡིན་ནོ་་	-7.7771
ི་	-7.7809
འཛམ་གླིང་	-7.78251
▁དེ་དག་	-7.78257
▁དེ་ནི་	-7.78662
སྐུ་ཚབ་དོན་གཅོད་	-7.78934
ཀྱིས་བཀའ་སྩལ་པ་	-7.80416
▁ལྷག་པར་	-7.80631
སྐོར་	-7.80987
▁རབ་འབྱོར་	-7.81272
ལམ་	-7.82034
ཐོག་ནས་	-7.82233
ཡོད་པ་དང་	-7.82284
▁སྐབས་དེར་	-7.82484
ཡེ་ཤེས་	-7.83063
དུས་	-7.83129
ཡང་དག་པར་	-7.8317
ཡུལ་	-7.83592
དང་་་	-7.83983
དེ་བཞིན་གཤེགས་པས	-7.84465
སྲིད་བྱུས་	-7.84578
བདག་གིས་	-7.84904
▁དགེ་སློང་དག་	-7.85519
ཡིན	-7.85561
བསོད་ནམས་	-7.85849
བོད་མི་	-7.86817
སྨྲས་པ་	-7.87432
མེད་	-7.87834
བརྒྱུད་	-7.88322
ད	-7.88658
དེ་ཡང་	-7.88855
ཡོད་པ་	-7.8954
ཚེ་	-7.89836
རྟག་ཏུ་	-7.90687
ལོ་	-7.90694
སྒྲིག་འཛུགས་	-7.91413
ང་ཚོས་	-7.91843
▁དེ་བཞིན་གཤེགས་པ	-7.9237
བྱ་	-7.92373
འདི་ལྟར་	-7.92443
དེ་དག་གིས་	-7.92454
འ	-7.92461
ལགས་	-7.92914
མུ་མཐུད་	-7.92936
▁དེའི་ཚེ་	-7.93367
སེམས་ཅན་ཐམས་ཅད་	-7.93779
ཁྱོད་ཀྱིས་	-7.94487
བཞིན་ཡོད	-7.94503
གྱི་ཁམས་	-7.94638
གནང་ཡོད	-7.94765
གསོལ་ཏོ་་	-7.94874
པོ་	-7.95069
མ་ཡིན་	-7.95269
མེད་པ་	-7.95611
ཅན་	-7.96051
རྒྱབ་སྐྱོར་	-7.96069
ཆོས་ལུགས་	-7.96489
དབུ་ཁྲིད་	-7.96707
ཕྱིར་	-7.96997
གསུམ་	-7.97117
ལགས་ཀྱིས་	-7.97508
▁སེམས་ཅན་	-7.97559
བླ་ན་མེད་པའི་	-7.97598
ད་	-7.97712
གཙོ་བོ་	-7.97778
ཡོད་པའི་	-7.98273
ཆེན་པོ་མཆོག་	-7.98318
བྱང་ཆུབ་སེམས་དཔ	-7.98727
རབ་	-7.9876
ཀུན་	-7.99302
་ཇི་ལྟ་བ་བཞིན་	-7.99604
དང་ལྡན་པ་	-7.99741
དག་གིས་	-7.99844
▁གལ་ཏེ་	-8.00397
རབ་ཏུ་མཁྱེན་ཏོ་་	-8.00685
དམིགས་བསལ་	-8.007
རྒྱ་གར་གྱི་	-8.00828
བསམ་གྱིས་མི་ཁྱབ་	-8.01589
འགྲོ་	-8.01933
མཁན་	-8.02031
བཙན་བྱོལ་བོད་མི	-8.02801
རྒྱལ་ཁབ་	-8.03003
ལ་བརྟེན་ནས་	-8.03121
ཏུ་	-8.03575
གནས་སྟངས་	-8.03592
མངོན་པར་རྫོགས་པ	-8.03775
དགོས་པའི་	-8.04184
བཅོམ་ལྡན་འདས་ལ་	-8.04338
▁དེ་རྗེས་	-8.04673
བཀའ་བློན་	-8.05588
གྲོང་ཁྱེར་	-8.05606
བྱས་སོ་་	-8.05625
བྱས་	-8.05702
ཕྱོགས་	-8.06582
ཤེས་	-8.07022
མེད	-8.07665
བུད་མེད་	-8.07823
ཅིའི་ཕྱིར་ཞེ་ན་	-8.07961
ལྷ་	-8.0806
་ནི་	-8.08155
▁དེ་ན་	-8.08419
ཏོག་དབྱིབས་གཉན་	-8.08785
ཅི་	-8.08877
བཞིན་དུ་སྦྱར་ཏེ་	-8.09003
ཀ	-8.09074
ཐོབ་	-8.09884
ཆེན་པོ་མཆོག་གི་	-8.10035
ནི	-8.10748
འཛིན་	-8.11203
ལགས་སོ་་	-8.11541
ཁ་	-8.12332
འོ་	-8.12397
ཚིག་	-8.12467
གསུང་	-8.13013
ཆོས་ཐམས་ཅད་	-8.13028
བོད་མི་མང་སྤྱི	-8.13089
བོད་དོན་	-8.13091
མཛད་	-8.13495
ཏེ	-8.13645
ཐོག་མར་	-8.14008
ཡི་	-8.14112
བཞི་	-8.14358
གྲངས་	-8.14483
ཡིན་	-8.14733
བོད་དོན་རྒྱབ་	-8.14898
རིན་པོ་ཆེ་	-8.15222
བྱས་ཏེ་	-8.15592
དགེ་བའི་རྩ་བ་	-8.16195
ེ་	-8.16257
ཇི་ལྟར་ན་	-8.16458
དགོས	-8.16794
གནས་ཚུལ་	-8.16954
སླད་	-8.17101
▁དེའི་	-8.17261
ཨ་རིའི་	-8.17563
བས་	-8.17982
ཕ་རོལ་ཏུ་ཕྱིན་པ	-8.18045
ཀུན་ཏུ་	-8.18167
བུ་	-8.18321
ཡང་དག་པར་རྫོགས་པ	-8.18616
▁དེ་ལྟར་	-8.18793
མོ་	-8.1896
མེད་པར་	-8.19051
བསྟན་པ་	-8.19281
རབ་ཏུ་མཁྱེན་ཏེ་	-8.19291
སོང་	-8.19454
མིག་	-8.19487
སྣ་ཚོགས་	-8.19531
ཆགས་	-8.1991
དཔལ་འབྱོར་	-8.2036
ཤིག་	-8.2052
བཀའ་སློབ་སྩལ་	-8.2073
ཇི་སྙམ་དུ་སེམས་	-8.20765
རྗེས་སུ་	-8.20768
▁ཇི་ལྟར་	-8.2077
ཐབས་	-8.20905
བསྟན་འཛིན་	-8.21147
སྐུ་	-8.21253
ས་གནས་	-8.21742
ལྟ་བུ་	-8.21902
▁གང་	-8.22007
དཔག་ཏུ་མེད་པ་	-8.22087
བོད་ནང་	-8.22282
སྤྱི་ཚོགས་	-8.22443
རང་གི་	-8.22799
བདག་གི་	-8.23033
ག་	-8.23038
འདི་དག་	-8.23084
▁འདི་ལྟ་སྟེ་	-8.23162
ལའང་	-8.23674
▁ཕྱོགས་མཚུངས་	-8.23859
རང་	-8.24082
འདི་ལ་	-8.24429
ཆུ་	-8.24603
བོད་རིགས་	-8.24697
ལས་ཁུངས་ཀྱི་	-8.24911
གང་དག་	-8.25016
གཞུང་འབྲེལ་	-8.25172
▁ཞེས་	-8.25192
▁འདི་ནི་	-8.25401
འི་སངས་རྒྱས་	-8.25423
གཞན་ཡང་	-8.25458
ཆགས་ཡོད	-8.25533
ངོས་ཀྱིས་	-8.25574
ལེགས་པར་	-8.25794
འདི་སྐད་ཅེས་	-8.26333
སོ་སོའི་	-8.26454
ཞེས་པའི་	-8.26588
བཤད་	-8.26948
རྣམས་དང་་	-8.2697
▁སྤྱི་ནོར་གོང་ས་	-8.27238
སོ་	-8.27908
▁འཇམ་དཔལ་	-8.28041
ཞེས་བྱའོ་་	-8.28042
གལ་ཏེ་	-8.28859
རྒྱུ་དང་	-8.29247
སྟོང་པ་ཉིད་	-8.29513
▁ཁྱིམ་བདག་	-8.29684
ས་གནས་འགོ་འཛིན་	-8.29705
སྟོན་པ་	-8.30109
བློ་	-8.30227
བྱང་ཆུབ་ཏུ་	-8.30417
ཚུལ་ཁྲིམས་	-8.30519
▁བོད་ཀྱི་	-8.30602
ང་ཚོ་	-8.3065
སློབ་ཕྲུག་	-8.30651
དེ་དག་གི་	-8.30964
པའོ་་	-8.31438
དཔལ་ལྡན་	-8.31685
ཡོན་ཏན་	-8.3173
▁འཇིག་རྟེན་	-8.31835
ཙམ་	-8.31899
སྐུ་ཞབས་	-8.32025
གང་ཡིན་པ་དེ་ནི་	-8.321
སྨྲས་སོ་་	-8.32119
སྤྱོད་པ་	-8.32202
རྒྱ་ནག་	-8.32356
▁ཚེ་དང་ལྡན་པ་	-8.32593
མེ་ཏོག་	-8.32674
དབང་	-8.32757
འཁོར་	-8.32779
བྱ་བ་	-8.32825
དོན	-8.32931
ཤེས་ཡོན་	-8.32994
སྐྱོང་བློ་བཟང་སེ	-8.33025
འོག་	-8.3308
འདོད་	-8.33241
ཐམས་ཅད་ཀྱི་	-8.33572
ཐུགས་	-8.33594
ས་ནང་འཁོད་དོན	-8.33616
ཁག་	-8.33651
རང་བཞིན་	-8.33688
དེ་དག་ནི་	-8.34978
བྱས་པ་	-8.35029
པ་རེད	-8.35206
གང་ཞེ་ན་	-8.35242
སྐུ་མགྲོན་གཙོ་བོ	-8.35347
རྣམ་པ་ཐམས་ཅད་	-8.35626
སྐྱོང་མཆོག་གིས་	-8.35774
འི་ཕྱིར་	-8.36305
དེ་འདྲ་	-8.36355
པར་འགྱུར་རོ་་	-8.37246
དེ་དག་ལ་	-8.37267
ལས་བྱེད་	-8.37422
▁འཚོ་ཞིང་གཞེས་ལ་	-8.37471
རིང་	-8.37559
དྲུག་	-8.37673
རྒྱ་ནག་གི་	-8.37733
ནས	-8.37885
དགེ་འདུན་	-8.37955
ལྡན་	-8.38075
མགོན་པོ་གང་ཉིད་	-8.38648
ཡིན་ཏེ་	-8.38683
སྒྲ་	-8.38945
ཤེས་པ་ཡང་དག་པ	-8.39138
གོ་	-8.39152
ཕུན་སུམ་ཚོགས་པ་	-8.39158
་དེ་དག་	-8.39262
དེ་དག་ཐམས་ཅད་	-8.39455
སྔོན་	-8.39571
ཅིག་	-8.39779
བདག་ཅག་	-8.3986
▁མད་གལ་གྱི་བུ་	-8.40018
དཀའ་ངལ་	-8.40226
འགན་འཛིན་	-8.40579
ཞུ་	-8.40678
བྱེད་བཞིན་ཡོད	-8.40774
ཆོས་ཀྱང་སྟོན་ཏེ་	-8.40926
གཞོན་ནུ་	-8.41093
འདུ་ཤེས་	-8.41168
གང་གིས་	-8.41476
ཆོས་རྣམས་	-8.41505
དེའི་ཚེ་	-8.41837
ལྔ་	-8.41921
▁ཀུན་དགའ་བོ་	-8.42033
ཉིད་	-8.42158
བྱེད་པ་	-8.4219
ངེས་པར་	-8.42253
མང་པོ་ཞིག་	-8.42439
ཡོད་པ་རེད	-8.42441
རིག་གཞུང་	-8.42616
དོ་་	-8.42927
ཡིད་	-8.43243
དབང་པོ་	-8.43372
མེད་པའི་	-8.43621
སྨན་	-8.43666
ཆོས་དད་རང་དབང་	-8.44364
སྟོན་	-8.44564
སྨོན་ལམ་	-8.44942
པའམ་	-8.45105
འགྲོ་བ་	-8.45108
ར་གྱུར་པ་	-8.4513
ཉིན་	-8.45507
འདོད་པ་	-8.45531
བརྩོན་འགྲུས་	-8.458
བཞུགས་	-8.46702
དག་ཀྱང་	-8.46711
▁བཅོམ་ལྡན་འདས་དེ	-8.46723
དམ་པ་	-8.46877
ཡོང་	-8.47163
སྤྱི་འཐུས་	-8.47268
བྱེ་བ་ཁྲག་ཁྲིག་	-8.47298
ལ་ཡང་	-8.47451
▁ང་ཚོས་	-8.47769
▁ཇི་ལྟར་ན་	-8.47869
ང་ཚོའི་	-8.47937
་འཐུས་ལྷན་ཚོགས་	-8.48055
ལམ་སྟོན་	-8.48239
དག་ནི་	-8.48521
མྱུར་དུ་	-8.48732
འདིས་	-8.49051
སྒོ་	-8.49099
ཚུལ་	-8.49311
ཡོད་པ་བཅས	-8.49407
རེ་	-8.49429
བ་དང་	-8.49528
▁རྒྱ་གར་	-8.49623
ཆོས་དང་རིག་གཞུང་	-8.49839
མངོན་པར་	-8.49872
མཆོག་དང་	-8.50025
ཡིན་པ་	-8.5003
རབ་ཏུ་བྱུང་ནས་	-8.5015
▁སྤྱིར་	-8.5029
▁ཅེས་	-8.50335
ཏིང་ངེ་འཛིན་	-8.50626
སྤྱོད་	-8.50652
སྟོང་	-8.50656
ནི་་	-8.50821
བློ་གྲོས་	-8.51379
ར་གྱུར་ཏོ་་	-8.51393
ཀུན་ནས་ཉོན་མོངས་	-8.51504
ནད་	-8.51504
མཐུན་འགྱུར་	-8.51506
བྱུང་བ་	-8.51511
ྟེན་གཞི་བྱས་པའི་	-8.51587
སྐྱེས་	-8.51625
དེ་ནས་	-8.51684
རིག་པ་	-8.51735
ལས་དོན་	-8.51772
དག་ལ་	-8.51901
རྣམས་ཀྱང་	-8.51907
ཀུན་གཟིགས་པ	-8.51937
སྟེ་་	-8.52004
རྒྱུའི་	-8.52339
གོང་ས་སྐྱབས་མ	-8.52367
ན་འཇིག་རྟེན་	-8.52447
བརྒྱད་	-8.52505
བཀྲ་ཤིས་	-8.52624
ཚོར་	-8.52826
ཕན་ཚུན་	-8.53151
བཟོ་	-8.53301
འབྲེལ་ཡོད་	-8.53392
རྣམ་པ་	-8.53483
ཤེས་རབ་	-8.53569
སློབ་སྦྱོང་	-8.53934
ཁམས་	-8.54402
འོད་	-8.54626
དཔལ་	-8.54934
མཐོང་	-8.54986
བསྟན་	-8.5509
བྱེད་དགོས	-8.55138
ཐུགས་རྗེ་ཆེ་ཞུ	-8.55182
འཇིག་རྟེན་གྱི་ཁ	-8.55258
ལགས	-8.55457
▁བོད་	-8.55558
ཕེབས་	-8.55641
ཚོགས་པའི་	-8.557
ཚད་	-8.56066
ཆེན་པོ་མཆོག་ལ་	-8.56308
འདབ་ཆགས་	-8.56436
མཁྱེན་པ་ཉིད་	-8.56531
བདག་ལ་	-8.56649
ད་བར་	-8.5682
ལ་ཕྱག་འཚལ་ལོ་་	-8.56932
མཉམ་	-8.56985
ཡོད་པ་མ་ཟད	-8.57295
མངོན་སུམ་དུ་	-8.57573
ལ་སོགས་པ་	-8.57685
ཡོངས་སུ་རྫོགས་པ	-8.5779
འདིའི་	-8.57812
དགོས་པ་	-8.57958
བདེ་བ་	-8.57964
རོ་	-8.5819
རྒྱ་གར་ནང་	-8.59013
བཏང་	-8.59066
འི་ནང་	-8.59158
ནོར་	-8.59573
ནང་དུ་	-8.59937
་དང་་འདུ་ཤེས་དང་	-8.60098
བརྗོད་	-8.60112
སྦྱིན་པ་	-8.60161
བགྲོ་གླེང་	-8.60168
▁འདི་ལྟར་	-8.60185
བཞུགས་ཏེ་	-8.60188
▁དེ་རིང་	-8.60224
འཇིག་རྟེན་དུ་	-8.60652
ཞེས་བྱ་བ་ཡོད་དེ་	-8.60678
་རྣམས་ཀྱི་	-8.60846
དགྲ་བཅོམ་པ་ཉིད་	-8.60994
ཉོན་མོངས་པ	-8.61083
རྒྱལ་ཡོངས་	-8.61495
དེ་ལྟ་བས་ན་	-8.61592
ཚིགས་སུ་བཅད་པ་	-8.61864
སློབ་དཔོན་	-8.61925
གལ་ཆེན་པོ་རེད	-8.62007
སྙམ་དུ་སེམས་ཏེ་	-8.62172
སམ་	-8.62718
ནམ་	-8.62983
ཁོར་ཡུག་	-8.63419
▁བདག་གིས་	-8.63455
ཚང་མས་	-8.63583
ཀུན་འབྱུང་བ་	-8.63646
མེད་དོ་་	-8.63696
སྐྱེ་བ་	-8.63749
ངོས་ནས་	-8.63922
གཞི་	-8.64028
བཟང་པོ་	-8.6417
བྱེད་ཀྱི་ཡོད	-8.6427
▁དེའི་ཡང་	-8.64407
རྒྱ་རིགས་	-8.64432
དེ་ལྟར་ན་	-8.64573
▁བདག་	-8.64631
བྲམ་ཟེ་	-8.6465
ཕུལ་	-8.64714
དགའ་	-8.64891
▁གཞོན་ནུ་	-8.64911
ཡིན་ནོ་	-8.65028
རྒྱལ་པོའི་	-8.6507
སྐྱེ་	-8.65306
མེ་	-8.65358
རྒྱལ་	-8.6541
སྤེལ་	-8.65554
བྲམ་ཟེའི་ཁྱེའུ་	-8.65899
གས་	-8.65934
རི་	-8.65999
མེད་ཅིང་	-8.66244
བཀའ་དྲིན་	-8.66266
ཆེན་	-8.66518
འགྲོ་བ་མིའི་	-8.66677
ཚོས་	-8.66723
་རྣམས་	-8.66807
ལྷའི་	-8.66958
མང་	-8.66982
མཆོག་གི་	-8.67033
བར་དུ་	-8.675
སོ་སོར་	-8.67575
མས་	-8.67997
ཅན་གྱི་	-8.68336
བཀའ་	-8.68375
ཤ་	-8.68598
བཀའ་སློབ་	-8.68775
དྲན་པ་ཉེ་བར་གཞག་	-8.68811
དུ	-8.69015
གསལ་བསྒྲགས་	-8.69139
ཡོད་	-8.69235
དེ་སྔ་	-8.6924
དག་གི་	-8.69269
སེམས་ཅན་དམྱལ་བ་	-8.69357
དེ	-8.69428
རྒྱ་ནག་གཞུང་གི་	-8.69496
པ་མ་ཟད	-8.6951
▁དགེ་སློང་	-8.69556
སློབ་	-8.69638
གཉིས་ཀྱི་	-8.70096
བདུན་	-8.7034
▁ཆོས་	-8.70454
པར་གྱུར་ཏོ་་	-8.70504
མཚན་	-8.70869
རྒྱབ་སྐྱོར་གནང་	-8.71131
གསུང་དོན	-8.7117
ལྟ་བ་	-8.71303
དེ་དག་ཀྱང་	-8.71504
མིང་	-8.71666
▁འདི་གར་	-8.71677
ཁྱིམ་	-8.71698
ཐམས་ཅད་ཀྱང་	-8.71881
ཚོགས་གཙོ་	-8.72214
འབུལ་	-8.7223
རྣམས་ནི་	-8.72285
ཡོད་ཀྱང་	-8.72438
ཞེས་བྱ་བའི་	-8.72526
སྤྱི་ནོར་ས་མགོན་	-8.72554
སྔོན་བྱུང་བ་	-8.72743
རིན་ཆེན་	-8.72928
མཐོང་ནས་	-8.72959
རྣམ་པར་ཤེས་པ་	-8.73134
ཆུང་	-8.73284
དབང་ཕྱུག་	-8.7332
ཡང་དག་	-8.73413
འགྱུར་་	-8.7346
སྲིད་སྐྱོང་མཆོག་	-8.73483
རིན་པོ་ཆེ་མཆོག་	-8.73488
ས་བྱང་ཆུབ་སེམས་	-8.7353
བོད་པའི་	-8.73691
སྟོབས་	-8.73738
འཕགས་པ་	-8.73827
ཏ	-8.73849
བདག་ཉིད་	-8.73873
བསམ་པ་	-8.73886
སྲུང་སྐྱོབ་	-8.73903
ཆོས་བརྒྱུད་	-8.73918
ཡོངས་སུ་སྨིན་པར་	-8.73951
དང་ལྡན་པའི་	-8.73967
སེམས་ཅན་རྣམས་	-8.7403
བཅས་ཀྱི་	-8.74218
རྣམ་གྲངས་འདི་	-8.74384
ཟླ་བ་	-8.74615
མར་	-8.74716
འཇོག་	-8.7477
གོན་ཆེན་པོ་མཆོག་	-8.74819
ལ་ནི་	-8.74885
ལག་བསྟར་	-8.749
འགྱུར་བ་	-8.7493
ལས་གཞི་	-8.74969
སྟེ	-8.75092
ཡང་དག་པ་ཇི་ལྟ་བ་	-8.75203
་དེ་ནི་	-8.75226
▁གང་དག་	-8.75229
བོད་ཀྱི་སྐད་ཡིག་	-8.75293
བྱས་པའི་	-8.75462
རྒྱལ་བའི་	-8.75543
ཁང་	-8.75602
ལྟ་	-8.75703
ཆབ་སྲིད་ཀྱི་	-8.75729
ཐུབ་	-8.7589
ལོ་རྒྱུས་	-8.7592
▁ང་ཚོ་	-8.76056
བཀའ་སྩལ་ཏོ་་	-8.76115
གནས་པ་	-8.76253
ཤེས་པ་འགོག་པ་	-8.76334
མི་རིགས་	-8.76339
བོད་མི་ཚོས་	-8.7635
ངོས་རང་	-8.76367
དཔའ་རྒྱལ་ཚབ་	-8.76404
ཞེས་བྱ་བ	-8.76483
ཕུང་པོ་	-8.76499
རྒྱུར་	-8.7654
དང	-8.76587
སེམས་ཅན་རྣམས་ལ་	-8.76642
▁དཔེར་ན་	-8.76714
སོགས་ཀྱི་	-8.7681
འབད་བརྩོན་	-8.7681
སྐྱོན་	-8.76824
སྒྲུབ་	-8.76913
རེད་འདུག	-8.76952
▁ངས་	-8.77056
འཇིག་རྟེན་གྱི་	-8.77242
སློབ་གྲྭའི་	-8.7726
འདུག་གོ་་	-8.77264
ཤ	-8.7736
བཞིན་པའི་	-8.77363
ཤ་ར་དྭ་ཏིའི་བུ་	-8.77441
རང་དབང་	-8.77647
འདོད་ཆགས་	-8.7777
▁ད་ཆ་	-8.77937
འབྲས་བུ་	-8.77971
རྒྱུད་	-8.78008
ང་་རྣམ་པར་ཤེས་པ་	-8.78195
བོད་ནང་གི་	-8.7823
དེ་རིང་	-8.78366
▁སངས་རྒྱས་ཀྱི་	-8.78374
▁ངོས་ཀྱིས་	-8.78644
གསལ་	-8.78703
འདི་ཉིད་	-8.78731
སྤྱི་མཐུན་ཚོགས་པ	-8.78745
ཤུགས་ཆེ་	-8.78882
མིའི་	-8.79069
གྱུར་	-8.79141
ཅེས་	-8.79296
དབུ་མའི་ལམ་གྱི་	-8.79702
ལས་འགུལ་	-8.79761
ཁོང་	-8.79869
ཆེན་པོས་	-8.79983
་འདུ་བྱེད་རྣམས་ད	-8.80068
དྲང་སྲོང་	-8.80093
སྔ་དྲོ་ཆུ་ཚོད་	-8.80112
དྲན་	-8.80186
ཕྱི་	-8.80198
ད་ལྟ་	-8.80312
ངྒེ་མཆོག་གིས་	-8.80345
ཡག་པོ་	-8.80403
བདག་ནི་	-8.80427
འང་	-8.80476
ཟླ་	-8.80492
གཏན་འབེབས་	-8.80504
ལེགས་	-8.80514
ནུས་པ་	-8.80615
ཐང་	-8.80758
ཡར་རྒྱས་	-8.81063
མིན་	-8.81132
རིན་པོ་ཆེའི་	-8.81181
ཡིན་་	-8.81207
དེ་ལྟ་བུ་	-8.81287
འགྱུར་	-8.81295
གྲོས་ཚོགས་ཀྱི་	-8.81304
་པ་མ་ཟད	-8.81319
གསུང་བཤད་གནང་དོན	-8.81333
སྟོང་པ་ཉིད་དང་་	-8.81468
ཕ་	-8.81567
ལག་	-8.81579
ཕལ་ཆེར་	-8.81622
ཚོགས་འདུ་	-8.81637
ལོངས་སྤྱོད་	-8.81807
ངོ་སྤྲོད་	-8.81813
ཐད་	-8.82213
ཁྱོད་ཀྱི་	-8.82223
འཛིན་སྐྱོང་	-8.82485
དངོས་གྲུབ་	-8.82558
ཆ་	-8.82702
དགོས་པ་དང་	-8.82741
དམ་བསྒྲགས་	-8.82891
་ཤེས་རབ་ཀྱི་	-8.83028
རྒྱལ་བ་	-8.83043
དེ་ཉིད་	-8.83087
སྐད་	-8.83255
དགེ་བ་	-8.83383
མཁས་པ་	-8.83391
རྒྱ་ནག་གཞུང་ལ་	-8.83436
གཏོང་	-8.8359
གོས་	-8.83599
གཟིགས་	-8.83686
རྐྱེན་	-8.83831
བསྐལ་པ་	-8.83836
བ་དང་་	-8.84084
རིགས་ཀྱི་བུ་མོ་	-8.84098
རྣམ་	-8.84385
མི་གྲངས་	-8.84486
གྲོས་ཚོགས་འཐུས་	-8.84508
མཆོག	-8.84615
མངའ་སྡེའི་	-8.84641
ཨ་	-8.8476
མཐོང་ངོ་་་	-8.8476
སྙོམས་པར་འཇུག་པ་	-8.84936
ད་ཆ་	-8.85037
ཚོགས་པ་	-8.85058
སྐུ་མགྲོན་	-8.85167
མཐའ་	-8.85197
བ་ཏུ་མཁྱེན་ཅེ་ན་	-8.85241
བུ་མོ་	-8.85258
ཆེས་	-8.85303
འཕགས་པའི་	-8.85371
་ཇི་ལྟ་བ་བཞིན་ར	-8.85422
གླིང་	-8.85565
ཡང་་་	-8.85615
ཐོབ་ཐང་	-8.8577
ཡིན་ནའང་	-8.86005
ཆེན་པོའི་	-8.86094
▁ཕྱི་ཚེས་	-8.86104
བསམ་གཏན་	-8.86118
▁ཁྱིམ་བདག་འདི་ལ་	-8.86201
ཀུན་དགའ་བོ་	-8.86229
ནམ་ཡང་	-8.86279
མཆོད་	-8.86378
ཡང་ཞུ་བ་ཞུས་པ་ན་	-8.86517
ཚ	-8.86533
ག་ལ་བ་དེར་	-8.86544
རྒྱ་	-8.86892
དམ་	-8.86968
མེད་་	-8.87213
ཁེ་ན་	-8.87254
རིམས་	-8.87543
བཏང་ངོ་་་	-8.87567
སྣང་བ་	-8.87583
མེད་པ་དང་་	-8.87585
གོང་	-8.87871
ནས་ཀྱང་	-8.879
ཤེས་པ་དང་་	-8.87922
བཀའ་བློན་མཆོག་	-8.88005
སྤྱི་ཚོགས་ནང་	-8.88149
ལྷན་ཚོགས་ཀྱི་	-8.88151
ཡོངས་རྫོགས་	-8.88338
འི་བར་དུ་	-8.88414
དེ་ཡི་	-8.88421
ཡིས་	-8.88451
མཉེས་པར་བྱེད་པར་	-8.88456
དང་འབྲེལ་	-8.88595
ཕྱི་ཟླ་	-8.88772
ཐ	-8.88804
འདི་དག་ནི་	-8.88927
་མཆོག་གིས་	-8.8897
ཇི་ཙམ་	-8.89
འབྱོར་	-8.89006
ཉན་ཐོས་	-8.89113
གཟའ་མིག་དམར	-8.89257
བཞུགས་སྒར་	-8.89359
བྱུང་ཡོད	-8.89371
རུ་	-8.89373
འཁོར་བ་	-8.89376
སྲོག་ཆགས་	-8.89505
མཉམ་འབྲེལ་	-8.89625
ཞུ་བཞིན་ཡོད	-8.89933
ཕྱག་འཚལ་ཏེ་	-8.89967
མང་གཙོའི་	-8.90064
རྒྱལ་ཚོགས་ཀྱི་	-8.90147
སྟོང་ཆེན་པོའི་	-8.903
ཁྱིམ་བདག་	-8.90322
མ་ཡིན་ནོ་་	-8.9034
ཞི་	-8.9047
པའི་ཕྱིར་	-8.9048
སྦྱིན་པའི་	-8.90562
ཐམས་ཅད་ཀྱིས་	-8.90637
སྤྱི་ཁྱབ་	-8.90674
ཞུགས་	-8.90859
ཏིང་ངེ་འཛིན་དང་་	-8.90863
ཤེས་རིག་ལས་ཁུངས་	-8.90884
གང་ཡང་	-8.9093
འབྱུང་བ་	-8.91139
ཚང་མ་	-8.91308
ཚེ་དེའི་དུས་ན་	-8.91451
ཆེ་	-8.91451
རྡོ་རྗེ་	-8.91465
ཤ་རིའི་བུ་	-8.91503
སྦྱིན་	-8.91507
རྒྱུ	-8.91593
ཤེས་པ་འགོག་པར་འག	-8.9161
ལྷག་	-8.91692
རིག་	-8.91707
་དེ་	-8.91731
▁དེ་དག་གིས་	-8.91924
བྱ་བའི་ཕྱིར་	-8.91975
ངའི་	-8.9206
ལྟ་བུར་	-8.92089
▁བྱང་ཆུབ་སེམས་དཔ	-8.92361
མཛད་སྒོ་	-8.92668
ཁྱད་པར་	-8.92749
གནད་དོན་	-8.92867
ཟས་	-8.92894
ལ་བཀའ་སྩལ་པ་	-8.93331
ལས་ཁུངས་ནས་	-8.93381
མི་མང་	-8.93483
ྱུར་བའི་ལམ་ཤེས་པ	-8.93504
རྟེན་	-8.93532
གཞུང་	-8.93647
རང་བཞིན་གྱིས་	-8.93648
ཁྲི་	-8.93668
རིགས་ཀྱི་བུ་	-8.93674
མཚམས་	-8.93685
▁སུ་ནི་	-8.93761
ར་འགྱུར་	-8.93782
འོད་ཟེར་	-8.93902
▁དེར་	-8.94031
ལན་	-8.94036
ལས་ཁུངས་	-8.94036
གོ་་	-8.94049
གཞོན་སྐྱེས་	-8.94115
གནང་མཁན་	-8.94118
ཞབས་	-8.94245
ཕྱི་ཚེས་	-8.94351
རིགས་ཀྱི་བུའམ་	-8.94505
ལེན་	-8.94615
དངོས་ཡོད་	-8.94622
དྲི་	-8.94707
ཉེ་བར་	-8.9482
སྐབས	-8.94953
རྣམ་པར་སྨིན་པ་	-8.94959
དགོས་	-8.95184
དང་ལྷན་	-8.95254
དྲུང་ཆེ་	-8.95261
རྙེད་	-8.95382
▁སེམས་ཅན་ཐམས་ཅད་	-8.95453
བྱུང་སྟེ་	-8.95758
ཉོན་མོངས་པ་	-8.95785
མཐར་	-8.95815
འཁོར་ལོས་སྒྱུར་བ	-8.95895
ནང་གི་	-8.95932
འབུམ་	-8.96102
ཧ	-8.96118
▁ཅེས་གསུངས	-8.96168
▁འཛམ་གླིང་	-8.96408
ཡིན་པ་དང་	-8.96474
སྐུ་ཚབ་	-8.96573
ཉི་མ་	-8.96653
ཚོར་བ་	-8.96733
འཇུག་	-8.96772
བཞག་	-8.96824
འཚམས་འདྲི་	-8.96875
བདེ་སྐྱིད་	-8.96996
▁གང་ལྟར་	-8.97078
ལྷན་ཚོགས་	-8.97143
ལ་མཚོན་ན་	-8.97346
བཞེས་	-8.97521
རྣམ་པར་སྨིན་པས་	-8.97545
རྫུ་འཕྲུལ་	-8.97584
གྲུབ་མཚམས་	-8.97753
བསམ་	-8.97775
འི་ཏིང་ངེ་འཛིན་	-8.97947
དེ་བཞིན་དུ་ཚོར་བ	-8.98006
འཛམ་གླིང་ནང་	-8.98082
ཡུ་རོབ་	-8.98125
དཔེ་	-8.98149
སློབ་གྲྭ་	-8.98171
ཡ	-8.98252
པར་བྱེད་དོ་་	-8.98305
གནང་བའི་	-8.98612
སྙམ་མོ་་	-8.98818
བྱང་ཆུབ་ཀྱི་	-8.98832
བོད་ཀྱི་གནད་དོན་	-8.98927
སྤོབས་པ་	-8.98964
ཞལ་	-8.99006
དེ་ལྟ་བུའི་	-8.99029
ཁྱབ་	-8.99379
བོད་མི་ཚོར་	-8.99481
བརྒྱ་ཆ་	-8.99618
འབྲེལ་བ་	-8.99634
དོ་	-8.99696
▁ལྷའི་བུ་	-8.99752
▁བཀའ་སྩལ་པ་	-8.99811
▁མི་	-8.99821
ངེས་	-8.99844
ཚངས་པར་སྤྱོད་པ་	-9.00069
ལ་ལོངས་སྤྱོད་པ	-9.00099
▁གང་གིས་	-9.00102
འབྱུང་	-9.00283
སྤྱི་	-9.00329
་ཐམས་ཅད་སྤངས་ཏེ་	-9.00331
ཞུས་	-9.00349
གྲུབ་	-9.00459
མ་གཏོགས་	-9.00742
དང་ནི་	-9.00794
▁དེ་ལྟར་ན་	-9.0085
གང་ཟག་	-9.00894
གདུང་སེམས་མཉམ་	-9.00969
བསྐྱེད་	-9.01136
དད་པ་	-9.01194
དེ་ན་	-9.01275
བཅུ་	-9.01411
རྩ་	-9.01447
ཐུགས་རྗེ་ཆེ་	-9.01524
གནང་བ་དང་	-9.01533
དང་བཅས་པ་	-9.01542
རྒྱ	-9.01585
གནང་འདུག	-9.01815
ན་ཡང་	-9.01843
བྱེད་མཁན་	-9.01849
ཏོ་་	-9.02141
མགོ་	-9.02166
འཛིན་པ་	-9.02188
སྐད་ཡིག་	-9.02314
མཐུན་རྐྱེན་	-9.02528
འཐུས་མི་	-9.02668
ཉོན་མོངས་	-9.0282
ངོས་འཛིན་	-9.02925
མཆོག་ཏུ་	-9.02998
མཛད་པ་	-9.03003
གཟི་བརྗིད་	-9.03012
འདི་ལྟ་བུ་	-9.03187
སྤྱི་མཐུན་	-9.03345
བཟོད་པ་	-9.03572
སྔོན་གྱི་	-9.03577
འདོན་	-9.03614
ལགས་དང་	-9.03686
སྦྱོར་	-9.03741
གནང་སྟེ་	-9.03814
བཟང་	-9.03916
བདེ་	-9.04034
མཁན་པོ་	-9.04267
དགེ་རྒན་	-9.04383
དཀའ་ངལ་འཕྲད་	-9.0449
སྐྱེད་	-9.04501
▁གཟུགས་	-9.04626
གནས་པའི་	-9.04659
ཁྱབ་ཁོངས་	-9.04795
བདེ་བར་གཤེགས་པ་	-9.04865
ཆོས་མ་འདྲེས་པ་བཅ	-9.04971
མི	-9.04997
ངེས་པར་དུ་	-9.05076
ཀུན་དུ་	-9.05237
ནི་ཙན་དན་གྱི་	-9.0525
ཡི་གེ་	-9.05315
སླར་ཡང་	-9.05317
དབུས་	-9.05365
ལ་དྭགས་	-9.05464
ནང་སྲིད་ལས་ཁུངས་	-9.05555
བརྩོན་འགྲུས་ཀྱི་	-9.05696
དཀྱིལ་འཁོར་	-9.05717
མའི་	-9.05752
་སྟེ་	-9.05824
ལོ་ངོ་	-9.05924
དམ་པའི་ཆོས་	-9.05986
སྐྱོར་ཚོགས་པའི་	-9.06086
དཔེར་ན་	-9.06257
▁དེ་ཡི་	-9.06319
དགོན་པ་	-9.06534
ཕྱག་	-9.06588
དང་སྦྲགས་	-9.06622
རབ་འབྱོར་	-9.06777
འཛམ་གླིང་གི་	-9.06882
ཀྱི་བར་འདི་	-9.07159
སྐྱེས་པ་	-9.07277
བཀོད་པ་	-9.073
ཆ་ཚང་	-9.0738
▁དེང་སྐབས་	-9.074
གཞན་གྱི་	-9.07586
འདུགདེ་ཡང་	-9.07594
མཐོང་བ་	-9.0767
▁ཤ་རིའི་བུ་	-9.07681
ལྔ་དང་ལྔ་བཅུའི་	-9.07901
མཐའ་ཡས་	-9.0792
དེང་སྐབས་	-9.07928
▁རྒྱལ་སྤྱིའི་	-9.08004
▁ཤེས་རབ་ཀྱི་	-9.08017
ནང་ཆོས་	-9.08078
་རེད	-9.08095
མཛད་སྒོའི་ཐོག་	-9.08198
མ་རེད	-9.08349
ཆེད་དུ་	-9.0845
དང་པོ་	-9.08491
ཁྱམས་དང་ཁང་བཟངས་	-9.08511
▁ངོས་རང་	-9.08526
རྒྱལ་སྲིད་	-9.08644
དར་	-9.08703
ཟབ་སྦྱོང་	-9.0873
ཐོས་ནས་	-9.08751
སྟོང་གསུམ་གྱི་	-9.08893
ཤེས་པ་དེ་ལ་	-9.0896
ཐུབ་པ་བྱུང་ཡོད	-9.08985
སུ	-9.09041
བོད་མི་རྣམས་	-9.09146
དགའ་བ་	-9.09172
འཐུས་མི་སྐུ་ཞབས་	-9.09242
ཡང་སྲིད་	-9.09271
གོང་ཚེས་ཉིན་གྱི་	-9.09373
མྱ་ངན་ལས་འདས་པ་	-9.09392
དབུ་འབྱེད་	-9.09436
ངོ་བོ་ཉིད་	-9.09475
སྣང་	-9.09489
བསམས་པ་	-9.09531
བོད་དོན་ཐོག་	-9.09544
བྱིས་པ་	-9.09779
སྐབས་དེར་	-9.09823
▁ལྷ་	-9.09883
ཤེས་པའི་ཁམས་	-9.10057
ཏེ་་	-9.10065
▁ཕྱི་ལོ་གཟའ་ཟླ་བ	-9.1017
གར་	-9.10369
ཧ་ཅང་གལ་ཆེན་པོ་	-9.10418
ས་ཁུངས་ནས་བཏང་གན	-9.10484
དང་ལྷན་ཅིག་ཏུ་	-9.10584
▁ཕྱི་ལོ་ཚེས་	-9.10632
བྱུང་ངོ་་་	-9.10784
རང་སངས་རྒྱས་ཀྱི་	-9.10785
བྱམས་བརྩེ་	-9.10803
་ཞབས་ལ་མགོ་བོས་	-9.10825
ཁོང་གིས་	-9.10833
མགོན་པོ་	-9.10879
བསྔགས་བརྗོད་	-9.10927
སློབ་མ་	-9.10985
ནོར་བུ་རིན་པོ་ཆེ	-9.11079
བརྒྱ་	-9.11101
ཁྱོད་ལ་	-9.1116
གཟའ་ཕུར་བུ	-9.11277
ྤྱི་མཐུན་རྒྱལ་ཁབ	-9.11311
གང་དུ་	-9.11321
སྙིང་རྗེ་	-9.11368
དབར་	-9.11411
ཀྱང་་་	-9.1142
མདོ་སྡེ་	-9.11429
སྟེང་	-9.11461
འབྲེལ་	-9.11604
▁དེས་སྨྲས་པ་	-9.11745
བཀྲ་ཤིས་བདེ་ལེགས	-9.1175
འཁོད་	-9.11751
སོང་ངོ་་་	-9.11764
མཁྱེན་པ་	-9.11825
གང་གི་ཚེ་	-9.11847
འི་ཆོས་	-9.1191
རྟ	-9.11983
ཐོབ་པ་	-9.12169
སྤྱན་	-9.12239
སར་	-9.12256
གཟེངས་རྟགས་	-9.1226
མཆོད་པ་	-9.12302
ར་འགྱུར་རོ་	-9.1242
ར་བྱའོ་་	-9.12428
མཆོད་རྟེན་	-9.12588
སོང་ནས་	-9.12599
བོད་མིའི་སྒྲིག	-9.12715
གསུམ་གྱི་	-9.12755
འདས་པའི་དུས་ན་	-9.1281
གྲུབ་འབྲས་	-9.12926
ས་ཁུལ་	-9.13057
དངོས་པོ་	-9.13177
ཡན་ལག་	-9.1318
ཁྱེད་	-9.1321
གསོལ་པ་	-9.13212
ལྟ་གྲུབ་	-9.13258
གྲོས་ཆོད་	-9.1331
མཐུན་སྒྲིལ་	-9.13333
དེའི་ཕྱིར་	-9.13551
འབོད་སྐུལ་	-9.13564
ཆོས་རིག་ལས་ཁུངས་	-9.13643
མ་མཆིས་	-9.13749
སློབ་གཉེར་	-9.13893
ལས་རིམ་	-9.13922
བྱས་ཡོད	-9.13924
དགེ་	-9.13937
ཐོན་	-9.14024
སྙིང་པོ་	-9.14047
ལམ་ཡན་ལག་བརྒྱད་པ	-9.142
ཡིད་ཆེས་	-9.14231
ཟེར་བ་	-9.14246
ཆོས་ཀྱི་ཉི་མ་	-9.14271
དག་ཏུ་	-9.1448
ཡིན་ཞིང་	-9.14515
དངོས་སུ་	-9.14616
བརྒྱུད་ནང་བསྟན་	-9.14638
གནོད་སྦྱིན་	-9.14771
ཡོད་སྟབས	-9.14788
ཙ	-9.14896
དངོས་	-9.14898
བྱ་རྒྱུའི་	-9.14923
ལག་པ་	-9.14982
མི་འདྲ་བ་	-9.15028
དཀར་	-9.15143
ཟ	-9.15248
མཆོག་ལ་	-9.15385
དུས་ཚོད་	-9.15577
བླ་མ་	-9.15633
པའི་ཚུལ་གྱིས་	-9.1581
▁རིགས་ཀྱི་བུ་དག་	-9.15932
ང་ཚོར་	-9.16009
སེམས་ཀྱི་	-9.16126
▁ཁ་ཅིག་ནི་	-9.1616
པད་མ་	-9.16261
པ་རྣམས་	-9.16424
གང་ལ་	-9.16435
གཏི་མུག་	-9.16443
▁བོད་མི་	-9.16563
རྟོགས་	-9.16679
དེ་ནས་ཕྱི་ཞིག་ན་	-9.16759
འི་ཕྱིར་རོ་་	-9.16918
མཁྱེན་	-9.16986
བྱང་ཆུབ་མངོན་པར་	-9.1719
ཕྱོགས་གཅིག་ཏུ་	-9.17306
བདེན་པ་	-9.17411
སེལ་	-9.1742
སྣོད་	-9.17509
▁ད་ལྟ་	-9.1753
རྒྱུའི་གོ་སྐབས་	-9.17631
གསར་པ་	-9.17657
མད་གལ་གྱི་བུ་	-9.17665
མྱོང་	-9.18226
སྤྱན་རས་གཟིགས་	-9.18284
གཞིས་ཆགས་	-9.18627
སྨྲ་བ་	-9.18687
ཆེས་མཐོའི་	-9.18753
ཉམས་	-9.18834
འཇམ་དཔལ་གཞོན་ནུ	-9.18878
སྲོག་	-9.18949
ཁག་གཅིག་	-9.18949
རྒྱལ་མཚན་	-9.18984
ཉམས་ལེན་	-9.19045
གཞིར་བཟུང་	-9.19076
རྒྱལ་ཁབ་ཀྱི་	-9.19077
ཙམ་མ་ཟད	-9.19263
ཅེས་བྱ་བ་	-9.19396
བརྒྱ་བྱིན་	-9.1947
་སྤྱན་རས་གཟིགས་	-9.19476
ནས་བཏང་གན	-9.19503
ཞིབ་འཇུག་	-9.19508
པའི་ཕྱིར་རོ་་	-9.19586
▁ཁྱིམ་བདག་དེ་ལ་	-9.1961
རྒྱུན་	-9.19617
དྲིལ་བསྒྲགས་	-9.19637
ི	-9.19681
ཡི་་	-9.19688
ས་གནས་སུ་	-9.19749
ཀྱི་བསྟན་པ་ལ་	-9.19753
འདི་བཞིན་	-9.19996
ཐོས་	-9.20062
དེ་ལས་	-9.20103
བཀོད་	-9.20125
ཚུལ་ཁྲིམས་ཀྱི་	-9.2016
▁རྒྱལ་པོ་	-9.20336
ང་ལ་	-9.20362
ཀུན་ནས་	-9.2044
སོང་སྟེ་ཕྱིན་ནས་	-9.20477
ཚངས་པའི་	-9.20512
མཚོན་	-9.20616
ཟིན་	-9.2064
ཀྱི་བར་དུ་	-9.20643
ཧི་མ་ཅལ་མངའ་སྡེ	-9.21015
ཐེངས་འདིར་	-9.21103
པར་འགྱུར་་	-9.21111
བྱ་རྒྱུ་	-9.21187
བཅས་ལ་	-9.21288
བློན་ཆེན་	-9.21301
▁ཞེས་གསུངས	-9.21331
དགེ་བའི་	-9.21499
ན་ནི་	-9.21538
ནི་མིང་ཙམ་སྟེ་	-9.21638
མྱ་ངན་	-9.21685
དམིགས་	-9.21685
ཇི་སྙེད་པ་ཉིད་	-9.21688
དག་དང་་	-9.21799
རྡུལ་	-9.21842
སྲུང་	-9.22003
རིམ་བཞིན་	-9.22019
ལྷོ་ཕྱོགས་	-9.22054
མངོན་པར་འདུ་	-9.22152
ངོ་་་	-9.22232
▁ཨ་རིའི་	-9.22495
རྫོགས་	-9.22542
འབྱུང་བ	-9.22584
དུ་མ་	-9.22652
པ་ཞིག་	-9.2271
ཆབ་སྲིད་	-9.22831
ལྷའི་བུ་	-9.22855
ཆགས་ཀྱི་ཡོད	-9.22989
གཉིས་ཀྱིས་	-9.22999
འདུགསྐབས་དེར་	-9.23076
སོགས་ལ་	-9.23155
བདག་ཅག་གིས་	-9.23158
ཕྱིན་	-9.23306
སྐྱེས་བུ་	-9.23312
ཡར་	-9.23428
ཕྱི་ལོ་གཟའ་པ་སངས	-9.2354
ཀླུ་	-9.23696
ངན་	-9.23814
སྡེ་	-9.23868
འདས་གྲོངས་སུ་	-9.23878
སྐྱེ་བ	-9.23925
པ་ནི་	-9.23952
ལས་འཆར་	-9.24006
ཁོ་ན་	-9.24115
ལས་འགན་	-9.24142
དོན་ཚན་	-9.24213
▁ཅེས་སོགས་ཀྱི་	-9.24239
ད་ལྟའི་	-9.24248
▁འདི་ལ་	-9.24273
མཚན་ཉིད་	-9.24337
པར་འགྱུར་	-9.2444
བསམ་བློ་གཏོང་	-9.24525
ནུས་	-9.24547
འདོད་པའི་	-9.24554
བྱམས་བརྩེའི་	-9.24713
བ་མ་ཟད	-9.24744
རྣམ་པར་གྲོལ་བ་	-9.24848
ཕྲན་བུ་	-9.24883
▁དེ་ཚེ་	-9.24915
དུག་	-9.24953
རྒྱལ་པོ	-9.25055
ཟུར་	-9.25077
ལམ་ལུགས་	-9.25099
ཡོད་པ་དེ་དག་	-9.25197
ཆོས་ཐམས་ཅད་ནི་	-9.25475
དབུ་འཁྲིད་	-9.25555
་འཐུས་ཚོགས་གཙོ	-9.25567
ཐེག་པ་	-9.25577
པ་ལས་	-9.25662
ཐག་གཅོད་	-9.25672
རྩིས་	-9.25743
རྫོགས་པར་འཚང་རྒྱ	-9.25761
ཐལ་མོ་སྦྱར་	-9.25815
ཆར་	-9.25847
རྒྱན་	-9.26028
སྟོང་པ་	-9.26059
མངོན་པར་ཤེས་པ་	-9.26094
▁རྒྱ་ནག་	-9.2612
དེའི་ནང་	-9.26145
ཞི་བ་	-9.26229
སྲིད་སྐྱོང་	-9.2645
་དེ་ལ་	-9.2651
ཤོག་	-9.26531
བྱེད་པའི་	-9.26576
སྡེ་ཚན་	-9.26583
ཡོངས་སུ་འཛིན་པ་	-9.26674
གྱུར་ཏོ་་	-9.26825
ར་བྱེད་དོ་་	-9.26843
བྱང་ཆུབ་ཀྱི་སེམས	-9.26866
རྩ་བ་ནས་	-9.26953
སྙིང་	-9.26963
▁གསོལ་པ་	-9.26999
བདེ་སྲུང་	-9.27002
རླབས་ཆེན་གྱི་	-9.27032
བརྟག་དཔྱད་	-9.27036
དགྲ་བཅོམ་པ་	-9.27052
▁བཙན་བྱོལ་བོད་མི	-9.27107
འགོ་ཁྲིད་	-9.27144
གསུངས་	-9.2715
རྒྱས་	-9.2718
ཐེ་ཝན་	-9.27271
ཀུན་འབྱུང་བ་ཤེས་	-9.27271
འདུག་	-9.27327
ཐེ་ཚོམ་	-9.27329
ཚོགས་ཁང་དུ་	-9.27334
རྗེས	-9.27481
སྙམ་ནས་	-9.27502
དང་བྲལ་བ་	-9.27548
ཡོད་ན་	-9.27553
འོད་སྲུང་	-9.27566
ཛ་དྲག་	-9.27659
ནད་ཡམས་	-9.27694
འཇིགས་	-9.27835
དམིགས་ཡུལ་	-9.27857
དོན་གྲུབ་	-9.27903
མཚན་མ་	-9.27929
སོགས་ཀྱི་སྐོར་	-9.2797
བོད་མི་རྣམས་ལ་	-9.28113
བསྟེན་	-9.28124
ཡིན་ན་	-9.28236
སྙིང་རྗེ་ཆེན་པོ་	-9.28236
རང་ཉིད་	-9.28245
གདུགས་	-9.28378
ཀྱང་མིང་ཙམ་	-9.2866
ཞེ་ན་	-9.28666
བྱུང་བའི་	-9.28678
འཛུགས་སྐྲུན་	-9.28689
སྲིད་	-9.28845
ཡིག་	-9.28893
ཞུ་རྒྱུ་དང་	-9.29089
ཚོགས་ཆེན་	-9.29102
འདྲ་	-9.29124
གང་ཡིན་	-9.29143
འི་སེམས་	-9.29175
སྒྲིག་འཛུགས་ནས་	-9.29232
གྲོས་ཚོགས་ནང་	-9.29344
ལྡན་པའི་	-9.29357
བཤད་པ་	-9.29397
་ཡང་	-9.2959
▁ཅེས་དང་	-9.29637
ངོས་ཀྱི་	-9.29764
རྒྱུ་མཚན་	-9.29771
མི་སྐྱེ་བའི་ཆོས་	-9.29811
ང	-9.29938
ཀུན་གྱིས་	-9.29997
དཔལ་ལྡན་ཚོགས་གཙོ	-9.3001
འབྱུང་འགྱུར་	-9.30061
རྩ་བ་	-9.30097
▁དེ་སྔ་	-9.30151
རོགས་དངུལ་	-9.30269
བརྗོད་པ་	-9.30344
ཡོངས་སུ་དག་པ་	-9.30355
ངོས་ལ་	-9.30367
་ལ་བ་དེ་ལོགས་སུ་	-9.30379
དུ་དེ་ལྟར་	-9.30391
ཆེ་བ་	-9.30401
མདུན་དུ་	-9.30427
བསམ་ཚུལ་	-9.30439
རྣམ་པ་སྣ་ཚོགས་	-9.30442
སྲིད་སྐྱོང་བློ་	-9.30746
གཉིས་པ་	-9.30795
གཞན་ལ་	-9.30862
གཙུག་ལག་	-9.30888
ཆེད་མངགས་	-9.30903
ཁག་གི་	-9.30904
གྲོགས་པོ་	-9.30928
གནང་ཡོད་པ་བཅས	-9.30943
དུས་རྟག་ཏུ་	-9.30971
མ་འོངས་པར་	-9.30988
ལུང་	-9.31023
ཤེས་རིག་	-9.3116
ཁྲིམས་	-9.31201
ཆོས་ཀྱི་འཁོར་ལོ་	-9.31213
དབྱངས་	-9.31221
མྱ་ངན་ལས་འདས་པ	-9.31266
ཤར་	-9.3132
ཐུབ་པ་	-9.3138
སྤྱི་དང་	-9.31475
སོང་སྟེ་	-9.3154
ཆོས་རིག་བཀའ་བློན	-9.31543
དགེ་སློང་དག་	-9.31574
བྱེད་དོ་་	-9.3192
འབྲས་	-9.3196
མཆིས་	-9.32049
རྒྱ་ཆེར་	-9.32058
▁གང་གི་ཚེ་	-9.32118
དྲན་པ་	-9.32136
སླེབས་	-9.32229
བྱེད་རྒྱུ་	-9.32281
བྱས་ན་	-9.32355
ཚང་མར་	-9.32434
འཕེལ་	-9.32436
ཡིན་སྟབས	-9.32436
གོ་སྒྲིག་	-9.3246
འཁོར་ལོ་	-9.32466
སྣ་	-9.32486
གསེར་	-9.32499
དགོངས་པ་	-9.32506
ཐུབ་པའི་	-9.32565
ཡོང་གི་ཡོད	-9.3265
བྱུང་བ་རེད	-9.32651
སྲིད་འཛིན་	-9.32701
རྒྱ་མཚོ་	-9.32754
ཞུས་ཡོད	-9.32841
ཕྱི་རྒྱལ་	-9.32868
སྡོད་	-9.32872
ཐོས་པ་	-9.3289
ས་ནི་	-9.32905
་པདྨ་འབྱུང་གནས་	-9.3294
རིམ་	-9.32957
ལྟ་བུའི་	-9.33009
ངོ་རྒོལ་	-9.33025
▁འདི་	-9.33181
ས་ལ་	-9.33265
སུམ་ཅུ་རྩ་གཉིས་	-9.33334
འབྱུང་བར་འགྱུར་	-9.33356
ཐུན་མོང་མ་ཡིན་པ	-9.33357
སྤྲུལ་པ་	-9.33434
འཇིགས་པ་	-9.33467
ས་ཚེ་དང་ལྡན་པ་	-9.33556
གཅིག་པུ་	-9.33559
མདོ་	-9.33605
འགན་	-9.33608
ཐུག་	-9.33686
ཁོང་གི་	-9.33782
ལ་སོགས་པའི་	-9.33849
ཁ་དོག་	-9.33899
ཡོངས་ལ་	-9.33911
ལམ་ནས་	-9.33926
བྱའོ་་	-9.33935
▁དེ་ནས་དགེ་སློང་	-9.33944
བྱུང་ནས་	-9.3398
སྒོམ་	-9.34006
བྱེད་པ་དང་་	-9.34047
མཛེས་	-9.34049
བསམ་བློ་	-9.34156
ད་ལྟར་	-9.34185
པར་གྱུར་ཏེ་	-9.34194
ཐམས་ཅད་དུ་	-9.34313
ཞི་བའི་	-9.34382
ཞེས་པ་	-9.34407
སྙིང་སྟོབས་	-9.34445
གང་ཞིག་	-9.34445
བཅད་	-9.34449
བས	-9.34586
འོས་	-9.3459
▁ཐེངས་འདིར་	-9.347
བཙུགས་	-9.34717
རྗེས་སུ་ལྟ་བ	-9.34718
▁འཕགས་པ་	-9.34799
སྲོལ་རྒྱུན་	-9.34847
▁རྒྱ་གར་གྱི་	-9.34874
དེ་གཉིས་	-9.34874
ས་སྨྲས་པ་	-9.34944
མིང་དོན་མཚུངས་པ	-9.34951
འཐབ་རྩོད་	-9.35006
ཞེས་བྱ་བ་ནི་	-9.3509
གཏམ་	-9.35116
ཕྱི་དྲིལ་	-9.35159
བཙན་བྱོལ་དུ་	-9.35232
བདག་པོ་	-9.35244
མཛད་སྒོར་	-9.35363
འདི་ན་	-9.35414
རྒྱ་ནག་མི་དམངས་ས	-9.35429
གཅིག་ཏུ་	-9.35438
ཆོས་ཉིད་	-9.35439
དངོས་པོ་མེད་པའི་	-9.35461
སྨན་པ་	-9.35464
ཐམས་ཅད་ལ་	-9.35467
ཡང་དག་པ	-9.3553
གནོད་པ་	-9.35544
བཀའ་ཤག་གི་	-9.35601
ཡང་དག་པར་རབ་ཏུ་	-9.35635
▁ཁྱོད་ཀྱིས་	-9.3566
ོ་	-9.3578
རང་སངས་རྒྱས་	-9.35782
ཞེས་བྱ་བར་	-9.35783
བདུད་	-9.36167
ནམ་མཁའ་	-9.36169
དོན་དུ་	-9.36191
སེམས་ཀྱིས་	-9.36366
ཡོངས་	-9.36382
ཚེ་རིང་	-9.36435
ལགས་ཏེ་	-9.36466
བཅས་ནས་	-9.36491
▁དེ་དག་ནི་	-9.36549
ངོ་	-9.36585
པའི་ཐོག་ནས་	-9.36616
ལྷའི་དབང་པོ་	-9.36635
▁བདག་ནི་	-9.36808
པོར་	-9.36812
ངང་	-9.36861
རྣམས་ཡིན་	-9.37066
ཀུན་གྱི་	-9.37107
དང་བཅས་	-9.37193
མང་བ་	-9.37258
ཁོང་དུ་ཆུད་པ	-9.3729
ཁ	-9.37388
ར་འགྱུར་བའི་ལམ་	-9.37411
འདུག་པ་བཅས	-9.37439
་ཆེན་རིན་པོ་ཆེ་	-9.37624
ཕྱོགས་སུ་	-9.37717
དེའི་ཐོག་	-9.37722
སྐྱབས་	-9.37755
མཛོད་	-9.37771
བཟང་སེངྒེ་མཆོག་	-9.37836
ཕན་	-9.37839
དཀོན་མཆོག་	-9.37859
སོ་སོ་ཡང་དག་པར་	-9.37862
ཚང་	-9.38023
གཏན་འབེབས་གནང་	-9.3804
བསྙེན་པར་རྫོགས་པ	-9.38052
བོད་ཡིག་	-9.38257
སྤྱོད་ཡུལ་	-9.3841
སྟོན་པ་སངས་རྒྱས་	-9.38435
རྟགས་	-9.38452
ཕྱིར་མི་ལྡོག་པ	-9.38495
▁སྤྱི་འཐུས་	-9.3864
མ་ཡིན་པ་	-9.38702
ྭ་བརྒྱད་ཀྱི་བར་	-9.38821
གོ་སྐབས་	-9.38867
ཁོ་ནར་	-9.38937
ས་འདི་ལྟར་	-9.38956
འཚོ་བ་	-9.39048
འདས་པའི་དུས་	-9.39092
གཅིག་གི་	-9.39213
ནོ་་	-9.39235
ལུས་ཀྱི་	-9.39314
དང་མི་རྣམས་ཀྱི་	-9.39395
རྒྱལ་པོ་ཆེན་པོ་	-9.39425
རྒྱུ་ཡིན	-9.39572
གནང་གི་ཡོད	-9.39578
གནས་མཆོག་	-9.39632
▁དཔལ་ལྡན་	-9.39697
ཆོས་ཀྱི་དབྱིངས་	-9.39701
་ཐམས་ཅད་	-9.39808
མཐོ་སློབ་	-9.39883
ཐེངས་	-9.39984
སྔར་	-9.40009
དགོངས་	-9.40009
རྣམ་པ	-9.4009
ཟད་	-9.4014
མདའ་	-9.40405
འདྲེན་པ་	-9.40415
དངུལ་	-9.40681
ལོག་	-9.4072
ཁྱོན་	-9.40727
རྣམ་པར་དག་པ་	-9.40783
ལ་རྒྱབ་སྐྱོར་	-9.40851
ཚོགས་དྲུང་ལ	-9.40873
ངམ་	-9.40884
་ཡིན་ནོ་་	-9.40901
སའི་	-9.40937
འཛམ་བུའི་གླིང་	-9.40961
ལ་སྤྱོད་པ་	-9.41032
སྐད་ཅེས་གསོལ་ཏོ་	-9.41071
དེའང་	-9.41108
ཁྲིམས་ཞིབ་པ་ཆེ་བ	-9.41113
ཁུལ་གྱི་	-9.41148
གཙུག་ལག་ཁང་	-9.41164
འི་ཁ་ལོ་སྒྱུར་བ་	-9.41277
དག	-9.41322
སེ	-9.41413
སྲས་	-9.41535
ཨ་རི་	-9.41544
པར་བརྟེན་	-9.41566
རྫས་	-9.41616
ཆད་	-9.41618
རེག་	-9.41766
ཉམ་ཐག་	-9.41821
བརྒྱ་སྟོང་	-9.42118
ཕན་ཐོགས་	-9.4213
ལ་གནས་པ་	-9.42355
ཟེར་བ་དེ་	-9.42381
གཞུང་གི་	-9.42425
ལས་དོན་ཚོགས་ཆུང་	-9.42447
རིམ་པ་	-9.426
ས་ཀྱང་	-9.42639
བཟོད་	-9.42655
སྡིག་པ་	-9.4274
དཔལ་ན་ལེནྡྲའི་	-9.42767
བསོད་སྙོམས་	-9.42776
ཆགས་པ་	-9.42781
▁དེ་རིང་འདིར་	-9.42852
རྣམ་པར་ཤེས་པའི་	-9.42854
ཡང་དག་པར་རྗེས་	-9.42909
མཁན་གྱི་	-9.42956
་ཡ་	-9.42958
ར་བྱེད་	-9.42992
རླུང་	-9.43095
དང་ཞབས་སུ་ལྡན་པ་	-9.43141
དགོས་པ	-9.43161
གྲགས་པ་	-9.43162
མཁས་	-9.43169
གསོལ་	-9.43244
ཕ་རོལ་	-9.43295
་ཆེན་སྐུ་ཕྲེང་	-9.43311
▁ས་གནས་	-9.43316
ཁྱོན་མི་གྲངས་	-9.4357
ཡོང་བའི་	-9.4361
ཤི་	-9.43652
ལྔ་བརྒྱ་	-9.43675
▁ཁ་ཅིག་གིས་ནི་	-9.43697
གནས་སོ་་	-9.43716
ཞི་བདེའི་	-9.4381
གོ་སྒྲིག་འོག་	-9.43846
ཡིན་ཞེ་ན་	-9.43849
སྐྱེས་སོ་་	-9.43854
བྷ	-9.43883
ཤུགས་	-9.43943
སྐྱེས་ཏེ་	-9.43979
ཉིད་དུ་	-9.43981
བླ	-9.44056
དགེ་བཤེས་	-9.44095
བསྐྱོད་	-9.44151
ཝ་	-9.44155
མ་ཐག་ཏུ་	-9.44179
འཇུག་པ་	-9.44205
དེ་བཞིན་ཉིད་	-9.44277
མཁན་ཆེན་ཞི་བ་འཚོ	-9.44282
མང་ཚོགས་ལ་	-9.443
སྲིད་པ་	-9.44332
རྒྱ་ཆེ་	-9.44356
རང་ལུས་མེར་སྲེག་	-9.44383
གང་ཡིན་པ་	-9.44454
མཐུ་	-9.44464
དེ་ཐོས་མ་ཐག་ཏུ་	-9.44522
དཔེར་ན་སྒྱུ་མ	-9.4455
▁ཀྱེ་མ་	-9.44693
དམག་	-9.44728
གཤེགས་པས་ཡང་དག་པ	-9.44747
སྐོར	-9.4475
ཆོས་སྐྱོང་	-9.44801
ཐད་ཀར་	-9.44821
ཉི་ཤུ་	-9.44846
སེམས་ཅན་དེ་དག་	-9.44848
ཡང་མ་ཡིན་	-9.45005
སྐོར་དང་	-9.4505
བཀའ་སློབ་སྩལ	-9.451
ཞི་བདེ་	-9.45207
▁གྲོས་ཚོགས་	-9.45363
ཡིན་སྟབས་	-9.45411
གནད་ཡོད་མི་སྣ་	-9.45436
མི་མང་གི་	-9.45458
བོད་ལ་	-9.45483
ལས་འགུལ་སྤེལ་	-9.45524
ཕྱུག་ཅིང་ནོར་མང་	-9.45588
རོགས་རམ་	-9.45652
དུས་སུ་	-9.45662
རྐང་	-9.45682
ཚོགས་ཆུང་	-9.45702
ཁག་ལ་	-9.45741
བླ་ན་མེད་པ་ལྷ་	-9.45747
ཆ་རྐྱེན་	-9.45891
ཡིག་ཆ་	-9.45895
ཆོས་ཐམས་ཅད་ཀྱི་	-9.46127
བཏང་ནས་	-9.46128
གནང་སོང་	-9.46159
▁འཇམ་དཔལ་གྱིས་	-9.46168
བྱིན་	-9.46299
དུས་རབས་	-9.46314
བཞག་ནས་	-9.46314
བོད་མི་རིགས་ཀྱི་	-9.46351
ཁ་ཅིག་ནི་	-9.46407
བསླབ་པ་	-9.46418
ཉམས་ཞིབ་	-9.46447
ནང་པའི་	-9.46475
ཡིན་པས་	-9.46551
▁རྟག་ཏུ་	-9.46576
འོད་སྲུང་གིས་	-9.46621
རྣམས་དང་	-9.46754
བྱས	-9.46778
གསར་འགོད་པ་	-9.46785
གང་གི་	-9.46834
▁ང་	-9.46911
ཁྲོད་	-9.46992
འཛུགས་	-9.47217
ལགས་ན་	-9.47237
ཉེས་པ་	-9.47239
གསར་འགྱུར་	-9.47258
འི་ཚིག་བླ་དགས་	-9.47264
▁ཆོས་ཀྱི་	-9.47306
ཀྱིས་སྨྲས་པ་	-9.47348
མ་སྐུ་	-9.47359
འི་བར་	-9.47411
བསྒྱུར་	-9.47412
དགུ་	-9.47533
མངོན་	-9.47535
རྒྱ་ནག་དམར་པོའི་	-9.47619
ཤིང་རྟ་	-9.47682
བབ་	-9.47739
▁མཐར་	-9.47807
▁བསྐལ་པ	-9.47838
སྟངས་	-9.47842
ཤུགས་ཆེན་པོ་	-9.4786
གཞུང་མང་གཉིས་ལ་	-9.47863
འདྲ་མིན་	-9.47905
གནང་བ་	-9.4794
དེ་ཙམ་	-9.4804
འི་སྐྱེས་བུ	-9.48062
ཕ་མ་	-9.48068
གྲ་སྒྲིག་	-9.48086
ལུས་ལ་	-9.48114
འདིའི་ནང་	-9.48219
ཞིང་་་	-9.48227
ཡར་རྒྱས་གཏོང་	-9.48271
ཤེས་པ་འདི་ལྟར་	-9.48316
སྔགས་	-9.48359
▁ལྷག་པར་དུ་	-9.48379
ཐོག	-9.48456
ལས་ཀ་	-9.48541
དགྲ་	-9.48606
དབུ་	-9.48649
སྦྱོར་བ་	-9.4872
བ་ར་	-9.48753
ཅི་ཞིག་	-9.48766
གཙོས་	-9.48807
འི་ཡེ་ཤེས་	-9.48833
མཐོང་་་	-9.48857
ཨ	-9.48872
་གང་དག་	-9.48892
▁བོད་ནང་	-9.48906
ས་ཆ་	-9.48934
པ་དེ་	-9.49032
བོད་བརྒྱུད་ནང་	-9.49045
ཡིན་པར་	-9.49084
ཚོ་	-9.49146
བསྟན་པའི་	-9.49169
བྱེད་དགོས་པ་	-9.49195
སྐད་ཆ་	-9.49204
ཆོས་ལ་	-9.4922
གནས་སུ་	-9.49238
ཆོས་གླིང་	-9.49276
ི་སྤྱད་པ་སྤྱོད་པ	-9.49314
ས་གནས་ཀྱི་	-9.49421
སེམས་ལ་	-9.49453
གྱུར་ཅིག་	-9.49482
ར་བྱ་བའི་ཕྱིར་	-9.49526
▁དགེ་སློང་དག་དེ་	-9.49534
ཆོས་རྣམས་ལ་	-9.49643
ོན་	-9.49719
འཁོར་བའི་	-9.4973
མེད་ན་	-9.49751
སྡུག་བསྔལ་གྱི་	-9.49803
▁རྒྱལ་པོ་ཆེན་པོ་	-9.49814
ཚོགས་མི་	-9.49909
▁ལ	-9.49932
འི་རྨི་ལམ་ན་	-9.49964
བསྙེན་པར་རྫོགས་	-9.49968
སྨན་བཅོས་	-9.50032
བྱམས་པ་	-9.5004
བྱེད་སྐབས་	-9.50167
མཛེས་པ་	-9.50232
བླ་མ	-9.50285
སྩལ་	-9.50496
རྣམས་སུ་	-9.50496
གྲོལ་	-9.50594
ནས་སུ་་	-9.50636
འཁོད་དོ་་	-9.50711
ལ་སོགས་	-9.50715
མི་དམིགས་སོ་་	-9.50823
མི་འདུག	-9.50824
བདེ་བར་	-9.50848
མཁྱེན་པ་ཉིད་ཀྱི་	-9.50879
མ་ཡིན་ཏེ་	-9.50908
▁མཐོང་ནས་ཀྱང་	-9.51037
ཐབས་ལམ་	-9.51119
ེན་	-9.51161
▁ཀྱེ་	-9.51277
མི་དམིགས་	-9.51358
བསྒྲུབ་	-9.51449
མི་འགྱུར་་	-9.51625
མངོན་པར་ཤེས་པ་ལྔ	-9.5171
▁ང་ཚོའི་	-9.51723
མཐོང་ན་	-9.52023
ཨིན་ཡུལ་	-9.52032
སླར་	-9.52066
རྣལ་འབྱོར་	-9.52121
མོས་	-9.52139
དཔག་ཏུ་མེད་པ་དག་	-9.52243
ཞིག་རེད	-9.52277
འབབ་	-9.5236
བོད་དོན་ལས་འགུལ་	-9.52383
གྲོས་ཚོགས་འོག་མ	-9.52518
བྲལ་	-9.52539
ཐེག་ཆེན་	-9.52569
ཤུགས་རྐྱེན་	-9.52579
ཞིག་ཡིན	-9.52606
ནས་བཟུང་	-9.52608
རྩེ་	-9.52681
སྡུག་	-9.52752
་ཡིན་སྙམ་འམ་	-9.5282
་སོགས་	-9.52875
གནས་བབ་	-9.5291
རྒན་	-9.52931
དགོས་མཁོ་	-9.53016
ཞུས	-9.53071
ཁྱོད་ནི་	-9.53166
ནུབ་	-9.53167
གཙུག་ལག་ཁང་དུ་	-9.53197
གསར་	-9.53206
ཆེ་བའི་	-9.53269
ཁག་གཅིག་གིས་	-9.53406
▁མ་འོངས་པར་	-9.53411
སྤོས་	-9.53448
དཔེ་དེབ་	-9.5346
ལས་ཁུངས་སུ་	-9.53518
གནང་བ་མ་ཟད	-9.53554
གོང་ས་ཏ་ལའི་བླ་མ	-9.53617
ཚོགས་ཆུང་གི་	-9.53618
བསོད་ནམས་ཀྱི་	-9.5362
▁བདག་གི་	-9.53624
ཡོད་དོ་་	-9.53628
ས་ནས་	-9.53644
གཞན་དག་	-9.53675
སྤྲད་	-9.53675
དམིགས་པ་	-9.53743
མཚོ་	-9.53802
ཁྱིམ་དུ་	-9.53862
བཤེས་གཉེན་	-9.53942
ཆིབས་སྒྱུར་	-9.53983
དེ་ཡིས་	-9.54052
སྐོར་ངོ་སྤྲོད་	-9.54071
དགོན་པའི་	-9.54123
དོ་སྣང་	-9.54164
མ་མཆིས་པ་	-9.54165
རྒྱུན་དུ་ཞུགས་པ	-9.54223
སློབ་ཚན་	-9.54227
ཇི་	-9.54357
རྒྱ་གར་གཞུང་གིས་	-9.54466
དེས་ཀྱང་	-9.54561
▁སེམས་	-9.5458
རྒྱུ་རེད	-9.5461
འི་འབྲས་བུ་	-9.54611
ལ་ཚེ་དང་ལྡན་པ་	-9.54677
སེམས་ཁམས་རིག་པ	-9.54724
རྐང་པ་	-9.54751
སྒོ་ནས་	-9.54841
▁ད་ལྟའི་ཆར་	-9.54891
གཙང་	-9.54905
སྤྲིན་	-9.54989
ལྡན་པ་	-9.55009
▁ད་ལྟའི་	-9.55017
གནང་ཡོད་པ་དང་	-9.55092
སྲུང་བརྩི་ཞུ་	-9.5528
ར་འགྱུར་ཏེ་	-9.5536
སྤྱད་	-9.55403
མི་འབོར་	-9.55632
ལྟ་སྟེ་དཔེར་ན་	-9.55636
གམ་	-9.55643
མདོག་	-9.55861
▁ཆོས་ལུགས་	-9.5594
བྱང་ཕྱོགས་	-9.55959
་བཞུགས་ཏེ་	-9.55991
ོགས་	-9.56009
སྟན་ལས་ལངས་ཏེ་	-9.56061
འཇམ་དཔལ་	-9.56083
▁ཨོ་	-9.56215
བརྒྱུད་ནས་	-9.56241
་གོས་ཕྲག་པ་གཅིག་	-9.56285
་པ་བཅས	-9.56304
སེམས་བསྐྱེད་པ་	-9.56304
རབ་འབྱོར་གྱིས་	-9.56329
མོ	-9.56372
གཅོད་	-9.56468
ར་མི་འགྱུར་རོ་་	-9.56474
ཀྱི་དབང་པོ་	-9.56514
གང་དང་གང་	-9.56539
འོས་བསྡུའི་	-9.56559
རྒྱུས་	-9.56597
གསོལ་འདེབས་	-9.56666
མི་སྣ་	-9.56781
ཁང་གི་	-9.5679
མོད་ཀྱི་	-9.56825
ངོ་སྤྲོད་གནང་	-9.56851
ཨ་རིའི་གྲོས་ཚོ	-9.56853
འབྲེལ་རྒྱལ་ཚོགས་	-9.56877
ཚོགས་ཁང་ནང་	-9.56882
ཕྱི་ལོ་གཟའ་ལྷག་པ	-9.56889
དང་སྦྲགས	-9.56909
སྒྲིག་འཛུགས་དང་	-9.56973
སྨིན་	-9.56973
འདོད་ཆགས་དང་བྲལ་	-9.57045
ཐང་གི་གནས་སྟངས་	-9.57062
མངོན་དུ་	-9.5709
གི་དགེ་འདུན་	-9.57105
ཉན་	-9.57118
མ་གྱུར་ཅིག་	-9.57208
ཁ་ཤས་	-9.57246
ཞིག་གིས་	-9.57247
ཕེབས་ཡོད	-9.57288
ཀླུའི་རྒྱལ་པོ་	-9.57335
བྱེ་བྲག་	-9.57347
གསར་འགོད་	-9.57374
པ་དག་	-9.57391
ཉེ་	-9.57397
འཚེ་མེད་ཞི་བའི་	-9.5741
ཡིན་པ་མ་ཟད	-9.57435
དགའ་ལྡན་	-9.57456
་རྣམས་ལ་	-9.57498
ཡང་དག་པའི་	-9.57564
བྱིན་གྱིས་བརླབས་	-9.57598
སྤྱོད་ལམ་	-9.57615
ཚུགས་	-9.57689
རྙེད་པ་	-9.57851
པའང་	-9.57873
ཡོད་སྟབས་	-9.58008
དྲག་	-9.58051
བཏོན་	-9.58062
མངའ་	-9.58094
བགྱིད་	-9.58099
ཕར་	-9.58135
བཅོམ་ལྡན་འདས་དེ་	-9.58222
ར་ལན་གསུང་བ་ནས་	-9.5825
དེ་དག་དང་ལྡན་ན་	-9.58308
་དག་	-9.58323
ཀུན་དགའ་བོས་	-9.58356
བོད་དང་	-9.58374
གྲགས་	-9.58383
པ་ཡི་་	-9.584
མཛད་འཕྲིན་	-9.58494
པར་གྱུར་ནས་	-9.58582
▁བཞི་གང་ཞེ་ན་	-9.58588
རྒྱག་	-9.58686
པ་ལ་	-9.58696
ཚོའི་	-9.58825
ཞིག་ཆགས་ཡོད	-9.58851
སྐྱེས་ནས་	-9.58872
ཁྱེའུ་	-9.58877
གང་ཐུབ་	-9.5888
འགོག་དབྱེ་ཟུར་	-9.58902
ཕྱེད་	-9.59017
ལེགས་སོ་ལེགས་སོ་	-9.59028
མཉམ་པ་ཉིད་	-9.59042
▁དེས་ན་	-9.59091
ཡང་ཆེས་ཕ་རོལ་ན་	-9.59098
འགན་ཁུར་	-9.59102
རིན་པོ་ཆེ་མཆོག	-9.59139
པོའི་	-9.59147
ཉ	-9.59187
བསྟུན་	-9.59263
སྐྱེ་མཆེད་	-9.59322
གནང་བར་	-9.59412
ཁུལ་	-9.59417
བོད་མིར་	-9.59423
▁ཁྱོད་	-9.59436
བྱས་པ་རེད	-9.5956
རྣམ་པར་རྟོག་པ་	-9.59563
ནོར་བུ་	-9.59814
གཤེགས་	-9.59824
དང་་རང་སངས་རྒྱས་	-9.59886
གསུང་བཤད་	-9.59947
འདི་ཡང་	-9.59993
ཐུགས་རྗེ་	-9.60052
རྩི་	-9.60092
ནང་ཁུལ་	-9.60093
སྒོར་	-9.60121
རྒྱུན་ལས་	-9.60157
སྐྱོན་བརྗོད་	-9.6019
ཅིའི་ཕྱིར་	-9.60225
འི་སླད་དུ་	-9.6026
མཛད་པའི་	-9.60372
སློབ་གྲྭ་ཁག་གི་	-9.60383
དབང་གིས་	-9.60497
ཡབ་	-9.60504
དགའ་མགུར་སྤྱོད་	-9.60518
ཟིན་པ་	-9.60577
རྫུ་འཕྲུལ་གྱི་	-9.6061
ཚོགས་གཞོན་	-9.60626
ཉིན་མོ་	-9.60648
སྐྱབས་རྗེ་	-9.60661
སྐྱེ་བོ་	-9.60666
མང་པོས་	-9.60791
ལྷ་རྣམས་	-9.60795
་དེ་ཡི་	-9.60841
འཆར་	-9.60882
▁དཔེར་ན	-9.60907
འདྲེན་	-9.60986
བཅར་	-9.61013
ཉི་ཧོང་	-9.61081
སྐྱོང་མཆོག་གིས	-9.61105
བྱང་ཨ་རིའི་	-9.61166
ཡོང་བར་	-9.61203
རྩོམ་	-9.61222
རབ་འབྱོར་གཞན་ཡང་	-9.61241
བྱ	-9.61277
ཀརྨ་དགེ་ལེགས་	-9.61278
ཞུ་རྒྱུའི་	-9.61417
ནི་ཆོས་	-9.61425
དགའ་ལྡན་ཕོ་བྲང་	-9.61465
རྣམ་དག་	-9.61467
སྲིད་གཞུང་གིས་	-9.615
གྱུར་ཅིག་མི་	-9.61509
ཕུན་ཚོགས་	-9.61536
གས	-9.61586
ལྷ	-9.61593
པ་རྣམས་ཡིན་	-9.61595
་སངས་རྒྱས་	-9.61612
སྩལ་དོན	-9.61684
གཞི་རྩའི་	-9.61708
མཁས་དབང་	-9.61734
འགྲོ་བཞིན་ཡོད	-9.61735
གཞིས་ཆགས་སུ་	-9.61866
རྨི་ལམ་	-9.6187
གཞུང་གིས་	-9.61924
ཆུ་ཚོད་	-9.6197
ཕྱག་ལས་གནང་	-9.61979
ཡིན་ཡང་	-9.62053
ཡིན་པར་སེམས་ན་	-9.62054
སྐྱེ་བོ་ཕལ་པོ་ཆེ	-9.62172
སྒྲིག་	-9.62186
ཚོགས་ཆེན་ཐེངས་	-9.62227
འི་གྲོས་ཚོགས་	-9.62232
མི་རྣམས་	-9.62369
ལས་དེའི་	-9.62391
ཁོངས་	-9.62465
སྙན་	-9.62475
རྡ་ས་	-9.62522
འཇིག་རྟེན་ན་	-9.62555
དེས་བསམས་པ་	-9.62595
གཞན་དུ་	-9.62761
ལུགས་	-9.62773
རང་སྐྱོང་ལྗོངས་	-9.62884
ཡོད་ནའང་	-9.62911
▁བོད་མི་མང་སྤྱི	-9.62948
ཉིད་ཀྱིས་	-9.62962
ནའང་	-9.62963
་ལ	-9.63032
འཚམས་འདྲིའི་	-9.63048
ཚལ་	-9.63075
དགོས་ཀྱི་ཡོད	-9.63152
འདུགདེར་བརྟེན་	-9.63248
བྱང་	-9.63251
▁ཉེ་ཆར་	-9.63345
ཕྱོགས་བཅུའི་	-9.63369
མེད་པ་དང་	-9.6345
གྱུར་པ་	-9.63523
▁མགོན་པོ་གང་ཉིད་	-9.63603
བརྙན་འཕྲིན་	-9.63693
ར་གྱུར་པ་དེ་གཞན་	-9.63734
བརྟན་	-9.63776
ངོ་མཚར་	-9.63822
ཐར་	-9.63877
དགེ་འདུན་གྱི་	-9.63928
▁བརྟན་པའི་	-9.64002
པ་ཡིན་ནོ་་	-9.6401
ཛ	-9.64017
ཐམས་ཅད་མཁྱེན་པ	-9.64032
བླངས་ཏེ་	-9.6406
ཞབས་སོར་འཁོད་	-9.64129
བྱ་་	-9.64269
བོད་ཀྱི་ཟློས་གར་	-9.64319
གྲོགས་	-9.64364
པདྨ་	-9.64394
རོགས་སྐྱོར་	-9.64399
▁ཚུལ་ཁྲིམས་	-9.64474
པ་ཡིན་	-9.64488
གནང་རོགས	-9.64526
བཟུང་ནས་	-9.6453
ཀྱི་རང་བཞིན་	-9.64537
ལ་སྨྲས་པ་	-9.64539
སེང་གེ་	-9.64539
བརྗོད་གཞིའི་ཐོག་	-9.6459
ལེགས་པར་གསུངས་པ	-9.64625
བཏང་སྟེ་	-9.64647
གཉིས་སུ་	-9.64686
བརྒྱ་སྟོང་ཕྲག་	-9.64716
རྒྱུན་སྐྱོང་	-9.64739
དང་ལྡན་	-9.64764
གསུམ་པ་	-9.64774
ཡུན་རིང་	-9.64816
གར་སོང་ཆ་མེད་དུ་	-9.64878
ཡིན་ལ་	-9.64882
གདོང་	-9.64917
་མ་ཡིན་	-9.64919
ཞུས་པ་	-9.64949
བོ་	-9.64968
རབ་ཏུ་འབྱུང་བ་	-9.64971
སྟན་	-9.64974
ཆེན་པོར་	-9.64998
རེ་ཞིག་	-9.65026
ཡིད་ལ་	-9.65061
འདི་སྐད་དུ་	-9.65068
གནང་རྒྱུ་	-9.6509
ར་བྱ་	-9.65095
སྐབས་སུ་	-9.65149
ཚོང་	-9.65153
ཙམ་གྱི་	-9.65194
ཁམས་ཤེས་པ་འགོག་པ	-9.65246
ནང་ཡོད་པའི་	-9.65266
བྱེད་དགོས་པའི་	-9.65274
ཐོགས་	-9.6531
ཕྲེང་བཅུ་བཞི་པ་	-9.65328
སྐྱབས་མགོན་ཆེན་	-9.6536
བླངས་	-9.65386
གང་ཙམ་	-9.65421
ཤེས་ཡོན་གྱི་	-9.65472
སྐྱོར་ཚོགས་པ་	-9.65479
མཁས་པའི་	-9.65485
མངོན་སུམ་དུ་བྱས་	-9.65487
ལ་སྙོམས་པར་ཞུགས་	-9.65488
ཚེ་རིང་ལགས་ཀྱིས་	-9.65537
▁དེའི་ཕྱིར་	-9.65551
དང་འབྲེལ་བ་	-9.65582
ཐུབ	-9.65622
ཡིན་པའི་	-9.65664
འདུག་ནས་	-9.65786
མཉམ་ཞུགས་གནང་	-9.65816
པ་ཡིན་ན་	-9.65828
གདན་	-9.65866
སྦྱར་	-9.6587
ལྟར	-9.65942
▁གསར་འགོད་པས	-9.6602
ཚངས་པ་	-9.66029
ཚོད་	-9.66043
▁ཕྱི་ཟླ་	-9.66059
དག་དང་	-9.66133
ཇི་ལྟ་བ་བཞིན་དུ་	-9.66142
དེབ་	-9.66144
▁རྣམ་པ་ཐམས་ཅད་	-9.66146
སྨོན་ལམ་བཏབ་པ་	-9.6624
ངན་པ་	-9.66294
ཤེས་སོ་་	-9.66294
རྟོགས་པ་	-9.66341
ཁྲིད་	-9.66521
འཛམ་གླིང་མཉམ་	-9.66522
བླངས་ནས་	-9.66549
▁ཆོས་ཐམས་ཅད་	-9.66556
གསེར་གྱི་	-9.66591
མཉམ་དུ་	-9.66644
གོ་སྒྲིག་གནང་	-9.66667
གང་ལྟར་	-9.66701
འདུས་པ་	-9.66742
ཕེབས་བསུའི་སྣེ་ལ	-9.66781
དེས་ནི་	-9.66793
▁དགེ་བའི་རྩ་བ་	-9.6684
བདག་ཅག་གི་	-9.66843
་གཡུ་ཐོག་	-9.6685
ཉེས་	-9.66853
▁ཞེས་པའི་	-9.66882
ཡིད་ཀྱིས་	-9.66906
ཚོར་བ	-9.66931
རྟོག་ཞིབ་	-9.66941
གྱ	-9.66955
▁ཡེ་ཤེས་	-9.66988
▁བུད་མེད་	-9.67051
ཐུབ་བསྟན་	-9.67065
བཟུང་	-9.67165
འཕྲད་	-9.67257
་རྣམས་ནི་	-9.67278
▁ཤེས་རབ་	-9.67281
དྲི་བ་	-9.67466
ལས་ཀྱི་	-9.6749
རེ་བ་	-9.67509
ཡོད་མེད་	-9.6754
ཕྱིར་མི་འོང་བ	-9.67543
▁དེ་ནས་རྒྱལ་པོ་	-9.6756
ར་འགྱུར་བ་དང་་	-9.67565
ཅིང་་	-9.67617
ར་གནས་པའམ་གལ་ཏེ་	-9.67654
ཉེན་	-9.67673
གསུངས་པ་	-9.67751
གཡོག་	-9.67772
སྔོན་འགོག་	-9.67806
གྲོས་མོལ་	-9.67809
འདུས་	-9.67816
གང་མང་	-9.67821
མེད་དེ་	-9.67866
རྒྱལ་བའི་ཕོ་བྲང་	-9.67903
བཞིན་་	-9.67907
རམ་	-9.67962
ཡུལ་དུ་	-9.68016
ལ་གནས་ནས་	-9.68045
ལག་བསྟར་བྱེད་	-9.68126
གྲྭ་	-9.68135
འདས་པའི་ལོ་ངོ་	-9.68143
གཟུགས་ཀྱི་	-9.68178
སོན་	-9.68196
མི་མང་གིས་	-9.68228
▁གང་ཞིག་	-9.68236
ཆེན་པོ་དང་་	-9.68297
ང་ཡི་	-9.68326
སྒྲུབ་པ་	-9.68328
རང་རང་གི་	-9.68332
བྱས་རྗེས་	-9.68357
དོན་དམ་པར་ན་	-9.68423
དཀའ་	-9.68479
བྱས་པས་	-9.6853
བཞེངས་	-9.6854
གནས་བརྟན་	-9.68541
ང་རྒྱལ་	-9.68576
སྒྱུར་	-9.68586
གཏམ་བཤད་	-9.68589
་ཡིན་	-9.68634
རིག་གནས་	-9.68663
ལས་ནི་	-9.68711
་ཞུ་རྒྱུ་ཡིན	-9.68757
རྣམ་པས་	-9.68823
དགེ་སྦྱོང་	-9.68892
ཙམ་མིན་པར་	-9.68925
རེད་ཅེས་	-9.68929
ཛ་དྲག་གི་	-9.69033
ཚེས་	-9.69059
རྒྱས་པར་	-9.69151
སྤྲོད་	-9.69153
གྲོས་ཚོགས་འཐུས་མ	-9.69196
▁བདག་ཅག་	-9.69205
རྟེན་ཅིང་འབྲེལ་	-9.69223
ལྷག་པར་	-9.69291
བསྐྱར་གསོ་	-9.69326
ནད་པ་	-9.69383
འཛོམས་	-9.69404
དགོས་རྒྱུ་	-9.69439
ད་དུང་	-9.69439
མི་འཇིགས་པ་	-9.69452
ལོན་	-9.6948
ལགས་སོ་	-9.69525
▁ཡང་	-9.69544
བཀའ་སྩལ་པ་	-9.69576
དྲུང་	-9.69655
པར་གྱུར་པ་	-9.69769
ཕོག་	-9.69795
གྱུར་ཏེ་	-9.69801
སྲིད་བློན་	-9.69815
དེང་	-9.69862
གནང་དགོས་པའི་	-9.69915
ཁྱིམ་ཚང་	-9.69924
ཡོང་གི་རེད	-9.69933
ལས་ཀྱང་	-9.6995
▁དམིགས་བསལ་	-9.70043
རིག་པའི་	-9.70126
ཐོག་ལ་	-9.70135
ཁེ་ཕན་	-9.70146
པར་བྱའོ་་	-9.70237
འདུལ་བ་	-9.70298
གཞག་	-9.70315
ཚུར་	-9.70343
ཚབ་ཞུས་ཏེ་	-9.70417
▁རྒྱ་ནག་གི་	-9.70431
མང་གཙོ་	-9.70476
ཆོག་	-9.70598
ཁྱི	-9.70745
གིས་གཙོས་	-9.70775
འགྱུར་རོ་་	-9.70854
དེ་ཚོའི་གྲས་	-9.70918
འཚལ་	-9.70931
ཕྱིས་	-9.70935
རི	-9.70949
གཞལ་མེད་ཁང་	-9.70973
པ་ཇི་སྙེད་པ་ཉིད་	-9.70982
▁ལུས་	-9.71027
འགྲོ་བར་	-9.71062
ལས་བྱུང་བའི་	-9.71188
བློན་པོ་	-9.71282
ཞིག་ཏུ་	-9.71284
བྱེད་དེ་	-9.71335
ཡོངས་སུ་གཏོང་བ	-9.7134
ཟེར་བའི་	-9.71421
ཉོན་མོངས་པའི་	-9.71517
ཁར་	-9.71544
རྣམ་པ་དང་	-9.71557
མཛད	-9.71594
གསལ་པོ་	-9.71641
ས་བོན་	-9.71652
བཀུར་སྟི་	-9.71655
པའོ་	-9.71725
གོང་མཐོར་གཏོང་	-9.71738
ཀྱི་ཕྱིར་	-9.71745
ལྷ་མོ་	-9.71752
སི་	-9.71755
ཐག་	-9.71807
་བལ་འབྲུག་གསུམ་	-9.71876
རི་དགས་	-9.71913
དེང་དུས་ཤེས་ཡོན་	-9.71915
ཡིན་གྱིས་	-9.71936
སྟོང་ཕྲག་	-9.7197
བཞིན་ཡོད་པ་དང་	-9.71976
གཅིག་པ་	-9.71982
སེམས་བསྐྱེད་	-9.72029
ཕེབས་པའི་	-9.72083
འདིའི་སྟེང་	-9.72095
འདུ་བྱེད་རྣམས་	-9.72121
འབའ་ཞིག་	-9.72232
མི་གཡོ་	-9.72327
སྲོལ་	-9.72334
ཞེས་བྱ་བ་ནས་	-9.72371
རིང་ལུགས་	-9.724
ངོས་	-9.72478
བཏང་སྙོམས་	-9.72594
གོང་ས་	-9.72611
ལགས་སམ་	-9.72618
ཡག་	-9.72673
ངག་	-9.72755
སུད་སི་	-9.72781
འཚོགས་	-9.72913
མགོན་	-9.72914
ཡིད་ལ་བྱེད་པ་	-9.73069
སུ་ཞིག་	-9.73077
མགོན་མེད་	-9.73096
སློབ་སྦྱོང་བྱེད་	-9.73122
བསླབ་བྱ་	-9.7316
རྡ་སར་	-9.73277
ར་འགྱུར་་	-9.73292
འི་སྤྱི་ཁྱབ་	-9.73308
ཞུགས་པ་	-9.73376
འགྲོ་བའི་	-9.7347
པ་སྟེ་	-9.73504
བོད་ཀྱི་རྒྱལ་དར་	-9.73623
འདུལ་	-9.7363
བཅས་སུ་	-9.73646
འབྱུང་བར་	-9.73662
ཏིང་ངེ་འཛིན་གྱི་	-9.73706
གྲོས་ཚོགས་གོང་མ	-9.73718
སློབ་ཡོན་	-9.73746
རྡོ་རྗེ་གདན་དུ་	-9.73769
གང་ཡིན་པ་དེ་	-9.73786
ཡེ་ཤེས་ཀྱི་	-9.73795
སྐུ་ཚབ་དོན་ཁང་	-9.73797
ཡོང་གི་འདུག	-9.738
བཅུ་གཅིག་པ་	-9.73845
▁དཔལ་འབྱོར་	-9.73891
རྩོད་པ་	-9.73906
ར་འགྱུར་བ་	-9.73919
བར་འགྱུར་རོ་་	-9.73936
ཊ	-9.73936
མོས་པ་	-9.73942
སློབ་གསོ་	-9.73953
གྲངས་མེད་	-9.73963
ཀར་	-9.74004
གོང་མ་	-9.74023
སྤྱིར་	-9.74026
རྟག་པར་	-9.74047
དད་	-9.74054
གཉེན་	-9.7409
ཆོས་འབྲེལ་	-9.74187
▁བོད་དོན་	-9.74222
སྲུང་བརྩི་	-9.74236
▁ཁོང་གིས་	-9.74281
སྐྲ	-9.74282
སོ་སོ་	-9.74412
དཀའ་བ་	-9.74458
རིན་པོ་ཆེ་དང་་	-9.74468
▁ད་བར་	-9.74475
ལེན་པ་	-9.7449
སློབ་ཕྲུག་རྣམས་	-9.74697
ནག་	-9.74698
ཏན་ཏན་	-9.74704
ཞེ་སྡང་	-9.74809
སྐྱེས་པའི་	-9.74839
གཅིག་གིས་	-9.74899
ངེས་པར་འབྱུང་བར་	-9.75037
བ་རེད	-9.75037
རི་མོ་	-9.75062
ཨང་	-9.75172
▁བོད་མིའི་སྒྲིག	-9.7518
སློབ་ཁྲིད་	-9.75192
རྒྱ་གར་གནའ་རབས་	-9.75232
▁སེམས་ཅན་འདི་དག་	-9.7529
ཉམས་མྱོང་	-9.75292
འདས་	-9.75357
ཏིང་ངེ་འཛིན་འདི་	-9.75371
▁འདིར་	-9.75406
གང་ཡིན་པ་འདི་ནི་	-9.75437
ཟབ་མོ་	-9.75521
སྔ་དྲོ་ཆུ་ཚོད	-9.75552
གསུང་བཤད་གནང་ཡོད	-9.75586
དཔལ་འབྱོར་གྱི་	-9.75616
ར་གྱུར་པས་	-9.75666
ཁ་ཟས་	-9.75762
སིལ་སྙན་	-9.75809
སློབ་གྲྭར་	-9.75884
རྒྱ་ནག་དམར་ཤོག་	-9.7589
ཆེན་པོ་མཆོག་དང་	-9.75968
ཆེན་མོ་	-9.75986
ཚན་རིག་	-9.76004
་བཏང་ངོ་་་	-9.76009
ཞེས་བྱ་བ་དང་་	-9.76024
བདེན་	-9.76024
རྣམས་ཡིན་ནོ་	-9.7604
རྫོང་	-9.76069
ལུང་བསྟན་	-9.76116
སྐྱེས་བུ་འདུལ་བ	-9.76146
ཐ་སྙད་	-9.76152
རྒྱལ་པོའི་ཁབ་	-9.76185
རྡོ་	-9.76186
རིམ་པས་	-9.76194
སྨད་	-9.76232
སྨོན་	-9.76262
ཁ་ཆེའི་	-9.76337
ཏུ་གཟར་ནས་	-9.76363
ཆོས་བསྟན་པ་	-9.76364
འི་ཚོགས་གཙོ་	-9.76403
མང་དུ་	-9.76422
དབུ་མའི་ལམ་	-9.76437
འབྲེལ་མཐུད་པ་	-9.76456
གནང་བ་རེད	-9.7651
མེད་དོ་	-9.76589
སྦྱོང་	-9.76703
་རྣམས་ཡིན་	-9.76728
བརྟུལ་ཞུགས་	-9.76772
རྟག་	-9.76795
མ་ཟད	-9.76801
གཞིས་བྱེས་	-9.76807
ཡུལ་གྱི་	-9.7681
ལ་ལོངས་སྤྱོད་ཆེ	-9.76821
འདས་པའི་	-9.76837
བ་མིའི་ཐོབ་ཐང་	-9.76925
གནང་བཞིན་ཡོད	-9.76932
ལྡི་ལི་	-9.7701
བརྡ་	-9.77019
དང་བཅས་པའི་	-9.77037
གསར་འཛུགས་	-9.7704
མང་སྤྱི་འཐུས་	-9.77044
གྲོང་	-9.77055
ཆོས་ཕྱོགས་ཀྱི་	-9.77093
གང་ཡང་མེད	-9.77096
ང་ནི་	-9.77123
མ་བཅིངས་མ་གྲོལ་བ	-9.77145
དྲག་གནོན་	-9.77187
ཤར་ཕྱོགས་སུ་	-9.77222
ན་ཅིག་ཕྱིར་འོང་བ	-9.77225
▁ཁྱོད་ཀྱི་	-9.77298
མགྱོགས་མྱུར་	-9.77392
ཨ་རིའི་ཕྱི་སྲིད་	-9.7745
ུ་	-9.77481
སྤྱད་པ་	-9.77507
བསྒྲུབས་	-9.77556
ཡོད་དེ་	-9.77562
▁ཕྱི་ལོ	-9.77624
ཇེ་	-9.77648
དཔག་ཏུ་མེད་	-9.77679
གྲས་	-9.77706
མང་པོར་	-9.7773
གནོད་	-9.77748
མ་རིག་པ་	-9.77759
ཁྱུ་མཆོག་	-9.77761
དྲི་མ་	-9.77911
ཤཀྱ་ཐུབ་པ་	-9.77916
ཞིབ་	-9.77936
རྒྱུ་ཡིན་འདུག	-9.77949
▁ཁྱོད་ནི་	-9.78118
བཞི་པ་	-9.78134
ཀུན་དགའ་	-9.78138
བར་གྱི་	-9.78151
འདུག་སྟེ་	-9.78183
བདག་ཀྱང་	-9.78211
ཡོད་པ	-9.78236
▁རྒྱལ་བ་	-9.78248
ཆོས་བཅུ་པོ་	-9.78258
ཕྲུ་གུ་	-9.78318
རྒྱལ་པོ་ཟས་གཙང་མ	-9.78368
ཞལ་འདེབས་	-9.78406
འདོད་པས་	-9.78452
སྟོབས་ཀྱིས་	-9.78463
བཙུན་པ་	-9.78568
པའི་སྐབས་	-9.78656
སྐོར་གསུངས	-9.7867
ཞེས་བྱའོ་	-9.78672
འཆར་གཞི་	-9.78719
ཁས་ལེན་	-9.78725
མེད་པས་	-9.78831
བྱེད་བཞིན་པ་	-9.78833
ཨེ་ཤི་ཡའི་	-9.78836
བསམ་གཏན་གྱི་	-9.78838
གྱི་སྔ་དྲོ་	-9.78844
དྲ	-9.78867
ཡོད་པར་བརྟེན་	-9.78869
སྒྱུ་རྩལ་	-9.78895
གཞན་གྱིས་	-9.7893
བཀའ་བློན་མཆོག་གི	-9.7898
འགྲུབ་	-9.79
ཇི་སྙེད་	-9.79122
ས་ཏེ་	-9.79148
རྒྱལ་དབང་སྐུ་	-9.79156
བསྟན་ཏོ་་	-9.79185
ཚངས་པར་སྤྱོད་པ	-9.79195
མ་གཏོགས་པར་	-9.7921
རྩོད་	-9.79225
ཆིབས་སྒྱུར་བསྐྱང	-9.79242
ཆུའི་	-9.79252
ནང་པ་	-9.79252
འཁྲུངས་སྐར་	-9.79335
དང་ལྷན་ཅིག་	-9.7934
སྣང་བའི་སྒོ་སྟེ་	-9.79345
ཐོབ་ནས་	-9.79453
རིན་ཐང་	-9.79463
ཊ་	-9.79501
ཉམས་རྒྱུན་འཛིན་	-9.7956
འི་ནང་དུ་	-9.79563
ཡོངས་སུ་བསྔོ་བ	-9.79599
སུ་མི་མཐོང་ངོ་་་	-9.79624
བློ་བཟང་	-9.79804
རྒྱ་གཞུང་གིས་	-9.79805
དེ་འདྲའི་	-9.79805
གཏོར་	-9.79809
ཉེ་ཆར་	-9.79857
ཁྲག་	-9.79871
་ལས་	-9.79887
གཅིག་གྱུར་	-9.79895
ཤ་རིའི་བུས་	-9.79899
གླེང་སློང་	-9.79959
གྱུར་པ་་	-9.80015
སྐྱིད་	-9.8007
བཙན་བྱོལ་	-9.80081
སྲི་ཞུའི་ལས་བྱེད	-9.80093
གཞིས་ཆགས་ཀྱི་	-9.80185
▁སྤྱི་ཚོགས་	-9.80185
སྙན་ཐོ་	-9.80218
གནས་་	-9.80235
རྣམ་པར་ཐར་པ་	-9.8026
ཕྱིན་ནས་	-9.80297
་གང་	-9.80353
གྱིས་ཤིག་	-9.80394
སེམས་ཁམས་	-9.804
སྐོར་ལ་	-9.80461
གཏང་	-9.8051
སངས་རྒྱས་པའི་ཆོས	-9.80512
མ་ཡིན་པར་	-9.8054
སེམས་ནང་	-9.80608
སྤངས་	-9.8068
ཀྱི་ཡོད	-9.8069
ལྷུང་བཟེད་	-9.80713
ཡོ་བྱད་	-9.80751
ཆ	-9.80769
དང་ལྡན་པས་	-9.80775
སྐྱེད་མོས་ཚལ་	-9.80792
རྩལ་	-9.80846
སྟེང་དུ་	-9.80865
ཡོད་སྐོར་	-9.80881
མཆོག་གིས	-9.80897
སླ	-9.80912
བྱེ་བ་	-9.80931
▁གྲོགས་པོ་དག་	-9.80946
གྲ	-9.80963
ཤཀྱ་	-9.8098
མཐོང་སྟེ་	-9.81003
▁ཁེ་ན་	-9.81041
རྣ་བ་དང་་སྣ་དང་་	-9.81067
བདེ་བའི་	-9.81133
ཆོ་འཕྲུལ་	-9.81155
ཀྱིས་ཀྱང་	-9.81172
ཧ་	-9.81175
དཔའ་བོ་	-9.81184
ཁུལ་དུ་	-9.81185
སྐྱོང་	-9.81191
ཅི་འདྲ་བ་	-9.81225
འདི་ལྟ་བུའི་	-9.81229
ལག་ཏུ་	-9.81245
ནེ་	-9.81245
ཏི་	-9.8126
མངའ་སྡེའི་སྤྱི་	-9.81354
ཡོད་པས་	-9.81402
གསུངས་་	-9.8141
ཆས་	-9.81507
བསླབ་	-9.81519
སྟབས་	-9.81568
ར་ཡང་	-9.81581
དཔྱད་	-9.81586
▁དེ་ཕྱིར་	-9.81586
འཇིགས་མེད་	-9.81613
ཀློག་	-9.8166
རང་གིས་	-9.81724
ཙམ་ལ་	-9.81758
ལས་བསྡོམས་	-9.81783
དང་་དེ་བཞིན་དུ་	-9.81812
▁ད་རེས་	-9.81818
ཀོ	-9.81875
སུས་ཀྱང་	-9.81901
ཁ་ཆེ་	-9.81903
མ་འོངས་	-9.81951
འི་རྒྱལ་པོ་	-9.81987
ལས་འདས་པའི་	-9.82027
དབང་སྒྱུར་	-9.82043
གཏོང་བ་	-9.82061
མཐའ་གཅིག་ཏུ་	-9.82093
གཤིན་རྗེའི་	-9.8216
ཁྱེད་ཀྱིས་	-9.82209
ཏོག་དབྱིབས་	-9.82264
གིས	-9.82283
བསྡད་	-9.82339
འི་འབྲས་བུ་མངོན་	-9.82358
སྐུའི་འཁྲུངས་	-9.8243
བཅོས་	-9.82446
ཕྱི་འབྲེལ་	-9.82461
འདུས་བྱས་	-9.82462
ནས་བཅོམ་ལྡན་འདས་	-9.82479
ནུབ་ཕྱོགས་	-9.82486
རི་རབ་	-9.82618
ད་ལྟར་བྱུང་བའི་	-9.8263
འཆི་	-9.82665
བཅུའི་ལས་ཀྱི་ལམ་	-9.82727
ཚིགས་སུ་བཅད་དེ་	-9.82727
རྟེན་འབྲེལ་	-9.82727
དང་་ཚེ་དང་ལྡན་པ་	-9.82729
ཕྲེང་བ་	-9.82743
དང་ལྷན་དུ་	-9.82769
འཇིག་	-9.82816
བསྔགས་པ་	-9.82872
ཡོད་མཁན་	-9.82884
བཅུག་	-9.82991
བཞིན་ཡོད་པ་	-9.83012
པར	-9.83019
བར་ཆད་	-9.8304
ཡོད་ཅིང་	-9.83068
བྱེད་་	-9.83146
མྱུར་	-9.8318
འབྲེལ་ལམ་	-9.83188
▁དེ་མིན་	-9.83219
མངོན་པར་ཞེན་པ	-9.8327
གསང་	-9.83291
འཕགས་	-9.83359
ཡིན་ཞེས་	-9.83366
ས་མཚམས་	-9.83388
ཅིང་་་	-9.83393
གཉིས་ལ་	-9.83467
པར་བྱ་བའི་ཕྱིར་	-9.83481
རྩ་ཁྲིམས་	-9.83485
བྱས་པ་དང་	-9.83518
རྒྱུ་དེ་	-9.83569
▁ཡུ་རོབ་	-9.83582
ཞིང་་	-9.83591
མདུན་	-9.8361
འདེབས་	-9.83665
་དེས་	-9.8367
བཅུ་དང་ལྡན་ན་	-9.83696
གསལ་བཤད་	-9.83737
ལ་མཁས་པ་	-9.83761
ཉན་ཐོས་ཀྱི་	-9.83789
ཏོག་ཙམ་	-9.83816
འོག་ནས་	-9.83827
ཞུ	-9.83839
▁དེའི་འོག་ཏུ་	-9.83876
ཅི	-9.83893
ཟིན་པའི་	-9.83924
▁བོད་ནང་གི་	-9.83957
དང་ལྡན་པ་དང་་	-9.83959
འོག་ཏུ་	-9.84017
བསྙེན་བཀུར་	-9.84085
བསྟི་གནས་ཁང་	-9.8413
འི་གསུང་བཤད་གནང་	-9.84208
དང་འབྲེལ་ནས་	-9.84246
སྟོབས་ཤུགས་	-9.84278
པ་དེ་དག་	-9.84314
མང་དག་ཅིག་	-9.84341
འདུ་འཛོམས་	-9.84343
བྱེད་ཅིང་	-9.84454
པོ	-9.84455
བདུད་རྩི་	-9.84498
དགེ་འདུན་པ་	-9.84522
▁གཞན་	-9.84593
མ་ཡིན་པའི་	-9.84672
གཟུགས་ཀྱི་ཁམས་	-9.84707
འགོ་	-9.84749
ཤིང་ས་ལ་ཆེན་པོ་	-9.84856
སློབ་གཉེར་ཁང་	-9.84881
འདས་པ་ན་	-9.84903
རྔ་	-9.84915
གསོག་	-9.84916
▁དེ་ཅིའི་སླད་དུ་	-9.84963
ཀུ་	-9.84981
ནང་དུའང་	-9.84998
གླ	-9.85038
བལྟ་	-9.85046
ཆོས་གོས་	-9.85111
▁མད་གལ་གྱི་བུ་དེ	-9.85131
སྟོད་	-9.85202
▁གཙོ་བོ་	-9.85251
གནང་རྒྱུའི་	-9.853
་པ་དང་	-9.85351
ཝ	-9.85395
སེམས་ཁམས་རིག་པ་	-9.85478
གང་ཡིན་པ་དེ་དག་	-9.85538
བཟུང་སྟེ་	-9.85542
གཞིས་	-9.85547
དགེ་ལས་སློབ་ཕྲུག	-9.8559
ཉིན་གྲངས་	-9.85594
ནང་ནས་	-9.8564
རྗེས་སུ་དྲན་པ་	-9.85682
སྐུའི་	-9.85701
སྙིང་ཐག་པ་ནས་	-9.85735
དང་རིག་གཞུང་	-9.85751
▁སྲིང་མོ་	-9.85758
རྟོག་པ་	-9.85778
པ་རྣམས་ལ་	-9.85785
མང་པོ་ཞིག་གིས་	-9.85817
རྒྱ་ནག་ནང་གི་	-9.85848
རོ	-9.85874
དཀར་པོ་	-9.85893
རྒྱ་ནག་ནང་	-9.85895
ད་ལྟའི་ཆར་	-9.85922
བསགས་པ་	-9.85951
ལས་ཁུངས་དང་	-9.85982
ཆེ་ཤོས་	-9.85987
ལངས་ཕྱོགས་	-9.85998
བཞིན་ཡོད་སྟབས	-9.8601
ཡོངས་སུ་དག་པ	-9.86013
རྒྱབ་	-9.86122
ཁྱོད་ཀྱིས་དེ་	-9.86138
བོད་དུ་	-9.86213
བར་ཐུགས་རྗེ་ཆེ་	-9.86214
ཁོངས་ནས་	-9.86275
ནང་བཞིན་	-9.86425
▁ཡང་ན་	-9.86437
ཀྱིས	-9.86448
ཏ་ལའི་བླ་མ་	-9.86614
ཆུང་མ་	-9.86675
གོང་དུ་	-9.86708
ཁྱབ་བློན་ཆེན་	-9.86716
ལེགས་བཤད་དེ་དག་	-9.86736
ཚར་	-9.86772
▁བྱམས་པ་	-9.86804
མ་བྱས་	-9.86812
▁བྱང་ཆུབ་	-9.86845
སྲིད་འཛིན་ཟུར་པ་	-9.86904
རྣམས་ནས་	-9.8692
གནས་པར་མི་བྱའོ་་	-9.86937
མི་སྣང་བ	-9.86962
འཚོ་	-9.86977
ཏོ་	-9.86985
ཐུགས་རྗེ་ཆེ་ཞུས་	-9.86986
ག་རེ་	-9.8704
རྒྱ་ཆེན་པོ་	-9.87056
བཅུ་གཉིས་	-9.87143
སངས་རྒྱས་ལ་	-9.87162
སྐྱབས་སུ་འགྲོ་བ་	-9.87165
ས་ཡ་	-9.872
ཀྱི་ཐད་དུ་	-9.87215
བླ་ན་མེད་པ་	-9.8723
▁ལོ་	-9.87237
མྱ་ངན་ལས་འདའ་བ	-9.87341
ས་གནས་བོད་རིགས་	-9.87413
རྒྱུན་དུ་	-9.8743
ཏ་ལའི་བླ་མའི་	-9.87506
ཐོབ་པར་འགྱུར་རོ་	-9.87552
གོ་རྟོགས་སྤེལ་	-9.87573
འོ་ཞེས་	-9.87574
འདྲ་བ་	-9.87591
ཐོབ་པར་	-9.87637
འཆར་སྣང་	-9.87643
དགའ་ཞིང་	-9.87651
ལྷག་པའི་བསམ་པ་	-9.87674
ོག་	-9.87689
ཁུ	-9.87711
བསྐྱར་ཞིབ་	-9.8774
རྒྱབ་སྐྱོར་གྱི་	-9.87795
ཡང་ཡིན་	-9.87809
་ལི་	-9.87821
ཤ་ར་དྭ་ཏིའི་བུས་	-9.87952
བཞིའི་	-9.88007
དག་ལས་	-9.88025
ལས་བྱུང་བ་	-9.88063
▁རྒྱ་ནག་གཞུང་གི་	-9.88148
▁བྲམ་ཟེའི་ཁྱེའུ་	-9.88167
སྦྱིན་པར་བྱེད་	-9.88239
རབ་ཏུ་བྱུང་བ་	-9.88354
མིན་པར་	-9.88355
ལགས་་	-9.88368
་ཞིག་	-9.88386
ར་སངས་རྒྱས་ནས་	-9.88392
པ་དེའི་ཚེ་	-9.88415
ཡང་མེད་	-9.88435
ར་གྱུར་ཏེ་	-9.88453
▁འབྱུང་འགྱུར་	-9.88469
འཁྲབ་སྟོན་	-9.88593
དགོས་རྒྱུ་ཧ་ཅང་	-9.88597
སྦྱོང་བརྡར་	-9.88605
ཞིག་དང་	-9.88698
གོང་ས་མཆོག་གི་	-9.887
བྱེད་རྒྱུའི་	-9.88726
ཤིང་་་	-9.88894
ཡོན་ཏན་གྱི་	-9.88896
ཡོད་རེད	-9.88898
▁རིག་གཞུང་	-9.889
མཇལ་	-9.88935
དེ་ཚེ་	-9.88939
སྡུག་བསྔལ་བ་	-9.88977
བཟང་སྤྱོད་	-9.88985
ཞིག་ཀྱང་	-9.89004
བྱུང་་་	-9.89027
ཐེངས་འདིའི་	-9.89037
པར་འགྱུར་ཏེ་	-9.89095
རྗེ་	-9.89102
གྱུར་ཏེ་་	-9.89167
ང་རང་	-9.89238
འདུག་པ་	-9.89256
ལུང་པ་	-9.8932
བོད་ཀྱི་ཁོར་ཡུག་	-9.89324
▁གོང་དུ་	-9.89351
གྷ	-9.89354
བསྐོང་ཚོགས་གནང་	-9.89387
ཚེ་གཅིག་ཏུ་	-9.89397
ལྷ་མ་ཡིན་	-9.894
འདི་ནས་	-9.89406
པར་འགྱུར་བ་	-9.89479
རང་ཉིད་ཀྱི་	-9.89495
▁དེ་དེ་བཞིན་	-9.89513
ཀྱི་སྤྱན་སྔར་	-9.89519
གསང་སྔགས་	-9.89546
བཞིན་འདུག	-9.89579
དགེ་བའི་ཆོས་	-9.89598
འཚོ་བའི་	-9.89626
ཁམས་གསུམ་	-9.89639
རུང་	-9.89677
མངོན་འདོད་	-9.89712
སྐད་འབོད་	-9.89735
▁ཕྱི་ལོ་གྱི་	-9.89747
་ཆེན་དགེ་འདུན་	-9.89767
་པ་	-9.8977
ཉུང་	-9.8977
བཅོམ་	-9.89784
ཆོ་ག་	-9.89827
ཀྱི་ཚབ་ཞུས་ཏེ་	-9.89829
མི་མང་སྤྱི་འཐུས་	-9.8986
གྱུར་བའི་	-9.89862
དྲུང་ཆེ	-9.89871
ཆོས་སྟོན་པ་	-9.89898
བསྟན་གྱི་	-9.89932
སྙམ་དུ་	-9.89945
ཉལ་	-9.89967
▁ཁོང་	-9.89983
སྐྱེས་བུ་དམ་པ་	-9.8999
▁ཐེངས་འདིའི་	-9.9001
འཛིན་རིམ་བཅུ་	-9.90016
དེ་དག་ཐམས་ཅད་ནི་	-9.9005
འདི་ལྟ་སྟེ་དཔེར་	-9.9006
བཀའ་ཆོས་	-9.9011
ཡོད་ཅེས་	-9.90169
གྱིས་གཙོས་	-9.9017
གལ	-9.90207
ཆགས་པའི་	-9.90244
བསྟན་བཅོས་	-9.90299
མཐུན་	-9.90323
པ་ཡིས་་	-9.90328
་ཐམས་ཅད་སྤངས་ནས་	-9.90374
ཚད་མེད་	-9.90384
རྨོངས་	-9.90402
བའི་ནང་འཁོད་དོན	-9.90413
གུ་	-9.90425
རོགས་	-9.90463
བོད་ཀྱི་རྩ་དོན་	-9.90489
རབ་ཏུ་འབྱུང་བ	-9.90497
▁དེ་འདི་	-9.90565
སྐུ་ཚབ་ཚོགས་ཆུང་	-9.9058
དབེན་པ་	-9.9065
བཏང་ཡོད	-9.90675
ལྟོ་འཕྱེ་ཆེན་པོ་	-9.90686
རྣམ་པར་བྱང་བ་	-9.9076
གསར་པ་ཞིག་	-9.90772
ས་ཕྱོགས་གང་སར་	-9.90807
▁ཕྱི་	-9.90897
ཀྱིས་དེའི་ཚེ་	-9.909
བོད་སྐད་	-9.90931
འགྲོ་བ་མི་རིགས་	-9.90948
འཇམ་	-9.90959
དགེ་སློང་གི་	-9.90989
རྐྱེན་གྱིས་	-9.91022
ེ	-9.91024
▁དེ་ཅིའི་ཕྱིར་	-9.91027
ཁ་ཅིག་	-9.91038
བརྩོན་	-9.91066
ཐལ་མོ་སྦྱར་ཏེ་	-9.91149
ཡོན་	-9.91218
ཡང་ཡང་	-9.91271
དྲི་མེད་	-9.91327
པར་གྱིས་ཤིག་	-9.91336
ངོ་བོ་	-9.91353
▁འཕྲོད་བསྟེན་	-9.9138
ཞེས་ཟེར་རོ་་	-9.91401
ལྷོ་	-9.91432
བསྐྱངས་	-9.91467
མུ་	-9.91507
མི་ཤེས་	-9.91561
བྱེད་བཞིན་པའི་	-9.91587
བརྗོད་པར་བྱའོ་་	-9.91599
་མཆོག་དང་	-9.91688
ངྒེ་མཆོག་དང་	-9.91748
▁གླེང་གཞི་	-9.91759
གང་་་	-9.9176
དུས་སྐབས་འདིར་	-9.91776
བོད་རིགས་ཡོངས་ལ་	-9.91794
དོན་གཅོད་	-9.91845
ཚོང་པ་	-9.91913
ཚེ	-9.91986
ཇི་བཞིན་	-9.92013
མར་མེ་	-9.92036
བརྒྱད་ཅུ་	-9.9206
ཤིན་ཏུ་རྣམ་པར་དག	-9.92079
རྒྱུ་མེད	-9.92106
བརྗོད་གཞི་	-9.92112
དགའ་བའི་	-9.92112
ཆེན་པོ	-9.92201
ཆད་པ་	-9.92235
གནང་རྒྱུ་དང་	-9.92254
མི་རིགས་ཀྱི་	-9.92324
བྱུང་ན་	-9.92341
འཕགས་པའི་བདེན་པ་	-9.92353
དང་ལྡན་ཞིང་	-9.92382
ཟན་	-9.92391
འགའ་ཤས་	-9.92413
གཟུགས་མེད་པའི་	-9.92507
བསམ་བློའི་	-9.92586
ཡོད་པ་དེ་	-9.92604
དེད་དཔོན་	-9.92612
པར་བྱེད་པ་	-9.92649
▁བུ་	-9.92752
དམ་པའི་	-9.92758
ཆོས་ཐམས་ཅད་ལ་	-9.9283
ཤེས་པར་བྱ་	-9.92834
བོད་པ་	-9.92848
་ལུང་བསྟན་པ་གང་ཡ	-9.92863
ིན་པའི་སངས་རྒྱས་	-9.92864
འདུ་བྱེད་	-9.9292
མིན	-9.92947
བཀའ་དྲིན་རྗེས་དྲ	-9.92953
གསན་	-9.92965
་ཆེན་	-9.92988
▁ཐོག་མར་	-9.93002
པར་བྱེད་	-9.93095
པ་རྣམས་ཀྱི་	-9.93118
▁སྲེད་མེད་ཀྱི་བུ	-9.93118
▁དེ་ནས་དེ་	-9.93128
མིག་གི་	-9.93169
གྲོང་ཁྱེར་དུ་	-9.93176
མངོན་པར་སྤྲུལ་	-9.93228
▁བདག་ཀྱང་	-9.93232
དུ་གྱུར་པ་	-9.9325
རློམ་སེམས་སུ་མི་	-9.93295
སྦས་	-9.93322
ཧོང་ཀོང་	-9.93334
མངོན་པར་རྟོགས་པ	-9.93356
་ཡིན་ནོ་	-9.93369
འགྲོ་བ་མི་	-9.93379
བྱང་ཆུབ་ཏུ་སེམས་	-9.93395
་སེམས་ཅན་	-9.93435
ལས་ཡང་དག་པར་འདས་	-9.93446
མི་མང་ལ་	-9.93456
མཉམ་ཞུགས་	-9.93487
འི་ཆོས་འདུལ་བ་ལ་	-9.93515
ཐེག་པ་ཆེན་པོའི་	-9.93518
ཕོ་བྲང་	-9.93559
འགྲོ་གྲོན་	-9.93567
རྒྱལ་རིགས་	-9.93569
སླེབ་	-9.93574
དཔུང་	-9.93604
ཆོས་ལུགས་ཀྱི་	-9.93637
བཞག་སྟེ་	-9.93675
འགོག་	-9.9368
སློབ་ཁྲིད་གནང་	-9.93709
པར་གྱུར་་	-9.93714
རྗེས་དྲན་	-9.93775
གི་གནས་སྟངས་	-9.93786
འཆད་	-9.93787
ལས	-9.93797
གཅིག་ལ་གཅིག་	-9.93817
བཀའ་བཞེས་བཟང་པོ་	-9.93849
ཁོ་ནའི་བསྟན་པ་ལ་	-9.93862
ལིད་ཙ་བི་དྲི་མ	-9.93867
པར་གྱུར་ཅིག་ཅེས་	-9.93871
བརྟན་བཞུགས་	-9.93937
གཞུང་ཆེན་	-9.93941
བྱེད་ཅིང་་་	-9.93997
མཉམ་ཞུགས་གནང་ཡོད	-9.94036
རྙོག་གྲ་	-9.9404
ཚོགས་བཅར་བ་	-9.94055
འགྲོ་བཞིན་པའི་	-9.94134
ཀྱི་རྣམ་གྲངས་	-9.94138
▁ཅི་	-9.94215
ར་འཚང་རྒྱ་བ	-9.9424
མེད་ཀྱང་	-9.94305
ཤེས་པའི་	-9.94308
མཆོད་སྦྱིན་	-9.94325
ཡོད་འདུག	-9.94337
འགན་འཁུར་	-9.94352
ཡོད་པར་	-9.94377
བཀག་	-9.94395
སྨྲ་	-9.94396
་ཡི་	-9.94399
སྐལ་བཟང་	-9.94438
ཐོ	-9.94448
ོ་་	-9.94503
ཆུང་ངུ་	-9.94522
གཉིས་སྨན་	-9.94526
རྣམ་གཉིས་	-9.94526
བདེན་པའི་	-9.94569
མཐུན་ཚོགས་ཀྱི་	-9.94577
བོད་དོན་བདེན་	-9.94593
པོས་	-9.94699
ཤེས་པས་	-9.94743
མངའ་སྡེ་	-9.94874
རྒྱ་མཚོའི་	-9.94905
ཏིང་འཛིན་	-9.94916
དཔུང་གི་ཚོགས་	-9.94925
གང་ཡིན་པ་དང་་	-9.94974
བསྒོམ་	-9.94988
ཡང་མི་	-9.94998
གཟུགས་བརྙན་	-9.94999
པར་འགྱུར་རོ་	-9.95005
ཐུབ་པ་དང་	-9.9507
ཕྱི་ནང་	-9.95086
མ་ལུས་	-9.95139
གཟུགས་རྣམས་	-9.95142
་དེ་ལྟར་	-9.95162
▁བྲམ་ཟེ་	-9.95232
གྲུ་	-9.95239
ནོ་	-9.95248
སེམས་པ་	-9.95251
ཐེག་པ་ཆེན་པོ་	-9.95252
▁མད་གལ་གྱི་བུ་ང	-9.95287
འཁོད་པ་	-9.95287
སྣ	-9.95336
བླ་	-9.95351
མྱ་ངན་ལས་འདས་ནས་	-9.95398
གོ་རྟོགས་	-9.95505
ཆེན་པོ་ཞིག་	-9.95509
ཀུན་ལ་	-9.95512
འདི་གཉིས་	-9.9553
ཁང་པ་བརྩེགས་པ་	-9.95537
མཐུན་ཚོགས་པའི་	-9.95612
ཡོངས་ནས་	-9.95642
མ་ལགས་	-9.95646
ཚན་རིག་པ་	-9.95692
སྤྲུལ་	-9.95696
རབ་ཏུ་བྱུང་སྟེ་	-9.95719
འོས་བསྡུ་	-9.95744
པུས་མོ	-9.95852
ངེས་པར་འབྱུང་བ	-9.95862
པར་གྱུར་ན་	-9.95879
འགྲེལ་	-9.95904
སྟོན་ཏོ་་	-9.9592
རྒྱལ་དབང་	-9.95925
རེ་རེ་	-9.95929
སློང་	-9.95941
ནམ་རྒྱུན་	-9.9598
ཆོས་ནི་	-9.95984
གཉེར་	-9.96032
དགའ་བ་དང་་	-9.96043
དགའ་པོ་བྱུང་	-9.96065
ཆེར་	-9.96072
བྱས་ཤིང་	-9.96086
མྱ་ངན་འདས་	-9.96092
འདི་སྙམ་དུ་སེམས་	-9.96116
སྙིང་བསྡུས་	-9.9613
ཁྲག་ཁྲིག་	-9.96145
ཉིད་ཀྱི་	-9.9615
བསྐྱེད་པ་	-9.96152
སྤངས་པ་	-9.96161
སྐྱེ་བོ་མང་པོ་	-9.96262
བུད་མེད་ཀྱི་	-9.96304
རྣམ་དཔྱོད་	-9.96328
ཀི་	-9.96329
▁ཞེས་སོགས་ཀྱི་	-9.96417
ཞིག་ལ་	-9.96449
ལམ་གྱི་	-9.96454
པའི་འཇིག་རྟེན་	-9.96535
ཡོད་དམ	-9.96552
འཇར་མན་	-9.96556
གོ་ཆ་	-9.96593
བསྐྲུན་	-9.96613
ཀྱིས་གཙོས་	-9.96615
དགོན་	-9.96652
མཚུངས་	-9.96741
སྙམ་སྟེ་	-9.96744
འདི་འདྲ་	-9.96807
ཚད་མེད་པ་	-9.96817
དྲན་རྟེན་	-9.9683
ང་ཚོ་ཚང་མ་	-9.96884
ཧ་ཅང་ཡག་པོ་	-9.96916
གཟབ་རྒྱས་ཞུས་ཡོད	-9.96925
ངག་དབང་	-9.96931
བེད་སྤྱོད་	-9.96957
བགྱི་བའི་སླད་དུ་	-9.96973
ྱ	-9.96973
ཞུ་རྒྱུ་	-9.96982
སོགས་ཀྱིས་	-9.97023
བཟང་སྤྱོད་ཀྱི་	-9.97072
ཏམ་	-9.97128
དྲི་མ་མེད་པའི་	-9.9713
འཐབ་	-9.9714
ལན་གསུང་བ་ནས་དེ་	-9.97191
བྱེད་ཀྱི་	-9.97214
སྦ	-9.9726
ཡིན་པའི་ཕྱིར་རོ་	-9.97264
གནས་སྡོད་	-9.97284
ལགས་ཀྱིས་ས་གནས་	-9.9735
ནང་མི་	-9.97373
དགུང་གྲངས་	-9.97396
བུ་ཆེན་པོའི་མཚན་	-9.97399
མལ་	-9.97529
བུ	-9.9753
ཉན་ཐོས་ཀྱི་ཐེག་པ	-9.97543
གྱི་ཡོད	-9.97571
ཁོ་བོས་	-9.97571
རྙེད་པ་དང་	-9.97604
ཁུངས་	-9.97653
ཐལ་	-9.97699
ཚོགས་ཀྱི་	-9.97703
ཚུད་	-9.9771
སེམས་ཤུགས་	-9.97735
སེང་གེའི་སྒྲ་	-9.97825
མེད་པའོ་་	-9.97849
འདུན་པ་	-9.97854
གཏེར་	-9.97857
བཙུན་མོའི་འཁོར་	-9.97877
་ཏ་	-9.97898
འོ	-9.97933
འདི་དག་གིས་	-9.98015
ཐེངས་དང་པོ་	-9.98016
▁བསྐལ་པར་	-9.98067
ཕྱིའི་	-9.98076
མིས་	-9.98099
དང་་ལུས་དང་་ཡིད་	-9.98106
དེ་ཉིད་དུ་	-9.98155
གཟའ་སྤེན་པ	-9.98157
དེ་གཉིས་ཀྱིས་	-9.98188
སློབ་གྲྭ་ཁག་	-9.98206
ཕྲག་	-9.98234
བྱིན་པ་	-9.98255
རྒྱ་གཞུང་གི་	-9.98256
ནས་དེའི་ཕ་རོལ་	-9.98371
བོད་རིགས་ཚོགས་པ	-9.98423
སྨན་རྩིས་ཁང་གི་	-9.98448
བརྟན་པ་	-9.98459
མོའི་	-9.98535
བརྒྱ་བྱིན་གྱིས་	-9.98674
སྲིད་དོན་ཚོགས་པ	-9.98691
ཕྲ	-9.987
གོ་བསྡུར་	-9.98716
བཏང་བ་	-9.9872
ལ་བརྟེན་	-9.98729
འདེགས་འབུལ་ཞུས་	-9.98733
ཕུན་སུམ་ཚོགས་པ	-9.98742
རིག་གཞུང་དང་	-9.988
བཞག་པ་	-9.98803
མང་པོའི་	-9.98807
འི་སྟོབས་བཅུ་	-9.98816
གལ་ཆེན་པོ་	-9.98821
ཆུ	-9.98885
གནས་སྟངས་སྐོར་	-9.98901
གཅིག་ལ་	-9.98948
སྨྲས་སོ་	-9.99011
སོགས་པ་དགེ་སློང་	-9.99045
བསྒྲགས་	-9.99075
བྱམས་	-9.99085
ལ་སྙོམས་པར་འཇུག་	-9.99097
དགའ་བ་དང་	-9.99134
ད་ལྟར་བྱུང་བ་	-9.99151
ལགས་ཀྱིས	-9.99165
བོད་མི་བཙན་བྱོལ་	-9.99272
མི་འགྱུར་	-9.993
▁ང་རང་	-9.99335
སྐུ་ཚེའི་འཕེན་པ་	-9.99344
མྱ་ངན་གུས་འདུད་	-9.99348
ཕན་ཡོན་	-9.99371
ཕ	-9.99424
རྔམ་སྟོན་	-9.99424
ཡིན་ནམ་	-9.99424
གདོན་	-9.99476
བཟོས་	-9.99477
བཞུགས་པ་	-9.9951
གདུང་	-9.99565
བཀའ་སློབ་ལམ་སྟོན	-9.99615
རྒྱས་པ་	-9.99696
མཇུག་	-9.99724
གང་དང་གང་དུ་སྐྱེ	-9.99762
ཕྱི་ལོ་ཚེས་	-9.99779
ཆོས་རྒྱལ་	-9.99789
བསམ་འཆར་	-9.99803
མི་ལོ་	-9.99863
ལ་དོ་སྣང་	-9.99901
ཆག་	-9.99905
རོ་་	-9.9993
ཐོག་མ་	-9.99932
གང་ན་	-9.99949
རྒྱ་ནག་དང་	-9.99952
དེ་སྔོན་	-10.0004
ཐེ་ཙོམ་	-10.0005
ིང་	-10.0006
དཀའ་སྡུག་	-10.001
བྱ་རྒྱུ་ཡིན	-10.001
ལེགས་བཤད་	-10.0011
བརྒྱན་པ་	-10.0013
མངོན་པར་འདུ་བྱ་བ	-10.0015
ཤུ	-10.0016
མ་ཡིན་ནོ་	-10.0016
▁དེ་ནས་དེའི་ཚེ་	-10.0021
་ཡིས་་	-10.0023
མངོན་སུམ་དུ་བྱ	-10.0024
ལོ་ལྟར་	-10.0025
ལགས་ལ་	-10.0027
གསུང་ཆོས་	-10.0029
རང་བཞིན་གྱི་	-10.0034
སྦྱིན་བདག་	-10.0049
རྟེན་གཞི་བྱས་པ	-10.0049
ཕྱག་ལས་	-10.0051
ཞི་བར་	-10.0055
གཙོ་བོར་གྱུར་བའི	-10.0061
སྲེད་པ་	-10.0067
སོང་བ་	-10.007
སྟོབས་ཆེན་	-10.0072
ཉེ་ལམ་	-10.0078
གནང་ཡོད་པ་མ་ཟད	-10.0079
ཆེ	-10.0081
གནང་སྟེ	-10.0082
བཞུགས་སྒར་རྡ་སར་	-10.0082
མི་རྟག་	-10.0083
ཚགས་ཚུད་	-10.009
ལས་འདས་པ་	-10.0092
་ཞེས་བྱའོ་་	-10.0092
སྔོན་རྩིས་	-10.0092
ཁང་གི་འགན་འཛིན་	-10.0096
▁འགྲོ་བ་	-10.0097
ཚོལ་	-10.0104
ཁུར་	-10.011
ལུང་བསྟན་པ་	-10.0111
བཞིན་པར་	-10.0112
ལ་གནས་པའི་	-10.0113
ལོ་འཁོར་	-10.0113
པ་ཡིན	-10.0113
དགོན་པར་	-10.0114
གློག་	-10.0121
འགྲེལ་བཤད་	-10.0125
རྡོ་རྗེའི་	-10.0126
ངོ་བོ་ཉིད་སྟོང་	-10.0126
ལྷ་ཡི་	-10.0141
བདག་མེད་	-10.0142
ཞིག་ཡོད	-10.0148
དབང་དུ་	-10.0153
ཕྱི་ལོ་བོད་མིའི་	-10.0156
ཁྲིམས་ལུགས་	-10.0156
ཚོགས་པས་	-10.0157
ངེས་པར་འབྱུང་བ་	-10.016
ཡང་དག་པར་ཞུགས་པ་	-10.0163
སྒྲིག་གཞི་	-10.0164
བའོ་་	-10.0174
་ལགས	-10.0177
ནད་གཞི་	-10.0177
གྱུར་་	-10.0178
དེ་ལ་སྨྲས་པ་	-10.018
ཨོ་	-10.0182
ནམ་མཁའི་	-10.0182
ཧིན་སྒོར་	-10.0184
དྲི་མ་མེད་པ་	-10.0187
ཙམ་གྱིས་	-10.0187
ཚོགས་འདུའི་	-10.0188
བོད་མི་མང་	-10.0189
ཡིན་ཏེ	-10.0193
་རྣམས་དང་་	-10.0199
སྔ་	-10.0199
དཔག་ཚད་	-10.0218
འབད་	-10.022
▁དམ་པའི་ཆོས་	-10.0231
གཟའ་པ་སངས་ཉིན་	-10.0233
ཡོང་བཞིན་ཡོད	-10.0236
འཕེལ་བ	-10.0239
རྗེས་སུ་ཡི་རངས་	-10.0243
ཞི་རྒོལ་	-10.0246
བླ་སྤྲུལ་	-10.0255
འཛིན་གྲྭ་	-10.0256
ཨེ་	-10.0259
ཡིད་ཀྱི་རྣམ་པར་	-10.0265
བཙན་	-10.0265
ཁྲི་བཞི་སྟོང་	-10.027
མེ་ལ	-10.0272
པ་ལྟར་	-10.0276
འཕྲུལ་	-10.0276
ལོག་པར་	-10.0276
ལས་ཡོངས་སུ་ཐར་བ	-10.028
བལྟ་ན་སྡུག་པ་	-10.0283
▁འགྲོ་བ་མིའི་	-10.0284
སོ	-10.0295
ནང་སྟོང་པ་ཉིད་	-10.0296
བྱས་པ་ཡིན	-10.03
དེ་ལྟ་བུར་	-10.0304
་བཅས་	-10.0307
རྒྱལ་ཁབ་ཁག་	-10.0313
ནང་སྲིད་	-10.0314
འཁྲིད་	-10.0316
མཐོན་པོ་	-10.0317
འགྲེམས་སྟོན་	-10.0318
་འཇིག་རྟེན་	-10.0322
ཞེས་བྱ་བ་དེ་ནི་	-10.0324
ཕྱག་རྒྱ་	-10.0324
་རུ་	-10.0324
ཅུང་ཟད་	-10.0327
སུས་	-10.0329
རིས་	-10.0329
ཨ་རུ་ན་ཅལ་	-10.0332
གྱི་བར་དུ་	-10.0341
ཆོས་གང་ཡང་	-10.0341
་དྭགས་པོ་བསོད་ནམ	-10.0344
འགའ་	-10.0348
རྒྱུད་ཀྱི་	-10.0348
མཛད་རྗེས་	-10.0349
དེ་རིང་འདིར་	-10.035
གཡོ་	-10.035
འི་འགན་འཛིན་	-10.0352
ཉེར་	-10.0352
ིན་	-10.0353
ཡི	-10.0353
གཞུང་དང་གཞུང་	-10.0355
རྩྭ་	-10.0358
གནང་དགོས	-10.0361
འགོག་པ་	-10.0365
འཐུས་མི་ལ	-10.0369
གོ	-10.037
ར་བྱེད་དེ་	-10.0371
ཚུལ་བཞིན་	-10.0371
ཁོ་བོ་	-10.0373
▁བཟང་སྐྱོང་	-10.0375
ཐུགས་སུ་ཆུད་ནས་	-10.0384
ཤེས་ཏེ་	-10.0384
འབྲུག་	-10.0388
ཡི་དགས་	-10.0391
མང་གཙོ་དང་	-10.0394
་ཡིན་ཏེ་	-10.0394
གནམ་གཤིས་	-10.0397
བསྐུལ་	-10.0399
བསྐོར་བ་	-10.0401
དམར་	-10.0403
ཡོད་པ་རྣམས་	-10.0403
འོངས་	-10.0403
བཞུགས་སྒར་དུ་	-10.0404
བཏབ་	-10.0405
གདན་ས་	-10.0406
▁འདུ་བྱེད་	-10.0407
ཚན་པའི་འགན་འཛིན་	-10.0408
བྱེད་པ	-10.041
ཟེར་	-10.0413
ཡིན་འདུག	-10.0415
ཤོད་	-10.0415
ིའི་	-10.0417
ཀྱི	-10.0417
འདབ་མ་	-10.0422
འཐོབ་	-10.0428
བདུད་སྡིག་ཅན་	-10.043
མིར་	-10.043
འདུས་མ་བྱས་	-10.0433
མང་ཚོགས་	-10.0435
སྤ	-10.0436
འཕྲུལ་ཆས་	-10.0436
ནས་དེ་	-10.0441
དེ་སྙེད་	-10.0441
དམིགས་སུ་མེད་པ	-10.0442
པའི་ཚིག་བླ་དགས་	-10.0445
འགོ་འཛུགས་	-10.0446
རེས་	-10.045
དབུས་སུ་	-10.0451
ཁོ་	-10.0456
བལ་ཡུལ་	-10.0457
འབྲེལ་མཐུད་	-10.0458
གསུངས	-10.0462
▁གང་ལ་	-10.0466
ལེ	-10.0467
་ཀ་	-10.0468
ཕྱོགས་ཕེབས་གནང་	-10.0468
ཆོས་ཀྱི་རྣམ་ག	-10.0468
ལུང་སྟོན་	-10.047
སྐར་མ་	-10.0473
▁འདིས་	-10.0475
སྒེར་	-10.0477
ན་ལེནྡྲའི་	-10.0477
བོད་ཁྱིམ་	-10.0479
གྱི་ཁམས་མི་མཇེད་	-10.0483
▁འདས་པའི་ལོ་ངོ་	-10.0483
ལགས་རྣམ་གཉིས་	-10.0483
བར་གྱུར་ཏོ་་	-10.0484
ཐུབ་ཡོད	-10.0488
ཉམས་པ་	-10.0489
དངོས་གནས་	-10.0489
དགེ་སློང་མ་	-10.0489
ཁབ་	-10.0489
གནང་ནས་	-10.049
ཞུ་བ་	-10.0492
དགོས་པ་རེད	-10.0494
འདུགཕྱོགས་མཚུངས་	-10.0495
དཔག་མེད་	-10.0496
གང་གའི་ཀླུང་ག	-10.0496
ཁང་པ་	-10.0501
བཅོམ་པ་	-10.0504
ཕོ	-10.0509
གུས་	-10.0512
▁ཀ་ཤི་ཀ་	-10.0513
་སྐོར་དང་	-10.0514
དེ་ལ་ཡང་	-10.0515
བྱེད་པ་་	-10.0515
སྐྱོད་	-10.0515
དང་ཐབས་ཅིག་ཏུ་	-10.0517
འགྲེལ་བརྗོད་	-10.0523
གྲོང་ཁྱེར་གྱི་	-10.0524
བརྟན་བཞུགས་བསྟར་	-10.0529
ཚིགས་	-10.053
ཤ་སྟག་	-10.053
ོང་	-10.0533
རྒྱ་མཚོ་ཆེན་པོ་	-10.0533
དང་འདྲ་བ་	-10.0534
བཟང་ཕྱོགས་ཀྱི་	-10.0535
ནམ་མཁའ་ལ་	-10.0536
ཧ་ལམ་	-10.0536
ལན་འདེབས་	-10.0537
གནས་ཏེ་	-10.0539
▁སྐད་ཡིག་	-10.054
རྒྱུ་ཡིན་པ་	-10.054
་བཅས་ཀྱི་	-10.054
བོ་་	-10.0541
དྲུང་དུ་	-10.0542
འཇོམས་	-10.0542
མདུན་ལམ་	-10.0543
མི་དགེ་བའི་ཆོས་	-10.0544
འདི་དག་ཐམས་ཅད་	-10.0547
བཀ	-10.0547
ངོ་བོ་ཉིད་ཀྱིས་	-10.0549
་ཇི་སྙམ་དུ་སེམས་	-10.0558
རིགས་ཀྱི་བུ་ཆོས་	-10.0559
སྟོན་པའི་	-10.056
སོགས་ནས་	-10.056
སྦྱར་བར་བྱའོ་་	-10.0561
ར་མི་འགྱུར་	-10.0561
ཉམས་ཞིབ་ཁང་གི་	-10.0564
ལི	-10.0567
དབུ་འབྱེད་གནང་	-10.0575
▁ཀྱེ་རྒྱལ་པོ་	-10.0578
སྨན་གྱི་	-10.0578
རྐྱེན་པས་	-10.0578
▁དུས་རབས་	-10.0579
གསོད་	-10.0581
འི་སྐོར་	-10.0581
ན་གཞོན་	-10.0585
འཛིན་པ་དང་་	-10.0599
བ་བཏུད་དེ་	-10.0602
བརྒྱབ་	-10.0604
ཨུ་རུ་སུའི་	-10.0607
མི་སྤྱོད་	-10.0609
་འདི་ནི་	-10.0612
འདིར་ནི་	-10.0613
པད་མའི་	-10.0615
བློན་ཆེན་ཟུར་པ་	-10.0616
དུའང་	-10.0618
▁ཕྱིས་སུ་	-10.062
དེ་དང་འཐུན་པའི་	-10.0623
གཏན་འཁེལ་	-10.0632
རྟོགས་པར་	-10.0635
ཚུན་ཆད་	-10.0637
ལེའུ་	-10.0639
ཆོས་སྨྲ་བ་	-10.0639
གས་ཀྱི་	-10.064
བདེ་དོན་	-10.064
རྨ་	-10.0642
འབྱུང་་་	-10.0647
་གཡས་པའི་ལྷ་ང་	-10.0648
རྣམ་རྟོག་	-10.065
པ་ལགས་	-10.0651
ཆེ་བསྟོད་	-10.0656
ཐོགས་ཏེ་	-10.0657
སུམ་ཅུ་རྩ་གསུམ་པ	-10.0658
བརྟེན་	-10.0659
མང་ཚོགས་ཀྱི་	-10.066
▁དེ་འདྲའི་	-10.0661
ཀྱི་སྲིད་བྱུས་	-10.0663
གཟུངས་	-10.0665
ཅེས་བྱ་སྟེ་	-10.0668
གནང་མཛད་	-10.0669
རྡོག་རོལ་གཏོང་	-10.067
བསྡུས་	-10.0671
རབ་ཏུ་ཤེས་སོ་་	-10.0674
རང་བྱུང་	-10.0677
ཇ	-10.068
▁རྒྱ་གར་ནང་	-10.0681
དེའི་ཚེ་དེའི་ད	-10.0682
▁འདོད་ཆགས་	-10.0683
མེས་	-10.0688
▁དེ་གཉིས་	-10.0689
དེས་སྨྲས་པ་	-10.0691
ཡོད་ན	-10.0691
བྱ་སྤྱོད་	-10.0692
ལྟོས་	-10.0692
སྔོན་གྱི་མཐའ་	-10.0694
▁ཤེས་ཡོན་	-10.0697
ཕབ་	-10.0699
དང་་བཟོད་པའི་	-10.07
སོ་ཞེས་	-10.0701
བསྟན་་	-10.0702
རྣམ་པར་ཤེས་པ	-10.0704
བོད་རྒྱའི་	-10.0707
རེག་པ་	-10.0707
དེ་འདྲའི་ཐོག་ནས་	-10.0708
ལྟ་བུ་དང་་	-10.0708
དེ་ཡང་མི་དམིགས་	-10.0709
སྒྲོགས་	-10.0714
ོ	-10.072
ཞི་བ	-10.0727
བཀའ་ཤག་	-10.0727
གཅིག་དང་	-10.0731
གནས་པར་	-10.0732
བསྟན་ཏེ་	-10.0739
པ་ཡིན་ན	-10.0741
ཇི་ཙམ་དུ་	-10.0741
བརྩམས་	-10.0742
ལྟ་ཅི་སྨོས་	-10.0743
གཟེངས་བསྟོད་	-10.0746
ཅ	-10.0752
དབ	-10.0752
ངོ་སྤྲོད་དང་	-10.0753
སྤྲུལ་པའི་	-10.0758
འབར་	-10.0762
འགའ་ཞིག་	-10.0763
བཞུགས་སྒར་རྡ་ས་	-10.0767
དྲུག་ཅུ་	-10.0767
དབུ་བཞུགས་ཐོག་	-10.0769
སྐད་ཅིག་	-10.0773
ཧིན་སྒོར་འབུམ་	-10.0774
བོད་མིའི་ཐོག་	-10.0778
ཚན་	-10.0779
ཞུས་པ་དང་སྦྲགས	-10.0782
སྒང་	-10.0785
རིམས་སྔོན་འགོག་	-10.0788
ང་ཉིད་	-10.0797
བཞིན་པ་	-10.0799
མཁས་པས་	-10.0801
▁སྲོག་ཆགས་	-10.0801
▁ག	-10.0803
མཚན་མ་མེད་པ་དང་་	-10.0811
ལ་མཚོན་ནའང་	-10.0812
སྲང་	-10.0813
བོད་མི་ཚོའི་	-10.0814
གོང་འཕེལ་	-10.0815
ངོན་སུམ་དུ་བྱེད་	-10.0816
སྒྲོན་མ་	-10.0817
བག་ཆགས་	-10.0821
ཁྲི	-10.0825
དི	-10.0825
དང་བསྟུན་	-10.0825
རིས་མེད་	-10.0826
གནོད་སེམས་	-10.0828
འགོད་	-10.083
སླད་དུ་	-10.0833
ཁག་གཅིག་ལ་	-10.0837
སྨན་ཁང་	-10.0841
ཐ་དད་པ་	-10.0842
བླ་མེད་	-10.0842
ཕེབས་འབྱོར་སྐབས་	-10.0843
སྦྱིན་པ	-10.085
དོང་	-10.0852
ཡོང་དུས་	-10.0852
ཤེས་པ་ཞེས་བྱ་སྟེ	-10.0852
པར་འབྱུང་བ་	-10.0858
རྒྱལ་ས་ལྡི་ལིར་	-10.0858
རུས་	-10.0859
རྫོགས་པའི་	-10.087
བརྒྱན་	-10.0874
གནས་ནས་	-10.0877
ཡོང་རྒྱུར་	-10.0878
▁ལྷའི་	-10.088
བྲན་	-10.0881
དགེ་འདུན་འཚོ་	-10.0885
ཡིད་དུ་འོང་བ་	-10.0887
བསྐོ	-10.0888
▁སྐྱེས་བུ་	-10.0889
དུས་ཡུན་	-10.0893
ཚུལ་བཞིན་དུ་	-10.0898
འགྲོ་བ	-10.0901
དཔོན་	-10.0902
འཆི་མེད་	-10.0903
ར་བྱས་ནས་	-10.0906
དུས་ཆེན་	-10.0908
སྙམ་	-10.0911
▁ཉོན་མོངས་པ་	-10.0914
གཡོས་	-10.0918
གཉིས	-10.0918
བོད་མཐོ་སྒང་གི་	-10.0918
ཡུལ་མི་	-10.092
ཐོག་དམ་བསྒྲགས་	-10.0921
བཀའ་སྩལ་ནས་	-10.0925
ཤེས་ནས་	-10.0928
རྒྱ་ནག་ལ་	-10.0929
གཙོ་བོ་ནི	-10.093
ཕྱུང་	-10.0941
ལགས་ཀྱི་	-10.0942
གསང་བ་	-10.0948
ཐམས་ཅད་དང་ལྡན་པ	-10.0948
ཅེས་བྱ་བ	-10.0949
པར་བརྟེན	-10.0951
▁ཡུལ་	-10.0954
བུའི་	-10.0958
▁ངའི་	-10.0961
འབོད་	-10.0963
གཙོ་བོར་	-10.0969
རྒྱབ་སྐྱོར་བ་	-10.097
འབྱུང་བའི་	-10.0972
བཞིན་པ་དང་	-10.0974
རག་	-10.0977
▁འདས་པའི་	-10.0979
སྐྱོ	-10.0981
བཀའ་ཤག་གིས་	-10.0985
པ་ཡིན་ནོ་	-10.0987
འབར་བ་	-10.0989
▁ང་ནི་	-10.0994
ཁེ་	-10.0995
སྐྱབས་མགོན་ཆེན་པ	-10.1
དགྲ་བཅོམ་པ་ཉིད་མ	-10.1007
འཁོར་ལྷ་ཚང་བསོད་	-10.1008
བསམས་	-10.1008
མྱོང་ཡོད	-10.1015
པ་སོགས་	-10.1018
ང་ཡིས་	-10.1018
གྲངས་གསུམ་རིང་	-10.1019
ཆ་ནས་	-10.1022
མཛད་སྒོའི་	-10.1022
ཉིད་དང་་	-10.1024
གཟུགས་ཅན་སྙིང་པོ	-10.103
འཁྲུག་	-10.1032
▁ཤིན་ཏུ་	-10.1036
ཡིད་ཀྱི་	-10.1038
མ་འོངས་པའི་	-10.1038
རིང་ལུགས་ཀྱི་	-10.1039
ལ་བ	-10.104
ཟེར་རྒྱུ་འདི་	-10.104
དེ་སྐད་	-10.1041
དེར་བརྟེན་	-10.1042
▁བདེ་བར་གཤེགས་པ་	-10.1043
གཞུང་དང་	-10.1056
ཉན་ཐོས་ཆེན་པོ་	-10.1057
ཟུར་པ་	-10.1058
གནང་རྗེས་	-10.1059
▁ས	-10.1063
ར་བགྱིའོ་་	-10.1065
ཤིང་ལྗོན་པ་	-10.1066
་ཉིད་	-10.1068
ཀརྨ་ཡེ་ཤེས་མཆོག་	-10.1068
འི་འབྲས་བུ་དང་་	-10.1068
འབྱུང་གནས་	-10.1071
ལྷ་སར་	-10.1072
རྟོག་	-10.1078
ཐུབ་པར་	-10.1086
གཟུང་	-10.109
མཇལ་འཕྲད་	-10.1095
བོར་	-10.1095
པར་གྱུར་	-10.1095
ཉན་ཐོས་དང་རང་	-10.1096
འགྲོ་རྒྱུ་	-10.1099
ཐང་ལྷན་ཁང་གི་	-10.1104
▁ཕྱི་རྒྱལ་	-10.1108
གྲོང་ཁྱེར་ཆེན་པོ	-10.1114
▁དེང་སང་	-10.1119
ཆོས་བསྟན་ཏེ་	-10.1123
▁གོང་ས་	-10.113
སྨན་གྱི་རྒྱལ་པོ་	-10.113
དགོངས་པ་བཞེས་	-10.1132
བྱིན་གྱི་རླབས་	-10.1134
སི	-10.1134
ག་ལ་བ་དེར་སོང་	-10.1137
དུས་སྟོན་	-10.1137
འདོད་པ་དང་་	-10.1139
མ་མཆིས་་	-10.114
རྗེས་སུ་མི་མཐོང་	-10.1142
ལྷུན་པོ་	-10.1142
དང་ལྡན་པ	-10.1143
སྤྲོ་	-10.1161
ཕུག་	-10.1161
ཨ་རིའི་གཞུང་གིས་	-10.1161
་འདོད་རྒུ་གླིང་	-10.1162
▁རིགས་ཀྱི་བུ་འདི	-10.1164
རབ་ཏུ་མཁྱེན་	-10.1164
་འདུ་བྱེད་རྣམས་	-10.1165
གྱི་ཁམས་འདི་	-10.1165
འགྲེམས་སྤེལ་	-10.1166
མིང་དང་གཟུགས་	-10.1166
ལྟས་	-10.1167
དང་དེ་བཞིན་	-10.117
ཞབས་འདེགས་	-10.1172
ཆོས་དེ་དག་	-10.1172
བསྟི་གནས་	-10.1173
་ལགས་	-10.1173
འོད་གསལ་	-10.1177
གནང་ཡོད་འདུག	-10.1177
བྱེ་བ་ཕྲག་	-10.1185
པི་	-10.1188
མི་བྱེད་་	-10.1192
གསུང་འདོན་གནང་	-10.1196
གདུལ་བྱ	-10.1199
▁བཅུ་གང་ཞེ་ན་	-10.12
་དེ་ཚེ་	-10.12
དྲག་པོ་	-10.1202
ལྔའི་	-10.1206
གང་ལགས་	-10.1207
བདེ་འཇགས་	-10.1209
བཏགས་	-10.1214
དང་་རྣམ་པར་ཤེས་པ	-10.1214
འཛིན་བཟུང་བྱས་	-10.1215
ཡིད་འོང་	-10.1215
ལ་བརྩོན་	-10.1228
བདེ་སྡུག་	-10.123
ཁྲ	-10.1232
་འདི་ལྟར་	-10.1238
པར་མི་བྱེད་	-10.1242
སྒ	-10.1244
ཐབས་མཁས་པ་	-10.1244
▁སྡུག་བསྔལ་	-10.1246
སྙིང་རྗེའི་	-10.1249
ར་མི་བྱེད་དོ་་	-10.1258
ཚན་པ་	-10.1258
འཇིག་ཚོགས་ལ་ལྟ་བ	-10.1262
མང་གཙོའི་ཀ་བ་	-10.1263
སྤྲོས་པ་	-10.1265
འི་སྐབས་	-10.1266
འཆི་བ་	-10.1268
▁དེ་ནས་ཡང་	-10.127
ཟབ་	-10.1273
སྦྱངས་	-10.1275
ཡང་དག་པར་འཛིན་	-10.1276
པད་མ་དཀར་པོའི་	-10.1276
ཆོས་དང་	-10.1279
བསལ་	-10.1287
ཧ་ཅང་ཆེན་པོ་	-10.1287
རྣམ་པ་གཉིས་	-10.1288
འབུམ་རམས་པ་	-10.129
སེམས་འཚབ་	-10.1293
ཞུགས་ཏེ་	-10.1294
བཀའ་སྩལ་ཏོ་	-10.1294
ཡོང་ཐབས་	-10.1295
འཁྱེར་	-10.1295
ཇི་སྙེད་ཡོད་པ་	-10.1295
ཕྱོགས་ཀྱི་	-10.1297
དང་་ཞེ་སྡང་དང་་	-10.1303
ཐང་གི་	-10.1304
▁མི་རིགས་	-10.131
དེ་ཚོ་	-10.1313
དྲི་བར་ལན་འདེབས་	-10.1315
སངས་རྒྱས་རྣམས་	-10.1315
འགྲོ	-10.1317
དགའ་བར་	-10.1318
བཟོད་པའི་	-10.1323
ཀེ	-10.1326
ཕེབས་སྐབས་	-10.1327
▁བསོད་ནམས་	-10.1331
གཞོན་	-10.1333
བཟའ་	-10.1333
ལྔ་བཅུ་	-10.1335
སེམས་ཅན་གང་དག་	-10.1344
སྐོར་གྱི་	-10.1349
བོད་མི་དང་	-10.135
ཨི	-10.135
་ཡིན་དུ་བཅས་པའི་	-10.1351
དུས་ཐོག་	-10.1352
སངས་རྒྱས་པའི་	-10.1361
པ་ཡིན་ཏེ་	-10.1363
ཡོད་པས	-10.1363
བཙོན་འཇུག་	-10.1364
དེ་འདྲ་ཞིག་	-10.1366
ནམས་སྟོབས་རྒྱལ་	-10.1368
འཕྲོག་	-10.1369
ཙམ་ཡང་	-10.1373
འཕྲལ་	-10.1376
སྐྱོབ་	-10.1377
▁ཀ	-10.1378
མཐར་གྱིས་	-10.1383
གཙོ་	-10.1383
འི་གནས་	-10.139
འདུགཅེས་	-10.1392
ལྟ་སྨོས་ཀྱང་ཅི་	-10.1392
སྐྱེ་བའི་	-10.1392
འི་ཐོག་	-10.1393
ལོ་ངོ་སྟོང་ཕྲག་	-10.1396
གློ་བུར་དུ་	-10.1398
ཤེས་རྟོགས་	-10.1399
མངོན་པར་བསྟོད་དོ	-10.14
སྲ་བརྟན་	-10.14
སྲིད་བྱུས་འོག་	-10.1402
གང་དག་གིས་	-10.1403
སངས་རྒྱས་ཀྱིས་	-10.1405
གང་འདྲ་	-10.1405
ཅེས་བྱ་བ་ཡོད་དེ་	-10.1412
ཆོས་སྟོན་ཏོ་་	-10.1413
ཚེ་རིང་ལགས	-10.1413
དང་བཅས་པར་	-10.1418
ལུས་པོའི་	-10.142
འདི་སྙམ་དུ་	-10.1425
སྐུ་པར་	-10.1431
ཞུས་ཏེ་	-10.1433
མི་དམིགས་པ་	-10.1433
ནན་	-10.1434
མིག་གི་ཁམས་	-10.1435
ར་བྱེད་པ་	-10.1439
▁དེ་དག་གི་	-10.1441
▁བོད་པའི་	-10.1442
ཡོངས་ཁྱབ་	-10.1443
འགྱུར་བའི་	-10.1445
སྐྱེ་མཆེད་དྲུག་	-10.1446
སྤྱི་ཚོགས་ཀྱི་	-10.1451
སོ་སོའི་སྐྱེ་བོ་	-10.1452
ལམ་སྲོལ་	-10.1454
ཐོགས་པ་	-10.1454
ཅེས་བྱ་བའི་	-10.1457
འགྲམ་	-10.1459
ཕེབས་བསུ་	-10.1464
མདོ་སྡེ་འདི་	-10.1469
པ་མེད་པ་དང་་	-10.1472
དེ་དག་ལས་	-10.1475
ཁོང་ལ་	-10.1477
བཅའ་ཁྲིམས་	-10.148
ནགས་	-10.148
དང་་ཤེས་རབ་ཀྱི་	-10.1481
གྲོས་མཐུན་	-10.1482
་མཆོག	-10.1486
སྡོམ་པ་	-10.1488
གཟིགས་འབུལ་ཞུས་	-10.149
རྒ	-10.1494
སྡོམ་	-10.1497
མ་མཆིས་པར་	-10.1497
དྲུང་འཕར་	-10.1497
དམིགས་བསལ་གྱི་	-10.1507
བདེ་གཤེགས་	-10.1512
སངས་རྒྱས་ཡེ་ཤེས་	-10.1517
སྲོལ་རྒྱུན་གྱི་	-10.152
རོལ་	-10.1521
མཉམ་པར་	-10.1521
ང་མཉེས་པར་བྱས་ཏེ	-10.1523
གི་དབང་པོ་ནི་	-10.1528
གྲང་	-10.153
བརྒྱ	-10.1533
ཤེས་་	-10.1534
གོང་ས་མཆོག་གིས་	-10.1534
ཤུལ་	-10.1535
རྒྱལ་པོས་	-10.1535
ཐེབས་	-10.1537
་རྣམས་ཀྱིས་	-10.154
▁སྔོན་གྱི་	-10.1546
བྱུང་བ་དང་	-10.1548
རེ	-10.1548
ཞག་	-10.1551
གླང་པོ་	-10.1552
བསྟན་པར་	-10.1553
ད་རེས་	-10.1555
གཞུང་མང་གཉིས་ནས་	-10.1559
▁མ་ཕམ་པ་	-10.1561
▁དུས་	-10.1561
▁ཉི་ཧོང་	-10.1562
སློབ་གཉེར་ཁང་གི་	-10.1565
གང་གི་ཕྱིར་	-10.1565
ཁ་གསལ་	-10.1568
པར་གྱུར་ཅིག་	-10.1576
པར་འགྱུར་བ་དང་་	-10.1579
ཐབས་ཤེས་	-10.1586
འཚལ་བ་	-10.1587
ཡོངས་ཀྱི་	-10.1593
ཡོང་སླད་	-10.1595
འདི	-10.1597
ལྡི་ལིར་	-10.1598
▁དེས་དེར་	-10.16
བསྐོར་	-10.16
ངན་སོང་	-10.1602
▁དྲང་སྲོང་	-10.1603
བཤད་ཀྱི་ཡོད	-10.1605
ཐབས་ལ་མཁས་པ་	-10.1605
མེད་པའི་ཕྱིར་	-10.1606
ལམ་ལུགས་ནང་	-10.1609
གནང་རྗེས	-10.161
སྔ་མ་	-10.1611
ཚོང་ལས་	-10.1611
མི་ཤེས་པ་	-10.1613
རྒྱ་ཆེན་	-10.1614
▁རྒྱ་གཞུང་གིས་	-10.1622
སྟོན་པར་བྱེད་པ་	-10.1629
ཞིག་ཡིན་པ་དང་	-10.163
བཀའ་མོལ་	-10.1632
་འཛུགས་ཀྱིས་	-10.1632
མུན་པ་	-10.1633
མཆིས་པ་	-10.1635
མེའི་	-10.1636
འི་བཅའ་ཁྲིམས་	-10.1638
དང་འདྲ་བར་	-10.1639
འགོག་པ་ཤེས་པ་	-10.1639
ཧ་ཅང་མང་པོ་	-10.164
མན་	-10.1642
་པ	-10.1651
གང་མགྱོགས་	-10.1654
བ་ལྟ་ག་ལ་མཆིས་	-10.1657
ཕེབས་ནས་	-10.1659
འདི་ལོའི་ཕྱི་ཟླ་	-10.1662
ཁག	-10.1663
ནན་ཏན་	-10.1664
ལོགས་སུ་	-10.1664
མེད་པ	-10.1665
ཧུ་	-10.1666
བསྐལ་པ་བཟང་པོ་	-10.1667
གཤེགས་སོ་་	-10.167
སྤྱོད་པ་དང་་	-10.1671
འབྲས་སྤུངས་	-10.1672
ཀྱི་གྲོས་ཚོགས་	-10.1675
གསར་འཛུགས་གནང་	-10.168
སྲེད་མེད་ཀྱི་བུ་	-10.1682
ར་མི་བགྱིད་	-10.1687
ངེས་པ	-10.1687
མཚམས་འཇོག་	-10.1695
རབ་ཏུ་འབྱུང་བར་	-10.1695
ཐ་ན་	-10.17
ཆོག	-10.1701
པར་མི་འགྱུར་	-10.1703
སྤོང་བ་	-10.1716
ས་ན་	-10.1718
ལྷ་དང་བཅས་པའི་	-10.1719
ཡར་རྒྱས་ཐེབས་རྩ	-10.1722
མཛད་དེ་	-10.1727
འཕྲིན་ལས་	-10.1728
ཤུགས་ཆེ་གནང་	-10.1732
ཁག་དང་	-10.1732
ག་ལ་	-10.1734
དམག་མི་	-10.1734
གཟའ་པ་སངས	-10.1735
ཐམས་ཅད་ལས་	-10.1739
ཡུམ་	-10.1741
བླངས་པ་	-10.1742
གཏན་	-10.1745
འདུན་	-10.1745
ཡིག་རྒྱུགས་	-10.1748
གནམ་	-10.175
འཕར་	-10.1766
རབས་	-10.1767
བྱ་བ་བཞུགས་ཏེ་	-10.1767
གུས་པར་	-10.1769
ཡིན་འདུག་པ་བཅས	-10.1769
ཆོས་འདི་	-10.177
▁འོད་སྲུང་	-10.1776
▁ལ་དྭགས་	-10.1776
ཚོགས་པ་དང་	-10.1777
བཅུ་དྲུག་	-10.1778
▁ཁ་ཅིག་	-10.1779
ཚེ་རབས་	-10.1787
རྫ	-10.1787
དེས་ན་	-10.179
སུ་ཡང་	-10.1791
རིམ་གྲོ་	-10.1793
སྐུལ་	-10.1795
འཛུམ་	-10.1796
བརྟག་	-10.1798
ལོ་རྒྱུས་ཀྱི་	-10.1798
བྱམས་པ་དང་བརྩེ་བ	-10.1798
མི་རབས་	-10.1801
དང་མཐུན་པའི་	-10.1802
མཆོག་གིས་གཙོས་	-10.1803
བཀའ་དྲིན་བསྐྱངས་	-10.1805
ལྷན་ཁང་གི་	-10.1805
བཀོད་ཁྱབ་	-10.1808
བྱས་་	-10.1811
ཀྱི་ཐོག་ནས་	-10.1817
ཕྱོགས་དང་	-10.1819
དང་་བསམ་གཏན་གྱི་	-10.1819
སྲིད་གཞུང་	-10.1822
དག་མངོན་པར་འདུས་	-10.1822
རྒྱ་སྐྱེད་	-10.1833
དགོངས་ཚུལ་	-10.1835
ཁོངས་སུ་	-10.1837
ཟད་པ་	-10.1837
ཞེ་	-10.1839
མས་གང་གའི་ཀླུང་ག	-10.184
ཆང་	-10.1841
་པ་རེད	-10.1844
འོང་བ་	-10.1845
དེ་བཞིན་ཏེ་	-10.1847
སྐལ་	-10.1847
ལྷོ་ཨ་ཕི་རི་ཀའི་	-10.1852
སློབ་ཕྲུག་གྲངས་	-10.1854
ཚུར་ཤོག་	-10.1857
ཕུལ་ཏེ་	-10.1857
འགན་འཛིན་རྣམ་པ	-10.186
ཇི་ཡོད་	-10.1861
ཡིན་ན	-10.1865
ཆོད་	-10.1866
▁དགེ་སློང་དག་ང་	-10.1867
གྱིས་་	-10.1868
སེམས་ཅན་རྣམས་ཀྱི	-10.1871
བཀའ་ཤག་ནས་	-10.1871
ཧོ	-10.1872
བཞུགས་སོ་་	-10.1874
ཁུལ་དེར་	-10.1874
བྱེད་པར་	-10.1877
▁བཅོམ་ལྡན་འདས་ག	-10.1879
བོད་ནང་དུ་	-10.1881
འཐོན་	-10.1888
གྱི་སྲིད་བྱུས་	-10.1889
མཐོ་	-10.189
མ་ཡིན་་	-10.1893
དབུགས་	-10.1896
སྟེན་	-10.1896
འི་གནས་སུ་	-10.1902
སྡུག་བསྔལ་བ	-10.1905
དཔག་ཏུ་མེད་པའི་	-10.191
འཚམས་གཟིགས་གནང་	-10.192
▁རང་གི་	-10.1922
▁ཉེ་ལམ་	-10.1923
ལྷུང་	-10.1925
ཁག་ཅིག་	-10.1926
སྟོབས་དང་	-10.1927
འགྲོ་སྟངས་	-10.1928
ཞིག་ཆགས་	-10.1928
གནས་སྟངས་དང་	-10.1929
བརྗོད་དུ་མེད་པ	-10.193
ཧ་ལས་པའི་	-10.1931
སྔར་ལྷག་	-10.1935
སྤྱི་ཡོངས་ཀྱི་	-10.1935
བསྟན་ནས་	-10.1935
དུས་སྐབས་	-10.1937
ལྡང་	-10.1939
ི་བྱེ་མ་སྙེད་དག་	-10.1941
སྦེལ་ཇམ་	-10.1942
མ་སྐྱེས་པ	-10.1943
གློད་བཀྲོལ་	-10.1944
ཁྲིམས་ཞིབ་ཁང་གི་	-10.1945
མི་སེར་	-10.1948
ཇི་འདྲ་ཞིག་	-10.1953
ཁང་དུ་	-10.1956
བརྡ	-10.1957
ཐམས་ཅད་དང་་	-10.196
བ་རྣམས་	-10.1962
ཆུས་	-10.1964
▁བསྐལ་པ་	-10.1968
▁མཐའ་དོན་	-10.1969
ཞུས་པ་ཡིན	-10.1973
སྔོན་ལ་	-10.1974
བོད་ནང་གི་ཛ་དྲག་	-10.1982
ལྟར་མི་བལྟ་སྟེ	-10.1984
ཕྱིར་ཡང་	-10.1984
དགེ་སྦྱོང་དང་	-10.1988
རྒྱ་མི་	-10.1989
དཔོན་རིགས་	-10.199
འབད་བརྩོན་གནང་	-10.1991
སྔོན་དུ་	-10.1992
རྨོངས་པ་	-10.1995
ཤེས་རབ་ཀྱིས་	-10.1998
ལྡན་པ་ཞིག་	-10.2003
ས་སོ་་	-10.2005
དེ་མཐོང་ནས་	-10.2006
རྩ	-10.2006
འི་སངས་རྒྱས་འོད་	-10.2007
བསམས་ནས་	-10.2007
ཡང་དག་པའི་མཐའ་	-10.2008
འདུལ་བའི་	-10.2008
འདི་ལས་	-10.2009
གོང་གསལ་	-10.2012
དྲིས་པ་	-10.2013
སྨོན་པ་མེད་པ་	-10.2014
ཐེ	-10.2015
སད་	-10.2018
པྲ	-10.2019
ཐུན་མིན་	-10.2021
དགེ་བའི་རྩ་བ་རྣམ	-10.2027
ནང་པའི་ལྟ་གྲུབ་	-10.2033
བོད་མི་ཡོངས་ཀྱི་	-10.2038
དཀའ་ཐུབ་	-10.204
རྒྱ་ནག་གིས་	-10.2041
ད་རྡུལ་དངོས་ཁམས་	-10.2043
རྣམ་པ་ཐམས་ཅད་དུ་	-10.2043
བའི་དོན་དུ་སྔོན་	-10.2045
དྲིས་	-10.2046
མོར་	-10.205
སྟོང་པ་ཉིད་ལ་	-10.2052
དོན་དམ་	-10.2052
དབང་པོའི་	-10.2053
ན་ཚ	-10.2055
་བའི་རིགས་སུ་	-10.2056
ཇ་	-10.2057
▁ཕྱི་དྲིལ་	-10.2063
བ་བཏུད་ནས་	-10.2065
བྲག་	-10.2065
ཁྱེའུ་དེ་	-10.2071
དག་གིས་སྨྲས་པ་	-10.2072
གང་དག་ཡིན་པ་	-10.2073
ེན་གཟབ་རྒྱས་ཞུས་	-10.2074
པར་གྱིས་་	-10.2075
ཕྱག་འཚལ་ནས་	-10.2076
དེ་དང་རྐྱེན་དེ	-10.2078
དུས་དྲན་	-10.2081
གནང་འདུགདེ་ཡང་	-10.2082
རྣམས་ཀྱི་ནང་དུ་	-10.2084
ཅེས་བྱའོ་་	-10.2089
སེང་གེའི་ཁྲི་	-10.2089
གནད་འགག་	-10.2092
རིན་	-10.2093
▁ཧོང་ཀོང་	-10.2093
ར་གྱུར་པའི་	-10.2094
རྐྱེན་གང་དག་གིས་	-10.2098
གོང་འཕེལ་གཏོང་	-10.21
ལོ་་	-10.2103
གངས་སྐྱིད་	-10.2107
དེ་བདག་གིས་	-10.2108
ཞེན་	-10.2115
ཚངས་པས་བྱིན་	-10.2116
བསྙེན་	-10.2125
འི་ཐོག་ནས་	-10.2126
ཐབས་ཀྱི་	-10.2127
གསལ་བ་	-10.2129
འི་སྐུ་	-10.2132
▁འདྲེན་པ་	-10.2134
ལ་མཆོད་པ་	-10.2135
ནྡ	-10.2135
མ་ཡིན་པ་དང་་	-10.2135
མཛད་ནས་	-10.2142
ཞུགས་ཏེ་དེའི་ཚེ་	-10.2143
གསལ་བར་	-10.2147
རྣ་བ་	-10.2148
གསོ་	-10.215
འཆང་	-10.215
བྱེད་སྟངས་	-10.2151
ཨོ་གླིང་	-10.2154
ཉོན་མོངས་པ་མེད་པ	-10.2154
པར་མི་འགྱུར་རོ་་	-10.2155
མཆོད་སྦྱིན་གྱི་	-10.2159
▁ཆོས་རྣམས་	-10.2162
ཡི་རངས་ཏེ་	-10.2163
▁ད་དུང་	-10.2168
རྒྱ་དཀར་ནག་གཉིས་	-10.2168
ཡོང་སྐབས་	-10.2171
རྣམ་པར་གྲོལ་བའི་	-10.2173
རིན་པོ་ཆེས་	-10.2173
སྒེར་གྱི་	-10.2175
གྲོས་ཚོགས་སུ་	-10.2175
སྔོན་ཆད་	-10.2177
བསླབ་པའི་གཞི་	-10.2179
ཆོས་རྣམས་ཀྱི་	-10.2179
ཤོར་	-10.2184
རྣམས་ཀྱིས་མཆོད་	-10.2189
འགྲིག་	-10.2193
རལ་གྲི་	-10.2197
▁འཕགས་པའི་	-10.22
་བའི་	-10.2204
བྱ་རྒྱུར་	-10.2204
་སེམས་ཅན་ཐམས་ཅད་	-10.2205
སྐྱེའོ་	-10.2207
སྐྱིལ་མོ་ཀྲུང་	-10.2208
རྒྱལ་ཆེན་བཞིའི་	-10.2208
མ་ཡིན་གྱི་	-10.221
ཉི་	-10.2215
པ་རྣམས་ཡིན་ནོ་	-10.2215
བོད་ཀྱི་ཐུན་མིན་	-10.2217
ཕྱིན་པ་	-10.2217
ཕན་པ་	-10.2218
འི་ལམ་	-10.2221
མཐོ་སློབ་ཀྱི་	-10.2221
་ཡེ་ཤེས་	-10.2225
ཙམ་དུ་	-10.2229
དོང་ངོ་་་	-10.2231
སྐྱེ་བོའི་ཚོགས་	-10.2232
མོ་་	-10.2235
དུད་འགྲོའི་སྐྱེ	-10.2238
བགྱིས་	-10.224
དུས་རྒྱུན་དུ་	-10.2243
རུ་ཁག་	-10.2245
ཚེ་དབང་	-10.2252
བསྐོ་གཞག་	-10.2254
བཙུགས་ནས་	-10.2255
་སིར་	-10.2258
ཚ་བ་	-10.2258
གཅིག་མཚུངས་	-10.2259
རྣམ་པ་དུ་མ་	-10.2259
ས་པ་	-10.2262
ནི་འདི་ལྟ་སྟེ་	-10.2263
ིག་	-10.2264
གསུམ་བཅུའི་	-10.2267
ཀྱི་ཞིང་དེར་	-10.2268
འི	-10.2271
ཀུན་ཀྱང་	-10.2273
སྨྲས་	-10.2273
མགོ་བོས་ཕྱག་འཚལ་	-10.2274
ཐབས་སུ་	-10.2275
དེ་སྐད་ཅེས་གསོལ་	-10.2276
བཞོན་པ་	-10.228
འདུགསྤྱིར་	-10.2284
གོང་ནས་	-10.2285
▁གང་གི་	-10.2286
བཞིན་ཡོད་པ་མ་ཟད	-10.2287
སྨན་རྩིས་ཁང་	-10.2294
▁ཨིན་ཡུལ་	-10.2296
མཐའ་དག་	-10.2297
སྟ	-10.23
འབྱུང་སྟེ་	-10.2301
ཚོང་དཔོན་	-10.2304
ཧར་	-10.2306
བསད་	-10.2309
ཡང་མ་ཡིན་ནོ་་	-10.231
བདེ་བ་དང་་	-10.2311
གསོན་	-10.2316
ལེགས་སོ་་	-10.2316
གྱུར་ཅིང་་་	-10.2318
བྱུང་སོང་	-10.2319
འདོད་ཆགས་ཀྱི་	-10.2323
སྤྱོད་པའི་	-10.2327
སྐྱབས་བཅོལ་	-10.2328
ཞུས་པའི་	-10.2333
མུས་ཡིན	-10.2334
བཅྭ་བརྒྱད་	-10.2336
ཀར་ན་ཊ་ཀ་མངའ་སྡེ	-10.2337
མུ་ཏིག་	-10.2338
པར་གྱུར་ཏོ་	-10.2339
སུམ་ཅུ་	-10.234
བསྐྱེད་ནས་	-10.2343
འགོ་འཁྲིད་	-10.2344
དུ་སྦྱར་རོ་་	-10.2352
བཟློག་	-10.2354
སོང་ལ་	-10.2355
སའི་ཁམས་	-10.2355
ལ་བསྙེན་བཀུར་	-10.2358
བརྒྱུད་ལམ་	-10.2358
གཞས་	-10.2359
རྒྱབ་སྐྱོར་དང་	-10.2365
སླེབས་ཡོད	-10.2367
མི་སྡུག་པ་	-10.2367
འཕྲལ་དུ་	-10.2367
གོ་སྐབས་འདི་	-10.2374
ཡོང་བ	-10.2375
གལ་ཆེ་	-10.2375
དུ་གནས་སྤོས	-10.2377
གོ་མཚོན་	-10.2378
འི་རིང་	-10.2381
གཅིག་ཀྱང་	-10.2382
ལ་བཟོད་པ་	-10.2388
རྫོགས་པར་	-10.2391
དེ་དག་དང་་	-10.2392
ཁྱེད་ཅག་	-10.2393
བབས་	-10.2399
གསོ་བ་རིག་པའི་	-10.2401
འགག་	-10.2402
འགྲེལ་བཤད་རྒྱག་	-10.2414
བསྟོད་	-10.2418
སྐད་ཆ་བཤད་	-10.2418
གནས་ཤིང་	-10.2422
དགུང་ལོ་	-10.2423
མཐའ་ཡས་པ་	-10.2426
ཆེ་མཐོང་	-10.2428
རྒྱ་གར་གཞུང་མང་	-10.2431
གྲོང་སྡེ་	-10.2432
བཟའ་བ་དང་བཅའ་བ་	-10.2436
བཅས་པ་	-10.2437
དེ་བས་	-10.2437
དཔེར་ན	-10.2439
ཐམས་ཅད་མཁྱེན་པ་	-10.244
མཁན་དང་	-10.244
ཁྲིམས་མཐུན་	-10.2442
ཐེག་པ་ཆེན་པོ་ལ་	-10.245
་ཀྱི་རྩ་ཁྲིམས་	-10.2451
རྒྱ་ནག་ཝུ་ཧན་	-10.2451
སྨྲ་བ	-10.2455
བཙལ་	-10.2455
ཡུལ་དེའི་	-10.2456
གཟའ་མིག་དམར་ཉིན་	-10.2457
ཕུལ་ཡོད	-10.2458
ཕུལ་བ་	-10.2461
བརྗོད་ཀྱི་ཡོད	-10.2461
ལྗོངས་	-10.2463
རིན་པོ་ཆེ་སྣ་	-10.2466
ཕེབས་ཐོན་གནང་	-10.2466
གུས་པ་	-10.2469
སུད་སིའི་	-10.2472
འགན་འཛིན	-10.2474
འགགས་	-10.2476
ཕྱི་ནང་གི་	-10.2478
བྱིས་པའི་	-10.2478
▁སྟོན་པ་	-10.2479
སྤུ་	-10.2479
གནང་རྒྱུ་ཡིན་	-10.248
བདུད་རྩིའི་	-10.2483
ཁྲིད་དེ་	-10.2484
མང་ཆེ་བ་	-10.2492
ལས་ཁུངས་ཀྱིས་	-10.2493
སྐར་མའི་རྒྱལ་པོ་	-10.2497
འོངས་པ་	-10.2498
དྲག་པོའི་	-10.2498
་ཡང་དག་པ	-10.2499
གཞོན་ནུའི་	-10.2499
འི་སྦྱིན་པ་	-10.25
གལ་ཆེའི་	-10.25
གཟུགས་སུ་	-10.2501
རྒྱལ་པོའི་ཁབ་ཏུ་	-10.2505
གཞི་རིམ་	-10.2506
གཏན་འཁེལ་ཡོད	-10.2516
རྟེན་འབྱུང་	-10.2521
ལགས་ཀྱིས་གཙོས་	-10.2521
དགོས་པའི་རེ་འདུན	-10.2522
རྒྱ་འབྲེལ་མོལ་	-10.2526
ཐེར་འབུམ་བདུན་	-10.2533
རྒྱ་གར་ནང་གི་	-10.2536
སྲིད་བྱུས་ལ་	-10.254
མིན་་	-10.2543
གཙོས་པའི་	-10.2546
་མི་མཉེས་པར་མ་བ	-10.2548
ཞིབ་ཕྲ་	-10.255
འི་ངོ་བོ་ཉིད་	-10.2553
སྲུང་བརྩི་ཞུས་	-10.2558
བརྙེས་	-10.2561
ཞ	-10.2562
ཞུགས་ནས་	-10.2569
▁བུ་མོ་	-10.2569
ཡངས་པ་	-10.2571
བརྒྱ་སྟོང་དུ་མ་	-10.2571
རྗོད་	-10.2576
▁འདི་དག་ནི་	-10.2576
▁དེ་ནས་དེས་	-10.2578
སྤྲུལ་སྐུ་	-10.2581
འབྱོར་པ་	-10.2586
རིག་སྔགས་	-10.259
བརྒྱུད་རིམ་	-10.2591
བུས་	-10.2591
སྡོད་ཁང་	-10.2592
མི་མཇེད་ཀྱི་	-10.2594
བའམ་	-10.2605
ཕྱི་རོལ་གྱི་	-10.2607
དུ་ཡོད་པའི་	-10.2613
བྱས་པ	-10.2614
འགོ་བཙུགས་	-10.2614
ཡི་རངས་	-10.2617
སྣ་ཚོགས་ཀྱིས་	-10.2619
མཆོག་གིས་དབུས་	-10.262
གྲྭ་བཙུན་	-10.2621
ཆིག་སྒྲིལ་	-10.2622
གསོས་	-10.2622
ཉིད་ཀྱང་	-10.2626
ལ་མངོན་པར་ཞེན་པ་	-10.2628
འོག	-10.263
▁དེ་ལས་	-10.2632
བསྐྱེད་དོ་་	-10.2633
བཞིན	-10.2634
འོན་ཀྱང་	-10.2635
གསུང་ཡོད	-10.2636
འདུག་ཅེས་	-10.264
ཁྱེད་རང་ཚོ་	-10.2641
མི་དགེ་བ་	-10.2643
གཟོད་མ་ནས་	-10.2643
རླབས་ཆེན་	-10.2649
སྐམས་	-10.265
ཏུ	-10.2652
ཆེ་ཞིང་	-10.2652
སྟོང་པར་	-10.2652
དབང་སྒྱུར་འོག་	-10.2656
གྱི་ཐོག་ནས་	-10.2656
དྲུང་གཞོན་	-10.2663
རྩེད་འགྲན་	-10.2664
བྱེད་སྒོ་	-10.2667
གྱིས་སྨྲས་པ་	-10.2668
ཆོལ་གསུམ་	-10.2669
ཇི་སྲིད་	-10.2673
བསྐལ་པ་གྲངས་མེད་	-10.2679
དངོས་པོ་མེད་པར་	-10.2683
ཡོངས་གྲགས་	-10.2683
གང་བ་	-10.2689
ཤེས་པར་	-10.269
མེ	-10.2691
སྐྱེ་བ་དང་་	-10.2691
ཞིག་གི་	-10.2692
ལག་འཁྱེར་	-10.2693
སྐྱེའི་	-10.2697
འི་རྒྱལ་པོ	-10.2698
དེ་ཉིད་ཀྱིས་	-10.2699
་བྱམས་པ་	-10.2701
རིམ་གྱིས་	-10.2706
དུལ་བ་	-10.2707
ཐབས་བྱེད་བཞིན་	-10.2708
བསགས་	-10.2709
གསུང་འཕྲིན་	-10.2711
དམར་པོ་	-10.2713
དགེ་འདུན་ལ་	-10.2715
▁སྲིད་པའི་	-10.2715
མུ་མཐུད་གནས་	-10.272
འཚོལ་	-10.2721
འཁོར་དང་བཅས་པ་	-10.2726
བྱེད་དགོས་པ་དང་	-10.2729
ལགས་བཅས་	-10.273
ལོ་རྒྱུས་ཐོག་	-10.2732
རྒྱུ་བ་	-10.2732
མཚོན་ན་	-10.2735
རེ་འདུན་	-10.2736
བཅོམ་ལྡན་འདས་ག	-10.2737
སྨན་པའི་	-10.2738
རྒྱལ་བ་རིན་པོ་ཆེ	-10.2738
མཚན་མོ་	-10.2739
▁དེས་ནི་	-10.2741
ཆུ་ཀླུང་	-10.2743
དེ་དེ་བཞིན་ནོ་་	-10.2744
བའི་ཕྱིར་	-10.2746
ལོ་མ་	-10.2747
་ཆོས་བཞི་དང་ལྡན་	-10.275
ཞེས་བྱ་སྟེ་	-10.2754
ཁྱད་	-10.2756
▁ཁོང་གི་	-10.2756
མཐོང་བ	-10.2757
མཉམ་པ་	-10.2759
ལ་མི་	-10.2761
རྒྱ་མཚོ་ཆེན་པོ	-10.2765
▁དེ་ལ་འདི་སྐད་	-10.2766
ནམ་མཁའ	-10.2767
བལྟས་	-10.2767
རིགས་ལ་	-10.2771
འགྲེམས་སྟོན་ཁང་	-10.2775
བསྐྱར་བཅོས་	-10.2775
ཚོགས་ཆུང་ནས་	-10.2778
ལངས་	-10.2782
མགོ་བོ་	-10.2785
པ་དེས་	-10.2791
ཡིད་གཉིས་	-10.2792
▁གཟའ་ཟླ་བ	-10.2793
མི་མངའ་	-10.2795
ལྷའི་བུས་སྨྲས་པ་	-10.2797
རྒྱལ་པོ་ཞེས་བྱ་བ	-10.2801
རྒྱུན་ལས་རྣམ་པ	-10.2801
སྨོན་ལམ་བཏབ་སྟེ་	-10.2802
ལ་སྤྱོད་པ་ན་	-10.2802
དག་ན་	-10.2802
སོ་ནམ་	-10.2806
ར་འགྱུར་བའི་	-10.2809
▁ཁོར་ཡུག་	-10.2811
▁མིག་	-10.2811
ཆེད་ཕེབས་ཀྱིས་	-10.2812
ཡིན་མིན་	-10.2812
རྣམས་ཀྱིས་ཀྱང་	-10.2822
མ་འོངས་པའི་དུས་ན	-10.2824
འཇིག་པ་	-10.2829
བོད་མི་རྣམས་ནས་	-10.2833
འབྲུ་	-10.2835
་སྐོར་སོགས་གསུངས	-10.284
ཀྱིས་དེ་སྐད་ཅེས་	-10.2841
བཅིངས་	-10.2841
གླུ་	-10.2842
འོག་མའི་འཐུས་མི་	-10.2842
▁དེ་ལྟ་བུའི་	-10.2845
་ཞིག་རེད	-10.2845
ལན་གསུམ་བསྐོར་བ་	-10.2846
དཔལ་ཞེས་བྱ་བ་	-10.2847
གཅིག་ནི་	-10.285
ལྷ་དང་མི་དང་ལྷ་མ	-10.2854
བསྒྲགས་གཏམ་	-10.2854
ཕྱོགས་ཀྱི་ཆོས་	-10.2855
འབོད་སྐུལ་ཞུས་	-10.2856
ར་བྱའོ་	-10.286
དེ་ལ་ནི་	-10.2861
བོད་གཞུང་	-10.2861
▁སྦྱིན་པའི་	-10.2862
རྒྱལ་སྤྱིའི་ནང་	-10.2863
བྱ་རྒྱུ་དང་	-10.2863
ཞི	-10.2864
ལམ་སྟོན་འོག་	-10.2864
ཕྱིར་ལོག་	-10.2865
ཨེ	-10.2867
ལ་མཚན་དང་་བ་དན་	-10.2868
རྣམ་རྒྱལ་	-10.2871
ཆེན་མོའི་	-10.2878
པར་བྱེད་་	-10.2878
རབ་ཏུ་དབྱུང་བ	-10.2878
ཚོགས་གཙོ་མཁན་པོ་	-10.2879
གནས་སྐབས་	-10.2879
▁དེ་ལྟ་བས་ན་	-10.288
ཉེན་ཁ་	-10.2883
གཉིས་དབར་	-10.2884
སྐྲག་	-10.2888
བྱས་ཏེ	-10.2894
དགོན་སྡེ་	-10.2894
▁མཁས་པ་	-10.2894
བྲིས་	-10.2896
ཁྲིམས་ཀྱི་	-10.2896
བཞུགས་པའི་	-10.29
འཛིན་པའི་	-10.2902
ལྷག་མཐོང་	-10.2903
བླང་	-10.2908
འབྲི་	-10.2913
སྟོང་པ་ཉིད་ཀྱི་	-10.2916
གཞིས་བཞུགས་	-10.2917
་སྐོར་སོགས་ཀྱི་	-10.2917
གྲོས་འཆར་	-10.292
སྐབས་འདིར་	-10.2922
▁ཡི་གེ་	-10.2923
མིན་པའི་	-10.2926
ཅི་འདྲ་	-10.2926
མཚན་མ་མེད་པ་	-10.2927
རྡོག་རོལ་བཏང་	-10.2928
གཅིག་ལ	-10.2929
གཟུགས་ཀྱིས་	-10.2932
བལྟ་ན་སྡུག་ལ་	-10.2934
བདེན་པ་མཐོང་ནས་	-10.2938
པ་ན་	-10.294
འདུག་པ་དང་	-10.294
ས་ཉོན་མོངས་པ	-10.2942
སྦྱང་	-10.2946
གླང་	-10.2951
མཇུག་སྒྲིལ་	-10.2953
བཅས་ཀྱིས་	-10.2954
ལོག་པར་ལྟ་བ་	-10.2954
རླུང་གི་	-10.2957
ཚོལ་བ་	-10.2957
སྟོང་ཕྲག་མང་པོ་	-10.2957
▁དོན་དམ་པར་ན་	-10.2961
མ་བྱུང་	-10.2962
ཁྱོན་དུ་	-10.2963
ཐུག་འཕྲད་ཀྱིས་	-10.2965
ལག་ལེན་	-10.2966
གཟིགས་ནས་	-10.2966
ྭ་བརྒྱད་	-10.2968
ཤེས་པ་ཡང་དག་པར་འ	-10.2971
གྲུབ་རྗེས་	-10.2973
ཟླ་བའི་	-10.2983
རིན་པོ་ཆེ	-10.2984
ལོ་རྒྱུས་ཐོག་ནས་	-10.2989
ས་གནས་འཐུས་ཚོགས་	-10.2989
གསལ་བསྒྲགས་སྤེལ་	-10.2992
ལ་གནས་	-10.2996
ཕེབས་བསུའི་	-10.3
ཕུལ་ལོ་་	-10.3002
བདག་གིས་ཐོས་པ	-10.3003
ཆོས་ཚོགས་	-10.3004
བག	-10.3005
སེམས་ནི་	-10.3005
གནང་རོགས་ཞེས་	-10.3012
པ་ཞེས་བྱའོ་་	-10.3017
▁སྟོང་གསུམ་གྱི་	-10.3017
གྲགས་ཅན་	-10.302
བརྒྱབ་ནས་	-10.3021
ར་གྱུར་ནས་	-10.3022
▁ད	-10.3022
▁རབ་འབྱོར་འདི་ལ་	-10.3027
བོད་དོན་སྐོར་	-10.3031
འུ་	-10.3032
སོ་སོར་རྟོག་པ	-10.3032
འདྲ་་	-10.3035
ཀྱི་ངོ་བོ་ཉིད་	-10.3036
གནང་དང་གནང་མུས་	-10.3037
ན་བ	-10.3041
མི་བཟད་	-10.3046
▁བདག་ཉིད་	-10.3049
་ཇི་ལྟར་	-10.305
བསྔགས་བརྗོད་དང་	-10.3051
ཏུ་ལུང་བསྟན་ཏོ་	-10.3052
ཚོགས་དུས་	-10.3054
བྱང་ཆུབ་སེམས་	-10.3056
མ་ཐོབ་	-10.3057
ར་བྱ་བ་	-10.3059
རྒྱ་གར་དུ་	-10.3061
▁མགོན་པོ་	-10.3064
དེ་རེད	-10.3065
འཛམ་གླིང་ནང་གི་	-10.3066
དང་མཉམ་དུ་	-10.3071
རྩོམ་ཡིག་	-10.3075
སྐུ་ཚབ་རྣམ་པ	-10.3081
སློབ་གྲྭའི་ནང་	-10.3084
རྒྱུ་ནི་	-10.3086
ནང་པ་སངས་རྒྱས་པ	-10.3086
བསྩལ་	-10.3087
འཆི་ཀར་	-10.3097
གཏིང་ཟབ་	-10.3099
ཕྱི་དངོས་པོའི་	-10.31
མཉེས་པར་མ་བྱས་ལ་	-10.31
གྱོན་	-10.3101
འཛིན་བཟུང་	-10.3101
ཡན་	-10.3102
རྫུ་འཕྲུལ་གྱིས་	-10.3103
ལ་བརྟེན་པའི་	-10.3104
ཟོས་	-10.3105
ཀྱི་ཡོད་པ་རེད	-10.3107
ས་དེ་	-10.311
ཅེས་བྱ་བར་	-10.311
གླེང་	-10.3112
ཕྱོགས་གཅིག་ནས་	-10.3112
སེམས་ཅན་དག་	-10.3114
བགྱི་བ་	-10.3114
ཐུབ་པ་ཞིག་	-10.3116
སྒྲོལ་	-10.3116
་དང་ལྡན་པ་	-10.312
གྱུར་པའི་	-10.3122
རིའི་	-10.3124
རབ་ཏུ་བྱུང་ངོ་་་	-10.3125
མཛད་པ་་	-10.3126
མཉན་དུ་ཡོད་པ་ན་	-10.3131
བཞིན་ཡོད་པ་ལྟར	-10.3131
▁ངོས་ཀྱི་	-10.3133
རྣམ་པར་དག་པས་	-10.3136
གསར་དུ་	-10.3141
མི་འདོད་	-10.3141
་ལྟ་སྟེ་དཔེར་ན་	-10.3141
ས་ཡང་དག་པ	-10.3142
འཐོབ་་	-10.3143
སྡིག་	-10.3147
▁ཐེ་ཝན་	-10.3147
དགོན་སྡེ་ཁག་	-10.3148
སྡིག་པའི་ལས་	-10.3151
གཙང་མ་	-10.3153
བྱུང་འདུག	-10.3154
བཙན་དབང་འོག་	-10.3158
གསོལ་བ་	-10.3159
མ་ཐག་	-10.3162
ར་མི་བྱའོ་་	-10.3163
འདུ་ཤེས་མེད་	-10.3165
མཆོག་ནས་	-10.3166
ནག་པོ་	-10.3167
སྦེལ་ཀོབ་	-10.3167
ཉེ་བར་ཞི་བ	-10.3173
▁རྒྱལ་བའི་	-10.3174
པའི་ཐོག་	-10.3174
འོངས་ནས་	-10.3174
པའི་ཡིད་སྐྱོའི་	-10.3177
གསུམ་དང་	-10.3179
གཞན་དག་ལ་	-10.3183
ཀྱི་རྣམ་གྲངས་འདི	-10.3184
ཕྱ	-10.3185
ཆབ་	-10.3189
ར་མི་འགྱུར་ཏེ་	-10.3199
ཤིང་གི་	-10.3201
ལྟོ་	-10.3203
མཆོག་ཕྱི་ལོ་	-10.3208
སོས་	-10.3212
འི་སྒོ་ནས་	-10.3219
སྤོབས་	-10.3219
▁ཐམས་ཅད་	-10.322
ཡི་གེ་དྲུག་པ	-10.322
ཀྱེ་མ་	-10.3222
རྒྱ་མིའི་	-10.3223
བརྩོན་འགྲུས་བརྩམ	-10.3223
▁དེ་ལ་བརྟེན་ནས་	-10.3224
གཏོང་མཁན་	-10.3225
མཐར་ཕྱིན་	-10.3233
▁ལམ་	-10.3235
མིག་གིས་	-10.3238
ས་འདི་སྐད་ཅེས་	-10.3239
འདོད་ན་	-10.3244
མི་ནུས་སོ་་	-10.3245
མཆོག་དགུང་གྲངས་	-10.3246
ཐོས་སོ་་	-10.3246
དེའི་འོག་ཏུ་	-10.3248
འཐུས་མི་དང་	-10.3252
འདེམས་སྒྲུག་	-10.3254
ཆབ་སྲིད་བཙོན་ཟུར	-10.3254
སྒྲ་དང་་དྲི་དང་	-10.3255
ལ་གནས་ཏེ་	-10.3256
གཅིག་གི་སྟོབས་	-10.3258
གདོང་ལེན་བྱེད་	-10.3259
སྤོ་	-10.3259
ཇི་ལྟར་སྔོན་ནས་	-10.3259
མང་པོ་ཞིག་ལ་	-10.3262
ཅི་ནས་	-10.3262
་འདུག་པ་བཅས	-10.3266
དམ་ཚིག་	-10.3267
གོང་ས་མཆོག་	-10.3268
སྐྱོ་བ་	-10.3269
མཇལ་འཕྲད་ཀྱིས་	-10.3269
ནགས་ཚལ་	-10.3271
དངོས་པོ་མེད་པ་	-10.3273
མཐོང་ངམ་	-10.3273
མི་དམངས་	-10.3275
འཕགས་བོད་གཉིས་	-10.3277
སྤྱིའི་	-10.3281
ཐང་སྲུང་སྐྱོབ་	-10.3285
▁མེ་ཏོག་	-10.3285
ལས་རིགས་	-10.3288
ཚེ་དབང་རྒྱལ་པོ་	-10.3289
དགེ་འདུན་གྱིས་	-10.3291
་ཡོད་པ་བཅས	-10.3291
དྷ་	-10.3293
འདོད་པ་རྣམས་ལ་	-10.3295
ཆོས་ཀྱིས་	-10.3299
ང་དེའི་	-10.3302
▁བོད་མི་ཚོས་	-10.3302
ཡོངས་སུ་རྫོགས་	-10.3302
དགོས་ཀྱི་འདུག	-10.3311
ཟུང་	-10.3312
སྟོབས་དང་ལྡན་པ་	-10.3312
མཇལ་འཕྲད་གནང་	-10.3312
བོད་རིགས་སྤྱི་	-10.3313
ཞུ་རྒྱུར	-10.3313
ལས་ཕྱིར་མི་ལྡོག་	-10.3314
སྔོན་པོ་	-10.3314
དབུས་གཞུང་གི་	-10.3314
ཚོགས་ཁང་	-10.3316
བཟུང་བ་	-10.3317
ནགས་ཁྲོད་	-10.3319
དོན་དམ་པའི་	-10.3324
ཐུགས་འགན་བཞེས་	-10.3324
པེ་ཅིང་	-10.3325
་དང་་ཡང་དག་པར་	-10.3326
དད་པས་	-10.3329
ལན་འདེབས་གནང་	-10.3333
བགྱིའོ་་	-10.3334
▁རང་	-10.3339
ལྷ་མ་ཡིན་གྱི་	-10.3342
ནས་མཆེད་པའི་	-10.3342
བདག་ཅག་ནི་	-10.3343
གསར་གཏོད་	-10.3344
རིས་ཀྱི་ལྷའི་བུ་	-10.3348
ཞུས་ནས་	-10.3349
ཚོགས	-10.3349
གྲངས་མེད་པ་	-10.335
སེམས་ཅན་དམྱལ་བར་	-10.3351
ཀུན་ཏུ་རྒྱས་པ་	-10.3353
འདི་རྣམས་	-10.3356
དབུ་འབྱེད་ཀྱི་	-10.3356
འཕྱ	-10.3356
▁རྣམ་པར་	-10.3357
བསྟུན	-10.3358
རྣམ་གཉིས་ཀྱིས་	-10.3358
ཉོན་ཅིག་	-10.3358
གོང་སྤེལ་	-10.3359
ཆེ་ཁག་	-10.3361
ན་སེམས་ཅན་	-10.3362
རིའི་རྒྱལ་པོ་	-10.3363
གང་འདྲ་ཞིག་	-10.3366
རྒྱ་ནག་གཞུང་	-10.3367
སྐུ་ཚེ་	-10.3371
རྩིས་ཞིབ་	-10.3373
གཏོང་དགོས	-10.3375
▁རྒྱལ་ཁབ་	-10.3378
ཐོགས་ནས་	-10.3379
པར་བྱ་	-10.3383
དང་ལྡན་པར་	-10.3385
ཤི་ནས་	-10.3386
ཐལ་མོ་སྦྱར་ནས་	-10.3386
རྣམས་ལ་ཡང་	-10.3387
་ར	-10.3388
ངོ་མ་	-10.3394
ན་ལེན	-10.3395
དུ་བྱུང་སྟེ	-10.3399
གཙུག་ལག་ཁང་གི་	-10.3401
པོ་དེ་དག་	-10.3402
བྱུང་བར་	-10.3402
ཚོགས་འདུ་ཚོགས་	-10.3403
ལུ	-10.3405
གྲྭ་པ་	-10.3405
ཞིག་ཡིན་པ་	-10.341
ལྷགས་	-10.3416
སྤོང་	-10.3416
ཚོ	-10.3418
སྲིད་གཞུང་གི་	-10.3422
རྣམ་པའི་	-10.3424
▁དེ་དག་ཐམས་ཅད་	-10.3425
བསྟོད་པ་	-10.3425
མིའམ་ཅིའི་	-10.3427
ས་བསྐྱེད་བསྲིངས་	-10.3429
གྲོས་	-10.3431
ངར་	-10.3433
འཇུག་གོ་་	-10.3434
ལྷ་ཁང་	-10.3434
་བ་	-10.3437
ཁམས་ཀྱི་	-10.3438
གདུག་རྩུབ་	-10.3439
གླང་པོ་ཆེ་	-10.3439
དང་པོའི་	-10.344
འདི་ཉིད་དུ་	-10.3441
སྟབས	-10.3448
ཕྱི་རོལ་	-10.3452
ལ་ཐུགས་རྗེ་ཆེ་ཞུ	-10.3455
▁ཉན་ཐོས་	-10.3458
འི་སྒྲིག་འཛུགས་	-10.3458
ཚད་ལྡན་	-10.3459
བཅུ་དྲུག་པའི་	-10.346
མངོན་པར་འདུས་	-10.3461
འདམ་	-10.3462
▁བྱང་ཆུབ་ཀྱི་	-10.3463
ཁྱད་པར་ཅན་	-10.3471
ལམ་དུ་	-10.3471
ཆོས་སྟོན་	-10.3471
མི་རྟག་པ་	-10.3473
ཐུབ་ཚེ་	-10.3473
▁དེ་སྔོན་	-10.3478
ི་ཡ	-10.348
ཚངས་	-10.3481
མཚོན་ཆ་	-10.3484
ལབ་	-10.3484
ལོ	-10.3484
དགེ་ཚུལ་	-10.3485
བསྡོམས་	-10.3485
དེ་ཙམ་དུ་	-10.3486
སྐོམ་	-10.3488
བྱེད་ཀྱི་འདུག	-10.3494
འག	-10.3495
▁ཐ་ན་	-10.3495
གཞུག་	-10.3496
ཚན་རིག་དང་	-10.3497
སོམ་ཉི་	-10.3498
འོ་ན་	-10.3498
ཧ་ཅང་ཡག་པོ་རེད	-10.35
དང་་དྲི་ཟ་དང་་	-10.35
ཕན་ཐོགས་ཆེན་པོ་	-10.3501
ཐ་དད་	-10.3501
▁ང་ཚོར་	-10.3503
བར་བརྟེན་	-10.3504
འོད་ཀྱིས་	-10.3505
དགེ་བ	-10.3506
རྣམ་པར་མི་རྟོག་	-10.3508
གཡོགས་	-10.351
ལྡོག་	-10.3511
ཡི་ནི་	-10.3512
ནས་ད་བར་	-10.3515
གསུང་བཤད་དང་	-10.3517
མ་དངུལ་	-10.3519
དགེ་བསྙེན་	-10.3522
དེ་མཚུངས་	-10.3525
འདབ་	-10.3529
ཟུར་དུ་	-10.3529
ཉི་མའི་	-10.3531
གསུངས་ཡོད	-10.3533
དུ་གྱུར་	-10.3535
འི་དབྱིངས་སུ་	-10.3537
རྗེ་བཙུན་	-10.354
ལ་ཚིགས་སུ་བཅད་པ	-10.3545
གལ་ཆེན་པོ་ཡིན	-10.3546
ར་གྱིས་ཤིག་	-10.3548
ཕྱག་འཚལ་	-10.356
ཞན་	-10.3564
ཅི་ཡོད་	-10.3565
འདྲ	-10.357
ཕམ་	-10.3571
ཁང་གིས་	-10.3572
བགོས་	-10.3574
འདྲི་	-10.3574
ནོ་སྦེལ་	-10.3574
དཔལ་ལྡན་བོད་མི་	-10.3575
མཉེས་པར་བགྱིས་ཏེ	-10.3575
བཀོལ་སྤྱོད་	-10.3575
སྒོའོ་་	-10.3576
སེམས་ཅན་གྱི་	-10.3576
མཐོང་ལགས་སོ་་	-10.3576
རྣམ་ཐར་	-10.3577
▁བསམ་གཏན་	-10.3578
དཔའ་	-10.3579
ཞེས་བརྗོད་	-10.358
སྭ་ཧ་	-10.3582
རབ་ཏུ་ཕྱུང་སྟེ་	-10.3586
གནད་འགག་ཆེན་པོ་	-10.3589
འཇམ་དབྱངས་	-10.3589
བདག་ཅག་ལ་	-10.359
སྨོས་	-10.3592
དང་་ནམ་མཁའ་ལྡིང་	-10.3592
གོན་ཏ་ལའི་བླ་མ་	-10.3594
བསྐྱར་དུ་	-10.3597
▁རྩ་བའི་	-10.3604
སྤྱི་འཐུས་རྣམ་པ	-10.3606
མངོན་སུམ་	-10.3609
གནོད་པ་དང་ལྡན་	-10.3614
གནང་བ་དང་སྦྲགས	-10.3615
བགྱིད་པ་	-10.3616
དྲོ	-10.3617
རོགས	-10.3619
བྱའོ་	-10.362
སྒྱུ་མའི་	-10.362
▁གཟའ་ལྷག་པ	-10.3625
ཕྱིན་ཅི་ལོག་	-10.3629
ཨརྱ་	-10.3631
གཟུང་བའམ་	-10.3634
་ཞེས་བྱ་བ་	-10.3636
རྩོམ་སྒྲིག་པ་	-10.3637
ནས་ཡིན་པའི་	-10.3648
འོས་བསྡུ་ཆེན་མོ	-10.365
གཞུང་ལ་	-10.365
བཅིངས་པ་	-10.3652
ཁག་གི་ནང་	-10.3656
དོད་	-10.3658
བའི་ཐོག་ནས་	-10.3659
ས་ཕྱོགས་	-10.3661
ཚབས་ཆེ་	-10.3665
བླ་ཆེན་	-10.3667
བཏུལ་	-10.3667
གང་དང་གང་དུ་	-10.3669
▁དེའི་ནང་ནས་	-10.3671
ཡོ་བྱད་ཐམས་ཅད་	-10.3672
ཆུད་	-10.3677
ཤེས་པའི་ཁམས་དང་་	-10.3677
རྩ་བ་ཉིད་ནས་	-10.3677
མངའ་སྡེའི་ནང་	-10.3679
དེའི་དུས་	-10.368
འབྲེལ་མོལ་	-10.3682
ཚུལ་དང་	-10.3683
སྐྱེད་པ་	-10.3685
▁ལྷའི་དབང་པོ་	-10.3686
ཁྱིམ་བདག་གཞན་ཡང་	-10.3688
བྱ་བ་དང་་	-10.3689
དགའ་ལྡན་ཁྲི་	-10.3689
བདེ་ལེགས་	-10.3691
སངས་རྒྱས་ཐམས་ཅད་	-10.3692
སོར་	-10.3693
▁འདི་སྐད་	-10.3693
རྩོད་རྙོག་	-10.3694
ས་པའི་	-10.3694
▁ཕྱོགས་གཅིག་ཏུ་	-10.3703
་ཞེས་	-10.3703
ཁྱེད་ཀྱི་	-10.3708
གཞུང་ནས་	-10.371
རྣམ་པ་ཚོ་	-10.3712
སྐམ་	-10.3723
▁སེམས་ཅན་གང་དག་	-10.3723
ཁྲིམས་འཆར་	-10.3724
སྤངས་ནས་	-10.3726
ཅེག་	-10.3727
བདུན་གྱི་	-10.3729
འདས་པ་	-10.3734
ཁོ་ནས་	-10.3737
ྐྱེ་དགུའི་ཚེ་ལོ་	-10.3737
▁ཡང་སྒོས་	-10.3738
ཀུན་ཤེས་སོ་ཞེས་	-10.3738
ཤིན་ཏུ་མཉམ་པ་དང་	-10.3739
དང་ལྡན་ན་	-10.3739
ཁོ་བོའི་	-10.3739
བྱོན་	-10.374
ཞི་བདེ་བག་ཕེབས་	-10.3741
འཚེ་བ་	-10.3742
འོ་མ་	-10.3746
ཁྲོམ་སྐོར་	-10.3748
རིག་པ་ཐོབ་པ་	-10.3749
ཉེས་པར་སྤྱོད་པ	-10.375
རྒྱུགས་	-10.3751
ནས་ནི་་	-10.3752
བར་དུ་སྔ་མ་བཞིན་	-10.3755
དམག་འཁྲུག་	-10.3756
ཐག་རིང་པོ་ཞིག་	-10.3759
སྦྱོར་སྤྲོད་	-10.376
ཚོང་ཁང་	-10.376
ལ་འཇུག་པ་	-10.3761
རྣམ་གྲངས་དེས་ན་	-10.3763
འཇིགས་ཤིང་སྐྲག་	-10.3766
ཁ་བ་	-10.3766
ཁམས་ཤེས་པ་	-10.3767
འཕགས་བོད་	-10.3768
བྱམས་པ་ཆེན་པོ་	-10.3769
རྒྱུག་	-10.3771
ཆུང་ཆུང་	-10.3775
པར་བགྱིའོ་་	-10.3776
ལོང་	-10.3776
་དང་་གསལ་བ་དང་་	-10.3779
གྱུར་ནས་	-10.378
ཁྱེར་ཏེ་	-10.378
བཞུད་	-10.378
འགྲོའོ་་	-10.379
ི་བ	-10.3791
ཞུས་པ་དང་	-10.3791
དག་པ་	-10.3791
གཞུང་ཚབ་	-10.3793
མང་པོ་དག་	-10.3797
ཡིན་སྐོར་	-10.3799
རྩེ་མོ་	-10.3807
་ཆེན་རིན་པོ་ཆེ	-10.3809
སྤངས་ཏེ་	-10.3809
མུ་སྟེགས་ཅན་	-10.3811
ཡོད་དམ་	-10.3811
དྲ་ལམ་བརྒྱུད་	-10.3812
བཅངས་	-10.3815
ཐུགས་རྗེ་ཆེ་ཞེས་	-10.3815
བསྐོ་གཞག་གནང་	-10.3817
སྔོན་འགོག་གི་	-10.382
འབྱོར་ཞབས་ཞུ་ཁང་	-10.3821
▁འདི་གའི་	-10.3825
▁དབུ་མའི་ལམ་གྱི་	-10.3828
མནར་གཅོད་	-10.383
ཕ་རན་སི་	-10.3836
ནི་རབ་ཏུ་	-10.3838
འཚོ་བར་	-10.3838
ཁྱེར་	-10.384
འབྱུང་པོ་	-10.3841
བལྟས་ནས་	-10.3844
མི་དེ་	-10.3847
འདོད་པའི་ཡོན་ཏན་	-10.3848
རིམས་ནད་	-10.3855
གཙོ་བོར་གྱུར་པ	-10.3856
ལ་མཚོན་ན	-10.3856
ན་གནས་པའི་	-10.3857
ཤེས་བྱ་	-10.3858
ཀི	-10.3862
ཐབས་དང་	-10.3862
གྱུར་ནས་་	-10.3862
རྗེས་སུ་དྲན་	-10.3863
མཐོང་བ་དང་་	-10.3865
▁རྣམ་པར་ཤེས་པ་	-10.3867
སྨ	-10.387
ཟློག་	-10.3871
སྔོན་འགྲོའི་	-10.3875
བསམ་ཡས་	-10.388
སྣང་གསལ་	-10.3882
གནོན་ཤུགས་	-10.3882
རྣམ་པ་མང་པོ་	-10.3882
མ་འོངས་པ་	-10.3883
གཉིས་ནས་	-10.3884
པས་་	-10.3885
བསྟི་གནས་ཁང་གི་	-10.3885
ཀྱི་གྲོང་ཁྱེར་	-10.3886
ཕེབས་ཏེ་	-10.3887
ཁོང་ཚོར་	-10.3889
བཟང་པོ་ཞིག་	-10.389
་ཞིང་	-10.3895
བྲམ་ཟེའི་	-10.3895
ཚབ་	-10.3904
ནམས་ཀྱང་	-10.3905
ཐབས་མཉམ་པ་བརྙེས་	-10.3905
དངངས་སྐྲག་	-10.3905
དང་བཅས་པ་དང་་	-10.3905
ལོན་པ་	-10.3906
ལ་རྟེན་གསུམ་	-10.3908
འདུགའོན་ཀྱང་	-10.3913
འཛིན་ཅིང་	-10.3915
་ས	-10.3917
ཐུན་མོང་གི་	-10.3918
ཤར་ཏུར་ཀི་སི་ཐན་	-10.3919
མི་བྱེད་	-10.392
བ་སོགས་	-10.392
ཁྱད་པར་དུ་འཕགས་པ	-10.3929
ཙམ་ཞིག་	-10.393
གྱི	-10.3933
བཅུའི་སྟོབས་	-10.3935
པའི་རྐྱེན་གྱིས་	-10.3935
ཞབས་སོར་བདེ་བར་	-10.3936
སྟེ་བཞི་གང་ཞེ་ན་	-10.394
གཟུང་བ	-10.3941
རྒྱ་གར་གཞུང་གི་	-10.3942
གནག་	-10.3945
ལག་བསྟར་གནང་	-10.3946
གཙོ་ཆེར་	-10.3947
སྐུ་མགྲོན་རྣམ་པ	-10.3951
རྒྱ་ཆེ་བ་	-10.3952
འབྲེལ་མིན་པའི་	-10.3953
ཡོད་པ་ཞིག་	-10.3955
བརྩོན་པ་	-10.3957
ཡོད་ཚེ་	-10.3958
ཆུ་སྲིན་	-10.3958
ཆོས་རྣམས་ཐམས་ཅད་	-10.396
ལྷན་ཚོགས་སུ་	-10.3961
སྤོས་ཀྱི་	-10.3962
འགན་འཛིན་དང་	-10.3962
བཅས་ཏེ་	-10.3963
▁མཉམ་འབྲེལ་	-10.3963
འཆི་བའི་དུས་	-10.3966
མེ་ཏོག་གི་	-10.3966
བཀོད་པ་པོ་འདོད་	-10.397
འི་ཚེ་	-10.3971
གནས་པས་	-10.3972
▁ཆོས་ཀྱི་དབྱིངས་	-10.3976
སྨྲེ་སྔགས་འདོན་པ	-10.3977
གདན་ཞུ་	-10.3978
▁སྦྱིན་པ་	-10.3979
ཞིང་བལྟ་ན་སྡུག་	-10.3982
འགྱུར་ཏེ་་	-10.3986
བཟང་པོའི་	-10.3986
་དེ་དག་ཐམས་ཅད་	-10.3991
▁མ	-10.3993
▁རྒྱ་རིགས་	-10.3994
དེ་ནི་ཚུལ་ལ	-10.3995
ཝི་	-10.3996
ལ་སྤྱོད་པ་ནི་	-10.4003
བརྒྱ་ཕྲག་	-10.4004
བསྒྲིལ་	-10.4004
གཞོན་ནུར་གྱུར་པ་	-10.401
བཀྲ	-10.401
མཐོང་བར་	-10.401
བྱེད་ཕྱོགས་ཀྱི་	-10.4017
ཚིག་གིས་	-10.4018
བསྒྲུབས་ཏེ་གནས་པ	-10.402
ཚན་པའི་	-10.402
རྗེས་སུ་ཡི་རང་	-10.4024
སྲིད་པའི་	-10.4024
ཁག་ཏུ་	-10.4024
སྲིད་བཀའ་བློན་	-10.4025
ཐུབ་ཐབས་	-10.4026
མེད་ལ་	-10.4026
བྱེད་ཀྱི་མེད	-10.4027
▁དེ་གཉིས་ཀྱིས་	-10.4028
གཞོན་སྐྱེས་རྣམས་	-10.4029
བར་འགྱུར་	-10.403
སེམས་ཅན་དམྱལ་བ	-10.4031
འི་དབྱངས་ཀྱིས་	-10.4034
ྭ	-10.4035
ཕྲན་	-10.404
ཡོད་མ་ཡིན་་	-10.404
སྐྱེས་ཤིང་	-10.4044
ཉི་ཧོང་གི་	-10.4045
མ་བྱུང་བ་	-10.405
བཀའ་སྩལ་	-10.4057
མི་བྱེད་པ་	-10.4063
ལྟར་མི་བལྟ་སྟེ་	-10.4069
མཐོ་བ་	-10.407
རྣམ་འགྱུར་	-10.4071
མི་གནས་	-10.4073
ཆིབས་བསྒྱུར་	-10.4074
་དུས་གཅིག་ན་	-10.4074
མི་ཐུབ	-10.4076
གཙང་མ་བཟང་པོ་	-10.4076
ལ་རྩིས་མེད་	-10.4076
བཞིན་ཡོད་ཀྱང་	-10.4076
▁དེ་ལས་བཞེངས་ནས་	-10.4077
ཟད་པར་	-10.4079
གཡས་	-10.4083
པ་དང་འདི་བཞིའོ་	-10.4084
འཁྲུགས་	-10.4089
དྲ་རྒྱ་བརྒྱུད་	-10.4094
རྒྱལ་སྲས་	-10.4095
དོར་	-10.4095
ཚོན་	-10.4095
འི་སྤྱི་ཚོགས་	-10.4096
དབེན་པར་	-10.4099
དུ་སྦྱར་ཏེ་དེ་	-10.41
▁ཕྱི་ལོ་ཉིན་	-10.4101
སྟོན་པ་དང་་	-10.4102
རྒྱ་ཡིག་	-10.4105
བྱང་ཆུབ་ལས་	-10.4105
སྐར་	-10.4106
ལ་དམ་བསྒྲགས་	-10.4107
▁དེ་བས་ན་	-10.4111
འི་གཞིས་ཆགས་ཁག་	-10.4116
▁འདི་ལོར་	-10.4118
རྫི	-10.4124
ཕུ	-10.4126
ཆོ	-10.4127
པར་བྱའོ་	-10.4129
བཏང་བའི་	-10.4131
སྔ་དྲོ་	-10.4131
ལས་བྱེད	-10.4131
དོན་ཡོད་	-10.4139
ཐུབ་པ	-10.4142
སྲིད	-10.4142
ཨ་རིར་	-10.4143
བརྫུན་	-10.4143
དེའི་ནང་དུ་	-10.4144
▁ཁ་སང་	-10.4146
སྐོར་གསུང་	-10.4147
གྲངས	-10.4151
སེར་སྐྱ་མི་མང་	-10.4152
འོངས་ཏེ་	-10.4155
སྒྲུབ་པ་དང་འབད་པ	-10.4157
སྟོན་ཅིང་	-10.4159
བོད་དོན་ཆེད་	-10.416
གསུམ་གྱིས་	-10.4161
བ་དེ་	-10.4162
བྱེད་ཐུབ	-10.4166
གོམས་གཤིས་	-10.4167
འདི་ལོའི་	-10.4167
དོ	-10.4171
སྡིག་པའི་གྲོགས་	-10.4172
འབྱུང་ངོ་་་	-10.4173
གློད་བཀྲོལ་གཏོང་	-10.4174
ཕྱེད་ཡོལ་ཆུ་ཚོད་	-10.4177
ངལ་རྩོལ་	-10.4179
▁སྐབས་དེ་དུས་	-10.4183
ཁུང་	-10.4187
སྦྱར་ཏེ་	-10.419
རྣམ་པར་སྨིན་པ	-10.419
་སྒྲིབ་པ་ཐམས་ཅད་	-10.4192
ལྷན་	-10.4194
ཕི	-10.4194
རབ་གནས་	-10.4196
ཞེས་ཞུ་རྒྱུ་ཡིན	-10.4196
དགྱེས་	-10.4206
པོ་དང་་	-10.421
ཕ་རོལ་གྱི་	-10.4216
ཐུབ་རྒྱུ་རེད	-10.4216
རྒྱལ་གཅེས་པ་	-10.4216
བསྐྱེད་མ་ཐག་ཏུ་	-10.4219
ཤེས་པ་དང་་མཐོང་བ	-10.4219
མྱོང་བ	-10.422
བྱས་ཏེ་་	-10.4221
བརླ	-10.4222
དཔེ་ཆ་	-10.4231
ཚངས་པ་མཚུངས་	-10.4238
བསྲེགས་	-10.4238
བྱས་ཀྱང་	-10.4239
སྤྱི་ཁྱབ་པ་	-10.4242
▁ཀུན་རྫོབ་ཏུ་ན་	-10.4242
སེང་གེའི་	-10.4242
རྣམས་ཀྱིས་ནི་	-10.4244
དངོས་པོ་མེད་པ	-10.4248
སྐུ	-10.425
ཁྱེད་རང་ཚོས་	-10.4251
བོད་བསྟན་སྲིད་	-10.4253
རྩད་གཅོད་	-10.4254
རྣམ་པ་ཚོས་	-10.4254
ཀྱ	-10.4255
ེད་པའི་དབུ་ཁྲིད་	-10.4256
འཕྲད་བཞིན་པའི་	-10.4258
▁ཡོན་ཏན་	-10.4258
མཉན་དུ་ཡོད་པ་ན་བ	-10.4258
ཕས་	-10.426
▁དེ་ནས་ཁྱིམ་བདག་	-10.4262
འདི་ཡི་	-10.4263
དེ་ཐོས་ནས་	-10.4264
ཝེ་	-10.4266
པ་ཀུན་འབྱུང་བ་	-10.4266
▁དེ་ནས་ཁྱེའུ་	-10.4267
གཡོག་འཁོར་	-10.4269
ཕྱེ་མ་	-10.4272
ཨར་	-10.4275
བཞེད་	-10.4281
▁རིན་པོ་ཆེའི་	-10.4283
འགྱུར་ལྡོག་	-10.4287
གཞི	-10.4288
རླུང་གི་ཁམས་	-10.4288
ཆགས་ཀྱི་འདུག	-10.4289
གཙོ་བོ་ནི་	-10.4291
བདུད་ཀྱི་	-10.4295
ཚེ་རིང་ལགས་	-10.4295
གད	-10.4296
འདས་པ་དང་་	-10.4297
སེར་	-10.4299
མགུ་བ	-10.4309
ཡུ་གུར་	-10.431
གོ་བ	-10.4312
ཀྱང་བརྩོན་པ་དང་	-10.4313
བྱེ་	-10.4315
ནོན་	-10.4316
བསྒྲུབས་པ་	-10.4316
དད་ལྡན་	-10.4317
མཉེས་	-10.432
འགྲན་བསྡུར་	-10.4321
མདུན་ན་འདོན་	-10.4323
བཞིན་ཡོད་སྐོར་	-10.4324
ཚོས་ཀྱང་	-10.4327
ཕྱི་ལུགས་ལྟར་	-10.4329
སྐ	-10.433
▁ཐུགས་རྗེ་ཆེ	-10.4332
ཨིན་ཇིའི་	-10.4333
གནས་སྟངས་ཤིག་	-10.4333
ཚོགས་འདུ་ཐེངས་	-10.4333
འི་ཆོས་རྣམས་	-10.4337
གདུགས་དང་་རྒྱ	-10.4339
ཆེ་ཞུ་རྒྱུ་ཡིན	-10.4339
ལེགས་པར་བརྒྱན་	-10.434
ཀྱིས་གསུངས་པ་ལ་	-10.4342
དུང་	-10.4344
སྐུ་ལས་བསྐྱོན་	-10.4345
སྙན་ཐོའི་ནང་	-10.4345
▁སེམས་ཅན་རྣམས་	-10.4345
ཀྱིས་དགོངས་པ་	-10.4347
དེ་དང་	-10.4347
དགོངས་དོན་	-10.4348
ྭ་	-10.4349
གནས་སོ་	-10.4349
འདུས་མ་བྱས་ཀྱི་	-10.4349
ལག་ན་	-10.4351
▁མིའི་	-10.4353
རང་ལ་	-10.4356
བྲལ་བ་	-10.4358
འཁྱོག་བཤད་	-10.4361
གི་དངོས་པོ	-10.4362
ཇེ	-10.4363
ནས་ཕྱི་ལོ་	-10.4364
གཞན་དག་ཀྱང་	-10.4368
གཞིས་ཆགས་ཁག་གི་	-10.4371
རིག་བྱེད་	-10.4372
གྲྭ་ཚང་གི་	-10.4374
ཆོས་དེ་	-10.4374
མགྲོན་འབོད་	-10.4378
མས་གྲངས་མེད་པ་	-10.4379
རིས་ཀྱི་ལྷ་རྣམས་	-10.4382
འཁོད་ཡོད	-10.4383
་གང་ཞེ་ན་	-10.4384
སྒྱུ་མ་	-10.4387
བྱ་བར་	-10.4388
སྔ	-10.4388
སེམས་ཅན་འདི་དག་	-10.4389
འཛམ་གླིང་ཞི་བདེ་	-10.4393
དེའི་ཚེ་ན་	-10.4394
ཡོང་ཆེད་	-10.4396
བཤིག་	-10.4398
རང་ཉིད་ཀྱིས་	-10.4399
▁སློབ་ཕྲུག་	-10.44
རྫིང་	-10.44
སྲིན་པོ་	-10.4401
པ་ཡང་	-10.4406
ྲངས་ཉུང་མི་རིགས་	-10.4406
བླ་མའི་	-10.4406
སྟོབས་བཅུ་	-10.441
དེ་དང་དེར་	-10.441
རྒྱུ་མ་ཟད	-10.4411
རྒྱུ་རྐྱེན་	-10.4411
དེ་སྔ་ཕྱི་ལོ་	-10.4413
ཕྱག་རྟགས་	-10.4416
མཆོད་འབུལ་	-10.4418
བཀའ་ཟུར་	-10.4419
འཁྲུངས་	-10.442
▁བྱིས་པ་	-10.4422
ལོངས་སུ་སྤྱོད་	-10.4422
འཛིན་བྱེད་ཀྱི་བུ	-10.4423
པའི་ཆོས་	-10.4423
ཚུལ་ཁྲིམས་དང་་	-10.4423
སོ་སོས་	-10.4423
བཞག་གོ་་	-10.4423
ཁྱབ་བསྒྲགས་	-10.4424
འི་གནས་སྟངས་	-10.4424
དངོས་ཤུགས་	-10.4425
རྒྱལ་ས་ལྷ་སར་	-10.4427
འདི་ཉིད་ལ་ས	-10.4428
པར་རིས་	-10.4428
ཐོབ་བོ་་	-10.443
ཐུབ་མེད	-10.4431
ལྷ་དང་་ཀླུ་དང་་	-10.4431
གུ་ཡངས་	-10.4432
གང་ལེགས་	-10.4432
དམ་པ་ཁོང་	-10.4432
▁རྒྱལ་པོའི་	-10.4433
ཅུང་ཟད་ཀྱང་	-10.4434
ཐོགས་མེད་	-10.4439
མཆིས་ཏེ་	-10.444
བརྩི་	-10.4442
པང་ནས་སྐྱེས་	-10.4443
བརྩིས་	-10.4445
རྣ	-10.4447
སྤང་	-10.4448
འབོད་སྐུལ་གནང་	-10.4451
བཙོ	-10.4453
ལ་མ་བརྟེན་པའི་	-10.4454
སྨོན་ལམ་རྒྱག་	-10.4456
གྲུབ་པའི་	-10.4456
ཕྱི་དྲིལ་ལས་ཁུངས	-10.4457
བྱོས	-10.4463
བསམ་མི་ཁྱབ་་	-10.4465
ལོགས་	-10.4467
གཉེན་པོ་	-10.4467
ཀྱི་ཡན་ལག་བདུན་	-10.4467
ཕྱེ་	-10.4469
▁སྐབས་	-10.4472
ཟབ་ཅིང་	-10.4472
ན་དེ་	-10.4474
་རྟག་ཏུ་	-10.4477
ནི་སངས་རྒྱས་	-10.4482
ཆོག་པའི་	-10.4483
དགོངས་འཆར་	-10.4483
ཕྱིན་པ་རེད	-10.4486
ཁ་རས་	-10.4488
ཞེས་པ་དེ་	-10.4491
▁ཁྱེད་	-10.4495
ཞུས་འདུག	-10.4496
ཞི་གནས་	-10.4496
མཁྱེན་ནས་	-10.4497
གོང་གི་	-10.4502
བསླབས་	-10.4503
▁མི་གང་	-10.4504
དྲི་ཟ་	-10.4505
▁དེས་བསམས་པ་	-10.4506
ཐ་མ་	-10.451
སོག་པོའི་	-10.4513
གནས་སྟངས་ལ་	-10.4519
དུས་དུས་སུ་	-10.452
བྱིན་ནས་	-10.4521
སོ་སོ་ནས་	-10.4521
ཕྱིར་མི་ལྡོག་པར་	-10.4521
འོང་	-10.4522
གཟུགས་བཟང་ཞིང་	-10.4523
གན་དུ་	-10.4524
བྱས་པ་ཡིན་ན་	-10.4524
ལེགས་སྦྱར་གྱི་	-10.4525
རྡུང་	-10.4528
ཁོ་ནའི་	-10.4528
བརྙེས་པ་	-10.453
ལ་སྤྱོད་པའི་	-10.4531
ཀླད་པ་	-10.4534
འཆི་བའི་	-10.4535
གྲངས་འབོར་	-10.4536
ཤས་	-10.4536
སྒྲ་དབྱངས་	-10.4538
འདུགདེ་ནས་	-10.4539
པར་བྱེད་དོ་	-10.454
ཆོག་མཆན་	-10.454
་སྟབས	-10.4541
་དང་་མཁས་པ་	-10.4542
ལྡན་་	-10.4543
སྟོབས་ཀྱི་	-10.4544
རྒྱ་ནག་གཞུང་ནས་	-10.4545
མྱོང་བ་	-10.4547
ཡང་བརྗོད་དུ་	-10.455
ཟངས་དཀར་	-10.4554
ཐུན་མོང་	-10.4554
བླང་བ	-10.4555
ྲུང་གི་བསྟན་པ་ལ་	-10.4556
ལྷན་ཚོགས་ཐོག་	-10.4558
སྦྲེལ་རྒྱལ་ཚོགས་	-10.4566
བྱམས་པའི་སེམས་	-10.457
དོན་དག་	-10.4571
ཕྱུང་སྟེ་	-10.4574
བཤད་སྒྲུབ་	-10.4574
བསྒྲུབ་པ་	-10.4576
བཟང་བ་	-10.4582
གསོལ་མགྲོན་ཁང་དུ	-10.4583
མཆོག་ཏུ་དགའ་བ་	-10.4586
▁དབང་པོ་	-10.4587
བསྔགས་	-10.4589
་ཇི་སྙེད་པ་ཉིད་	-10.459
སླར་གསོ་	-10.4592
ཅིའི་སླད་དུ་	-10.4592
གི	-10.4593
གཡར་	-10.4595
ཆོས་ཀྱི་རྒྱལ་པོ	-10.4598
ཕྱི་དྲིལ་བོད་	-10.4599
ཡོ་རོབ་	-10.4601
དུས་གཞན་ཞིག་ན་	-10.4601
དྲི་བ་དྲིས་ལན་	-10.4601
དུས་ནས་དུས་སུ་	-10.4601
འི་ཚོགས་	-10.4602
རང་རེའི་	-10.4602
ཐུགས་གསོ་	-10.4602
▁ལྔ་དང་ལྔ་བཅུའི་	-10.4604
ཨིན་	-10.4605
ཡང་དང་ཡང་དུ་	-10.4606
ཚོགས་བཅར་བ་ཡོངས་	-10.4608
ཆེས་ཐོག་མ་	-10.4608
མུས་	-10.4611
ལ་ཡང་དག་པར་	-10.4611
ཕྱེད་ཡོལ་ཆུ་ཚོད	-10.4611
དམན་	-10.4612
འབྲིང་	-10.4614
ཀྲ	-10.4615
སེམས་ཀྱང་	-10.4616
མཉམ་འབྲེལ་གྱི་	-10.4619
བ་ལྟར་	-10.462
ཉེས་དམིགས་སུ་	-10.4624
འི་ཁམས་ཤེས་པ་	-10.4629
ཤེས་པ་འགོག་པ	-10.463
མང་པོ	-10.4631
ས་ཡོངས་སུ་	-10.4635
རྐང་པ་ལ་ཕྱག་འཚལ་	-10.4637
དམ་པ་ཁོང་གི་	-10.4637
ཉོན་མོངས་པ་རྣམས་	-10.4639
ཁྲིམས་ཡིག་	-10.4641
▁ཆོས་ཐམས་ཅད་ནི་	-10.4645
ཕོ་བྲང་དུ་	-10.4646
རྔ	-10.4647
མན	-10.4649
▁གནོད་སྦྱིན་	-10.4651
སྡོང་པོ་	-10.4652
བསགས་པའི་	-10.4655
བསྒོམ་པ་	-10.4655
དང་་ཚངས་པ་དང་་འཇ	-10.4655
ཆུང་ངུ	-10.4655
པའི་སེམས་ཅན་	-10.4658
ནི་གང་	-10.4658
ལྟར་ན	-10.4661
གི་ཡོད	-10.4661
ཕྱིན་ཡོད	-10.4666
ཇི་ལྟ་བུ་	-10.4667
ཆགས་འདུག	-10.4668
ལྟ་བ་དང་་	-10.4671
འདིས་ནི་	-10.4673
མི་ཚེ་	-10.4676
དང་་ལྷ་མ་ཡིན་དང་	-10.4677
ུག་	-10.4679
པ་ནས་	-10.4682
མ་སུ་རི་བོད་ཁྱིམ	-10.4683
གནང་སྐབས་	-10.4684
དབུ་འཛུགས་གནང་	-10.4685
རྒྱལ་ས་ལྡི་ལི་	-10.4691
གནང་གྲུབ་མཚམས་	-10.4693
དམ་ཆོས་	-10.4697
ཞབས་ལ་མགོ་བོས་	-10.4706
ཁྱེད་ཚོ་	-10.4708
འདི་སྐད་	-10.4709
ཅེ	-10.4715
རྒྱལ་བུ་རྒྱལ་	-10.4715
གྱི་སྔ་དྲོར་	-10.4717
ཞིག་བྱུང་ངོ་་་	-10.4717
མི་སྣང་བར་གྱུར་	-10.472
པས་ན་	-10.472
བདེ་བ	-10.4721
ཡང་དག་པའི་ལྟ་བ་	-10.4721
སུ་ནི་	-10.4722
བཟའ་བ	-10.4725
སུམ་དུ་བྱས་སོ་་	-10.4725
ཐོབ་པར་འགྱུར་་	-10.4726
་གཏན་མི་དམིགས་	-10.4729
ཝེ	-10.473
ལེགས་སྐྱེས་	-10.4732
ཚངས་པས་བྱིན་གྱི	-10.4733
འི་གཟུགས་	-10.4736
ཁ་ཏོན་	-10.4736
གང་བྱུང་	-10.474
སྐུ་ཚབ	-10.474
གསར་འགོད་པས་	-10.4743
བྲམ་ཟེ	-10.4745
ཡིན་པ	-10.4746
དགའ་སྤོབས་	-10.4747
ཕྱོགས་བཅུ་	-10.4751
ཤི	-10.4755
ནས་བཟུང་སྟེ་	-10.4757
བརྙན་	-10.4759
ཡུ་	-10.4761
རྡོ་རྗེ་ལགས་ཀྱིས	-10.4764
སློབ་གཉེར་གནང་	-10.4767
པར་བྱ་་	-10.4768
ཆུང་བ་	-10.4768
འཛམ་གླིང་ཞི་བདེ	-10.4772
སྡུག་པ་	-10.4773
ཆོས་ཀྱི་ཚུལ་	-10.4773
་དག་ཡང་དག་པ	-10.4775
གྲོང་སྡེའི་	-10.4775
གྲྭ་ཚང་	-10.4775
གཞུང་ཞབས་	-10.4775
ཛ་དྲག་གནས་སྟངས་	-10.4777
ཤེས་ཁོང་དུ་ཆུད་	-10.4779
སྟོང་ཉིད་	-10.4782
གང་ཡོད་	-10.4784
འཛམ་བུ་གླིང་	-10.4785
བསྒྱུར་བཅོས་	-10.4785
ཡི་རང་	-10.4786
གཤེགས་ནས་	-10.4786
ལས་སྐྱེས་པ་	-10.4787
མཐོང་ཞིང་	-10.4789
བྱིན་ནོ་་	-10.4789
བཙོན་	-10.479
ངེས་ཡིན	-10.479
སྒྲིབ་པ་	-10.479
▁རང་དབང་ཅན་གྱི་	-10.4791
▁བཅོམ་ལྡན་འདས་ལ་	-10.4792
བྱེད་པ་དང་	-10.4793
འཐུས་	-10.4793
ཛ་	-10.4793
ར་བ་	-10.4793
ཡོངས་སུ་སྨིན་པ	-10.4795
ཁ་ཞེ་གཉིས་མེད་	-10.4798
ཀྱི་ཆེད་དུ་	-10.4799
བརྗོད་དུ་མེད་པ་	-10.4801
གནང་དོན	-10.4802
ིར་	-10.4804
▁ཁྱེའུ་	-10.4804
བཅུ་གསུམ་	-10.4805
མཛད་དོ་་	-10.4807
ཞི་གནས་དང་	-10.4813
གསེར་གྱི་ཁ་དོག་	-10.4813
▁གནས་	-10.4815
ཐོག་རྒྱབ་སྐྱོར་	-10.4817
སྔོན་མ་	-10.4817
▁གང་ཡང་	-10.4818
གྱུར་ཡོད	-10.4821
▁ཉོན་མོངས་	-10.4822
ཞིང་བསོད་ནམས་དག་	-10.4827
ས་ཟླ་འོད་གཞོན་ནུ	-10.4828
གནང་དང་གནང་བཞིན་	-10.4829
ཐམས་ཅད་ནི་	-10.4835
སྤང་བའི་ཕྱིར་	-10.4837
ཅི་ལགས་	-10.4837
སྐྱེ་དགུ་	-10.4839
ཕེབས་པར་	-10.4839
དབུས་འོས་བསྡུ	-10.4839
འབྱུང་ཁུངས་	-10.4841
ལྟ	-10.4842
དབང་ཆ་	-10.4843
བགྱིས་པ་	-10.4843
▁ང་ཚོ་ཚང་མ་	-10.4845
ཕྱིས་སུ་	-10.4846
དེ་རྣམས་	-10.4857
པ་དེ་ནི་	-10.4857
མི་ལོ་ཧྲིལ་པོ་	-10.4857
ནང་པའི་ཆོས་	-10.4859
ཞུས་དོན་ལྟར་	-10.486
▁གོང་གསལ་	-10.4867
ལུང་བསྟན་ཏོ་་	-10.4868
ཞུ་གཏུག་	-10.4869
▁སྐུ་	-10.4869
སྐུ་ཕྲེང་	-10.4873
ཕྲག་དོག་	-10.4878
གྲངས་ཚད་	-10.4879
རྒྱའི་	-10.4879
▁ང་ཡི་	-10.4881
སུམ་ཅུ་རྩ་གསུམ་	-10.4882
ྱང་ཆུབ་སེམས་དཔས་	-10.4883
ལ་སེམས་	-10.4885
གི་ཡོད་པ་རེད	-10.4887
ཕུད་	-10.489
གསུང་གི་	-10.489
ཇིམ་མེག་གྷོ་ཝན་	-10.4891
དུས་བཀག་	-10.4892
▁སྐབས་རེ་	-10.4893
བེ	-10.4896
གྱུར་ན་་	-10.4898
སྣེ་ལེན་	-10.4901
མི་ཡི་	-10.4902
དབྱེ་འབྱེད་	-10.4903
འདི་རྣམས་ཀྱིས་	-10.4903
འགྲོ་་	-10.4904
དེ་རིང་གི་	-10.4906
ལྷའི་བུ་མོ་	-10.4906
བོ	-10.4912
རྣམ་པར་སེལ་བས་	-10.4912
སྤུན་	-10.4916
ཞེས་ཟེར་	-10.4917
བལྟ་བར་བྱའོ་་	-10.4918
དོན་རྐྱེན་	-10.492
བརྩམས་པ་	-10.492
རྣམ་གྲངས་	-10.4921
ཞིང་དགའ་ལ་	-10.4921
ར་གྱུར་	-10.4921
རེར་	-10.4921
བརྩོན་འགྲུས་རྩོམ	-10.4925
ཐོབ་པའི་	-10.4925
དགོས་པ་མ་ཟད	-10.4926
དགུན་	-10.4926
སྤེལ་བའི་	-10.4927
ཀྱི་ཚོགས་གཙོ་	-10.4928
བསྲུངས་	-10.4932
གློག་བརྙན་	-10.4933
ཆབ་སྲིད་བཙོན་པ་	-10.4933
དམན་པ་	-10.4935
པའི་ནང་	-10.494
རློམ་སེམས་	-10.494
ཡོངས་སུ་ཤེས་པ	-10.4941
པ་བཞི་	-10.4942
ཙམ་རིང་	-10.4944
▁གང་ཚེ་	-10.4945
སྦྲུལ་	-10.4947
ལ་མོས་པ་	-10.4949
སུ་ལ་ཡང་	-10.495
གང་སར་	-10.495
མཛད་ཡོད	-10.4953
དགོད་	-10.4954
འགྱུར་བར་	-10.496
དང་འབྲེལ	-10.4961
སྨྲ་བ་དང་་	-10.4961
ལྗགས་	-10.4962
ཀརྨ་	-10.4962
སྦྱིན་པ་སྦྱིན་	-10.4966
རྒྱ་གར་བ་	-10.4967
པའི་ལས་དེའི་	-10.4968
སྨིན་སྩལ་ཐོབ་སྟེ	-10.4968
འི་རིའི་རྩེ་མོ་	-10.4969
སོང་ངམ	-10.497
དེ་དག་གིས་ཀྱང་	-10.4971
རྡོག་རྩ་གཅིག་	-10.4972
སྐྱེལ་	-10.4973
ཉེན་རྟོག་པས་	-10.4973
ལོ་མང་རིང་	-10.4973
གཟའ་མཇུག་	-10.4975
་སྤྱད་པར་འཚལ་ལོ་	-10.4978
མང་ཚོགས་ནས་	-10.4979
འཐུན་པར་	-10.498
ཞུམ་	-10.4983
ཆབ་སྲིད་ཚོགས་པ་	-10.4983
ཀྱི་ཕུང་པོ་	-10.4983
སྒྲིལ་	-10.4984
ར་གྱུར་་	-10.4991
རྒྱུན་འཛིན་	-10.4993
བསྒོམས་	-10.4996
ས་མཚམས་སུ་	-10.4996
ཐུགས་སྣང་	-10.4997
རྒྱུན་ལྡན་	-10.4998
གཅིག	-10.4999
སྤྲོ་བ་	-10.5003
ཁོང་ཚོས་	-10.5003
མཐོ་རིམ་	-10.5003
ཅན་དུ་	-10.5004
བརླག་	-10.5005
ཉིན་གཅིག་	-10.5008
ཞིང་ཡོངས་སུ་དག་པ	-10.5008
སྡེ་སྣོད་གསུམ་	-10.5008
གསུང་རབ་	-10.5011
པར་བྱ་བ་	-10.5011
ད་བར་བོད་མི་	-10.5012
རིང་དུ་	-10.5013
མཐུན་འགྱུར་གནང་	-10.5014
གཅིག་སྒྲིལ་	-10.5014
པར་ཡང་	-10.5015
འི་མཆོད་རྟེན་	-10.5018
རིག་པའི་རྣམ་གཞག་	-10.5023
ཚོགས་ཆུང་གིས་	-10.5025
འི་རང་སྐྱོང་གི་	-10.5026
མཆོག་འདི་	-10.5029
ན་རེ་	-10.503
བྱེད་པས་	-10.5032
ར་བྱེད་དོ་	-10.5033
ན་པ་	-10.5036
ནི་གང་ཡིན་	-10.5038
དུས་ལ་བབ་	-10.504
▁ཨ་རི་	-10.5042
ར་མི་འགྱུར་རོ་	-10.5044
དངུལ་ཁང་	-10.5048
▁མི་མང་	-10.5049
ཁྱིམ་མཚེས་	-10.5052
འདི་ལྟ་བུ་འདི་	-10.5052
འདི་ག་	-10.5054
ཕྱིར་མི་ལྡོག་པ་	-10.5058
སྔོ་	-10.5061
པའི་ཚེ་	-10.5061
དུས་ཀྱི་	-10.5062
བསྡུ་	-10.5062
ངེས་སྟོན་པ་	-10.5069
▁སེམས་ཅན་དེ་དག་	-10.5069
ཚང་བར་	-10.507
དངོས་པོར་	-10.5071
ཞོ་	-10.5073
སྲོག་གཅོད་པ་	-10.5073
ཕོ་མོ་	-10.5073
སོང་ཤིག་	-10.5075
ཝི	-10.5076
དད་ལྡན་ཆོས་ཞུ་བ་	-10.5076
རྣམ་པར་དག་	-10.5077
པ་ཚོས་	-10.5077
བྱམས་བརྩེ་དང་	-10.5077
ནང་ན་ཡང་	-10.5082
པ་འདི་	-10.5085
ནས་ལོ་	-10.5085
ལ་སྙིང་བརྩེ་བ	-10.5086
རྟག་པ་	-10.5086
དེ་དེ་བཞིན་ཏེ་	-10.5091
པ་དང་་་	-10.5092
འདིའི་ཐོག་	-10.5094
རེད་བསམ་གྱི་འདུག	-10.5095
▁ད་ཐེངས་	-10.5097
ཨ་རིའི་རྒྱལ་	-10.5097
འཇོག་ཁང་དུ་	-10.5098
སྐྲ་དང་ཁ་སྤུ་	-10.5099
ངོ་མཚར་དུ་གྱུར་	-10.51
ཅང་	-10.51
ཀྱི་རྐྱེན་པས་	-10.5102
▁ཁྱེད་ཀྱིས་	-10.5104
ཨན་	-10.5111
སྦྱིན་སྲེག་	-10.5111
བྱང་ཆུབ་ཀྱང་	-10.5112
བདེ་བ་དང་	-10.5116
དུ་ར	-10.5117
སྟོང་གི་	-10.5117
གཞན་དག་ལ་ཡང་	-10.5123
རྣམས་ཀྱི་དོན་	-10.5123
ལ་ལྟོས་	-10.5124
འདི་བརྒྱུད་	-10.5125
གལ་ཆེ་ཤོས་	-10.5125
བརྙས་	-10.5126
▁ཨ་	-10.5131
ལན་གསུམ་	-10.5131
ཤོག	-10.5133
འཛུལ་	-10.5139
་ལྟར་	-10.5142
མགོན་སྐྱབས་	-10.5145
▁དེ་ནས་རྒྱལ་པོ	-10.5146
སྒྲིབ་པ་ཐམས་ཅད་	-10.5147
ནམ་མཁའ་མཐའ་ཡས་	-10.5149
ཁྲི་ཕྲག་	-10.515
ཐབས	-10.515
▁གོང་ས་མཆོག་གི་	-10.5152
▁མདོ་སྡེ་	-10.5154
ཉི་ཁྲི་ཐུབ་པ་ན་	-10.5156
ལུང་དུ་མ་བསྟན་པ	-10.5156
ཟིན་བྲིས་	-10.5158
ས་ལ་བཙུགས་ཏེ་	-10.5158
ལྟ་བར་གྱུར་པ་	-10.516
འདུག་པར་བྱའོ་་	-10.516
དགེ་སློང་དེ་དག་	-10.516
དགོས་དམིགས་	-10.5161
ཐུབ་པ་ཡིན་ན་	-10.5162
ཀྱི་དབང་པོའི་	-10.5162
སྐྱེ	-10.5164
ཁྱབ་སྤེལ་	-10.5164
གྲུབ་པའི་རྒྱུ་	-10.5165
ངོས་ནས་ཀྱང་	-10.5166
འཇིག་རྟེན་ཕ་རོལ་	-10.5166
ཞུས་པར་	-10.5167
གཞན་རྣམས་	-10.5167
པས་ན་་	-10.5169
གངས་	-10.517
ང་ཚོ་ཚང་མས་	-10.5174
་འགོག་པ་དང་་ལམ་	-10.5179
མཚུངས་མེད་	-10.518
མི་མཉམ་པ་དང་མཉམ་	-10.5181
ཐུགས་རྗེའི་	-10.5188
བོད་ཐོག་འཛིན་	-10.5189
ནུས་སྟོབས་	-10.5192
དབུ་མ་	-10.5197
དང་མཇལ་འཕྲད་གནང་	-10.5197
དང་བསླབ་པའི་གཞི་	-10.5198
་མེད་་	-10.5199
བརྟན་པོ་	-10.5202
འཐོབ་པ་	-10.5203
ཕྱི་ནས་	-10.5203
ཏིང་འཛིན་འདི་	-10.5204
ལྷགས་་	-10.5207
ལྷས་	-10.5207
བཞི་པོ་	-10.5208
ཞག་བདུན་	-10.521
གཟིགས་སྐོར་	-10.5212
ཆེ་ཆུང་	-10.5214
▁ད་ནི་	-10.5216
གནང་ཕྱོགས་	-10.5217
ཕ་མས་	-10.5218
སྐྱེ་དགུའི་བདག་	-10.5218
དོན་དངོས་	-10.5219
ཕ་མ་གཉིས་	-10.522
སྤང་བ	-10.5221
དབང་ཆེན་ལགས་	-10.5221
འགྲོ་བ་ཐམས་ཅད་	-10.5221
ཟག་པ་མེད་པའི་	-10.5222
ཚན་རིག་པས་	-10.5226
མཉམ་ཞིང་	-10.5228
རེ་རེ་བཞིན་	-10.5233
བར་བྱེད་དོ་་	-10.5233
ཉམས་ཞིབ་པ་	-10.5234
ཙན་དན་	-10.5234
ཇོ་	-10.5235
▁སྐུ་ཞབས་	-10.5238
▁བྱང་ཨ་རིའི་	-10.524
འཆར་འགོད་	-10.5241
གནས་སྟངས་ཐོག་	-10.5243
▁བདུད་	-10.525
མཐོང་ནས་ཀྱང་	-10.525
ཕྲད་	-10.525
ཡིན་ནོ་ཞེས་	-10.5252
བོད་རྒྱ་གཉིས་	-10.5252
ཡིན་པར་བརྟེན་	-10.5255
གུ	-10.5255
མི་འབྱུང་	-10.5256
བྱེད	-10.5257
ཤོས་	-10.526
དེ་ལྟ་བུ་ནི་	-10.5262
བདེན་པར་	-10.5263
གསར་པའི་	-10.5263
བླང་དོར་	-10.5263
རུལ་	-10.5264
ལྷགས་ནས་	-10.5267
ཅན་དང་་	-10.5267
བྲམ་ཟེ་དང་་	-10.5268
དེང་དུས་	-10.5268
དེ་ཉིད་ཀྱི་	-10.5271
སྐྲུན་	-10.5273
སྒྲིག་འཛུགས་ལ་	-10.5274
ཡོངས་སུ་རྫོགས་པ་	-10.5274
མི་ཤེས་སོ་	-10.5277
གནས་པར་བྱེད་	-10.5283
སྒྲ་ཡང་	-10.5285
ལ་བ་	-10.5286
རྗེས་སུ་འབྲང་བ	-10.5287
ཕྱི་སྲིད་	-10.5289
ཐུགས་བསྐྱེད་	-10.529
ལྷག་བསམ་	-10.5291
འཚམས་	-10.5291
བྱུང་བར་གྱུར་ཏོ་	-10.5293
དང་རྒྱལ་སྤྱིའི་	-10.5294
སྙིང་རྗེ་ཆེན་པོ	-10.5294
ཆོས་རིག་	-10.5295
▁ཁྱེད་རང་ཚོ་	-10.5298
དོགས་	-10.5298
འཐུངས་	-10.5298
གུང་	-10.5298
ཁ་ནས་	-10.5298
ལྷག་པ་	-10.5299
ལྟ་གྲུབ་མི་འདྲ་བ	-10.5299
ོལ་	-10.53
སྣ་ཚོགས་ཀྱི་	-10.53
ཅེས་བྱ་བ་དང་་	-10.5301
གནོན་	-10.5301
མཐར་ཐུག་	-10.5303
དགོངས་པ་རྫོགས་	-10.5304
འབྲོག་	-10.5304
པའི་ཚིག་	-10.5308
ལྟུང་བ་	-10.5309
གླང་པོ་ཆེ	-10.531
ཤེས་ཡོན་ལམ་ལུགས་	-10.531
བཀའ་འཁྲོལ་	-10.531
ཆེན་པོ་མཆོག་གིས	-10.5311
འི་གཞུང་མང་གཉིས་	-10.5311
ཏ་ལའི་བླ་མ་མཆོག་	-10.5312
ལ་བཀོད་དོ་་	-10.5312
བོད་ནང་གི་འགྲོ་བ	-10.5315
ཡུལ་འཁོར་	-10.5315
གསུམ་པོ་	-10.5316
རྒྱུའི་ཐོབ་ཐང་	-10.532
འགྲོགས་	-10.5324
བྱ་རྒྱུ	-10.5326
སྐུ་གཟུགས་	-10.5326
པ་དེར་	-10.5329
ཤིག	-10.5329
བར་གྱུར་	-10.5331
བར་འགྱུར་་	-10.5331
གཡོན་	-10.5332
བོད་མི་ཚོ་	-10.5333
▁འདོད་པ་	-10.5335
ཐེ་ཝན་ནང་	-10.5335
འི་བར་ལ་	-10.5341
རྣམས་ཀྱི་གནས་	-10.5341
གནང་རྒྱུ	-10.5342
ཐབས་ཟླར་བབ་པ་ལ	-10.5349
ཧིན་བོད་མཛའ་	-10.5349
འགྲན་སྡུར་	-10.5349
རྒྱལ་པོ་དེ་	-10.535
ར་འཚང་རྒྱ་བར་	-10.5351
སྔ་འགྱུར་རྙིང་མ	-10.5352
མ་མཆིས་པ་དང་་	-10.5352
ཁྲིམས་སུ་	-10.5353
ཡེ་ཤེས་མཐོང་བ་	-10.5353
མི་གནས་པ་	-10.5353
རྗེས་དྲན་གྱི་	-10.5353
སྙིང་བསྡུས་ཤིག་	-10.5354
གནད་	-10.5355
འདུ་ཤེས་མེད་མིན་	-10.5355
རང་བཞིན་ལྡན་པའི་	-10.5357
ཨིན་ཡིག་	-10.5358
ཡོད་པ་མ་རེད	-10.5358
ངོམས་	-10.5361
བརྟན་ལྷིང་	-10.5361
པ་ཞིག་རེད	-10.5361
སྐྱེ་བར་	-10.5363
པར་བྱེད་དེ་	-10.5363
རང་རིགས་	-10.5365
འཚལ་ལོ་་	-10.5366
ལ་ཐུགས་རྗེ་ཆེ་	-10.5368
གྲོལ་བ་	-10.5368
དཔེ་མཚོན་	-10.5371
ཇི་སྙེད་ཅིག་	-10.5373
ཅི་ནས་ཀྱང་	-10.5381
་འདུག	-10.5382
མི་དགའ་བ་	-10.5383
ངོ་ཚ་	-10.539
བཞིན་པ་དེ་དག་	-10.5391
འདི་ཁོ་ན་ཡིན་ཏེ	-10.5392
ཆེད་ཕེབས་གནང་	-10.5393
ཚོགས་འདུའི་ཐོག་	-10.5396
▁བྱང་ཆུབ་ནི་	-10.5397
བའི་ཕྱིར་རོ་	-10.5397
ཇི་སྐད་སྨྲས་པ་	-10.5397
ལྟ་བའི་	-10.5399
ཆེད་ལས་	-10.54
སྤྱི་ཚོགས་དང་	-10.54
གྱིས་ལ་	-10.5402
ག་ཚོད་	-10.5403
ཤིང་དགེ་སློང་	-10.5405
རྒས་	-10.5405
རྒན་པ་	-10.5406
ུའུ་	-10.5406
རྣ་བའི་རྣམ་པར་	-10.5408
ཕེབས་པ་	-10.541
བ་ལང་	-10.5414
རིགས་ཀྱི་	-10.5416
དགོན་སྡེ་ཁག་གི་	-10.5416
ཅན་ཞིག་	-10.5418
རབ་ཏུ་དགའ་བ	-10.542
བཙན་བྱོལ་བ་	-10.5426
བཤད་དུ་གསོལ་	-10.5426
ཤ་སྟག་རེད	-10.5426
དྲང་	-10.5432
དགེ་སྦྱོང་ག་ཏ་མ་	-10.5436
འཕོ་བ་	-10.5437
་མ་ཧ་	-10.5439
ཡིན་ཞིང་་	-10.5439
ཨ་རི་དང་	-10.5439
རྒྱུ་ཞིང་	-10.5439
▁སྐྱེས་བུ་དམ་པ་	-10.5439
གཟི་བརྗིད་ཀྱིས་	-10.544
བཙས་	-10.5444
བསྡམས་	-10.5446
ལྷན་ཅིག་ཏུ་རྩེ་	-10.5447
བཀའ་འགྱུར་	-10.5449
ཕ་རན་སིའི་	-10.545
བཞི་བཅུ་	-10.5451
སྡེ་ཚན་གྱི་	-10.5452
ཞེའམ་	-10.5453
སྒོ	-10.5454
པར་བགྱི་	-10.5455
འི་མང་གཙོའི་	-10.5457
ཡང་མེད་དོ་་	-10.5458
ལྟ་བུ་ཞིག་	-10.546
འི་སེམས་ཅན་རྣམས་	-10.5463
དེ་ཁོ་ན་	-10.5463
སྨད་འཚོང་མ	-10.5463
་བསམ་གྱི་འདུག	-10.5464
དེའི་ཐོག་ནས་	-10.5466
▁གྲོང་ཁྱེར་	-10.5467
ཚུལ་དུ་	-10.5468
མ་མཆིས་པའི་	-10.5469
གཞུ	-10.5469
ཚོགས་འདུ་ཞིག་	-10.5469
ཨེ་ཤི་ཡ་	-10.547
▁སློབ་གྲྭའི་	-10.5471
འི་མིང་	-10.5476
ཞུ་གི་ཡོད	-10.5477
རྒྱལ་ཁབ་གཞན་	-10.548
བཀོད་པ་པོ་	-10.548
རྩེད་མོ་	-10.5481
ཟག་པ་ཟད་པ་	-10.5481
འགྲེལ་བརྗོད་གནང་	-10.5482
▁གཞོན་ནུ་འདི་དག་	-10.5483
བརྗེད་	-10.5484
དགོས་ཞེས་	-10.5485
མཛའ་བརྩེའི་	-10.5489
གཉིས་དང་	-10.5489
རྡ་ས་གངས་སྐྱིད་	-10.5489
གཞི་རྩའི་འགྲོ་	-10.5489
དགོས་གལ་	-10.549
རྡོ་རྗེ་ལགས	-10.549
ལེན	-10.5491
བཀའ་དྲིན་སྩལ་	-10.5491
ཡངས་	-10.5493
དེ་བཞིན་ཉིད་དང་་	-10.55
ཉེ་དབང་ད	-10.55
རྒྱལ་ཁབ་དང་	-10.5503
ཆུ་བོ་	-10.5503
བུམ་པ་	-10.5505
ཟེར་ནས་	-10.5505
ཞེས་བགྱི་བ་	-10.5507
་ཞེས་བྱ་བའི་	-10.5507
དྲ་བ་	-10.5509
དགའ་བར་བྱེད་	-10.5509
རྣམ་འདྲེན་	-10.5511
མ་བྱེད་ཅིག་	-10.5514
ནང་འཁོད་དོན	-10.5514
ཞུས་དང་ཞུ་མུས་	-10.5515
གཟབ་	-10.5517
ཕྱི་ཟླ་ཚེས་	-10.5519
▁དེ་དག་ལ་	-10.5519
པ་རྣམས་དང་་	-10.5521
མེད་པར་གྱུར་	-10.5522
དགེ་རྒན་དང་	-10.5524
ཡོང་བཞིན་འདུག	-10.5525
དེར་ནི་	-10.5529
རོགས་ཚོགས་	-10.553
སྐུའི་ཡང་སྲིད་	-10.5532
རྣམས་ལགས་	-10.5533
ཡོན་ཏན་གྱི་ཚོགས་	-10.5534
པའི་སེམས་	-10.5538
རིག་ནས་	-10.5542
ལྷན་འཛོམས་ཀྱིས་	-10.5543
ང་བཅས་པའི་ལྷ་	-10.5543
ནེ	-10.5545
མཐོང་བས་རྣམ་པར་ག	-10.5545
▁བུ་མོས་སྨྲས་པ་	-10.5545
དོན་གྱི་	-10.5545
བོད་མི་ས་ཡ་དྲུག་	-10.5548
ཞུ་བ་ཞུས་པ་	-10.5549
དེ་ཁོ་ན་བཞིན་དུ་	-10.555
དགོས་དོན་ནི	-10.5551
བོད་རང་སྐྱོང	-10.5551
གནས་པ་དང་	-10.5553
ཚོགས་ཆེན་གྱི་	-10.5554
བྱས་པ་དེ་	-10.5554
ཡོད་པ་ནི་	-10.5556
བདག་དང་	-10.5558
གློ་	-10.5559
ཞི་བདེ་དང་	-10.556
བརྗེ་ལེན་	-10.5562
▁ཟླ་བ་	-10.5562
མཁྱེན་པ་ཉིད་དུ་	-10.5562
དང་བྲལ་ཞིང་	-10.5562
དབང་ཕྱུག་མཆོག་	-10.5562
ཉེ་འཁོར་	-10.5564
གནའ་བོའི་	-10.5566
▁དེའི་ཐོག་	-10.5566
བགོ་འགྲེམས་	-10.5568
དུ་གཞུག་པར་བྱ་	-10.5572
རྡ་རམ་ས་ལར་	-10.5573
རྣམས་སྡུག་བསྔལ་	-10.5575
མཉམ་པ་ཉིད་ཀྱིས་	-10.5575
དང་་དུད་འགྲོ	-10.5576
་ལགས་ཀྱིས་	-10.5577
སྔོན་གྱི་གནས་	-10.5579
མར་གྱི་ཉིང་གུ	-10.558
བདག་ཅག་གཉིས་	-10.5581
སྒྲ	-10.5582
ལམ་སྟོན་དང་	-10.5582
གནས་ཀྱི་	-10.5583
གུས་པར་སྨྲ་བ	-10.5585
ལས་ཅི་བགྱིས་ན་	-10.5595
སྩོལ་	-10.5595
རབ་ཏུ་བྱུང་	-10.5596
རེ་སྐུལ་	-10.5597
▁སྔགས་	-10.56
ལྷན་ཅིག་ཏུ་	-10.56
ཞུ་དགོས་	-10.56
གྷོ་	-10.5601
རབ་བྱུང་	-10.5603
འོངས་ཏེ་ཞེས་བྱ་བ	-10.5605
འཁོད་ནས་	-10.5606
དེ་ལ་བརྟེན་ནས་	-10.5607
སྙན་པ་	-10.5608
ལ་ཡིད་ཆེས་	-10.5614
མཐ	-10.5614
འཁོར་བར་	-10.5615
ལྷ་དང་མི་	-10.562
▁འདུ་བྱེད་ཀྱི་	-10.5621
ནང་ན་	-10.5622
རྒྱལ་སྤྱིའི་ཐོག་	-10.5623
ཁ་པར་	-10.5623
ཁྲོ་བ	-10.5623
དགེ་སློང་རྣམས་	-10.5624
ཐམས་ཅད་ཡོངས་སུ་	-10.5631
ལེགས་སྦྱར་	-10.5631
ང་དང་	-10.5635
▁ནང་སྲིད་	-10.5636
བཏང་བ་དང་	-10.5637
བོད་མི་རིགས་	-10.5646
ཚངས་པ་ཆེན་པོ་	-10.5647
འི་སྟོབས་བཅུ་དང་	-10.5647
ིག་རྟེན་སྐྱོང་བ་	-10.5647
གསལ་པོར་	-10.5648
ད་པ་	-10.5648
གཞི་ནས་	-10.5649
གདགས་པ་	-10.5652
འི་དུས་	-10.5652
རྣམ་པ་གསུམ་	-10.5654
རྣམ་པར་གྲོལ་བ	-10.5657
ཉིན་རེ་བཞིན་	-10.5659
ཅེས་སོགས་ཀྱི་	-10.5659
རྫོགས་པར་བྱ	-10.566
སྐུ་ཚབ་དང་	-10.5662
དྲུག་གི་	-10.5663
བར་སྣང་	-10.5664
མ་འགགས་པ་	-10.5667
འོས་འདེམས་	-10.5667
དོན་ལྡན་གླིང་	-10.5671
་དེ་འདི་	-10.5672
དཀྲུག་	-10.5672
ཡིན་ཏེ་་	-10.5673
རྒྱུ་ཡིན་པ་བཅས	-10.5673
སྒྲོན་	-10.5674
མཚོན་པའི་	-10.5675
ན་འདུག་པ་	-10.5676
དེབ་སྐྱེལ་	-10.5677
མངོན་སུམ་དུ་བྱ་བ	-10.5681
སྐབས་སུའང་	-10.5682
ཡོད་མ་རེད	-10.5683
བྱམས་པའི་	-10.5683
དུལ་	-10.5684
སྙིང་པོའི་	-10.5684
▁ཅེས་གསུང་	-10.5685
ཆོས་ལུགས་ཚང་མས་	-10.5685
ལ་སྤྱོད་པས་	-10.5686
རྒྱ་ནག་གཞུང་དང་	-10.5689
སྐུ་མགྲོན་དུ་	-10.569
ལུས་ནི་	-10.569
དབང་ཕྱུག་དང་་	-10.5691
སྟེང་གི་ནམ་མཁའ་ལ	-10.5694
བརྙན་ཐུང་	-10.5694
མགུལ་	-10.5697
སྙོམས་པར་འཇུག་པ	-10.5699
སྐྱེ་བོ་མང་པོ་ལ་	-10.5702
ར་གྱུར་ལ་	-10.5704
ཀུན་དགའ་ར་བ	-10.5705
▁རིམ་པས་	-10.5707
▁རྡ་ས་	-10.5707
ཆོས་དད་	-10.5707
ི་བྱེ་མ་སྙེད་	-10.5708
ཚོགས་པ་ཁག་གི་	-10.571
▁གང་ཡིན་བརྗོད་ན་	-10.571
ཁྱིམ་བདག་དེ་	-10.5711
རེ་རེའི་	-10.5713
རླབས་	-10.5714
གཞན་ཕན་	-10.5723
དང་་དགེ་བསྙེན་	-10.5723
དད་པ་དང་	-10.5725
བཤམས་	-10.5727
གཉེར་གསར་འགོད་པ་	-10.5727
་སྟེ་་	-10.5727
བསམ་བློ་བཏང་ནས་	-10.573
མ་པ་	-10.5731
བཏགས་པ་	-10.5731
མུར་	-10.5732
ལྷན་ཁང་	-10.5733
ཐོས་པས་	-10.5735
སྣང་བར་གྱུར་ཏོ་་	-10.5736
ཐམས་ཅད་མཁྱེན་	-10.5738
ུད་	-10.5739
ཡིད་མི་བདེ་བ	-10.574
ཁྲུ	-10.5743
ཁྲི་ཉིས་སྟོང་	-10.5744
ྲོལ་སྙམ་འམ་	-10.5745
མར་དང་ཞུན་མར་དང་	-10.5745
རེག་པ་ལ་གནས་སམ་	-10.5745
ཆོས་སུ་བཏགས་པ་	-10.5745
མི་འགྱུར་རོ་་	-10.5745
སྐུའི་འཕྲོད་བཞེ	-10.5745
ཉན་ཐོས་ཀྱི་སའམ་	-10.5745
མེ་ཏོག་དང་་	-10.5747
ལས་བྱུང་	-10.5748
སློབ་ཕྲུག་ཚོས་	-10.5748
དགོས་པ་ཧ་ཅང་	-10.5748
ཉན་ཞིབ་	-10.5749
གཙོ་འཛིན་	-10.575
▁ཕྱི་ལོ་གཟའ་ཉི་མ	-10.5751
དང་་མིའམ་ཅི་དང་་	-10.5751
་མཆོག་	-10.5752
ལ་གནས་ཤིང་	-10.5752
བྲོ་	-10.5754
ཉམས་སུ་མྱོང་བ	-10.5754
ཁྲིམས་རྩོད་པ་	-10.5756
སྐྱེ་བ་མེད་པ་	-10.5756
པ་ཡིན་་	-10.5756
བཙལ་བ	-10.5759
རྒྱས་པར་བྱས་ནས་	-10.5759
ཡོངས་སུ་དག་པའི་	-10.5763
མི་རྣམས་ཀྱིས་	-10.5764
བཞིས་	-10.5765
བསིལ་བར་གྱུར་པ་	-10.5765
ལྷན་འཛོམས་ཐོག་	-10.5768
ས་གནས་བོད་མི་	-10.5768
ངོ་་	-10.577
ལྷ་རྣམས་ཀྱིས་	-10.5771
བོར་ཏེ་	-10.5772
ནས་ཕེབས་པའི་	-10.5774
དྲི་ཟའི་	-10.5774
ཏོག་	-10.5775
འཇིག་རྟེན་སྐྱོང་	-10.5776
་འཐོབ་ཏུ་རུང་ན་	-10.5779
སྨོན་ལམ་གྱི་དབང་	-10.5782
བསླབས་ནས་	-10.5786
མངོན་པར་འབྱུང་བ	-10.5786
བགྱིད་པ་དང་་	-10.5787
རབ་ཏུ་བྱུང་བའི་	-10.5788
ཕན་ཚུན་དབར་	-10.5788
ཕ་རོལ་ཕྱིན་་	-10.5793
ལུས་ཀྱིས་	-10.5794
གྲུབ་པ་	-10.5795
གསུང་འཕྲིན་ཞིག་	-10.5795
རིག་པར་བྱ་སྟེ་	-10.5795
རྣམ་པར་མི་རྟོག་པ	-10.5796
རྒྱུན་མི་འཆད་པར་	-10.5796
ཚང་མའི་	-10.5798
ཀྱི་ཞིང་དེ་ན་	-10.5799
ནས་བོད་མིའི་	-10.5802
་དང་ལག་མཐིལ་དུ་	-10.5807
ནང་ར	-10.5808
སྐོར་གོ་རྟོགས་	-10.5809
བྷོ	-10.581
བཀུར་	-10.581
མ་སོང་	-10.5812
མཐུན་ཚོགས་	-10.5812
དབང་པོ	-10.5814
གནོན་ཤུགས་སྤྲོད་	-10.5816
པའི་སླད་དུའོ་་	-10.5817
འི་ཚུལ་གྱིས་	-10.582
མཚམས་སུ་	-10.5821
འི་སངས་རྒྱས་ཀྱི་	-10.5821
་སོ་སོ་ཡང་དག་པར་	-10.5821
བཞུགས་ཁྲིར་	-10.5821
གཉིད་	-10.5823
གཏན་འབེབས་གནང་བ་	-10.5828
ཞབས་ཞུ་	-10.583
རྒྱུ་སོགས་	-10.5831
འཛམ་གླིང་ཡོངས་ལ་	-10.5831
▁དེ་དུས་	-10.5831
▁བོད་དང་	-10.5833
རང་བཞིན་ནི་	-10.5833
སྨོན་པ་མེད་པའི་	-10.5834
མོས་མཐུན་	-10.5834
བཅོམ་ལྡན་	-10.5834
བྱུང་མེད	-10.5836
དབུ་འབྱེད་མཛད་	-10.5839
ཕྱོགས་ནས་	-10.584
ཧི	-10.5841
སེམས་ཀྱི་རྒྱུད་	-10.5846
▁ལྷ་རྣམས་	-10.5848
ལྟ་བུ་རེད	-10.5853
སྲིད་སྐྱོང་དང་	-10.5858
འདྲ་བར་	-10.5858
འདུ་བ	-10.5858
རྣམས་ཡོངས་སུ་	-10.5859
གྲོང་ཁྱེར་ནས་	-10.586
ལ་གནས་པར་	-10.586
འོད་སྲུང་ཆེན་པོ་	-10.5861
བགྲང་བ	-10.5861
བཅོ་ལྔ་	-10.5863
རིག་འཛིན་	-10.5864
བྱེད་ཀྱི་ཡོད་པ་	-10.5866
▁བོད་མི་རྣམས་	-10.5867
▁ཐམས་ཅད་མཁྱེན་པ	-10.5868
འགལ་	-10.5868
འཇིག་རྟེན་ཁམས་	-10.5869
ཆོས་ཀྱི་རང་བཞིན་	-10.5869
གནང་དགོས་པ་	-10.588
འཇིག་རྟེན་མ	-10.5881
ཡོངས་སུ་བསྐོར་	-10.5881
་མཆོག་གི་	-10.5885
ལྡན་ཞིང་	-10.5886
བཞིན་ནོ་་	-10.5886
རིམ་པར་	-10.5888
གསུང་བ་	-10.5888
ལྔ་སྟོང་	-10.5891
རིག་པར་བྱའོ་་	-10.5893
གནོད་པ	-10.5893
ཡོངས་སུ་གཟུང་བ་	-10.5894
འི་བར་གྱི་	-10.5896
ར་བྱ་སྟེ་	-10.5897
མཁན་ཚོས་	-10.5897
འདས་ནས་	-10.5898
རོལ་མོ་	-10.5898
གལ་ཆེན་	-10.5898
ྲ	-10.59
ཁོང་དུ་ཆུད་པར་	-10.5902
▁ཤེས་ལྡན་དག་	-10.5902
མི་འགྱུར་བ་དང་་	-10.5902
རང་ལོ་	-10.5903
ལ་དྭགས་སུ་	-10.5904
▁དེ་ཡིས་	-10.5908
ཡོངས་སུ་འཛིན་པ	-10.5909
ཉན་ཐོས་དང་་	-10.5909
འི་ཆོས་ཅན་ནོ་	-10.5911
བཀའ་ལན་སྩལ་	-10.5911
ཕ་ཡུལ་	-10.5913
རང་བཙན་	-10.5914
བོད་རང་བཙན་	-10.592
སྐྱེ་བར་འགྱུར་	-10.592
ཆུ་ཚོད	-10.5921
ལྷའི་མིག་	-10.5922
བཟང་སྐྱོང་	-10.5923
སོགས་ཀྱི་ཐོག་	-10.5926
འཇིགས་པ་མེད་པ	-10.5927
གཟིགས་པ་	-10.5928
བྱས་ནས་་	-10.593
ཡོངས་སུ་བཟུང་བ་	-10.5931
ཤེས་ཤིང་	-10.5932
སོང་་་	-10.5932
ཀྱིས་ནི་	-10.5935
སྐུ་ཚེ་ཞབས་པད་	-10.5936
ཞུ་མཁན་	-10.5936
སྒྲ་སྐད་	-10.5937
རོལ་མོའི་སྒྲ་	-10.5938
དགོན་པ་དང་	-10.594
རྗེས་སུ་བསྟན་པ་	-10.5941
ྟ	-10.5941
མངོན་པར་བསྒྲུབས་	-10.5945
ཞལ་ཟས་	-10.5947
▁ངས་ནི་	-10.5947
མཐུན་འབྲེལ་	-10.5947
རོ་མྱང་བ་མེད་པར་	-10.5949
ལྷན་ཚོགས་སྐབས་	-10.595
དབྱེ་	-10.595
བྱིན་རླབས་	-10.5951
རིགས་ལམ་	-10.5953
གནམ་ཐང་དུ་	-10.5953
གསུང་གི་འདུག	-10.5954
ཤ་རིའི་བུ་དང་	-10.5956
ཇི་ལྟ་བུར་	-10.596
གཡུང་དྲུང་བོན་	-10.5964
དབྱར་	-10.5967
འདི་དག་ལ་	-10.5969
ངག་གི་ལས་	-10.5969
▁རིག་པ	-10.597
མི་སྐྱེ་	-10.5974
མར་མེ་ཞལ་ཕྱེ་	-10.5974
ཁྱིམ་བདག་དེས་	-10.5976
པེ	-10.5977
སྨྲས་ཏེ་	-10.5977
བྱེད་བཞིན་ཡོད་པ་	-10.5979
ཀྱི་དེ་བཞིན་ཉིད་	-10.5983
ཁྱེན་པ་སྐྱེས་བུ་	-10.5985
དགོངས་གཞི་	-10.5985
ར་བྱའོ་ཞེས་	-10.5986
དཀའ་ངལ་དེ་དག་	-10.5986
ར་བགྱིད་	-10.5987
ཁྱེད་ལ་	-10.5987
ཡིན་གྱི་	-10.5988
ལྷན་དུ་	-10.599
་དང་་སྡུག་བསྔལ་བ	-10.5991
སྒྲོགས་སྦྱང་གནང་	-10.5994
དུ་ཡང་	-10.5995
སྐྱོང་སྤེལ་གསུམ་	-10.5995
བགྱིས་ལགས་	-10.5997
བྱེད་ཀྱི་ཚལ་དུ་	-10.5997
སྒྲོག་	-10.5998
བཤད་པའི་	-10.5998
ཁྲིམས་ཞིབ་ཁང་	-10.6
འཇིག་རྟེན་པའི་	-10.6
སེང་གེའི་ཁྲི་ལ་	-10.6001
མཆིས་་	-10.6003
▁ཡིན་ནའང་	-10.6005
ཉིན་ལྟར་	-10.6006
རྒྱགས་	-10.6007
རྣམས་སམ་	-10.6012
བརྡ་ལན་	-10.6012
སློབ་ཕྲུག་ཚོར་	-10.6013
གལ་ཆེ་བ་	-10.6013
ལ་ཐུགས་བརྩེ་བ	-10.6016
དང་བླངས་	-10.6016
བར་བྱའོ་་	-10.6022
རྒྱགས་པ་	-10.6024
ཁྱེད་རང་	-10.6027
ཞིག་ལ་ངོས་འཛིན་	-10.6029
་སེམས་	-10.603
རྣམ་གྲངས་འདིས་	-10.6032
སྐོ	-10.6032
ཁག་ནས་	-10.6034
གནས་སྟངས	-10.6037
རང་གི་མཚན་ཉིད་	-10.6039
དོང་སྟེ་	-10.6039
བཙན་བྱོལ་ནང་	-10.6039
འདི་ཡིས་	-10.6042
ཉེ་བར་གཞག་པར་བྱ	-10.6042
▁ཅིའི་ཕྱིར་	-10.6045
ཙམ་ནས་	-10.6048
བཙོན་འཇུག་བྱས་	-10.6049
མཐའ་མའི་	-10.605
ཀྱི་གནས་སྟངས་	-10.6051
བྱེད་ཐབས་	-10.6051
སྡིངས་ཆ་	-10.6052
ཟངས་	-10.6052
▁གཞི་རྩའི་	-10.6053
གཡོ་བ་	-10.6054
▁ཏིང་ངེ་འཛིན་	-10.6056
གོང་མའི་	-10.6058
ཐོག་མའི་	-10.6059
རྩིས་མེད་	-10.606
ཡུ	-10.6062
ཆོས་ཀྱང་	-10.6063
མི་འགྲོ་	-10.6063
ཉིན་མོར་	-10.6064
བསམ་བློའི་ནང་	-10.607
བདུད་ཀྱི་ལས་	-10.607
གཞས་སྣ་འཁྲབ་སྟོན	-10.6072
ལུས་སེམས་	-10.6075
དེ་འདྲ་བ་	-10.6076
ལོ་གཉིས་	-10.6076
མངོན་པར་ཤེས་པའི་	-10.6076
གི་གོ་སྒྲིག་འོག་	-10.6077
མངོན་པར་དགའ་བ	-10.6078
གཟི་	-10.608
འཐུང་	-10.6082
རྒྱུ་གལ་ཆེན་པོ་	-10.6082
གནང་གལ	-10.6085
▁པ	-10.6085
▁གསར་འགོད་པ	-10.6085
▁ཆུ་	-10.6086
▁བརྩོན་འགྲུས་	-10.6087
ཆོས་ལུགས་ནང་ཁུལ་	-10.6087
▁བླ	-10.6088
▁ལྷ་ཡི་	-10.6089
▁ཁྱད་པར་	-10.6091
ཞེས་བྱས་ནས་	-10.6095
འཛམ་གླིང་ཁྱོན་དུ	-10.6095
ལོ་རྒྱུས་ནང་	-10.6103
བསྟན་པར་བྱའོ་་	-10.6107
་ཟབ་མོ་འདི་	-10.6108
སློབ་འཁྲིད་	-10.6111
མྱ་ངན་མེད་	-10.6111
་ཡ	-10.6111
སྒང་ལ་	-10.6114
ཤིང་དྲུང་	-10.6115
བར་མ་	-10.6116
སུ་གྱུར་པ་	-10.6116
དགུང་	-10.6117
▁དགེ་བ་	-10.6117
རྣམ་གྲོལ་	-10.6118
རི་བོ་	-10.6118
ལ་ལ་ནི་	-10.6118
ཡིད་བདེ་བ་སྐྱེས་	-10.6121
དག་ཡིན་ནོ་་	-10.6121
གཞིས་ཆགས་ཁག་	-10.6122
མཁས་ཤིང་	-10.6123
བརྟགས་	-10.6123
པ་མ་ཡིན་	-10.6123
རྒྱལ་ཁབ་ཁག་གི་	-10.6123
ཁྱོན་བསྡོམས་	-10.6126
རྣམས་ཀྱི་དོན་བྱ	-10.6127
གཡུང་དྲུང་	-10.6128
སྐྱེ་བར་འགྱུར་བ་	-10.6131
▁སེམས་ཅན་དམྱལ་བ་	-10.6133
དེ་དག་ཚང་མ་	-10.6136
བྱས་པར་བརྟེན་	-10.6137
མིའམ་ཅི་	-10.6138
ཡོངས་སུ་དག་	-10.6138
གྱིས་ཤིག་ཅེས་	-10.614
བྱའི་	-10.6141
བསྐལ་པར་ལན་གསུང་	-10.6141
ཚོགས་ཆེན་ཐོག་	-10.6142
་ཊི་	-10.6142
▁དེས་ཀྱང་	-10.6145
ཆེད	-10.6145
ཚོགས་གཙོ་མཆོག་	-10.6145
མྱུ་གུ་	-10.6149
བརྒྱ་སྟོང་མང་པོ་	-10.615
སྲིན་མོ་	-10.6153
མ་ལགས་པ་	-10.6153
▁ཀུན་འབྱུང་བ་དང་	-10.6156
ཕྱོགས་བཅུར་	-10.6157
་ཙ	-10.6157
རྡོ་རྗེས་བཅོམ་ནས	-10.6159
ཀྱི་སྒོ་ནས་	-10.616
རླངས་འཁོར་	-10.616
སྔ་རྗེས་	-10.616
འགུལ་	-10.6161
བ་ཡིན་ན་	-10.6162
སིལ་	-10.6162
དེའི་མིང་	-10.6163
ཀུན་སློང་	-10.6164
རྩ་བའི་	-10.6166
འཁེལ་	-10.6167
▁འབྲེལ་ཡོད་	-10.6167
ཅན་་	-10.6169
བྱུག་པ་	-10.6169
ཚོགས་པ་ཁག་	-10.617
ཟབ་མོ་འདི་ལ་	-10.617
ཉར་	-10.617
ཧ་ལས་པ་	-10.617
སྐྱེ་གནས་	-10.6172
རྩ་དོན་	-10.6173
ལམ་སྟོན་གནང་	-10.6175
མེད་པའི་བར་དག་	-10.6175
དགའ་བས་	-10.6176
སྡེ་དཔོན་	-10.6177
ཐུན་	-10.6177
རྗེས་སུ་འབྲང་བ་	-10.6179
ཇི་སྲིད་འཚོ	-10.6183
▁བོད་རིགས་	-10.6184
ེད་	-10.6184
དབུགས་འབྱིན་	-10.6187
ཅརྱ་ཡེ་ཤེས	-10.6188
སྲེད་	-10.619
སྲིད་དོན་ཚོགས་མི	-10.6191
བའི་སྐབས་	-10.6194
མཐོ་སློབ་ཏུ་	-10.6197
འབར་བ	-10.6197
རྒྱལ་ས་ལྡི་ལིར་ར	-10.6198
པར་འགྱུར་བའི་	-10.6198
ཞིག་ཡིན་ཞིང་	-10.6199
སྤྱོད་ཅིང་	-10.62
བསོད་སྙོམས་ལ་	-10.62
མི་སྐྱེ་བ་	-10.6201
འཁྲི	-10.6203
བདག་ཉིད་ཀྱིས་	-10.6205
བདེན་པའི་ཚིག་	-10.6209
སྐྱབས་བཅོལ་བ་	-10.621
▁ལྷའི་བུ་དག་	-10.621
འི་ཕོ་བྲང་འཁོར་	-10.6211
ར་བྱ་བ་དང་་	-10.6212
བདག་གིས་ཀྱང་	-10.6215
མིའི་ལྷན་སྐྱེས་	-10.6216
ནི་མ་ཡིན་ནོ་་	-10.622
སྐུ་འཚོ་བཞུགས་	-10.622
བྱུང་བ	-10.6221
ལེགས་པར་བརྒྱན་པ་	-10.6224
ྒྱལ་པོའི་ཕོ་བྲང་	-10.6224
ས་པ་དེ་དང་དེར་	-10.6225
བསྐྱར་	-10.6225
མི་དགོས་པར་	-10.6226
ས་སྒོ་ངའི་སྦུབས་	-10.6227
བསམ་གཏན་བཞི་དང་་	-10.6231
གནང་དགོས་	-10.6232
གཞན་ཞིག་	-10.6233
་ནམ་མཁའི་སྙིང་པོ	-10.6234
འཁོད་པའི་	-10.6237
མཆོག་རྣམ་གཉིས་	-10.6237
ཇི་བྱུང་	-10.6238
ནྟ	-10.624
ཕྱི་དྲོ་ཆུ་ཚོད་	-10.624
ཤེས་ཡོན་དང་	-10.6241
ལས་ཁུངས་ཁག་གི་	-10.6243
སྤོ	-10.6243
ཕྱིར་རྒོལ་བར་	-10.6244
ལས་ཁུངས	-10.6244
ལས་གྲུབ་པའི་	-10.625
ཀྱི་སྐུ་ཚབ་	-10.6252
ཅི་ཡང་	-10.6252
སྙམ་དུ་མི་སེམས་	-10.6253
ུས་ན་དྲང་སྲོང་	-10.6254
ཚིམ་པ	-10.6256
་ནི	-10.6257
དུད་འགྲོ་	-10.6258
་འཛུགས་ཀྱི་སྲིད་	-10.626
དང་བྲལ་བས་	-10.626
ཞིང་རྣམས་	-10.6263
ཀྱི་བརྙན་འཕྲིན་	-10.6265
འདིས་ན་བདག་	-10.6267
▁རྒྱ	-10.6267
▁སྟོང་པ་ཉིད་	-10.6268
▁རིམ་བཞིན་	-10.6269
བཤད་དོ་་	-10.6271
▁བདག་ཅག་གིས་	-10.6273
གནང་མཁན་ཡོངས་ལ་	-10.6273
དམིགས་སུ་མེད་	-10.6273
གཏོང་གི་ཡོད	-10.6274
མུ་མཐུད་ནས་	-10.6275
བསྟན་པ་བཞིན་ནོ་་	-10.6277
དབུ་འཛུགས་ཀྱིས་	-10.6278
ཡུ་རོབ་གྲོས་ཚོགས	-10.6279
སྟོན་པས་	-10.6281
ཟབ་པ་	-10.6281
▁དེའི་བཙས་སྟོན་	-10.6281
ས་ཤིང་མུན་པ་བསལ་	-10.6283
ལྷག་པའི་	-10.6283
ལ་མངོན་པར་	-10.6285
ོར་	-10.6288
མངོན་པར་བསྟོད་	-10.6289
བཤད་ན་	-10.629
པར་རིག་ནས་	-10.6291
པར་བཞེད་ན་ནི་	-10.6293
ཕལ་ཆེ་བ་	-10.6293
སེམས་ཅན་དེ་དག་ལ་	-10.6295
མ་ལགས་སོ་་	-10.6295
ཧུར་ཐག་	-10.6297
▁དེ་བཞིན་དུ་མིག་	-10.6298
ཅི་ལྟར་	-10.6299
གཞིས་མི་	-10.63
འཁྲུག་པ་	-10.6301
ཐུག་འཕྲད་	-10.6302
མིག་གི་རྣམ་པར་	-10.6302
བར་བརྟེན	-10.6304
འི་ལས་	-10.6304
གསལ་བཤད་གནང་	-10.6307
རིང་བ་	-10.6309
▁དེ་ཡང་ཕྱི་ལོ་	-10.6311
ལྟ་སྐྱོང་	-10.6311
ལོག་པ	-10.6311
ཉེ་བར་ལེན་པ	-10.6311
ནི་བདག་	-10.6315
་ཁམས་གསུམ་པའི་	-10.6315
རྐྱེན་གྱིས་ཚོར་བ	-10.6316
▁སོ་སོའི་	-10.6318
ཟིལ་གྱིས་གནོན་པ	-10.6319
འདུ་ཤེས་དང་་	-10.6319
ཀོང་	-10.632
གང་ནས་	-10.6322
བགྱི་	-10.6324
དོན་གཉེར་	-10.6324
ལས་བྱེད་དང་	-10.6327
མ་ལུས་པར་	-10.6328
བཅར་འདྲི་	-10.6332
འོས་འདེམས་བྱས་པ	-10.6333
▁ལྷ་དག་	-10.6333
ལ་དགའ་བ་	-10.6334
བརྗོད་པར་	-10.6335
▁དེ་སྐད་ཅེས་	-10.6336
ནི་འདི་ཡིན་ཏེ་	-10.6339
ཕུགས་	-10.634
མཚོན་ནའང་	-10.6342
བཙུན་པ་ཤ་རིའི་བུ	-10.6346
བགྲོ་གླེང་གནང་	-10.6351
ཡོང་རྒྱུ་	-10.6353
འཕྲད་བཞིན་ཡོད	-10.6353
ཡིན་ནའང་རེད	-10.6353
རིག་གཞུང་གི་	-10.6355
ལོངས་སྤྱོད་ཆེ་བ་	-10.6356
འདུག་གོ་	-10.6357
བཏོན་པའི་	-10.6357
བྱེད་དོ་	-10.6358
དཔལ་ན་ལེན	-10.6358
གཞོན་པ་	-10.6359
དགུང་གྲངས་ཕེབས་	-10.636
བྱིན་ཏེ་	-10.6364
ལྷར་བཅས་	-10.6367
ཉམ་ང་བ་ཉུང་ངམ་	-10.6367
གཟེངས་སུ་ཐོན་པ	-10.637
གསོད་ཁྲག་སྦྱོར་	-10.637
སྔ་དྲོ་ཤམ་ཐབས་	-10.637
ཤི་བའི་འོག་ཏུ་	-10.6371
བཙན་འཛུལ་	-10.6371
དང་ལྡན་པ་ཡིན་	-10.6375
ཕྱོགས་སྒྲིག་	-10.6379
ཡེ་ཤེས་གཟིགས་པ་	-10.6379
བསྟན་འགྱུར་	-10.638
གསུམ་གྱི་བར་དུ་	-10.6382
གངས་ཅན་	-10.6383
ཐམས་ཅད་དུ་ཡང་	-10.6384
རབ་ཏུ་ཤེས་	-10.6385
སྣེ་	-10.6386
ན་གནས་པ་	-10.6387
གནད་དོན་སྐོར་	-10.6388
དེ་ཐམས་ཅད་	-10.6388
གལ་ཆེན་པོ་ཡིན་པ་	-10.6393
ཏིང་འཛིན་མཆོག་	-10.6393
བྷེ	-10.6393
རྒྱ་མིས་	-10.6395
ཕྱིན་ཏེ་	-10.6395
རིམས་ཀྱི་	-10.6397
་མ་ཟད	-10.6397
ལྷག་པའི་བསམ་པས་	-10.6398
བླུགས་	-10.6399
བདུན་ཕྲག་	-10.64
གླུ་དབྱངས་	-10.6401
འོད་སྲུང་དང་	-10.6402
ན་དུ་	-10.6403
ཀྱང་མི་གནས་པར་	-10.6404
ཏུ་གྱུར་པ་	-10.6405
སྤོབས་པ་ཟད་མི་	-10.6406
འགོར་	-10.6408
ཀྲི	-10.641
གི་མཐར་ཐུག་པ་	-10.641
ཆོས་བཞིན་དུ་	-10.6412
དུས་དྲན་ཐེངས་	-10.6413
ཕྱི་རྒྱལ་ཡུལ་གྲུ	-10.6414
དཔེ་མཛོད་ཁང་གི་	-10.6415
མེད་སྟབས་	-10.6416
སྤྲོས་	-10.6416
ཡུད་ཙམ་	-10.6417
ཚབས་ཆེན་	-10.6418
ལ་འཚམས་འདྲི་	-10.6418
དགའ་བསུའི་	-10.642
མི་ནུས་་	-10.6422
ཁྱེའུ་གཟུགས་བཟང་	-10.6422
ཀྱི་ཕྱིར་དང་་	-10.6423
གཞིས་ཆགས	-10.6423
སྲིད་པར་	-10.6425
་དེ་དག་ཀྱང་	-10.6426
ས་སུ་	-10.6426
སྐུ་མགྲོན་རྣམས་	-10.6427
ཆེན་པོ་མཆོག་ནས་	-10.643
བྱམས་པ་དང་	-10.6432
གཞུང་དེ་དག་	-10.6432
གཉིས་ཀ	-10.6432
ཚིགས་སུ་བཅད་པ་འད	-10.6437
▁རྒྱ་གར་གནའ་རབས་	-10.6438
▁ཕྱོགས་བཅུའི་	-10.6441
ཡང་རུང་སྟེ་	-10.6441
འབྲེལ་བ་ཡོད་པ་	-10.6443
སྣེ་ཁྲིད་	-10.6444
སྐབས་རེ་	-10.6444
ཡག་པོ་ཞིག་	-10.6445
རང་དབང་གི་	-10.6445
བ་ཞིག་	-10.6446
སྐོར་གླེང་སློང་	-10.6447
ཡེ་	-10.6448
▁བདག་ལ་	-10.6449
འདུག་པར་	-10.6454
་མེད་པར་གྲགས་པ་	-10.6454
་དེ་བཞིན་	-10.6456
ནོར་འཁྲུལ་	-10.6457
མི་རྣམས་ལ་	-10.6459
ར་མ་	-10.6462
གྲངས་གཉིས་རིང་	-10.6462
མ་ཆགས་	-10.6463
ཐོས་པར་	-10.6465
བཅོམ་ལྡན་འདས་འོ	-10.6465
▁ཁྱིམ་	-10.6466
བོར་ནས་	-10.6466
འཁྲུལ་	-10.6467
ཡོང་བ་དང་	-10.6471
ད་ཐེངས་	-10.6474
ལས་གཞིའི་	-10.6476
སྦྱིན་པར་བྱེད་པ་	-10.6477
ཤ་ཟ་	-10.6479
▁ས་གནས་འགོ་འཛིན་	-10.648
སྨོན་ལམ་བཏབ་	-10.6481
སྟོབས་ལྡན་	-10.6484
མི་གཟུང་བར་	-10.6487
བོད་ཡིག་ནང་	-10.6487
ར་བྱ་བསྙེན་པར་	-10.6489
བདག་མེད་པའི་	-10.6489
བདམས་ཐོན་བྱུང་བ	-10.649
གང་པོ་	-10.6492
སྟོང་ཕྲག་དུ་མ་	-10.6493
ལས་འགུལ་བ་	-10.6495
སྟེང་གི་	-10.6498
བ་སྤུའི་ཁུང་བུ་	-10.6501
བསྐོར་ཏེ་	-10.6502
འབུམ་ཕྲག་	-10.6502
▁དེ་ཟླ་བ་དགུའམ་	-10.6504
ཡུ་རོབ་རྒྱལ་ཁབ་	-10.6506
པ་དང	-10.6511
པའི་ཚེ་་	-10.6514
སྐོར་བཀའ་སློབ་	-10.6514
ཁྱེའུ་འདིའི་མིང་	-10.6517
སྟོབས་དང་་	-10.6521
ཐང་གི་གནས་སྟངས	-10.6522
ཁོང་རྣམས་	-10.6522
འོད་ཀྱི་	-10.6523
སྦྱིན་གནས་	-10.6525
བཞིན་ཡོད་སྟབས་	-10.6527
ནོ	-10.6527
འདྲ་བའི་སེམས་	-10.6527
▁སླར་ཡང་	-10.6529
བཞིན་པ་དེར་	-10.653
མཉན་དུ་ཡོད་པར་	-10.6531
ཟས་སྦྱིན་	-10.6534
བཀའ་དྲིན་ཆེ་	-10.6536
ཚོགས་ཀྱིས་	-10.6539
མེད་སྟབས	-10.6541
མི་མངའ་་	-10.6543
གཟབ་རྒྱས་ཞུས་	-10.6545
འབྱུང་བར་འགྱུར་བ	-10.6545
ལྟར་་	-10.6546
རྩ་བ་ནས་མེད	-10.6546
དང་བསྟུན	-10.6548
རྨི་ལམ་ལྟ་བུ	-10.6548
བསྡད་ཡོད	-10.6548
བ་རྣམས་ལ་	-10.6549
གདུག་རྩུབ་ཅན་	-10.6551
ལ་ཕྱག་འཚལ་ལོ་	-10.6551
▁ཅི་ནས་ཀྱང་	-10.6551
བྱེད་ན་	-10.6553
མི་ནུས་	-10.6554
འདྲ་མིན་གྱི་	-10.6554
ཉེ་བར་གནས་པ་	-10.6556
གཅིག་གྱུར་གྱི་	-10.6557
ཕྱག་འཚལ་ལོ་་	-10.6557
དེར་ཡང་	-10.6557
དམའ་བ	-10.6558
སྐར་དུས་ཆེན་	-10.6559
དམ་པ་དེ་ཉིད་	-10.6563
འདོར་	-10.6568
རི་མོར་	-10.6571
ན་བཟའ་	-10.6572
མཐོང་བའི་	-10.6574
མྱ་ངན་འདས་པ་	-10.6574
་ཤུགས་ཆེ་བཏོན་	-10.6574
སྦེང་ལོར་	-10.6577
བཞག་པའི་	-10.6578
འབྲོས་	-10.6578
མཐོ་རིས་	-10.6579
ཐེག་	-10.6582
མི་འཇིགས་	-10.6583
▁གྲོགས་པོ་	-10.6587
ི་ལྗོངས་ཡར་རྒྱས་	-10.6587
ཅིང་རྗེད་པ་དང་	-10.6587
ངོས་ལེན་	-10.6588
ལྷག་བསམ་རྣམ་དག་	-10.6588
ལོ་བཅུ་ལོན་པ	-10.6589
ཁྲིམས་ཞིབ་པ་གཞན་	-10.659
▁ཚངས་པའི་	-10.6592
ཉེན་རྟོག་	-10.6594
ཕྱོགས་བཞིར་	-10.6596
རྒྱལ་ཁ་ཐོབ་	-10.6596
ཆོས་ཚོགས་ཐེངས་	-10.6596
ཐུབ་ན་	-10.6601
ལེགས་སྦྱར་སྐད་	-10.6604
པ་དེ་དག་ཐམས་ཅད་	-10.6607
ཚུར་ཤོག་ཅེས་བྱ་བ	-10.6607
ི་དག་བཀའ་སྩལ་ཏོ་	-10.6607
ཤར་ཕྱོགས་	-10.6616
▁སྐད་ཡིག	-10.662
མངོན་པར་ཤེས་པས་	-10.662
པར་བྱེད་ཅིང་་	-10.6622
འབྱུང་ཞིང་	-10.6623
སྟོབས་དང་ལྡན་པ	-10.6624
མྱ་ངན་ལས་འདའ་བ་	-10.6625
མ་ཡིན་ནམ་	-10.6626
རིག་པ་དང་་	-10.6629
དཀའ་ངལ་སེལ་	-10.6631
མཛད་རིམ་	-10.6633
ཡོད་ལ་	-10.6634
་ན་བདག་	-10.6635
ཕྱོགས་གཞན་ཞིག་	-10.6635
ཐེམ་སྤང་བཀའ་རྒྱ་	-10.6638
རྐང་ལག་	-10.6638
▁ཁྱེད་ཚོས་	-10.6638
སོག་པོ་	-10.6638
བགྱི་་	-10.6639
་ལྟར་ན	-10.664
སྟོང་པ་ཉིད་ཀྱང་	-10.6643
བཀོད་ཡོད	-10.6646
ཆུང་མ་ལ་བུ་ཆགས་	-10.6647
ཞིག་སྤེལ་	-10.6649
ཕུན་སུམ་ཚོགས་	-10.6649
བཅས་ཀྱི་སྐོར་	-10.665
རང་བཞིན་ཅན་	-10.665
སྣུམ་	-10.6653
ར་མཚོན་ན་	-10.6655
གཟུགས་ཅན་	-10.6655
ཊར་	-10.6655
སྨོན་ལམ་གྱི་	-10.6656
ར་བྱ་བའི་དོན་དུ་	-10.6657
འཐུས་མི	-10.6659
▁སློབ་དཔོན་	-10.666
▁ཚོར་བ	-10.666
བདུན་པ་	-10.6661
དང་མཉམ་པ་	-10.6661
མ་མཆིས་པ་ལགས་	-10.6662
་བར་	-10.6668
ཉིན་རེའི་	-10.667
བཛྲ་	-10.667
སྤར་	-10.667
ལས་ཁུངས་ཁག་	-10.6671
སེར་སྐྱ་མང་ཚོགས་	-10.6673
ར་གྱུར་པ་དང་་	-10.6674
ཕྱིན་པའི་	-10.6675
ལ་རབ་ཏུ་	-10.6678
པའི་སླད་དུ་	-10.6679
དེ་དག་ཏུ་	-10.6682
རྒྱན་གྱིས་བརྒྱན་	-10.6682
གྲོ	-10.6684
ཤིས་	-10.6685
རྟོགས་ནས་	-10.6687
ལྷག་ཙམ་	-10.6688
▁དྲན་པ་	-10.669
བྱ་བའི་	-10.669
རང་སྐྱོང་ར	-10.6691
ད་སྲུང་ཞེས་བྱ་བ་	-10.6697
ལ་ཞུས་པ་	-10.67
གཟུགས་དང་་	-10.6703
འི་རྒྱལ་ཚབ་	-10.6704
▁ཆོས་རྣམས་ཀྱི་	-10.6705
ཚིག་བླ་དགས་སམ་	-10.6706
པོ་དང་	-10.6707
ཀྱིས་ཐོག་མར་	-10.6707
ངོས་འཛིན་གནང་	-10.6711
ནང་མཉམ་ཞུགས་	-10.6712
ཕེབས་པའི་སྐུའི་	-10.6717
ཟུང་འབྲེལ་ཐོག་	-10.6718
▁འཇིག་རྟེན་གྱི་	-10.6719
རྙིང་པ་	-10.6723
དཔལ་ལྡན་བཀའ་ཤག་	-10.6727
འདུ་བྱེད་ཐམས་ཅད་	-10.6727
བྱ་རྒྱུ་དེ་	-10.6727
པའི་ཕྱིར་རོ་	-10.673
ཐར་པ་	-10.6736
་རོ་དང་་རེག་	-10.6739
མཆོགདེ་བཞིན་	-10.6741
ཏོ	-10.6741
བར་གྱི་བསྐལ་པ་	-10.6742
རང་དབང་འཐབ་རྩོད་	-10.6743
ཨུ་	-10.6744
སྤེལ་བ་	-10.6744
▁ཚངས་པ་	-10.6745
གཞས་སྣ་	-10.6748
ཨོ་སི་ཊོ་ལི་ཡའི་	-10.6749
མཐོ་སློབ་ཁང་གི་	-10.6749
ཞིག་སྟེ་	-10.6755
བགྱིས་ཏེ་	-10.6755
ཡོང་བ་ཞུ	-10.6758
ངས་ཀྱང་	-10.6761
▁བསྐལ་པ་བྱེ་བ་	-10.6762
སེར་སྣ་	-10.6765
སློབ་སྤྱི་	-10.6767
སྐྱོང་མཆོག་ལ་	-10.6768
ཉོ་	-10.677
ཁྱིམ་གྱི་	-10.6771
རྣམས་ལས་	-10.6771
དྲ་རྒྱ་	-10.6775
ཡར་རྒྱས་ཀྱི་	-10.6776
བྱས་པར་	-10.6781
ཟློས་གར་ཚོགས་པས་	-10.6781
ཆབ་སྲིད་དང་	-10.6784
མངལ་	-10.6791
བཀའ་བློན་རྣམ་པ	-10.6791
སེལ་བ་	-10.6793
སྐུ་ཞབས་ཨ་	-10.6794
པའི་སྐུའི་འཁྲ	-10.6794
ཅུང་	-10.6795
་དགེ་ཚུལ་	-10.6797
འཚེ་མེད་ཞི་བ	-10.6798
ཐུབ་མཁན་	-10.6802
▁ཕྱི་ལོ་རྒྱ་གར་	-10.6802
་དེས་ནི་	-10.6803
བརྒྱག་	-10.6805
འཇིག་རྟེན་ལ་	-10.6805
ཡོངས་སུ་མི་སྐྱོ་	-10.6808
ས་ཤིང་དོན་	-10.6809
གཏོང་ཐབས་	-10.6809
བསྐྱོད་པ་ཡང་ངམ་	-10.681
རྐྱང་རྐྱང་	-10.681
་བླ་ན་མེད་པ་ཡང་	-10.681
ལྟུང་བའི་རྩ་བ་	-10.681
ངག་དབང་ཐོགས་མེད་	-10.681
ཕྱིན་ཅད་	-10.681
གཅིག་མཚུངས་རེད	-10.6811
ཕུན་ཚོགས་ལགས་	-10.6811
ཨ་རིའི་བོད་དོན་	-10.6811
རབ་རྒྱས་གླིང་	-10.6811
ལྟུང་	-10.6812
འགྲོ་བ་ལྔ	-10.6812
བོད་སྨན་	-10.6813
དར་འཕེལ་	-10.6814
དྲི་མ་དང་བྲལ་བ་	-10.6814
ཁོར་ཡུག་གི་	-10.6815
འགྱོད་པ་	-10.6816
▁དབུས་	-10.6817
མ་ནིང་	-10.6821
འཇམ་ཞིང་	-10.6826
བསྲེག་	-10.6828
སུམ་ཅུ་རྩ་བདུན་	-10.683
རྣམ་པར་དག་པའི་	-10.683
སོང་བ་དང་་	-10.683
ས་ཚོགས་འཐུས་མི་	-10.6831
ཕའི་	-10.6833
མི་ཆོག	-10.6834
གནས་ན་	-10.6842
བཞི་པོ་དེ་དག་	-10.6845
གཙུག་རྒྱན་	-10.6846
▁ཚིག་	-10.6847
འགོག་པ	-10.6851
སེར་སྐྱའི་གནས་	-10.6851
ཟེར་དུས་	-10.6852
གཏོང་བཞིན་ཡོད	-10.6852
དར་སྤེལ་	-10.6853
རྒྱབ་སྐྱོར་གནང་བ	-10.6854
གདུག་པ་	-10.6858
གོ་ལའི་	-10.6859
ད་ལྟར་འབའ་ཞིག་	-10.686
ཀྱི་ལས་རིམ་	-10.6861
▁དེ་དེ་ལྟར་	-10.6862
འདེམས་	-10.6862
སྨོན་པ་མེད་	-10.6863
དྲི་བ	-10.6866
ཐུ	-10.6869
བླ་བྲང་	-10.6875
གན	-10.6876
འི་སྣོད་	-10.6876
མཁན་པོ་དང་	-10.6876
ཚོགས་རྣམས་	-10.6876
དོ་དམ་	-10.688
འདི་ལྟ་བུ་ཞིག་	-10.6881
སློབ་སྟོན་	-10.6881
དབུལ་	-10.6882
དབར་གྱི་	-10.6883
མི་གནས་སོ་་	-10.6884
དེ་ཉིད་ལ་	-10.6888
ྒྱལ་རིགས་སྤྱི་བོ	-10.6889
ཐ་མ	-10.689
ཀུ	-10.689
ཕྲེང་	-10.689
ལྷག་པའི་ང་རྒྱལ་	-10.6892
པར་བྱ་སྟེ་	-10.6894
▁ལུས་ཀྱི་	-10.6895
གདུལ་བར་བྱ་བ	-10.6895
གི་སྐུ་ཚབ་	-10.6896
སྩལ་བའི་	-10.6898
ཚིགས་བཅད་	-10.6898
འཐབ་རྩོད་ཐོག་	-10.6898
བློ་གྲོས་དང་་	-10.69
▁འགྲོ་བའི་	-10.6903
སོང་བ་ལས་	-10.6904
ཤེས་རབ་སྙིང་པོ་	-10.6907
འགྱེད་	-10.6908
གཏུམ་	-10.6909
བསིལ་	-10.6911
གྲངས་ཐོ་	-10.6914
དེར་བརྟེན་ང་ཚོས་	-10.6915
སྲུང་བ་	-10.6917
སྔགས་ཀྱི་	-10.6919
མ་ལགས་་	-10.6923
འོག་གི་	-10.6923
འི་ཡེ་ཤེས་མཐོང་བ	-10.6924
ལུག	-10.6928
ལྡ	-10.6928
གྲོས་བསྡུར་	-10.6928
སྐུ་དབང་	-10.6936
བདུན་པའི་	-10.6937
མ་ཐུབ་	-10.694
ལྷག་པ་ཚེ་རིང་	-10.6941
གཏིང་	-10.6942
ཨུད་པ་ལ་	-10.6943
ར་མི་འགྱུར་བ་	-10.6944
འདུས་ཏེ་རེག་པའི་	-10.6944
སྡུད་	-10.6945
ལོ་ལྔ་	-10.6948
སེམས་པ་བཟང་པོ་	-10.6948
དགའ་བསུ་	-10.6952
སྐྱེད་སྲིང་	-10.6952
ཞབས་འདེགས་སྒྲུབ་	-10.6956
དམ་དྲག་	-10.6958
ཤེས་པ་དེ་	-10.6958
་ཏི་	-10.6963
རིམ་པའི་	-10.6963
བསྐྱེད་དེ་	-10.6966
འཚམས་གཟིགས་	-10.6968
སྲིད་བྱུས་དེ་	-10.697
དང་མཚུངས་པ་	-10.6971
སློབ་གྲྭ	-10.6972
དབྱིབས་	-10.6973
སྒྲུབ་པའི་	-10.6975
་རི་	-10.6975
འི་འདུ་ཤེས་	-10.6975
དམའ་	-10.6976
བ་ནི་	-10.6977
ཅོད་པན་	-10.6978
མྱོས་	-10.6978
བརྗོད་སྐབས་	-10.6979
དགོས་གལ	-10.6979
དམ	-10.6982
ཅིག་ཅེས་	-10.6984
དགོན་པའི་ནང་	-10.6985
དབུ་བརྙེས་ནས་ལོ་	-10.6985
ཁྱེར་ནས་	-10.6986
རྣམས་དང་་་	-10.6987
བསྔགས་པ་བརྗོད་	-10.6989
མཆུ་	-10.699
པར་རིག་པར་བྱའོ་་	-10.6992
བསུ	-10.6993
གཟབ་རྒྱས་	-10.6997
ནོར་བུ་ལགས་ཀྱིས་	-10.6997
ར་སྤྲོད་	-10.6998
རྨ	-10.6999
བྱུང་ཚེ་	-10.7001
པ་གང་ཞེ་ན་	-10.7003
▁ཀླུ་	-10.7004
འབྱེད་	-10.7005
སྤྱི་དང་ལྷག་པར་	-10.7008
ི་ཏ་	-10.7008
ནང་པའི་གཞུང་	-10.7009
ཡིན་པའི་ངོས་ནས་	-10.7009
སེམས་ཅན་དེ་དག་གི	-10.7009
སྐུ་ཉིད་	-10.7009
ཞེས་བྱ་	-10.7011
རྣམས་ལ་ནི་	-10.7012
སྦར་སིལ་	-10.7013
ཚོགས་གཙོ	-10.7016
དར་རྒྱས་	-10.7017
ལྡང་བ་	-10.7018
འགག་པ	-10.7019
སྐབས་དེའི་	-10.7021
བསྟན་ལ་	-10.7022
བཀའ་སློབ་སྩལ་བ་	-10.7022
ཕྲིན་ལས་	-10.7024
ཉི་ཟླ་	-10.7024
བར	-10.7024
རྫོང་དཔོན་	-10.7025
ལྷའི་མེ་ཏོག་	-10.7025
བར་མཉམ་པ་	-10.7026
་སྙིང་པོ་	-10.7026
བཟླས་	-10.7026
་ཞིང་བདག་ཉིད་	-10.7027
བོད་མི་རྣམས་ཀྱི་	-10.703
རྒྱ་གར་དབུས་སའི་	-10.703
ཅིག	-10.703
ཆགས་སྡང་	-10.7032
གནང་བ་ལྟར	-10.7033
▁ལ་ལ་ནི་	-10.7036
གྲུལ་བུམ་	-10.7037
མེད་ཕྱི་རོལ་ན	-10.7037
▁རབ་འབྱོར་འདི་	-10.7037
་སི་	-10.7037
ཡང་སྤྲུལ་	-10.7037
ཁྱིམ་ཐབ་	-10.7038
གོ་སྒྲིག་ཞུས་	-10.7038
འི་སྒྲ་	-10.7041
ལོངས་	-10.7042
སྲོང་བཙན་སྒམ་པོ	-10.7043
སྲིད་ཚབ་	-10.7044
འདོགས་	-10.7044
སྣུམ་འཁོར་	-10.7045
གི་འགན་འཛིན་	-10.7047
དགོས་པའི་སྐོར་	-10.7047
ཤི་བ་	-10.7047
ཐུན་མོང་ནས་	-10.7048
ཚོགས་འདུར་	-10.7049
གསང་བའི་	-10.705
གསོལ་སྟོན་	-10.7051
འདི་དག་གི་	-10.7051
སྲོ	-10.7051
མཉམ་རུབ་ཀྱིས་	-10.7053
གཞིས་བྱེས་བོད་མི	-10.7053
དེའི་གཟེངས་རྟགས་	-10.7053
ལྷན་ཅིག་	-10.7055
▁མངའ་སྡེའི་	-10.7055
ལྟ་བུ	-10.7055
དོན་དུ་གཉེར་བ་	-10.7055
▁དེ་བཞིན་རྒྱ་གར་	-10.7057
ཡོངས་སུ་སྔོ་བ	-10.7058
ནས་བོད་ཀྱི་	-10.7059
བོད་ལུགས་	-10.7059
་ཞེས་བརྗོད་པ་དང་	-10.7062
ཡུན་རིང་པོར་	-10.7064
སྡེ་ཚན་ཁག་གི་	-10.7065
ེའུ་	-10.7065
རྒྱལ་པོའི་བུ་	-10.7067
ར་མི་བྱེད་	-10.7069
མདོར་བསྡུས་	-10.707
ལ་ཤིན་ཏུ་	-10.707
གསར་འགོད་པའི་	-10.7074
ས་འདི་	-10.7074
▁བདག་ཅག་ནི་	-10.7075
▁དེ་རིང་གི་	-10.7079
ད་ལྟར་གྱི་	-10.7081
ར་བྱ་་	-10.7084
ཁང་གི་ལས་བྱེད་	-10.7085
ཡོད་པ་ལྟར་	-10.7087
བདེ་བས་	-10.7088
་ཧུ་ཕཊ་	-10.7088
འོན་ཏེ་	-10.7088
ཅི་དགོས་	-10.7091
ལ་སོགས་པས་	-10.7091
ངས་པ་ལྟ་བུར་	-10.7093
འདོད་པའི་ཁམས་	-10.7097
རང་ཁྱིམ་དུ་	-10.7101
འི་རང་སྐྱོང་ཡོང་	-10.7102
བྱ་དགོས་	-10.7108
ཤེས་པའོ་་	-10.7109
བྱེ་བ་ཕྲག་བརྒྱ་	-10.7111
ཡོད་པ་ཞིག་རེད	-10.7114
▁སངས་རྒྱས་དང་	-10.7114
འཇུ	-10.7114
ཚད་མའི་གཞུང་	-10.7118
▁བསྟན་འཛིན་	-10.7118
ཐོབ་པར་གྱུར་ཏོ་་	-10.7122
བོད་མིས་	-10.7122
གནས་ཡུལ་	-10.7125
རོགས་རམ་གནང་	-10.7125
▁ཡང་དག་	-10.7126
ཇི་ལྟ་བ་	-10.7127
བསྟར་	-10.7129
ཆེད་ཕེབས་གནང་ཡོད	-10.713
དགེ་སློང་དེ་	-10.7131
བལྟས་ན་	-10.7131
གནས་དང་	-10.7132
བར་འགྱུར་རོ་	-10.7132
ཁ་བྲལ་	-10.7133
དབང་པོ་དང་་	-10.7133
མཐུས་	-10.7134
ཕུང་པོའི་	-10.7134
▁བདག་གིས་ཀྱང་	-10.7135
གསོ་བ་རིག་པ་	-10.7137
འཐོབ་བོ་	-10.7137
ཆགས་པ་རེད	-10.7139
ཁྱད་ཆོས་	-10.714
འི་བར་དུ་ཡང་	-10.7143
ར་གྱུར་པ་ལ་	-10.7145
བརྗོད་ཀྱི་འདུག	-10.7147
སོ་སོའི་ནང་	-10.7147
བགོ་བཤའ་	-10.7148
ས་ཤིང་	-10.7148
་ཕུན་ཚོགས་མཆོག་	-10.7151
དོགས་པ་	-10.7152
ཆ་ཤས་	-10.7152
སྟོང་པ་ཉིད་དུ་	-10.7153
ཡོད་པའི་ནང་ནས་	-10.7154
ཐོས་ན་	-10.7155
▁ཙན་དན་སྦ	-10.7155
མི་འདོད་པ་	-10.7157
རི་ཁྲོད་	-10.7158
▁ཚོགས་འདུ་	-10.7159
ལག་མཐིལ་	-10.7163
གདོང་ལེན་	-10.7165
▁དགེ་རྒན་	-10.7169
གནས་པ་དང་་	-10.7169
ཡུན་རིང་པོ་ནས་	-10.7172
འདིས་བདག་	-10.7174
གསུང་གི་ཡོད	-10.7175
བཏུད་	-10.7176
མང་པོ་ཡོད	-10.7176
མཛད་་	-10.7177
ཟེར་ན་	-10.7178
བསྡུར་	-10.718
སེམས་ཅན་གྱི་ཁམས་	-10.7181
ཤེས་རིག་བ	-10.7182
གོངས་མཐའ་དག་	-10.7183
ཐང་ལ་	-10.7184
མ་དང་	-10.7186
▁ང་རྒྱལ་	-10.7186
དགོས་པ་སོགས་	-10.7186
མཐོང་བས་	-10.7188
▁ཁམས་གསུམ་	-10.7189
མཇུག་སྡོམ་	-10.7189
ས་བསམས་པ་	-10.7191
ྱེད་ཀྱི་ཚལ་	-10.7191
▁སྐྱེ་བ་	-10.7192
▁གཞུང་འབྲེལ་	-10.7193
བོད་རྒྱལ་ཁབ་	-10.7194
རྒྱལ་པོ་སྡོང་པོ	-10.7194
བདག་དབང་	-10.7194
ཁྱེད་ཚོས་	-10.7195
གཞིས་ཆགས་ཁག་ཏུ་	-10.7196
སེར་སྐྱ་	-10.7197
དབང་ཕྱུག་ཆེན་པོ་	-10.7201
རྗེ	-10.7202
ཞོར་	-10.7204
ཐད་དུ་	-10.7205
ཀྱིས་དགེ་སློང་	-10.7205
ཕེབས་འབྱོར་གནང་	-10.7212
གདུལ་བ	-10.7215
ཡིན་སྐོར་གསུངས	-10.7215
སྤྱི་འཐུས་ཀྱི་	-10.722
འབྱིན་	-10.722
མཇལ་ཁ་	-10.7221
ཐམས་ཅད་བསྡུས་པ	-10.7221
རྒྱལ་བས་	-10.7222
འི་ཚིག་གིས་	-10.7222
གཟའ་	-10.7222
ལེགས་པར་གྲུབ་	-10.7223
གཅ	-10.7225
བཀའ་སྩལ་པ་དང་་	-10.7226
གཏོང་རྒྱུའི་	-10.7227
སྐལ་བ་	-10.723
ཁྲོ་	-10.723
གཤེགས་ཏེ་	-10.723
རྒྱབ་ལྗོངས་	-10.723
དགག་	-10.7233
དམ་པ་དེ་ཉིད་ཀྱི་	-10.7234
མེ་ཏོག་གི་ཆར་	-10.7235
ཟུང་འབྲེལ་	-10.724
ཙམ་དུ་ཟད་དོ་	-10.7244
དབྱིག་	-10.7245
་པུར་	-10.7245
སྡིག་པའི་	-10.7246
ལངས་ཏེ་	-10.7247
སེར་པོ་	-10.7248
▁སྣང་བ་བྱ	-10.725
ཁ་ན་མ་ཐོ་བ་	-10.725
དེད་དཔོན་ཆེན་པོ་	-10.7251
མཁན	-10.7251
འི་ལྷ་	-10.7253
ཟླ་འདིའི་	-10.7254
▁རྒྱུ་གང་	-10.7256
མཇལ་དར་	-10.7256
ཞིག་ཡིན་སྟབས	-10.7257
ལུང་རྟོགས་	-10.7258
བྲལ་བ་རྣམས་ཡིན་	-10.7258
རྫིང་བུ་	-10.7261
བཞི	-10.7261
རྒྱ་གར་ལ་	-10.7262
བསྐྱོན་	-10.7263
བཀྲམ་	-10.7264
ཤོ	-10.7265
དེ་གཉིས་ལ་	-10.7265
མདོ་འདི་	-10.7265
▁ཅེས་སོགས་	-10.7265
ལུས་དང་སེམས་	-10.7267
དེ་བཞིན་གཤེགས་	-10.7268
་གནས་སྦྱིན་པར་བྱ	-10.7269
ཡང་ཇི་སྐད་	-10.7269
མ་ཡིན་པ་བཟློག་ལ་	-10.7269
བསྟུད་མར་	-10.7269
བརྒྱུད་གསུམ་ནས་	-10.727
དཔེར་ན་རྨི་ལམ་ན་	-10.727
རིང་པོར་མི་ཐོགས་	-10.7273
གདུངས་	-10.7273
བཟོས་ཡོད	-10.7274
ཡངས་པའི་	-10.7274
ུ	-10.7276
སྤུངས་	-10.7277
རྒྱུ་མཚན་དུ་བྱས་	-10.7278
▁དཔའ་བོ་	-10.728
ཕྱག་དར་	-10.728
འཐུན་	-10.7281
རྒྱ་གར་བྱང་ཤར་	-10.7282
▁ཆབ་སྲིད་	-10.7283
ོད་	-10.7283
ནོ་བེལ་ཞི་བ	-10.7283
▁སྐད་ཡིག་སོགས་	-10.7284
དང་རྒྱབ་སྐྱོར་	-10.7287
ལག་བསྟར་བྱས་	-10.7288
་ཆོས་འདི་	-10.729
ས་ཁུལ་དུ་	-10.7291
འི་མཚན་	-10.7292
ཉན་ཐོས་ཀྱི་དགེ་	-10.7293
རྣམ་པར་འཇིག་པ་	-10.7293
འཐུས་མི་རྣམ་པས་	-10.7294
རྣམ་པར་གྲོལ་	-10.7295
ཉེས་དམིགས་	-10.7295
རྣམ་པར་སྤྲོས་པ	-10.7295
ཨ་རིའི་ནང་	-10.7295
དབུལ་པོ་	-10.7296
རྨི་ལམ་དུ་	-10.7296
བྱེད་པ་པོ་	-10.7297
ཉམས་བཞེས་	-10.7301
་འཛུགས་ཕྱི་དྲིལ་	-10.7301
ཏིང་འཛིན་འདི་ནི་	-10.7302
▁ལྷ་མོ་	-10.7302
ཁག་པོ་རེད	-10.7304
དགེ་བ་དང་མི་	-10.7306
་བྱམས་པས་	-10.7307
རྡུལ་བྲལ་	-10.7308
སྨྱོ	-10.7309
བགྲང་	-10.7309
ཐོན་པ་	-10.7309
མཉན་	-10.731
མི་དགའ་	-10.7314
ལྷན་ཚོགས་ཤིག་	-10.7317
མཁོ་	-10.7317
སྟོན་ཏོ་	-10.732
གོམ་པ་	-10.7322
དེ་སྔའི་	-10.7328
ལེགས་སོ་ཞེས་	-10.733
རབ་དང་རིམ་པ་	-10.7331
གནང་བར་བརྟེན་	-10.7332
གི་ཐོག་ནས་	-10.7333
སློབ་མའི་	-10.7334
མཚན་ཉིད་མེད་པའི་	-10.7335
འགོ་ཁྲིད་ཚོས་	-10.7337
ཆར་པ་	-10.734
གཞིར་	-10.7341
མང་ཤོས་	-10.7341
དམུས་ལོང་	-10.7342
སོགས་ལ་བརྟེན་ནས་	-10.7342
▁དེར་བརྟེན་ང་ཚོ་	-10.7342
ཐམས་ཅད་ལ་ཡང་	-10.7343
དགོངས་བཞེས་	-10.7344
་གཉིས་	-10.7344
མི་བྱ་་	-10.7345
ལ་ཕན་ཐོགས་	-10.7346
མཛེས་པར་	-10.7347
བོད་ཕྲུག་	-10.7347
ཤྲི་	-10.7348
དུ་མའི་	-10.7348
བསྡུས་པ་	-10.7349
གཞིས་ལུས་	-10.7351
བཅད་དེ་	-10.7352
པོ་་	-10.7361
སྐྱེ་མཆེད་དང་་	-10.7362
བམ་	-10.7365
▁དམ་པ་ཁོང་གིས་	-10.7366
མི་མཁས་	-10.7366
དེ་དག་ལ་ཡང་	-10.7368
བསྟན་པ་འདི་	-10.737
▁སུ་དག་	-10.737
ལྟ་ཞིང་	-10.7372
མུན་	-10.7374
ལོ་ན་	-10.7375
གྱུར་པ་དེའི་ཚེ་	-10.7378
དབང་ཕྱུག་གི་	-10.7378
འདུགགཞན་ཡང་	-10.7378
ས་གནས་གང་དུ་	-10.7381
དང་་་དེ་བཞིན་	-10.7385
ཡིད་སྐྱོའི་	-10.7386
ཡིད་དུ་འོང་བའི་	-10.7386
ཕེབས་འདུག	-10.7387
བཀའ་སློབ་སྩལ་ཡོད	-10.739
ཟིལ་གྱིས་མནན་ནས་	-10.7391
ཟླ	-10.7391
ཡོད་སྐོར་གསུངས	-10.7391
གདན་འདྲེན་ཞུས་	-10.7392
ར་འགྱུར་བ	-10.7393
སྤྱོད་་	-10.7395
རྣམ་པར་རིག་པ་	-10.7396
རྣམས་ལ་དགེ་བའི་	-10.7398
སྨོན་པ་	-10.7398
སྐྱོང་མཆོག་དང་	-10.7399
མོས་པ་སྣ་ཚོགས་	-10.7399
ཆོས་གང་ལ་ཡང་	-10.74
ཐུབ་པ་ཡིན་ན	-10.74
བཀའ་དྲུང་ཡིག་ཚང་	-10.7401
མཇུག་སྐྱོང་	-10.7402
▁བཙན་བྱོལ་	-10.7406
གླེང་སློང་གནང་	-10.7406
མཛད་སྒོ་གྲོལ	-10.7407
གཞིས་ཆགས་དང་	-10.7407
རྒྱ་ནག་ཏུ་	-10.7408
་ལ་སོགས་པ་	-10.741
བསླབ་གཞི་	-10.7412
རྣམ་པར་རྟོག་པ	-10.7414
རྫོགས་པར་བྱས་ཏེ་	-10.7417
ཡུལ་གྲུ་	-10.7419
ལྷམ་	-10.742
ལ་གནོད་	-10.742
རྒྱ་མཚོ	-10.742
སློབ་ཕྲུག་དང་	-10.742
ཉོ	-10.7422
རྒྱུ་ཡིན་པའི་	-10.7424
ཚན་རིག་གི་	-10.7425
ཨི་ཊ་ལིའི་	-10.7425
རྡ	-10.7426
གང་དག་ཡིན་པ་དེ་ད	-10.7431
དབང་པོ་ཤེས་པ་	-10.7434
ཁམས་རྣམས་	-10.7435
▁མདོར་ན་	-10.7436
འཇིགས་སྣང་	-10.7436
རྒྱ་ནག་ནང་དུ་	-10.7437
བཞུགས་མོལ་	-10.7438
གྲུབ་མཚམས	-10.7438
མྱ་ངན་ལས་འདས་སོ་	-10.7439
▁ཇི་ཙམ་ན་	-10.744
མཐོ་རིས་དང་ཐར་པ	-10.7441
ཚོགས་པ	-10.7441
ཐང་དང་	-10.7443
བདེན་དོན་	-10.7443
ངེས་རེད	-10.7445
བཅུག་ནས་	-10.7446
རྒྱ་ནག་མི་མང་	-10.7449
འགྲུལ་བཞུད་	-10.7451
▁འདི་ལོའི་	-10.7454
ཡུ་རོབ་སྤྱི་	-10.7454
ཟེར་རྒྱུ་	-10.7462
འབྱོར་བ་	-10.7462
ཕྱིན་ཆད་	-10.7463
ནད་ཀྱིས་	-10.7465
ལ་རྣམ་པར་	-10.7466
བསམ་གཏན་དང་པོ་	-10.7469
འཁུར་	-10.747
ཡིན་པའི་ཆ་ནས་	-10.7472
ཁྲིམས་འགལ་	-10.7475
འགྲེམས་	-10.7475
ཐོགས་པ་མེད་པའི་	-10.7476
ཀའ་བློན་པདྨ་དབྱང	-10.7478
ལ་བརྩོན་པ	-10.7478
འི་སེམས་ཅན་	-10.7478
ལས་དོན་ཚན་པའི་	-10.7479
སྒྲོལ་མ་	-10.7479
འབྲས་ལྗོངས་	-10.7481
ནང་དོན་	-10.7489
བློ་སྐྱེས་པ་	-10.749
རྣམ་པ་དྲུག་ཏུ་	-10.7491
གཞུང་ལམ་	-10.7493
ཐམས་ཅད་ཡང་དག་པར་	-10.7497
གཟུགས་ལ་	-10.7498
ཕན་ཚུན་དུ་	-10.7505
གདམས་ངག་	-10.7508
མཚན་དུས་དྲུག་ཏུ་	-10.7508
རིང་པོ་	-10.7511
ཇི་སྐད་	-10.7515
བགེགས་	-10.7517
གྲུ	-10.7517
བོད་ནས་	-10.7519
ཆབ་སྲིད་ཚོགས་པ	-10.7521
ས་དེའི་ཕྱིར་	-10.7521
སྒོམ་པ་	-10.7524
སྒྲ་འབྱིན་	-10.7526
བྱེད་སྒོར་	-10.7527
གསོ	-10.753
འདུ	-10.7531
ར་མཛད་དོ་་	-10.7531
རྩ་བ་བསྐྱེད་ནས་	-10.7531
འབེབས་	-10.7531
བསྟི་གནས་ཁང་དུ་	-10.7531
མི་ཚེའི་ནང་	-10.7532
ཚེའི་ཚད་	-10.7536
དགེ་བའི་ལས་	-10.7537
བཙོན་ཁང་ནང་	-10.7538
ལྔ་བརྒྱ་ཙམ་	-10.7541
▁སུ་ལ་	-10.7542
མཐོ་སློབ་ནས་	-10.7544
རྒ་ཤི་	-10.7547
ལས་དོན་སྤེལ་	-10.7553
བློན་ཆེན་མཆོག་	-10.7553
དགོས་སྐོར་	-10.7553
▁ཉི་མ་	-10.7553
བརྟེན་ནས་	-10.7554
མང་གཙོ་ཚོགས་པའི་	-10.7554
མེད་པ་ཡིན་	-10.7554
དཔག་	-10.7557
ཁེབས་	-10.7557
དྲིལ་བུ་	-10.7559
ཕ་མ་གཉིས་ཀྱིས་	-10.7562
ཁག་གཅིག་དང་	-10.7563
ཚ་བ་དང་	-10.7565
དྲུག་པོ་	-10.7565
གྱུར་ཅིང་	-10.7565
རང་གི་ལུས་	-10.7566
མགྲོན་འབོད་ལྟར་	-10.7566
ཙན་དན་གྱི་	-10.7568
སྣའི་རྣམ་པར་	-10.7569
འབད་བརྩོན་བྱེད་	-10.7575
འི་དོན་དུ་	-10.7575
ཁང་ནས་	-10.7576
པ་ཡིན་ནའང་	-10.7577
རྗེ་ཙོང་ཁ་པ་	-10.7578
མ་མཆིས་པ་ལགས་སོ་	-10.7579
དགའ་བར་གྱུར་ནས་	-10.7585
ལྷན་ཚོགས་ཐེངས་	-10.7585
ཀུན་ཆུབ་པར་བྱེད་	-10.7587
རྩེད་	-10.7588
བཟོ་བཞིན་ཡོད	-10.7592
དངོས་གཞི་	-10.7592
ལྔ་བརྒྱ་པོ་	-10.7593
ག་འདྲ་	-10.7593
སློབ་སྟོན་པ་	-10.7594
ཤར་ཕྱོགས་ཀྱི་	-10.7596
▁སྔོན་	-10.7596
བྱང་བར་གྱུར་ཏོ་	-10.7596
དབང་ཕྱུག་ལགས་	-10.7599
ཐུགས་སྨོན་	-10.76
ྦྱིན་པ་དག་སྦྱིན་	-10.7601
མ་འོངས་པ་དང་་	-10.7601
འདོད་པ	-10.7601
ཀྱི་མེད	-10.7601
བྱང་ཆུབ་ནི་	-10.7603
པར་མ་གྱུར་	-10.7606
▁དེའི་ནང་	-10.761
དྲི་བར་	-10.7616
▁འོན་ཏེ་	-10.7616
བདག་གི་ལུས་	-10.7619
ཤེས་པར་བྱ་བའི་	-10.7619
ཡོད་པ་འདི་	-10.762
ཇི་འདྲ་	-10.7622
▁རྒྱ་ནག་དམར་ཤོག་	-10.7622
▁རབ་འབྱོར་གལ་ཏེ་	-10.7624
ལས་དོན་ཐོག་	-10.7625
ཕག	-10.7625
རྣམ་པར་གནོན་	-10.7625
མཆི་	-10.7626
སེམས་ཅན་ཀུན་གྱི་	-10.7628
ཤེས་རིག་དྲུང་ཆེ	-10.7629
བདེན་མཐའ་གསལ་	-10.7631
▁བདེ་གཤེགས་	-10.7634
གཅེར་བུ་པ	-10.7635
་སྭ་ཧ་	-10.764
བྱང་ཆུབ་ཀྱི་ལམ་	-10.764
རོགས་ཞེས་	-10.7644
ཨོ་སི་ཀྲོ་ལི་ཡ	-10.7647
བྱམས་བརྩེ་ལྡན་པ་	-10.7648
དེ་འདྲ་བའི་	-10.7649
པ་ཡི་	-10.7649
བསྙེན་བཀུར་བྱེད་	-10.765
བདེ་བའི་ཡོ་བྱད་	-10.7653
ེར་	-10.7655
སྐྲག་པ	-10.7655
གཏི་མུག་གི་	-10.7657
དགོས་ན་	-10.7657
ཡོད་པར་བརྟེན	-10.7658
པར་མི་བྱའོ་་	-10.766
མ་ཡིན་ཞིང་་	-10.766
ཡི་དམ་	-10.7661
ནད་ཐམས་ཅད་	-10.7661
ཚ་བའི་	-10.7661
་མེད་པ་དང་་	-10.7662
སྲ	-10.7665
▁ཐོས་ནས་ཀྱང་	-10.7665
བྱང་ཨ་རི་	-10.7666
ཆོས་མཉན་པའི་	-10.7666
སྒྲས་	-10.7668
ལྷག་མ་	-10.7669
ཀྱང་མི་	-10.767
ར་བྱེད་པ་དང་་	-10.7676
ཡར་རྒྱས་ཕྱིན་	-10.7677
རྨིས་	-10.7677
གནས་ཚད་	-10.7679
སྤེལ་བཞིན་ཡོད	-10.7682
་ཝན་	-10.7683
ཚོགས་གཙོ་དང་	-10.7684
དོན་དམ་པར་	-10.7689
ཀྱི་ནང་དུ་སྐྱེ་བ	-10.7691
ཁྲིད་ནས་	-10.7693
ལུས་མེར་བསྲེགས་	-10.7694
རིན་མེད་	-10.7694
ཡི་དགས་ཀྱི་	-10.7694
བློ་ཕམ་	-10.7701
འཚལ་་	-10.7703
▁ཁོང་ནི་	-10.7705
བྱེད་ཅེ་ན་	-10.7706
སྐུ་ངལ་	-10.7708
བདག་པོ་ཚངས་པ་	-10.7708
▁ཧི་མ་ཅལ་མངའ་སྡེ	-10.771
ཞུགས་སོ་་	-10.771
མང་ཙམ་	-10.7712
འདོང་	-10.7712
ལས་ཡང་དག་པར་འདའ་	-10.7713
▁གསོལ་པ་བཙུན་པ་	-10.7713
བསྐལ་བརྒྱར་བརྟན་	-10.7716
འོན་	-10.7718
རྣམས་ཀྱི་མཆོག་	-10.7719
ཆོས་འཁོར་	-10.772
▁སྔ་མོ་	-10.7722
▁དེ་ནས་ལྷའི་བུ་	-10.7723
ཀྱི་ལས་འགུལ་	-10.7723
དེ་གཉིས་ཀྱི་	-10.7726
གཏོང་རྒྱུ་	-10.7728
དང་བྲལ་བའི་	-10.7728
འཇིག་རྟེན་གྱིས་	-10.7729
བཞིན་པ་ལྟར	-10.7729
་པྲ་	-10.7733
ས་པའི་འགོག་པ་	-10.7734
ལ་མཁས་པ་དང་་	-10.7735
བ་བཅས་	-10.7735
དང་་སྙིང་རྗེ་	-10.7737
ངལ་	-10.7737
▁མི་མཆོག་	-10.774
རྡུལ་ཕྲན་མཚོན་ཆ་	-10.774
བཞི་དང་	-10.7744
བཞེས་ཏེ་	-10.7745
ལས་ཀ་བྱེད་	-10.7745
སྣང་བ	-10.7746
བདུན་ཅུ་	-10.7747
དགེ་བའི་རྩ་བའི་	-10.7747
མ་མཆིས་ཤིང་	-10.7749
གྱུར་ཀྱང་་་	-10.7749
ནོར་རྒྱས་གླིང་	-10.7751
ཏུ་ལན་གསུང་སྟེ་	-10.7751
ཕེབས་ཐོན་གྱིས་	-10.7751
དྲ་བ་ཅན་གྱི་འོད་	-10.7752
འཚམས་འཕྲིན་	-10.7752
སྨྲའོ་་	-10.7752
ཚང་འཛོམས་ཀྱིས་	-10.7753
བརྒྱའི་ཆར་ཡང་	-10.7754
སེང་	-10.7756
རིགས་པའི་ལམ་ནས་	-10.7759
ུངས་སྐར་དུས་ཆེན་	-10.7762
སྡུག་སྦྱོང་	-10.7763
སུ་ཝི་	-10.7763
འཚེ་མེད་ཞི་བ་དང་	-10.7763
གས་པ་	-10.7764
རྣམ་པར་ཐར་པའི་	-10.7765
གསན་གཟིགས་གནང་	-10.7765
མེད་པ་ཉིད་	-10.7766
ིག་རྡུལ་མེད་ཅིང་	-10.7767
ཁྱབ་གདལ་	-10.7768
རང་དབང་དང་	-10.7769
མདོ་སྨད་	-10.7769
ཡི་གེའི་	-10.777
ལྷུང་བཟེད་ཐོགས་	-10.7772
ཡོ་	-10.7773
▁དེ་ནས་དྲང་སྲོང་	-10.7774
དང་ཐུན་མོང་དུ་	-10.7776
ཡིད་དུ་མི་འོང་བ	-10.7777
འོང་བ	-10.7778
ས་གནས་ཁག་	-10.7779
སྤྱན་སྔར་	-10.778
སྤྱི་འཐུས་རྣམ་པ་	-10.7782
ཟིལ་	-10.7783
འི་དེ་བཞིན་ཉིད་	-10.7783
འཛམ་གླིང་མི་མང་	-10.7784
བ་ཡིན་ན	-10.7785
ལུས་ཀྱི་ལས་	-10.7785
འཇོམས་པ་	-10.7786
་དེ་དག་གིས་	-10.7786
ཐམས་ཅད་ཀྱིས་ཀྱང་	-10.7786
སྟོན་ཏེ་	-10.7788
བ་སྟེ་	-10.7788
གཞག་པར་བྱ་	-10.779
ཆུ་མཛོད་	-10.7791
ས་བརྒྱན་པ་	-10.7791
འཁོར་གྱི་	-10.7791
ཡོད་པ་ལྟར	-10.7795
བྱུས་	-10.7796
གོང་མའི་འཐུས་མི་	-10.7798
ཁྱོན་ནས་	-10.7799
ཡོན་གནས་	-10.78
རིག་པ	-10.7801
ཡིད་ཀྱི་ལས་	-10.7801
བཅུ	-10.7802
མི་ཆོག་པའི་	-10.7802
བཞི་པའི་	-10.7803
མས་མི་མཇེད་འདིར་	-10.7804
ཞབས་འབྲིང་	-10.7804
པེ་ཅིང་དུ་	-10.7807
རྟོགས་པའི་	-10.7808
ཐུང་	-10.7811
དོན་དམ་པ་	-10.7813
ལྷན་རྒྱས་	-10.7814
དེ་ལྟ་བུ་དག་	-10.7815
འི་ཆོས་ཉིད་	-10.7816
གྲུབ་བསྟུན་	-10.7817
ར་བྱས་སོ་་	-10.7818
དྲུག་པ་	-10.782
བཅས་ཀྱི་ཐོག་	-10.7824
དགོས་པ་དེ་	-10.7825
རྣམ་ཐོས་ཀྱི་བུ	-10.7825
ཐེངས་གཉིས་པ་	-10.7826
ཐམས་ཅད་དང་བྲལ་བ་	-10.7829
སྤྱི་ཚོགས་ཞབས་ཞུ	-10.7829
་བརྩོན་འགྲུས་	-10.783
མདོ	-10.783
གླེང་སྟེགས་	-10.783
▁ང་ཚོའི་ངོས་ནས་	-10.783
འཁྲབ་	-10.7835
སྙམ་པའི་	-10.7836
བསམ་གཏན་དང་་	-10.7836
བསྐྱེད་པའི་	-10.7837
རབ་ཏུ་མཁྱེན་ཏེ	-10.7838
བོད་ཕྱི་ནང་གཉིས་	-10.7838
བཅད་ནས་	-10.7839
གོ་འཕང་	-10.7843
ཚོང་འབྲེལ་	-10.7843
ལེན་པ་མེད་པ	-10.7844
མོན་གྷོ	-10.7844
བསླབས་ཏེ་	-10.7845
བཙུགས་པ་	-10.7846
སྣ་མང་	-10.7849
ཙམ་ལས་	-10.7851
ནས་རྒྱ་གར་	-10.7852
ལ་གཞི་མེད་དོ་	-10.7853
ཁྲུས་	-10.7856
▁བཙུན་པ་བདག་	-10.7856
མ་ཐོས་	-10.7856
ཡིད་ནི་	-10.7859
གནས་ཡོད	-10.7861
ཆོས་ཀྱི་ཁམས་	-10.7862
ཉེས་ཆད་	-10.7863
དབང་ཕྱུག་མཆོག	-10.7864
▁རིན་པོ་ཆེ་	-10.7866
བསྐོར་ཅིང་	-10.7866
མངའ་བ་	-10.7867
ཕྱི་རྒྱལ་དུ་	-10.7871
མི་ཟད་པ་	-10.7873
རྒྱུའི་ཞལ་བཞེས་	-10.7878
བསྡུ་བ	-10.7878
འཆང་བ་	-10.7879
འི་དྲུང་དུ་	-10.788
གོང་ཚེས་ཉིན་	-10.7881
འི་གོ་སྒྲིག་འོག་	-10.7882
གཤམ་གསལ	-10.7882
ཞིག་ཡིན་	-10.7885
ལུས་ལས་	-10.7886
གྱུར	-10.7887
མ་བྱས་པ་	-10.7887
ཕ་རོལ་ཕྱིན་	-10.7887
གཅིག་རྐང་འཛིན་	-10.7889
བསླེབས་	-10.7889
ཞུ་འདོད་བྱུང	-10.7891
པ་མ་གཏོགས་	-10.7894
བཀའ་དགོངས་	-10.7895
བཀའ་སློབ་ཕེབས་	-10.79
ཕྱོགས་གཅིག་	-10.79
རིང་ནས་	-10.7901
སྣང་བའི་	-10.7904
སྟག་	-10.7906
གོམས་	-10.7907
རྒྱལ་ཁ	-10.7907
དག་དང་་་	-10.7909
སུམ་	-10.7909
དོ་སྣང་དང་	-10.7911
སྟོབས་བཅུའི་	-10.7912
ཉི་ཤུ	-10.7912
གདོན་མི་ཟ་བར་	-10.7913
ཧི་མ་ཅལ་	-10.7916
▁ཁྱེད་ཅག་	-10.7916
འདྲའོ་་	-10.7917
ཚོགས་གཙོའི་	-10.7917
▁ཕུང་པོ་	-10.792
་སིངྒ་	-10.7925
་ཡི་་	-10.7926
བ་བཅས	-10.7926
ཞིག་རེད་འདུག	-10.7927
པར་མི་བྱེད་དོ་་	-10.7928
འབྲེལ་བ་ཡོད	-10.7932
ས་གནས་མི་མང་	-10.7933
བོད་མི་ཡོངས་ནས་	-10.7933
ཆོས་རྒྱལ་ཁྲི་	-10.7935
▁ཐུབ་པ་	-10.7935
▁ང་ཡིས་	-10.7936
ལོ་ངོ་བཅུ་ཕྲག་	-10.7937
འི་ཆེད་	-10.7937
ཞུ་རྒྱུ་བཅས	-10.7937
་བར་འདོད་པས་	-10.7938
ཚད་མ	-10.7938
ཕྱག་འཁྱེར་	-10.7939
ལ་མངོན་པར་བསྟོད་	-10.7939
▁རི་	-10.7939
རྒྱལ་པོའི་ཁབ་ན་	-10.794
ལ་བཟོད་པ་ཐོབ་པ	-10.7942
དགོན་པ	-10.7944
འདྲ་ཞིག་ཡིན་རུང་	-10.7946
བྲི	-10.7952
ཚང་བ་	-10.7953
འི་ཡོན་ཏན་	-10.7954
རྒྱ་མཚོ་ཆེན་པོར་	-10.7954
ཊི	-10.7955
▁དགོན་པ་	-10.7955
རྒོལ་	-10.7956
རྫུ་འཕྲུལ་གྱི	-10.7957
དམ་པ་ཁོང་གིས་	-10.796
གནས་གཙང་མའི་	-10.796
བོད་མི་ཡོངས་	-10.7961
▁འཛིན་སྐྱོང་	-10.7963
དགོན་སྡེ་གྲྭ་ཚང་	-10.7963
དང་བོད་	-10.7964
བསྐལ་པར་	-10.7965
དམིགས་བསལ་གྱིས་	-10.7966
འཁོར་བཞི་པོ་	-10.7969
ཟས་སྦྱིན་གྱི	-10.797
་ཧ་	-10.7971
་རྒྱུན་དུ་ཞུགས་པ	-10.7972
སྐོར་སོགས་	-10.7972
དང་་ཆོས་	-10.7974
གཟུགས་ནི་	-10.7975
དང་ལྡན་་	-10.7976
ཆེ་་	-10.7978
བྱར་	-10.7978
ངོ	-10.7978
ཆོས་སྟོན་ཏེ་	-10.7982
ལྔ་པ	-10.7982
འགྱུར་བ་གཏོང་	-10.7982
གོད་ཆག་	-10.7983
བི	-10.7986
▁ཅེས་སོགས་གསུངས	-10.7988
གསོ་སྦྱོང་	-10.799
གསར་འགྱུར་ཚན་པ	-10.7993
དང་ལེན་	-10.7994
ཀྱི་ཡོད་སྟབས	-10.7995
ཉུང་དུ་འགྲོ་	-10.7996
གཅིག་གིས་གཅིག་	-10.7997
ཝར་	-10.7997
བྱམས་པ	-10.7998
་བཀའ་བརྒྱུད་	-10.7999
བརྒྱད་པ་	-10.8
ཡན་ལག་དང་ཉིང་ལག་	-10.8001
ང་སང་པོའི་དབྱངས་	-10.8001
བདུད་བརྗེད་ངས་	-10.8001
་གྲུབ་བཅུ་བདུན་	-10.8001
རིས་མེད་ཀྱི་	-10.8003
སྨན་ཁང་དུ་	-10.8003
སྤྱད་ནས་འཆི་ཀར་	-10.8003
ི་སྤྱོད་པ་ལ་	-10.8006
ནི་བྱང་ཆུབ་བོ་་	-10.8007
▁རིགས་དེ་ནི་	-10.8008
གཟུགས་མེད་པ་	-10.8009
བྱེད་པ་ནི་	-10.8009
ཞལ་ལག་	-10.8011
སྤྱི་ཚོགས་ཁྲོད་	-10.8011
▁མཛད་སྒོའི་ཐོག་	-10.8014
བཤགས་	-10.8016
བརྫུན་དུ་སྨྲ་བ	-10.8016
ཡིན་སྐོར་དང་	-10.8019
དང་འབྲེལ་ཡོད་	-10.8021
འཚམས་གཟིགས་སུ་	-10.8023
དཔྱད་པ་	-10.8029
ས་ཤིག་	-10.803
འཐབ་རྩོད་ཀྱི་	-10.803
ཁོ	-10.8031
ལ་ཆོས་ཀྱི་མ	-10.8033
དེའི་ཆུང་མ	-10.8033
མ་བྱས་པར་	-10.8037
རྣམ་པར་ཐར་པ་བ	-10.8038
བསྟེན་པ་	-10.804
ནས་ལོ་ངོ་བའི་	-10.804
▁འཛམ་གླིང་གི་	-10.8041
་མ	-10.8041
བདག་ཉིད་ཀྱི་	-10.8041
ན་ཡང་མི་གནས་སོ་	-10.8042
བར་བྱེད་་	-10.8043
བཙན་བྱོལ་བ་ཆགས་	-10.8044
ལ་རྟེན་	-10.8045
ཧན་	-10.8048
མི་ཉམས་གོང་འཕེལ་	-10.8049
དང་་གོས་དང་་	-10.8053
སྨྲ	-10.8054
གས་ཏེ་	-10.806
ཡེ་ཤེས་ཀྱིས་	-10.8061
ཟློས་གར་	-10.8062
ི་ཐེག་པ་པའི་	-10.8062
ཨ་མ་	-10.8064
སུ་དག་	-10.8065
ཁུག་	-10.8066
▁སྐབས་དེའི་	-10.8066
་འཛུགས་ངོས་ནས་	-10.8068
རྗེས་སུ་འབྲང་	-10.8073
སུན་	-10.8075
ལེ་ལོ་	-10.8077
བསྒྱུར་བ་	-10.8077
བཀག་སྡོམ་	-10.8078
བཀྲ་ཤིས་ལྷུན་པོ	-10.8078
་ཞེས་བྱ་བ	-10.8079
སྤེལ་ཡོད	-10.8079
སྤྱི་སྒེར་	-10.808
འདོད་པ་ན་སྤྱོད་པ	-10.8081
ཆུ་ཚོད་ཙམ་ལ་	-10.8081
བྱེད་ཕྱོགས་	-10.8085
▁འདི་ག་ཕྱི་དྲིལ་	-10.8085
ས་གནས་འགོ་འཛིན	-10.8086
རྐྱང་	-10.8086
སྲོལ་ཡོད	-10.8087
ཆབ་སྲིད་ཐོག་ནས་	-10.8088
གསོལ་་	-10.809
བཙུན་མ་	-10.8091
▁བལ་ཡུལ་	-10.8091
ཐེ་ཝན་གྱི་	-10.8092
དགོས་པ་ཞིག་རེད	-10.8093
སྐྱེ་མཆེད་རྣམས་	-10.8096
གཞིར་བཞག་ཐོག་	-10.8096
▁རིན་ཆེན་	-10.81
སློབ་གྲྭ་དང་	-10.81
ཤེས་རྟོགས་བྱུང་	-10.8101
ལ་དམིགས་པ་	-10.8101
མེད་པ་སྟེ་	-10.8103
་གསལ་རྒྱལ་གྱིས་	-10.8104
རིགས་པ་	-10.8105
ལ་སྐྱོན་བརྗོད་	-10.8105
མེད་པར་འགྱུར་རོ་	-10.8105
ལ་ཞུགས་པ་	-10.8109
▁གང་ན་	-10.8109
ཡང་དག་པར་བསྟན་	-10.8109
ཐུབ་རྒྱུ་	-10.811
ཁྲིམས་ཐག་བཅད་	-10.8111
འཕྲོད་	-10.8115
འི་རིགས་	-10.8115
པ་ཡིན་ཞེ་ན་	-10.8115
དཔེར་ན་སྐྱེས་བུ་	-10.8116
ཅེས་བཀའ་སློབ་སྩལ	-10.8116
འཇིགས་པའི་	-10.8117
འི་རྣམ་གཞག་	-10.8117
བཟླས་པ	-10.8119
དྲང་པོ་	-10.812
སླེབས་པ་རེད	-10.8122
▁དགེ་བའི་	-10.8123
▁མྱུར་དུ་	-10.8125
སྒྲོལ་དཀར་	-10.8127
རྩེ་བ་	-10.8127
▁རྒྱལ་	-10.8127
ལྔ་པོ་	-10.8129
▁དེ་ཉིན་	-10.813
ལས་གཞི་ཁག་	-10.8131
གནོད་སྦྱིན་གྱི་	-10.8132
མཆེད་	-10.8133
མཛོད་ཅིག་	-10.8135
འབུ	-10.8138
ག་ནི་འདི་ལྟ་སྟེ་	-10.8138
འཁྲུངས་སྐར་གྱི་	-10.8139
ནང་ལ་	-10.8141
ཟག་པ་དང་བཅས་པ	-10.8141
ཁྱད་ལས་	-10.8142
ཆོས་སྨྲ་	-10.8146
ཐོབ་ཐབས་	-10.8147
འགྲོ་རྒྱུ་རེད	-10.815
མཁས་དབང་དང་	-10.815
གྱི་དཀྱིལ་འཁོར་	-10.8155
མི་རྟོག་	-10.8156
སྤོང་བ	-10.8157
་མཆོག་ལ་	-10.8157
ནད་པའི་	-10.8158
ཞེ་ན་རབ་འབྱོར་	-10.8158
དྲ་ཐོག་	-10.8159
སྡང་	-10.8159
དུས་བབ་	-10.816
་འཆི་བ་	-10.8161
འི་གཏམ་	-10.8165
འདུགལྷག་པར་	-10.8165
ཐུབ་རྒྱུའི་	-10.8166
ནང་གསེས་	-10.8166
བཅོ་བརྒྱད་	-10.8167
མི་དགེ་བའི་ལས་	-10.8167
▁ཞེས་འཁོད་འདུག	-10.8168
གཅིག་པོ་	-10.8169
འཇོ	-10.817
པའི་ཕྱིར་ཏེ་	-10.8172
གསོ་རིག་	-10.8172
ཕྱི་སྟོང་པ་ཉིད་	-10.8172
ལྡན་པ་་	-10.8172
སློབ་ཕྲུག་རྣམས་ལ	-10.8173
ལས་བྱེད་རྣམ་པ	-10.8176
རྒྱ་མཚོ་ལགས་	-10.8178
སྒྲེང་འཛུགས་གནང་	-10.8179
ཉིན་རྒྱབ་ཆུ་ཚོད་	-10.818
ངོ་ཤེས་	-10.8181
དེར	-10.8182
དེའི་ལུས་	-10.8182
བཞི་དང་་	-10.8182
སྦར་སེལ་	-10.8182
བཀྲེས་	-10.8183
འཐོབ་སྟེ་	-10.8184
མཚན་གནས་	-10.8185
ལ་གདོང་ལེན་	-10.8185
▁སུད་སིའི་	-10.8186
གོས་ངུར་སྨྲིག་	-10.8188
བཏང་བ་མ་ཟད	-10.8188
རྣམ་པར་སེལ་བ་	-10.8189
ཕྱིར་སྤྱན་སྔར་འ	-10.8191
རྒྱ་ཆེ་མང་ཚོགས་	-10.8194
དང་་ཡིད་མི་བདེ་བ	-10.8194
དུ་ཕེབས་	-10.8195
ཕྱི་ལོ་ཟླ་	-10.8197
མཐོང་མཆན་	-10.8197
བསྣུན་	-10.82
བསམ་བློར་	-10.82
ལེབ་	-10.8201
ལ་ལེགས་སོ་ཞེས་	-10.8203
ཡོངས་སུ་སྦྱང་བ་	-10.8204
ཉུང་མི་རིགས་ཀྱི་	-10.8204
ཁྱིམ་ནས་ཁྱིམ་	-10.8204
ལམ་གྱིས་	-10.8205
དེ་སྲིད་	-10.8205
དགའ་བྱེད་	-10.8207
དྲན་པ་རྙེད་	-10.8208
མཆོག་བཅས་	-10.8208
དགོས་ཀྱི་	-10.8208
འོད་དཔག་མེད་	-10.8208
ངས་ནི་	-10.8209
སྨན་པས་	-10.8212
ལང་ཚོ་	-10.8214
ཧི་མ་ལ་ཡ་རི་	-10.8214
ལེགས་གྲུབ་བྱུང་	-10.8215
ཞུ་རྒྱུ	-10.8221
ཐོགས་པ་མེད་པར་	-10.8222
སྐོར་སྤྲོ་འཆམ་པ་	-10.8226
དག་སྣང་	-10.8227
བགྲེས་ཡོལ་	-10.8227
ཡིད་དུ་མི་འོང་བ་	-10.8231
སྣང་ངོ་་་	-10.8232
ཤེས་ཡོན་ཐོག་	-10.8232
སྐུ་ལས་	-10.8233
ཡིན་པས	-10.8234
དབུ་འཛུགས་	-10.8235
གནང་བ་ལྟར་	-10.8236
ུལ་	-10.8236
འི་རང་བཞིན་ཅན་	-10.8236
ལས་རོགས་	-10.8237
མཐིལ་	-10.8237
ཕྱིར་ཞིང་	-10.8237
སྙིང་པོར་	-10.8237
གདན་ཞུ་གནང་	-10.8238
བལྟ་བར་	-10.8238
མྱ་ངན་ལས་འདས་པར་	-10.8238
གསོ་བ་	-10.824
དགེ་སྦྱོང་ངམ་	-10.8241
རེབ་གོང་	-10.8242
ཆོས་མཉན་པ	-10.8242
པ་ཉིད་	-10.8242
སྲི་ཞུ་	-10.8244
ཉེན་རྟོག་པ་	-10.8246
འོས་པའི་	-10.8246
་བྷ་	-10.8246
སྐྱ་	-10.8247
མ་མཆིས་ཏེ་	-10.8248
▁གལ་ཏེ་མི	-10.8249
འི་སེམས་ཀྱིས་	-10.8251
ཀྱིས་བརྒྱན་པ་	-10.8254
བཀའ་དྲིན་ཆེན་པོ་	-10.8255
་ཡང་མེད་གཉི་ག	-10.8256
མཐོ་ཤོས་	-10.8256
▁དཀའ་ངལ་	-10.8257
མོ་ཧ	-10.8257
རུ་སོག་	-10.8258
འཇམ་མགོན་རྒྱལ་བ	-10.8258
བཏང་སྟེ	-10.8258
ལས་གུད་ན་ཡང་	-10.8258
ལྷན་ཚོགས་ནས་	-10.8258
ཀ་སྦུག་	-10.8259
མི་མཐུན་པ་	-10.8259
བྱ་རྒྱུ་རེད	-10.8259
གཙེ་བ	-10.8259
སྟོབས་དང་བདེ་བར་	-10.8259
དག་གིས་ཀྱང་	-10.826
འཕངས་	-10.826
གཞིར་བཞག་	-10.8263
▁ཟླ་	-10.8264
མིང་འདི་ཞེས་བྱ་བ	-10.8264
ཁང་བཟངས་	-10.8265
འགྲུབ་པར་འགྱུར་	-10.8265
ལས་འགན་རང་འཇགས	-10.8265
གདན་བཤམས་པ་	-10.8267
གདངས་	-10.8267
མེད་པའི་ཕྱིར་རོ་	-10.8268
བྱང་ཆུབ་མཆོག་	-10.827
བློའི་རྣམ་གཞག་	-10.8272
རྒྱལ་པོ་དེའི་	-10.8273
ཤེས་པ་དང་	-10.8275
བསྙེན་བཀུར་བྱས་	-10.8276
མི་འ	-10.8276
མངོན་པར་བསྒྲུབ་པ	-10.8279
གྱེན་དུ་	-10.8279
ྨྲ་བརྗོད་རང་དབང་	-10.8281
འཆམ་མཐུན་	-10.8281
གནོད་སེམས་མེད་པ	-10.8282
▁འཛམ་གླིང་ནང་	-10.8282
འཆང་བ་དང་་ཀློག་པ	-10.8283
ཕྲུ་གུའི་	-10.8286
རིམ་དུ་གནས་སྤར	-10.8286
བདེ་བར་གཤེགས་པས་	-10.8287
འོད་མའི་ཚལ་བ	-10.8287
སྟངས་འཛིན་	-10.8288
ར་འགྲུབ་པ་དེ་	-10.8288
འདི་ཉིད་ལ་	-10.8288
དཔལ་འབྱོར་དང་	-10.8288
གླང་པོ་ཆེའི་	-10.829
ཤག་	-10.8291
ཐེངས་མང་	-10.8296
བཟོ་མཁན་	-10.8297
ལ་ཆགས་པ	-10.8297
ཁའི་	-10.8298
▁དེ་བས་	-10.8298
ཐར་པའི་སྒོ་གསུམ་	-10.8298
ཚོགས་ཆུང་ཞིག་	-10.8298
འདི་དག་ཀྱང་	-10.8299
གསལ་རྒྱལ་	-10.8299
རྨ་བྱ་	-10.8301
ཇུས་	-10.8301
དམིགས་སུ་མ་མཆིས་	-10.8301
ཚན་པོ་ཆེ་ཆེན་པོ་	-10.8301
འདྲིས་	-10.8302
དེ་སྐད་ཅེས་	-10.8302
མཆོག་ནི་	-10.8302
མི་དེས་	-10.8303
▁དེ་ཉིད་	-10.8304
བསྙེན་བཀུར་བྱ་བ	-10.8306
ཁེངས་	-10.8306
རླུང་གིས་	-10.8306
ེ་སི་	-10.8307
ནི་ཆོས་ཐམས་ཅད་	-10.8308
ཤེས་པ་གང་ཞེ་ན་	-10.8309
གཅིག་གྱུར་རེད	-10.8313
རྫུན་	-10.8314
བོད་ཀྱི་བདེན་	-10.8317
▁དེར་ནི་	-10.8317
བལྟམ་	-10.8318
ཕུང་པོ་ལྔ་	-10.8318
རིག་གཞུང་དེ་དག་	-10.832
རྒྱ་ནག་གཞུང་ཚབ་	-10.8321
རབ་ཏུ་བྱུང་་་	-10.8323
ཉེ་བའི་	-10.8324
་དྲི་ཟར་བཅས་	-10.8325
རྒྱུའི་ཁས་ལེན་	-10.8326
▁གལ་སྲིད་	-10.8327
བཞི་དང་ལྡན་ན་	-10.8333
ལས་དོན་གནང་ཕྱོགས	-10.8335
འདེགས་འབུལ་ཞུས	-10.8335
སྲི་ཞུ་བ་	-10.8337
བའི་སྨོན་འདུན་	-10.8338
ཨིན་ཇི	-10.8341
ཚོགས་བཅར་བ་རྣམས་	-10.8342
འཕྲོས་	-10.8342
རང་གི་ཐོག་ནས་	-10.8346
ལག་པས་	-10.8349
ནས་ལོ་ངོ་	-10.8349
དྲང་སྲོང་དེ་	-10.8351
ཀླུའི་	-10.8353
བོད་ཡིག་ཚན་པའི་	-10.8354
དང་་དགེ་བསྙེན་མ་	-10.8355
སྐྱི	-10.8356
རྣམ་མང་	-10.8358
བཞིན་པའི་སྐོར་	-10.8358
བོད་རིགས་སྤུན་ཟླ	-10.836
ཁྱེད་རྣམས་	-10.8361
དགུ	-10.8362
ཟུང་ཤིག་	-10.8363
ཆེན་པོ་དང་ལྡན་པ་	-10.8363
བསྐྱེད་པར་བྱའོ་་	-10.8364
མཉན་པའི་ཕྱིར་	-10.8368
སྙིང་པོ་མེད་པ་	-10.8369
དུ་མི་	-10.837
ཚེ་རིང་ལགས་དང་	-10.8372
སླ་བ་	-10.8375
འི་སྐྱེ་གནས་དང་་	-10.8377
ངོན་པར་ཤེས་པ་དང་	-10.8378
པ་དེ་ལྟ་བུ་ནི་	-10.8379
ཕོགས་	-10.8381
ྟོང་ཉིད་ཀྱི་ལྟ་བ	-10.8381
སྦྱངས་པ་	-10.8383
ལས་ཐར་	-10.8383
འི་སྡུག་བསྔལ་	-10.8384
བཟོ་གྲྭ	-10.8384
་ཊ	-10.8385
ལ་ཕྱག་འཚལ་	-10.8385
དུ་འགྲོ་	-10.8385
འཕགས་པའི་ཡུལ་དུ་	-10.8386
ཤེལ་	-10.8386
ར་བྱས་	-10.8388
བདག་ཅག་ཀྱང་	-10.8388
རྒྱ་ནག་ནས་	-10.8389
ཚོང་དཔོན་གྱི་བུ་	-10.839
བཙུན་མོ་	-10.839
ལས་དོན་རྣམས་	-10.8391
འདུས་པའི་	-10.8393
མུ	-10.8393
དབྱུང་བ	-10.8395
བཀའ་བློན་རྣམ་པ་	-10.8396
བག་ཡོད་	-10.8397
གནས་ཚུལ་ཐོན་	-10.8399
ལྷན་ཁང་ཁག་གི་	-10.84
རྒྱུའི་ཚབ་ཏུ་	-10.8401
མེད་པ་ལ་	-10.8403
ཕྱི་ལོ་ཉིན་	-10.8404
བྱུགས་	-10.8406
མཚུངས་པ་	-10.8409
ལྷ་མིན་	-10.8409
▁དམ་པ་དེ་ཉིད་	-10.8411
འཛུམ་པ་མཛད་	-10.8412
འཁྲུལ་འཁོར་	-10.8413
་དེ་ཕྱིར་	-10.8414
ལ་མངོན་པར་བརྩོན་	-10.8414
བཀག་ཉར་བྱས་	-10.8414
སྐུ་ཚེའི་	-10.8418
ལས་བྱས་པའི་	-10.8419
ལྟ་བ	-10.8419
ལེའུ་ཞེས་བྱ་སྟེ་	-10.8419
བྱེ་བ་སྟོང་ཕྲག་	-10.842
་ཤེས་རབ་	-10.8421
དེ་འདི་	-10.8424
ན་དགེ་སློང་	-10.8428
དོང་ནས་	-10.843
མང་མོས་	-10.843
འདི་ལྟ་བུར་	-10.8432
གང་གའི་ཀླུང་	-10.8432
ཡོངས་ཀྱིས་	-10.8432
ལྔ་དང་	-10.8434
བཅོམ་ནས་	-10.8436
རྣམ་གཞག་	-10.844
རྗེས་སུ་བལྟ་བ	-10.844
ཡུན་	-10.8441
ཟོས་ནས་	-10.8441
གནས་བབ་ཚད་ལྡན་	-10.8442
འོད་གསལ་བ་	-10.8445
▁དེ་ཡང་ཐོག་མར་	-10.8446
་མོ་	-10.845
བསོད་ནམས་གླིང་	-10.8451
བཀའ་དྲུང་	-10.8452
གང་ཡིན་པའི་	-10.8453
བྱ་རྒོད་ཀྱི་	-10.8454
▁བོད་མཐོ་སྒང་གི་	-10.8454
ེ་རུ་	-10.8455
ལེགས་སོ་	-10.8455
་དེ་དག་དང་་	-10.8455
ལེ་ལོ་ཅན་	-10.8456
འདོད་ཅིང་	-10.8458
ུར་	-10.8458
མཚན་མར་	-10.8461
དཀྱིལ་	-10.8462
ཡོད་པ་དེར་	-10.8463
ྗོད་དུ་མེད་པའི་	-10.8466
འགན་འཛིན་གཞོན་པ་	-10.8466
ཁྱོན་ཡོངས་ལ་	-10.8468
དེས་དེ་	-10.8471
སྤྱད་ནས་	-10.8471
ཐུགས་སུ་ཆུད་	-10.8472
བཙན་དབང་	-10.8475
པ་ཉིད་ཀྱི་ཕྱིར་	-10.8477
ངན་པའི་	-10.8478
མི་གཙང་བ་	-10.8481
ཆོས་ཀྱི་སྦྱིན་པ་	-10.8482
མེད་ནའང་	-10.8483
ཇི་སྙེད་པ་	-10.8483
ཆུ་དང་	-10.8487
ཐོན་པའི་	-10.8488
ཐེངས་གཉིས་	-10.8489
ཡུལ་གྲུ་ཁག་ཏུ་	-10.849
་གང་གིས་	-10.849
བྲེགས་	-10.8494
ཧོར་	-10.8495
བྲམ་ཟེ་དེ་	-10.8495
ཕན་བདེ་	-10.8496
བྱེད་བབ་	-10.8496
ག་ལ་བ་དེར་དོང་	-10.8497
མཆོགགྲོས་ཚོགས་	-10.8497
ཕྱོགས་ཕེབས་	-10.8498
མ་དང་་	-10.8498
མི་རྒོད་	-10.8501
གཡུལ་	-10.8502
དྲ་ཚིགས་	-10.8502
བསྐྱེད་པའི་ཕྱིར་	-10.8503
ལོ་སྟོང་ཕྲག་	-10.8505
མཐའ་མ་	-10.8505
▁ནད་པ་	-10.8507
དང་ལྡན་པ་ཡིན་ནོ་	-10.8508
མཛོད་་	-10.8508
ཀྱི་སླད་དུ་	-10.8509
སྦྱར་བ་	-10.8509
བཅུད་	-10.8509
འཇ	-10.8512
▁མཁན་པོ་	-10.8513
ི་སི་	-10.8516
ལོ་མ	-10.8516
གཟུངས་སྔགས་	-10.8517
ནི་ཆོས་ཉིད་ཀྱིས་	-10.8519
སྣང་་་	-10.8519
ཚིག་འདི་སྐད་ཅེས་	-10.8519
དབང་བསྒྱུར་	-10.852
རྒ་བ་དང་་ན་བ་དང་	-10.8521
ྱ་ཀ་ལན་ད་ཀ་གནས་པ	-10.8521
སློབ་ཕྲུག་གི་	-10.8521
ཉེ་འགྲམ་	-10.8521
མཁའ་ལམ་བརྒྱུད་	-10.8521
རྒྱབ་ཀྱིས་ཕྱོགས་	-10.8521
ཡུལ་མ་ག་དྷའི་	-10.8521
རྩེ་ཕུད་	-10.8522
དྭང་བླངས་	-10.8522
ཆོས་མ་ཡིན་པ་	-10.8523
བདུགས་	-10.8523
རྒྱུས་མངའ་	-10.8523
འཁྲུག་རྩོད་	-10.8524
ཆོད་སེམས་བརྟན་པོ	-10.8524
རྒྱད་ལ་བསམ་གཏན་པ	-10.8524
གངས་ལྗོངས་	-10.8524
ཁོ་མོ	-10.8525
▁དེ་དང་ཆབས་ཅིག་	-10.8526
དོན་གྱི་ཕྱིར་	-10.8527
དུ་བྱུང་ངོ་་་	-10.8529
མཆིའོ་་	-10.8529
▁ཀྱེ་མི་ཁྱོད་	-10.8529
ལེགས་བཅོས་	-10.853
ཡོངས་སུ་བཤད་པའི་	-10.853
གསུང་་་	-10.8531
ཤེས་ཀྱི་ཡོད	-10.8531
ཚེ་འཕོས་པ་	-10.8532
རྒྱང་	-10.8532
ཡངས་ཤིང་རྒྱ་ཆེ་བ	-10.8534
མི་འམ་ཅིའི་	-10.8535
པད་	-10.8535
གྱི་བླ་སྤྲུལ་	-10.8537
རེ་རེ་ལ་ཡང་	-10.8537
དཔང་རྟགས་	-10.8537
དང་་དགེ་སློང་མ་	-10.8539
ཁ་སང་	-10.854
བོད་ས་བཙན་བཟུང་	-10.854
ཕུལ	-10.8543
གསུམ་པའི་	-10.8543
དཀའ་ངལ་ཧ་ཅང་	-10.8545
དགའ་བར་གྱུར་ཏེ་	-10.8545
ར་སངས་རྒྱས་ཏེ་	-10.8546
བསྐྱར་གསོ་ཡོང་	-10.8547
གཡེང་	-10.8547
གཏོར་བཤིག་བཏང་	-10.8547
ངལ་སེལ་	-10.8548
བརྩེ་བ	-10.8548
བཅས་ཡིན	-10.8553
གི་དགེ་འདུན་ལ་	-10.8553
ང་ཚོ་བོད་མི་	-10.8554
པར་གྱུར་ལ་	-10.8555
ལ་མ་ལྟོས་པར་	-10.8559
ལོར་	-10.856
ཐོབ་པར་འགྱུར་	-10.856
སྐྱབས་གནས་	-10.856
འཁྲུལ་པ་	-10.8561
དམིགས་ཡུལ་གཙོ་བོ	-10.8562
དེའི་ཐད་དུ་	-10.8564
གྲོང་རྡལ་	-10.8565
བ་དེ་ནི་	-10.8565
གིས་སྨྲས་པ་	-10.8565
ཚོད་དཔག་	-10.8565
མེར་	-10.8566
▁འཇམ་དཔལ་འདི་	-10.8567
གསལ་བའི་	-10.8567
ཁང་པའི་	-10.8567
ཟེར་བ་དང་	-10.8568
བཏང་བ་རེད	-10.8568
རྒྱབ་གཉེར་	-10.857
ཀླུང་	-10.857
དང་ལྡན་ཏེ་	-10.8572
སྦྲང་	-10.8572
གསོལ་ཚིགས་	-10.8574
གང་དང་ལྡན་པས་	-10.8574
་ལེ	-10.8574
མཚམས་འཇོག་དགོས་པ	-10.8574
ར་བ	-10.8575
ས་གཞི་	-10.8575
གཟིགས་འབུལ་ཞུས	-10.8575
འཆད་པ་	-10.8577
་ཞིག་བྱུང་སྟེ་	-10.8579
བགྲོ་གླེང་དང་	-10.858
▁བདེ་སྲུང་	-10.858
དངུལ་གྱི་	-10.858
་ཏི	-10.858
འཛིན་རིམ་	-10.858
མཉན་པ	-10.8583
▁རྒྱུ་མཚན་	-10.8584
བྱ་དགོས	-10.8586
ཆོག་པ་	-10.8588
ཧ་ཅང་ཡག་པོ་བྱུང་	-10.8589
པ་ཞེས་བྱ་བ་	-10.8592
སྦྱིན་པ་དང་་	-10.8594
བལྟའོ་་	-10.8595
ཁྱེའུ་དེས་	-10.8595
▁པད་མའི་དཔལ་གྱི	-10.8596
ཐེབས་རྩ་ཁང་	-10.8596
འཕྲལ་མར་	-10.8598
འཚོང་	-10.8601
གཅད་	-10.8602
བརྒྱ་དང་	-10.8602
ནད་རྟགས་	-10.8603
རྩུབ་	-10.8604
འོས་བསྡུ་ལས་ཁང་	-10.8604
མཆོངས་	-10.8604
རྒྱ་བོད་	-10.8606
གྱིས	-10.8611
རུས་པ་	-10.8611
བསམ་གཏན་གླིང་	-10.8611
་ཕུན་ཚོགས་མཆོག	-10.8611
▁དེ་ཡིན་དུས་	-10.8612
མྱ་ངན་ལས་འདའ་བར་	-10.8613
ཞིག་ཡོད་པ་	-10.8615
མི་སྐྲག་	-10.8616
ཀྱི་སྙིང་པོ་	-10.8619
བསྟན་དུ་གསོལ་	-10.862
ཡོངས་སུ་དག་པ་དང་	-10.8621
མི་བགྱིད་	-10.8622
ཚོ་ལའང་	-10.8623
་རྣམས་ཡིན་ནོ་	-10.8624
ཕྱོགས་ཐད་	-10.8625
ཟིལ་གྱིས་ནོན་	-10.8625
པུ	-10.8626
རྒྱུའི་ཐད་	-10.8628
འི་འདམ་དུ་བྱིང་བ	-10.8628
ཚུལ་གྱིས་	-10.8629
སྲུང་སྐྱོབ་ཆེད་	-10.8629
ཧ་ཅང་གསལ་པོ་རེད	-10.8631
འཁོར་ལོ་བསྐོར་བ	-10.8634
▁སྦེལ་ཇམ་	-10.8635
གཞུང་མང་གཉིས་	-10.8638
འཚམ་པ	-10.8638
བསྟབས་	-10.864
ནས་གསེར་དང་བོང་	-10.864
མིང་འདོགས་པར་	-10.8645
བོད་རྒྱལ་ཁབ་ཆེན་	-10.8645
སྐུ་ཚབ་དོན་ཁང་གི	-10.8646
་ཅེས་	-10.8646
ཞེས་བཀའ་སློབ་སྩལ	-10.8647
▁མཁྱེན་	-10.8648
ཁེ	-10.8648
རོགས་པ་	-10.8649
▁ཀྱེ་མི་	-10.8649
བེད་སྤྱོད་གཏོང་	-10.8649
གནོད་སེམས་ཀྱི་	-10.8653
དེའི་དྲུང་དུ་	-10.8653
བྱ་དགའ་	-10.8653
གསོལ་འདེབས་ཞུ	-10.8654
གཞིའི་	-10.8654
རུམ་	-10.8656
ཀླུ	-10.8656
འི་བར་དང་་	-10.8656
བྷུ	-10.8659
སྙམ་མོ་	-10.8659
དགྲ་བཅོམ་	-10.8659
་ལ་མི་ཤེས་པ་དག་	-10.866
བྱེད་དགོས་ཞེས་	-10.8661
སྦྱར་ནས་	-10.8662
བསྐྱེད་དམ་བཅའ་	-10.8664
མི་ཞིག་	-10.8668
སེམས་ཀྱི་ཞི་བདེ་	-10.8669
རིང་བསྲེལ་	-10.8669
ཀྱི་ཚོགས་གཙོ	-10.8669
མེད་པར་གྱུར་ཏེ་	-10.867
ཐོབ་ཐང་དང་	-10.8672
གནད་དོན་ཐོག་	-10.8672
ཛ་དྲག་ངལ་སེལ་	-10.8676
ད་ནི་	-10.8678
བྱེད་སའི་	-10.8678
ཀྱིས་བསམས་པ་	-10.8679
ཀུན་ཆུབ་པ	-10.8682
ས་གསོལ་པ་	-10.8682
བཞི་པོ་འདི་དག་	-10.8682
འདྲི	-10.8682
གཏད་	-10.8682
▁མ་འོངས་པའི་	-10.8684
བཙན་བྱོལ་བ་རྣམས་	-10.8684
བདག་ཉིད་ཀྱང་	-10.8684
དེ་ལྟ་དེ་ལྟར་	-10.8685
▁འདོད་པའི་	-10.8687
བཙན་བྱོལ་བའི་	-10.8688
དེ་དེ་བཞིན་	-10.8689
རྒྱལ་སྤྱིའི་བོད་	-10.8689
ཞུམ་པ་མེད་པའི་	-10.869
ར་སངས་རྒྱས་པའི་	-10.8692
ཚིམ་	-10.8692
མཉམ་རུབ་	-10.8695
མཆོད་པ་བྱས་	-10.8701
ཅི་ཡང་མི་	-10.8701
འདི་གཉིས་ཀྱིས་	-10.8701
ནས་གསུང་པའི་	-10.8704
ཐུར་	-10.8707
པ་ནས་བཟུང་ད་བར་	-10.8712
བདག་གི་བུ་	-10.8712
ླ་སྤྲུལ་ཡང་སྲིད་	-10.8715
ཕྱིན་པ་ཡིན་ན་	-10.8715
སྐྱེ་ཞིང་	-10.8716
གྱི་ལམ་ནས་	-10.8717
ཉན་པ་	-10.872
པའི་འོག་ཏུ་	-10.8721
མང་དུ་ཐོས་པ་	-10.8721
སྐབས་ནས་	-10.8721
ཚེ་རིང་མཆོག་	-10.8722
དུས་གསུམ་མ	-10.8722
འདྲ་བའི་	-10.8723
སྒྲིབ་	-10.8724
བསོད་ནམས་མ་ཡིན་པ	-10.8724
▁སྤྱན་རས་གཟིགས་	-10.8725
ཁམས་དང་་	-10.8725
▁གོང་ས་མཆོག་གིས་	-10.8726
དང་བསྟུན་ནས་	-10.8728
པ་མེད་པར་	-10.8729
པ་རྣམས་ལགས་	-10.8729
བརྗོད་དོ་་	-10.8729
བརྡུངས་	-10.8737
ལ་དམིགས་ནས་	-10.8737
དེ་མཐོང་མ་ཐག་ཏུ་	-10.8738
ཇུ	-10.8746
འགྲོ་ཞིང་	-10.8747
བསྣམས་	-10.8748
ཡ་མཚན་	-10.8749
ཚོགས་འདུ་འཚོགས་	-10.8751
ལ་མཁས་	-10.8751
འདི་ལོར་	-10.8753
▁དྲི་བ	-10.8753
ཆེན་པོ་མཆོག་སྐུ་	-10.8755
དེ་ཉིན་	-10.8755
ཁྲིམས་སྒྲིག་	-10.8755
བསྐོར་བའི་	-10.8756
ཡིན་པས་ན་	-10.8756
གིས་གསུང་དོན	-10.8758
ཁམས་སུ་	-10.8758
བགོས་ནས་	-10.8761
ནི་གང་ལགས་	-10.8761
ི་སྤྱོད་པ་	-10.8765
ཁ་ན་མ་ཐོ་བ་མེད་པ	-10.8765
རྒྱལ་ཁབ་འདྲ་མིན་	-10.8767
རྐང་པ་ལ་	-10.8767
▁རླུང་	-10.8768
སེམས་ཅན་གྱི་དོན་	-10.8768
▁ཁོང་ཚོས་	-10.877
བརྩེགས་	-10.877
ཚང་མས་མཁྱེན་གསལ་	-10.8771
ཚོགས་མི་རྣམས་	-10.8775
པ་ཐམས་ཅད་	-10.8775
མི་བཟད་པ་	-10.8776
་དང་་ཀུན་ཆུབ་པར་	-10.878
་ཟ་	-10.878
▁བཟོད་པ་	-10.8781
རྒྱུའི་ཉེན་ཁ་	-10.8781
ཁོན་	-10.8782
མི་བདེ་བ་	-10.8784
ཞེས་སྨྲས་ནས་	-10.8787
མཆོད་སྡོང་	-10.8787
མགོན་པོ་མཆོག་	-10.8787
སླུ་བ	-10.8788
▁ཕྲུ་གུ་	-10.8788
གཞོན་སྐྱེས་ཚོར་	-10.8788
ཞྭ་	-10.8791
ཆོས་ལུགས་ཚང་མར་	-10.8791
དྲང་བ	-10.8791
ཚན་དུས་གསུམ་སྟེ་	-10.8791
འགྲིམ་འགྲུལ་	-10.8791
གཙིགས་ཆེར་འཛིན་	-10.8791
ར་སངས་མ་རྒྱས་	-10.8791
དྲང་སྲོང་ཀ་ནེ་ཡ	-10.8791
བཀའ་མཆིད་	-10.8791
གོ་ལའི་གནམ་གཤིས་	-10.8792
དོན་ཐམས་ཅད་གྲུབ་	-10.8792
བསྡུ་བའི་དངོས་པོ	-10.8793
བུ་ཕྲུག་	-10.8793
པར་སྤྱོད་པ་	-10.8793
བཙན་བཟུང་བྱས་	-10.8793
ཁྱེད་རང་ཚོར་	-10.8794
ཚད་ལྡན་ཞིག་	-10.8794
་དེ་དག་ནི་	-10.8795
མི་མང་རྣམས་ལ་	-10.8795
ཏོག་དབྱིབས་ནད་	-10.8795
ནུས་པ་མཉམ་སྤུངས་	-10.8796
དངོས་པོ་ཡར་རྒྱས་	-10.8797
དངོས་འབྲེལ་	-10.8798
པ་ཞེས་བྱ་བའི་	-10.8799
བ་ནས་བསྐལ་པ་བར	-10.88
ཇོ་བོ་	-10.88
གཤེགས་པ་	-10.8801
་ཞིག་ཡིན	-10.8802
མཐའ་མར་	-10.8803
དབུས་གཙང་	-10.8803
་འདི་དག་	-10.8803
པི	-10.8807
མགྲོན་ཁང་	-10.8807
དང་་དགའ་བ་དང་་	-10.8808
དུ་བཅུག་ནས་	-10.8808
ངོ་མཚར་རྨད་དུ་	-10.8811
བྱིན་ན་	-10.8812
དྲུང་ཆེའི་	-10.8813
ཀྱི་ཞིང་འདི་ནས་	-10.8815
མཇལ་ཁ་ཞུས་	-10.8817
མདངས་	-10.8818
དཀའ་སེལ་	-10.8819
འབྱུང་བ་ཆེན་པོ་	-10.8822
▁ཁ་དོག་	-10.8823
་རྒྱལ་བ་	-10.8824
གོང་ས་མཆོག་ལ་	-10.8826
ལུས་ཀྱང་	-10.8829
བཀོད་ནས་	-10.8834
སྤྱི་ནོར་ས་	-10.8834
མཐོང་གི་འདུག	-10.8835
མང་བ	-10.8836
སྨྲ་བའི་	-10.8837
▁རྡོ་རྗེ་	-10.8838
▁འདི་ན་	-10.8838
བདུད་ཀྱིས་	-10.8838
གནང་བྱུང་	-10.8839
འབུལ་བཞེས་མཛད་	-10.884
བཏོན་པ་	-10.8842
རྒྱ་མི་རིགས་	-10.8845
བརྩི་བཀུར་	-10.8845
ཆེན་པོ་དེ་	-10.8849
ཉིན་མཚན་	-10.8849
སྨྲས་པ་བུ་མོ་	-10.8851
གཞུང་ལུགས་	-10.8852
སྤྱི་ཚོགས་ལ་	-10.8852
པས	-10.8853
རྣམ་གྲངས་འདི་ལ་	-10.8854
དབུ་ཁྲིད་པའི་	-10.8858
རྗེས་སུ་ཡི་རང་བ	-10.8859
འདོང་བ	-10.8859
དད་པའི་	-10.8859
རུ	-10.8861
་དག་གིས་	-10.8861
ཟག་	-10.8863
འབུལ་རྒྱུ་	-10.8865
▁དེ་མཚུངས་	-10.8866
དད་ལྡན་མང་ཚོགས་	-10.8866
སྲུང་སྐྱོབ་བྱེད་	-10.8868
ཐོན	-10.8869
སྒྲ་སྙན་	-10.8869
ཐུབ་མིན་	-10.887
ལ་མངོན་པར་ཞེན་པ	-10.887
▁ཀོ་རི་ཡ	-10.887
མཛད་འཆར་	-10.887
དབེན་པའི་	-10.8872
ཤེས་པ་དེ་ཡང་དག་པ	-10.8876
ཐུབ་ཀྱི་རེད	-10.8876
མཐོང་ངོ་་	-10.8877
་དེ་ཉིད་	-10.8879
བ་དེ་དག་	-10.888
བཞུགས་ནས་	-10.8881
ལས་རྣམས་	-10.8885
གནང་གི་ཡོད་པ་	-10.8886
ཁེལ་	-10.8887
སྲུང་བརྩིའི་	-10.8888
དང་བོད་མིའི་	-10.8888
མེག་	-10.8889
འི་བུ་	-10.8894
་ཐེག་པ་རབ་མཆོག་	-10.8894
སེམས་ཤིང་	-10.8898
ལུང་འདྲེན་	-10.8898
འདི་ལྟར་བདག་གིས་	-10.89
ཁག་གཅིག་གི་	-10.89
ངག་གི་	-10.89
་བྱེ་བ་ཁྲག་ཁྲིག་	-10.8904
ེས་	-10.8905
དང་་སྟོབས་དང་་	-10.8906
སུའང་	-10.8906
ལས་དོན་ཁག་	-10.8907
བྲ	-10.8909
གནོད་པ་ཆུང་ངམ་	-10.8909
གསུངས་འདུག	-10.891
འདི་ཉིད་ཡིན་ཏེ་	-10.891
▁སུད་སི་	-10.891
རི་དགས་ཀྱི་	-10.8911
དགེ་བཙུན་	-10.8911
ར་ངོས་འཛིན་	-10.8914
སྲིད་བྱུས་ཀྱི་	-10.8914
མཉམ་འཛོམས་	-10.8914
དུ་མར་	-10.8914
རྣམ་པར་སྤངས་པ	-10.8915
བྱེད་པར་འགྱུར་་	-10.8916
བྱས་ནས	-10.8917
གྲོས་ཚོགས་ནས་	-10.8917
ག་ཏ་མ་	-10.892
མིན་པའི་ཚོགས་པ་	-10.8921
གང་ཡང་མེད་པར་	-10.8921
▁རང་སངས་རྒྱས་	-10.8922
ཇེ་ཆེར་འགྲོ་	-10.8922
དབང་སྒྱུར་བྱས་	-10.8923
▁ཚེས་	-10.8923
བསྲུང་བ་དང་་	-10.8923
བི་	-10.8923
ར་གྱུར་ཅིག་	-10.8925
སོགས་སུ་	-10.8928
བཞག་ཡོད	-10.8934
དཀར་པོའི་	-10.8935
དབང་པོ་རྣམས་	-10.894
ཐོགས་པ་མེད་པ་	-10.894
ཆེད་འབད་བརྩོན་	-10.8942
་དག་ཡིན་ནོ་་	-10.8942
དམིགས་པར་	-10.8943
ས་ཡང་	-10.8943
མགོ	-10.8946
དང་ལྡན་པར་འགྱུར་	-10.8947
སྲིད་བྱུས་དང་	-10.8947
ཐ་མར་	-10.8947
ཕན་པའི་	-10.8948
སྲེག་	-10.8948
དམ་བཅའ་	-10.895
སྭ	-10.895
འཕར་མ་	-10.895
བྱས་པ་ཡིན་ན	-10.8952
བྱུང་བར་བརྟེན་	-10.8954
ཕུང་པོ་ཆེན་པོ་	-10.8957
མད	-10.8957
གནང་ཡོད་པ་རེད	-10.8958
པའི་སྲིད་བྱུས་	-10.8958
པ་ཉིད་ཀྱི་བར་	-10.8959
ལས་ཐོག་	-10.8959
སྲིད་བློན་མཆོག་	-10.8959
ལྟ་བུའོ་་	-10.896
▁ཕན་ཚུན་	-10.8961
འཇིགས་པ་དང་་	-10.8963
དོན་གྲུབ་ལགས	-10.8965
ཅིག་ཤོས་	-10.8965
མར་མེ་མཛད་	-10.8968
ཅི་ཡང་མེད་	-10.8969
ནམ་མཁའི་སྙིང་པོ་	-10.897
མི་མང་ཚོས་	-10.8976
བར་གྱུར་ཏེ་	-10.8979
རྩོམ་པ་དང་་	-10.8979
མེད་པ་ནི་	-10.898
གྲོང་དུ་	-10.898
་ནི་ཆོས་	-10.8981
སྦུ	-10.8983
ལོ་བཅུ་གཉིས་	-10.8984
མཆོད་པའི་	-10.8984
▁རྣམ་པར་ཤེས་པའི་	-10.8987
པ་ཉིད་ཀྱི་བར་དུ་	-10.899
དམག་ཆེན་གཉིས་པ	-10.899
ཡོད་སྐབས་	-10.8991
བསླབས་པ་	-10.8991
གནང་བཞིན་པའི་	-10.8992
་རི་ཡ	-10.8993
སྐྱེ་བ་མེད་པ་དང་	-10.8994
སྐྱབས་སུ་	-10.8996
རིམས་ཁྱབ་གདལ་	-10.8997
ཡག་ཤོས་	-10.8999
པའི་གནས་ཚུལ་	-10.9
ུན་	-10.9
ཤི་འཕོས་ཏེ་	-10.9
བཀུར་འོས་	-10.9
ཀྱི་བར་	-10.9001
རྗེ་བཀའ་དྲིན་	-10.9001
མ་གྱུར་ཅིག་ཅེས་	-10.9003
དགའ་ཚོར་	-10.9003
ཡང་རུང་་	-10.9006
མྱངས་	-10.901
བཏོན་ནས་	-10.901
གསལ་འདོན་	-10.9011
རབ་རིབ་	-10.9012
བརྒྱ་རྩ་བརྒྱད་	-10.9014
ལྟ་བུ་ཆགས་ཡོད	-10.9015
གོ་སྒྲིག་འོག	-10.9015
སེམས་ཅན་ཐམས་ཅད་ལ	-10.9016
ལྷ་སའི་	-10.9017
ཚོར་སྣང་	-10.9017
བོད་གངས་ཅན་གྱི་	-10.9018
དགེ་འདུན་ཆེན་པོ་	-10.9021
ཡོད་པ་སོགས་	-10.9021
མི་ནུས་སོ་	-10.9022
▁ཕྱི་ལོ་དཔལ་ལྡན་	-10.9024
གནས་ནང་འཁོད་དོན	-10.9026
ལྷོ་ཕྱོགས་སུ་	-10.9026
ཀློ	-10.9026
▁ཁ	-10.9027
དགོས་རྒྱུ	-10.9028
སྟོན་ལ་	-10.9028
▁སྨན་	-10.903
བོད་ནང་ཕར་	-10.903
ཡིན་འདུགདེ་ཡང་	-10.9031
དེ་དག་དང་	-10.9032
ཁྲོམ་	-10.9033
མཚན་རྟགས་བཀོད་	-10.9035
ཕེབས་པ་དང་	-10.9035
རབ་ཞི་	-10.9035
བདག་མེད་པ་	-10.9036
སེམས་ཅན་རྣམས་ནི་	-10.9036
འདི་ནས་ཤི་འཕོས་	-10.9039
ཞིག་ཡིན་པའི་ཆ་ནས	-10.9039
སྙེད་	-10.9039
འད	-10.9041
དབེན་	-10.9042
▁ར	-10.9042
ར་བྱས་ཏེ་	-10.9043
མ་སྐྱེས་	-10.9043
ལོ་རྒྱུས་དང་	-10.9044
སྦིར་	-10.9044
ནས་ཡིན་པ་	-10.9046
ཉོན་	-10.9047
འི་མཚན་ཉིད་	-10.9048
འབྲེལ་དྲུང་ཆེ	-10.9048
ཁྱིམ་བདག་དེའི་	-10.9048
འགྲོ་གི་རེད	-10.9048
སྤྲིན་གྱི་	-10.9049
▁མེ་	-10.905
ཚོགས་ཡོད	-10.9051
བགྱིས་ནས་	-10.9051
ཡོད་པའི་བོད་མི་	-10.9051
མང་ཚོགས་ཁྲོད་	-10.9052
ཐལ་བ	-10.9053
བོད་མི་ནང་ཁུལ་	-10.9056
འི་ར	-10.9057
འདུགདེ་བཞིན་	-10.9058
སྤྱད་དེ་	-10.9059
འི་སྒོ་	-10.906
ཁྲེ	-10.9062
བཅུ་གཅིག་	-10.9063
འཚོ་རྟེན་	-10.9063
སྒྱུ་	-10.9064
རྡོ་རྗེ་ལགས་	-10.9065
འགྲོ་བ་དང་་	-10.9065
བསྒྲུབས་ནས་	-10.9065
ཟེར་བ་ཞིག་	-10.9066
པར་བྱ་གོར་མ་ཆག་	-10.9067
ཕྱིར་ལྡོག་པ	-10.9067
ཀ་ན་ཊ་ཀ་མངའ་སྡེ	-10.9069
ཕྱི་གསལ་ནང་གསལ་	-10.9069
རྒྱ་ནག་སྐམ་ས་	-10.9069
ཡིད་ལ་ཟུང་ཤིག་དང	-10.907
ཚོགས་མགོན་དུ་	-10.907
ཐོབ་ཐང་རྩོད་ལེན་	-10.9071
ཞུ་གལ	-10.9071
དོང་སྟེ་ལྷགས་ནས་	-10.9071
མ་སྐྱེས་པ་	-10.9071
རྗེས་སུ་ཆགས་པ	-10.9072
བྱམས་སྙིང་རྗེ་	-10.9072
བསྐོར་བར་	-10.9073
ཕྱག་རོགས་	-10.9075
དཀྲུགས་	-10.9075
སོང་བའི་	-10.9076
▁དེ་བཞིན་ཕྱི་ལོ་	-10.9076
བསོད་ནམས་བསྟན་	-10.9077
རྣམ་པར་དག་པའོ་་	-10.9078
ཆུ་ཡི་	-10.9078
བྱས་པ་དེས་	-10.9079
བསལ་བ	-10.9079
སེམས་ཁྲལ་	-10.9079
བསམས་བཞིན་དུ་	-10.9079
མཚོན་གྱིས་	-10.9079
▁ཕྱི་ལོ་ཨ་རིའི་	-10.9081
བཙན་དབང་གིས་	-10.9082
སྤྱོད་དང་	-10.9083
གང་ལ་ལ་ཞིག་	-10.9083
སྤྱི་ཡོངས་	-10.9083
གང་ལས་	-10.9084
མཐའ་མྱུར་དུ་གསལ་	-10.9085
འདྲ་མཉམ་	-10.9085
དང་་ཚུལ་ཁྲིམས་	-10.9085
བྷི་	-10.9087
རྒྱལ་བུ་རྒྱལ་བ	-10.9087
མྱ་ངན་ལས་འདས་	-10.9088
ཞང་	-10.9093
▁ལྡི་ལི་	-10.9094
རྣམ་པར་གཟིགས་	-10.9095
མཐུན་འགྱུར་རོགས་	-10.9095
ལས་ཀྱིས་	-10.9096
ཐུབ་པ་དེ་	-10.9097
འི་ཆོས་ཀྱི་	-10.9097
ཐུན་མོང་མིན་པའི་	-10.9098
གཉི་ག་	-10.9099
དགའ་བ	-10.9101
ཨ་སྒོར་	-10.9101
གསར་བཟོ་	-10.9102
▁ཟབ་སྦྱོང་	-10.9105
ནི་རབ་	-10.9105
ཆོ་ག	-10.9106
སློབ་མ་རྣམས་	-10.9107
་ཆོས་བཞི་པོ་	-10.9107
དགྲ་བཅོམ་པ	-10.9108
མོད་	-10.9108
ཆོས་གང་	-10.9108
ཀླུ་སྒྲུབ་ཀྱི་	-10.9109
འབྱོར་སྐབས་	-10.9111
པ་ལྟར	-10.9111
དུ་འགྲོ་བའི་ལམ་	-10.9112
མངའ་སྡེའི་གཞུང་	-10.9113
་པར་བརྟེན	-10.9114
གང་དུའང་	-10.9115
བསྡུས་པའི་	-10.9115
ངྒ་	-10.9115
འཐོར་	-10.9115
ཐུབ་པ་བྱུང་	-10.9117
དབང་བསྐུར་	-10.9117
▁ཁང་པ་བརྩེགས་པ་	-10.9117
འཚེ་བ་མེད་པའི་	-10.9118
མ་སྐུ་མཆོག་	-10.9119
ཡོང་རྒྱུ་རེད	-10.912
དོན་ལྟར	-10.9121
ར་འགྱུར་གྱི་	-10.9121
དམ་པའི་ཆོས་ཀྱི་	-10.9125
▁སྐྱེ་བོ་	-10.9125
ལྟ་གྲུབ་དང་	-10.9125
▁འདི་འདྲའི་	-10.9126
ཚོགས་ཁང་གསར་པའི་	-10.9128
དོན་ཁང་གི་	-10.9129
་ཨ	-10.9129
བརྟགས་པ་	-10.9129
དགོས་ཀྱི་ཡོད་པ	-10.913
ཚེའི་	-10.9131
▁ཕྱོགས་གཅིག་ནས་	-10.9131
▁རྒྱ་ནག་གིས་	-10.9131
ཡིན་ནོ་སྙམ་ནས་	-10.9132
བློ་ལྡན་	-10.9133
བྲོས་	-10.9134
ཡོངས་རྫོགས་ལ་	-10.9135
▁ཤེས་རིག་	-10.9135
དྲུང་ཆེ་དང་	-10.9135
སྤྱི་མོས་	-10.9137
རྣམས་ལའང་	-10.9137
བསོད་ནམས་ཆེན་པོ་	-10.9138
སོ་སོའི་སྐྱེ་བོ	-10.9139
▁གང་དུ་	-10.9139
རྣམ་པར་ཐར་པ་དང་་	-10.9139
དམངས་	-10.914
བཀོད་པའི་	-10.914
ཁ་ཤས་ཀྱིས་	-10.914
སྡུག་བསྔལ་བ་དང་་	-10.9142
གྲག་	-10.9144
ལམ་ལུགས་ལ་	-10.9146
ཡང་གཞན་	-10.9147
འགྱུར་མེད་	-10.9147
ལྟ་བར་	-10.9148
▁ལྷའི་བུ་མོ་	-10.9149
ཝང་	-10.9149
བརྒྱ་བྱིན་དང་་	-10.9149
ར་མཛད་	-10.915
ཆེ་ཞིང་མཐུ་ཆེ་བ	-10.9151
བཞིན་ཡོད་པས	-10.9152
▁རྒྱ་	-10.9152
པི་བང་	-10.9153
འབབ་པ	-10.9153
བཅས་ཁྱོན་	-10.9155
པོ་མཆོག་གི་ཐུགས་	-10.9155
གསར་འགོད་པ་བཅས་	-10.9156
བརྟན་པའི་	-10.9156
ངེད་	-10.9157
མ་ཐུབ་པའི་	-10.9159
སྟོང་གསུམ་	-10.9159
འཐོབ་པ་དང་་	-10.9162
བཞུགས་གནས་	-10.9164
འཕེལ་རིམ་	-10.9164
མཉམ་ཞུགས་ཀྱིས་	-10.9166
དུ་འགྱུར་	-10.9168
་ཐ	-10.9169
སྔོན་དུ་འགྲོ་བ་	-10.9169
▁འདི་དག་	-10.9171
▁དེའི་ཚེ་ན་	-10.9173
བྱང་བ	-10.9174
བཙ	-10.9174
▁ཅི་ནས་	-10.9174
ནད་མནར་	-10.9175
ལངས་ནས་	-10.9175
ལྷོ་སྤྱི་	-10.9175
རྒྱ་གར་ནས་	-10.9177
གཅིག་ཙམ་	-10.9177
བཅར་ནས་	-10.9178
ཀུན་འབྱུང་	-10.918
བཀའ་ལུང་	-10.9181
ཕྲ་བ	-10.9182
འོས་འདེམས་བྱུང་བ	-10.9183
དྷ	-10.9183
གཡོ	-10.9184
ཐབས་མཁས་	-10.9184
མི་འཇུག་	-10.9184
ལྷ་མི་	-10.9186
གསུམ	-10.9189
ར་སངས་རྒྱས་པ་	-10.9189
ངོ་བོར་	-10.9192
རྣམ་པར་དག་པ་དང་་	-10.9192
སྡེ་ཚན་ཁག་	-10.9193
ཁྱེད་གཉིས་	-10.9193
ལ་རྒྱབ་སྐྱོར་དང་	-10.9193
ཆོས་ཀྱི་སྒོ་	-10.9193
བཏང་་་	-10.9195
འཆིང་བ་	-10.9195
འཚེ་བ་མེད་པ་དང་	-10.9196
སྙན་སེང་ཞུས་	-10.9197
གླིང་ཆེན་	-10.9197
རབ་ཏུ་ཞི་བ	-10.9199
ལྡུམ་ར་	-10.92
སེམས་ཏེ་	-10.92
ཟིན་པ་དང་	-10.9206
པར་བགྱི་་	-10.9207
འགྲོ་ཚུར་འོང་གི་	-10.9208
བསམས་ཏེ་	-10.9209
▁སོག་པོ	-10.921
འགྲོས་	-10.921
གནས་སྟངས་ཆགས་ཡོད	-10.9218
▁རྣལ་འབྱོར་	-10.9219
པར་བྱེད་པའོ་་	-10.9219
ཏིལ་	-10.9222
འཚེ་བ་མེད་པ་	-10.9222
དྲུང་ཆེ་ཀརྨ་	-10.9223
ཕྱི་དངོས་པོ་	-10.9223
ལྡན་པའི་ཐོག་ནས་	-10.9223
ཅེས་པའི་	-10.9224
ལྷན་ཅིག་གནས་པ	-10.9224
བོད་དོན་ལ་	-10.9227
འཆམ་	-10.9227
འགྲིག་གི་	-10.923
ཉི་ཤུ་རྩ་གཅིག་	-10.9231
སློབ་སྦྱོང་གནང་	-10.9232
རྣམས་ལ་སྨྲས་པ་	-10.9232
ནང་སྲིད་དྲུང་ཆེ	-10.9232
གནས་རིམ་	-10.9233
་ཛ	-10.9233
པ་རྣམས་ཀྱིས་	-10.9234
སོང་བ་དང་	-10.9234
ཏྲ	-10.9234
ཡར་རྒྱས་དང་	-10.9237
འདི་ཁོ་ན་	-10.9238
ྐུའི་འཁྲུངས་སྐར་	-10.9239
▁དུས་ཚོད་	-10.924
བརྒྱད་སྟོང་	-10.9242
སློང་བ་	-10.9242
འཕྲུལ་དབང་བྱེད་	-10.9243
སྟོན་་	-10.9243
་ཞིག་ཆགས་ཡོད	-10.9243
འབ	-10.9253
རྒྱལ་གཅེས་	-10.9253
ཁོག་	-10.9253
དམ་པ་མཆོག་	-10.9254
བརྗོད་ན་	-10.9254
ནང་གནས་སྡོད་	-10.9256
་མེད་	-10.9256
▁དེའི་སྐབས་	-10.9257
རྗེས་སུ་འཐུན་པ	-10.9258
སྟེང་གི་བར་སྣང་ལ	-10.9259
▁རྒྱ་མཚོ་	-10.926
གནས་སྡོད་བོད་མི་	-10.9262
ཧོང་ཀོང་གི་	-10.9262
ཕྱོགས་བསྐྱོད་	-10.9262
ཁྲིམས་འཆར་གསར་པ་	-10.9263
བརྒལ་	-10.9263
▁ཨ	-10.9264
ལོ་བརྒྱད་	-10.9265
གོ་སྐབས་འདྲ་མཉམ་	-10.9265
འགག་པ་	-10.927
གང་གིས་ཀྱང་	-10.927
ནི་ཧ་ཅང་	-10.927
མེའི་ཕུང་པོ་	-10.9272
དགོས་བྱུང་	-10.9274
▁ཕྱིན་ནས་	-10.9275
འཛིན་དུ་བཅུག་	-10.9276
སྔར་བས་	-10.9284
བསྡུས་ནས་	-10.9284
ྱུག་པ་དང་་ཕྱེ་མ་	-10.9285
་གྷ	-10.9285
འདི་ལ་ནི་	-10.9286
གཤིས་	-10.9286
སིམ་	-10.9288
བསམ་པའི་	-10.9289
ཤེས་པར་གྱིས་་	-10.9289
▁སུད་སི	-10.929
ཁ་ལོ་སྒྱུར་བ་	-10.929
མི་མང་པོ་ཞིག་	-10.9294
▁ལག་པ་	-10.9295
ཕྱི་དྲོ་ཆུ་ཚོད	-10.9295
གདུང་བ་	-10.9299
རྣམས་ཀྱི་ནི་	-10.9299
གནང་བཞིན་པ་	-10.93
ཚོགས་དྲུང་	-10.9301
ཆེན་པོ་དང་	-10.9305
བཅུག་པ་	-10.9307
མི་འམ་ཅི་	-10.9313
འདྲེས་	-10.9314
དོན་འདི་	-10.9314
ངག་གིས་	-10.9315
མུས་རེད	-10.9315
དག་གོ་་	-10.9316
ན་རྒྱལ་པོ་	-10.9316
མཚན་མ	-10.9317
ཁྱེའུ་དེ་གཉིས་	-10.9318
གཟའ་ཟླ་བའི་ཉིན་	-10.9318
སྡིགས་	-10.9323
▁དུས་མ་ཡིན་པར་	-10.9324
མཐུ་ཆེ་བ་	-10.9324
བཅའ་བ	-10.9326
སྐྱོར་ཚོགས་པ	-10.9327
དགོས་འདུན་	-10.9329
སྲིད་འཛིན་མཆོག་	-10.9331
དང་་ཆོས་དང་་	-10.9333
རྒྱ་གར་དབུས་	-10.9335
མེད་དུ་	-10.9335
ངེས	-10.9336
མཆིས་སོ་་	-10.9336
དང་གཏོང་བཞིན་པ	-10.9336
རྒྱལ་པོ་དེས་	-10.9338
འི་ཁྲོད་	-10.9338
ལྡན་གྱི་	-10.934
སེན་མོ་	-10.9341
དེ་ཧ་ཅང་	-10.9342
བཀྲོལ་	-10.9342
གང་ཡང་རུང་བ་	-10.9343
འཁོར་བ་འཇིག་	-10.9343
དུས་ཚིགས་	-10.9343
གློ་བུར་	-10.9343
ནི་བདག་གི་	-10.9343
མཛའ་བཤེས་	-10.9345
དམ་བཅས་པ་	-10.9345
བཤད་ལུང་	-10.9345
ཐུགས་རྗེ་ཆེན་པོ	-10.9346
ལྷོད་	-10.9347
མཐའ་གསལ་ཐབས་	-10.9349
འི་དོན་	-10.9349
ཡང་སྲིད་ཐག་གཅོད་	-10.9349
རྡུལ་མེད་	-10.9349
གཞ	-10.9352
མ་ཡིན་ལ་	-10.9353
གནང་སྐྱོང་ཡོང་བ	-10.9353
ཨིན་ཡུལ་གྱི་	-10.9354
གསེར་དང་་དངུལ་	-10.9355
རྙེད་མི་དཀའ་་	-10.9355
ཡི་གེར་བྲིས་	-10.9355
ར་གནས་པའི་བར་དེ་	-10.9355
བླ་བྲང་འཕགས་པ་	-10.9357
འགྱུར་ཏེ་	-10.9357
གཟུངས་ཀྱི་སྒོ་	-10.9357
མི་བྱེད་དོ་་	-10.9358
འཐེན་	-10.9358
ནད་ཡམས་ཁྱབ་གདལ་	-10.9359
སྒྲོགས་པ་	-10.936
ཆེན་པོ་མཆོག་བོད་	-10.9361
དྲི་ཟའི་རྒྱལ་པོ་	-10.9361
བྱས་པ་དང་་	-10.9361
ཐུགས་བརྩོན་	-10.9361
འཛིན་པར་བྱེད་	-10.9361
▁དེང་དུས་	-10.9362
དང་་ཡུལ་འཁོར་དང་	-10.9363
ལོའི་	-10.9363
ཤས་ཆེར་	-10.9363
བྱོན་པ་	-10.9363
ཀྱིས་མཐོང་ན་དགའ་	-10.9363
དང་་མྱ་ངན་དང་་	-10.9364
བལ་ཡུལ་ནང་	-10.9366
འདུག་སྤྱོད་གསུམ་	-10.9366
བྱེད་མཁན་གྱི་	-10.9366
བོད་ཀྱི་བླ་ན་མ	-10.9367
ལྷགས་པ་	-10.9368
▁སྒྲ་	-10.9368
ཚབ་ཏུ་	-10.937
དོན་དེ་	-10.937
བཀའ་བསྡུར་	-10.9372
གཞིས་སྒར་	-10.9373
རྩེ	-10.9373
▁རྒྱལ་ཚོགས་ཀྱི་	-10.9375
ཚུལ	-10.9377
▁རྒྱལ་པོས་	-10.9378
ལྟ་བར་གནས་པ་ནས་	-10.9378
ལས་མི་	-10.9382
བསྲུང་	-10.9382
མདོར་ན་	-10.9383
ཚོགས་པར་	-10.9384
▁འདུན་པ་	-10.9386
འདི་བཤད་པ་ན་	-10.9386
མི་དང་མི་མ་ཡིན་པ	-10.9388
སྐུ་ཉིད་མཆོག་	-10.9391
བློས་	-10.9392
བསྟན་པ་འཛིན་	-10.9392
སྒྲོ	-10.9394
▁ཁྱོད་ལ་	-10.9397
དུང་ཕྱུར་བདུན་ཅུ	-10.9398
▁ཡིད་	-10.94
གང་ཡང་མེད་དོ་་	-10.9401
ལྗོངས་ཀྱི་	-10.9402
གོ་ཆ་ཆེན་པོ་	-10.9402
འཕེལ་བར་འགྱུར་	-10.9402
ལས་བྱས་པ་	-10.9403
ཟེར	-10.9403
དང་བཅས	-10.9404
ནང་བསྟན་	-10.9404
བསྟན་པ	-10.9405
འདི་འདྲའི་	-10.9405
ཕོ་ཉ	-10.9405
▁འོ་ན་	-10.9407
བོད་དེ་	-10.9408
དགོས་པ་ལས་	-10.9408
ཀྱང་ཡིན་	-10.9409
ཆུར་	-10.9412
བསྐྱེད་དོ་	-10.9413
ཟད་པ	-10.9414
རྒྱལ་དར་	-10.9414
བརྩེ་	-10.9414
ཐེག་པ་ཆེན་པོ	-10.9414
ལྟུང་བ	-10.9415
རྒྱལ་བ	-10.9417
བསུའི་སྣེ་ལེན་	-10.9418
དངོས་པོའི་	-10.9419
རེག་བྱ་	-10.9419
དེ་རིགས་	-10.942
དེང་སང་	-10.9421
དགོས་དོན་	-10.9421
སྣང་སྟེ་	-10.9423
རྒྱལ་པོ་སྡོང་པོ་	-10.9427
▁དེའི་ཐོག་ནས་	-10.9427
བཙུན་	-10.943
བར་སྣང་ལས་	-10.943
རྒྱ་གར་དང་	-10.9431
དཀའོ་་	-10.9435
▁ཡབ་	-10.9437
བོད་མི་གྲངས་	-10.9437
མ་ཡིན་ཏེ་་	-10.9439
སྐྱོབ་པ	-10.944
དག་མཐོང་ན་	-10.944
ཚངས་པར་སྤྱད་པ་	-10.9441
ཟླ་འོད་གཞོན་ནུ	-10.9441
བརྗོད་དེ་	-10.9441
ཤིག་རེད	-10.9441
སྲན་	-10.9445
ཆེད་ཕེབས་	-10.9445
བཀའ་བསྡུར་གནང་	-10.9446
འཕྲོད་བསྟེན་གྱི་	-10.9446
ཞུ་དགོས་པའི་	-10.9447
སུ་གྱུར་	-10.9448
བཀའ་ཤག་སྐབས་	-10.9451
ཁས་བླངས་	-10.9459
ཟག་པ་	-10.9459
དཔས་བྱིན་	-10.9461
ལ་ཕན་པའི་ཕྱིར་	-10.9461
འདྲེན་པས་	-10.9462
་མཁས་པ་	-10.9465
ཏང་	-10.9466
སྐོམ་པ་	-10.9466
ཀྱེ་	-10.9466
▁ལྷག་པར་ཕྱི་ལོ་	-10.9467
་པར་བརྟེན་	-10.9468
ཡལ་ག་	-10.947
དྲིལ་	-10.9471
རློམ་སེམས་སུ་	-10.9472
ཚིག་འབྲུ་	-10.9473
ུས་ན་རྒྱལ་པོ་	-10.9475
ཤན་	-10.9477
▁ཕ་མ་	-10.9479
▁ཆོས་ལ་	-10.948
འགྲོ་ལུགས་	-10.9482
སྒོ་བརྒྱབ་	-10.9482
མི་འབྱེད་དོ་་	-10.9484
ཆིངས་ཡིག་	-10.9484
ང་རང་ཚོ་	-10.9484
བར་འགྱུར་ཏེ་	-10.9485
ཤིག་ཡིན	-10.9485
སྙིང་སྟོབས་དང་	-10.9485
འདུད་	-10.9486
ངན་འགྲོ་	-10.9486
བ་དན་	-10.9488
བཤད	-10.9489
འཕྲོ	-10.949
ཞེས་བགྱི་བ	-10.9491
ཤུགས་ཆེ་གནང་ཡོད	-10.9492
བཙས་པ་	-10.9492
རྒྱལ་རབས་	-10.9493
ཇི་སྙེད་པ་་	-10.9493
▁སྤྱིར་བཏང་	-10.9494
ཆགས་པར་	-10.9494
གསུམ་ལ་	-10.9499
མང	-10.9499
བསྒོམས་པ་	-10.9499
དང་བྲལ་བ	-10.9502
དགེ་ལས་	-10.9502
ར་སི་	-10.9505
དང་སྟབས་བསྟུན་	-10.9507
ཉམ་ཆུང་	-10.9507
སྲུང་སྐྱོབ་ཀྱི་	-10.9511
དང་བཅས་པས་	-10.9511
འབོད་སྐུལ་ཡང་	-10.9512
ཚང་མའི་ནང་	-10.9512
གདགས་	-10.9515
ཨོ་སི་ཀྲི་ལི་ཡ་	-10.9518
་དགེ་སློང་གི་	-10.9519
མགྱོགས་	-10.9519
ནས་ཕྱུང་སྟེ་	-10.9519
ཤིག་ཆགས་ཡོད	-10.9522
ཕྱི་ལོ་བཟུང་	-10.9522
རབ་ཏུ་ཤེས་ཏེ་	-10.9523
ལྔ་གང་ཞེ་ན་	-10.9523
མཐུན་འགྱུར་འོག་	-10.9525
གཅིག་པུའི་	-10.9525
བདེ་ཐང་	-10.9526
བོད་གངས་ཅན་	-10.9527
ན་ཡང་་་	-10.9528
བཟོས་པ་	-10.9528
▁ཚེ་དང་ལྡན་པ་དག་	-10.9529
▁ཕྱི་ལོ་བཟུང་	-10.953
གལ་གནད་སྐོར་	-10.9531
དང་་བཟོད་པ་དང་་	-10.9532
▁བསམ་པ་	-10.9532
ཡང་ན་	-10.9533
དགྲ	-10.9534
དག་ལ་ཡང་	-10.9535
བྱིན་པས་	-10.9535
སྨན་ཞབས་པ	-10.9536
ཤི་བའི་	-10.9536
འདུག་གམ	-10.9537
སྨོན་འདུན་	-10.9539
ཕེ	-10.954
་དེ་ལྟ་ལགས་སོ་	-10.954
ལས་གཞན་	-10.9541
བསམ་ཤེས་	-10.9541
གཅིག་ནི	-10.9541
པར་བྱེད་པའི་	-10.9543
ེའི་	-10.9544
འགྱུར་བ	-10.9546
རྣམ་པར་གཞག་པ་	-10.9547
རྩོམ་པ་པོ་	-10.9549
▁དུད་འགྲོ་	-10.9549
དང་་སེམས་ཅན་	-10.9549
བྱུང་ངོ་་	-10.9551
དབང་ཕྱུག་གིས་	-10.9551
དཀའ་རྙོག་སེལ་ཐབས	-10.9552
པར་གྱུར་པ་དང་་	-10.9553
གཞན་ནི་བརྫུན་ནོ་	-10.9553
ཀྱང་རུང་་	-10.9553
སྤོང་བ་དང་་	-10.9557
དེ་དང་དེ་དག་	-10.9557
རྣ་བ	-10.9557
རྒྱ་ཆེ་སྤེལ་	-10.9557
དོ་བདག་	-10.9557
ཞུ་སྐབས་	-10.9559
དབུས་བོད་མིའི་	-10.9559
བར་མི་འགྱུར་	-10.9559
ཟུང་དྲུང་	-10.9562
ཚེས་གཟའ་ཟླ་བ	-10.9563
པ་ལྟ་བུ་	-10.9564
▁དང་པོ་	-10.9564
གདོད་	-10.9564
བླངས་སོ་་	-10.9566
རྒྱལ་བུ་	-10.9566
དྲན་སྐུལ་	-10.9567
བོད་མཐོ་སྒང་	-10.9569
འདུ་འཛོམས་ཐོག་	-10.9569
▁བརྟན་པའི་བློ་	-10.957
བུ་དང་	-10.957
་ག	-10.9571
པར་བགྱིད་	-10.9571
ར་གྱིས་་	-10.9571
འདུག་པ་དང་་	-10.9572
གཞུང་འབྲེལ་མི་སྣ	-10.9572
དང་ལྡན་པ་ཡིན་ཏེ་	-10.9573
ཉམས་པ་སླར་གསོ་	-10.9573
གཅིག་པ་རེད	-10.9574
▁ཆོས་གང་	-10.9575
མ་དགོན་	-10.9576
▁མཐའ་དོན	-10.9577
▁རྒྱུན་དུ་ཞུགས་པ	-10.9577
བཤད་རྒྱུ་	-10.9579
ཀུན་རྫོབ་	-10.958
སེམས་ཁུར་	-10.958
སྤྲས་པ་	-10.9584
སྟངས་དང་	-10.9586
▁ཚ	-10.9586
ཐོས་པའི་	-10.9589
ཁྱོད་ཀྱང་	-10.9589
ར་གྱུར་ཏོ་	-10.959
འདུག་པའི་	-10.9592
བཙུགས་ཏེ་	-10.9592
ཆོས་འཕེལ་	-10.9593
ིས་	-10.9593
མུན་པ་མུན་ནག་	-10.9594
ཡིན་པར་ངོས་འཛིན་	-10.9594
ཕྱུང་བ་	-10.9595
བྱས་པ་བརྒྱུད་	-10.9596
གཡས་གཡོན་	-10.9597
སྩལ་རྗེས་	-10.9597
རྐང་གཉིས་	-10.9598
སྙམ་དུ་སེམས་	-10.9599
པར་ཐུགས་རྗེ་ཆེ་	-10.9602
ཕྱག་ལས་གནང་མཁན་	-10.9603
པ་དང་བཀུར་སྟི་ལ་	-10.9605
་ལྗོངས་ཟེར་བའི་	-10.9605
རྙེད་ན་	-10.9607
ཉེ་དུ་	-10.9607
ན་ཀ	-10.9608
བདུད་རྩི	-10.9608
བྱས་ལ་	-10.9608
ཧུ	-10.9609
བཤད་་	-10.9611
བྱས་དང་བྱེད་མུས་	-10.9612
དྲུང་ནས་	-10.9614
དཔལ་མགོན་	-10.9616
གསལ་བ	-10.9617
ཟེར་བའི་ནང་	-10.962
སྤུན་མཆེད་	-10.9621
་སྐོར་གསུངས	-10.9622
ཆགས་བསྡད་ཡོད	-10.9623
ཀྱི་ཚབ་ཞུས་ཏེ	-10.9623
གཉིས་ནི་	-10.9632
ཕྱུགས་	-10.9633
སྐྱོ་བ	-10.9633
གསོལ་ཏེ་	-10.9634
ཡུ་གུར་མི་རིགས་	-10.9636
ནི་རྟག་ཏུ་	-10.9636
་མཛད་པ་མཉམ་པ་དང་	-10.9638
▁བགྲོ་གླེང་	-10.964
རིགས་པས་	-10.9641
ཆོས་བརྒྱུད་ཁག་	-10.9641
སྦེ	-10.9642
མཚོན	-10.9642
▁དེ་ནས་དེ་དག་	-10.9643
བཙན་བྱོལ་དུ་ཕེབས	-10.9644
འདི་དག་སྨྲས་སོ་་	-10.9645
བོད་དང་བོད་མིའི་	-10.9645
ར་རྟེན་གཞི་བྱས་	-10.9646
དོན་ཚན་བཅུ་བདུན་	-10.9647
དུད་ཚང་	-10.9648
བགྲོད་པ་གཅིག་པ	-10.9648
དགའ་དད་སྤྲོ་	-10.9649
ཕུགས་རྒྱང་རིང་པོ	-10.9649
ལོ་རེ་བཞིན་	-10.9649
ཅེཀ་	-10.9649
ཁྲོ་བོ་གཏུམ་པོ	-10.965
ཡན་ཆད་	-10.9651
བསྒྱུར་བཀོད་ཁང་	-10.9651
བོར་བ་	-10.9652
རྒལ་	-10.9653
རྒྱལ་བུ་གཞོན་ནུ་	-10.9654
དྲགས་	-10.9655
སོ་སོར་རྟོག་སྟེ་	-10.9656
མི་སྣང་	-10.9657
▁གཞན་དུ་ན་	-10.9659
གྱི་སྒོ་ནས་	-10.9662
སྐྱེད་པར་བྱེད་	-10.9663
བཞིན་པ་རེད	-10.9663
ཐོས་ཏེ་	-10.9664
རྒྱལ་ཁབ་གཅིག་	-10.9665
དགོན་སྡེ་ཁག་ཏུ་	-10.9666
དུམ་བུ་	-10.9667
པས་ཀྱང་	-10.9667
ཅན་དུ་འགྱུར་རོ་་	-10.9671
བོད་ཟླ་	-10.9674
སྙན་ཞུ་	-10.9675
དྲོད་	-10.9677
སྙི	-10.9677
་པད་མའི་དཔལ་གྱི	-10.9677
ཀྱི་ཚིག་བླ་དགས་	-10.9677
འཐོབ་པར་འགྱུར་བ་	-10.9678
ལྗོངས་རྒྱུ་ཞིང་	-10.9678
▁གཞན་གྱི་	-10.9679
བླ་གོས་	-10.9681
ཁྲིམས་ཞིབ་པ་	-10.9682
དང་ལྡན་པ་ནི་	-10.9684
ཚགས་	-10.9684
སྣང་གསལ་ཞལ་ཕྱེ་	-10.9684
ཡ་རབས་བཟང་སྤྱོད་	-10.9685
སྐབས་འདིར	-10.9685
ང་ཚོའི་ངོས་ནས་	-10.9686
ི་སྤྱོད་པ་གང་	-10.9687
ཆོས་ཀྱང་སྟོན་ཏོ་	-10.9687
གཏོར་མ་	-10.9688
ཟོང་	-10.9688
རྗེས་སུ་མ་མཐོང་	-10.9688
བརྗོད་པར་བྱ་སྟེ་	-10.969
དེང་གི་	-10.969
ི་ཀ	-10.9691
བསྒྲིགས་	-10.9692
ེ་བ་ལ་བཙུད་པ་ནི་	-10.9694
མ་འདྲེས་པའི་	-10.9694
གོ་སྒྲིག་གནང་བ	-10.9695
ར་བྱས་ནས་བད	-10.9695
ཁོང་ཚོའི་	-10.9695
ལགས་ནས་	-10.9696
མེ་ཏོག་གིས་	-10.9697
རྗོད་ཀྱི་ཡོད	-10.9697
་པའི་ཕྱིར་	-10.97
སྡེ	-10.9702
སྔ་དྲོ་ཆུ་ཚོད་ལ་	-10.9703
▁རྒྱ་ནག་ནང་	-10.9704
སེམས་ཅན་གང་	-10.9704
ཞིག་གི་ནང་	-10.9706
ཡོངས་སུ་གཟུང་བ	-10.9707
བཏོན་ཡོད	-10.9708
རེད་མ་གཏོགས་	-10.9709
འཐུན་པ་	-10.9709
གི་གསུང་རབ་ལ་	-10.971
ཁང་ནས་བཏང་གན	-10.9711
▁ལུས་ལ་	-10.9713
དགོས་པ་སོགས་ཀྱི་	-10.9714
རོགས་གནང་ཞེས་	-10.9714
་ཏིང་འཛིན་	-10.9714
བསྒྲུབ་རྒྱུ	-10.9715
▁ཚོགས་ཆེན་	-10.9715
ར་མཛད་པ་	-10.9716
མགོ་དང་	-10.9717
འཇིག་རྟེན་ལོང་བ	-10.9717
པོ་ཆེ་	-10.9721
བསྒྲགས་པ་	-10.9721
སྐྱིད་སྡུག་	-10.9722
གཏོར་བཤིག་	-10.9722
བར་སྣང་ལ་	-10.9722
འི་སྤྱོད་ཡུལ་	-10.9724
མངོན་པར་སྒྲུབ་པ་	-10.9724
མིག་ནི་	-10.9725
སྲུ	-10.9726
མེ་སྐྱོན་	-10.973
ལོ་དྲུག་	-10.973
རྟེན་འབྲེལ་མཚོན་	-10.9732
སུན་གཙེར་	-10.9732
ནང་བོད་མིའི་	-10.9733
ཡོངས་སུ་རྟོག་པ་	-10.9734
རྒྱུ་གང་ཡང་མེད	-10.9736
ཆུ་སྐྱ	-10.974
གཏན་ཉིན་སློབ་གྲྭ	-10.974
སྦྱིན་པར་བྱའོ་་	-10.974
མདོ་རྫོགས་སོ་་་	-10.9743
ཉིད་ལ་	-10.9743
ལས་བརྩམས་ཏེ་	-10.9744
▁འཁོར་	-10.9745
ག་གི་	-10.9745
ཕྲོགས་	-10.9746
ཞུགས་པའི་	-10.9747
གནའ་རབས་	-10.9749
གཏན་ནས་	-10.9752
གསལ་འདོན་གནང་	-10.9753
མ་གཏོགས	-10.9753
་བི་	-10.9755
འཛིན་སྐྱོང་གི་	-10.9756
▁སྔར་	-10.976
མི་མང་རྣམས་	-10.9761
དབུ་འཛིན་	-10.9765
དམིགས་པའི་	-10.9767
བསད་པ་	-10.9767
རྒྱུ་ཡིན་སྐོར་	-10.9768
འཚལ་ཏེ་	-10.9768
གོང་སྤེལ་གཏོང་	-10.9768
ཕྱི་རོལ་དུ་	-10.9769
ནིའུ་ཡོག་	-10.9769
▁སྲིད་སྐྱོང་	-10.977
སྡུག་བསྔལ་འགོག་པ	-10.9771
སྤོང་ཞིང་	-10.9772
དྲང་བདེན་དང་	-10.9773
སྒོའི་	-10.9774
བསྐོར་བ་བྱས་ནས་	-10.9775
དང་བསྔགས་བརྗོད་	-10.9775
ལ་བདག་	-10.9776
བདེ་བ་འདོད་	-10.9777
ལྟེ་གནས་	-10.9777
རྣམ་ཐོས་ཀྱི་བུའ	-10.9778
བར་གྱུར་་	-10.9778
གཉིས་རིང་	-10.9778
ནྡྲ	-10.9778
ཞིག་གནས་པ་དེས་	-10.9781
ལས་གཞིར་	-10.9782
གཞན་མུ་སྟེགས་ཅན་	-10.9783
གསོལ་ནས་	-10.9789
ནི་འཛམ་གླིང་ནང་	-10.9789
སྐོར་གསུང་བཤད་	-10.979
མྱངས་དང་མྱོང་	-10.9792
བོད་ཀྱི་ཆོས་དང་	-10.9794
ཟབ་མོའི་	-10.9794
བསྐལ་པ་བརྒྱ	-10.9794
བསྡད་པ་རེད	-10.9795
ཟ་བ་	-10.9796
མངོན་པར་འཕགས་པ་	-10.9796
གསུམ་དུ་	-10.9796
འགྲོ་བཞིན་ཡོད་པ་	-10.9797
བར་སྐབས་	-10.9797
དྲང་བདེན་	-10.9798
▁སྲིད་པ་	-10.9799
མཛད་རྣམ་	-10.9799
སྙམ་པ་	-10.9799
བྱ་བ	-10.9802
ེའི་རྣམ་པར་	-10.9804
ཐབས་མེད	-10.9806
ཡོངས་སུ་སྤྱད་པ	-10.9806
དང་ལྷག་པར་	-10.9809
སྒྱུ་མ་ལྟ་བུ	-10.9809
མི་ཡིས་	-10.9817
▁དགེ་སྦྱོང་	-10.9817
དཔར་	-10.9818
མ་རུངས་	-10.9819
བརྙས་པ	-10.982
པ་ཞིག་ཡིན	-10.982
གི་བསྟན་པ་ལ་	-10.9822
▁གཞིས་ཆགས་	-10.9824
▁ལྷན་ཁང་ཁག་གི་ད	-10.9825
བདུད་ཐམས་ཅད་	-10.9827
སྤངས་པས་	-10.9827
གནས་སྟངས་ཇི་ཡིན་	-10.9829
འདི་འདྲ་ཞིག་	-10.9831
མ་རིག་	-10.9832
སྙམ་དུ་དགོངས་ནས་	-10.9832
ཚད་མེད་པ་བཞི་	-10.9835
བསམ་གཏན་བཞི་དང་	-10.9835
བཞིན་པ་ནི་	-10.9836
ཞེ་ན་འདི་ལྟར་	-10.9836
▁ད་ལྟར་	-10.9837
ཚད་མ་རིག་པ་དང་	-10.9838
ཚོགས་གཙོ་ལ	-10.9838
ཤེས་པ་ཡོངས་སུ་	-10.9838
གས་འོག་མའི་	-10.9839
ི་ཧ	-10.9841
མཆོད་པར་	-10.9842
དེ་ནི་ང་ཉིད་ཡིན་	-10.9842
འབྲེལ་མ་ཡིན་པའི་	-10.9843
འགོག་རྐྱེན་	-10.9843
རྣམ་ཤེས་	-10.9844
བྱའོ་སྙམ་ནས་	-10.9845
འགྱུར་ཞིང་་་	-10.9845
བདེན་པ་དང་	-10.9846
འོ་་འདི་ནི་	-10.9847
ཆེན་པོ་ཡོད	-10.9849
ཁྲོད་ནས་	-10.9851
བ་དུརྱ་	-10.9852
དེའི་ལུས་ལ་	-10.9852
▁བཀའ་ཤག་སྐབས་	-10.9853
སྣེ་འཁྲིད་	-10.9855
ལྟ་ཅི་སྨོས་ཏེ་	-10.9856
ཁྱོན་ཡོངས་ཀྱི་	-10.9856
པོའམ་	-10.9857
འཛམ་གླིང་གང་སར་	-10.9858
བོད་ཆོལ་ཁ་གསུམ་	-10.9859
ཚགས་ཚུད་པོ་	-10.986
འབྲེལ་བའི་སྐོར་	-10.9861
▁དེར་བརྟེན	-10.9862
གི་བར་དུ་	-10.9864
ཆོམ་རྐུན་	-10.9864
་ཀུན་དགའ་ར་བ་ན་	-10.9865
ཀུན་ནས་ལྡང་བ་	-10.9866
ངོས་འཛིན་ཞུ་	-10.9867
ཐོག་ལའང་	-10.9867
ཟླ་བ	-10.9869
བརྒྱུད	-10.9869
བྱེད་དགོས་རྒྱུ་	-10.9869
འདུས་བྱས་ཀྱི་	-10.9869
འདུག་ཅིང་	-10.9876
པར་ཤོག་	-10.9877
▁འདུ་ཤེས་	-10.9877
དགུ་པ་	-10.9879
ཕྱི་ལོ་ནས་	-10.9879
ཁྱམས་	-10.988
མཇལ་འཕྲད་གནང་ཡོད	-10.988
མེད་པར་འགྱུར་	-10.9881
མེ་ལོང་	-10.9883
གཞན་དག་གིས་	-10.9885
ལས་འཕགས་པ	-10.9885
ཞུ་ཡི་ཡོད	-10.9885
འཇོག་ཁང་	-10.9885
དེ་སྲིད་དུ་	-10.9886
ཕྱི་ལོ་ནས་བཟུང་	-10.9887
བུ་མོ་དེ་	-10.9887
ཉིས་སྟོང་	-10.9887
ཆོས་ཐམས་ཅད་ཀྱང་	-10.9888
ཚོགས་པའི་ཚོགས་མི	-10.9889
གླིང་གི་	-10.9891
གཟིགས་འབུལ་	-10.9891
བརྐྱང་	-10.9891
བྱས་ཚེ་	-10.9893
གཉིས་པོ་	-10.9893
གྲགས་པའི་	-10.9896
ཆོས་གྲོགས་	-10.9897
དོ་ཞེས་	-10.9902
ནམ་མཁའི་ཁམས་	-10.9902
མི་རྟག་ཅེས་བྱ་བ	-10.9902
སྨོན་ལམ་འདེབས་	-10.9903
མགོ་ལ་	-10.9904
རྫོགས་པ་	-10.9904
མཚན་མ་མེད་	-10.9905
ཝན་	-10.9905
འི་ཡང་སྲིད་	-10.9906
ཞུ་བར་	-10.9908
▁ཕྱག་འཚལ་	-10.9909
▁འཇིག་རྟེན་མགོན་	-10.991
ཚུལ་ཁྲིམས་སྲུང་བ	-10.9911
སྐྱོར་	-10.9913
གཙོ་ཆེ་ཤོས་	-10.9913
ཀྱི་ཡོད་པ་དང་	-10.9915
དགེ་སློང་གིས་	-10.9916
ཞིག་འདུག	-10.9918
ངོན་པར་བརྩོན་པར་	-10.9918
སྙན་སྒྲོན་	-10.9923
དང་་རྣམ་པར་	-10.9924
་་་་	-10.9926
ལ་བབ་	-10.9926
ས་ཆོས་ཐམས་ཅད་	-10.9926
འོས་པ་	-10.9927
ཨོ་སི་ཀྲི་ལི་ཡ	-10.9929
ལ་ཕན་	-10.993
▁བྱམས་བརྩེ་	-10.9931
ཐོག་གོ་བསྡུར་	-10.9932
ཐོག་ཏུ་	-10.9933
ཞི་ཞིང་	-10.9933
རྒྱུའི་འཆར་གཞི་	-10.9933
ཁ་ཅིག་གིས་ནི་	-10.9936
ད་ཞིའི་གཙུག་རྒྱན	-10.9937
▁དེ་འདྲ་	-10.9938
ནི་སེམས་ཅན་	-10.994
པ་ནས་བཟུང་	-10.994
ཁོང་དུ་ཆུད་	-10.9941
འགྲོ་ལ་	-10.9942
རྒྱལ་ཁའི་ངང་གྲོལ	-10.9942
་རྟག་པར་རྗེས་སུ་	-10.9945
འཆང་བ	-10.9945
བཀང་	-10.9946
ལྐོག་	-10.9947
རྒྱལ་བསྟན་ཡོངས་	-10.9947
འི་དུས་ཀྱི་ཚེ་	-10.9947
སྤྲ	-10.9948
རྒྱན་ཐམས་ཅད་	-10.9949
མིའི་རྣམ་དཔྱོད་	-10.9949
ལག་ལེན་བསྟར་	-10.9949
བོད་ནི་	-10.995
བསམ་པ་གཅིག་མཐུན་	-10.9952
རིས་སུ་མ་ཆད་པའི་	-10.9952
རྔ་རོལ་དང་བཅས་	-10.9952
སེམས་དང་སྲོག་གི་	-10.9952
སྦྲ་གཉིས་ཚེ་རྒྱལ	-10.9952
སྡིངས་ཆའི་སྟེང་	-10.9952
ལྷུང་བཟེད་བསྣམས་	-10.9952
▁ཀྱེ་ཀྱེ་	-10.9953
ནད་རྟགས་ཡོད་མེད་	-10.9953
ས་གནང་བར་རིག་ནས་	-10.9953
རྒན་རབས་	-10.9953
་ཤུགས་མཉམ་པ་དང་	-10.9953
▁ཁྱེད་ཚོ་	-10.9954
ཡོད་ཅེས་བྱ་བའམ་	-10.9954
བདུག་པ་དང་་སྤོས་	-10.9955
བོད་དོན་ཞུ་གཏུག་	-10.9956
འདོན་གནང་མཛད་	-10.9956
ཟིན	-10.9957
▁སྙམ་ནས་	-10.9957
བོད་མི་ཡོངས་ལ་	-10.9957
བོད་དོན་ཞུ་སྐུལ་	-10.9957
གཤེགས་སུ་གསོལ་	-10.9959
བོད་ས་དབང་སྒྱུར་	-10.9959
དེ་དང་དེ་དག་ཏུ་	-10.996
ངེས་པའི་ཚིག་	-10.996
བསྐོ་ལྷན་ཁང་གི་	-10.9961
ཕན་ཐོགས་ཧ་ཅང་	-10.9961
དབྱེ་བ་མེད་པར་	-10.9962
མངོན་པར་འགྲུབ་པ	-10.9964
དེ་བཞིན་ཕྱི་ལོ་	-10.9964
་ཝ	-10.9964
རྒྱལ་བའི་སྲས་	-10.9967
ཀྱི་དངོས་པོ་ལས་	-10.9968
རྡོ་རྗེ་གདན་གྱི་	-10.9968
ལན་གསུམ་དུ་བཟླས་	-10.9968
ཞུ་དགོས	-10.9969
པ་ལས་ཡོངས་སུ་	-10.997
ལྷ་མོ་སྒྱུ་འཕྲུ	-10.9971
ཆེན་པོ་བྱུང་	-10.9972
ཡོང་རྒྱུའི་	-10.9973
▁དེ་དགྲ་བཅོམ་པ	-10.9973
▁ཚུལ་ཁྲིམས་ཀྱི་	-10.9973
བསྲུང་བ	-10.9973
བཙུགས་པའི་	-10.9973
ཡུག་	-10.9973
དང་ཕྲད་	-10.9975
འཇུག་པར་བྱེད་	-10.9977
སྤོས་མཆོག་	-10.9978
རིག་པ་བཞི་དང་་	-10.9979
བྱས་དང་བྱེད་	-10.9979
རྒྱ་ཆེའི་	-10.998
གཏུགས་	-10.998
མ་ཞི་བ	-10.9981
བསམ་བློ་བཏང་	-10.9983
ཚོགས་མི་རྣམ་པ	-10.9985
དབང་བསྐུར་བ་	-10.9985
དྷ་ར་	-10.9985
ཡང་རུང་	-10.9986
རིང་པོར་	-10.9987
ཐོགས་པ་དང་་	-10.9987
གཞན་དང་	-10.9989
མཛད་པ་དང་	-10.9989
པར་འགྱུར་བ	-10.999
▁ཆོས་བརྒྱུད་	-10.9992
ནགས་ཁུང་	-10.9992
གཟིམ་ཆུང་ཕོ་བྲང་	-10.9995
▁ཞེས་སོགས་	-10.9996
བཅར་བ་ཡིན	-10.9996
ལས་ལྷག་	-10.9997
ལ་ཇི་ལྟར་མ	-10.9997
དབུལ་བ་	-10.9998
ནམ་མཁའ་དང་མཚུངས་	-10.9999
གི་ཚོགས་མི་	-10.9999
གིས་བོད་མིའི་	-11
སྙམ་དུ་བསམས་ནས་	-11.0001
གདའ་་	-11.0003
སྐྱེ་བོ་མང་པོས་	-11.0003
ཝུ་ཧན་	-11.0003
ལས་བྱེད་རྣམས་	-11.0003
་རགས་	-11.0004
ཟེར་གྱི་ཡོད	-11.0005
སྤྱོད་པ་་དེ་དག་	-11.0006
བྱང་ཆུབ་ལ་	-11.0007
འམ་ཅིའི་བདག་པོ་	-11.0008
ཡོང་གི་མ་རེད	-11.0008
ཅད་	-11.001
ཡལ་བར་	-11.0013
བཅས	-11.0013
དཀའ་སྡུག་མྱོང་	-11.0016
སྐྱ	-11.0017
ུས་འཁོར་དབང་ཆེན་	-11.0017
སྙིང་རྗེ་ཅན་	-11.0019
་མེད་པར་གྲགས་པས་	-11.0019
བྱེད་པར་འགྱུར་	-11.002
ཇེ་སྡུག་ཏུ་འགྲོ་	-11.0023
རྒྱུ་མ་གཏོགས་	-11.0023
ལུང་བསྟན་པ་་	-11.0024
པར་འགྱུར་ཞིང་་	-11.0025
▁མིའམ་ཅིའི་	-11.0026
གང་ཡིན་པ་སྟེ་	-11.0026
ཞུས་པ་ལྟར་	-11.0029
འགྲོ་བཞིན་པ་	-11.0029
གསོལ་ཇ་འབྲས་སིལ་	-11.0031
སློབ་སྤྱི་དང་	-11.0031
རྣམ་པར་བྱང་བ	-11.0032
ཅེས་བྱ་བ་ནི་	-11.0034
དེ་གའི་	-11.0035
དེ་ལྟ་བས་ན་བ	-11.0035
སེམས་ཅན་ཁྲི་ཕྲག་	-11.0036
རིམས་ཁྱབ་བརྡལ་	-11.0036
མན་ངག་	-11.0036
ལས་ཁང་གི་	-11.0038
བཤད་ཀྱི་འདུག	-11.0039
ཞིག་ཏུ་གྱུར་ཡོད	-11.0042
མིག་དང་་	-11.0044
འདོད་པའི་ཕྱིར་	-11.0044
མང་གཙོ་དོན་གཉེར་	-11.0044
སྲུང་བ	-11.0046
བྱེད་བཞིན་པར་	-11.0047
དུ་ཆིབས་སྒྱུར་	-11.0047
ལས་ཡོངས་སུ་ཉམས་པ	-11.0049
ཡིད་ལ་བྱེད་པ་ན་	-11.005
གཅིག་པུར་	-11.0051
ས་ཆུང་མ་བླངས་ནས་	-11.0053
ནད་དང་	-11.0054
དགེ་སློང་འདི་	-11.0054
ངོས་འཛིན་བྱེད་	-11.0055
ཀྱི་རྣམ་པ་	-11.0056
ཐབས་ཀྱིས་	-11.0057
དྲི་ང་བ	-11.0058
གཡ	-11.0058
རིམ་གྲོ་བྱས་	-11.0061
དབུས་གཞུང་ནས་	-11.0062
མིང་འདི་ཞེས་བ	-11.0062
སྟེང་ནས་	-11.0063
སྐྱེས་པའམ་	-11.0063
▁འཛམ་གླིང་མཉམ་	-11.0064
རྣག་	-11.0065
ི་ལི་	-11.0065
མི་འདྲ་བའི་	-11.0065
གསུངས་སོ་་	-11.0065
ལས་གཞི་སྤེལ་	-11.0066
ཆེད་དུ་བརྗོད་པ་	-11.0066
མི་ལེན་	-11.0067
རྒྱལ་སྤྱི་	-11.0067
▁རྒྱ་ནག་ཝུ་ཧན་	-11.0068
▁བཟོད་པའི་	-11.0071
འཕེལ་རྒྱས་	-11.0071
▁ཏིང་འཛིན་	-11.0072
སུ་ཡོད་པའི་	-11.0073
བདེ་བ་འདོད་པ་	-11.0074
མི་སྐྱེད་དོ་	-11.0075
ེ་ཝི་	-11.0078
དཔུང་གཉེན་	-11.0079
ཐབས་སྡུག་	-11.0079
ཉལ་བ་	-11.0081
རུང་བ་	-11.0081
སྒྲོགས་སྦྱང་ཞུས་	-11.0081
གྱི་རྣམ་པ་	-11.0084
བྱིན་པས་ནི་	-11.0084
པའི་ཚིག་བླ་དགས་ས	-11.0087
▁བོད་མི་ཚོར་	-11.0087
བདོག་པ་ཐམས་ཅད་	-11.0088
ེན་གཟབ་རྒྱས་ཞུས	-11.0095
པགས་པ་	-11.0095
ལམ་ལྷོངས་	-11.0096
ར་བྱེད་ཅིང་	-11.0098
ཡིན་པའི་ཕྱིར་ཏེ་	-11.0098
འི་གསར་འགོད་	-11.0101
ཐོབ་ཡོད	-11.0101
ཡོད་པ་མ་ཡིན་	-11.0102
▁སློབ་གྲྭ་	-11.0102
བྱོས་	-11.0103
▁ཉིན་	-11.0103
གྱུར་ཅིག་ཅེས་	-11.0104
མཁན་རིན་པོ་ཆེ་	-11.0105
བོད་ནང་གི་དངོས་	-11.0105
བདེ་ཞིང་	-11.0106
འཇམ་དབྱངས་ཆོས་	-11.0109
ཕྲུག་	-11.0109
ནེ་རུ་	-11.0109
དེ་དེ་དང་	-11.0111
▁རིག་པ་དང་མ	-11.0112
སྲེད་པའི་	-11.0113
▁དེ་ཡང་ཕྱི་ཚེས་	-11.0113
ཀརྨ་ཡེ་ཤེས་མཆོག	-11.0114
དང་བྲལ་	-11.0115
གཟུགས་སམ་	-11.0117
མ་འཚལ་	-11.0118
ཆེད་རྩོམ་	-11.0118
བྱས་མེད	-11.0118
ནང་ཆོས་ངོ་སྤྲོད་	-11.0119
སློབ་གཉེར་བྱེད་	-11.0121
པ་འདི་ནི་	-11.0122
བརྟག་དཔྱད་བྱས་	-11.0125
པའི་སྐབས་སུ་	-11.0126
བྲལ་བའི་	-11.0135
བྱིས་པ་སོ་སོའི་	-11.0135
ཁྱབ་པ་	-11.0135
ཞེ་སྡང་གི་	-11.0135
སྔར་ལས་	-11.0137
གྱི་ལས་གཞི་	-11.0138
སྣང་བ་ཆེན་པོས་	-11.0139
གཏོང་དགོས་པའི་	-11.0141
རྣམ་པར་འཕྲུལ་པ་	-11.0143
སྨིག་རྒྱུ་	-11.0144
ཞེས་པའི་དཔེ་དེབ་	-11.0144
མཛད་དུ་གསོལ་	-11.0147
བདུག་པ་	-11.0147
ར་བྱེད་ཅིང་་	-11.0147
མཆིས་ན་	-11.0148
ཡིན་པ་རེད	-11.0149
མ་མ	-11.0151
མྱོང་མེད	-11.0152
▁ཅི་སྟེ་	-11.0153
བྱང་ཆུབ་ཀྱི་ས	-11.0154
བཞད་	-11.0155
འགྱུར་རོ་	-11.0155
ཕྱུག་པོ་	-11.0156
རམ་འདེགས་	-11.0156
དྲང་སྲོང་ཆེན་པོ་	-11.0159
གྲྭ་རྒྱུན་	-11.016
རྒྱ་དམར་གཞུང་གི	-11.016
ཕྱུག་ལ་དབང་བྱེད་	-11.0162
བཟངས་	-11.0163
ཀྱི་གོ་སྐབས་	-11.0164
འདྲེན་པའི་	-11.0165
པ་ཡང་་་	-11.0165
ཐམ་པ་	-11.0165
ཡོངས་སུ་གང་བ	-11.0171
ཡ་ལ	-11.0174
མཁྱེན་པའི་	-11.0175
▁སྲིད་	-11.0175
འདྲ་ཞིང་	-11.0176
མངོན་ཤེས་	-11.0177
བགྲོ་གླེང་གི་	-11.0178
མ་བ	-11.0178
ངོས་རང་རྒྱ་གར་	-11.0179
འདི་འདྲ་བ་	-11.0179
ཚན་རིག་པ་ཚོས་	-11.0183
མོས་པ་དང་་	-11.0183
བརྗོད་་	-11.0183
ལྷུན་གྱིས་འགྲུབ་	-11.0183
ཀྱི་སྤྱན་གྱིས་	-11.0184
སོགས་ཀྱི་ནང་	-11.0185
འབྱུང་བར་འགྱུར་་	-11.0186
ན་ག	-11.0187
▁དངོས་ཡོད་	-11.0188
ཆོས་ཀྱི་རྒྱལ་པོ་	-11.0189
ཊུ་	-11.0189
སྤྱིར་བཏང་	-11.0191
ཁྱོད་ཉིད་	-11.0192
བྱ་རྒྱུ་ཧ་ཅང་	-11.0192
▁གང་ཟག་	-11.0193
ཡོང་གི་ཡོད་པ་རེད	-11.0196
ཡུལ་དེར་	-11.0196
སྲིད་གཞུང་ལ་	-11.0198
ཆེ་གེ་མོ་	-11.0198
སྟོན་པར་མཛད་	-11.0199
▁ཤར་	-11.02
ཕྱིན་པ་ཡིན	-11.02
འགྲོ་བཞིན་འདུག	-11.0201
▁ཕལ་ཆེར་	-11.0203
མངོན་པར་འདུ་མཛད་	-11.0205
▁ངས་འདིར་	-11.0208
སྲུང་སྐྱོབ་དང་	-11.0208
ལ་ཡང་རྒྱ་ཆེར་	-11.021
སྐྱེ་བ་མེད་པ	-11.0211
ཚར་བ་	-11.0213
དབུ་བཞུགས་	-11.0214
པའི་མི་	-11.0214
ཟབ་སྦྱོང་གི་	-11.0215
དང་ལྡན་པར་གྱུར་	-11.0216
རབ་བཟང་	-11.0216
པ་དེ་བཞིན་དུ་	-11.0216
གནས་ཚུལ་ཐོན་པར	-11.0216
ར་གྱུར་ན་	-11.0217
སྐུ་ཚབ་འཐུས་མི་	-11.0217
བཟོ་དགོས	-11.0218
་འདུགདེར་བརྟེན་	-11.0218
ཡིག་ཆ་ཁག་	-11.0218
དགེ་སློང་གི་དགེ་	-11.0219
བྱུང་བ་ཡིན་ན	-11.022
དེ་རིང་གི་ཉིན་མོ	-11.022
དང་་ལྷ་དང་་མི་	-11.0222
བོད་ལྗོངས་	-11.0223
ཁྱོད་ལ་ཞུ་	-11.0223
ཁྲོ་བའི་	-11.0224
ཕུལ་ནས་	-11.0227
བལྟས་པ་ཡིན་ན	-11.0227
འགྲོ་གི་ཡོད	-11.0228
འགྱུར་བ་ཞིག་ན་	-11.0228
ང་དེའི་ཚེ་དེ	-11.0229
ཕྱིན་པ་དང་	-11.0231
ཀུན་ཏུ་རྒྱུ་	-11.0232
བྱ་ཡུལ་	-11.0232
སྨན་པ་དང་	-11.0233
བཅུ་བཞི་	-11.0233
ཀྱི་མ་རེད	-11.0233
འི་འདུ་ཤེས་དང་་	-11.0234
འདུ་ཤེས་བསྐྱེད་	-11.0235
དབུ་བཞུགས་ཐོག	-11.0235
རྣམ་པར་རྟོག་	-11.0236
ཁྲལ་	-11.0238
ཀུན་ཏུ་སྦྱོར་བ་	-11.0238
རྗེས་འབྲང་པ་	-11.024
དཀྱིལ་འཁོར་གྱི་	-11.0241
པོའི་རྒྱལ་གླུ་	-11.0244
ས་མཆོག་གིས་	-11.0246
ཇོ་ནང་	-11.0246
ྤ	-11.0246
མཛད་གཙོ་རྣམ་པ་	-11.0247
དར་བའི་	-11.0247
དུ་མ་དག་	-11.025
བསྒྲལ་	-11.025
མཛད་ཅིང་	-11.0253
▁ཆོས་ཐམས་ཅད་ཀྱི་	-11.0253
དང་་ཏིང་ངེ་འཛིན་	-11.0255
པ་ཤེས་པ་	-11.0257
ཉིས་བརྒྱ་	-11.0258
གྱུར་བ་	-11.0258
ངོ་བོ་དང་	-11.0258
སྤྱོད་འཇུག་	-11.026
བསྒྲུབས་ཏེ་	-11.026
སེལ་བར་	-11.0261
▁ཞེས་སོགས་གསུངས	-11.0261
བརྗོད་ན	-11.0262
ཀའ་བློན་མཆོག་གིས	-11.0262
▁སྤྱི་མོས	-11.0263
་བྱང་ཆུབ་མཆོག་ག	-11.0264
བྷི་ཇེ་པི་	-11.0264
འོ་མ་དང་་ཞོ་དང་	-11.0264
▁བྱས་ཙང་	-11.0264
ི་ནོར་དང་འགྲན་པ་	-11.0264
དུས་ལས་ཡོལ་བ	-11.0264
དངོས་གནས་དྲང་གནས	-11.0264
་བྷ	-11.0265
འདི་འཛིན་པ་ནི་་	-11.0265
གྷི	-11.0266
ལས་དོན་གང་ཅིར་	-11.0266
བྲམ་ཟེ་སྐར་རྒྱལ་	-11.0266
དྲང་ངེས་	-11.0266
▁ས་བོན་	-11.0266
འཛུལ་ཞུགས་	-11.0267
རྒྱུས་ལོན་	-11.0267
ཟུར་བཀག་	-11.0268
ང་སྲིད་རང་སྐྱོང་	-11.0268
གླང་ཆེན་	-11.0269
མར་མེའི་	-11.0269
དང་འཐུན་པ་	-11.0269
ནང་གསལ་	-11.027
་ཉིད་ཀྱི་ཕྱིར་	-11.0271
ནོངས་	-11.0275
ཁུལ་ནས་	-11.0275
ཕྱར་གྲུ་མཉམ་འདེ	-11.0276
རྒྱལ་པོ་ར	-11.0276
ཞུ་དགོས་པ	-11.0276
དེས་པ་	-11.0277
ནས་ཤི་འཕོས་ཏེ་	-11.0277
དུ་གནས་སྤར་གྱིས་	-11.0277
▁ཆབ་སྲིད་ཀྱི་	-11.0278
འགོ་འཛུགས་གནང་	-11.0279
ཚོགས་དུས་བརྒྱད་པ	-11.028
དུག་སེལ་	-11.028
གང་ཡང་མི་འདུག	-11.0281
འགེངས་ཤོག་	-11.0281
རེད་དམ	-11.0281
སྐུ་ཞབས་ཨ	-11.0282
རྒྱལ་པོ་བྱེད་དེ་	-11.0282
ཐེར་འབུམ་	-11.0282
རྨོ	-11.0283
དབྱངས་སུ་གྱེར	-11.0284
ཁང་དང་	-11.0285
མཚུངས་སོ་་	-11.0286
་བོད་རིགས་སྤྱི་	-11.0287
འོབས་	-11.0287
འི་ནོར་བདུན་གྱི་	-11.0292
ཡོད་གནས་སྟངས་	-11.0293
བདེ་སྐྱིད་གླིང་	-11.0294
▁ཕྱི་ལོ་ནས་	-11.0294
གང་ལ་ལ་ཞིག་གིས་	-11.0294
་སྲེད་མེད་ཀྱི་བུ	-11.0295
རབ་ཏུ་བཤད་	-11.0295
▁དྲི་མ་མེད་པའི་	-11.0296
མི་ཕོད་	-11.0297
རང་སྐྱོང་	-11.0297
སྐྱེ་མཆེད་ཀྱི་	-11.0297
སྔ་མོ་ནས་	-11.0298
གནང་དགོས་རྒྱུ་	-11.0299
རྣམ་པ་བཅུ་གཉིས་	-11.03
ཡོད་པའི་སྐོར་	-11.03
འཛིན་བཟུང་བཀག་ཉར	-11.0301
བཟློག་པ	-11.0301
ཐམས་ཅད་དང་	-11.0301
ྦྱངས་པའི་ཡོན་ཏན་	-11.0301
ཚ་བ	-11.0301
ཞིང་ཆེན་	-11.0302
པ་མེད་	-11.0303
སྐོར་སྤྲོ་འཆམ་	-11.0303
ཡུལ་གྲུ་ཁག་གི་	-11.0304
་ཚུལ་ཁྲིམས་ཀྱི་	-11.0304
ལྟ་བར་གནས་པ་དེ་	-11.0306
དོང་སྟེ་ཕྱིན་ནས་	-11.031
བྱ་བ་ནི་	-11.0311
་མིག་གི་རྣམ་པར་	-11.0312
ཕྱི་ལོ	-11.0312
གྲོང་ཁྱེར་ནང་	-11.0312
ནན་པོ་	-11.0312
འི་ཁྲི་འཛིན་	-11.0318
མཆོག་སྤྲུལ་	-11.0321
རྡ་སྟེང་བོད་ཁྱིམ	-11.0321
བཀའ་སྩལ་ཏེ་	-11.0323
་བར་འཇིག་རྟེན་	-11.0324
དཔྱད་ཞིབ་	-11.0325
ཡང་དག་བ	-11.0325
ལ་གདུང་སེམས་མཉམ་	-11.0326
ཉུང་བ་	-11.0326
དག་གམ་	-11.0327
འི་ཚིག་	-11.0328
བསླབ་པ་མཐར་སོན་	-11.0329
་འདྲེན་པ་	-11.0329
མཐོ་རིས་ཀྱི་	-11.033
བཞེས་མཁན་	-11.0331
མགོན་པོ་མཆོག་གིས	-11.0332
ཨེ་མ་	-11.0333
ཐབས་ཆེད་	-11.0333
རྙེད་ནས་	-11.0334
ཚོགས་མིའི་	-11.0334
ལོང་བ་	-11.0335
དུས་ན་	-11.0335
ཅེ་ན་	-11.0335
ཤེས་སམ་	-11.0335
སོགས་ངོ་སྤྲོད་	-11.0336
བསྟན་པས་	-11.0338
སྐུ་ཞབས་མཆོག་	-11.0338
དེ་སྐད་ཅེས་སྨྲས་	-11.034
དང་མི་རིགས་	-11.0341
རྒོད་	-11.0341
བརྗོད་བྱུང་	-11.0342
ཉམས་ལེན་བྱེད་	-11.0342
ཡིག་ཐོག་	-11.0343
་ཀྱིས་གསུང་དོན	-11.0343
རྣམ་པར་རྒྱལ་བ	-11.0343
ཁལ་	-11.0344
པ་ན་་	-11.0345
བཅུའི་	-11.0345
ཀྱི་ནང་ན་	-11.0345
སྙམ་དུ་བསམས་ཏེ་	-11.0345
འདུ་ཤེས་སུ་	-11.0347
ཡོད་སྐོར	-11.0348
ལས་ཀྱི་སྒྲིབ་པ་	-11.0349
དེའི་བསྟན་པ་ལ་	-11.0352
ར་མི་བྱ་	-11.0352
དགོས་པའི་འབོད་	-11.0353
ཤེས་པར་གྱིས་ཤིག་	-11.0354
▁རྫུ་འཕྲུལ་	-11.0354
རྒྱལ་ཁབ་ནང་	-11.0355
དམག་དོན་	-11.0357
དང་བྲལ་བར་གྱུར་	-11.0359
གསོལ་བ་བཏབ་	-11.036
ཡོང་མཁན་	-11.036
པ་ཙམ་གྱིས་	-11.0362
ནས་དེས་	-11.0362
ཚད་མཐོའི་	-11.0362
བདུད་རྣམས་	-11.0363
ཤུལ་ལུས་ནང་མི་	-11.0364
མགོ་སྐོར་	-11.0364
མིག་གི་ཁམས་དང་་	-11.0364
མི་རུང་	-11.0365
ལྷུག་	-11.0365
བཙན་འཛུལ་བྱས་	-11.0367
་ཧེ	-11.0369
རིག་སྔགས་ཆེན་མོ་	-11.0372
ཕ་རོལ་ཏུ་	-11.0372
བྷོ་	-11.0372
བོད་ཐོག་	-11.0372
གོ་བསྡུར་གནང་	-11.0373
ཁས་	-11.0376
ཀྱིས་སྟོང་་	-11.0379
སྐྱེ་བོ་མང་པོ	-11.0379
ལྷའི་ནང་དུ་	-11.038
▁དེ་གང་གི་ཚེ་	-11.038
ཆོས་ཀྱི་སྐུ་	-11.038
རི་ཡི་	-11.0381
ཉུང་ངུ་	-11.0382
སྤོང་བར་བྱེད་	-11.0382
གཟུགས་དང་	-11.0384
དེའི་སྐོར་	-11.0386
ལ་ལྟ་	-11.0387
པར་མི་འགྱུར་བ་	-11.0387
གས་འོག་མའི་ནང་	-11.039
ལོ་གཅིག་	-11.039
འཁྲུངས་སྐར་དུས་	-11.039
འི་ལྷ་རྣམས་	-11.0392
བ་ལས་	-11.0393
ཞེ་དྲག་	-11.0397
བྱེད་དེ་་	-11.0397
ཤིག་ཅེས་	-11.0399
འཕགས་ཡུལ་	-11.0399
ཤེས་པ་སྟེ་	-11.04
ས་དགེ་སློང་རྣམས་	-11.04
སྐྱོན་མེད་	-11.04
སུམ་དུ་བྱས་ཏེ་	-11.0402
ཆོས་མཆོག་	-11.0403
མ་རུངས་པ་	-11.0403
▁ལོ་ངོ་	-11.0405
དུས	-11.0405
གཅེས་འཛིན་	-11.0406
སྐྱེ་དང་	-11.0408
ཉེ་རྒྱལ་	-11.0409
མང་པོའི་རིང་	-11.0409
གི་རེད	-11.0412
ཏིང་ངེ་འཛིན་དེ་	-11.0413
ཀུན་ཏུ་ཤེས་	-11.0414
ཐག་གཅོད་གནང་	-11.0415
སྲིན་	-11.0415
རྣམ་པར་བསྒྲགས་པ	-11.0416
གྲོལ་བར་	-11.0417
བསྒོ་	-11.0418
ས་སྐྱ	-11.0419
ཞུ་བའི་	-11.0419
ཧིན་སྒོར	-11.0419
▁སྨན་ཆེན་	-11.042
སྤྱི་ཁྱབ་དྲུང་ཆེ	-11.0422
མིང་ཡང་	-11.0426
་དོན་ལྟར་	-11.0427
་ཛི་	-11.0428
ང་ཚོ་བཙན་བྱོལ་	-11.0428
མཆི་མ་	-11.0429
ཡི་གེ	-11.043
▁དངོས་པོ་	-11.0433
རྫུ་འཕྲུལ་ཆེ་	-11.0434
ཀྱི་གནད་དོན་ཐད་	-11.0435
ལ་ཡོད་པའི་	-11.0436
་འོད་སྲུང་	-11.044
ཐུགས་གསོའི་	-11.044
རྡུལ་ཕྲ་རབ་	-11.0442
་བ་དང་་	-11.0443
ཆུང་སྲིད་རིན་	-11.0443
ཀུན་མཁྱེན་	-11.0444
རྩི་བཞིན་ཡོད	-11.0444
འི་བསོད་ནམས་ཀྱི་	-11.0445
བོད་མི་དེ་དག་	-11.0446
བྱེ་བ་ཕྲག་སྟོང་	-11.0449
▁ནོར་	-11.0449
བྱས་སོ་	-11.0452
▁གཏི་མུག་	-11.0452
བདག་གིས་སེམས་ཅན་	-11.0452
འཐུས་མིའི་	-11.0453
བཅས་པའི་	-11.0453
ཟླ་ཚེས་	-11.0454
ལྟེ་བ་	-11.0457
འཚར་ལོངས་	-11.046
ཡུལ་དབུས་	-11.0461
སེམས་ལ་ཞི་བདེ་	-11.0463
ཡི་གེར་འདྲི་བ	-11.0464
གཞལ་དུ་མེད་པའི་	-11.0465
རྣམ་རྒྱལ་ལགས	-11.0466
གསོབ་	-11.0472
བཟོད་པའི་སྟོབས་	-11.0472
་ལས་ཁང་ནས་	-11.0473
ལ་ཇི་ལྟར་	-11.0475
བྱུང་བ་ཡིན་ན་	-11.0476
རིག་པས་	-11.0477
སྨྲ་་	-11.0478
འཇལ་	-11.0479
ཟམ་	-11.0482
བརྟ	-11.0482
▁ཚང་མས་	-11.0484
ཀྱི་ལམ་ནས་	-11.0485
ཚོགས་དང་	-11.0485
རྒྱུའི་ཆེད་	-11.0486
པར་འགྱུར་ལ་	-11.0489
གི་ལས་བྱེད་	-11.049
ས་གནང་ངོ་་	-11.0492
ཏུའང་	-11.0494
སེམས་རྒྱུད་	-11.0495
པ་རྣམས་ཡིན་ནོ་་	-11.0495
ས་སེམས་ཅན་རྣམས་	-11.0495
▁ཧ	-11.0495
▁ཆོས་སྨྲ་བ་	-11.0498
མགྲོན་འབོད་ཞུས་	-11.0501
མཆོད་པ་དང་་	-11.0501
གྱི་མཛད་སྒོ་	-11.0503
མཐུན་སྒྲིལ	-11.0504
ལ་བརྩི་མེད་	-11.0504
དུས་སྐབས་སུ་	-11.0505
ཉེས་པར་	-11.0505
་ན	-11.0505
ཡོང་གི་ཡོད་པ་	-11.0505
ཚུལ་བཞིན་ཡིད་ལ་	-11.0506
བྱས་ཤིང་་	-11.0507
གོམ་བགྲོད་	-11.0507
དབྱངས་ཀྱིས་	-11.0507
དཀོན་	-11.0507
ཟིང་	-11.0508
གོ་ཆ་བགོས་	-11.0509
དོན་ཁང་	-11.0511
▁ཆེས་མཐོའི་	-11.0514
བཞག་ན་	-11.0514
སྲིད་སྐྱོང་གི་	-11.0518
ཐེ་བྱུས་	-11.0518
ཆོས་སུ་	-11.0519
རྩེ་ཞིང་དགའ་	-11.052
མཁས་པའི་དབང་པོ་	-11.052
ཕྱིན་པ་དང་་	-11.052
མདོ་སྡེའི་	-11.0523
བརྒྱད་ཁྲི་	-11.0525
སློབ་སྦྱོང་གི་	-11.0525
མི་སྨྲ་	-11.0527
▁ཉིན་རྒྱབ་	-11.0527
▁ཨ་རིའི་གྲོས་ཚོ	-11.0527
་བཅས་ནས་	-11.0529
▁ནང་གི་	-11.0529
ཡལ་	-11.0531
ཡང་དག་པ་མ་ཡིན་པ	-11.0532
རབ་དགའ་	-11.0532
བརྒལ་བ	-11.0533
་མཆོག་ནས་	-11.0535
དཔྱ	-11.0536
མི་འདོད་པ་དང་	-11.0537
ཤེས་པའི་ཁམས་ཀྱི་	-11.0538
འི་ནང་ནས་	-11.0539
ཚིམ་པར་བྱེད་	-11.054
ཡོངས་སུ་གྲུབ་པ	-11.054
▁ཡིད་ཀྱི་སྡོམ་པ་	-11.054
ཐེངས་གཅིག་	-11.054
བྲང་	-11.0541
[...]
