<unk>	0
<s>	0
</s>	0
▁	-3.31995
་	-3.37567
དང་	-4.49797
ལ་	-4.82389
ནས་	-5.27642
འི་	-5.38207
ནི་	-5.50632
ས་	-5.51213
དེ་	-5.54108
བྱང་ཆུབ་སེམས་དཔའ	-5.65211
དང་་	-5.69352
ན་	-5.75856
མ་	-5.90106
ཀྱི་	-5.93854
མི་	-5.99864
ར་	-6.03734
ཡང་	-6.05303
བཅོམ་ལྡན་འདས་	-6.15464
▁དེ་ནས་	-6.19961
གྱི་	-6.20211
པ་	-6.20918
པའི་	-6.21867
ཀྱིས་	-6.23739
འདི་	-6.23937
ཡོད	-6.24504
བོད་མིའི་	-6.29207
དུ་	-6.35401
དེ་དག་	-6.37983
ལས་	-6.40404
སྐྱབས་མགོན་	-6.44624
ནང་	-6.4556
ཀྱང་	-6.48245
རེད	-6.49502
གི་	-6.5024
▁དེ་བཞིན་	-6.50542
རྣམས་	-6.51037
བ	-6.52449
ཏེ་	-6.54436
▁བཅོམ་ལྡན་འདས་	-6.61645
ལ	-6.6333
▁དེ་	-6.64
▁ཕྱི་ལོ་	-6.64082
་སེམས་དཔའ་ཆེན་པོ	-6.67971
བ་	-6.69792
སྤྱི་ནོར་གོང་ས་	-6.70985
སངས་རྒྱས་	-6.71622
པར་	-6.74931
ཆོས་	-6.76314
ཐོག་	-6.77841
སོགས་	-6.78685
སྟེ་	-6.80741
དེ་བཞིན་གཤེགས་པ	-6.85136
དེ་བཞིན་གཤེགས་པ་	-6.86621
གང་	-6.89346
དག་པར་རྫོགས་པའི་	-6.90199
གནས་	-6.91792
སྒྲིག་འཛུགས་ཀྱི་	-6.92528
བར་	-6.92779
ཕ་རོལ་ཏུ་ཕྱིན་པ་	-6.93507
གིས་	-6.94052
འཇིག་རྟེན་	-6.94592
སུ་	-6.96049
ཞིག་	-6.97562
སྐབས་	-6.98129
ཞིང་	-6.98574
བོད་ཀྱི་	-6.99348
ས	-6.99405
རྒྱ་ནག་གཞུང་གིས་	-7.00149
དག་	-7.01883
དེའི་	-7.05517
ཐམས་ཅད་	-7.06095
ཆེན་པོ་	-7.06628
རྒྱ་གར་	-7.07463
དེས་	-7.0768
གྱིས་	-7.08151
བྱེད་	-7.10136
་དང་	-7.11927
པ	-7.12262
ཞེས་	-7.16343
མཆོག་	-7.19617
མ	-7.20037
དེ་ནི་	-7.20141
བཅས་	-7.2165
ཧ་ཅང་	-7.24615
བོད་	-7.25843
▁དེ་ཡང་	-7.26769
དེར་	-7.27822
ར	-7.27916
ཤིང་	-7.28564
གནང་	-7.29307
པས་	-7.29796
འདུག	-7.30025
ང་	-7.31476
ཕྱི་ལོ་	-7.3157
སེམས་	-7.31776
བྱས་ནས་	-7.3203
པ་དང་	-7.32855
ཡོངས་སུ་	-7.32982
ཤིན་ཏུ་	-7.33051
རྒྱུ་	-7.33119
▁བོད་མིའི་	-7.3346
མཆོག་གིས་	-7.33542
བྱུང་	-7.33718
▁དེར་བརྟེན་	-7.34024
བའི་	-7.34066
ག	-7.34075
▁དེ་བཞིན་དུ་	-7.34744
པ་དང་་	-7.35618
གཉིས་	-7.3641
རྒྱལ་སྤྱིའི་	-7.37207
དཔལ་ལྡན་སྲིད་	-7.37837
བྱང་ཆུབ་	-7.38838
ངས་	-7.39553
རབ་ཏུ་	-7.39751
སངས་རྒྱས་ཀྱི་	-7.4032
རྗེས་	-7.4032
བདག་	-7.41101
ཇི་ལྟར་	-7.4165
ན	-7.4184
དེ་ལྟར་	-7.43708
ཐོག་ནས་	-7.44386
་དང་་	-7.44394
གྲོས་ཚོགས་	-7.45361
ཆེན་པོ་མཆོག་གིས་	-7.46747
གསུང་བཤད་གནང་	-7.46797
རྣམས་ལ་	-7.47236
སེམས་ཅན་	-7.4806
མང་པོ་	-7.49331
དེ་ལ་	-7.49839
བླ་ན་མེད་པ་ཡང་	-7.50207
ཆེད་	-7.50208
དེ་བཞིན་	-7.52957
གཅིག་	-7.53416
ཅིང་	-7.53664
རྣམས་ཀྱིས་	-7.54912
▁འོན་ཀྱང་	-7.55472
ལྟར་	-7.56264
འམ་	-7.56872
ང་ཚོས་	-7.57841
ཚོགས་	-7.57949
འདི་ནི་	-7.57962
སྐོར་	-7.59992
ཞུ་རྒྱུ་ཡིན	-7.60356
ཆོས་ཀྱི་	-7.60443
ཡིན	-7.60491
ཤེས་པ་	-7.60555
དུས་	-7.6089
▁ལྷག་པར་	-7.60978
འདིར་	-7.61961
གཞན་	-7.62652
བོད་མི་	-7.63191
སྡུག་བསྔལ་	-7.63797
ི་	-7.63921
སོ་་	-7.63935
▁ཤ་ར་དྭ་ཏིའི་བུ་	-7.64468
མེད་	-7.64597
རྣམ་པར་	-7.64954
ལོ་	-7.65223
▁སྐབས་དེར་	-7.65496
འགྲོ་བ་མིའི་ཐོབ་	-7.6593
འཛམ་གླིང་	-7.66218
རྣམས་ཀྱི་	-7.66602
སྐུ་ཚབ་དོན་གཅོད་	-7.66605
མཁན་	-7.66632
དང་འབྲེལ་བའི་	-7.66651
རིགས་	-7.67459
ལུས་	-7.68061
▁བཙུན་པ་	-7.68802
བཅོམ་ལྡན་འདས་ཀྱི	-7.68847
འཕྲོད་བསྟེན་	-7.69248
བཞིན་	-7.69256
དོན་	-7.69263
▁གཞན་ཡང་	-7.69585
ཡུལ་	-7.69738
▁རིགས་ཀྱི་བུ་	-7.69909
ལགས་ཀྱིས་	-7.70253
ཡོད་པ་དང་	-7.7035
བཞིན་ཡོད	-7.70442
འ	-7.70791
ཁྱོད་	-7.70794
འོ་་	-7.70801
བརྒྱུད་	-7.71411
ཆོས་ལུགས་	-7.71711
དེ་བཞིན་དུ་	-7.71863
སྲིད་བྱུས་	-7.72367
འདི་ལྟ་སྟེ་	-7.72437
ཡོད་པ་	-7.74547
▁དེ་ལ་	-7.75184
ལམ་	-7.76031
རྒྱབ་སྐྱོར་	-7.7643
ད་	-7.76474
ཕྱིར་	-7.76665
མུ་མཐུད་	-7.76725
གནས་སྟངས་	-7.77302
སྒྲིག་འཛུགས་	-7.78186
གཙོ་བོ་	-7.78465
ཡོད་པའི་	-7.79146
པོ་	-7.79384
ཏུ་	-7.79906
དབུ་ཁྲིད་	-7.79921
གཟུགས་	-7.80031
ཤེས་རབ་ཀྱི་	-7.80094
▁དེ་རྗེས་	-7.80166
ཆེན་པོ་མཆོག་	-7.8044
་དགྲ་བཅོམ་པ་ཡང་	-7.80912
ད	-7.80949
བཞིན་དུ་	-7.81236
རྒྱ་གར་གྱི་	-7.81276
མེད་པ་	-7.81536
ཐོག་མར་	-7.81551
ལགས་	-7.81824
རྒྱལ་པོ་	-7.82632
གནང་ཡོད	-7.83337
བཀའ་བློན་	-7.83392
ལ་འདི་སྐད་ཅེས་	-7.83491
བསོད་ནམས་	-7.83904
གསུམ་	-7.83998
དེ་བཞིན་གཤེགས་པས	-7.8401
འགྲོ་	-7.85108
ཕྱོགས་	-7.85802
བྱས་	-7.86957
དམིགས་བསལ་	-7.87835
རྒྱལ་ཁབ་	-7.8849
བྱ་	-7.89385
བདག་གིས་	-7.89457
ཞེས་བྱ་བ་	-7.89469
ཨ་རིའི་	-7.89826
▁དེས་	-7.89857
ཐོབ་	-7.89951
ཅན་	-7.90533
དགོས་པའི་	-7.9072
▁སངས་རྒྱས་	-7.90886
ཡིན་ནོ་་	-7.90895
ཡེ་ཤེས་	-7.91236
དགོས	-7.91527
དེ་ཡང་	-7.91666
མེད	-7.92017
གནས་ཚུལ་	-7.92454
ཡང་དག་པར་	-7.93342
▁དེ་ནི་	-7.93486
དང་་་	-7.93495
འཛིན་	-7.93516
ལ་བརྟེན་ནས་	-7.9452
ཤེས་	-7.9527
ཚེ་	-7.95325
ཅི་	-7.95345
སོང་	-7.95402
བླ་ན་མེད་པའི་	-7.95403
ནི	-7.95518
བོད་ནང་	-7.9565
▁དེ་དག་	-7.95817
ཚེ་དང་ལྡན་པ་	-7.96255
གྱི་ཁམས་	-7.9628
བས་	-7.96423
ང་ཚོ་	-7.96796
གསུང་	-7.97207
བཙན་བྱོལ་བོད་མི	-7.97367
དགེ་སློང་	-7.97642
ཁ་	-7.97765
ཆེན་པོ་མཆོག་གི་	-7.98086
ཆགས་	-7.98096
སྨྲས་པ་	-7.98942
ཁག་	-7.99241
ར་འགྱུར་རོ་་	-7.9964
བོད་དོན་	-7.99914
སྤྱི་ཚོགས་	-7.99965
རིང་	-8.00271
སྐུ་	-8.01827
གྲངས་	-8.01856
བསྟན་འཛིན་	-8.01904
ཀུན་	-8.01933
▁རབ་འབྱོར་	-8.02004
བཤད་	-8.02072
མཛད་	-8.02117
▁གལ་ཏེ་	-8.02401
དཔལ་འབྱོར་	-8.02404
དེ་དག་གིས་	-8.02519
སྐུ་ཞབས་	-8.02908
བོད་དོན་རྒྱབ་	-8.03197
ས་གནས་	-8.0331
སེམས་ཅན་ཐམས་ཅད་	-8.0348
ཀྱིས་བཀའ་སྩལ་པ་	-8.03582
ལྷ་	-8.03689
རང་གི་	-8.03774
ཆགས་ཡོད	-8.03889
འདི་ལྟར་	-8.04098
ག་	-8.04123
བུད་མེད་	-8.04631
མ་ཡིན་	-8.04792
ཚིག་	-8.04988
རང་	-8.05158
བྱས་ཏེ་	-8.05229
སོ་སོའི་	-8.05624
ལྟ་བུ་	-8.05958
གྲོང་ཁྱེར་	-8.06007
སླད་	-8.06173
མེད་པར་	-8.0632
▁ཕྱོགས་མཚུངས་	-8.06532
གཞུང་འབྲེལ་	-8.06637
དཔལ་ལྡན་	-8.06789
བཞི་	-8.06878
ཞེས་པའི་	-8.06952
ངོས་ཀྱིས་	-8.07902
འགན་འཛིན་	-8.08098
བུ་	-8.08145
ཤིག་	-8.08195
ཞུ་	-8.08563
རྟག་ཏུ་	-8.08598
མོ་	-8.08783
ཡིན་	-8.08788
ཤེས་ཡོན་	-8.08888
▁དེའི་ཚེ་	-8.09201
▁དགེ་སློང་དག་	-8.09764
ལའང་	-8.09985
རྒྱུ་དང་	-8.10637
ཙམ་	-8.10859
ཁྱོད་ཀྱིས་	-8.10905
ཕེབས་	-8.11601
དཀའ་ངལ་	-8.11659
རབ་	-8.11723
དང་ལྡན་པ་	-8.12338
▁བོད་ཀྱི་	-8.12989
སྐྱོང་མཆོག་གིས་	-8.1368
སྐུ་མགྲོན་གཙོ་བོ	-8.13723
ཆུ་	-8.13737
དག་གིས་	-8.13809
ཐབས་	-8.14106
ཅིག་	-8.14172
རྒྱ་ནག་	-8.14591
ལས་ཁུངས་ཀྱི་	-8.14816
ལས་དོན་	-8.14919
དེ་འདྲ་	-8.15457
བྱང་ཆུབ་སེམས་དཔ	-8.15525
ཡི་	-8.15601
རྒྱ་ནག་གི་	-8.15715
བོད་མི་མང་སྤྱི	-8.15751
བསྟན་པ་	-8.15937
མེད་པའི་	-8.16032
བཅོམ་ལྡན་འདས་ལ་	-8.1653
མང་པོ་ཞིག་	-8.16532
ཏེ	-8.16532
ལས་བྱེད་	-8.17411
ཐ	-8.17427
རིག་གཞུང་	-8.17892
སློབ་ཕྲུག་	-8.17903
རིན་པོ་ཆེ་	-8.18021
བཞུགས་	-8.18129
ེ་	-8.18224
འོག་	-8.18265
བོད་རིགས་	-8.18891
གསོལ་ཏོ་་	-8.19067
ལགས	-8.19767
ང་ཚོའི་	-8.19919
མཐོང་	-8.20039
▁སྤྱི་ནོར་གོང་ས་	-8.20269
རྒྱུའི་	-8.20688
བ་དང་	-8.20714
▁སེམས་ཅན་	-8.20767
ཡོང་	-8.20904
བྱེད་བཞིན་ཡོད	-8.20947
བསམ་གྱིས་མི་ཁྱབ་	-8.21249
པའོ་་	-8.21379
▁དེའི་	-8.21425
གོང་ས་སྐྱབས་མ	-8.21587
བློ་	-8.21655
ཐུགས་	-8.21884
སྤྱི་འཐུས་	-8.22386
སྣ་ཚོགས་	-8.22987
མཆོག་དང་	-8.23143
འཁོར་	-8.23337
དབང་	-8.2347
རབ་ཏུ་མཁྱེན་ཏོ་་	-8.23834
འདི་དག་	-8.24446
ཡོད་པ་རེད	-8.24471
འོ་	-8.24644
སོ་	-8.24958
བྱས་པ་	-8.25096
རང་བཞིན་	-8.25535
ཡིན་པ་	-8.25579
སྐྱོང་བློ་བཟང་སེ	-8.25598
མིག་	-8.25841
བྱས་སོ་་	-8.25937
མེ་ཏོག་	-8.25982
▁སྤྱིར་	-8.26155
པ་རེད	-8.26731
དེ་དག་གི་	-8.26779
ས་ནང་འཁོད་དོན	-8.26917
སྟོན་	-8.2698
འདོད་	-8.27373
ཆོས་དང་རིག་གཞུང་	-8.27542
ཆོས་དད་རང་དབང་	-8.2764
མངོན་པར་རྫོགས་པ	-8.27944
བདག་གི་	-8.28341
རྗེས་སུ་	-8.28429
▁དེ་བཞིན་གཤེགས་པ	-8.28601
དགེ་བའི་རྩ་བ་	-8.28754
ཚོར་	-8.29175
ས་གནས་འགོ་འཛིན་	-8.29373
རེ་	-8.29618
▁ང་ཚོས་	-8.29766
མགོན་པོ་གང་ཉིད་	-8.30099
ཡོན་ཏན་	-8.30172
འགྲོ་བ་	-8.30853
ཅིའི་ཕྱིར་ཞེ་ན་	-8.31178
འབྲེལ་ཡོད་	-8.31377
བྱ་བ་	-8.31461
ལྡན་	-8.31556
ཏོག་དབྱིབས་གཉན་	-8.3163
ལགས་སོ་་	-8.31767
སྟོན་པ་	-8.31952
གང་དག་	-8.32147
▁དེ་ལྟར་	-8.32279
ཕན་ཚུན་	-8.3231
དྲུག་	-8.32366
ཀུན་ཏུ་	-8.32478
མཉམ་	-8.32557
བཞིན་དུ་སྦྱར་ཏེ་	-8.32633
་ཇི་ལྟ་བ་བཞིན་	-8.32709
སྤྱོད་པ་	-8.32929
གོ་	-8.33129
ལྔ་	-8.33605
ཉིན་	-8.33752
ལམ་སྟོན་	-8.33783
ཀ་	-8.33805
▁ཞེས་	-8.33972
སྒྲ་	-8.34134
པའམ་	-8.34916
རྣམས་དང་་	-8.35194
གང་ཞེ་ན་	-8.35327
སྐྱེས་	-8.35451
▁ཅེས་	-8.35511
ཡོད་པ་བཅས	-8.35883
རི་	-8.36146
▁དེ་ན་	-8.36157
གཞན་ཡང་	-8.36296
ནས	-8.3656
▁བོད་	-8.36831
་ནི་	-8.36885
བྱུང་བ་	-8.36891
སློབ་སྦྱོང་	-8.36928
སྨོན་ལམ་	-8.36964
▁རྒྱ་གར་	-8.37141
སྲིད་སྐྱོང་མཆོག་	-8.37161
གལ་ཏེ་	-8.37344
ཉིད་	-8.37645
ཆོས་ཐམས་ཅད་	-8.37953
ལེགས་པར་	-8.38346
པར་འགྱུར་རོ་་	-8.3843
འི་ནང་	-8.3881
དེ་དག་ནི་	-8.38812
སྔོན་	-8.38914
ཇི་ལྟར་ན་	-8.38983
ཚོགས་པའི་	-8.39103
མཐུན་འགྱུར་	-8.39123
རྒྱ་གར་ནང་	-8.39172
དེ་དག་ལ་	-8.3918
ཡང་དག་པར་རྫོགས་པ	-8.39279
རྒྱ་རིགས་	-8.39448
སྟོང་	-8.39479
འདི་ལ་	-8.39642
ཡག་པོ་	-8.40036
མས་	-8.40082
ཚང་མས་	-8.40112
རྒྱབ་སྐྱོར་གནང་	-8.40383
མངོན་པར་	-8.40555
ཞེས་བྱའོ་་	-8.40623
འདུ་ཤེས་	-8.40656
ཡིད་	-8.41038
བཏང་	-8.41066
སྨན་	-8.41125
བཀྲ་ཤིས་	-8.41145
ཁང་	-8.41229
སྤྱོད་	-8.41481
མིང་	-8.41528
གཞོན་ནུ་	-8.41537
འགྲོ་བ་མིའི་	-8.41636
བྱེད་དགོས	-8.41731
བཀའ་དྲིན་	-8.42111
▁ཇི་ལྟར་	-8.42444
▁ང་ཚོ་	-8.42447
▁འདི་ནི་	-8.42463
ད་བར་	-8.42488
▁གང་	-8.42552
རབ་ཏུ་མཁྱེན་ཏེ་	-8.42686
ངོས་ནས་	-8.42729
་འཐུས་ལྷན་ཚོགས་	-8.42808
བརྗོད་	-8.42836
བྱེད་པ་	-8.42904
གོན་ཆེན་པོ་མཆོག་	-8.42925
གལ་ཆེན་པོ་རེད	-8.43288
ཇི་སྙམ་དུ་སེམས་	-8.43439
འདོད་པ་	-8.43533
འོད་	-8.43595
འདིས་	-8.44022
དམ་པ་	-8.44098
དགོས་པ་	-8.44145
ཚུལ་ཁྲིམས་	-8.44287
ནང་དུ་	-8.44433
བཀའ་སློབ་སྩལ་དོན	-8.44455
བགྲོ་གླེང་	-8.44508
བཀའ་	-8.44574
ཀ	-8.44598
འདི་སྐད་ཅེས་	-8.44634
སྒོ་	-8.45217
གང་ཡིན་པ་དེ་ནི་	-8.4534
དེ་སྔ་	-8.45355
གཞི་	-8.45429
རིན་པོ་ཆེ་མཆོག་	-8.45547
ཆེན་	-8.45634
▁དེ་རིང་	-8.45811
ལས་འགུལ་	-8.45841
ངེས་པར་	-8.46126
ཁམས་	-8.46477
ྟེན་གཞི་བྱས་པའི་	-8.46665
▁འཇིག་རྟེན་	-8.46926
ཡོད་པ་མ་ཟད	-8.46931
ཡོད་ཀྱང་	-8.47101
རྒྱལ་	-8.47275
རང་དབང་	-8.47399
བཟོ་	-8.47501
བཞིན་པའི་	-8.47512
མེ་	-8.4761
རོ་	-8.47745
ལས་གཞི་	-8.47996
ཏིང་ངེ་འཛིན་	-8.4808
▁འདི་ལྟ་སྟེ་	-8.4809
རྣམ་པ་	-8.48167
བསྟན་	-8.48484
ཆོས་རྣམས་	-8.48637
ནད་	-8.48945
ཡིན་ཏེ་	-8.49002
གང་གིས་	-8.49016
ཡིན་ནའང་	-8.49025
ཚད་	-8.49054
སློབ་དཔོན་	-8.49133
གསལ་	-8.4973
རྒྱ་ནག་གཞུང་གི་	-8.49772
ཟླ་བ་	-8.49783
དབང་པོ་	-8.49873
སྤེལ་	-8.49974
ཤེས་རབ་	-8.50002
ཚོས་	-8.50051
བྱང་ཆུབ་ཏུ་	-8.50109
འི་སངས་རྒྱས་	-8.50248
བོད་པའི་	-8.5026
མཚན་	-8.50262
སྟོབས་	-8.50435
གྲོས་ཚོགས་ཀྱི་	-8.5054
ནོར་	-8.50672
སམ་	-8.50769
སྐྱེ་	-8.50786
འདིའི་	-8.5091
དང	-8.5118
སྟོང་པ་ཉིད་	-8.51387
▁ཁྱིམ་བདག་	-8.52276
་དེ་དག་	-8.52403
ཚོགས་གཙོ་	-8.52404
▁འཇམ་དཔལ་	-8.5247
དཔག་ཏུ་མེད་པ་	-8.52972
བོད་ནང་གི་	-8.53133
ཕུལ་	-8.53142
བརྒྱད་	-8.53224
རྒྱལ་ཡོངས་	-8.53473
དེའི་ཚེ་	-8.53494
སྦྱིན་པ་	-8.53504
སྒྲུབ་	-8.53538
སྟེ་་	-8.53549
ཀུན་གཟིགས་པ	-8.5377
སྨྲས་སོ་་	-8.53915
ཐམས་ཅད་ཀྱི་	-8.53968
ཆབ་སྲིད་ཀྱི་	-8.53996
ཐུབ་	-8.54018
སོགས་ཀྱི་	-8.54107
ངོས་རང་	-8.54118
སློབ་གྲྭའི་	-8.54205
གཟིགས་	-8.54305
ཆོས་བརྒྱུད་	-8.54335
ཁོར་ཡུག་	-8.5514
ཁོང་	-8.55297
མི་གྲངས་	-8.55386
ཚུལ་	-8.55398
འབྱོར་	-8.554
མཆོག	-8.55538
གཉིས་ཀྱི་	-8.55578
དག་ཀྱང་	-8.55672
མི་རིགས་	-8.55677
མར་	-8.55786
ཆེན་པོ་མཆོག་ལ་	-8.56038
དོ་་	-8.56309
ཕལ་ཆེར་	-8.56354
བདག་ཅག་	-8.56368
བདེ་བ་	-8.56655
གསུང་བཤད་གནང་དོན	-8.56835
▁ཚེ་དང་ལྡན་པ་	-8.56944
གསུང་དོན	-8.57189
འགྱུར་བ་	-8.57205
དེ	-8.57363
འདི་ཉིད་	-8.57367
ཕུན་སུམ་ཚོགས་པ་	-8.5738
མྱུར་དུ་	-8.57455
དབུ་མའི་ལམ་གྱི་	-8.57608
ཤུགས་ཆེ་	-8.5771
རིག་པ་	-8.57744
རྣམ་པ་ཐམས་ཅད་	-8.5775
▁མད་གལ་གྱི་བུ་	-8.57755
མཛད་སྒོ་	-8.57864
དཔལ་	-8.57886
བོད་མི་ཚོས་	-8.57968
གཏན་འབེབས་	-8.58366
ལྟ་	-8.58482
སྔ་དྲོ་ཆུ་ཚོད་	-8.5857
བཅས་ཀྱི་	-8.58991
གནང་མཁན་	-8.59039
སྲུང་སྐྱོབ་	-8.59111
བྱེད་ཀྱི་ཡོད	-8.59241
གྲོས་ཚོགས་འཐུས་	-8.59277
དངོས་ཡོད་	-8.59304
ཅེས་	-8.59465
དབུས་	-8.59652
དགེ་འདུན་	-8.59699
སྟེ	-8.59766
བཞེས་	-8.59809
མིན་	-8.59861
བཟང་པོ་	-8.60027
སྐྱེ་བ་	-8.60058
བོད་ཀྱི་སྐད་ཡིག་	-8.60064
ལན་	-8.60263
ཚོགས་པ་	-8.60279
བྱུང་ཡོད	-8.60395
འབུལ་	-8.60644
▁འཚོ་ཞིང་གཞེས་ལ་	-8.6067
སློབ་	-8.60759
ཆུང་	-8.60926
བཀའ་སློབ་སྩལ་	-8.60955
ཕྱི་ཚེས་	-8.61042
ཕ་རོལ་ཏུ་ཕྱིན་པ	-8.61052
དེ་ནས་	-8.61193
འབད་བརྩོན་	-8.61214
པ་མ་ཟད	-8.61366
བྱས་པའི་	-8.61367
དག་ལ་	-8.61475
བརྩོན་འགྲུས་	-8.61593
མཆོད་	-8.61747
གས་	-8.61794
དྲན་	-8.61834
བར་དུ་	-8.61972
གསལ་བསྒྲགས་	-8.62411
བ་དང་་	-8.62452
མངོན་སུམ་དུ་	-8.62499
ཤ་	-8.62534
མང་གཙོའི་	-8.6268
རྒྱུར་	-8.62699
འབྲེལ་བ་	-8.62742
མེད་ཅིང་	-8.6289
ལགས་དང་	-8.62963
རེད་འདུག	-8.63
ལྷན་ཚོགས་ཀྱི་	-8.63212
སྤྱི་ཁྱབ་	-8.63256
རྒྱལ་པོའི་	-8.6333
ཚོགས་འདུ་	-8.63453
སློབ་གྲྭ་	-8.63559
ལ་སོགས་པ་	-8.63608
ལོ་རྒྱུས་	-8.63672
སྐུ་ཚབ་	-8.63706
གནང་འདུག	-8.63794
ངྒེ་མཆོག་གིས་	-8.63878
སྐྱོན་	-8.63932
དགའ་	-8.6395
བཀའ་སློབ་	-8.64046
ཇི་ཙམ་	-8.6409
ཆོས་ཀྱང་སྟོན་ཏེ་	-8.64113
རྐྱེན་	-8.64275
ཚང་མ་	-8.64479
མངའ་སྡེའི་	-8.64491
གང་ཡང་	-8.64542
ད་ལྟ་	-8.64544
ལྷའི་	-8.64566
གནད་དོན་	-8.64585
ནུས་པ་	-8.64624
▁ཕྱི་ཚེས་	-8.64788
▁ད་ཆ་	-8.64793
▁ཀུན་དགའ་བོ་	-8.64821
ཐོན་	-8.64843
དེ་དག་ཐམས་ཅད་	-8.6493
རྒྱ་	-8.65196
རུ་	-8.65382
ཤ	-8.65391
མིའི་	-8.65399
སོ་སོར་	-8.65415
བྱེ་བ་ཁྲག་ཁྲིག་	-8.65554
ལག་བསྟར་	-8.65615
བློ་གྲོས་	-8.65755
སྤྱི་ཚོགས་ནང་	-8.65773
ལ་ཡང་	-8.6581
ཕྱག་	-8.65865
▁འདི་གར་	-8.65982
ཡར་རྒྱས་	-8.65992
ཆ་	-8.66063
མཆོག་གི་	-8.6649
ཆེ་	-8.66516
རྣམས་ཀྱང་	-8.66815
ཨ་	-8.66836
སྤྱི་མཐུན་ཚོགས་པ	-8.66997
ཕྱི་	-8.67093
ཐད་	-8.671
ཅན་གྱི་	-8.67203
དེ་རིང་	-8.67218
ལེགས་	-8.67251
སྐུ་མགྲོན་	-8.67397
མཐའ་	-8.67755
གོས་	-8.67828
འབྲས་བུ་	-8.67841
ལ་མཚོན་ན་	-8.67974
ཐོབ་ཐང་	-8.68324
ཐུགས་རྗེ་ཆེ་ཞུ	-8.68377
ཡོངས་རྫོགས་	-8.68454
ཤེས་པ་ཡང་དག་པ	-8.68472
ད་ཆ་	-8.68526
ཕྱི་ཟླ་	-8.68572
གཏོང་	-8.68704
དག་ནི་	-8.68886
མཚམས་	-8.69085
ཕུང་པོ་	-8.69121
ལྟ་བ་	-8.6932
▁ངོས་ཀྱིས་	-8.69322
རྒྱུད་	-8.69794
ཡུ་རོབ་	-8.69947
ལས་རིམ་	-8.7005
ཤེས་རིག་ལས་ཁུངས་	-8.70102
ཟླ་	-8.70221
ཞུས་	-8.70397
ལག་	-8.70453
མི་མང་	-8.70678
ཚིགས་སུ་བཅད་པ་	-8.70683
ནམ་	-8.70693
ངོ་སྤྲོད་	-8.70889
བྱེད་མཁན་	-8.70929
དམ་བསྒྲགས་	-8.70979
འཛིན་སྐྱོང་	-8.71192
▁ཇི་ལྟར་ན་	-8.71426
སྐབས	-8.71475
སྐད་	-8.71572
གྲུབ་	-8.71594
ར་གྱུར་པ་	-8.71624
སྦྱིན་	-8.71784
ཡིན་ནོ་	-8.71983
བསམ་པ་	-8.72105
གཞུང་	-8.72316
མང་	-8.72389
ལྷན་ཚོགས་	-8.72595
རབ་ཏུ་བྱུང་ནས་	-8.72648
དངོས་གྲུབ་	-8.73048
▁བཅོམ་ལྡན་འདས་དེ	-8.73058
འཇོག་	-8.73108
སྐབས་དེར་	-8.73241
བདག་ལ་	-8.73408
བཞུགས་སྒར་	-8.7353
ཀུན་ནས་ཉོན་མོངས་	-8.73545
བདུན་	-8.73646
ཞི་	-8.73676
གོང་	-8.73742
ཡང་དག་	-8.73752
སྤྱི་ནོར་ས་མགོན་	-8.73839
ན་འཇིག་རྟེན་	-8.73992
འི་ཕྱིར་	-8.74002
བྲམ་ཟེ་	-8.74497
▁ཆོས་	-8.74718
ཞུ་བཞིན་ཡོད	-8.74749
འཇུག་	-8.74856
དགོས་པ་དང་	-8.75027
ཆེན་པོས་	-8.75028
▁འདི་ལྟར་	-8.75124
ནང་གི་	-8.75156
རིན་ཆེན་	-8.75184
པར་གྱུར་ཏོ་་	-8.75202
སྐད་ཡིག་	-8.75427
དེ་ཉིད་	-8.75773
ཟབ་སྦྱོང་	-8.75786
འཇིག་རྟེན་གྱི་ཁ	-8.75801
མེད་དོ་་	-8.75845
འཚམས་འདྲི་	-8.75851
རྒྱུ	-8.76
་མཆོག་གིས་	-8.76065
འབྱུང་	-8.7614
སྙམ་དུ་སེམས་ཏེ་	-8.76595
མཁྱེན་པ་ཉིད་	-8.76794
འཛམ་གླིང་ནང་	-8.76817
གནས་པ་	-8.76951
དོ་	-8.76965
མཐོང་ནས་	-8.77023
བཀའ་བློན་མཆོག་	-8.77246
གཟའ་མིག་དམར	-8.77308
མཁས་པ་	-8.77325
་པ་མ་ཟད	-8.77445
ལེན་	-8.77503
གྱུར་	-8.77587
བདེ་	-8.77678
དྲི་	-8.77783
ནི་་	-8.77892
▁ངས་	-8.77951
ཁེ་ན་	-8.7796
ནང་ཆོས་	-8.77993
རྣམ་གྲངས་འདི་	-8.78015
དྲུང་ཆེ་	-8.78202
▁དཔེར་ན་	-8.78209
སྣང་བ་	-8.78285
དགོས་	-8.78294
མཉམ་འབྲེལ་	-8.78402
རྣམ་	-8.7844
གཞོན་སྐྱེས་	-8.7844
དང་འབྲེལ་	-8.79162
མཐུན་རྐྱེན་	-8.79165
དབུ་འབྱེད་	-8.7929
རྣམས་ནི་	-8.79371
ལས་ཁུངས་	-8.79409
▁གཞོན་ནུ་	-8.79426
ཁོང་གིས་	-8.79447
འཇིག་རྟེན་དུ་	-8.79568
་རྣམས་ཀྱི་	-8.79616
འདབ་ཆགས་	-8.79624
དུ	-8.79723
ལ་ཕྱག་འཚལ་ལོ་་	-8.80115
ཁྱིམ་	-8.8017
གྲུབ་མཚམས་	-8.80347
རིན་པོ་ཆེའི་	-8.80457
▁བདག་	-8.80458
རྒྱ་ནག་གཞུང་ལ་	-8.80622
དྲང་སྲོང་	-8.80643
དབང་ཕྱུག་	-8.80709
ངོས་འཛིན་	-8.80831
དགེ་རྒན་	-8.80842
སྙིང་པོ་	-8.81386
འགྱུར་	-8.81491
སྤྱི་	-8.81521
ཡང་དག་པ་ཇི་ལྟ་བ་	-8.8162
▁དགེ་སློང་	-8.81625
▁གང་ལྟར་	-8.81647
འཕགས་པ་	-8.81716
བོད་ཀྱི་གནད་དོན་	-8.81854
ཆེན་པོའི་	-8.81907
བྱ་རྒྱུ་	-8.81952
བློན་ཆེན་	-8.82237
ཁྲི་	-8.82495
ཁྱད་པར་	-8.826
མ་གཏོགས་	-8.82638
ནས་ཀྱང་	-8.82651
ངའི་	-8.82832
རྣམ་པར་ཤེས་པ་	-8.82856
གནང་བ་དང་	-8.82928
འགྱུར་་	-8.82981
ཉོན་མོངས་པ	-8.8324
བསམ་གཏན་	-8.83298
ཡིས་	-8.83388
དག་གི་	-8.8339
དེང་སྐབས་	-8.83638
མཐར་	-8.83831
ཞེས་བྱ་བ་ཡོད་དེ་	-8.83868
བསྐྱེད་	-8.84056
འཐུས་མི་	-8.84218
རྡོ་རྗེ་	-8.84221
བོད་དོན་ཐོག་	-8.84235
ཆེས་	-8.84283
ངེས་པར་དུ་	-8.84433
ཚ	-8.84473
འང་	-8.84594
གནང་བའི་	-8.8466
ཆབ་སྲིད་	-8.84686
དེ་ལྟར་ན་	-8.84851
རྒྱལ་བ་	-8.85006
འདུགདེ་ཡང་	-8.85039
རིག་	-8.85068
ནམ་ཡང་	-8.85292
དང་སྦྲགས་	-8.85312
▁དེའི་ཡང་	-8.85392
▁ངོས་རང་	-8.85537
▁བདག་གིས་	-8.85538
དེ་ལྟ་བས་ན་	-8.85596
▁ཅེས་གསུངས	-8.85624
་དང་་འདུ་ཤེས་དང་	-8.85721
ཞུགས་	-8.85723
ཐོས་ནས་	-8.85824
སླར་ཡང་	-8.85844
ལས་ཁུངས་ནས་	-8.8593
བརྒྱ་ཆ་	-8.86286
ཡིན་ཞིང་	-8.86336
དང་ལྷན་	-8.86468
ཐང་	-8.86573
བུ་མོ་	-8.86623
དར་	-8.86644
ཡོངས་སུ་སྨིན་པར་	-8.86676
རང་བཞིན་གྱིས་	-8.86738
ཆེད་དུ་	-8.86785
བྱས་ཡོད	-8.86846
ལ་ནི་	-8.86877
དགྲ་བཅོམ་པ་ཉིད་	-8.86898
ཞལ་	-8.86905
བོད་མི་ཚོར་	-8.86965
བསམ་	-8.87095
གཞིས་ཆགས་	-8.87254
ལོངས་སྤྱོད་	-8.87263
ཞེས་བྱ་བའི་	-8.87379
བདེ་སྐྱིད་	-8.8743
པའི་ཕྱིར་	-8.87461
གདུང་སེམས་མཉམ་	-8.87531
མཛད་སྒོའི་ཐོག་	-8.87602
དང་པོ་	-8.87683
སྐྱོར་ཚོགས་པའི་	-8.87762
རྩ་	-8.87876
སྤྱི་མཐུན་	-8.87886
བཞག་	-8.87996
དེ་ལྟ་བུ་	-8.88
འཛམ་གླིང་གི་	-8.8806
གཟེངས་རྟགས་	-8.88251
གསུངས་	-8.88263
མགོ་	-8.88516
དབར་	-8.88574
རྟེན་	-8.88608
སྐྱེད་	-8.88647
བྲམ་ཟེའི་ཁྱེའུ་	-8.88731
ཤེས་པ་འགོག་པ་	-8.88861
ལྷག་	-8.89079
ཀུན་འབྱུང་བ་	-8.89086
གང་ཟག་	-8.89307
▁དེང་སྐབས་	-8.89375
བསྔགས་བརྗོད་	-8.89407
བཅུ་	-8.89513
འདོན་	-8.89593
དེ་དག་ཀྱང་	-8.89856
སེམས་ཅན་རྣམས་	-8.89878
་རྣམས་	-8.9053
ཡིན་པ་དང་	-8.90535
བོད་མི་རྣམས་	-8.90572
འབུམ་	-8.90768
ར་གྱུར་ཏོ་་	-8.90873
འཁོད་	-8.90914
ཧ	-8.90988
གླིང་	-8.9104
ཟས་	-8.91047
དགོན་པ་	-8.91055
སྟེང་	-8.91075
གནང་སྟེ་	-8.91075
མྱོང་	-8.91098
ཆ་ཚང་	-8.91207
ལྔ་དང་ལྔ་བཅུའི་	-8.91251
འབྱུང་བ་	-8.91506
ལས་འཆར་	-8.9151
ལྟ་བུར་	-8.91548
བྱ་རྒྱུའི་	-8.91605
བྱང་ཆུབ་ཀྱི་	-8.91634
སྲོག་ཆགས་	-8.91652
ཐེངས་འདིར་	-8.91678
གྲོས་ཆོད་	-8.91751
ཉེ་བར་	-8.91969
ཡིན་་	-8.92163
རྒྱལ་ཚོགས་ཀྱི་	-8.92175
▁འཛམ་གླིང་	-8.92175
ཚོར་བ་	-8.92199
ཧི་མ་ཅལ་མངའ་སྡེ	-8.92305
འཐུས་མི་སྐུ་ཞབས་	-8.92355
དང་ལྡན་པའི་	-8.92364
མེད་་	-8.9238
ཐམས་ཅད་ཀྱང་	-8.92688
ཟེར་བ་	-8.92722
ང་ཚོར་	-8.93029
བསམ་བློ་	-8.93067
གསར་པ་	-8.93209
ཡ་	-8.93294
དུས་ཚོད་	-8.93455
ཡི་གེ་	-8.93556
སེམས་ཅན་རྣམས་ལ་	-8.93717
རིམས་	-8.93727
མི་འདྲ་བ་	-8.93917
ཕ་	-8.93924
ཁྲིམས་	-8.93955
ཕྲན་བུ་	-8.94414
ཙམ་མ་ཟད	-8.94422
ཞབས་	-8.94688
མ་ཡིན་ནོ་་	-8.94797
ས་བྱང་ཆུབ་སེམས་	-8.94801
▁གང་དག་	-8.94829
རིམ་བཞིན་	-8.94861
དམ་	-8.94919
དཔའ་རྒྱལ་ཚབ་	-8.94979
ཤེས་པ་འགོག་པར་འག	-8.94998
ཡིད་ཆེས་	-8.95065
སློབ་མ་	-8.9511
འདོད་ཆགས་	-8.95358
སྲིད་སྐྱོང་བློ་	-8.95421
དད་པ་	-8.95455
ཡོད་སྟབས	-8.95567
སྔོན་བྱུང་བ་	-8.95938
▁སངས་རྒྱས་ཀྱི་	-8.95962
བཟང་	-8.96094
རྒྱུ་མཚན་	-8.96137
འདྲ་	-8.96148
རྒྱུའི་གོ་སྐབས་	-8.96279
ཧ་ཅང་གལ་ཆེན་པོ་	-8.96318
ཆེས་མཐོའི་	-8.96399
གྲོས་ཚོགས་ནང་	-8.96433
གྲུབ་འབྲས་	-8.96457
ྱུར་བའི་ལམ་ཤེས་པ	-8.96552
བཟོད་པ་	-8.96642
འགོ་ཁྲིད་	-8.96645
བསྐལ་པ་	-8.96847
གསུམ་གྱི་	-8.96897
མཐུན་སྒྲིལ་	-8.97028
ཆོས་རིག་ལས་ཁུངས་	-8.97129
ལྟ་གྲུབ་	-8.97167
གོང་ཚེས་ཉིན་གྱི་	-8.97199
བདག་ནི་	-8.97324
བཀྲ་ཤིས་བདེ་ལེགས	-8.97341
དྲན་པ་ཉེ་བར་གཞག་	-8.97479
དཔེ་	-8.9752
རྒྱལ་བའི་	-8.97663
ཞེས་བྱ་བ	-8.97782
དགེ་བ་	-8.97893
བཀའ་སྩལ་ཏོ་་	-8.97917
སྲིད་སྐྱོང་	-8.97954
ངེས་	-8.9797
འབོད་སྐུལ་	-8.98022
ཁྱབ་ཁོངས་	-8.9809
སྐྱེས་པ་	-8.98119
▁དེར་	-8.98148
སྙིང་རྗེ་	-8.98317
མ་མཆིས་	-8.98417
མ་རེད	-8.98503
བདག་ཉིད་	-8.98532
ང	-8.98584
དག	-8.98622
ལྷོ་ཕྱོགས་	-8.98627
མཆོག་ལ་	-8.9867
ཁྱོད་ཀྱི་	-8.98688
མཛད་སྒོར་	-8.98736
དངོས་སུ་	-8.98739
མཐོང་ངོ་་་	-8.98779
སེམས་ཅན་དམྱལ་བ་	-8.98856
རྒྱལ་ཁབ་ཀྱི་	-8.9907
བཀོད་པ་	-8.99094
འཕགས་པའི་	-8.99166
མེད་པ་དང་་	-8.99184
སྲིད་འཛིན་	-8.9925
ངང་	-8.99255
འདུག་གོ་་	-8.99295
གཟའ་ཕུར་བུ	-8.99606
ག་ལ་བ་དེར་	-8.99644
སྦྱིན་པའི་	-8.99662
བཙན་བྱོལ་དུ་	-8.99841
མའི་	-8.99961
ཁྱིམ་བདག་	-9.00013
བསམ་བློ་གཏོང་	-9.002
སྲོལ་རྒྱུན་	-9.00257
▁ཨ་རིའི་	-9.00258
དཀའ་ངལ་འཕྲད་	-9.00277
ཤེས་པ་དང་་	-9.00368
ཤ་ར་དྭ་ཏིའི་བུ་	-9.00404
ལ་དྭགས་	-9.00434
གནས་པའི་	-9.00581
པར་བྱེད་དོ་་	-9.00599
ཐུབ་པ་བྱུང་ཡོད	-9.00762
རྒྱ	-9.00802
ཡར་	-9.00975
ད་ལྟའི་	-9.00997
ཐུགས་རྗེ་ཆེ་	-9.0102
ལས་འགན་	-9.01054
▁བོད་མི་	-9.01112
ཐོས་	-9.01146
ཡོངས་སུ་རྫོགས་པ	-9.01276
དངོས་	-9.01283
དམིགས་ཡུལ་	-9.01303
དྲིལ་བསྒྲགས་	-9.0138
མཁན་པོ་	-9.01413
དཔེར་ན་	-9.01475
ས་གནས་སུ་	-9.01667
བྱུང་བ་རེད	-9.01675
སྲུང་	-9.01951
▁རྒྱལ་སྤྱིའི་	-9.02031
ཉམས་	-9.0207
སྟོང་པ་ཉིད་དང་་	-9.02151
རྒྱུན་	-9.02155
ནང་སྲིད་ལས་ཁུངས་	-9.02213
བྱིས་པ་	-9.02289
རྫོགས་	-9.02362
ཡང་་་	-9.02398
གོ་སྒྲིག་	-9.02423
ཟ	-9.02739
དགེ་	-9.02779
སྤོབས་པ་	-9.02815
འདུགསྐབས་དེར་	-9.02833
སླེབས་	-9.02861
སློབ་གཉེར་	-9.02873
གསོལ་པ་	-9.02926
ཁྱབ་	-9.02975
མི	-9.02982
་དེ་ནི་	-9.03135
ཁག་གཅིག་	-9.03152
མཛད་པ་	-9.03161
འཁོར་བ་	-9.03356
འཛིན་པ་	-9.0336
དགའ་བ་	-9.03435
རྟོགས་	-9.03458
འཐབ་རྩོད་	-9.0355
ང་་རྣམ་པར་ཤེས་པ་	-9.03553
སྔོན་གྱི་	-9.03632
་འདུ་བྱེད་རྣམས་ད	-9.03707
བཀོད་	-9.03775
རྙེད་	-9.03794
དེ་ཡི་	-9.03849
ཕྱིན་	-9.03913
གོ་་	-9.04145
བཟང་སེངྒེ་མཆོག་	-9.04237
ཉོན་མོངས་	-9.04243
ངན་	-9.04258
ལམ་ལུགས་	-9.04421
ཁྲོད་	-9.04423
རང་ཉིད་	-9.04464
སར་	-9.04522
གཙུག་ལག་	-9.04581
ངོ་རྒོལ་	-9.04659
མཆོག་ཏུ་	-9.04707
འབྲེལ་	-9.0475
་ཤེས་རབ་ཀྱི་	-9.04833
བླ་མ་	-9.0484
་དེ་	-9.04864
བརྒྱུད་ནང་བསྟན་	-9.05069
ལས་འགུལ་སྤེལ་	-9.05361
ཆགས་ཀྱི་ཡོད	-9.05463
བསྟེན་	-9.0547
སྦྱོར་	-9.05505
དེའི་ནང་	-9.05509
གང་དུ་	-9.05618
▁ད་ལྟ་	-9.05619
ཕན་ཐོགས་	-9.05786
མཐོང་བ་	-9.05829
མདུན་དུ་	-9.05841
ཉི་མ་	-9.05973
ལ་བཀའ་སྩལ་པ་	-9.05995
▁དེ་དག་གིས་	-9.06026
སྤྱན་རས་གཟིགས་	-9.06103
ཏོ་་	-9.0614
ཕན་	-9.06222
ཉམས་ལེན་	-9.06223
ཤེས་རིག་	-9.06301
གཞིར་བཟུང་	-9.06642
རིགས་ཀྱི་བུ་མོ་	-9.06703
བྱམས་བརྩེ་	-9.07055
འདི་ལྟ་བུ་	-9.07068
སོགས་ལ་	-9.07178
དཀར་	-9.0723
བྱུང་སྟེ་	-9.07234
རླབས་ཆེན་གྱི་	-9.07261
▁མི་	-9.07531
▁ཅེས་སོགས་ཀྱི་	-9.07612
རྗེས	-9.07799
ཁོང་གི་	-9.07883
ས་ཁུངས་ནས་བཏང་གན	-9.07913
ཁྱེད་	-9.07957
ས་ཁུལ་	-9.0798
ཞིབ་འཇུག་	-9.07989
སྙམ་མོ་་	-9.08048
སྙོམས་པར་འཇུག་པ་	-9.08108
བཅས་ལ་	-9.0822
མ་སྐུ་	-9.0824
བ་ཏུ་མཁྱེན་ཅེ་ན་	-9.08252
སྡེ་	-9.08395
་ཇི་ལྟ་བ་བཞིན་ར	-9.08473
ཕྱི་རྒྱལ་	-9.08582
ལོ་ངོ་	-9.08603
བསམས་པ་	-9.08624
▁ཕྱི་ལོ་གཟའ་ཟླ་བ	-9.08682
གཏམ་	-9.08798
བྱེད་རྒྱུ་	-9.08802
སེལ་	-9.08919
ཟིན་	-9.08969
རིགས་ཀྱི་བུ་	-9.08972
ཚང་མར་	-9.09058
བསམ་ཚུལ་	-9.09069
བརྟག་དཔྱད་	-9.09088
བཞུགས་ཏེ་	-9.09106
རྩ་བ་ནས་	-9.09123
འོད་ཟེར་	-9.09263
གཞན་གྱི་	-9.09282
ཉོན་མོངས་པ་	-9.09359
▁ཁྱིམ་བདག་འདི་ལ་	-9.09382
ཐམས་ཅད་ཀྱིས་	-9.09393
བ་མ་ཟད	-9.09475
སོགས་ཀྱི་སྐོར་	-9.09577
སེ	-9.09601
ནས་བཏང་གན	-9.09657
ཡང་ཞུ་བ་ཞུས་པ་ན་	-9.09703
ན་ཡང་	-9.09759
གསེར་	-9.09844
སུ	-9.10026
▁ཕྱི་ལོ་ཚེས་	-9.1003
རིམ་པ་	-9.10056
པའི་ཐོག་ནས་	-9.10084
ཚེ་དེའི་དུས་ན་	-9.10092
ཀུན་དགའ་བོ་	-9.1018
རྫུ་འཕྲུལ་	-9.10324
▁ཐེངས་འདིར་	-9.10345
ཐོབ་པ་	-9.10346
ཁོ་ན་	-9.10372
▁ཞེས་གསུངས	-9.10458
ཏིང་ངེ་འཛིན་དང་་	-9.1053
ཚེ་རིང་	-9.10669
འདྲ་མིན་	-9.10751
བྱ་བའི་ཕྱིར་	-9.10928
དུས་རྟག་ཏུ་	-9.10964
ཝ་	-9.10972
འགན་	-9.11041
ཆར་	-9.11148
རྒྱལ་མཚན་	-9.11169
བྷ	-9.11337
ཕྱག་འཚལ་ཏེ་	-9.11342
སྤྱི་དང་	-9.11362
ཡོད་པ་དེ་དག་	-9.11386
གྲོགས་པོ་	-9.11541
མཉེས་པར་བྱེད་པར་	-9.11548
བྱས་ན་	-9.11616
བཀའ་ཤག་གི་	-9.11683
ཉན་ཐོས་	-9.11701
དགེ་བཤེས་	-9.11718
དམ་པའི་ཆོས་	-9.11726
ཐབས་ལམ་	-9.11757
ི	-9.11871
ཟུར་	-9.11879
བཏང་ངོ་་་	-9.12114
གྲགས་	-9.12155
མྱ་ངན་ལས་འདས་པ་	-9.12209
དེ་ལྟ་བུའི་	-9.12247
བྱུང་བའི་	-9.12248
ཐག་གཅོད་	-9.1231
བསྒྱུར་	-9.12398
དེའི་ཐོག་	-9.12416
རྣམ་པར་སྨིན་པ་	-9.12425
ལུང་	-9.12438
▁ལྷའི་བུ་	-9.12513
འདས་གྲོངས་སུ་	-9.12555
རྩིས་	-9.12564
འཛུགས་སྐྲུན་	-9.12595
ྤྱི་མཐུན་རྒྱལ་ཁབ	-9.12599
ཤར་	-9.12749
ཡོངས་ལ་	-9.12756
ཐུབ་པའི་	-9.12825
ཆོས་རིག་བཀའ་བློན	-9.12985
བདེན་པ་	-9.13025
སྟོང་ཆེན་པོའི་	-9.13508
ལག་པ་	-9.13508
མཁྱེན་	-9.13543
པ་ཞིག་	-9.13577
མཐའ་ཡས་	-9.13583
སྲོག་	-9.13585
ཞི་བའི་	-9.13751
ཡན་ལག་	-9.13798
ཚོགས་ཆེན་	-9.13825
ཤི་	-9.1388
ཕྱི་དྲིལ་	-9.13894
རྒྱས་	-9.139
སྣ་	-9.14022
ཚོགས་ཁང་དུ་	-9.14088
མ་འོངས་པར་	-9.14129
ཡིན་ན་	-9.14222
ཐུབ་པ་	-9.14249
ཆེ་བ་	-9.14287
▁རྒྱ་ནག་	-9.14419
ཁག་གི་	-9.14419
ེན་	-9.14476
འབྱུང་འགྱུར་	-9.14532
བོད་མི་རྣམས་ལ་	-9.14646
སྲིད་	-9.14664
ངོས་ཀྱི་	-9.1473
འདི་དག་ནི་	-9.14775
▁སེམས་ཅན་ཐམས་ཅད་	-9.14839
འདུག་	-9.14853
ཛ་དྲག་	-9.14937
རྟ	-9.14947
གཅིག་གི་	-9.15015
བྱམས་བརྩེའི་	-9.15029
དང་བཅས་པ་	-9.15067
གཟི་བརྗིད་	-9.15082
དག་དང་་	-9.15137
གར་	-9.15145
སྡེ་ཚན་	-9.15237
འདི་བཞིན་	-9.15243
དོན་ཚན་	-9.1543
ཐེ་ཝན་	-9.15444
ཁ་དོག་	-9.15489
ཏེ་་	-9.15504
ངོས་ལ་	-9.15765
དུག་	-9.15806
རྒྱན་	-9.15837
མཐོ་སློབ་	-9.15848
དངུལ་	-9.15913
མཚོན་	-9.16028
ཁུལ་གྱི་	-9.16064
གྲ་སྒྲིག་	-9.16113
སྨྲ་བ་	-9.16192
ཚོ་	-9.1623
དོན་དུ་	-9.16345
ཤ་རིའི་བུ་	-9.1636
▁བྱང་ཆུབ་སེམས་དཔ	-9.16365
སེམས་ཀྱི་	-9.16411
ཞིག་ཆགས་ཡོད	-9.1644
སྡོད་	-9.16512
གསར་འགོད་པ་	-9.16582
ཤུགས་	-9.16647
འགན་ཁུར་	-9.16678
བསྐྱོད་	-9.16763
དུས་རབས་	-9.16792
གོང་ས་	-9.16806
▁དེ་སྔ་	-9.16829
པ་རྣམས་	-9.1714
རོགས་དངུལ་	-9.17176
ཞིག་རེད	-9.17184
སྲས་	-9.17188
ལྷའི་བུ་	-9.17204
ལོག་	-9.17212
འི་བར་དུ་	-9.1734
ཙ	-9.17402
ཚོགས་མི་	-9.17436
ཆེད་མངགས་	-9.17542
པ་ནི་	-9.17573
ཁ	-9.17608
མཚན་ཉིད་	-9.1766
གཏན་འབེབས་གནང་	-9.17668
པོར་	-9.177
རིགས་ཀྱི་བུའམ་	-9.17711
བརྒྱ་	-9.17863
ཇི་	-9.17883
ཞུ་རྒྱུ་དང་	-9.17932
དེབ་	-9.18021
ཐོས་པ་	-9.18048
མཆོད་རྟེན་	-9.18324
ཚངས་པར་སྤྱོད་པ་	-9.18403
ཀུན་དུ་	-9.18442
པར་འགྱུར་་	-9.18455
གསར་	-9.18553
སྐྱེས་བུ་	-9.18615
གསོལ་	-9.18653
▁ལྷ་	-9.18763
ཡོང་གི་ཡོད	-9.18842
བསྟན་པའི་	-9.18845
དྲི་བ་	-9.18854
དགོངས་པ་	-9.18857
▁གང་གིས་	-9.18864
ནུབ་	-9.18885
དཀྱིལ་འཁོར་	-9.18973
ཤེས་པའི་ཁམས་	-9.19023
སྒོམ་	-9.19186
དངོས་པོ་	-9.19205
འཁོར་ལོས་སྒྱུར་བ	-9.19234
སྟངས་	-9.19306
རྒྱ་མཚོ་	-9.19323
རྩ་བ་	-9.19397
འཇིག་རྟེན་གྱི་	-9.19449
ཚང་	-9.19453
དེའང་	-9.19505
▁གཟུགས་	-9.19525
བོད་ཡིག་	-9.19548
བཅར་	-9.19612
▁སུ་ནི་	-9.19621
རང་ལུས་མེར་སྲེག་	-9.19737
ཡིན་སྟབས	-9.19851
ང་ལ་	-9.20002
སི་	-9.20118
བོད་བརྒྱུད་ནང་	-9.20201
འི་ཆོས་	-9.20206
སྤྱོད་ཡུལ་	-9.20325
མ་ཡིན་པ་	-9.20406
ནང་པའི་	-9.20761
ཚུགས་	-9.20771
དེ་བཞིན་དུ་ཚོར་བ	-9.20778
ཐུག་	-9.20849
ཁྱོན་མི་གྲངས་	-9.20902
དག་ཏུ་	-9.20903
རྣམ་པར་སྨིན་པས་	-9.20942
ཨ	-9.20944
ཨ་རི་	-9.20973
ཏ	-9.21117
སྙིང་སྟོབས་	-9.21152
ཞིག་ཡིན	-9.21179
ཁ་ཤས་	-9.21258
མཆིས་	-9.21313
གཅིག་ཏུ་	-9.2136
མཁན་གྱི་	-9.21454
བཅས་ནས་	-9.21514
དོན	-9.21617
བོད་མི་རིགས་ཀྱི་	-9.21629
མིང་དོན་མཚུངས་པ	-9.21732
བར་འགྱུར་རོ་་	-9.21772
གཉིས་ཀྱིས་	-9.21794
རྒྱུ་རེད	-9.21795
ཚུལ་ཁྲིམས་ཀྱི་	-9.21837
བཤད་པ་	-9.21878
▁བཙན་བྱོལ་བོད་མི	-9.21962
ཁྱོད་ལ་	-9.21983
དགོས་པ	-9.21988
གོ་སྒྲིག་འོག་	-9.21994
གནང་ཡོད་པ་བཅས	-9.22051
ཞི་བདེའི་	-9.22133
འཛུགས་	-9.22179
གསར་འགོད་	-9.22286
▁དེ་ཡི་	-9.22517
རྒྱུ་ཡིན	-9.22549
པོའི་	-9.22609
ངོ་སྤྲོད་གནང་	-9.22688
འབབ་	-9.22737
བོད་མིའི་སྒྲིག	-9.22769
ལྟ་བུའི་	-9.22861
ཡོད་ན་	-9.22899
ཀྱང་་་	-9.23021
འོས་	-9.23034
སྐད་ཆ་	-9.23117
དོ་སྣང་	-9.23184
རིམ་	-9.23224
ཤུགས་རྐྱེན་	-9.23337
▁དེ་ལྟར་ན་	-9.23353
▁བཀའ་སྩལ་པ་	-9.2337
བྱེད་པའི་	-9.23383
ཞབས་སོར་འཁོད་	-9.2339
གནས་བབ་	-9.23426
ངོ་བོ་ཉིད་	-9.23434
ཕྱི་ལོ་གཟའ་པ་སངས	-9.23473
འཁོར་ལོ་	-9.23488
་ཐམས་ཅད་སྤངས་ཏེ་	-9.23536
བཀའ་སློབ་སྩལ	-9.23587
མངོན་པར་ཤེས་པ་	-9.23619
དང་བྲལ་བ་	-9.23622
ནུས་	-9.23632
མཆོད་པ་	-9.23828
ལ་ལོངས་སྤྱོད་པ	-9.23832
སྙིང་	-9.23843
སྣང་	-9.23863
ཟད་	-9.24078
མདོ་སྡེ་	-9.24159
དམིགས་	-9.2451
བོད་དོན་ལས་འགུལ་	-9.24528
དོན་གྲུབ་	-9.24532
ཆིབས་སྒྱུར་	-9.24734
ན་ནི་	-9.24796
ཡིན་སྟབས་	-9.2485
པར་བརྟེན་	-9.24935
དཔལ་ལྡན་ཚོགས་གཙོ	-9.25033
མི་སྣ་	-9.25161
དགུ་	-9.25263
ཞེས་པ་	-9.25292
དེ་ན་	-9.25296
སྒྲིག་འཛུགས་ནས་	-9.25317
གོ་སྐབས་	-9.25334
ཟེར་བ་དེ་	-9.25368
གཏི་མུག་	-9.25443
སྣོད་	-9.25459
ནད་ཡམས་	-9.25504
▁ལྷག་པར་དུ་	-9.25663
ཆོས་མ་འདྲེས་པ་བཅ	-9.25677
ཞུས་ཡོད	-9.25703
ལྡན་པའི་	-9.25772
ཉིན་མོ་	-9.25792
ཡོད་རེད	-9.25885
ཞུས	-9.2601
དེ་ལས་	-9.26064
མགོན་པོ་	-9.26092
རྒྱ་ནག་མི་དམངས་ས	-9.26096
གང་ལ་	-9.26115
བདེ་བར་གཤེགས་པ་	-9.26129
▁འདི་	-9.26222
རྒན་	-9.26234
རྒྱལ་སྲིད་	-9.26472
སེམས་ཁམས་རིག་པ	-9.26543
ཕྱོགས་སུ་	-9.26672
རབ་འབྱོར་	-9.26699
སྐོར	-9.26731
དབྱངས་	-9.26764
བརྟན་བཞུགས་	-9.26779
པད་མ་	-9.26847
བྱང་	-9.2689
དཀོན་མཆོག་	-9.26933
་རེད	-9.26984
རྣམ་པ	-9.26992
བྱས	-9.27045
▁ཅེས་དང་	-9.27048
གཏམ་བཤད་	-9.27089
སྔར་	-9.27131
པའི་ཕྱིར་རོ་་	-9.27146
ཡིག་	-9.27334
▁དེ་རིང་འདིར་	-9.27408
དེ་ཙམ་	-9.27469
གོང་ས་ཏ་ལའི་བླ་མ	-9.27632
ཤུགས་ཆེན་པོ་	-9.27655
བཙུགས་	-9.27666
རྒྱུན་སྐྱོང་	-9.27795
ཉམས་ཞིབ་	-9.27831
གནང་བ་	-9.27834
ཚོགས་ཆུང་	-9.28093
ལ་རྒྱབ་སྐྱོར་	-9.28236
ཐེག་པ་	-9.28276
ཡི་་	-9.28288
ར་འགྱུར་	-9.28288
བརྩོན་འགྲུས་ཀྱི་	-9.28426
ནི་ཙན་དན་གྱི་	-9.28513
ངོ་	-9.28524
▁སྤྱི་འཐུས་	-9.28537
▁ཆོས་ལུགས་	-9.28591
ཉི་ཧོང་	-9.28797
སེམས་ལ་	-9.28822
སའི་	-9.29
པར་འགྱུར་	-9.29103
མྱ་ངན་	-9.29155
མཚན་མ་	-9.29157
་ཆེན་རིན་པོ་ཆེ་	-9.29167
གཞན་ལ་	-9.29239
སྐྱབས་	-9.29322
▁ང་ཚོའི་	-9.29335
དུ་མ་	-9.29345
ཡོད་པ	-9.29587
མང་བ་	-9.29684
གནོད་སྦྱིན་	-9.29685
འདུས་	-9.29738
འདུག་པ་བཅས	-9.29746
ཆེ་བའི་	-9.29766
སྤྱན་	-9.29838
ཀྱི་བར་འདི་	-9.30055
མཁྱེན་པ་	-9.30099
▁ཤེས་རབ་ཀྱི་	-9.30126
དེ་བཞིན་ཉིད་	-9.30229
ཕྱི་འབྲེལ་	-9.30241
ཁོ་ནར་	-9.3029
བཟོད་	-9.30335
བདེན་	-9.30336
བབ་	-9.30384
སྩལ་	-9.30414
རོགས་རམ་	-9.30472
ཡིག་ཆ་	-9.3048
གནས་མཆོག་	-9.30531
▁ཤ་རིའི་བུ་	-9.30538
མཁས་དབང་	-9.30583
བདག་པོ་	-9.30649
ཏ་	-9.30665
ཀྱི་བར་དུ་	-9.3077
གྲོང་	-9.30801
བྱེད་སྐབས་	-9.30827
ཕ་རོལ་	-9.30881
རང་སངས་རྒྱས་ཀྱི་	-9.30893
དང་ལྷན་ཅིག་ཏུ་	-9.30971
▁མཐར་	-9.30985
སྙམ་ནས་	-9.30988
གཅིག་པུ་	-9.31006
སྐོར་དང་	-9.31029
གནོད་པ་	-9.31104
ཐུན་མོང་མ་ཡིན་པ	-9.31141
སྨན་པ་	-9.31152
གནང་བ་མ་ཟད	-9.31168
གདན་	-9.31262
ཚོགས་དྲུང་ལ	-9.31309
འཕེལ་	-9.31318
པ་དེ་	-9.31357
སྟོང་གསུམ་གྱི་	-9.31378
ཕ་མ་	-9.3138
གསར་འགྱུར་	-9.31417
བྱེད་དགོས་པ་	-9.31425
ཤོག་	-9.31495
ནོར་བུ་རིན་པོ་ཆེ	-9.31544
མཐུ་	-9.31575
ོ་	-9.31615
མི་འདུག	-9.31632
པོ	-9.3168
ཁྱམས་དང་ཁང་བཟངས་	-9.31697
གནད་ཡོད་མི་སྣ་	-9.31722
ཚེས་	-9.31756
པའི་ཚུལ་གྱིས་	-9.31757
བརྒྱ་བྱིན་	-9.31761
རྫས་	-9.31781
བོད་ལ་	-9.31805
དང་ནི་	-9.31813
དབུ་	-9.3184
རིག་གནས་	-9.31873
གང་ཡིན་	-9.31913
ཧ་	-9.31983
གྲོས་ཚོགས་འོག་མ	-9.3201
མི་འབོར་	-9.32109
སྤྲོད་	-9.32122
ཞི་བ་	-9.32152
རྒྱུ་ཡིན་འདུག	-9.32156
ཟེར་བའི་	-9.32196
སོང་ངོ་་་	-9.32254
རྡུལ་	-9.32292
དང་འབྲེལ་བ་	-9.324
ལུགས་	-9.32456
བདེ་སྲུང་	-9.32562
ཆོས་སྐྱོང་	-9.32801
ཞི་བདེ་	-9.32922
གང་ལྟར་	-9.32971
ཐོག་ལ་	-9.33023
འཕྲད་	-9.33097
འབྲས་	-9.33114
ཡོང་བའི་	-9.33134
བོ་	-9.33211
ཡར་རྒྱས་གཏོང་	-9.33266
གང་ཐུབ་	-9.33377
ཕྱོགས་གཅིག་ཏུ་	-9.33403
མང་ཚོགས་ལ་	-9.33445
ཉན་	-9.33464
ལ་སོགས་	-9.33554
འདིའི་ནང་	-9.33592
བརྒྱུད་ནས་	-9.33622
མི་མང་གི་	-9.33671
གཞུང་གི་	-9.33688
གྲོས་མོལ་	-9.33704
ཡོད་སྟབས་	-9.3377
བ་རེད	-9.33793
དཔེ་དེབ་	-9.33869
ཚན་རིག་	-9.3392
བརྗོད་པ་	-9.33963
བྱུང་ངོ་་་	-9.34001
ཐེངས་	-9.34066
ཁག་ལ་	-9.34096
ཁག་གཅིག་གིས་	-9.34179
ས་གནས་ཀྱི་	-9.34231
▁དེས་སྨྲས་པ་	-9.34262
ཚངས་པའི་	-9.34298
པར་གྱུར་པ་	-9.34328
ཡིན་པ་མ་ཟད	-9.34333
རྫོང་	-9.34377
ལམ་ནས་	-9.34407
ཁང་གི་	-9.34416
སྟོང་པ་	-9.34556
སྒྲིག་	-9.34658
འགྲེམས་སྟོན་	-9.34746
འཚེ་མེད་ཞི་བའི་	-9.34812
དྲན་པ་	-9.34814
བྱིན་	-9.34976
སོང་ནས་	-9.35012
▁དཔལ་ལྡན་	-9.35145
རྟགས་	-9.35147
ཁྱོན་	-9.35158
དེའི་ཕྱིར་	-9.35182
་ཞབས་ལ་མགོ་བོས་	-9.35189
ཤེས་པ་དེ་ལ་	-9.352
བརྙན་འཕྲིན་	-9.35233
ཀླུ་	-9.35265
ཡ	-9.35291
▁ས་གནས་	-9.35398
ཆགས་པ་	-9.35415
དཔལ་ན་ལེནྡྲའི་	-9.35595
དབུ་འཁྲིད་	-9.3561
དགྲ་བཅོམ་པ་	-9.3564
མི་དམིགས་	-9.3568
འདས་པའི་དུས་ན་	-9.35802
་འཐུས་ཚོགས་གཙོ	-9.3585
གནང་བར་	-9.35955
ཅེས་བྱ་བ་	-9.35961
ཡོངས་	-9.36006
ཀུན་ནས་	-9.36136
གསུང་བཤད་	-9.36197
བྱས་པ་རེད	-9.36272
མཁན་ཆེན་ཞི་བ་འཚོ	-9.36359
གྲགས་པ་	-9.36366
ཐང་གི་གནས་སྟངས་	-9.36567
དགོས་མཁོ་	-9.36607
འཇིགས་པ་	-9.36626
གོ་སྒྲིག་གནང་	-9.36627
ལག་བསྟར་བྱེད་	-9.36821
འདོད་པའི་	-9.36882
བྱུང་ནས་	-9.37033
ཨིན་ཡུལ་	-9.37057
བས	-9.37188
གསོལ་འདེབས་	-9.37197
དགོངས་	-9.37256
གང་གི་ཚེ་	-9.37318
ཕྱག་ལས་གནང་	-9.37404
ལམ་ཡན་ལག་བརྒྱད་པ	-9.3742
མཛེས་	-9.37502
ཐད་ཀར་	-9.37541
ཡང་སྲིད་	-9.37604
འཇམ་དཔལ་གཞོན་ནུ	-9.37647
མཚོ་	-9.37743
དེ་ནས་ཕྱི་ཞིག་ན་	-9.37924
ཆད་	-9.37931
སྤྲད་	-9.37974
ཐེ་ཚོམ་	-9.38054
བོད་ཀྱི་ཁོར་ཡུག་	-9.38101
བྱང་ཕྱོགས་	-9.38382
རྡ་ས་	-9.38402
གནང་སོང་	-9.3849
གཙོས་	-9.38523
ཆོས་ཉིད་	-9.38641
ཆོས་ལ་	-9.3868
ཡིན་པས་	-9.38681
▁རིགས་ཀྱི་བུ་དག་	-9.38786
གནང་རྒྱུ་	-9.38812
བདག་ཅག་གིས་	-9.3887
དམག་	-9.38914
དེ་ཚོའི་གྲས་	-9.38961
གང་ཙམ་	-9.39114
རྒྱག་	-9.3915
ཕེབས་ཡོད	-9.39217
སྲུང་བརྩི་ཞུ་	-9.39273
ལོན་	-9.39327
འཚོ་བ་	-9.39476
གཉིས་པ་	-9.39485
▁རྒྱལ་པོ་	-9.39493
མོས་	-9.39528
གྱུར་ཏོ་་	-9.39591
བྱའོ་་	-9.39594
དེ་གཉིས་	-9.39751
སློབ་ཚན་	-9.40035
མཉམ་ཞུགས་གནང་	-9.40071
བྱས་རྗེས་	-9.40149
འོད་སྲུང་	-9.40169
སྔགས་	-9.40216
▁རྒྱ་གར་གྱི་	-9.40337
ལས་ཀ་	-9.40346
ཁུལ་	-9.40369
བརྗོད་གཞིའི་ཐོག་	-9.40404
སྐྱབས་རྗེ་	-9.40435
སློབ་གྲྭ་ཁག་གི་	-9.40451
བྱང་ཆུབ་མངོན་པར་	-9.40471
པ་ལས་	-9.40482
སྟོབས་ཤུགས་	-9.40527
བསྒྲུབ་	-9.40528
ཡོད་འདུག	-9.40571
རླུང་	-9.40588
མོད་ཀྱི་	-9.40604
གསུངས་པ་	-9.40604
ཐོ	-9.40623
མད་གལ་གྱི་བུ་	-9.40624
དགོན་པའི་	-9.40652
▁བོད་ནང་	-9.4071
ཀུན་འབྱུང་བ་ཤེས་	-9.40743
དྲག་	-9.40944
རྒྱ་ཆེར་	-9.40951
མཛད་འཕྲིན་	-9.41081
ཛ	-9.41158
▁དཔེར་ན	-9.41171
རྒྱ་གར་གཞུང་གིས་	-9.41228
ཀྱི་ཡོད	-9.41234
ཞེས་བྱ་བར་	-9.41251
དགོས་ཀྱི་ཡོད	-9.41256
བོད་མིར་	-9.41323
གནང་གི་ཡོད	-9.4146
བཏང་ནས་	-9.41491
ཆེན་མོ་	-9.41504
མངོན་པར་འདུ་	-9.4155
ཡིན་པར་	-9.41703
གཞག་	-9.4176
བཙན་བྱོལ་	-9.41765
འདུགདེར་བརྟེན་	-9.41777
སྙིང་རྗེ་ཆེན་པོ་	-9.41789
སྲིད་པ་	-9.41809
བཟུང་	-9.41917
བསྐྱར་གསོ་	-9.41937
བཅད་	-9.41979
སྐོར་ངོ་སྤྲོད་	-9.42058
སོང་སྟེ་	-9.42126
ཀྱི་བསྟན་པ་ལ་	-9.42153
ཁྲིམས་ཞིབ་པ་ཆེ་བ	-9.42317
ཏི་	-9.42388
▁ད་ལྟའི་	-9.42394
ལུས་ཀྱི་	-9.42395
ཅི་ཞིག་	-9.4241
▁ཁྱིམ་བདག་དེ་ལ་	-9.42417
གཞུང་གིས་	-9.42456
བྱེད་དོ་་	-9.42556
ཐུབ	-9.42598
▁ཁ་ཅིག་ནི་	-9.42644
མཛོད་	-9.42735
འི་ཏིང་ངེ་འཛིན་	-9.42774
གཤེགས་པས་ཡང་དག་པ	-9.42799
སྐྱབས་མགོན་ཆེན་	-9.428
ཆོས་ཀྱི་འཁོར་ལོ་	-9.42883
རིན་ཐང་	-9.42893
ཁྲིད་	-9.42912
འཆར་གཞི་	-9.42931
ནང་སྲིད་	-9.42953
གང་ཞིག་	-9.42966
རྒྱ་ཆེ་	-9.43012
ནས་བཟུང་	-9.43058
དགེ་འདུན་པ་	-9.43123
འཆར་	-9.43299
ཆིབས་སྒྱུར་བསྐྱང	-9.43311
འགྲོ་བཞིན་ཡོད	-9.43354
རྐང་	-9.43381
མདོ་	-9.43432
ོགས་	-9.4344
གཞི་རྩའི་	-9.43584
སྲོལ་	-9.43589
པ་ཡིན་ན་	-9.43619
ཆུ་ཚོད་	-9.43631
དང་བཅས་	-9.43631
མངའ་	-9.43675
ཐམས་ཅད་དུ་	-9.43786
པར་བྱའོ་་	-9.43816
གཙུག་ལག་ཁང་	-9.43822
ས་ཆ་	-9.43845
འཇར་མན་	-9.4397
ོན་	-9.43988
རྫོགས་པར་འཚང་རྒྱ	-9.44021
ཐག་	-9.44029
གསར་འཛུགས་	-9.44097
འཛམ་གླིང་མཉམ་	-9.44123
ཡང་དག་པར་རབ་ཏུ་	-9.44136
སྟན་	-9.44137
▁མ་འོངས་པར་	-9.44165
སྡུག་	-9.44185
གོང་མཐོར་གཏོང་	-9.44239
གནས་སུ་	-9.44462
སྒྲིག་འཛུགས་དང་	-9.44534
རྒྱ་གར་གནའ་རབས་	-9.44535
སོང་སྟེ་ཕྱིན་ནས་	-9.44562
འཇིགས་	-9.44563
▁ཞེས་པའི་	-9.44605
ཞུས་པ་	-9.44647
ནང་ཡོད་པའི་	-9.44678
ཡོངས་སུ་དག་པ་	-9.44678
དང་སྦྲགས	-9.44735
སྤྲུལ་པ་	-9.44741
མང་སྤྱི་འཐུས་	-9.44783
ནི་མིང་ཙམ་སྟེ་	-9.44821
བྱེད་དགོས་པའི་	-9.44837
ཚོགས་ཆུང་གི་	-9.44845
ངོས་	-9.45012
བྱང་ཆུབ་ཀྱི་སེམས	-9.45077
ངམ་	-9.45166
མཇལ་	-9.45173
སྨན་བཅོས་	-9.45218
ཐུགས་རྗེ་	-9.45287
ཀརྨ་དགེ་ལེགས་	-9.45344
ཁོངས་	-9.45366
སྐྱེ་མཆེད་	-9.4547
འཛོམས་	-9.45479
སྐྱེ་བོ་	-9.45483
ད་ལྟར་	-9.45509
རྡོ་རྗེ་གདན་དུ་	-9.45511
མངོན་	-9.45611
ཇེ་	-9.45668
འགྲུབ་	-9.45671
ཇི་སྙེད་པ་ཉིད་	-9.4571
ལ་སོགས་པའི་	-9.45764
ཐོག	-9.45802
རང་སྐྱོང་ལྗོངས་	-9.45821
ཏན་ཏན་	-9.45871
ལྟར	-9.45959
གིས་གཙོས་	-9.45972
ནང་ཁུལ་	-9.4603
པར་གྱུར་ཏེ་	-9.46051
ཉམས་མྱོང་	-9.46054
ངོ་་་	-9.46074
ནས་སུ་་	-9.46123
ལ་གནས་པ་	-9.46144
ཚབ་ཞུས་ཏེ་	-9.46144
དེང་	-9.46159
རིང་ལུགས་	-9.462
འབྱུང་བ	-9.46224
རྣམ་པར་གྲོལ་བ་	-9.46227
གོང་ས་མཆོག་གིས་	-9.46293
གནང་ཡོད་པ་དང་	-9.46336
མྱ་ངན་ལས་འདས་པ	-9.46411
ཡོང་གི་འདུག	-9.46443
ཕེབས་བསུའི་སྣེ་ལ	-9.46618
ཞིག་གིས་	-9.46621
ཚོགས་ཆེན་ཐེངས་	-9.46643
▁ད་ལྟའི་ཆར་	-9.46657
ཡུན་རིང་	-9.46672
གཙུག་ལག་ཁང་དུ་	-9.46739
་སྟེ་	-9.46889
ཞེ་ན་	-9.4689
ཆོག་	-9.46905
ཐལ་མོ་སྦྱར་	-9.46986
ཆོས་ཐམས་ཅད་ནི་	-9.47053
སུམ་ཅུ་རྩ་གཉིས་	-9.47072
འདས་	-9.47125
ནམ་མཁའ་	-9.47357
ུ་	-9.4736
ཡིན་པའི་	-9.4741
སྨིན་	-9.47573
ཉེ་ཆར་	-9.47603
ཁར་	-9.47663
▁གྲོས་ཚོགས་	-9.47688
▁འཕགས་པ་	-9.47744
▁གསར་འགོད་པས	-9.47759
ལྡི་ལི་	-9.47773
ཐུགས་རྗེ་ཆེ་ཞུ་	-9.47793
རིན་པོ་ཆེ་མཆོག	-9.47834
་སྤྱན་རས་གཟིགས་	-9.47856
སེམས་ནང་	-9.4786
རྒྱལ་ས་	-9.4797
ནང་ནས་	-9.48001
པའང་	-9.48004
དམིགས་པ་	-9.48007
སྐབས་སུ་	-9.48045
མོ	-9.48076
གམ་	-9.48093
▁དེ་ཚེ་	-9.48112
ལས་ཀྱི་	-9.48231
བརྒྱ་སྟོང་	-9.4825
ཊ་	-9.48251
▁འདི་ལ་	-9.4829
ཉེས་པ་	-9.48411
ཡོད་མེད་	-9.48443
ཚེ་རིང་ལགས་ཀྱིས་	-9.4847
མི་མང་སྤྱི་འཐུས་	-9.48545
ཡོངས་སུ་འཛིན་པ་	-9.48551
བསྟུན་	-9.48564
ས་ནས་	-9.48571
ཆོས་ཕྱོགས་ཀྱི་	-9.48598
ཚུར་	-9.48622
གསལ་བཤད་	-9.48698
ཡང་དག་པའི་	-9.4872
སྤོས་	-9.48724
ཀུན་གྱི་	-9.48808
ཡབ་	-9.48808
་དེ་ལ་	-9.48855
གང་གི་	-9.48893
སྒོ་ནས་	-9.48903
གསེར་གྱི་	-9.48942
ཆེ་ཤོས་	-9.49045
དྲུང་	-9.49126
ལས་དོན་ཚོགས་ཆུང་	-9.49137
ཚོའི་	-9.49267
ལེགས་བཤད་དེ་དག་	-9.49372
་སོགས་	-9.49374
ཐམས་ཅད་ལ་	-9.49467
གཞིས་བྱེས་	-9.49524
གཡོག་	-9.49614
གྱུར་པ་	-9.49636
གྲས་	-9.49637
དགའ་ལྡན་	-9.49703
དབང་གིས་	-9.49704
གཅོད་	-9.49734
ངག་	-9.49751
ལས་ཁུངས་སུ་	-9.49768
མདུན་	-9.49864
ཙམ་མིན་པར་	-9.49967
ཡོང་བར་	-9.5003
འབྲེལ་རྒྱལ་ཚོགས་	-9.50075
་གཡུ་ཐོག་	-9.50113
དང་ལྡན་	-9.50211
འབྱུང་བར་འགྱུར་	-9.50278
ཉིད་དུ་	-9.50278
ཀུན་གྱིས་	-9.50297
ཡིན་འདུག་པ་བཅས	-9.5046
སྐོར་ལ་	-9.50464
དཀའ་	-9.50503
པའོ་	-9.50513
རོགས་སྐྱོར་	-9.50523
མདའ་	-9.5066
ཞུ་རྒྱུའི་	-9.50669
རྒྱ་ནག་དམར་པོའི་	-9.50737
བླངས་	-9.50854
བརྟན་	-9.50865
སྐྱེ་བ	-9.50888
སྐྱོར་ཚོགས་པ་	-9.50898
ཙམ་ལ་	-9.5095
▁ཁོང་གིས་	-9.50972
ཆས་	-9.50981
ཡིན་ཞེ་ན་	-9.50997
མང་པོས་	-9.51026
གཞིས་	-9.51036
བླ་	-9.51119
རྣམས་དང་	-9.51185
འབྲེལ་ལམ་	-9.51313
གདུགས་	-9.51398
སྦྱོང་	-9.51421
ཕྱེད་	-9.51448
མི་མང་གིས་	-9.51471
གྲ	-9.51472
འདས་པའི་དུས་	-9.51485
གྲོལ་	-9.51505
མེད་པ་དང་	-9.51518
ས་ལ་	-9.51524
ཞིག་དང་	-9.51609
རྟོག་ཞིབ་	-9.51655
ཚོགས་ཁང་ནང་	-9.51678
དངོས་པོ་མེད་པའི་	-9.5169
ལྷའི་དབང་པོ་	-9.51725
ཤེས་ཡོན་གྱི་	-9.51742
སྦྱོར་བ་	-9.51743
▁ཉེ་ཆར་	-9.51753
ཉེ་	-9.51778
དངོས་གནས་	-9.51788
སྡིག་པ་	-9.51788
མདོག་	-9.51819
ཀྱང་མིང་ཙམ་	-9.51841
ཕར་	-9.51854
དགེ་སློང་དག་	-9.51935
་ཞུ་རྒྱུ་ཡིན	-9.51949
རྒྱུན་ལས་	-9.51969
▁གསོལ་པ་	-9.52114
སེང་གེ་	-9.52117
མཛེས་པ་	-9.52119
བསྐྲུན་	-9.5215
སྦྱར་	-9.52165
སྤྱད་	-9.5224
རྩོམ་	-9.52302
བསླབ་པ་	-9.52309
▁ཆོས་ཀྱི་	-9.52424
བདེ་བར་	-9.5244
མེད་ན་	-9.52475
ཡིན་ཡང་	-9.52517
སྲིད་གཞུང་གིས་	-9.52629
ཞེས་བྱ་བ་ནི་	-9.52684
མངོན་འདོད་	-9.52703
རོ	-9.52719
ལི་	-9.52733
ཡུལ་དུ་	-9.52766
ཀི་	-9.52794
མཉམ་དུ་	-9.52849
་ཆེན་སྐུ་ཕྲེང་	-9.5288
བྱེད་པ་དང་་	-9.52909
གཏང་	-9.52911
ལྔ་བརྒྱ་	-9.52931
མི་སྐྱེ་བའི་ཆོས་	-9.5294
ཀློག་	-9.53023
ཀུ་	-9.53031
བོད་དོན་བདེན་	-9.53051
ཚོད་	-9.53147
རྣམ་པ་སྣ་ཚོགས་	-9.53162
སྐུ་ཚབ་དོན་ཁང་	-9.53215
མགྱོགས་མྱུར་	-9.53232
ཡོང་གི་རེད	-9.53239
ཆ་རྐྱེན་	-9.53242
ུགས་རྗེ་ཆེ་ཞུའི་	-9.53285
སོགས་ཀྱིས་	-9.53385
རྒྱ་ནག་ནང་གི་	-9.53426
ཡོད་ནའང་	-9.53446
་ལ་བ་དེ་ལོགས་སུ་	-9.53501
པར་བྱེད་པ་	-9.53566
ཝ	-9.53582
ལེ	-9.53611
སྒྱུར་	-9.53627
སྐྱེས་སོ་་	-9.53669
པ་དག་	-9.53679
འི་གྲོས་ཚོགས་	-9.53686
ཡོད་སྐོར་	-9.53735
སྤྱིར་	-9.53748
མཉམ་ཞུགས་	-9.53798
རྣམ་པར་དག་པ་	-9.53813
པ་ཡིན་	-9.53831
མིན	-9.53867
ངོ་བོ་	-9.53907
སྐྱོན་བརྗོད་	-9.53948
ཐོགས་	-9.54012
བཅུག་	-9.54053
ཉམ་ཐག་	-9.54062
དུ་དེ་ལྟར་	-9.54118
་བཞུགས་ཏེ་	-9.54195
རྣམས་ཡིན་	-9.54289
བོད་དུ་	-9.5437
ལ་བརྟེན་	-9.54452
འཆི་	-9.54513
ས་ནི་	-9.54544
ལུས་ལ་	-9.54554
འདུས་པ་	-9.54564
གཤེགས་	-9.54629
གྱ	-9.54638
སྙན་ཐོ་	-9.54662
གནང་བ་རེད	-9.54791
ནེ་	-9.54811
ཉི་ཤུ་	-9.54842
བཅུ་གཉིས་	-9.55021
དགའ་ལྡན་ཕོ་བྲང་	-9.55042
རྒྱབ་	-9.55098
སྒོར་	-9.55163
ཡུལ་གྱི་	-9.5524
དེ་འདྲའི་	-9.55251
ལྷ་མོ་	-9.55255
ཁྱིམ་ཚང་	-9.55272
ལྷ་རྣམས་	-9.55296
▁གང་གི་ཚེ་	-9.55308
རྡ་སར་	-9.55366
▁བདག་ནི་	-9.55443
རིམ་པས་	-9.55509
གཞུང་མང་གཉིས་ལ་ཐ	-9.55535
འདིའི་སྟེང་	-9.55561
ཞིང་་་	-9.55585
སློབ་གསོ་	-9.55617
མ་ཡིན་ཏེ་	-9.55654
རྗེས་སུ་ལྟ་བ	-9.55664
བཏོན་	-9.55671
འདུ་འཛོམས་	-9.55676
རེག་	-9.5569
རྒྱ་གཞུང་གིས་	-9.55707
རྟོགས་པ་	-9.55715
▁ཕྱི་ཟླ་	-9.55733
ཞིག་ལ་	-9.55774
ཉ	-9.55802
དགྲ་	-9.55812
བསྡད་	-9.55841
ཁེ་ཕན་	-9.55847
གནང་རོགས	-9.55886
ཚོང་	-9.56097
གཉིས་སུ་	-9.5618
བལྟ་	-9.56358
འཁོར་བའི་	-9.56456
སྲི་ཞུའི་ལས་བྱེད	-9.56664
བོད་པ་	-9.56692
གདོང་	-9.56692
འདི་ན་	-9.56695
མཛད་པའི་	-9.56733
གནོད་	-9.56796
རྩི་	-9.56798
འཚམས་འདྲིའི་	-9.56878
དྲག་གནོན་	-9.56916
ཕྲེང་བཅུ་བཞི་པ་	-9.57041
མུ་	-9.57148
འབྲེལ་མཐུད་པ་	-9.57152
ཆེན་པོར་	-9.57177
ཙམ་གྱི་	-9.57184
སློབ་གཉེར་ཁང་	-9.57275
གསུམ་པ་	-9.57276
རྙེད་པ་	-9.57286
་ཡང་	-9.573
ལངས་ཕྱོགས་	-9.57301
ཐ་སྙད་	-9.57331
ཟིན་པ་	-9.57333
དགོས་རྒྱུ་	-9.57342
བློ་བཟང་	-9.57348
ཤིང་རྟ་	-9.57373
▁དེ་ནས་དགེ་སློང་	-9.57455
རེད་ཅེས་	-9.57551
ས་ཚེ་དང་ལྡན་པ་	-9.57646
▁དམིགས་བསལ་	-9.57647
སྐུ་པར་	-9.57648
▁དེ་མིན་	-9.57762
ལ་སྤྱོད་པ་	-9.57764
འཕགས་	-9.57764
▁རྒྱ་ནག་གི་	-9.57783
ལགས་ཏེ་	-9.57795
རྟག་པར་	-9.57823
འཇམ་དཔལ་	-9.57827
ཚོགས་གཞོན་	-9.57847
རྣམ་གཉིས་	-9.57861
བྱེད་བཞིན་པའི་	-9.57898
སེམས་ཅན་དེ་དག་	-9.5791
ད་དུང་	-9.57929
ཡོད་པ་དེ་	-9.57984
ནའང་	-9.5799
དང་བཅས་པའི་	-9.57993
བཞག་ནས་	-9.57995
བྱང་ཨ་རིའི་	-9.58007
་པདྨ་འབྱུང་གནས་	-9.58055
བཞེངས་	-9.58061
མོས་པ་	-9.58093
མི་རིགས་ཀྱི་	-9.58124
རྙོག་གྲ་	-9.58137
དེ་ཐོས་མ་ཐག་ཏུ་	-9.58145
གང་ཡིན་པ་	-9.58167
▁ཁྱོད་ཀྱིས་	-9.58221
བོད་ཀྱི་རྒྱལ་དར་	-9.58228
བདུད་	-9.58337
རེ་བ་	-9.584
ས་སྨྲས་པ་	-9.58496
རིག་པའི་	-9.58514
ནང་དུའང་	-9.58542
ཀར་	-9.58614
དབུ་མའི་ལམ་	-9.58617
སྟོན་པ་སངས་རྒྱས་	-9.58629
▁དེ་དག་ནི་	-9.58633
རྨི་ལམ་	-9.58639
མཆོག་གིས	-9.58645
འི་སེམས་	-9.58667
་ལ	-9.58692
པདྨ་	-9.5875
་པ་དང་	-9.58768
སྔ་དྲོ་ཆུ་ཚོད	-9.58776
མཁས་	-9.58776
སེམས་ཀྱིས་	-9.58782
མཐའ་གཅིག་ཏུ་	-9.58997
རྒྱུ་དེ་	-9.58997
ཞིབ་	-9.59098
འི་ཚོགས་གཙོ་	-9.59194
མཁས་པའི་	-9.59223
འོས་བསྡུའི་	-9.59312
གོང་ས་མཆོག་གི་	-9.59327
རང་སངས་རྒྱས་	-9.59331
སྐད་ཅེས་གསོལ་ཏོ་	-9.59343
རྗེ་	-9.59383
སྐད་འབོད་	-9.59391
ཊ	-9.59438
ལ་མཁས་པ་	-9.59466
དགོས་རྒྱུ་ཧ་ཅང་	-9.59492
ལ་མཚོན་ནའང་	-9.59549
རོགས་	-9.59555
རེས་	-9.59604
ནག་	-9.59669
ཆོས་རྣམས་ལ་	-9.59692
རྐང་པ་	-9.59719
གསལ་པོ་	-9.59739
རྒྱལ་པོ་ཆེན་པོ་	-9.59756
ཚལ་	-9.59863
ས་བོན་	-9.59936
ཆོས་ཀྱི་དབྱིངས་	-9.59954
མ་མཆིས་པ་	-9.59972
རྣམ་པས་	-9.60016
འགའ་ཤས་	-9.60044
སྐལ་བཟང་	-9.60077
▁ཁོང་	-9.60142
སངས་རྒྱས་པའི་ཆོས	-9.602
་རྣམས་ལ་	-9.60236
འཚལ་	-9.60325
▁སེམས་	-9.60327
ཕྱི་ལོ་གཟའ་ལྷག་པ	-9.6033
གཟའ་པ་སངས	-9.60352
བཟང་སྤྱོད་	-9.60375
མང་པོ་ཞིག་གིས་	-9.60432
ཉིད་ཀྱིས་	-9.60447
བསོད་སྙོམས་	-9.60494
གྱི་སྔ་དྲོ་	-9.60496
གང་མང་	-9.60547
གཞིས་ཆགས་སུ་	-9.60547
ཆོས་ཐམས་ཅད་ཀྱི་	-9.60559
གྱུར་ཅིག་	-9.60571
▁བུད་མེད་	-9.60578
སྨད་	-9.6059
གཅིག་གྱུར་	-9.60625
ཉམས་རྒྱུན་འཛིན་	-9.60631
ཁོང་དུ་ཆུད་པ	-9.60701
དགོངས་པ་བཞེས་	-9.6071
བྱེད་ཀྱི་	-9.60735
དང་མི་རྣམས་ཀྱི་	-9.60744
མངོན་དུ་	-9.60758
ཕེབས་པའི་	-9.60782
གནང་རྒྱུའི་	-9.60863
མ་ཐག་ཏུ་	-9.60925
ཐུགས་རྗེ་ཆེ་ཞུས་	-9.60925
བྲལ་	-9.60973
སོ་སོ་	-9.61
ཐེབས་	-9.61008
སྲུང་བརྩི་	-9.61025
ལྡན་པ་	-9.61057
སློབ་སྦྱོང་བྱེད་	-9.61083
བསྟན་གྱི་	-9.61109
སླར་	-9.61132
▁དེས་ན་	-9.6116
སྒྱུ་རྩལ་	-9.61178
དང་འབྲེལ་ནས་	-9.61256
བྱེ་བྲག་	-9.61274
སྐྱེས་ནས་	-9.61284
རྣམས་སུ་	-9.61318
བྱེད་བཞིན་པ་	-9.61338
འཆར་སྣང་	-9.61395
▁ཀྱེ་མ་	-9.61436
སྙིང་ཐག་པ་ནས་	-9.61454
པར་བྱེད་	-9.61472
སྐུའི་	-9.61529
འཚོ་	-9.61614
གནང་རྒྱུ་དང་	-9.61714
རྒྱལ་བའི་ཕོ་བྲང་	-9.61818
གཙོ་བོར་གྱུར་བའི	-9.6186
མང་དག་ཅིག་	-9.61982
དུས་སུ་	-9.61994
བསོད་ནམས་ཀྱི་	-9.62011
གང་དང་གང་	-9.62037
ཞལ་འདེབས་	-9.62073
ཨིན་	-9.62162
པར་གྱུར་ནས་	-9.62276
ང་རང་	-9.62288
ྭ་བརྒྱད་ཀྱི་བར་	-9.62321
▁ཨོ་	-9.62336
སྟབས་	-9.62345
ཕོག་	-9.62366
ཀྱིས་གཙོས་	-9.6243
སློབ་ཁྲིད་	-9.6249
ངན་པ་	-9.62508
དེང་དུས་ཤེས་ཡོན་	-9.62634
ྒྱུ་མའི་སྐྱེས་བུ	-9.6268
ཅ	-9.62686
བློན་པོ་	-9.62717
སུ་ཞིག་	-9.62777
དཔལ་འབྱོར་གྱི་	-9.62779
གོང་དུ་	-9.6284
བཏང་སྟེ་	-9.62849
གསུང་བཤད་གནང་ཡོད	-9.62858
མཉམ་པ་ཉིད་	-9.62869
བླངས་ནས་	-9.62918
་གང་དག་	-9.62922
▁དཔལ་འབྱོར་	-9.62923
ཡོད་དེ་	-9.62983
ཛ་དྲག་གི་	-9.63025
ཁ་ཅིག་ནི་	-9.63084
སྐྱེས་ཏེ་	-9.63229
ཆོས་རྒྱལ་	-9.6323
ར་བྱའོ་་	-9.63232
བསླབ་	-9.63356
ཉེན་	-9.63386
ཆུའི་	-9.63458
གྲོགས་	-9.6357
བོད་དང་	-9.63646
བྱས་པ་ཡིན	-9.63648
ཚངས་པ་	-9.63651
གོང་མ་	-9.63728
བ་མིའི་ཐོབ་ཐང་	-9.6375
འཛམ་བུའི་གླིང་	-9.63832
མཛད་རྗེས་	-9.63833
གང་འདྲ་	-9.63901
ཆོ་ག་	-9.64016
སུད་སི་	-9.64044
འགྲོ་སྟངས་	-9.64047
བྱ	-9.64074
▁མགོན་པོ་གང་ཉིད་	-9.64135
འགོ་འཛུགས་	-9.64139
འདྲེན་པ་	-9.64188
ཆེན་པོ་ཞིག་	-9.64203
བསྟི་གནས་ཁང་	-9.64203
▁ལ	-9.64205
དཀར་པོ་	-9.64207
མཛད	-9.64236
བཞིན་ཡོད་པ་དང་	-9.64286
སྙན་	-9.6431
་སངས་རྒྱས་	-9.64315
འི་གསུང་བཤད་གནང་	-9.64322
བདེ་འཇགས་	-9.64333
ཟབ་མོ་	-9.64414
རྩོད་	-9.64421
ཁྱིམ་དུ་	-9.64451
གསོ	-9.64453
སེམས་ཁམས་རིག་པ་	-9.64467
འི་ཁ་ལོ་སྒྱུར་བ་	-9.64485
ཁྱབ་བློན་ཆེན་	-9.64527
ཡིན་འདུག	-9.64559
སློབ་ཕྲུག་རྣམས་	-9.64616
བཏང་བ་	-9.64644
དགེ་ལས་སློབ་ཕྲུག	-9.6471
སོ་སོ་ཡང་དག་པར་	-9.64722
ནུབ་ཕྱོགས་	-9.64779
མི་རྣམས་	-9.64781
▁མཐོང་ནས་ཀྱང་	-9.64801
གནང་དགོས་པའི་	-9.64912
ཡོད་མཁན་	-9.6495
མཐོང་་་	-9.64951
ག་རེ་	-9.65004
དེ་ཡིས་	-9.65048
▁ཕྱི་ལོ་གྱི་	-9.6507
མཁྱེན་པ་ཉིད་ཀྱི་	-9.65084
སེམས་བསྐྱེད་	-9.65123
རྒྱ་ནག་ནང་	-9.65137
བཞིན་པར་	-9.65147
བསྙེན་པར་རྫོགས་པ	-9.65153
གྲོས་ཚོགས་གོང་མ	-9.65199
ནང་པ་	-9.65239
གཙང་	-9.65255
ཞེ་སྡང་	-9.65318
སྨན་ཁང་	-9.65322
་བཅས་	-9.65343
བཅོས་	-9.6538
སྟོང་ཕྲག་	-9.65446
ལྷོ་	-9.65463
མངའ་སྡེ་	-9.65467
་ཐམས་ཅད་	-9.6547
▁ད་རེས་	-9.65503
ཐེངས་འདིའི་	-9.65516
གཞན་དག་	-9.6553
བཅས་སུ་	-9.6555
▁འབྱུང་འགྱུར་	-9.65562
ཡང་ཡང་	-9.65646
འཇུག་པ་	-9.65658
སྲིད་བློན་	-9.65755
མང་གཙོ་	-9.65766
ཡིན་ལ་	-9.65775
གོ་རྟོགས་སྤེལ་	-9.65809
▁བདག་གི་	-9.6587
རྣལ་འབྱོར་	-9.65934
པ་ཡི་་	-9.65966
བསྐོ་གཞག་	-9.65986
འི་འབྲས་བུ་	-9.66028
དཔོན་རིགས་	-9.66046
▁བོད་ནང་གི་	-9.66106
དང་ཞབས་སུ་ལྡན་པ་	-9.66166
སློབ་གྲྭར་	-9.66195
▁བོད་མི་མང་སྤྱི	-9.66219
རང་གིས་	-9.66242
གསར་པ་ཞིག་	-9.66244
ཆོས་འབྲེལ་	-9.66259
བླ	-9.66274
སྤྲིན་	-9.66296
རམ་	-9.66422
རྩེ་	-9.66446
ཡིད་ལ་	-9.66451
་དེ་ཡི་	-9.66481
བསླབ་བྱ་	-9.66495
འདས་པའི་	-9.66506
སྟོད་	-9.66512
ེག་ཆེན་ཆོས་གླིང་	-9.66587
ཁ་ཆེའི་	-9.66624
ར་འགྱུར་རོ་	-9.66646
▁གཙོ་བོ་	-9.66656
ཁྱི	-9.66723
གླེང་སློང་	-9.6675
ཁྱེའུ་	-9.66751
མཐོང་ན་	-9.66811
ལས་བསྡོམས་	-9.66863
▁ཁ་ཅིག་གིས་ནི་	-9.66929
འི་བར་	-9.66948
འགོ་	-9.66971
གཞན་དུ་	-9.67082
རང་ཉིད་ཀྱི་	-9.67121
དེ་ཚོ་	-9.67131
འཁོད་དོ་་	-9.67146
▁ད་བར་	-9.67362
གཅིག་གིས་	-9.67367
ཆོས་གོས་	-9.67384
གང་ཡང་མེད	-9.67416
ཅིང་་་	-9.67439
བོད་ཀྱི་ཟློས་གར་	-9.67449
ཀྱིས	-9.67475
ཡང་མ་ཡིན་	-9.67479
པ་ལ་	-9.67495
རྡོ་	-9.67575
ལགས་ན་	-9.67638
ཕྱིའི་	-9.67754
ལག་ཏུ་	-9.67784
བསམ་བློའི་	-9.67786
ཟེར་	-9.67806
བཞིན་འདུག	-9.67822
གནས་སོ་་	-9.67856
འགྲོ་བ་མི་རིགས་	-9.67883
མི་འགྱུར་་	-9.67913
བཀའ་སློབ་ལམ་སྟོན	-9.6795
ཧ་ཅང་ཡག་པོ་	-9.67995
ཡོད་པར་བརྟེན་	-9.68017
བའམ་	-9.68182
ཡང་མེད་	-9.68186
རྒྱལ་དབང་སྐུ་	-9.68292
ཀྱིས་སྨྲས་པ་	-9.68293
ས་ཀྱང་	-9.6834
▁གཟའ་ཟླ་བ	-9.68363
▁འཇམ་དཔལ་གྱིས་	-9.68372
སྤྲུལ་	-9.6838
མངའ་སྡེའི་སྤྱི་	-9.68398
ཐར་	-9.68417
འོད་སྲུང་གིས་	-9.68424
འདི་ཡང་	-9.68435
ད་ལྟའི་ཆར་	-9.68483
ཕུན་ཚོགས་	-9.68494
དབུ་བཞུགས་ཐོག་	-9.68512
གནང་མཛད་	-9.68579
རེ	-9.68591
ཞེས་བྱ་བ་དང་་	-9.68712
▁དགེ་སློང་དག་དེ་	-9.68739
ཕྱུག་ཅིང་ནོར་མང་	-9.68774
ཁུལ་དུ་	-9.68806
ལྟ་སྟེ་དཔེར་ན་	-9.6885
ཉོན་མོངས་པའི་	-9.68877
བླ་ན་མེད་པ་ལྷ་	-9.68887
བཟུང་ནས་	-9.68905
མཐུན་	-9.68953
དགུང་གྲངས་	-9.68968
འདི་ནས་	-9.69042
བསྙེན་པར་རྫོགས་	-9.69045
ོག་	-9.69054
ཆེན་པོ་མཆོག་དང་	-9.69067
པར	-9.69115
ཁོངས་ནས་	-9.6914
དཔག་ཏུ་མེད་པ་དག་	-9.69172
བྱེ་བ་	-9.69176
ཉལ་	-9.69225
ཐུབ་བསྟན་	-9.69244
མཐོ་	-9.69273
▁རྟག་ཏུ་	-9.69341
རྟེན་འབྲེལ་	-9.69364
གཅིག་ལ་	-9.69528
སྔོན་འགོག་	-9.69618
བེད་སྤྱོད་	-9.69626
གོ་བསྡུར་	-9.69638
ཡིད་ལ་བྱེད་པ་	-9.69657
ཐོག་མ་	-9.69692
ནི་ཆོས་	-9.6984
ཨོ་	-9.69848
▁གཞན་	-9.69874
རྒྱ་གཞུང་གི་	-9.69937
གྲངས་མེད་	-9.70003
▁ང་	-9.70151
དགེ་སློང་གི་	-9.70253
བསྒྲགས་	-9.70275
་པ་བཅས	-9.70277
རྩལ་	-9.70304
རིག་གཞུང་དང་	-9.70311
ཆོས་ལུགས་ཀྱི་	-9.70328
དང་ལྷན་དུ་	-9.70368
ལྷ	-9.70377
▁ཞེས་སོགས་ཀྱི་	-9.70406
བླངས་ཏེ་	-9.70455
བྱམས་པ་	-9.70466
མཇུག་	-9.70469
སྐྱོང་	-9.70474
ཡང་དག་པར་རྗེས་	-9.70503
འཇིག་རྟེན་ན་	-9.70733
▁རིག་གཞུང་	-9.70751
དྲན་རྟེན་	-9.70789
བརྗོད་གཞི་	-9.70864
ཨང་	-9.7087
རེ་ཞིག་	-9.7088
ཆོས་ཀྱི་ཉི་མ་	-9.70895
▁ཡུ་རོབ་	-9.70933
རྐྱེན་པས་	-9.70934
དམིགས་བསལ་གྱི་	-9.7118
▁སྤྱི་ཚོགས་	-9.71187
ན་གཞོན་	-9.71208
འདི་སྐད་དུ་	-9.71281
སྐུ་ཚབ་ཚོགས་ཆུང་	-9.71325
འདེབས་	-9.71388
ི་སྤྱད་པ་སྤྱོད་པ	-9.71451
བའོ་་	-9.71474
ཡོད་དོ་་	-9.71476
རྣམ་པར་ཤེས་པའི་	-9.71498
སྤྱོད་ལམ་	-9.71502
མན་	-9.7153
འདས་པའི་ལོ་ངོ་	-9.71588
པར་བྱ་བའི་ཕྱིར་	-9.7163
སྐྱིད་	-9.71733
སོན་	-9.7175
མང་པོར་	-9.71764
འི་སྤྱི་ཁྱབ་	-9.71885
གསང་	-9.7189
དེས་ཀྱང་	-9.71893
བ་ར་	-9.71977
▁བོད་དོན་	-9.72027
རྒྱུ་མེད	-9.72029
▁བསྐལ་པ	-9.72074
སྐྱོང་མཆོག་གིས	-9.72077
བླ་སྤྲུལ་	-9.72089
གཏོར་	-9.72151
ཁོ་	-9.72207
ཤེས་པ་འདི་ལྟར་	-9.7226
ཏོག་ཙམ་	-9.72274
ལགས་སོ་	-9.72291
གཞུང་དང་	-9.72295
ལེགས་བཤད་	-9.7234
པ་ཡིན་ན	-9.72377
ཁྱོད་ནི་	-9.72379
གོང་འཕེལ་	-9.72413
ཡེ་ཤེས་ཀྱི་	-9.72415
▁འདིར་	-9.72478
▁ཁྱོད་	-9.72492
བྱེད་རྒྱུའི་	-9.7264
འཛིན་རིམ་བཅུ་	-9.72663
▁སྐད་ཡིག་	-9.72664
མི་དམིགས་སོ་་	-9.72668
ཡག་	-9.72691
རྒྱས་པར་	-9.72703
འཆད་	-9.72713
པ་དེ་དག་	-9.72725
ཁུ	-9.72751
བར་ཐུགས་རྗེ་ཆེ་	-9.72755
འི་རྨི་ལམ་ན་	-9.72809
ཀྱི་དབང་པོ་	-9.72889
འགྲོ་བར་	-9.72952
མ་ཡིན་པའི་	-9.73013
ཧ་ལམ་	-9.73045
ས་ཏེ་	-9.73078
མཇལ་འཕྲད་	-9.7311
ཕྱིར་མི་ལྡོག་པ	-9.73122
གྲུ་	-9.73159
ས་འདི་ལྟར་	-9.7318
ཚན་པའི་འགན་འཛིན་	-9.73186
ནོར་བུ་	-9.73195
བའི་ཕྱིར་	-9.73299
▁རྒྱལ་པོ་ཆེན་པོ་	-9.73326
འགག་	-9.73355
གནས་སྟངས་སྐོར་	-9.7338
ཀྱི་ཐོག་ནས་	-9.73409
ཏིང་ངེ་འཛིན་གྱི་	-9.73471
ཆོ་འཕྲུལ་	-9.73517
ཤོད་	-9.73548
ཁ་ཆེ་	-9.73563
སླེབ་	-9.73587
མི་འཇིགས་པ་	-9.73598
ཤེས་སོ་་	-9.73661
སྐར་མ་	-9.73678
འདོད་ཆགས་དང་བྲལ་	-9.73734
སོ	-9.73764
ཉན་ཐོས་ཀྱི་	-9.7378
འདི་འདྲ་	-9.73785
ཟབ་	-9.73854
གོང་ས་མཆོག་	-9.73897
ལ་དོ་སྣང་	-9.73932
སློབ་གྲྭ་ཁག་	-9.73941
ཧིན་སྒོར་	-9.73998
རྣམ་དག་	-9.74046
བརྩོན་	-9.74082
གིས	-9.74266
འགྲོ་བ་མི་	-9.74298
ལས	-9.74316
མེ	-9.74326
ཚོགས་གཙོ་མཁན་པོ་	-9.74359
སེམས་འཚབ་	-9.74378
རྣམ་པ་དང་	-9.74448
བྱས་པ་དང་	-9.74449
ཏོ་	-9.74485
འགྲེམས་སྟོན་ཁང་	-9.74493
བརྟེན་	-9.74539
པ་རྣམས་ཡིན་	-9.74575
ཞིག་ཏུ་	-9.7458
དུས་སྟོན་	-9.74595
བཟང་སྤྱོད་ཀྱི་	-9.74622
གར་སོང་ཆ་མེད་དུ་	-9.74712
འི་ཕྱིར་རོ་་	-9.74746
བདག་ཅག་གི་	-9.74813
་དག་	-9.74823
ཕྲུ་གུ་	-9.74851
ཉེ་ལམ་	-9.7487
གཉེར་	-9.74874
དཔེར་ན་ས	-9.74885
གཡོ་	-9.74891
ཐུབ་པ་དང་	-9.74928
་ཡིན་སྙམ་འམ་	-9.74938
བསྒྲུབས་	-9.75002
ཁང་གི་འགན་འཛིན་	-9.75036
སྲིད་འཛིན་ཟུར་པ་	-9.75117
བཅོམ་ལྡན་འདས་དེ་	-9.75131
རྩོད་པ་	-9.7516
བར་གྱི་	-9.75195
ཚར་	-9.75228
འཁྲབ་སྟོན་	-9.75363
ཀླུའི་རྒྱལ་པོ་	-9.75366
ིའི་	-9.75428
རྒྱུས་	-9.75463
འདུག་པ་	-9.75555
མངོན་པར་ཤེས་པ་ལྔ	-9.75572
ལན་འདེབས་	-9.75575
རི	-9.75581
སློབ་ཡོན་	-9.75584
▁བརྟན་པའི་	-9.75602
རྩ་ཁྲིམས་	-9.75621
སིལ་སྙན་	-9.7564
ལས་ཀྱང་	-9.7564
ཨ་རིའི་གྲོས་ཚོ	-9.75641
ནད་པ་	-9.75653
འི་ཡེ་ཤེས་	-9.75699
བྱ་་	-9.75715
ཞིག་ཀྱང་	-9.75986
མ་འོངས་	-9.75994
རྣམས་ནས་	-9.76055
ཤཀྱ་	-9.76109
་ཡིན་ནོ་་	-9.76165
ཞུགས་པ་	-9.76168
འགྲིག་	-9.76253
གྲྭ་	-9.76294
སྒྲུབ་པ་	-9.76319
བདེ་བའི་	-9.76327
རང་རང་གི་	-9.76351
ེ	-9.76374
རྒྱ་གར་གཞུང་མང་	-9.76387
གཉིས་ལ་	-9.76397
ཞུ་རྒྱུ་	-9.76446
ཡིད་ཀྱི་	-9.76496
དེ་འདྲའི་ཐོག་ནས་	-9.76585
སློབ་ཁྲིད་གནང་	-9.76597
▁འགྲོ་བ་མིའི་	-9.76598
འཚོགས་	-9.766
བོད་སྐད་	-9.76604
བཏང་ཡོད	-9.76614
འགན་འཁུར་	-9.76645
བོད་ཀྱི་རྩ་དོན་	-9.76687
▁ཁེ་ན་	-9.76693
པར་འགྱུར་བ་	-9.76701
▁ཀྱེ་	-9.76703
བརྡ་	-9.76773
▁ང་རང་	-9.76797
གཞན་གྱིས་	-9.76805
འཁྲུག་	-9.76843
▁རྒྱ་ནག་གཞུང་གི་	-9.76846
▁ཐོག་མར་	-9.76855
སྐྱེས་པའི་	-9.76863
གྱུར་ཏེ་	-9.76909
ཡིན་ཞེས་	-9.76977
ཁྲ	-9.7698
ཁོ་བོས་	-9.76995
གཉེན་	-9.76999
འགོད་	-9.77008
འགོག་དབྱེ་ཟུར་	-9.77026
ཅིང་་	-9.7706
རྒྱས་པ་	-9.77115
རི་མོ་	-9.77141
མང་དུ་	-9.77194
སྤྱད་པ་	-9.77248
ཁས་ལེན་	-9.77291
གཅིག་པ་	-9.77329
འཇིགས་མེད་	-9.77336
འཁྱེར་	-9.77341
མིན་པར་	-9.7736
སེམས་བསྐྱེད་པ་	-9.77422
རུང་	-9.77424
དེ་འདྲ་ཞིག་	-9.7743
ཨེ་	-9.77435
གཞིས་ཆགས་ཀྱི་	-9.77464
བྱེད་སྟངས་	-9.77465
བགྱིད་	-9.77485
ལུང་པ་	-9.77496
བརྒྱ་སྟོང་ཕྲག་	-9.77508
ཐུན་མིན་	-9.77521
ཕྱིར་མི་འོང་བ	-9.77586
འདུལ་	-9.77626
ཡོང་བཞིན་ཡོད	-9.77648
གི་གནས་སྟངས་	-9.77653
ཉིན་གྲངས་	-9.77666
སྦ	-9.77681
རྔ་	-9.77681
བཀའ་སྩལ་པ་	-9.77682
དབུ་འབྱེད་གནང་	-9.77719
གཟུགས་ཀྱི་	-9.77725
སྔ་	-9.77824
དཀའ་བ་	-9.7787
ང་ཡི་	-9.77899
སེམས་ཁམས་	-9.78018
་ཞེས་	-9.78026
རྒྱ་ཆེན་པོ་	-9.78035
ཁམས་གསུམ་	-9.78063
ཅིའི་ཕྱིར་	-9.782
དཔྱད་	-9.78201
སྟེང་དུ་	-9.78259
ཐུབ་ཡོད	-9.7829
རྒྱུན་དུ་ཞུགས་པ	-9.78313
འགྲེམས་སྤེལ་	-9.78326
བརྒྱབ་	-9.7836
ལྟོས་	-9.78405
་བལ་འབྲུག་གསུམ་	-9.78493
བླ་མ	-9.78536
གསོག་	-9.7855
ཨེ་ཤི་ཡའི་	-9.78572
འབུམ་རམས་པ་	-9.78627
བཞིན་པ་	-9.78703
དེ་རིང་འདིར་	-9.78705
མེད་པས་	-9.78801
ཚན་རིག་པ་	-9.78847
ཉུང་	-9.789
བོད་མི་ཡོངས་ཀྱི་	-9.78906
མགོན་	-9.78928
བརྩི་	-9.78935
ཐེངས་དང་པོ་	-9.78975
འབའ་ཞིག་	-9.78987
མཐུན་ཚོགས་ཀྱི་	-9.79078
འབྱུང་བར་	-9.79078
བཞིན་་	-9.79079
ཡོན་	-9.79102
པ་ཡིན་ནོ་་	-9.79121
འགྲོ་བཞིན་པའི་	-9.79139
ཡོད་པས་	-9.79165
མཚམས་འཇོག་	-9.79183
སྟན་ལས་ལངས་ཏེ་	-9.79201
འགྲོ་རྒྱུ་	-9.79287
▁ལུས་	-9.79292
མོའི་	-9.79292
ཤེས་རྟོགས་	-9.79435
རྒྱ་ནག་དམར་ཤོག་	-9.79445
པར་བྱེད་དེ་	-9.79466
རབ་འབྱོར་གྱིས་	-9.79471
འོག་ནས་	-9.79514
ཁྱུ་མཆོག་	-9.79579
▁ལོ་	-9.79608
དཔུང་	-9.79668
▁བོད་མིའི་སྒྲིག	-9.79754
ངོ་མཚར་	-9.79773
ཆ	-9.7984
ས་མཚམས་	-9.79871
ཕྱིས་	-9.79918
བྱིན་གྱིས་བརླབས་	-9.79935
ཡིད་ཀྱིས་	-9.79994
ནམ་རྒྱུན་	-9.79998
བོད་རིགས་ཡོངས་ལ་	-9.80003
རྔམ་སྟོན་	-9.80011
ཞིག་ཆགས་	-9.8002
མ་ཡིན་པར་	-9.80067
ཕྱི་ནང་	-9.80081
▁གོང་དུ་	-9.80115
བཞི་པ་	-9.80125
ཁང་པ་	-9.80223
ཀྱི་སྲིད་བྱུས་	-9.80313
ཞི་རྒོལ་	-9.80322
བཀུར་སྟི་	-9.80431
སྒེར་	-9.80539
མཚུངས་	-9.80563
ཆུ	-9.80644
གང་ན་	-9.8067
ཀུན་དགའ་བོས་	-9.8072
བསྐོང་ཚོགས་གནང་	-9.80724
བསྔགས་པ་	-9.80798
ཁུངས་	-9.8083
ཕྱི་ལོ་ཚེས་	-9.8086
སྲིད་གཞུང་	-9.80887
རྣམ་པར་རྟོག་པ་	-9.80889
ལ་ཚེ་དང་ལྡན་པ་	-9.80893
ཁག་གཅིག་ལ་	-9.81002
ཟིན་པའི་	-9.81021
ྱ	-9.81025
འདི་ལྟ་བུའི་	-9.81071
པར་གྱུར་	-9.81089
རྣམ་དཔྱོད་	-9.81096
▁ཐེངས་འདིའི་	-9.81132
བཞག་པ་	-9.81138
ཇི་སྙེད་	-9.81141
གས	-9.81206
ཁོང་ལ་	-9.81228
ཚོགས་འདུའི་	-9.81271
་པ་	-9.81274
གཞུང་འབྲེལ་མིན་པ	-9.81337
ཞེས་བྱ་བ་ནས་	-9.8135
མིར་	-9.81381
ཐོབ་པར་	-9.8141
གནང་ནས་	-9.81421
▁བཞི་གང་ཞེ་ན་	-9.81427
ལེགས་སོ་ལེགས་སོ་	-9.8145
ར་ལན་གསུང་བ་ནས་	-9.8146
མ་གྱུར་ཅིག་	-9.81471
ཡོད་པ་རྣམས་	-9.81547
གལ་ཆེན་པོ་	-9.81558
བོད་མི་དང་	-9.81578
གསོད་	-9.81589
བསྐྱར་ཞིབ་	-9.81608
སྐྲ	-9.8166
རྒྱུན་དུ་	-9.81677
ནོ་	-9.81691
མེད་ཀྱང་	-9.81697
པའི་སྐབས་	-9.81709
ཡོད་ཅིང་	-9.81795
རྫུ་འཕྲུལ་གྱི་	-9.81817
ཆགས་པའི་	-9.81977
བཞིན་ཡོད་སྟབས	-9.82018
ཝི་	-9.82038
▁དེ་ནས་རྒྱལ་པོ་	-9.82094
ཚོགས་བཅར་བ་	-9.82138
བའི་ནང་འཁོད་དོན	-9.82155
ཐམས་ཅད་མཁྱེན་པ	-9.82169
དགེ་བའི་	-9.82232
བཟང་ཕྱོགས་ཀྱི་	-9.82237
གུ་	-9.8224
དུས་སྐབས་འདིར་	-9.8228
ཡང་ཆེས་ཕ་རོལ་ན་	-9.82371
བྱས་པས་	-9.82424
གསུངས	-9.82437
བོད་ནང་གི་ཛ་དྲག་	-9.82447
མ་སྐྱེས་པ	-9.82471
འགོག་	-9.82501
ལྔའི་	-9.82556
དོན་དམ་པར་ན་	-9.82571
▁དེ་འདྲའི་	-9.82582
ཚུད་	-9.82591
གད	-9.82614
དྲི་མ་	-9.82648
ཧ་ཅང་ཆེན་པོ་	-9.82681
ལུང་བསྟན་	-9.82765
ས་པ་	-9.82778
ནང་བཞིན་	-9.82821
འི་རྣམ་གཞག་	-9.8283
མཛད་སྒོའི་	-9.8284
མི་སྤྱོད་	-9.82874
ས་ཡ་	-9.82902
དེ་དག་དང་ལྡན་ན་	-9.8292
ས་གནས་བོད་རིགས་	-9.83033
བོད་རིགས་ཚོགས་པ	-9.83057
ཙམ་གྱིས་	-9.83094
སྙམ་དུ་	-9.83104
དོན་གཅོད་	-9.8312
ཡོད་དམ	-9.8319
རྒྱབ་སྐྱོར་གྱི་	-9.83315
ར་མི་འགྱུར་རོ་་	-9.83321
འོག་ཏུ་	-9.83325
དབང་སྒྱུར་	-9.83334
ཨ་རིའི་ཕྱི་སྲིད་	-9.83354
གནང་བཞིན་ཡོད	-9.83364
འོངས་	-9.83376
ལོ་འཁོར་	-9.8338
སྡུག་བསྔལ་གྱི་	-9.83413
བླ་ཆེན་	-9.83451
རྒྱལ་དབང་	-9.8351
བསྐྱངས་	-9.83551
བཙོན་འཇུག་	-9.83595
ཡོ་བྱད་	-9.83621
བཞིན་ཡོད་པ་	-9.83661
སློབ་གཉེར་ཁང་གི་	-9.8368
བཀའ་བཞེས་བཟང་པོ་	-9.83694
མྱ་ངན་གུས་འདུད་	-9.83698
དགའ་མགུར་སྤྱོད་	-9.83711
མི་འགྱུར་	-9.83732
▁དེང་སང་	-9.83744
སུས་ཀྱང་	-9.8376
རབ་འབྱོར་གཞན་ཡང་	-9.83836
བསྟན་ཏོ་་	-9.8392
རང་བཞིན་གྱི་	-9.83941
འགྲོ་བའི་	-9.83972
སྦྱོང་བརྡར་	-9.83993
འཇིག་	-9.84056
གནས་སྡོད་	-9.84077
ང་ཚོ་ཚང་མ་	-9.84101
ཡོངས་སུ་རྫོགས་	-9.84107
མི་གཡོ་	-9.8411
གྱིས་གཙོས་	-9.84152
ཡུལ་དེའི་	-9.84172
མ་རིག་པ་	-9.84182
འབྲས་སྤུངས་	-9.84184
ཕེབས་ནས་	-9.84212
མེད་དེ་	-9.84215
དྲ	-9.84227
▁རྒྱལ་བ་	-9.84227
གྱུར་བའི་	-9.84232
ཡོད་པར་	-9.84249
རབ་ཏུ་འབྱུང་བ་	-9.84274
བོད་མི་བཙན་བྱོལ་	-9.84289
▁དགེ་བའི་རྩ་བ་	-9.84358
དད་	-9.8443
འདུལ་བ་	-9.84469
ཉེས་	-9.84531
ཚད་མེད་	-9.84551
འདྲེན་	-9.8456
དགེ་འདུན་གྱི་	-9.84571
ཁ་གསལ་	-9.84586
རྒྱལ་པོ	-9.84588
རིས་	-9.8462
སླར་གསོ་	-9.84651
འདུས་བྱས་	-9.84674
ལ་གནས་ནས་	-9.84717
ལམ་སྲོལ་	-9.84728
གྱུར་ཅིག་མི་	-9.8478
བསམ་གཏན་གྱི་	-9.84822
ཆོས་ནི་	-9.84884
ལོ་ལྟར་	-9.84892
བྱུང་ན་	-9.84905
ཡུལ་མི་	-9.84955
ཁྲིམས་ལུགས་	-9.84961
ཕྱིན་ནས་	-9.84968
▁ཕྱི་	-9.85003
ཤེས་པའི་	-9.85008
རྟེན་གཞི་བྱས་པ	-9.85019
སྐད་ཅིག་	-9.85121
མང་ཚོགས་ཀྱི་	-9.85121
པ་ཡིན	-9.85141
བརྟུལ་ཞུགས་	-9.8515
སྲ་བརྟན་	-9.85204
སྐྱེ་བོ་ཕལ་པོ་ཆེ	-9.8524
ཡིན་པར་སེམས་ན་	-9.85241
བརྒྱན་	-9.8525
ལྷག་པར་	-9.85254
བསམ་འཆར་	-9.85262
དཔག་ཚད་	-9.85299
རྒྱ་མཚོའི་	-9.85311
ལས་དེའི་	-9.85345
▁ཕྱིས་སུ་	-9.85356
ཁྱེད་ཀྱིས་	-9.85358
་མ་ཡིན་	-9.85361
རྒྱལ་པོའི་ཁབ་	-9.8538
ཡོང་དུས་	-9.85387
སྡོམ་	-9.85391
གོ་རྟོགས་	-9.85397
འབྲུག་	-9.85401
མང་ཚོགས་	-9.85409
ད་ལྟར་བྱུང་བའི་	-9.85461
་གོས་ཕྲག་པ་གཅིག་	-9.85499
དགའ་པོ་བྱུང་	-9.85511
དེས་བསམས་པ་	-9.85518
འགྲེལ་བརྗོད་	-9.85527
སླ	-9.85565
ཇི་ལྟ་བ་བཞིན་དུ་	-9.85594
ཁ་ཅིག་	-9.8573
པ་རྣམས་ལ་	-9.85736
ཟུར་པ་	-9.85741
པ་ལྟར་	-9.85772
ང་ཉིད་	-9.858
་མཆོག་དང་	-9.85819
གནང་དགོས	-9.85831
སྔོན་རྩིས་	-9.85841
ཡོངས་ནས་	-9.85878
སློང་	-9.85888
རིན་པོ་ཆེས་	-9.85952
པོས་	-9.85962
ཆེ	-9.85981
རྒྱ་ནག་དང་	-9.85983
རྣམ་པར་བྱང་བ་	-9.86016
མང་པོའི་	-9.86028
ཁྱད་	-9.8603
ལེན་པ་	-9.86042
ཚན་པ་	-9.86061
པ་ཇི་སྙེད་པ་ཉིད་	-9.86095
ལ་མཆོད་པ་	-9.86166
གྱི་ཡོད	-9.86216
སྤངས་	-9.86222
འགོ་བཙུགས་	-9.86255
གནས་བརྟན་	-9.86305
ཕྱོགས་བཅུའི་	-9.86344
བཟོས་	-9.86358
སྐོར་གྱི་	-9.86385
ཡོད་ཅེས་	-9.86399
རི་དགས་	-9.86404
གི་དགེ་འདུན་	-9.86437
ངེས་པར་འབྱུང་བར་	-9.86485
འོང་	-9.86518
སྤ	-9.86543
དེས་ན་	-9.8655
ང་རྒྱལ་	-9.86645
སྒང་	-9.86656
སྙིང་བསྡུས་	-9.86676
ཕྱག་ལས་	-9.8674
འཕྲུལ་ཆས་	-9.86814
སྤྱི་ཚོགས་ཀྱི་	-9.86822
དི	-9.86827
དང་་རང་སངས་རྒྱས་	-9.86828
བསྲེགས་	-9.86849
ཐབས་ཤེས་	-9.86878
ད་ལྟར་བྱུང་བ་	-9.86891
ཀྱི་རང་བཞིན་	-9.86892
▁ཡང་ན་	-9.86903
▁དུས་རབས་	-9.86907
སོང་བ་	-9.86928
ངྒེ་མཆོག་དང་	-9.86931
གཅིག་ལ་གཅིག་	-9.86944
བཅོམ་	-9.87019
ལས་ཁུངས་དང་	-9.87078
▁ཤེས་རབ་	-9.8718
བག་	-9.87219
བཀའ་ཤག་ནས་	-9.87255
འདུ་བྱེད་རྣམས་	-9.87283
ཚེ	-9.87393
མཐོ་སློབ་ཀྱི་	-9.87421
བསྒོམ་	-9.87465
དང་ལྷན་ཅིག་	-9.87512
བརྒྱད་ཅུ་	-9.87591
དཔའ་བོ་	-9.87622
སྣ	-9.87628
གླེང་	-9.87633
གཞལ་མེད་ཁང་	-9.87649
རི་རབ་	-9.87682
ཞུས་པ་དང་སྦྲགས	-9.87776
མ་གཏོགས་པར་	-9.87801
སྨོན་ལམ་བཏབ་པ་	-9.87824
ལེགས་པར་གསུངས་པ	-9.87857
བོད་མི་ཚོའི་	-9.87862
ཚོང་པ་	-9.87891
ལས་ནི་	-9.87987
ཡོངས་སུ་གཏོང་བ	-9.87994
སྐོར་གསུངས	-9.88014
ཕྱོགས་ཀྱི་	-9.8802
མང་གཙོ་དང་	-9.88026
ལ་སྙོམས་པར་ཞུགས་	-9.88034
འདོད་པས་	-9.88044
པར་འགྱུར་རོ་	-9.88165
ཁམས་ཤེས་པ་འགོག་པ	-9.88284
མ་བྱས་	-9.8833
ཕེབས་སྐབས་	-9.88335
རག་	-9.88391
་ལེ་	-9.88416
་ཆེན་དགེ་འདུན་	-9.88419
▁ཡེ་ཤེས་	-9.88427
ནང་ར	-9.88446
གཞུང་མང་གཉིས་ལ་	-9.8845
▁དེའི་ཕྱིར་	-9.88459
ཆུང་མ་	-9.88516
ཨ་རུ་ན་ཅལ་	-9.88517
འདུག་ནས་	-9.88549
འི་ཚིག་བླ་དགས་	-9.88568
ཤི	-9.88638
ལས་ཁུངས་ཀྱིས་	-9.88686
བཙན་	-9.88729
སོགས་ནས་	-9.88735
ཞི་བར་	-9.88792
རྟོག་	-9.888
གནམ་	-9.88953
སྐད་ཆ་བཤད་	-9.88962
དགའ་བའི་	-9.88964
དེད་དཔོན་	-9.89043
ཡང་མི་	-9.8909
▁རྣམ་པ་ཐམས་ཅད་	-9.89099
ཆོལ་གསུམ་	-9.89135
སྐབས་འདིར་	-9.89148
གུས་	-9.89155
གྱིས་ཤིག་	-9.89164
▁ཚུལ་ཁྲིམས་	-9.89215
བསྐོ་གཞག་གནང་	-9.89251
ར་གྱུར་པ་དེ་གཞན་	-9.89258
ལས་བྱུང་བའི་	-9.89286
བྱུང་་་	-9.89304
ཁུལ་དེར་	-9.89359
འདུན་པ་	-9.89364
དང་རིག་གཞུང་	-9.8945
བཀའ་ཆོས་	-9.89453
ལགས་ལ་	-9.89503
བཞིན་པ་དང་	-9.89528
བཀག་	-9.8961
ཚགས་ཚུད་	-9.89629
་བཅས་ཀྱི་	-9.89654
བདག་ཀྱང་	-9.89725
སངས་རྒྱས་པའི་	-9.89737
རྟག་	-9.89765
གཞས་	-9.89818
འབོད་	-9.89959
འགྲོ་གྲོན་	-9.8999
ཐོབ་ནས་	-9.89993
འདེགས་འབུལ་ཞུས་	-9.90014
བྱ་རྒྱུ་ཡིན	-9.90037
པར་གྱུར་་	-9.90062
ཉམས་ཞིབ་ཁང་གི་	-9.9007
མགོན་མེད་	-9.90092
▁གང་ཞིག་	-9.90132
དགེ་སྦྱོང་	-9.90136
གསུང་ཆོས་	-9.90159
ཕྱོགས་ཕེབས་གནང་	-9.90178
དགེ་བའི་ཆོས་	-9.90182
འཛིན་གྲྭ་	-9.90193
དུ་ཡོད་པའི་	-9.90233
པར་མི་བྱེད་	-9.90259
བཞིན	-9.90267
པར་བརྟེན	-9.9029
རྩོམ་ཡིག་	-9.90311
ས་ཕྱོགས་གང་སར་	-9.90394
བཞུགས་སྒར་རྡ་ས་	-9.90431
ལྷ་སར་	-9.90468
རྟེན་ཅིང་འབྲེལ་	-9.90475
བྱ་རྒྱུར་	-9.90499
སྲོལ་རྒྱུན་གྱི་	-9.90608
ཤུ	-9.90614
ཞུས་པ་ཡིན	-9.90614
ཁུར་	-9.90616
ཆོག	-9.90634
དྲུང་འཕར་	-9.90663
དང་མཉམ་དུ་	-9.90709
གདུང་	-9.90798
མི་ལོ་	-9.90803
འདུལ་བའི་	-9.90806
▁འཕྲོད་བསྟེན་	-9.90836
ར་གནས་པའམ་གལ་ཏེ་	-9.90838
ར་འགྱུར་བ་	-9.90845
སོ་སོས་	-9.90901
དབུ་འབྱེད་ཀྱི་	-9.9097
གློད་བཀྲོལ་	-9.90985
འགའ་	-9.90999
ཞེ་	-9.91007
ཡོངས་གྲགས་	-9.91028
རྒྱལ་ས་ལྡི་ལིར་	-9.91038
དེས་ནི་	-9.9106
གྲོང་ཁྱེར་དུ་	-9.91065
འཐབ་	-9.91091
གནང་ཡོད་འདུག	-9.91103
རྣམ་པར་ཐར་པ་	-9.91236
དུས་སྐབས་	-9.91274
མཆོག་གིས་གཙོས་	-9.9139
ནམ་མཁའི་	-9.91404
གཟབ་རྒྱས་ཞུས་ཡོད	-9.91468
དགའ་བ་དང་་	-9.91495
རྒྱ་གར་དུ་	-9.91542
གཏིང་ཟབ་	-9.91543
▁འདས་པའི་ལོ་ངོ་	-9.91689
ཀརྨ་ཡེ་ཤེས་མཆོག་	-9.91705
ཚོལ་	-9.91739
བྲིས་	-9.9177
དགོས་པ་རེད	-9.91778
▁ཤེས་ཡོན་	-9.91782
ཞུ་བ་	-9.91783
ཏ་ལའི་བླ་མ་	-9.91791
བཤད་ཀྱི་ཡོད	-9.91829
དུ་གྱུར་པ་	-9.9184
འཇོམས་	-9.91876
བྱུང་བ་དང་	-9.91933
སྐྱེད་མོས་ཚལ་	-9.91934
བལ་ཡུལ་	-9.91948
བཞུགས་སྒར་རྡ་སར་	-9.9196
བོད་ཁྱིམ་	-9.9197
བདེ་སྡུག་	-9.91997
སྲིད་བྱུས་ལ་	-9.92038
ཆེ་བསྟོད་	-9.92144
▁གཟའ་ལྷག་པ	-9.92153
རྫོགས་པའི་	-9.92171
ཤཀྱ་ཐུབ་པ་	-9.92174
སྨོན་	-9.922
ཁ་ཟས་	-9.92236
འདུ་བྱེད་	-9.92237
རྒྱ་ནག་ལ་	-9.92283
ལྡི་ལིར་	-9.92349
ཕྱི་ལོ་བོད་མིའི་	-9.9236
གཟུགས་ཀྱི་ཁམས་	-9.92409
གནས་་	-9.92431
ཚོགས་པ་དང་	-9.92439
གནས་སྟངས་དང་	-9.92444
ཏ་ལའི་བླ་མའི་	-9.92481
གཏོང་བ་	-9.92482
དགའ་བ་དང་	-9.92485
འཕྲུལ་	-9.92518
གཟའ་པ་སངས་ཉིན་	-9.92563
དྲི་བར་ལན་འདེབས་	-9.92633
འདུག་སྟེ་	-9.92641
ལགས་ཀྱིས་ས་གནས་	-9.92677
ཟེར་རྒྱུ་འདི་	-9.92707
བར་འགྱུར་	-9.9271
གཞུང་ཆེན་	-9.92766
གསར་འཛུགས་གནང་	-9.92766
མ་བྱུང་	-9.92833
སངས་རྒྱས་ལ་	-9.92845
▁གོང་ས་	-9.92866
གཉིས་ནས་	-9.92906
རིན་པོ་ཆེ་དང་་	-9.92968
ཞིག་གི་	-9.92971
འདུགཅེས་	-9.93009
པ་ཡིས་་	-9.93013
སྨྲ་	-9.93015
གནང་ཡོད་པ་མ་ཟད	-9.93084
ཟུར་དུ་	-9.93121
རྒྱུ་མ་ཟད	-9.93136
ལོ	-9.93214
བུད་མེད་ཀྱི་	-9.93244
འགྲེལ་བཤད་རྒྱག་	-9.93254
ཡིན་གྱིས་	-9.9337
བོད་མིའི་ཐོག་	-9.93379
གཉིས་སྨན་	-9.93398
དགོངས་ཚུལ་	-9.93421
▁ཆོས་ཐམས་ཅད་	-9.93463
སྒེར་གྱི་	-9.93475
ནན་	-9.93478
རེ་རེ་	-9.93497
ཤིང་ས་ལ་ཆེན་པོ་	-9.93503
འབད་	-9.93514
འི་རྒྱལ་པོ་	-9.9355
ཆུང་ངུ་	-9.93552
པ་ན་	-9.93553
བཞུགས་སྒར་དུ་	-9.93589
བཀའ་ཤག་གིས་	-9.93593
མཉམ་ཞུགས་གནང་ཡོད	-9.93622
པ་ལགས་	-9.93655
པར་འགྱུར་ཏེ་	-9.93666
ལ་སྨྲས་པ་	-9.93684
ངེས་པ་	-9.93684
རིང་ལུགས་ཀྱི་	-9.93701
མཐོང་སྟེ་	-9.93727
▁བདག་ཅག་	-9.93732
འཚོ་བའི་	-9.93794
ནམ་མཁའ་ལ་	-9.93796
ཞབས་འདེགས་	-9.9383
རྩིས་ཞིབ་	-9.93851
ཉིད་དང་་	-9.93854
དུའང་	-9.9388
དཀའ་སྡུག་	-9.93921
▁ཕྱི་ལོ	-9.94063
མིས་	-9.94102
ཚོང་ལས་	-9.94131
གཟིགས་སྐོར་	-9.94134
རྣམ་པར་སྨིན་པ	-9.94241
ར་བྱ་	-9.94257
དགོན་	-9.94292
ཕྲ	-9.94347
མཆོད་འབུལ་	-9.94409
ནོ་་	-9.94475
དབེན་པ་	-9.94485
ལས་བྱུང་བ་	-9.94562
ཀུན་ལ་	-9.94609
སྐུའི་འཁྲུངས་	-9.94636
དེར་བརྟེན་	-9.94637
ཡོང་ཐབས་	-9.94806
རྣམ་འགྱུར་	-9.94844
བཅའ་ཁྲིམས་	-9.94879
ལྷོ་ཨ་ཕི་རི་ཀའི་	-9.94908
ཆོས་དང་	-9.94937
གལ	-9.95012
སྨྲས་	-9.95022
གཅིག་དང་	-9.95105
གང་ཡིན་པ་དེ་	-9.95117
ཡོངས་སུ་བསྔོ་བ	-9.95131
ཤོར་	-9.95205
ཉིད་ཀྱི་	-9.95207
འགྲེལ་བཤད་	-9.95291
ཞེན་	-9.95321
བཟུང་སྟེ་	-9.95362
མ་ཡིན་ནོ་	-9.9539
ཞག་	-9.95396
རྣམ་གཉིས་ཀྱིས་	-9.95397
རྗེས་དྲན་	-9.95418
དང་ལྡན་པས་	-9.95433
འཕྲིན་ལས་	-9.95449
ཆེན་པོ་དང་་	-9.9545
འདོད་པ་དང་་	-9.95477
སློབ་ཕྲུག་གྲངས་	-9.95504
མཆོད་སྦྱིན་	-9.95521
བཀའ་ཤག་	-9.95525
རྨོངས་	-9.95605
སྐུལ་	-9.95606
བོད་རིགས་སྤྱི་	-9.9564
་བ་	-9.95652
སྟ	-9.95668
བཤེས་གཉེན་	-9.957
དབང་སྒྱུར་འོག་	-9.95737
དམར་	-9.9574
ངག་དབང་	-9.95741
ལགས་སམ་	-9.95753
དབ	-9.95759
འོས་བསྡུ་	-9.95782
པ་སྟེ་	-9.95783
ཐབས་ལ་མཁས་པ་	-9.95874
སྲིད་བྱུས་འོག་	-9.95879
དཔལ་ལྡན་བོད་མི་	-9.95882
པུས་མོ	-9.95901
འཁྲུངས་སྐར་	-9.95942
སྐྱ	-9.95993
འདུས་མ་བྱས་	-9.96055
▁བྱང་ཆུབ་	-9.96069
ཡོང་རྒྱུར་	-9.96081
པར་བྱ་	-9.96102
▁འདས་པའི་	-9.96136
སྲེད་པ་	-9.9618
བཀའ་ཟུར་	-9.96225
▁བོད་པའི་	-9.96253
དུས་རྒྱུན་དུ་	-9.96258
གླ	-9.9626
རུས་	-9.96261
གཏན་	-9.96271
བསྒོམས་	-9.96272
རྒྱ་དཀར་ནག་གཉིས་	-9.96306
ཁྲོམ་སྐོར་	-9.96309
ཚན་	-9.96319
ཆོས་བསྟན་པ་	-9.96324
▁རྒྱ་གར་ནང་	-9.96339
འདྲི་	-9.96378
བགྱིས་	-9.96404
པ་སོགས་	-9.96456
དྲུང་དུ་	-9.9648
མྱོང་ཡོད	-9.96496
རྒྱབ་སྐྱོར་བ་	-9.9654
གསུང་འདོན་གནང་	-9.96576
འི་ཐོག་ནས་	-9.96578
▁དེ་ཕྱིར་	-9.96598
་གང་	-9.96623
ཆོས་ཚོགས་	-9.96637
མལ་	-9.9668
ལོ་ངོ་སྟོང་ཕྲག་	-9.96681
བོད་མཐོ་སྒང་གི་	-9.96707
ལྡན་པ་ཞིག་	-9.96719
ཨོ་གླིང་	-9.96726
ཏིང་ངེ་འཛིན་འདི་	-9.96742
▁སྲིང་མོ་	-9.96746
འཁོར་ལྷ་ཚང་བསོད་	-9.96775
▁ཉི་ཧོང་	-9.96804
མི་ཤེས་	-9.96809
གང་མགྱོགས་	-9.96824
མངོན་སུམ་དུ་བྱས་	-9.96829
ལོ་རྒྱུས་ཀྱི་	-9.9687
ཞིག་ཡིན་པ་	-9.96877
བྱ་བ་བཞུགས་ཏེ་	-9.9688
བ་རྣམས་	-9.96916
ཐབས་དང་	-9.96976
འི་ཐོག་	-9.96984
ལགས་་	-9.97041
མི་སྣང་བ	-9.97051
འི་བཅའ་ཁྲིམས་	-9.97076
བཏང་སྙོམས་	-9.97114
བྱུང་སོང་	-9.97132
བར་བྱའོ་་	-9.97191
བསྡུས་	-9.97229
གཡོས་	-9.9725
མངོན་པར་སྤྲུལ་	-9.97349
སྨན་གྱི་	-9.97367
ཅུང་ཟད་	-9.9738
སྐྱེ་བོ་མང་པོ་	-9.97405
བཀའ་མོལ་	-9.97432
རྒྱབ་སྐྱོར་དང་	-9.97441
བརྟན་པ་	-9.97447
དམ་པའི་	-9.9746
ཉེར་	-9.97486
ལས་འདས་པའི་	-9.97496
མ་ལུས་	-9.97501
ཚུལ་བཞིན་	-9.97555
▁སེམས་ཅན་འདི་དག་	-9.97557
ཆུད་	-9.97571
▁ཕྱི་དྲིལ་	-9.97581
་ཡང་དག་པ	-9.97616
▁དེ་དག་གི་	-9.97658
དེ་སྔོན་	-9.9766
་ཞིག་	-9.97682
རྒྱ་སྐྱེད་	-9.97706
བློན་ཆེན་ཟུར་པ་	-9.97715
གཏན་འཁེལ་ཡོད	-9.97747
ཤ་སྟག་	-9.97752
འི་ནང་དུ་	-9.97772
ཤར་ཕྱོགས་སུ་	-9.97797
ཕེབས་བསུ་	-9.97802
རྒྱུ་ཡིན་པ་	-9.97861
མོར་	-9.97916
བྱ་རྒྱུ་དང་	-9.97917
ཐུན་མོང་	-9.97949
ཁག་དང་	-9.97995
ཐེག་པ་ཆེན་པོ་	-9.98009
བོད་རྒྱའི་	-9.98017
ལ་མ་བརྟེན་པའི་	-9.98044
གཞོན་	-9.98057
བོད་ནང་དུ་	-9.98075
བསགས་པ་	-9.98076
འདི་ལོའི་ཕྱི་ཟླ་	-9.98108
རྒྱ་མི་	-9.9811
འཁོད་པ་	-9.98122
ཆག་	-9.98126
སྙམ་	-9.98126
འཕྲོག་	-9.98153
ཁེ་	-9.98209
བསྙེན་བཀུར་	-9.98269
དོང་	-9.98286
དྲི་མེད་	-9.98295
རིས་མེད་	-9.98296
འདུག་ཅེས་	-9.98321
ཀྱིས་ཀྱང་	-9.98403
དང་མཐུན་པའི་	-9.98502
བདུད་རྩི་	-9.98524
ཧ་ལས་པའི་	-9.98604
གང་ཡིན་པ་འདི་ནི་	-9.98641
་རྣམས་ནི་	-9.98656
བྱ་སྤྱོད་	-9.9867
སྟོབས་ཀྱིས་	-9.98697
འབད་བརྩོན་གནང་	-9.9877
རྨ་	-9.98788
འོ	-9.98796
འཐོབ་	-9.98805
འདྲ་བ་	-9.98807
བྱས་ཤིང་	-9.98815
ནང་མི་	-9.98825
ཚོགས་ཀྱི་	-9.98849
ཚན་རིག་དང་	-9.98856
གཅིག་སྒྲིལ་	-9.98865
་བཏང་ངོ་་་	-9.98882
ཨུ་རུ་སུའི་	-9.98907
བལྟས་	-9.98947
གོང་འཕེལ་གཏོང་	-9.98981
འབར་བ་	-9.99
པར་མི་འགྱུར་	-9.99023
ནག་པོ་	-9.99044
དང་་དེ་བཞིན་དུ་	-9.99121
▁ཁྱོད་ཀྱི་	-9.99139
་ཡི་	-9.99185
ཁྲི	-9.99214
མི་འདོད་པ་	-9.9925
ལྷ་ཁང་	-9.99259
བུའི་	-9.99286
གཅིག་ནི་	-9.99306
རྒྱལ་བ་རིན་པོ་ཆེ	-9.99312
སྐྱེས་བུ་འདུལ་བ	-9.99328
ལོ་རྒྱུས་ཐོག་	-9.9936
ར་གྱུར་པས་	-9.99367
བཞུགས་པ་	-9.99394
གཏེར་	-9.99417
སྐུ་ཚེའི་འཕེན་པ་	-9.99429
ཏུ་གཟར་ནས་	-9.99431
ཤུལ་	-9.99444
འགན་འཛིན་རྣམ་པ	-9.99482
ཤིང་་་	-9.99509
ཕུ	-9.9953
དུས་ཆེན་	-9.99532
ལྡོག་	-9.9954
བོ་་	-9.99563
གྷ	-9.99605
་ཡིན་	-9.99629
མཆོག་ནས་	-9.99636
ཞིང་་	-9.99649
ཀྱི་ཚབ་ཞུས་ཏེ་	-9.99662
བསྔགས་	-9.99672
རྗེས་སུ་ཡི་རངས་	-9.99675
གང་ཡིན་པ་དེ་དག་	-9.99696
དངོས་ཁམས་རིག་པ	-9.99697
▁མི་རིགས་	-9.99718
དུ་རྟེན་གཞི་བྱས་	-9.99722
རྒྱལ་ཁབ་ཁག་	-9.99727
ཕྱི་ནང་གི་	-9.99735
བཙུན་པ་	-9.99753
ལ་ལོངས་སྤྱོད་ཆེ	-9.99808
སྤྱི་ཡོངས་ཀྱི་	-9.99827
བསྐྱེད་པ་	-9.99882
འཁྲུངས་	-9.99898
སྟབས	-9.99929
ལོག་པར་	-9.9993
ལམ་གྱི་	-10.0004
གཡས་	-10.0004
ལུས་པོའི་	-10.0005
ཐུབ་པ་ཞིག་	-10.0009
ནམས་སྟོབས་རྒྱལ་	-10.001
ནྡ	-10.0013
ངོས་ལེན་	-10.0022
རྒྱ་མིའི་	-10.0025
སྲུང་བརྩི་ཞུས་	-10.0025
དག་དང་	-10.0026
ཇི་འདྲ་ཞིག་	-10.0029
ཕྲག་	-10.0033
མ་བཅིངས་མ་གྲོལ་བ	-10.0033
བརྒྱུད་ལམ་	-10.0033
ན་ཅིག་ཕྱིར་འོང་བ	-10.0041
སྟོབས་ཆེན་	-10.0045
ལྷུང་	-10.0053
འགྱུར་ལྡོག་	-10.0056
བ་དེ་	-10.0059
ཇ་	-10.0063
ཕྱེ་	-10.0066
དེ་བས་	-10.0068
ཤུགས་ཆེ་གནང་	-10.0069
ང་ནི་	-10.0074
བོར་	-10.0075
འཛིན་བཟུང་	-10.0076
ཡིག་རྒྱུགས་	-10.0076
ིང་	-10.0076
པར་གྱིས་ཤིག་	-10.0077
ཁོ་བོ་	-10.0081
དང་ལྡན་ཞིང་	-10.0087
ཞུས་པའི་	-10.0089
ཡོན་ཏན་གྱི་	-10.009
བར་ཆད་	-10.0107
རྣམས་ཡིན་ནོ་	-10.0108
ཁྱེད་རང་ཚོ་	-10.0117
ེན་གཟབ་རྒྱས་ཞུས་	-10.0118
▁ཁྱོད་ནི་	-10.0118
གཙོ་བོ་ནི	-10.0119
སྒྲིག་གཞི་	-10.0125
གནས་ཏེ་	-10.0126
ཅི་འདྲ་བ་	-10.0127
བྱམས་པ་དང་བརྩེ་བ	-10.0129
ཡི	-10.0129
ཀྱི་ཕྱིར་	-10.0131
་ཡ་	-10.0136
བསྟི་གནས་	-10.0137
འཇམ་	-10.0143
བྱེད་ཅིང་	-10.0151
མང་གཙོའི་ཀ་བ་	-10.0151
བརྒྱུད་རིམ་	-10.0153
ན་ལེནྡྲའི་	-10.0154
ལགས་རྣམ་གཉིས་	-10.0155
རྡོག་རོལ་གཏོང་	-10.0158
སྐྱེས་བུ་དམ་པ་	-10.0161
འཛིན་བཟུང་བྱས་	-10.0162
ཞིག་ཡིན་པ་དང་	-10.0169
ཞིག་ཡོད	-10.0171
སྐྱོད་	-10.0172
གནང་སྟེ	-10.0173
ར་འགྱུར་ཏེ་	-10.0179
ཞེས་བྱའོ་	-10.0184
ཕན་ཡོན་	-10.0185
ཚོགས་པས་	-10.0194
གདོན་	-10.0201
ཆོད་	-10.0202
བཟའ་	-10.0206
དང་མཇལ་འཕྲད་གནང་	-10.0207
རོ་་	-10.0211
པེ་ཅིང་	-10.0217
ཞུས་ཏེ་	-10.022
གང་འདྲ་ཞིག་	-10.022
རྒྱལ་པོ་ཟས་གཙང་མ	-10.0225
ངན་སོང་	-10.0226
ཤིན་ཏུ་རྣམ་པར་དག	-10.0226
འི་འགན་འཛིན་	-10.0227
རྣམ་པ་ཚོ་	-10.0231
ཁྲག་	-10.0232
མེད་དོ་	-10.0232
གཟུངས་	-10.0233
སྣང་བའི་སྒོ་སྟེ་	-10.0235
ལྷ་མ་ཡིན་	-10.0235
རྒ	-10.024
སྤྲུལ་སྐུ་	-10.024
འཐུས་མི་ལ	-10.0246
བརྒྱ	-10.0246
▁དྲང་སྲོང་	-10.025
སྦྲེལ་རྒྱལ་ཚོགས་	-10.0252
ཚེ་དབང་	-10.0253
ཚོགས་ཁང་	-10.0253
པར་གྱུར་ཅིག་ཅེས་	-10.0255
ཁྲིམས་འཆར་	-10.0257
ཞིབ་ཕྲ་	-10.0257
ས་ཕྱོགས་	-10.0258
བག་ཆགས་	-10.0259
ཁོངས་སུ་	-10.0262
ཆོས་བཅུ་པོ་	-10.0263
ངོ་མ་	-10.0266
དེ་སྙེད་	-10.0268
སྐྱེ་བའི་	-10.027
དྲུག་ཅུ་	-10.0271
འགྲན་བསྡུར་	-10.0271
གཙོ་	-10.0274
བླ་ན་མེད་པ་	-10.0275
ནང་པའི་ཆོས་	-10.0277
ཐེ	-10.0279
སུ་མི་མཐོང་ངོ་་་	-10.028
རབས་	-10.0288
གསང་བ་	-10.0293
བཞིའི་	-10.0296
མཐར་གྱིས་	-10.0297
ཡོང་སྐབས་	-10.0297
ཤ་རིའི་བུས་	-10.0299
དཔག་ཏུ་མེད་	-10.0299
▁ཞེས་དང་	-10.0299
ལོ་རྒྱུས་ཐོག་ནས་	-10.0302
ཞན་	-10.0307
ར་འགྱུར་བའི་ལམ་	-10.0308
གནམ་གཤིས་	-10.0308
བོད་གཞུང་	-10.0308
སྡུག་བསྔལ་བ་	-10.031
འདུགཕྱོགས་མཚུངས་	-10.032
རྒྱུག་	-10.0324
པ་དེས་	-10.0326
གལ་ཆེའི་	-10.0336
གཙོས་པའི་	-10.0336
ལྔ་པ་	-10.0338
དབུ་འཛུགས་གནང་	-10.0339
བར་བརྟེན་	-10.034
ཇི་བཞིན་	-10.0342
གྱོན་	-10.0343
གཅིག་མཚུངས་	-10.0346
གྲགས་ཅན་	-10.0347
འབྲེལ་མཐུད་	-10.0347
སྐྱེའི་	-10.0348
མི་བྱེད་	-10.0354
ཚད་ལྡན་	-10.0357
པའི་ཐོག་	-10.0358
ཆོས་སྟོན་	-10.0364
བཟོད་པའི་	-10.0365
དཔོན་	-10.0365
གཟུགས་མེད་པའི་	-10.037
ཕྱིར་ལོག་	-10.037
པ་དེའི་ཚེ་	-10.0371
གཞུང་མང་གཉིས་ནས་	-10.0372
ལགས་ཀྱིས	-10.0373
བླངས་པ་	-10.0376
▁དབུ་མའི་ལམ་གྱི་	-10.0378
གསན་	-10.0382
ངོ་སྤྲོད་དང་	-10.0383
ཆད་པ་	-10.0384
ཡི་རངས་	-10.0388
ཡོད་པས	-10.0389
དགུང་ལོ་	-10.0389
རྡོ་རྗེའི་	-10.039
ཆང་	-10.0392
གནང་སྐབས་	-10.0394
ལྷག་པའི་བསམ་པ་	-10.0395
གཟའ་སྤེན་པ	-10.0396
གཅིག་ལ	-10.0397
གཟེངས་བསྟོད་	-10.0397
འོ་ཞེས་	-10.0398
གྱུར་པ་་	-10.04
▁གྲོགས་པོ་དག་	-10.04
འདི	-10.0401
ཁག	-10.0401
གནང་འདུགདེ་ཡང་	-10.0401
དྲུང་ཆེ་དྭགས་པོ་	-10.0401
རྣ་བ་དང་་སྣ་དང་་	-10.0402
བྱེ་བ་ཕྲག་	-10.0403
བཀའ་བློན་མཆོག་གི	-10.0405
བསྐུལ་	-10.0405
མེད་པའོ་་	-10.0405
མོས་མཐུན་	-10.0406
རྩེད་འགྲན་	-10.0409
ཆོས་དེ་	-10.0409
གས་ཀྱི་	-10.0409
ཐུབ་པར་	-10.0413
རྟོག་པ་	-10.0413
རིན་པོ་ཆེ་སྣ་	-10.0414
ཆགས་ཀྱི་འདུག	-10.0415
ཆོས་སྟོན་པ་	-10.0418
ཞུ	-10.0423
ལྷན་ཁང་	-10.0423
ཕྲེང་བ་	-10.0428
ནགས་	-10.0431
འཆང་	-10.0432
ལ་བརྩོན་	-10.0433
དག་ལས་	-10.0437
འི་སླད་དུ་	-10.044
་འདི་ལྟར་	-10.0443
མཐུན་ཚོགས་པའི་	-10.0445
ཉམས་པ་	-10.0453
གྲོང་ཁྱེར་གྱི་	-10.0456
ལྷན་ཚོགས་སུ་	-10.0459
འཆི་བ་	-10.0459
་རྣམས་ཀྱིས་	-10.0464
རྒྱལ་སྤྱིའི་ནང་	-10.0466
མདུན་ལམ་	-10.0468
རྗེ་བཙུན་	-10.0471
སེམས་ཤུགས་	-10.0478
གངས་སྐྱིད་	-10.0483
མི་རབས་	-10.0484
མི་ཡི་	-10.0491
་ཆེན་	-10.0494
སྐུ་ལས་བསྐྱོན་	-10.0497
▁ཕྱི་རྒྱལ་	-10.0504
ཏུ	-10.0504
ཟུང་	-10.0507
ཁྲིམས་ཞིབ་ཁང་གི་	-10.0509
ཕྱག་འཚལ་	-10.0511
གཤིན་རྗེའི་	-10.0513
ལེའུ་	-10.0516
ཧིན་སྒོར་འབུམ་	-10.0517
འཐོན་	-10.0523
འདི་གཉིས་	-10.0526
ཕེབས་པར་	-10.0528
སོ་སོའི་སྐྱེ་བོ་	-10.0536
ཚུལ་བཞིན་དུ་	-10.0537
གནད་འགག་	-10.054
དང་ལྡན་པ་དང་་	-10.054
ཡོང་ཆེད་	-10.0541
སུས་	-10.0545
དང་་ཚེ་དང་ལྡན་པ་	-10.0548
ཧ་ཅང་མང་པོ་	-10.0552
རོལ་	-10.0554
སྤྱི་ཁྱབ་པ་	-10.0555
པར་གྱུར་ཏོ་	-10.0556
པ་རྣམས་ཀྱི་	-10.0557
ཡོང་སླད་	-10.056
འདི་དག་གིས་	-10.056
མ་ལགས་	-10.0564
མཇུག་སྒྲིལ་	-10.0575
ིར་	-10.0578
འཕྲལ་	-10.0579
ྭ་	-10.058
མྱ་ངན་འདས་	-10.0582
བསད་	-10.0584
ཚིགས་	-10.0588
བཅུའི་ལས་ཀྱི་ལམ་	-10.0591
ཚིགས་སུ་བཅད་དེ་	-10.0591
མི་མང་ལ་	-10.0592
བཙུན་མོའི་འཁོར་	-10.0593
གློག་	-10.0594
བརྙེས་	-10.0597
▁ངའི་	-10.0597
མཆོག་གིས་དབུས་	-10.0599
འགྲོ	-10.0599
ཀྱི	-10.0603
དགོས་ཀྱི་འདུག	-10.0604
དམག་འཁྲུག་	-10.0604
▁ཉེ་ལམ་	-10.0605
རྣམ་པ་ཚོས་	-10.0605
མང་ཆེ་བ་	-10.0608
ཐོབ་པར་འགྱུར་རོ་	-10.061
གལ་ཆེ་ཤོས་	-10.0612
གཟུགས་རྣམས་	-10.0613
དགོན་པར་	-10.0613
▁རྒྱ་གཞུང་གིས་	-10.0614
▁དེའི་ནང་ནས་	-10.0614
བཙལ་	-10.0617
▁བུ་	-10.0619
ཚོར་བ	-10.0621
རྟོགས་པར་	-10.0626
ལག་ལེན་	-10.0628
རབ་ཏུ་བྱུང་བ་	-10.0629
ལྷ་ཡི་	-10.063
དྲག་པོ་	-10.0631
བསྟན་ཏེ་	-10.0635
དམིགས་སུ་མེད་	-10.0637
གློག་བརྙན་	-10.0639
བསགས་	-10.0645
ལམ་ལུགས་ནང་	-10.0646
སྡོད་ཁང་	-10.0649
ཡོད་མ་རེད	-10.0651
ཤེས་པར་	-10.0651
མེད་པ	-10.0652
▁འགྲོ་བ་	-10.0655
ཁྱེར་	-10.0656
བདེན་པའི་	-10.0659
གསུངས་་	-10.0663
གྱི་ཐོག་ནས་	-10.0663
པར་འགྱུར་བ་དང་་	-10.0666
མཚོན་ན་	-10.0666
ཐལ་	-10.0667
གཙུག་ལག་ཁང་གི་	-10.0673
ལགས་བཅས་	-10.0676
དགོན་སྡེ་	-10.0676
གནས་སྟངས་ཤིག་	-10.0681
མྱུར་	-10.0681
འགྱུར་བའི་	-10.0687
བཅུ་དང་ལྡན་ན་	-10.0688
བཞིན་ཡོད་ཀྱང་	-10.0693
ཁྱོད་ཀྱིས་དེ་	-10.0696
སྦས་	-10.0697
རྒྱ་ནག་གིས་	-10.07
སྟོན་པའི་	-10.07
བཀ	-10.0702
ངོན་སུམ་དུ་བྱེད་	-10.0703
པར་བྱའོ་	-10.0704
སྣེ་ལེན་	-10.071
གཟིགས་འབུལ་ཞུས་	-10.0722
རྗེས་སུ་དྲན་པ་	-10.0726
ཀྱི་ཐད་དུ་	-10.0726
ཆོས་སྨྲ་བ་	-10.0727
▁དེའི་འོག་ཏུ་	-10.0727
▁བྲམ་ཟེ་	-10.0729
བཀའ་དྲིན་བསྐྱངས་	-10.073
་ན	-10.0731
བྱེད་ཀྱི་འདུག	-10.0731
ཁྲི་བཞི་སྟོང་	-10.0737
བྱིས་པའི་	-10.0739
མངོན་པར་ཞེན་པ	-10.076
▁དེ་ཅིའི་སླད་དུ་	-10.0775
བྱང་ཆུབ་ཏུ་སེམས་	-10.0776
ཚབས་ཆེ་	-10.0777
སྤྱིའི་	-10.078
མཇལ་འཕྲད་གནང་	-10.0786
ཕྱི་དངོས་པོའི་	-10.0786
ཤེས་ཏེ་	-10.079
བསྐོ	-10.0792
▁སྐུ་ཞབས་	-10.0795
▁བོད་མི་ཚོས་	-10.0801
བཏབ་	-10.0802
་དེས་	-10.0809
གནང་རྗེས་	-10.0812
▁ཁ་སང་	-10.0817
བྱིན་པ་	-10.0823
འབར་	-10.0824
ཡར་རྒྱས་ཐེབས་རྩ	-10.0834
▁ད་དུང་	-10.0835
▁ཁོར་ཡུག་	-10.0835
དྲག་པོའི་	-10.0841
སྔོན་ལ་	-10.0843
གྱི	-10.0846
ཆེར་	-10.0852
▁བྱམས་པ་	-10.0854
རྒྱ་མཚོ་ཆེན་པོ་	-10.0856
གི	-10.0858
བཀའ་འགྱུར་	-10.0858
འགྲེལ་	-10.0861
འུ་	-10.0864
སེམས་པ་	-10.0864
ཅི	-10.0866
ཁང་དུ་	-10.0866
མི་ཐུབ	-10.0868
སྲིད་དོན་ཚོགས་པ	-10.087
ཡོད་ན	-10.087
ཐང་སྲུང་སྐྱོབ་	-10.0874
དམ་པ་ཁོང་	-10.0874
ཕམ་	-10.0876
དགྲ་བཅོམ་པ་ཉིད་མ	-10.0879
མ་ཐག་	-10.0882
ཆབ་སྲིད་བཙོན་ཟུར	-10.0883
ཧོ	-10.0892
དགེ་བསྙེན་	-10.0892
བ་ཡིན་ན་	-10.0894
སྤྲོ་	-10.0896
པའི་ནང་	-10.0901
ཤོས་	-10.0908
འགོ་འཁྲིད་	-10.0915
ིན་	-10.0916
བྱེད་པར་	-10.0917
ཧོང་ཀོང་	-10.0918
སྐྱབས་སུ་འགྲོ་བ་	-10.092
རེད་མ་གཏོགས་	-10.092
གྲྭ་ཚང་	-10.0924
དུས་ཡུན་	-10.0926
དུས་ཐོག་	-10.093
གྱུར་ཏེ་་	-10.0931
▁མཐའ་དོན་	-10.0932
ཆེ་མཐོང་	-10.0933
པར་གྱུར་ཅིག་	-10.0933
གདན་ས་	-10.0934
བསྟན་བཅོས་	-10.0938
འདིའི་ཐོག་	-10.0942
གྲངས་གསུམ་རིང་	-10.0943
མིག་གི་	-10.0944
ལམ་སྟོན་འོག་	-10.0948
གཙོ་བོར་	-10.0955
ཐོག་དམ་བསྒྲགས་	-10.0958
བཀའ་དྲིན་རྗེས་དྲ	-10.0962
བརྒྱ་བྱིན་གྱིས་	-10.0962
སྐྲག་	-10.0965
▁དེ་འདི་	-10.0973
རེག་པ་	-10.0976
་སྐོར་སོགས་གསུངས	-10.0979
གསར་གཏོད་	-10.098
ད་རེས་	-10.0986
མེས་	-10.099
སི	-10.099
གནས་པར་མི་བྱའོ་་	-10.0993
མ་འོངས་པའི་	-10.0997
ཀྱི་ཡོད་པ་རེད	-10.0997
ཨརྱ་	-10.0998
གཟུགས་བརྙན་	-10.1
དཔེ་ཆ་	-10.1004
དེ་ཉིད་དུ་	-10.101
▁མད་གལ་གྱི་བུ་དེ	-10.1011
འཁྲིད་	-10.1012
མ་ཟད	-10.1013
ཀྱི་གྲོས་ཚོགས་	-10.1016
ར་བྱེད་དོ་་	-10.1018
སྤྱོད་པ་དང་་	-10.1021
མོན་གྷོ་འདོད་རྒ	-10.1021
ཨ་རིར་	-10.1022
ཡན་	-10.1022
ཞབས་སོར་བདེ་བར་	-10.1023
གོ	-10.1035
བོད་མི་མང་	-10.1036
རྐྱེན་གྱིས་	-10.1037
བོད་ཀྱི་ཐུན་མིན་	-10.1041
མི་སེར་	-10.1045
ཚངས་	-10.1046
པད་མའི་	-10.1048
པའི་ཆོས་	-10.1049
ཀྱི་ཚོགས་གཙོ་	-10.1052
ནན་ཏན་	-10.1054
རློམ་སེམས་སུ་མི་	-10.1057
གསར་དུ་	-10.1059
རྩ	-10.106
ཁྱོན་དུ་	-10.106
བཅུ་དྲུག་	-10.1063
གཏན་འཁེལ་	-10.1066
པའི་རྐྱེན་གྱིས་	-10.1069
གནས་སྟངས་ལ་	-10.107
བཞེད་	-10.1071
རླབས་ཆེན་	-10.1072
▁རྩ་བའི་	-10.1073
དཔེར་ན	-10.1075
འོད་གསལ་	-10.1078
ཟེར་ནས་	-10.1081
སྟོན་ཏོ་་	-10.1081
བཀོད་ཁྱབ་	-10.1086
ཁྲག་ཁྲིག་	-10.1087
རྗོད་	-10.109
▁ཐེ་ཝན་	-10.1091
གུ་ཡངས་	-10.1095
གྲུབ་རྗེས་	-10.1095
ལག་འཁྱེར་	-10.1104
ཐུབ་རྒྱུ་རེད	-10.1104
གི་ཡོད	-10.1107
ཤ་ར་དྭ་ཏིའི་བུས་	-10.1109
ཡང་ཡིན་	-10.1117
རྒྱ་གར་ནང་གི་	-10.1121
ཕེབས་འབྱོར་སྐབས་	-10.1122
གནང་དོན	-10.1123
འགྱུར་རོ་་	-10.1124
གསུང་ཡོད	-10.1124
དྲི་མ་མེད་པའི་	-10.1125
ཡོངས་ཀྱི་	-10.1134
རང་བྱུང་	-10.1138
རིན་	-10.1138
གནང་རྗེས	-10.1139
ར་སངས་རྒྱས་ནས་	-10.1142
ཁོང་ཚོར་	-10.1142
▁དེ་དེ་བཞིན་	-10.1148
བསྔགས་བརྗོད་དང་	-10.1149
ཁྱད་ཆོས་	-10.116
ཐེར་འབུམ་བདུན་	-10.1161
ལྟ་ཅི་སྨོས་	-10.1166
འི་སྐོར་	-10.1169
བྲག་	-10.1172
བཅས་ཀྱིས་	-10.1173
ར་འཚང་རྒྱ་བ	-10.1174
བྱུང་བར་	-10.1178
དགའ་ཞིང་	-10.1182
ག་ལ་བ་དེར་སོང་	-10.1184
འདས་པ་ན་	-10.1185
ཇ	-10.119
སོ་ཞེས་	-10.1194
གསལ་བསྒྲགས་སྤེལ་	-10.1197
ཇི་ཙམ་དུ་	-10.1199
གཉིས་དབར་	-10.12
གོམས་གཤིས་	-10.1203
གཡུང་དྲུང་བོན་	-10.1204
འི་འབྲས་བུ་མངོན་	-10.1205
ཟད་པར་	-10.1211
ཚོན་	-10.1214
ནས་བཅོམ་ལྡན་འདས་	-10.1214
བྱམས་	-10.1215
ཁབ་	-10.1215
སྨན་རྩིས་ཁང་གི་	-10.1221
རྣམ་རྒྱལ་	-10.1221
ཁག་ཅིག་	-10.1222
ཤེས་པས་	-10.1223
བའི་ཐོག་ནས་	-10.1226
བཟང་པོ་ཞིག་	-10.1228
བོད་བསྟན་སྲིད་	-10.123
ཅེག་	-10.123
གྲོས་ཚོགས་སུ་	-10.1233
བཞིན་ཡོད་པ་མ་ཟད	-10.1236
ངེས་པར་འབྱུང་བ་	-10.1236
དེའི་ཚེ་དེའི་ད	-10.1237
གྱུར་་	-10.1237
སེང་གེའི་	-10.1241
པར་གྱུར་ན་	-10.1246
རབ་ཏུ་མཁྱེན་	-10.1248
རྫ	-10.125
ཨར་	-10.125
གལ་ཆེན་པོ་ཡིན	-10.1251
ཟད་པ་	-10.1254
ཕེབས་ཏེ་	-10.1255
དགེ་སློང་མ་	-10.1267
གསང་སྔགས་	-10.1268
བཀྲ	-10.127
ལགས་ཀྱི་	-10.1271
ལྟོ་འཕྱེ་ཆེན་པོ་	-10.1277
ཕེབས་བསུའི་	-10.1277
གྲོང་སྡེའི་	-10.128
སྔ་འགྱུར་རྙིང་མ	-10.1287
སྔོན་མ་	-10.1291
སྦྱིན་བདག་	-10.1292
རྗེས་དྲན་གྱི་	-10.1292
ནང་སྟོང་པ་ཉིད་	-10.1298
གལ་ཆེ་	-10.13
ནད་གཞི་	-10.1304
བསྟོད་	-10.1308
ཐལ་མོ་སྦྱར་ཏེ་	-10.132
མྱ་ངན་ལས་འདས་ནས་	-10.1321
ཚེ་གཅིག་ཏུ་	-10.1324
ཡོད་པ་མ་རེད	-10.1327
ཞེས་ཟེར་རོ་་	-10.1327
པི་	-10.1328
ལ་སྙོམས་པར་འཇུག་	-10.133
དྲི་མ་མེད་པ་	-10.1332
དེ་དག་ཐམས་ཅད་ནི་	-10.1335
འི	-10.1338
གནོན་ཤུགས་	-10.1339
ཡེ་	-10.134
བཞག་སྟེ་	-10.1342
བྱུང་འདུག	-10.1345
ཧུ་	-10.1346
དབང་དུ་	-10.1346
ཕོ་བྲང་	-10.1348
་ཀྱི་རྩ་ཁྲིམས་	-10.1348
དེ་ལ་སྨྲས་པ་	-10.1349
འི་སྤྱི་ཚོགས་	-10.135
དོན་དམ་	-10.135
ོང་	-10.1351
བར་བྱེད་	-10.1352
▁དེ་ཅིའི་ཕྱིར་	-10.1354
▁དེ་སྔོན་	-10.1355
ཚེ་རིང་ལགས	-10.1359
ཏམ་	-10.1361
སྦྱིན་པ་སྦྱིན་	-10.1364
གྱི་སྲིད་བྱུས་	-10.1368
▁དམ་པའི་ཆོས་	-10.1371
བདག་དབང་	-10.1373
▁རྒྱ་རིགས་	-10.1374
རྒྱ་གར་ལ་	-10.1374
རྒྱུད་ཀྱི་	-10.1374
ཐུག་འཕྲད་ཀྱིས་	-10.1375
ཐ་ན་	-10.138
ལྷུང་བཟེད་	-10.1383
སྦྱིན་པར་བྱེད་	-10.1385
སྨན་རྩིས་ཁང་	-10.1386
ཀྱི་སྤྱན་སྔར་	-10.1388
མེད་ལ་	-10.1389
པ་ཡིན་ནོ་	-10.1389
ཆོས་ཐམས་ཅད་ལ་	-10.1393
རབ་ཏུ་འབྱུང་བར་	-10.14
དེ་གཉིས་ཀྱིས་	-10.1407
ལ་གནས་	-10.1408
ཐུགས་འགན་བཞེས་	-10.1409
བྲན་	-10.141
ཐུབ་ཐབས་	-10.1419
དེ་མཚུངས་	-10.142
ཕེབས་པ་	-10.142
ཚད་མེད་པ་	-10.1423
བརྩོན་པ་	-10.1425
ཐབས་བྱེད་བཞིན་	-10.1426
ཅང་	-10.1427
སྤྱི་འཐུས་རྣམ་པ	-10.1429
བྱེད་ཅིང་་་	-10.1432
ར་འགྱུར་བ་དང་་	-10.1433
་ཐམས་ཅད་སྤངས་ནས་	-10.1434
གོ་སྐབས་འདི་	-10.1438
ཀྱ	-10.1439
ཡིན་ནམ་	-10.1439
གནའ་བོའི་	-10.1448
མི་དམིགས་པ་	-10.1448
འཛམ་གླིང་ནང་གི་	-10.1453
སྔར་ལྷག་	-10.1456
དུས་ལ་བབ་	-10.1458
ལོགས་སུ་	-10.1459
ཀྱིས་དེའི་ཚེ་	-10.1463
འབྱུང་བའི་	-10.1465
ཐེག་པ་ཆེན་པོའི་	-10.1466
གང་་་	-10.1471
▁ལྷའི་	-10.1474
བསོད་ནམས་ནོར་བུ་	-10.1474
ལྷན་ཁང་གི་	-10.148
ཕྱོགས་གཅིག་ནས་	-10.148
སྙིང་རྗེའི་	-10.148
སད་	-10.1481
པ་དེར་	-10.1484
ཚོལ་བ་	-10.1486
ཕྱག་རྟགས་	-10.1486
དང་འདྲ་བ་	-10.1486
སྐྲུན་	-10.1488
བསྟན་་	-10.1489
གློ་བུར་དུ་	-10.1491
འདེམས་སྒྲུག་	-10.1492
བརྩམས་	-10.1492
ཨིན་ཡིག་	-10.1492
བབས་	-10.1493
བྱས་ཏེ	-10.1494
་སེམས་ཅན་	-10.1495
▁གླེང་གཞི་	-10.1496
་འདུག་པ་བཅས	-10.1501
▁བྲམ་ཟེའི་ཁྱེའུ་	-10.1505
གནམ་ཐང་དུ་	-10.1508
ཕྱི་རོལ་གྱི་	-10.1508
གྲངས་འབོར་	-10.151
ཡིད་དུ་འོང་བ་	-10.151
དེ་རེད	-10.1511
ུག་	-10.152
གཉིས	-10.1524
ཐམས་ཅད་དང་་	-10.1526
ཡུམ་	-10.1533
མཐུན་ཚོགས་	-10.1533
ང་ཡིས་	-10.1534
གནང་རོགས་ཞེས་	-10.1536
ེད་	-10.1539
དེ་སྐད་	-10.1543
སུད་སིའི་	-10.1546
ལས་ཡང་དག་པར་འདས་	-10.1547
▁ཀ	-10.1548
ཙམ་ཞིག་	-10.1548
ལྟ་བུ་ཞིག་	-10.1551
སྐྱེལ་	-10.1552
མར་མེ་	-10.1553
གསུང་བཤད་དང་	-10.1554
བྱེད་སྒོ་	-10.1555
བོད་དོན་སྐོར་	-10.1557
གོང་གསལ་	-10.1562
ག་ལ་	-10.1563
ཁྱེའུ་དེ་	-10.1565
ཚུར་ཤོག་	-10.1567
ཙམ་ཡང་	-10.1568
ལྔ་བཅུ་	-10.1572
མུས་ཡིན	-10.1574
ནང་པ་སངས་རྒྱས་པ	-10.1578
ཚངས་པར་སྤྱོད་པ	-10.1583
འདིར་ནི་	-10.1585
ཅརྱ་ཡེ་ཤེས	-10.1586
སྨྲ་བ	-10.1587
བརྗོད་པར་བྱའོ་་	-10.1588
གང་བ་	-10.1592
ཐུབ་ཚེ་	-10.1594
▁ཅི་	-10.1594
ནོ་སྦེལ་	-10.1597
ཁྲིམས་ཡིག་	-10.16
པར་གྱིས་་	-10.1605
་ལུང་བསྟན་པ་གང་ཡ	-10.1608
ིན་པའི་སངས་རྒྱས་	-10.1608
ཀུན་དགའ་	-10.161
ལས་འདས་པ་	-10.1611
མང་པོ་ཞིག་ལ་	-10.1613
ཤེས་པར་བྱ་	-10.1614
དབྱེ་འབྱེད་	-10.1621
འཕགས་པའི་བདེན་པ་	-10.1623
གྲོས་མཐུན་	-10.1624
ཐབས་ཀྱི་	-10.1625
བཀའ་སྩལ་	-10.1628
ཞུགས་ནས་	-10.1629
བསམ་བློའི་ནང་	-10.1629
ཆགས་འདུག	-10.1631
བར་བྱེད་དོ་་	-10.1633
ཞེས་བྱ་བ་དེ་ནི་	-10.1633
ཉེན་ཁ་	-10.1633
ཡོང་བཞིན་འདུག	-10.1638
ཡིན་པའི་ཕྱིར་རོ་	-10.1639
འཚོལ་	-10.1639
་རུ་	-10.1645
དེ་ཚེ་	-10.1647
ོར་	-10.1651
མཁན་དང་	-10.1658
གྲྭ་བཙུན་	-10.1662
བཙུགས་ནས་	-10.1662
བུ་ཆེན་པོའི་མཚན་	-10.1665
ཚབ་	-10.1666
མི་དམངས་	-10.1667
དང་བཅས་པར་	-10.1667
ལྟ་བུ	-10.1668
འག	-10.1669
བྱེད་་	-10.1672
▁ལ་དྭགས་	-10.1674
ལུང་བསྟན་པ་	-10.1676
པའི་འཇིག་རྟེན་	-10.1678
ཕ་རན་སི་	-10.1678
ཚན་པའི་	-10.1679
འི་ཆོས་འདུལ་བ་ལ་	-10.1679
མ་དངུལ་	-10.1683
▁ང་ཚོར་	-10.1683
ར་ཡང་	-10.1692
འགོག་པ་	-10.1696
བདག་མེད་	-10.17
མེ་ལ	-10.1703
དཔའ་	-10.1703
པའི་སླད་དུ་	-10.1705
ཁོ་ནའི་བསྟན་པ་ལ་	-10.1706
ལིད་ཙ་བི་དྲི་མ	-10.1707
འགའ་ཞིག་	-10.1709
བྷེ་	-10.1715
གུས་པ་	-10.1718
འདབ་མ་	-10.1724
དང་དེ་བཞིན་	-10.1725
▁བདག་ཀྱང་	-10.1725
རབ་ཏུ་ཤེས་	-10.1731
འི་གནས་སུ་	-10.1735
འཕྱ	-10.1739
ཞུ་གཏུག་	-10.1741
▁ས	-10.1741
དང་པོའི་	-10.1744
་རྣམས་ཡིན་	-10.1754
ཡུ་གུར་	-10.176
པ་དེ་ནི་	-10.1764
གང་ཡིན་པ་དང་་	-10.1765
འི་གཞིས་ཆགས་ཁག་	-10.1765
ཞེས་བརྗོད་	-10.1766
མཚོན་པའི་	-10.1767
གསལ་བ་	-10.1768
བདེ་དོན་	-10.1768
ཨི་	-10.1775
ཞེས་པ་དེ་	-10.1776
ཡོང་རྒྱུ་	-10.178
སྡུད་	-10.1781
གླང་པོ་	-10.1782
ཙམ་དུ་	-10.1784
ཚུན་ཆད་	-10.1786
འདུགསྤྱིར་	-10.1786
འདྲ	-10.1787
གཅིག་ཀྱང་	-10.1788
དགའ་བར་	-10.179
▁ཡིན་ནའང་	-10.1793
པ་ཡང་	-10.1796
རྩྭ་	-10.18
▁སློབ་ཕྲུག་	-10.1802
སྤོ་	-10.1807
ཡིན་སྐོར་	-10.1808
ཀར་ན་ཊ་ཀ་མངའ་སྡེ	-10.1811
དཔུང་གི་ཚོགས་	-10.1811
བཀོལ་སྤྱོད་	-10.1812
སྤངས་པ་	-10.1813
བརྒྱབ་ནས་	-10.1814
སྐུ་ཚེ་	-10.1815
སྒྲོན་	-10.1816
མགྲོན་འབོད་	-10.1818
དཀའ་ཐུབ་	-10.1819
འཕར་	-10.1819
ལ་གནས་པའི་	-10.1825
སྐྱོ	-10.1827
འོང་བ་	-10.1828
འདས་པ་	-10.1832
འཛིན་པ་དང་་	-10.1834
ཉི་མ་མཆོག་	-10.1836
གྲོང་སྡེ་	-10.1836
དེའི་ཐོག་ནས་	-10.1837
གོ་ཆ་	-10.1839
སྨན་པའི་	-10.1843
སྤོང་བ་	-10.1846
བསམས་	-10.1848
སྲིད་པའི་	-10.1849
སྙམ་སྟེ་	-10.1849
ངར་	-10.1849
མཐའ་ཡས་པ་	-10.1849
ཀུ	-10.1849
མངའ་སྡེའི་ནང་	-10.1852
ལ་མི་	-10.1854
དམག་མི་	-10.1854
ཕྱི་དྲིལ་ལས་ཁུངས	-10.1857
གང་བྱུང་	-10.1861
ཕྲག་དོག་	-10.1868
ཚིག་བླ་དགས་སམ་	-10.1874
ཀྱི་རྣམ་གྲངས་	-10.1876
ཕྱིན་ཡོད	-10.1877
མཐའ་དག་	-10.1883
རིམ་གྱིས་	-10.1891
རབ་ཏུ་བྱུང་སྟེ་	-10.1891
ཁང་པ་བརྩེགས་པ་	-10.1892
སྟེན་	-10.1898
ཤེས་་	-10.1901
་སྐོར་དང་	-10.1901
ཇི་སྲིད་	-10.1901
ཁག་ཏུ་	-10.1902
བོད་མི་མང་སྤྱི་	-10.1909
་དེ་ཚེ་	-10.191
▁རིགས་ཀྱི་བུ་འདི	-10.1912
མཇལ་འཕྲད་ཀྱིས་	-10.1917
འཇམ་དབྱངས་	-10.1918
སྲོང་བཙན་སྒམ་པོ	-10.192
མཁན	-10.1922
གནས་སྟངས་ཐོག་	-10.1922
▁དེ་ནས་དེ་	-10.1923
སྔ་དྲོ་	-10.1924
ལྷུན་པོ་	-10.1924
དགའ་བསུ་	-10.1927
གནང་རྒྱུ་ཡིན་	-10.1927
བྱེད་པ	-10.1932
བླང་	-10.1932
བོད་མི་ས་ཡ་དྲུག་	-10.194
བ་ཞིག་	-10.194
ཏིང་འཛིན་	-10.1943
ཆེ་ཞིང་	-10.1951
སྨན་གྱི་རྒྱལ་པོ་	-10.1951
ཏོག་	-10.1955
གནད་འགག་ཆེན་པོ་	-10.1957
སེང་གེའི་སྒྲ་	-10.1963
དེ་ལྟ་བུར་	-10.1963
སྨོས་	-10.1968
གཞི་རིམ་	-10.1969
▁སྐྱེས་བུ་	-10.1973
སློབ་གྲྭའི་ནང་	-10.1984
དབུས་སུ་	-10.1986
དམ	-10.1998
སྲེད་མེད་ཀྱི་བུ་	-10.2001
་འཛུགས་ཀྱིས་	-10.2004
ཨ་རིའི་གཞུང་གིས་	-10.2005
འབྱུང་སྟེ་	-10.2005
བསྲུངས་	-10.2005
ཚོགས་འདུ་ཞིག་	-10.201
ཉན་ཐོས་ཀྱི་ཐེག་པ	-10.2013
བཞོན་པ་	-10.2013
རྒྱུགས་	-10.2013
ོ	-10.2015
ཅེ	-10.2016
བགྱི་བའི་སླད་དུ་	-10.2019
ཐང་གི་	-10.2026
གཞུང་ཚབ་	-10.2029
ལོངས་སུ་སྤྱོད་	-10.203
ཁ་ཞེ་གཉིས་མེད་	-10.203
བརྟན་ལྷིང་	-10.2038
གྲོས་འཆར་	-10.204
སྦྱང་	-10.2041
ལ་བརྟེན་པའི་	-10.2042
པའི་ཚིག་བླ་དགས་	-10.2042
ལན་གསུང་བ་ནས་དེ་	-10.2043
ཞུས་འདུག	-10.2044
ཐབས་སུ་	-10.2044
ཆེད་ཕེབས་ཀྱིས་	-10.2044
ཡང་དག་པར་འཛིན་	-10.2045
▁སྐབས་དེ་དུས་	-10.2046
ཐེ་ཙོམ་	-10.2046
▁ཡུལ་	-10.2047
གནས་སྐབས་	-10.2049
ཡང་དག་པར་ཞུགས་པ་	-10.205
གནང་བ་དང་སྦྲགས	-10.2052
དགོས་ཞེས་	-10.2052
དགོན་སྡེ་ཁག་	-10.2054
ཟན་	-10.2064
ཚད་རྡུལ་	-10.2064
མཐར་ཕྱིན་	-10.2066
་སྐོར་སོགས་ཀྱི་	-10.2073
མཁས་པས་	-10.2074
གསུངས་ཡོད	-10.2075
འབྱུང་་་	-10.2076
ཞུས་པར་	-10.2077
གནང་དང་གནང་མུས་	-10.2078
གཞུང་དེ་དག་	-10.208
ཨོ་སི་ཊོ་ལི་ཡའི་	-10.208
བྱེད་དེ་	-10.2081
དེ་དག་ལས་	-10.2083
རྒྱ་གར་དབུས་	-10.2085
ཕེབས་འདུག	-10.209
འདུ་ཤེས་མེད་	-10.2093
སུམ་ཅུ་	-10.2099
▁དེ་གཉིས་	-10.21
ཕན་ཐོགས་ཆེན་པོ་	-10.2107
གནང་དགོས་	-10.2109
ཚོགས་ཆུང་ནས་	-10.2114
ཕྱིན་པ་རེད	-10.2115
རྒྱལ་སྲས་	-10.2116
ཁྱེད་རང་ཚོས་	-10.2117
ིག་	-10.212
▁གང་ལ་	-10.212
▁དུས་	-10.2122
ཡིན་ན	-10.2123
ནང་པའི་ལྟ་གྲུབ་	-10.2124
བདེ་གཤེགས་	-10.2125
ཡིན་ཏེ	-10.2125
ཚེ་རིང་ལགས་	-10.2129
▁ད	-10.2132
ཤེས་ནས་	-10.2136
བུ	-10.2137
རྣམ་རྟོག་	-10.2137
▁བསྐལ་པར་	-10.2139
གཙོ་ཆེར་	-10.214
ཆོག་པ་	-10.214
འབོད་སྐུལ་ཞུས་	-10.2142
རྙེད་པ་དང་	-10.2142
ཡོང་བ	-10.2143
པར་བྱ་་	-10.2144
བྱའོ་	-10.2146
ཆོས་དེ་དག་	-10.2147
སོས་	-10.215
གཞུང་ཞབས་	-10.2151
སྡོམ་པ་	-10.2152
ཕྱེད་ཡོལ་ཆུ་ཚོད་	-10.2152
བྱེད་དགོས་པ་དང་	-10.2153
ག་ཚོད་	-10.2155
ཧི	-10.216
ནས་དེའི་ཕ་རོལ་	-10.216
སྨྲས་སོ་	-10.2161
མཐོན་པོ་	-10.2165
ཏོག་དབྱིབས་	-10.2174
ལྷག་བསམ་	-10.2177
འབྲི་	-10.2179
ངེས་སྟོན་པ་	-10.2183
ཐམས་ཅད་ལས་	-10.2183
བསལ་	-10.2183
▁ཁོང་གི་	-10.2184
རོགས	-10.2188
སྒྲོན་མ་	-10.2191
ཞིག་བྱུང་ངོ་་་	-10.2197
ཀྲི	-10.2199
ཕྱུང་	-10.22
བརྗོད་ཀྱི་ཡོད	-10.22
རྒྱལ་རིགས་	-10.2202
སྤྲོས་པ་	-10.2203
དབུས་གཞུང་གི་	-10.2203
རྒྱའི་	-10.2207
སྐྱབས་བཅོལ་	-10.2221
བསྟི་གནས་ཁང་གི་	-10.2222
བསྐྱེད་ནས་	-10.2224
རྡུང་	-10.2225
ན་ཚ	-10.2225
འི་རིང་	-10.2226
ཕྱག་རྒྱ་	-10.2227
རྣ་བ་	-10.2227
ལྗོངས་ཀྱི་	-10.2228
མངོན་པར་རྟོགས་པ	-10.223
གནས་སྟངས	-10.2231
དང་འབྲེལ	-10.2232
ཞུས་ནས་	-10.2232
ནང་དོན་	-10.2232
བདུད་ཀྱི་	-10.2236
ལགས་ཀྱིས་གཙོས་	-10.2239
མོན་	-10.2242
ཕྱི་ནས་	-10.2242
མ་ཐོབ་	-10.2245
ཕུན་ཚོགས་ལགས་	-10.2245
ཝར་	-10.2251
ཚོང་དཔོན་	-10.2253
ངོམས་	-10.2255
མདོ་སྡེ་འདི་	-10.2256
དགེ་རྒན་དང་	-10.2257
མ་ལགས་སོ་་	-10.2258
སྐོར་གསུང་	-10.2259
སྒྱུ་མ་	-10.2263
སྨ	-10.2264
ངོ་བོ་ཉིད་ཀྱིས་	-10.2267
ར་བྱེད་	-10.2268
སྟོབས་དང་	-10.2269
མི་དགོས་པར་	-10.2269
སྤེལ་བ་	-10.2269
རྗེས་སུ་དྲན་	-10.2275
ཕུག་	-10.2277
འི་སྟོབས་བཅུ་	-10.2284
གསུམ་བཅུའི་	-10.2284
མེའི་	-10.2285
ཐང་ལྷན་ཁང་གི་	-10.2287
སྔོན་འགྲོའི་	-10.2288
སྒྲོལ་	-10.2293
བྱེད་ཐུབ་	-10.2297
སྨོན་ལམ་རྒྱག་	-10.2297
མཐོ་རིམ་	-10.2301
བཀའ་དྲིན་སྩལ་	-10.2302
ཕྱོགས་དང་	-10.2305
ཁོ་ནའི་	-10.2313
དེང་དུས་	-10.2316
དུ་གནས་སྤོས	-10.2317
སྐུ་མགྲོན་དུ་	-10.2318
བསྐོར་	-10.232
གནང་དགོས་པ་	-10.2322
ཞི	-10.2323
ཆེ་ཁག་	-10.2329
ནས་ད་བར་	-10.2334
གཟའ་མིག་དམར་ཉིན་	-10.2335
མཚན་མོ་	-10.2336
▁དེ་ནས་དེའི་ཚེ་	-10.2337
བདུད་སྡིག་ཅན་	-10.234
སྲིད་གཞུང་གི་	-10.234
འཐུས་མི་དང་	-10.2341
སོགས་པ་དགེ་སློང་	-10.2341
▁ཁྱེད་རང་ཚོ་	-10.2341
དབང་ཆེན་ལགས་	-10.2342
དོར་	-10.2342
གཏོང་མཁན་	-10.2344
ཀླད་པ་	-10.2345
སྦེལ་ཇམ་	-10.2348
ཕུལ་བ་	-10.2348
ར་འགྱུར་་	-10.2351
མངོན་པར་འདུ་བྱ་བ	-10.2352
མགོ་བོ་	-10.2363
▁དེ་ལྟ་བུའི་	-10.2365
བྱ་བ་དང་་	-10.2365
མཆིས་པ་	-10.2366
རླངས་འཁོར་	-10.2368
ཧར་	-10.2369
མང་ཚོགས་ནས་	-10.237
་དེ་ལྟར་	-10.2372
ངོ་བོ་ཉིད་སྟོང་	-10.2372
ལན་འདེབས་གནང་	-10.2375
ཨི	-10.2377
མནར་གཅོད་	-10.2378
རུ་ཁག་	-10.2378
དཀའ་ངལ་དེ་དག་	-10.2379
གོང་སྤེལ་	-10.238
སྐ	-10.2382
ཁ་རས་	-10.2384
རྔ	-10.2385
དེས་སྨྲས་པ་	-10.2387
སེང་གེའི་ཁྲི་	-10.2387
ལྷན་	-10.2388
བོད་རྒྱ་གཉིས་	-10.2389
སྩོལ་	-10.2389
དང་་ལུས་དང་་ཡིད་	-10.2391
▁སྡུག་བསྔལ་	-10.2392
མཛད་ནས་	-10.2394
མེ་ཏོག་དང་་	-10.2396
འབྱོར་ཞབས་ཞུ་ཁང་	-10.2396
སྐྱོང་སྤེལ་གསུམ་	-10.2398
རིའི་	-10.24
རྒྱལ་ཁབ་གཞན་	-10.2403
ཧ་ཅང་ཡག་པོ་རེད	-10.2405
བླ་མེད་	-10.2406
ལེགས་སྐྱེས་	-10.2407
▁དེ་དུས་	-10.2409
ཡོད་ཚེ་	-10.2411
སྔོན་དུ་	-10.2411
བཀའ་དྲིན་ཆེ་	-10.2414
གང་དང་གང་དུ་སྐྱེ	-10.2416
ལས་རིགས་	-10.2422
འབྲེལ་མོལ་	-10.2422
འཛིན་པའི་	-10.2425
པར་རིས་	-10.2426
་སིར་	-10.2426
ལངས་	-10.2427
་ཡོད་པ་བཅས	-10.2431
སྦྱངས་	-10.2434
སངས་རྒྱས་ཀྱིས་	-10.2435
གླུ་	-10.2443
མི་དགེ་བའི་ཆོས་	-10.2443
རྒྱ་ནག་ནང་དུ་	-10.2444
གངས་ལྗོངས་	-10.2448
སྐྱབས་བཅོལ་བ་	-10.245
▁རྒྱལ་ཁབ་	-10.246
▁ང་ཚོ་ཚང་མ་	-10.246
པར་ཡང་	-10.2461
འབུམ་ཕྲག་	-10.2467
བཞུགས་གནས་	-10.2468
དམར་པོ་	-10.2469
འཚལ་ལོ་་	-10.247
ཕྱིས་སུ་	-10.247
ལ་དམ་བསྒྲགས་	-10.2473
ལྟུང་	-10.2474
རིགས་ལམ་	-10.2475
བཅུ་གསུམ་	-10.2478
རྩོད་རྙོག་	-10.2482
བོ	-10.2482
མི་མཇེད་ཀྱི་	-10.2485
▁ཧོང་ཀོང་	-10.2486
ཀུན་སློང་	-10.2487
▁འདུ་བྱེད་	-10.2488
འི་སྐུ་	-10.2491
ལག་བསྟར་གནང་	-10.2492
ཁྲིམས་ཀྱི་	-10.2493
འཚེ་བ་	-10.2496
འཛམ་བུ་གླིང་	-10.2496
སྤྲུལ་པའི་	-10.2498
བགྱི་བ་	-10.2498
གྲྭ་པ་	-10.2501
སྐུ	-10.2502
འཚམས་གཟིགས་གནང་	-10.2502
བཤིག་	-10.2502
་འདི་ནི་	-10.2509
ལྡང་	-10.251
བསྐྱར་དུ་	-10.251
རྫོགས་པར་	-10.2513
འདི་ལས་	-10.2515
རྒྱལ་པོས་	-10.2515
དུས་བཀག་	-10.2515
གདོང་ལེན་བྱེད་	-10.2517
གྱི་ཁམས་འདི་	-10.2518
ནས་ནི་་	-10.2518
ཚན་རིག་པས་	-10.252
གངས་	-10.2523
ཐུགས་རྗེ་ཆེ་ཞེས་	-10.2523
བགོས་	-10.2528
ཕེབས་ཐོན་གནང་	-10.2529
ཟོས་	-10.253
གཞུང་ལ་	-10.2532
སྐྱེ་མཆེད་དྲུག་	-10.2532
གྲང་	-10.2532
བཅས་པ་	-10.2536
བཅོམ་པ་	-10.2537
གུས་པར་	-10.2537
བཙན་དབང་འོག་	-10.2539
སྐབས་དེའི་	-10.254
མ་ཡིན་པ་དང་་	-10.2541
བླ་མའི་	-10.2541
ལོ་་	-10.2542
འདི་དག་ཐམས་ཅད་	-10.2546
བསྒྲགས་གཏམ་	-10.2548
ཀོ	-10.255
▁དྲི་བ	-10.255
སེམས་ཅན་གང་དག་	-10.2552
ཆོས་གང་ཡང་	-10.2556
ཁང་གིས་	-10.2559
་བསམ་གྱི་འདུག	-10.2565
▁བུ་མོ་	-10.2568
ཡོངས་ཁྱབ་	-10.257
མཐར་ཐུག་པ་	-10.2571
བོད་རང་བཙན་	-10.2571
མུ་མཐུད་ནས་	-10.2572
རེ་སྐུལ་	-10.2574
སྐམ་	-10.2579
ཆོག་པའི་	-10.258
གནས་པར་	-10.2587
ཟླ	-10.2591
རིགས་ཀྱི་བུ་ཆོས་	-10.2594
རེད་བསམ་གྱི་འདུག	-10.2596
འབྱུང་གནས་	-10.2597
བསྐོར་བ་	-10.2597
རབ་ཏུ་ཤེས་སོ་་	-10.2597
ཤིང་ལྗོན་པ་	-10.2601
འདུགའོན་ཀྱང་	-10.2602
དངོས་ཤུགས་	-10.2602
ཤེས་རབ་ཀྱིས་	-10.2609
གྱི་ལམ་ནས་	-10.2616
ཕྱག་འཚལ་ནས་	-10.2617
ལྟ་བའི་	-10.2617
གོང་ནས་	-10.2618
ཕྱེད་ཡོལ་ཆུ་ཚོད	-10.262
▁དེའི་ཐོག་	-10.2626
ཁ་བྲལ་	-10.2628
ཚོགས་གཙོ་མཆོག་	-10.2629
དེ་དག་དང་་	-10.263
སྲང་	-10.2632
མཉམ་པར་	-10.2633
གཙོ་བོ་ནི་	-10.2634
▁ཀྱེ་རྒྱལ་པོ་	-10.2635
ཕུད་	-10.2638
ཛ་	-10.265
མྱ་ངན་ལས་འདའ་བ	-10.2652
འདུན་	-10.2652
འཚོ་བར་	-10.2653
ཟློག་	-10.2654
▁ཐ་ན་	-10.2656
གཙང་མ་	-10.266
▁ང་ནི་	-10.2661
འདི་བརྒྱུད་	-10.2665
ཡུ་	-10.2665
མུ་སྟེགས་ཅན་	-10.2667
འཁོད་པའི་	-10.2668
ཤ་སྟག་རེད	-10.2669
ཁོང་ཚོས་	-10.267
འདི་སྙམ་དུ་	-10.2673
ར་བྱེད་པ་	-10.2674
དགའ་བསུའི་	-10.2674
ལས་ཡོངས་སུ་ཐར་བ	-10.268
བཞུགས་སོ་་	-10.2685
སྲེག་	-10.2687
སྟོང་ཕྲག་མང་པོ་	-10.2688
ཕྱི་ཟླ་ཚེས་	-10.2688
ལབ་	-10.2692
ངོ་ཤེས་	-10.2693
ཉི་མའི་	-10.2696
ཝེ་	-10.2697
ཉི་ཧོང་གི་	-10.2698
བྱའི་	-10.2698
ཡིད་འོང་	-10.2699
དགའ་སྤོབས་	-10.2702
རྩོམ་སྒྲིག་པ་	-10.2709
ཡིད་ཀྱི་རྣམ་པར་	-10.271
སྭ་ཧ་	-10.271
སོར་	-10.2712
དྲིས་པ་	-10.2715
སྐུ་འཚོ་བཞུགས་	-10.2716
འགན་འཛིན	-10.2717
སྡིག་པའི་ལས་	-10.2718
ཞིག་ལ་ངོས་འཛིན་	-10.2719
འཛུམ་	-10.2719
ཐུགས་སུ་ཆུད་ནས་	-10.2727
དབང་པོའི་	-10.2729
འི་གནས་སྟངས་	-10.2731
དགོས་དོན་ནི	-10.2733
▁རང་དབང་ཅན་གྱི་	-10.2735
དགོངས་འཆར་	-10.2736
ཡང་དག་པའི་མཐའ་	-10.2736
སྐྱོ་བ་	-10.2737
ཡིན་མིན་	-10.2745
གཞི་ནས་	-10.2746
གཞུང་ནས་	-10.2747
བསྟན་པར་	-10.2748
ཕྱིན་པ་	-10.2749
རྟེན་འབྱུང་	-10.2751
ཆོས་ཀྱིས་	-10.2752
ཉི་	-10.2758
སྣ་ཚོགས་ཀྱིས་	-10.2759
ཐུགས་བསྐྱེད་	-10.2761
རྒྱུན་ལྡན་	-10.2762
རྣམ་པར་ཤེས་པ	-10.2762
ཉམས་ཞིབ་པ་	-10.2762
བཀའ་སྩལ་ནས་	-10.2764
་ཞིག་རེད	-10.2765
འཕགས་བོད་གཉིས་	-10.2766
དུང་	-10.2769
ཁ་སང་	-10.2773
ཆེད་ལས་	-10.2774
བསྟན་འགྱུར་	-10.2775
འི་སྐབས་	-10.2776
དོན་རྐྱེན་	-10.2777
བཞིན་པ་དེར་	-10.2778
མུན་པ་	-10.2779
གཅིག་གྱུར་གྱི་	-10.278
▁འདིས་	-10.2781
བྱས་ཀྱང་	-10.2781
སྒྲོགས་	-10.2782
▁དེ་ལ་བརྟེན་ནས་	-10.2785
སྔ	-10.2788
ཡག་པོ་ཞིག་	-10.2788
ཆེད་ཕེབས་གནང་	-10.2796
ཞུས་དོན་ལྟར་	-10.2806
སློབ་སྤྱི་	-10.2809
བགྱིད་པ་	-10.2809
ལུང་སྟོན་	-10.281
བསོད་ནམས་བསྟན་	-10.2811
དཔག་མེད་	-10.2813
དང་བསྟུན་	-10.2814
ཆབ་	-10.2815
▁འདི་གའི་	-10.2819
མེད་པར་གྱུར་	-10.2827
གཞན་དག་ཀྱང་	-10.2829
ཞ	-10.2831
ནས་ཡིན་པའི་	-10.2834
དྲུང་གཞོན་	-10.2836
བ་བཏུད་དེ་	-10.2837
▁ཀ་ཤི་ཀ་	-10.284
སོང་ལ་	-10.2843
ལྡ	-10.2845
འགལ་	-10.2847
ལས་དོན་ཐོག་	-10.2847
ཞུ་གི་ཡོད	-10.2848
ཆོས་འདི་	-10.2853
དེ་དང་འཐུན་པའི་	-10.2854
་འཇིག་རྟེན་	-10.2855
དང་ཐབས་ཅིག་ཏུ་	-10.2855
སྐར་	-10.2856
གྱི་ཁམས་མི་མཇེད་	-10.2856
བླང་དོར་	-10.286
སེར་	-10.2862
ཕུལ་ཡོད	-10.2865
ཆེས་ཐོག་མ་	-10.2865
བཟློག་	-10.2865
▁སྲོག་ཆགས་	-10.2868
གྷོ་	-10.2869
འི་མང་གཙོའི་	-10.2871
འདོགས་	-10.2873
ཇི་ཡོད་	-10.2873
གསོ་བ་རིག་པའི་	-10.2874
གྲུ	-10.2875
སྦྱར་བར་བྱའོ་་	-10.2876
སྐོམ་	-10.2881
བསྩལ་	-10.2885
འགན་འཛིན་དང་	-10.2886
པར་བྱེད་་	-10.2888
དེ་ཡང་མི་དམིགས་	-10.289
པ་དང་་་	-10.2893
ལ་འཇུག་པ་	-10.2897
▁ཉོན་མོངས་པ་	-10.2905
འཇིག་པ་	-10.2905
རྒྱུ་བ་	-10.2907
འདུག་པ་དང་	-10.2908
རང་བཙན་	-10.292
ཤིང་གི་	-10.2923
འི་སངས་རྒྱས་འོད་	-10.2925
ཐམས་ཅད་མཁྱེན་པ་	-10.2926
རབ་གནས་	-10.2927
དེ་ལ་ཡང་	-10.2928
དྷ་	-10.2933
ཞེས་ཞུ་རྒྱུ་ཡིན	-10.2934
པ་ཞིག་རེད	-10.2934
ཐུན་མོང་གི་	-10.2935
མཐོ་བ་	-10.2936
གསུང་འཕྲིན་	-10.2943
དད་ལྡན་ཆོས་ཞུ་བ་	-10.2946
ཐང་གི་གནས་སྟངས	-10.2946
བཙན་བྱོལ་ནང་	-10.2949
ཇིམ་མེག་གྷོ་ཝན་	-10.295
འཕྲད་བཞིན་པའི་	-10.295
བར	-10.2951
་གཡས་པའི་ལྷ་ང་	-10.2955
ཅེས་བྱ་སྟེ་	-10.2955
ཁྱབ་བསྒྲགས་	-10.2957
གཟུང་	-10.2959
སངས་རྒྱས་ཡེ་ཤེས་	-10.2962
ཚོགས་བཅར་བ་ཡོངས་	-10.2962
་མཆོག	-10.2962
གཞིས་ཆགས་ཁག་གི་	-10.2967
ཞི་བདེ་བག་ཕེབས་	-10.2971
འདམ་	-10.2972
དོན་དག་	-10.2973
བཅུ་དྲུག་པའི་	-10.298
ཆོས་རྣམས་ཀྱི་	-10.2981
གྱིས་་	-10.2983
ནང་ལ་	-10.2984
དགེ་ཚུལ་	-10.2985
དང་བསྟུན	-10.2986
བཞིན་ཡོད་སྐོར་	-10.2986
པའི་ཚེ་	-10.2993
་པ་རེད	-10.3
གླང་	-10.3001
བྱམས་བརྩེ་ལྡན་པ་	-10.3001
དགོས་པ་མ་ཟད	-10.3002
ཡོད་སྐོར་དང་	-10.3005
འི་སྒྲ་	-10.3007
མཚན་མ་མེད་པ་དང་་	-10.301
ཐུབ་ན་	-10.3012
དང་་བཟོད་པའི་	-10.3012
ལ་བ	-10.3014
ཡི་དགས་	-10.3016
འོག་མའི་འཐུས་མི་	-10.3017
ཉེན་རྟོག་	-10.3018
ཟླ་བའི་	-10.3018
ཕྱི་དྲིལ་བོད་	-10.3018
བསྙེན་	-10.302
སྔོན་གྱི་མཐའ་	-10.302
དབྱེ་	-10.3021
གཞན་ཞིག་	-10.3021
བརྟན་བཞུགས་བསྟར་	-10.3022
བདུན་གྱི་	-10.3024
འཚམས་	-10.3025
ཕན་པ་	-10.3025
རྒྱབ་ལྗོངས་	-10.3028
སེམས་ནི་	-10.303
ལྔ་བརྒྱ་པོ་	-10.303
ཆིག་སྒྲིལ་	-10.3032
རྩེ་མོ་	-10.3034
སླེབས་ཡོད	-10.3038
གང་ལེགས་	-10.3039
ཐོགས་པ་	-10.304
རིམས་སྔོན་འགོག་	-10.3043
བདེ་ལེགས་	-10.3043
བཟླས་	-10.3044
ཨིན་ཇིའི་	-10.3046
མུས་	-10.3047
ལྟ་བ་དང་་	-10.3048
▁ཐུགས་རྗེ་ཆེ	-10.3049
ཐོགས་ཏེ་	-10.3052
ཆབ་སྲིད་ཚོགས་པ་	-10.3055
རྒྱ་འབྲེལ་མོལ་	-10.3055
གཟུགས་སུ་	-10.3057
བསྐྱར་བཅོས་	-10.306
འཚལ་བ་	-10.3064
ནགས་ཚལ་	-10.3065
དབུ་འབྱེད་མཛད་	-10.3067
རྩ་བའི་	-10.3072
ལྟས་	-10.3073
མཐར་ཐུག་	-10.3076
ཆོ	-10.3076
བླ་བྲང་	-10.3076
་པ	-10.3077
ཡོ་རོབ་	-10.3077
བཟའ་བ་དང་བཅའ་བ་	-10.3077
▁ཡང་སྒོས་	-10.3077
དྲི་བ་དྲིས་ལན་	-10.3077
ཚང་མའི་	-10.3078
སྤྱོད་པའི་	-10.3079
དགེ་སྦྱོང་དང་	-10.3079
གཟུགས་ཀྱིས་	-10.308
ལ་རྟེན་གསུམ་	-10.308
བཀོད་པ་པོ་	-10.3081
ཚོ	-10.3084
རྩ་བ་ཉིད་ནས་	-10.3087
ཐ་དད་པ་	-10.3088
འཁྲུགས་	-10.3093
▁ཨིན་ཡུལ་	-10.3094
་ཕུན་ཚོགས་མཆོག་	-10.3094
དོན་དངོས་	-10.3096
གོ་མཚོན་	-10.3099
རྡོ་རྗེ་ལགས་ཀྱིས	-10.3099
▁བཟང་སྐྱོང་	-10.3099
རང་ལ་	-10.3101
་མཆོག་	-10.3105
བརྒྱན་པ་	-10.3108
ཏ་ལའི་བླ་མ་མཆོག་	-10.3109
འཕེལ་བ	-10.3113
རི་བོ་	-10.3114
ཁྲིམས་མཐུན་	-10.3115
ད་པ་	-10.3118
ཐུབ་མཁན་	-10.3119
ནགས་ཁྲོད་	-10.312
▁བསྐལ་པ་	-10.312
ར་བྱ་བ་	-10.3122
་འདུ་བྱེད་རྣམས་	-10.3132
གྲུབ་བསྟུན་	-10.3133
ཞིག་སྤེལ་	-10.3134
ཅེས་བྱའོ་་	-10.3134
རྒྱ་ནག་གཞུང་	-10.3134
སྐྱེ་བ་མེད་པ་	-10.3135
་པར་བརྟེན	-10.3135
ཞུ་རྒྱུར	-10.3135
ཁྱེད་ཚོ་	-10.3135
འོད་ཀྱིས་	-10.3136
ལྷས་	-10.3137
བཀོད་པ་པོ་འདོད་	-10.3137
▁འོད་སྲུང་	-10.3139
བོད་མི་རིགས་	-10.314
ཁྱེད་རང་	-10.314
པར་འབྱུང་བ་	-10.3141
བྷི	-10.3143
སེམས་ཅན་དམྱལ་བ	-10.3145
བ་ནི་	-10.3149
ཕྲེང་	-10.3151
་ཏ་	-10.3152
གང་གའི་ཀླུང་ག	-10.3153
ཕི	-10.3157
བ་ཡིན་ན	-10.3162
ལྷན་ཚོགས་ཐོག་	-10.3164
ཐུབ་མེད	-10.3165
མེད་པའི་ཕྱིར་	-10.3169
ཇོ་	-10.317
བོད་མི་རྣམས་ནས་	-10.3171
ཟེར་དུས་	-10.3172
སྡེ་ཚན་གྱི་	-10.3172
རིགས་ལ་	-10.3173
གསོལ་མགྲོན་ཁང་དུ	-10.3174
བསླབས་	-10.3174
▁ཕྱི་ལོ་ཉིན་	-10.3174
▁སྟོན་པ་	-10.3176
འཇིག་རྟེན་ཁམས་	-10.318
བྱས་པ	-10.3181
དབུགས་	-10.3182
▁ལྔ་དང་ལྔ་བཅུའི་	-10.3183
ཏོ	-10.3185
ཚེ་དབང་རྒྱལ་པོ་	-10.3189
བི	-10.319
བཞུགས་པའི་	-10.3191
རྣམ་པ་གཉིས་	-10.3195
བ་སོགས་	-10.3196
གྲོས་ཚོགས་འཐུས་མ	-10.3199
དང་འདྲ་བར་	-10.3199
རྣ	-10.3201
གཙུག་ལག་སློབ་ཁང་	-10.3201
ཁྱིམ་བདག་དེ་	-10.3201
སྔ་རྗེས་	-10.3202
མུ་མཐུད་གནས་	-10.3202
ཕྱི་ལུགས་ལྟར་	-10.3204
འི་སྒྲིག་འཛུགས་	-10.3204
དགེ་འདུན་འཚོ་	-10.3205
དགོས་དམིགས་	-10.3205
་ཇི་སྙམ་དུ་སེམས་	-10.3209
བཙན་བྱོལ་བ་	-10.3212
ནང་ན་	-10.3214
བཀའ་འཁྲོལ་	-10.3216
གལ་ཆེ་བ་	-10.322
རྒས་	-10.322
རྨོངས་པ་	-10.3225
ཚོགས་འདུའི་ཐོག་	-10.3228
བུས་	-10.323
བྱས་པ་ཡིན་ན་	-10.3232
སྤང་	-10.3233
ཆེན་མོའི་	-10.3237
སློབ་གཉེར་གནང་	-10.3239
རེ་རེ་བཞིན་	-10.3239
ཤེས་པ་ཞེས་བྱ་སྟེ	-10.3241
ཇི་ལྟར་སྔོན་ནས་	-10.325
སུ་ཡང་	-10.3252
བསམས་ནས་	-10.3253
ལས་བྱེད	-10.3254
ཐ་དད་	-10.3258
བརྗོད་སྐབས་	-10.3265
▁ད་ཐེངས་	-10.3265
འབྱིན་	-10.3266
▁བོད་མི་རྣམས་	-10.3267
སྤྱི་ཚོགས་དང་	-10.3268
འཁྱོག་བཤད་	-10.3272
ཀྱི་གནས་སྟངས་	-10.3274
འབྲུ་	-10.3277
▁གང་གི་	-10.3281
ཆེན་པོ	-10.3283
ཐོག་མའི་	-10.3284
འགྲེལ་བརྗོད་གནང་	-10.3285
བཀའ་བསྡུར་	-10.3285
རྒྱ་གར་གཞུང་གི་	-10.3289
བ་ལྟར་	-10.3291
དགོངས་དོན་	-10.3291
བྱེད་པ་དང་	-10.3294
མཐུན་འབྲེལ་	-10.3297
སྲིད་ཚབ་	-10.3297
ཞུགས་ཏེ་	-10.3299
ནས་དེ་	-10.3304
དམ་པ་ཁོང་གི་	-10.3307
རྩིས་སྤྲོད་	-10.3307
ལ་མཚོན་ན	-10.331
འདོད་པ་རྣམས་ལ་	-10.3316
དེབ་སྐྱེལ་	-10.3317
ལ་ལ་ནི་	-10.3324
དད་པས་	-10.3325
སོགས་ཀྱི་ཐོག་	-10.3326
དོན་ལྡན་གླིང་	-10.3327
གནོད་སེམས་	-10.3329
པ་ཡིན་ཏེ་	-10.333
མངོན་པར་འདུས་	-10.3333
དགའ་ལྡན་ཁྲི་	-10.3333
འཆམ་མཐུན་	-10.3335
མཐུས་	-10.3337
ཅིག	-10.3341
སྐལ་	-10.3341
གཟུགས་ཅན་སྙིང་པོ	-10.3341
▁ག	-10.3342
ཡིན་པར་བརྟེན་	-10.3343
བྱེད་ཀྱི་མེད	-10.3343
ཐིག་	-10.3343
▁ལམ་	-10.3345
ད་བར་བོད་མི་	-10.3351
ཉན་ཐོས་ཆེན་པོ་	-10.3354
འདི་ལོའི་	-10.3355
ས་པའི་	-10.3357
བཞིན་པ་མ་ཟད	-10.3358
གདན་ཞུ་	-10.3358
སྲེད་	-10.336
རེར་	-10.336
འབྲིང་	-10.3363
རྒྱ་མི་རིགས་	-10.3373
པར་མི་འགྱུར་རོ་་	-10.3374
ཤིག	-10.3379
པ་ནས་	-10.3383
ཉིན་མོར་	-10.3384
སྡིངས་ཆ་	-10.3386
སྐྱོབ་	-10.3386
▁འདོད་ཆགས་	-10.3387
ཤེས་ཡོན་ལམ་ལུགས་	-10.3388
ཤེས་རབ་སྙིང་པོ་	-10.3388
སེར་སྐྱ་མི་མང་	-10.3389
ཀྱི་འདུག	-10.339
མཁན་ཚོས་	-10.3391
མི་འདོད་	-10.34
ས་གནས་འཐུས་ཚོགས་	-10.34
▁ཚེས་	-10.3403
སྔ་མ་	-10.3403
དགྱེས་	-10.3404
ཡོངས་སུ་དག་	-10.3407
བ་རྣམས་ལ་	-10.3414
▁བདེ་བར་གཤེགས་པ་	-10.3419
འགྲམ་	-10.3419
རྒྱུ་རྐྱེན་	-10.342
ཉན་ཐོས་དང་རང་	-10.3421
ལ་བསྙེན་བཀུར་	-10.3424
བགྱིའོ་་	-10.3425
མ་མཆིས་་	-10.3427
ཕུལ་ཏེ་	-10.3428
གཞོན་ནུའི་	-10.3428
རབ་ཏུ་འབྱུང་བ	-10.3433
▁སྲེད་མེད་ཀྱི་བུ	-10.3434
གསུམ་གྱིས་	-10.3434
གུང་	-10.3437
རིག་བྱེད་	-10.3437
གྱི་བར་དུ་	-10.3438
བྱང་ཆུབ་སེམས་	-10.344
ཁག་གི་ནང་	-10.3441
▁རང་	-10.3442
གཞིར་བཞག་	-10.3445
ར་གྱུར་ཏེ་	-10.3447
སོང་ངམ	-10.3448
བར་འགྱུར་རོ་	-10.345
ནས་ཕེབས་པའི་	-10.3451
བྱིན་གྱི་རླབས་	-10.3452
རྒྱལ་ཆེན་བཞིའི་	-10.3452
་རི་	-10.3453
སྟོང་པ་ཉིད་ལ་	-10.3454
རྣམ་ཐར་	-10.3455
ཚོས་ཀྱང་	-10.3455
དང་་རྣམ་པར་ཤེས་པ	-10.3457
འི་རང་སྐྱོང་གི་	-10.3458
རྒྱལ་ས་ལྷ་སར་	-10.3459
ཕུལ་ལོ་་	-10.3459
གནས་ནས་	-10.3459
ལོ་མང་རིང་	-10.346
སྐབས་སུའང་	-10.3464
མཛད་དེ་	-10.3464
སློབ་ཕྲུག་ཚོས་	-10.3467
གྲོང་ཁྱེར་ཆེན་པོ	-10.3468
གཉིས་དང་	-10.3469
འདི་ཡི་	-10.3471
▁རྒྱ་གར་གནའ་རབས་	-10.3471
ཏ་ལའི་བླ་མ	-10.3472
སངས་རྒྱས་རྣམས་	-10.3475
རྒྱ་ཡིག་	-10.3476
རྣམ་པའི་	-10.3478
མ་སོང་	-10.3478
དཔེ་མཛོད་ཁང་གི་	-10.3479
དགོད་	-10.3485
འི་འབྲས་བུ་དང་་	-10.3485
ཐུ	-10.3489
་ཡིན་དུ་བཅས་པའི་	-10.3489
ཁྱད་པར་ཅན་	-10.349
སྲིད་བྱུས་དེ་	-10.349
སྡིག་	-10.35
སྔོན་ཆད་	-10.3503
ཆུས་	-10.3505
ཇོ་བོ་	-10.3506
བྱ་རྒྱུ	-10.3506
བྱེད་པ་་	-10.3509
་ཞིང་	-10.351
ཐང་ལ་	-10.3514
མཉམ་འབྲེལ་གྱི་	-10.3514
ཆུང་ཆུང་	-10.3518
མི་རྟག་	-10.3519
▁མེ་ཏོག་	-10.3522
ཧ་ལས་པ་	-10.3526
དེ་དག་ཚང་མ་	-10.3529
གླང་པོ་ཆེ་	-10.353
མིག་གིས་	-10.353
ངོས་ནས་ཀྱང་	-10.3531
གཞུང་དང་གཞུང་	-10.3531
ཉེ་བའི་	-10.3532
ཁྲི་ཕྲག་	-10.3536
བཏགས་	-10.3536
རྒོད་	-10.3537
གང་སར་	-10.3538
བོད་ནས་	-10.3539
དེ་སྔ་ཕྱི་ལོ་	-10.3539
ཕྱི་སྲིད་	-10.3541
གཙོ་བོར་གྱུར་པ	-10.3541
འགྲོའོ་་	-10.3542
པད་མ་དཀར་པོའི་	-10.3542
ཐབས	-10.3543
▁མཉམ་འབྲེལ་	-10.3543
▁ངོས་ཀྱི་	-10.3545
ྲངས་ཉུང་མི་རིགས་	-10.3547
▁བཅུ་གང་ཞེ་ན་	-10.3551
ཅེས་སོགས་ཀྱི་	-10.3552
བཤད་སྒྲུབ་	-10.3555
གྱི་སྔ་དྲོར་	-10.3556
▁ཤིན་ཏུ་	-10.3556
བཏང་བ་དང་	-10.3556
བརྒྱག་	-10.3557
སྒ	-10.3557
མུ་ཏིག་	-10.3558
ཡོང་བ་དང་	-10.3561
གསོལ་བ་	-10.3564
ཆོས་དད་	-10.3571
ལྷན་འཛོམས་ཐོག་	-10.3573
དོལ་རྒྱལ་	-10.3574
གསུང་གི་འདུག	-10.358
གཟེངས་སུ་ཐོན་པ	-10.358
འཇིག་ཚོགས་ལ་ལྟ་བ	-10.3581
བསྐྱེད་བསྲིངས་	-10.3581
▁ཨ་རི་	-10.3582
▁རང་གི་	-10.3583
རྒྱལ་ཁ་ཐོབ་	-10.3588
དང་་ཞེ་སྡང་དང་་	-10.3593
བསྐལ་པ་བཟང་པོ་	-10.3593
▁བྱང་ཨ་རིའི་	-10.3594
རྒྱུན་ལས་རྣམ་པ	-10.3595
ཚེ་རབས་	-10.3595
སུ་ཝི་	-10.3597
རྡ་ས་གངས་སྐྱིད་	-10.3599
ཞི་བདེ་དང་	-10.36
གནས་པ་དང་	-10.36
བདེ་བ་དང་་	-10.3602
བཀའ་སྩལ་ཏོ་	-10.3603
ཁྱེད་ཚོས་	-10.3605
མཛའ་བརྩེའི་	-10.3605
འཕྲལ་དུ་	-10.3606
བོད་དོན་ཆེད་	-10.3608
ཁོར་ཡུག་གི་	-10.3608
དམན་	-10.3611
ཇི་སྙེད་ཡོད་པ་	-10.3611
མི་སྒེར་	-10.3613
གེ་འདུན་ཆོས་ཀྱི་	-10.3615
གསུམ་དང་	-10.3615
མེ་ཏོག་གི་	-10.3616
ཡི་རང་	-10.3616
གནང་ཕྱོགས་	-10.3616
པ་མེད་པ་དང་་	-10.3619
ཡར་རྒྱས་ཕྱིན་	-10.362
དེ་རིང་གི་	-10.3621
མིང་དང་གཟུགས་	-10.3622
འཛིན་སྐྱོང་གི་	-10.3624
སྟོང་པར་	-10.3624
རལ་གྲི་	-10.3626
མཉམ་པ་	-10.3631
རིག་གཞུང་གི་	-10.3635
དཀྲུག་	-10.3641
མི་ཤེས་པ་	-10.3641
▁མི་མང་	-10.3641
འདི་རྣམས་	-10.3641
ེད་པའི་དབུ་ཁྲིད་	-10.3644
དབང་ཕྱུག་མཆོག་	-10.3645
རྡོག་རྩ་	-10.3648
་བི་	-10.3649
དབུ་འཛུགས་ཀྱིས་	-10.3651
སྤུ་	-10.3651
རྗེས་སུ་མི་མཐོང་	-10.3657
ཡུ་རོབ་གྲོས་ཚོགས	-10.3658
ཆུ་བོ་	-10.3658
འཁེལ་	-10.3659
ཙམ་རིང་	-10.3663
བསྐྱར་	-10.3664
ཚོད་དཔག་	-10.3664
ཚོགས་འདུར་	-10.3665
ཆོས་བསྟན་ཏེ་	-10.3666
བཅུ་གཅིག་པ་ད	-10.3667
སྤངས་ཏེ་	-10.3671
▁གང་ཡིན་བརྗོད་ན་	-10.3674
ཕྲན་	-10.3675
ཁྲིད་དེ་	-10.3676
ཐབས་མཁས་པ་	-10.3676
བརླག་	-10.3677
སྡིག་པའི་གྲོགས་	-10.3679
འཚམས་གཟིགས་	-10.3679
མཛད་གཙོ་རྣམ་པ	-10.368
བཟོས་པ་	-10.368
ལོ་མ་	-10.3682
ནང་པའི་གཞུང་	-10.3682
ཡག་ཤོས་	-10.3683
སྦྲུལ་	-10.3689
བེ	-10.3695
འཛམ་གླིང་ཞི་བདེ་	-10.3698
ཛ་དྲག་གནས་སྟངས་	-10.37
མི་བྱེད་་	-10.3703
དེ་སྔའི་	-10.3703
སྤྱི་འཐུས་རྣམ་པ་	-10.371
ལྟ་སྨོས་ཀྱང་ཅི་	-10.371
ལྷག་བསམ་རྣམ་དག་	-10.3711
བྱ་བའི་	-10.3717
ཅེས་བྱ་བའི་	-10.3717
ཆོས་སྟོན་ཏོ་་	-10.3717
མངོན་པར་བསྟོད་དོ	-10.3717
རྣམ་པར་གྲོལ་བའི་	-10.3717
སྒྲོགས་སྦྱང་གནང་	-10.3719
སོག་པོའི་	-10.3721
གཟིགས་ནས་	-10.3721
དགོས་པའི་རེ་འདུན	-10.3722
སྤོང་	-10.3722
དངངས་སྐྲག་	-10.3722
ཁྲིམས་ཞིབ་པ་གཞན་	-10.3723
ར་མཚོན་ན་	-10.3723
ལྡན་་	-10.3728
ལེགས་སྦྱར་གྱི་	-10.373
▁གོང་ས་མཆོག་གིས་	-10.3732
ནོ་བེལ་ཞི་བ	-10.3733
གཡར་	-10.3733
བསྡུ་	-10.3734
ཕྱི་རོལ་	-10.3735
བྱེད་ཀྱི་ཡོད་པ་	-10.3735
སྐུ་ཚབ	-10.3735
ཆེད	-10.3738
རྒྱ་ནག་གཞུང་ནས་	-10.3739
གློ་	-10.3741
ལོ་རྒྱུས་ནང་	-10.3744
གང་ལགས་	-10.3748
པར་བགྱིའོ་་	-10.375
སྐྱེ་བར་	-10.3751
ཟེར་ན་	-10.3757
སེར་སྣ་	-10.3758
ཞི་གནས་	-10.3758
སྤེལ་བའི་	-10.3759
བཟུང་བ་	-10.3759
འཕྲད་བཞིན་ཡོད	-10.3762
རྒྱ་ཆེན་	-10.3765
དགེ་བ	-10.3766
མཆོགདེ་བཞིན་	-10.3767
རྒྱལ་ས་ལྡི་ལི་	-10.3767
བདུད་རྩིའི་	-10.3769
ལ་ཐུགས་རྗེ་ཆེ་ཞུ	-10.3769
ཁྱོན་ནས་	-10.3772
བཅྭ་བརྒྱད་	-10.3772
དྲ་ལམ་བརྒྱུད་	-10.3773
ར་བྱ་བའི་ཕྱིར་	-10.3777
གང་དག་གིས་	-10.3777
གཤེགས་སོ་་	-10.3778
་ལྟར་ན	-10.3782
ཕ་རན་སིའི་	-10.3783
སྐུ་ངལ་	-10.3788
དེ་མཐོང་ནས་	-10.3789
ཅེས་བྱ་བ་ཡོད་དེ་	-10.379
ཕ	-10.3791
དར་སྤེལ་	-10.3792
བསྟན་ནས་	-10.3792
པའི་ཡིད་སྐྱོའི་	-10.3792
འཆར་འགོད་	-10.3796
ཕྱིན་ཅི་ལོག་	-10.3797
ཙན་དན་	-10.3798
བོད་དོན་ལ་	-10.38
འབྱུང་པོ་	-10.3802
གསར་འགོད་པའི་	-10.3803
འབྲས་ལྗོངས་	-10.3806
གོན་ཏ་ལའི་བླ་མ་	-10.3809
ཐུགས་སྣང་	-10.3812
པ་ཚོས་	-10.3814
ཚོགས་དུས་	-10.3814
ཕྱིར་མི་ལྡོག་པ་	-10.382
སྙན་ཐོའི་ནང་	-10.3821
ཧ་ཅང་གསལ་པོ་རེད	-10.3821
འཁོར་དང་བཅས་པ་	-10.3823
ཁྱབ་སྤེལ་	-10.3824
ཡོང་ཐུབ་	-10.3825
བདེན་མཐའ་གསལ་	-10.3827
ལྟ་བུ་དང་་	-10.3827
▁སློབ་གྲྭའི་	-10.3827
བདག་ཅག་ལ་	-10.3828
དབང་ཕྱུག་ལགས་	-10.3834
ཡོད་སྐོར་གསུངས	-10.3835
མཛད་ཡོད	-10.3837
འོག	-10.3838
བྱམས་བརྩེ་དང་	-10.3839
གང་ཡོད་	-10.3841
ང་མཉེས་པར་བྱས་ཏེ	-10.3842
མཆོག་རྣམ་གཉིས་	-10.3842
རང་རེའི་	-10.3842
པོ་དེ་དག་	-10.3842
ལྟ་བུ་རེད	-10.3843
བརྒྱ་ཕྲག་	-10.3844
▁ཁྱད་པར་	-10.3844
གསར་འགོད་པས་	-10.3847
ལྷགས་	-10.3847
གི་དབང་པོ་ནི་	-10.3848
དམ་བཅའ་	-10.3848
སྐྱབས་མགོན་ཆེན་པ	-10.3852
གཡོགས་	-10.3856
འི་སྒོ་ནས་	-10.3859
མ་མཆིས་པར་	-10.386
སློབ་ཕྲུག་དང་	-10.3864
ཚོགས་འདུ་ཐེངས་	-10.3866
ནོན་	-10.3867
གཞུང་མང་	-10.3867
▁དེ་ནས་ཡང་	-10.3868
མཇུག་སྡོམ་	-10.3868
རྒྱལ་གཅེས་པ་	-10.3871
བལྟ་ན་སྡུག་པ་	-10.3873
དོ	-10.3879
མན	-10.3879
དཔེ་མཚོན་	-10.388
བཅངས་	-10.388
ཡུ་རོབ་རྒྱལ་ཁབ་	-10.3883
ཁྱིམ་མཚེས་	-10.3885
དང་་ཤེས་རབ་ཀྱི་	-10.3885
གང་གི་ཕྱིར་	-10.3886
གནོན་ཤུགས་སྤྲོད་	-10.3887
་རྣམས་དང་་	-10.3887
་ལྟ་སྟེ་དཔེར་ན་	-10.3889
▁གཞི་རྩའི་	-10.3892
སྤྲོ་བ་	-10.3897
འཛམ་གླིང་ཞི་བདེ	-10.3897
མ་ཡིན་གྱི་	-10.3903
ནས་ཡིན་པ་	-10.3905
ཡིད་སྐྱོའི་	-10.3906
ནང་མཉམ་ཞུགས་	-10.3908
གཞན་རྣམས་	-10.3908
ར་གྱུར་	-10.391
འདུགདེ་ནས་	-10.391
ལེགས་སྦྱར་སྐད་	-10.3914
དྲིས་	-10.3915
▁བསོད་ནམས་	-10.3919
ཞག་བདུན་	-10.3919
ཆ་ཤས་	-10.3922
རྡོག་རོལ་བཏང་	-10.3923
གཞན་དག་ལ་	-10.3924
མིག་གི་ཁམས་	-10.3925
གཞུག་	-10.3926
▁སྔོན་གྱི་	-10.3929
སིངྒ་	-10.393
ཚོགས་འདུ་ཚོགས་	-10.3931
སྐུའི་ཡང་སྲིད་	-10.3931
▁དེས་དེར་	-10.3932
གསར་འགོད་པ་བཅས་	-10.3934
ཅན་དུ་	-10.3937
བློན་ཆེན་མཆོག་	-10.3939
པ་མ་ཡིན་	-10.394
ཁོང་དུ་ཆུད་	-10.3942
ཤེས་ཡོན་ཅན་	-10.3944
བྱས་་	-10.3945
འོན་ཀྱང་	-10.3946
བྱེད་བཞིན་ཡོད་པ་	-10.3948
པར་བགྱི་	-10.395
བྷོ་	-10.3953
ཆ་ནས་	-10.3954
གྱུར་བ་	-10.3954
རང་ཉིད་ཀྱིས་	-10.3955
མ་འོངས་པ་	-10.3955
འབྱེད་	-10.3956
བར་གྱུར་ཏོ་་	-10.3957
གཉེན་པོ་	-10.3961
ཅེས་བྱ་བར་	-10.3962
ལ་ཐུགས་རྗེ་ཆེ་	-10.3962
རྒྱ་ཆེ་བ་	-10.3965
▁སྲིད་པའི་	-10.397
ཞུས་པ་དང་	-10.3971
བཞིན་ཡོད་པ་ལྟར	-10.3971
དོང་ངོ་་་	-10.3974
▁དེའི་ཐོག་ནས་	-10.3975
ལས་ཅི་བགྱིས་ན་	-10.3975
བཞུགས་མོལ་	-10.3975
བཞིན་ཡོད་སྟབས་	-10.3976
བ་ལྟ་ག་ལ་མཆིས་	-10.3976
དངོས་པོ་མེད་པ་	-10.3988
▁འཕགས་པའི་	-10.3988
འི་རྒྱལ་པོ	-10.399
པྲ་	-10.3992
སླད་དུ་	-10.3993
ཕྱི་མའི་མཐའ་	-10.3993
གདུག་རྩུབ་	-10.3994
ནི་རབ་ཏུ་	-10.3994
རྒྱུ་ནི་	-10.3996
འཆི་མེད་	-10.3997
རྒྱ་མིས་	-10.3999
གྲོས་བསྡུར་	-10.3999
ཧི་མ་ཅལ་	-10.4002
མི་འབྱུང་	-10.4004
འཐུང་	-10.4004
རྒྱལ་ཁབ་དང་	-10.4004
ལྷ་དང་བཅས་པའི་	-10.4005
▁མ་ཕམ་པ་	-10.4007
མཆི་	-10.4013
བཀུར་འོས་	-10.4013
་ཏི	-10.4021
གལ་གནད་	-10.4022
▁དགེ་སློང་དག་ང་	-10.4024
ཕེབས་འབྱོར་གནང་	-10.4024
མི་འ	-10.403
ཉིན་གཅིག་	-10.4031
བཤད་ན་	-10.4031
་ཆེན་རིན་པོ་ཆེ	-10.4034
ཞིག་ཡིན་ཞིང་	-10.4036
འཐོབ་་	-10.4036
དགོས་གལ་	-10.4043
ཤེས་བྱ་	-10.4046
པས	-10.4048
མཛད་སྒོ་ཞིག་	-10.4049
ཡོད་པ་ཞིག་	-10.405
ོ་་	-10.4051
མི་སྡུག་པ་	-10.4051
དེའི་གཟེངས་རྟགས་	-10.4054
་སི་	-10.4055
འཁྲུལ་	-10.4057
ཟབ་མོ་འདི་	-10.4059
རིམ་པར་	-10.4064
ཤོག	-10.4064
ཚན་རིག་གི་	-10.4064
སྟོན་པར་བྱེད་པ་	-10.4066
ངེས་ཡིན	-10.4068
སྐྱེའོ་	-10.4071
ལྗོངས་	-10.4072
ཨེ	-10.4073
དུད་འགྲོའི་སྐྱེ	-10.4076
▁རྡ་ས་	-10.4086
ཁྱབ་གདལ་	-10.4087
སྔོན་པོ་	-10.4087
ཡིན་པ	-10.4088
མྱོང་བ་	-10.409
▁མཁས་པ་	-10.4092
བྱིན་རླབས་	-10.4093
ཅན་དང་་	-10.4093
རྒྱ་ནག་གཞུང་དང་	-10.4103
ཤེས་ལྡན་	-10.4104
རྩ་དོན་	-10.4106
ཞིག་རེད་འདུག	-10.411
ཀེ	-10.411
གསོད་ཁྲག་སྦྱོར་	-10.411
ལམ་དུ་	-10.4111
སྨིན་སྩལ་ཐོབ་སྟེ	-10.4111
ཟིན་བྲིས་	-10.4112
མི་བྱེད་པ་	-10.4113
ཆོད་སེམས་བརྟན་པོ	-10.4114
དཔག་ཏུ་མེད་པའི་	-10.4114
འོངས་པ་	-10.4115
▁དེ་ལས་	-10.4116
སྒྲིག་འཛུགས་ལ་	-10.4119
གྲོན་	-10.412
བྲོས་	-10.4121
ལམ་སྟོན་གནང་	-10.4122
ཐུབ་པ	-10.4126
མི་རྟག་པ་	-10.4126
བརྗོད་དུ་མེད་པ	-10.4127
ར་བྱས་ནས་	-10.4128
དབྱེར་མེད་	-10.4129
རྡ་རམ་ས་ལར་	-10.4134
་ཞེས་བྱའོ་་	-10.4135
འཐོར་	-10.4136
བསྡོམས་	-10.4136
▁ཁ་ཅིག་	-10.4138
ཁག་གཅིག་དང་	-10.4138
གཏོང་རྒྱུ་	-10.414
ཉིད་ཀྱང་	-10.4141
ཆོས་རིག་	-10.4142
འཇིག་རྟེན་པའི་	-10.4145
དོད་	-10.4147
ལེགས་སོ་་	-10.4147
དང་་བསམ་གཏན་གྱི་	-10.4148
ཁྱེད་ཅག་	-10.415
ལ་ཡིད་ཆེས་	-10.4153
གནོན་	-10.4158
མས་གང་གའི་ཀླུང་ག	-10.4158
རིག་གཞུང་དེ་དག་	-10.4159
ས་གནས་ཁག་	-10.4163
སྐུ་དབང་	-10.4168
ཕྱིར་ཡང་	-10.417
གནའ་རབས་	-10.4172
ཅན་ཞིག་	-10.4176
མུ	-10.4179
བཀའ་བློན་རྣམ་པ	-10.4183
སྐུ་ཉིད་མཆོག་	-10.4191
མཚོན་ཆ་	-10.4191
▁ཆོས་རྣམས་	-10.4194
མ་ཡིན་་	-10.4194
རྣམས་ཀྱིས་མཆོད་	-10.4195
མཇུག་སྐྱོང་	-10.4199
སྐུ་ཚབ་དང་	-10.4201
གཉེར་གསར་འགོད་པ་	-10.4204
གཞུང་ལམ་	-10.4206
ལེགས་སྦྱར་	-10.4209
གུ	-10.4209
སྣ་མང་	-10.421
མཚན་མ་མེད་པ་	-10.4212
རྣམ་པར་མི་རྟོག་	-10.4214
ཞུ་མཁན་	-10.4214
དུ་སྦྱར་རོ་་	-10.4216
བོད་ཕྱི་ནང་གཉིས་	-10.4219
ཡངས་	-10.4219
འཕགས་བོད་	-10.4219
དེ་དང་དེར་	-10.4222
བདག་ཅག་གཉིས་	-10.4223
ཕ་རོལ་གྱི་	-10.4224
ནུས་སྟོབས་	-10.4227
འོངས་ནས་	-10.4228
བྱ་བར་	-10.4228
ཀརྨ་	-10.423
▁མ	-10.423
མཐུན་འགྱུར་གནང་	-10.4234
འགོར་	-10.4237
འོད་ཀྱི་	-10.4239
མི་མངའ་	-10.4239
ཡོ་	-10.424
ཐབས་མེད	-10.424
ི་བྱེ་མ་སྙེད་དག་	-10.4243
སྦེལ་ཀོབ་	-10.4243
སྐམས་	-10.4243
རྒན་པ་	-10.4244
ཞུ་དགོས་	-10.4245
ཐོགས་མེད་	-10.4249
ཉིན་རེ་བཞིན་	-10.4251
མ་སུ་རི་བོད་ཁྱིམ	-10.4251
སྐུ་ཞབས་ཨ་	-10.4253
ེ་བའི་བཤེས་གཉེན་	-10.4256
བ་བཏུད་ནས་	-10.4257
གྱུར་ནས་	-10.4258
གི་སྐུ་ཚབ་	-10.4258
བར་གྱུར་	-10.426
གཞས་སྣ་འཁྲབ་སྟོན	-10.426
འབྲོག་	-10.426
ང་དེའི་	-10.4263
གོང་མའི་འཐུས་མི་	-10.4265
མི་རྣམས་ཀྱིས་	-10.4267
ཡོད་པ་དེར་	-10.427
མཐའ་མ་	-10.4272
སྟོང་པ་ཉིད་ཀྱི་	-10.4273
ཕོ་བྲང་དུ་	-10.4273
སྐྱེ་དགུ་	-10.4275
མཐོ་སློབ་ཏུ་	-10.4279
དགོས་སྐོར་	-10.4279
བར་སྣང་	-10.4279
དོན་ཡོད་	-10.4279
ར་བགྱིའོ་་	-10.4284
གདུལ་བྱ	-10.4285
བོད་ཐོག་འཛིན་	-10.4285
མི་སྣང་བར་གྱུར་	-10.4289
ཇི་འདྲ་	-10.429
བརྟག་	-10.43
ཀེ་	-10.4303
འི་གནས་	-10.4305
དོན་གཉེར་	-10.4305
བསྐལ་པ་གྲངས་མེད་	-10.4306
དང་ལྡན་པར་	-10.4306
▁གོང་གསལ་	-10.4307
བཅིངས་པ་	-10.4308
ཞུམ་	-10.4308
གྲོས་	-10.4311
སྒར་	-10.4313
ཤར་ཏུར་ཀི་སི་ཐན་	-10.4313
འཛམ་གླིང་ཁྱོན་དུ	-10.4313
ལྟར་མི་བལྟ་སྟེ	-10.4319
ཁྲིམས་སུ་	-10.4322
རྒོལ་	-10.4322
ཐེབས་རྩ་ཁང་	-10.4323
དཀའ་ངལ་ཧ་ཅང་	-10.4323
སློབ་སྟོན་	-10.4326
ཧུ	-10.4328
འཁོད་ཡོད	-10.4328
སྦྱིན་སྲེག་	-10.433
ཕལ་ཆེ་བ་	-10.4331
མོ་་	-10.4335
འབྲེལ་བ་ཡོད་པ་	-10.4335
ནམ་མཁའ	-10.4336
བཞུད་	-10.4337
ཐུབ་རྒྱུ་	-10.4337
▁སྐུ་	-10.4339
ི་ཡ	-10.4341
ཐོབ་པའི་	-10.4345
གཡོན་	-10.4352
གཟབ་རྒྱས་ཞུས་	-10.4352
▁སྐབས་དེའི་	-10.4355
བྷོ	-10.4355
▁སྐབས་རེ་	-10.4356
སྲུང་སྐྱོབ་བྱེད་	-10.4357
ཟློས་གར་ཚོགས་པས་	-10.4357
ཚུལ་དུ་	-10.4361
རྣམས་ཀྱི་ནང་དུ་	-10.4364
ཁ་བ་	-10.4365
གསལ་པོར་	-10.4366
གྱུར་པའི་	-10.4368
བསམ་ཡས་	-10.4369
ལྷན་ཚོགས་ཤིག་	-10.4373
ཡོད་པ་ནི་	-10.4374
དངུལ་ཁང་	-10.4378
▁གོང་ས་མཆོག་གི་	-10.4379
དེ་བཞིན་ཏེ་	-10.4379
ལ་བཟོད་པ་	-10.438
སྨོན་པ་མེད་པ་	-10.438
དགོས་དོན་	-10.4381
བོད་ཡིག་ནང་	-10.4382
བརྟན་པོ་	-10.4385
ཧིན་བོད་མཛའ་	-10.4386
ཆུ་སྲིན་	-10.4388
མཐོང་བར་	-10.439
གཟའ་མཇུག་	-10.439
དགེ་བའི་རྩ་བ་རྣམ	-10.4392
ཚོགས་གཙོ	-10.4393
གྲངས་གཉིས་རིང་	-10.4393
སྔོ་	-10.4395
ཕེབས་མཁན་	-10.4396
ཆེ་ཆུང་	-10.4399
སྒྲིབ་པ་	-10.44
ཐོབ་ཐབས་	-10.4403
སོམ་ཉི་	-10.4404
འགགས་	-10.4404
རོགས་ཚོགས་	-10.4404
རྣམ་པ་ཐམས་ཅད་དུ་	-10.4405
འདོད་ཆགས་ཀྱི་	-10.4408
དེ་དང་རྐྱེན་དེ	-10.4408
སྡུག་བསྔལ་བ	-10.4409
གཅ	-10.4409
བསླབ་པ་མཐར་སོན་	-10.4409
ཡིན་སྐོར་གསུངས	-10.441
ན་ལེན	-10.4412
ཐོས་སོ་་	-10.4416
བརྒྱ་སྟོང་དུ་མ་	-10.4416
མཛད་པ་་	-10.4417
པར་རིག་ནས་	-10.4419
▁ཅེས་གསུང་	-10.442
ལྟ་རྟོག་	-10.442
གལ་ཆེན་པོ་ཡིན་པ་	-10.4422
ལ་ཕན་ཐོགས་	-10.4422
གོ་བ	-10.4424
གློད་བཀྲོལ་གཏོང་	-10.4424
བར་འགྱུར་་	-10.4426
ཆོག་མཆན་	-10.4428
དེའི་ནང་དུ་	-10.4438
་ཡིན་ཏེ་	-10.444
ཕུན་སུམ་ཚོགས་པ	-10.4442
བཀའ་སློབ་སྩལ་བ་	-10.4444
གཞོན་སྐྱེས་རྣམས་	-10.4444
བཅོ་ལྔ་	-10.4446
རྩད་གཅོད་	-10.4446
ལས་ཁུངས་ཁག་	-10.445
དགོན་སྡེ་ཁག་གི་	-10.4452
བྱོས	-10.4453
ཐ་མ་	-10.4454
འབུ	-10.4456
ཀུན་ཀྱང་	-10.4456
མཉན་	-10.4458
གནས་ཡོད	-10.4459
བྱུང་མེད	-10.4459
དང་་དྲི་ཟ་དང་་	-10.4461
བརླ	-10.4462
ལ་བབ་	-10.4463
རྡོ་རྗེ་ལགས་	-10.4463
བདེ་བ་འདོད་	-10.4463
་ལགས་	-10.4463
གནད་	-10.4465
ཕྱོགས་ནས་	-10.4466
དུས་དྲན་	-10.4466
ཞུགས་ཏེ་དེའི་ཚེ་	-10.4471
ཟབ་པ་	-10.4473
ཚོགས་ཡོད	-10.4474
ཚོགས་ཆུང་གིས་	-10.4475
་བའི་རིགས་སུ་	-10.4476
གཞི་རྩའི་འགྲོ་	-10.4477
▁བཅོམ་ལྡན་འདས་ག	-10.4477
ཚ་བ་	-10.4478
ལ་མངོན་པར་ཞེན་པ་	-10.4479
ྭ་བརྒྱད་	-10.4479
ཡིན་པས	-10.4482
བསླབ་པའི་གཞི་	-10.4483
ལྷན་ཚོགས་ཐེངས་	-10.4485
བློའི་རྣམ་གཞག་	-10.4486
རེ་འདུན་	-10.4486
འཐུས་	-10.4487
▁འདི་ལོར་	-10.4491
སྤུན་	-10.4492
རབ་ཏུ་བྱུང་	-10.4493
བསླེབས་	-10.4493
སྤངས་ནས་	-10.4494
གོང་གི་	-10.4496
▁འདྲེན་པ་	-10.4497
སྐབས་རེ་	-10.4497
རྒྱལ་སྤྱིའི་ཐོག་	-10.4498
དང་ལྡན་ན་	-10.4498
རྒྱལ་ས་ལྡི་ལིར་ར	-10.4502
ས་དེ་	-10.4503
རྒྱུན་འཛིན་	-10.4505
ལྟར་ན	-10.4505
བགྲོ་གླེང་གནང་	-10.4509
འགྱུར་བར་	-10.4511
དེ་དག་གིས་ཀྱང་	-10.4511
བོད་མིའི་སྒྲིག་འ	-10.4514
▁ཁྱེད་	-10.4517
འཕྲོད་	-10.4518
གསོན་	-10.4518
རེབ་གོང་	-10.4519
དགོངས་བཞེས་	-10.4519
ལྟོ་	-10.452
ཆེ་ཞུ་རྒྱུ་ཡིན	-10.4523
བསྐྱོན་	-10.4524
ཆབ་སྲིད་བཙོན་པ་	-10.4524
བསྡམས་	-10.4525
ཤེས་ཡོན་དང་	-10.4527
སྐྱིལ་མོ་ཀྲུང་	-10.4527
▁སོ་སོའི་	-10.4529
བུ་ཕྲུག་	-10.453
སོ་ནམ་	-10.4531
ནིའུ་ཛི་ལེན	-10.4531
སྐྱེ་བོའི་ཚོགས་	-10.4532
ཡངས་པ་	-10.4533
ཉེན་རྟོག་པས་	-10.4535
ཕྱོགས་སྒྲིག་	-10.4539
ཉེ་བར་ཞི་བ	-10.4539
དྲ་རྒྱ་	-10.4539
ཚད་ལྡན་ཞིག་	-10.454
བྱས་པར་	-10.4546
སོ་སོ་ནས་	-10.4548
ལ་སེམས་	-10.4548
སྨོན་ལམ་གྱི་	-10.4549
ལས་ཁུངས་ཁག་གི་	-10.4549
དུས་དུས་སུ་	-10.455
འདུས་མ་བྱས་ཀྱི་	-10.4551
ཀི	-10.4552
འོས་འདེམས་	-10.4554
འབ	-10.4554
གསུང་གི་	-10.4555
མི་ནུས་	-10.4557
ཅུང་ཟད་ཀྱང་	-10.4561
ཡོ་བྱད་ཐམས་ཅད་	-10.4561
ཡོད་པ་ལྟར་	-10.4565
ཐོགས་ནས་	-10.4565
དེ་སྐད་ཅེས་གསོལ་	-10.4567
རིགས	-10.4567
མཆོག་ཕྱི་ལོ་	-10.4568
ཕོ་མོ་	-10.4572
ཡང་མ་ཡིན་ནོ་་	-10.4576
རྒྱ་གར་བ་	-10.4577
་འཛུགས་ཕྱི་དྲིལ་	-10.4577
ས་ཡོངས་སུ་	-10.4581
མང་ཤོས་	-10.4586
གང་དག་ཡིན་པ་	-10.4586
དུ་ཡང་	-10.4586
གང་དང་གང་དུ་	-10.4586
གྲོ	-10.4588
བཞི	-10.4589
ཉེན་རྟོག་པ་	-10.4589
བར་བརྟེན	-10.4593
ཡིད་གཉིས་	-10.4597
སློབ་ཕྲུག་ཚོར་	-10.4598
▁གལ་སྲིད་	-10.4599
རོགས་རམ་གནང་	-10.4602
▁དེ་ལྟ་བས་ན་	-10.4602
▁བཅོམ་ལྡན་འདས་ལ་	-10.4603
གཞིས་བཞུགས་	-10.4603
བཟང་པོའི་	-10.4604
མང་ཙམ་	-10.4604
ཁོང་རྣམས་	-10.4605
འབྱུང་ཁུངས་	-10.4605
ཚངས་པས་བྱིན་	-10.4605
གྱུར་ཅིང་་་	-10.4606
ཞོ	-10.4606
དགོས་པ་ཧ་ཅང་	-10.4609
པའི་སེམས་	-10.461
དེ་རྣམས་	-10.4611
པའི་སྐབས་སུ་	-10.4613
བགྲང་	-10.4613
ནི་འདི་ལྟ་སྟེ་	-10.4617
སྟག་	-10.4618
ཕབ་	-10.462
འདྲ་མིན་གྱི་	-10.4623
▁ཉན་ཐོས་	-10.4624
དོན་དམ་པའི་	-10.4626
པའི་སེམས་ཅན་	-10.4628
ཨན་	-10.4629
མཉེས་	-10.4634
བཏོན་པ་	-10.4636
ཐེག་པ་ཆེན་པོ་ལ་	-10.4636
རྐྱེན་གང་དག་གིས་	-10.4639
ཐུགས་གསོ་	-10.4641
གསོས་	-10.4643
གི་ཐོག་ནས་	-10.4643
དབུལ་	-10.4643
ངོ་ཚ་	-10.4644
བཤད་པའི་	-10.4644
གནས་ཀྱི་	-10.4645
གྲུབ་མཚམས	-10.4646
ཕྱག་འཁྱེར་	-10.4648
བྱམས་པ་ཆེན་པོ་	-10.4648
རང་དབང་འཐབ་རྩོད་	-10.4648
ས་མཚམས་སུ་	-10.4649
སྐྱེ	-10.465
བའི་དོན་དུ་སྔོན་	-10.465
མི་དེ་	-10.465
ཟག་པ་ཟད་པ་	-10.4651
▁འདི་དག་ནི་	-10.4657
འི་དབྱངས་ཀྱིས་	-10.4657
པུར་	-10.466
་ལགས	-10.4663
བཏུད་	-10.4663
སྨྲ་བའི་	-10.4663
བྲི་	-10.4668
སྐྱེས་ཤིང་	-10.4671
ཁྱེད་ཀྱི་	-10.4673
འཕྲལ་མར་	-10.4673
ལ་མཚན་དང་་བ་དན་	-10.4674
▁མགོན་པོ་	-10.4675
པ་རྣམས་ཡིན་ནོ་	-10.4676
གལ་གནད་སྐོར་	-10.4676
བརྟགས་	-10.468
སྒྲོ	-10.4681
ཀྱི་ཞིང་དེར་	-10.4681
ཅིག་ཅེས་	-10.4683
དེ་ཉིད་ཀྱིས་	-10.4685
གཞི	-10.4687
དོན་ཁང་གི་	-10.4689
གྲག་	-10.4693
དུལ་བ་	-10.4694
གནག་	-10.4695
རིམ་གྲོ་	-10.4695
▁རྒྱལ་པོའི་	-10.4695
པོ་མཆོག་གི་ཐུགས་	-10.47
ཁ་ནས་	-10.4701
ཕུགས་	-10.4702
བལྟས་ནས་	-10.4702
ཁང་ནས་	-10.4702
རྣམ་པ་དུ་མ་	-10.4703
▁མད་གལ་གྱི་བུ་ང	-10.4706
འཐབ་རྩོད་ཐོག་	-10.4707
རྣམ་འདྲེན་	-10.4707
ཉིད་ལ་	-10.471
དེ་ཉིན་	-10.4712
འེ་	-10.4712
གཞོན་པ་	-10.4712
དམ་དྲག་	-10.4713
བཙས་	-10.4716
ཡོད་པ་ཞིག་རེད	-10.4718
སེམས་དང་	-10.472
དགོངས་གཞི་	-10.4722
རྒྱུ་ཡིན་པའི་	-10.4726
བཙོན་	-10.4727
ཡོངས་སུ་རྫོགས་པ་	-10.4728
དག་མངོན་པར་འདུས་	-10.473
་པར་བརྟེན་	-10.473
སིམ་ལ་	-10.4732
▁འབྲེལ་ཡོད་	-10.4732
ཨེ་ཤི་ཡ་	-10.4732
གནང་གྲུབ་མཚམས་	-10.4735
རབ་ཏུ་དབྱུང་བ	-10.4735
སྙིང་བསྡུས་ཤིག་	-10.4737
ལས་གྲུབ་པའི་	-10.474
ཐུབ་པ་ཡིན་ན་	-10.4743
མི་མཐུན་པ་	-10.4743
སྐོར་སོགས་	-10.4745
བྱུགས་	-10.4746
་འདུག	-10.475
བསྐྱེད་དོ་་	-10.4751
རྒྱ་ནག་ཝུ་ཧན་	-10.4751
གནས་རིམ་	-10.4752
བསིལ་	-10.4755
པར་བྱེད་དོ་	-10.4756
བདག་ཉིད་ཀྱིས་	-10.4756
▁བལ་ཡུལ་	-10.4764
▁ཡི་གེ་	-10.4766
བཅས་ཏེ་	-10.4769
གནད་དོན་སྐོར་	-10.477
དེར་བརྟེན་ང་ཚོས་	-10.4771
འབྱོར་པ་	-10.4773
བྱོན་	-10.4776
▁དེ་ཡིན་དུས་	-10.4776
▁ཕྱི་ལོ་རྒྱ་གར་	-10.4777
བོད་རིགས་སྤུན་ཟླ	-10.4778
ཉར་	-10.4779
སྒང་ལ་	-10.478
མཁྱེན་ནས་	-10.4781
གསང་བའི་	-10.4785
གས་པ་	-10.4786
ཡང་དག་པ་	-10.4788
ཕྱི་ལོ་ཟླ་	-10.4789
དྲ་བ་	-10.479
གཟི་	-10.4791
བྱིན་ནོ་་	-10.4793
མིའམ་ཅིའི་	-10.4796
མང་པོའི་ནང་	-10.4797
ཉོན་	-10.4799
འགུལ་	-10.4799
བཀའ་བློན་རྣམ་པ་	-10.4799
ཟླ་འདིའི་	-10.4799
▁སྐད་ཡིག	-10.4801
རིམས་ནད་	-10.4803
སྒྲོལ་མ་	-10.4806
བྱང་ཨ་རི་	-10.4808
སྐུ་ཚེ་ཞབས་པད་	-10.481
སྡིག་པའི་	-10.481
མ་པ་	-10.4812
ཚན་རིག་པ་ཚོས་	-10.4813
དགོས་པ་ཞིག་རེད	-10.4813
སྐར་མའི་རྒྱལ་པོ་	-10.4816
གྲངས	-10.4816
ཤི་ནས་	-10.4817
དུ་གྱུར་	-10.4818
ཅི་ནས་	-10.4819
སྐུ་ཕྲེང་	-10.4822
རྒྱལ་པོའི་ཁབ་ཏུ་	-10.4823
མིའི་ལྷན་སྐྱེས་	-10.4823
▁དེ་ནས་དེས་	-10.4825
དེ་བདག་གིས་	-10.4825
དག་གིས་སྨྲས་པ་	-10.4826
གསོལ་སྟོན་	-10.4826
བྱམས་པ་དང་	-10.4828
ཤེས་རིག་དྲུང་ཆེ	-10.4829
ཁོ་ནས་	-10.4833
མི་བཟད་	-10.4833
▁མིག་	-10.4835
རོགས་ཞེས་	-10.4836
▁བྱིས་པ་	-10.4836
གདན་འདྲེན་ཞུས་	-10.4838
ཤེས་པའི་ཁམས་དང་་	-10.484
གླུ་དབྱངས་	-10.484
བཏང་བའི་	-10.4841
ར་གྱུར་པའི་	-10.4842
ཕས་	-10.4847
ཁག་པོ་རེད	-10.4849
རྣམས་ཀྱིས་ཀྱང་	-10.4849
ཚོགས་པ་ཁག་	-10.4849
ཚིག་གིས་	-10.4851
▁རིམ་པས་	-10.4852
འཐབ་རྩོད་ཀྱི་	-10.4855
ཐམས་ཅད་དང་ལྡན་པ	-10.4855
དགོས་ན་	-10.4857
ལྷན་འཛོམས་ཀྱིས་	-10.4861
དགེ་འདུན་ལ་	-10.4862
དམ་པ་ཁོང་གིས་	-10.4862
ཉོ་	-10.4863
བྱ་དགོས་	-10.4864
ཚོགས་གཙོ་དང་	-10.4865
ཡོད་དམ་	-10.4865
ཡིན་པའི་ཆ་ནས་	-10.4866
གཞིར་	-10.4868
བློ་ཕམ་	-10.4869
ཞབས་ཞུ་	-10.4871
གསལ་བར་	-10.4872
་མི་མཉེས་པར་མ་བ	-10.4874
ཐུབ་པ་ཡིན་ན	-10.4876
་ལི་	-10.4879
གནང་མཁན་ཡོངས་ལ་	-10.4879
རྒྱལ་བུ་རྒྱལ་	-10.4884
དེའི་དུས་	-10.4886
དད་ལྡན་	-10.4888
ཨ་མདོ་	-10.4888
གཅིག	-10.4889
གཞིས་ལུས་	-10.4891
གནད་དོན་ཐོག་	-10.4892
ཡི་རངས་ཏེ་	-10.4893
ས་གཙོས་	-10.4895
ཇི་ལྟ་བུ་	-10.4901
དེའི་སྐོར་	-10.4901
ཞིང་བལྟ་ན་སྡུག་	-10.4902
རྒྱལ་པོ་ཞེས་བྱ་བ	-10.4903
ཡོད་པ་འདི་	-10.4908
བྱེད་ན་	-10.4909
ཉན་ཐོས་དང་་	-10.4909
གསལ་བཤད་གནང་	-10.4912
རྣམ་གྲངས་	-10.4913
▁དེ་ལ་འདི་སྐད་	-10.4922
བདེ་བ་དང་	-10.4926
ང་ཚོ་ཚང་མས་	-10.4931
ར་འཚང་རྒྱ་བར་	-10.4933
རྣམ་པར་དག་	-10.4938
གོང་ས་མཆོག་ལ་	-10.4938
ལས་ཕྱིར་མི་ལྡོག་	-10.4941
གདུག་རྩུབ་ཅན་	-10.4941
▁གཟའ་སྤེན་པ	-10.4941
ཤས་	-10.4942
པོ་དང་	-10.4945
ཁུང་	-10.4946
ལུས་ནི་	-10.4946
གཅིག་པོ་	-10.4953
དར་རྒྱས་	-10.4954
བཤམས་	-10.4961
གཟོད་མ་ནས་	-10.4962
སྐུའི་འཕྲོད་བཞེས	-10.4962
གནང་བར་བརྟེན་	-10.4967
འཐུས་ཚོགས་གཞོན་ཨ	-10.4971
▁བོད་རིགས་	-10.4972
བགྱིས་པ་	-10.4973
སྟོབས་དང་ལྡན་པ་	-10.4973
པས་་	-10.4974
མྱོང་ཚོར་	-10.4974
དངོས་པོ་མེད་པར་	-10.4978
དྲ་ཐོག་	-10.4979
འཇུག་གོ་་	-10.4981
ལོན་པ་	-10.4981
རིང་གི་	-10.4982
འདབ་	-10.4983
་སེམས་ཅན་ཐམས་ཅད་	-10.4986
▁ཡོན་ཏན་	-10.4988
གཞུང་ལུགས་	-10.4994
ཡི་ནི་	-10.4995
ཉེ་འགྲམ་	-10.4996
་སྟབས	-10.5001
ཡར་རྒྱས་ཀྱི་	-10.5002
ཕོ	-10.5002
རྒྱལ་བའི་ཡང་སྲིད	-10.5004
མི་ཚེ་	-10.5004
གསར་པའི་	-10.5005
དེ་དེ་བཞིན་ནོ་་	-10.5007
རྡུལ་ཕྲན་མཚོན་ཆ་	-10.5012
ནས་ལོ་	-10.5018
གཤེགས་པ་	-10.5018
གན་དུ་	-10.5018
རིང་པོ་	-10.5021
ཡིན་ནའང་རེད	-10.5025
པས་ན་	-10.5025
འབྱུང་ངོ་་་	-10.5029
ལྷ་དང་མི་དང་ལྷ་མ	-10.503
ཆུང་བ་	-10.503
ཆབ་སྲིད་དང་	-10.5032
གཞིས་ཆགས	-10.5034
ལེགས་གྲུབ་བྱུང་	-10.5038
ངོས་འཛིན་ཞུ་	-10.5039
ཕྱ	-10.504
ཚོགས་གཙོའི་	-10.5043
བོད་དེ་	-10.5045
སྡུག་པ་	-10.5045
གསལ་འདོན་	-10.5048
གྱུར་ནས་་	-10.5049
དེ་བཞིན་ཉིད་དང་་	-10.5049
རྒྱ་གར་དང་	-10.5051
ལ་སྤྱོད་པ་ན་	-10.5053
དཀའ་ངལ་སེལ་	-10.5055
ནོར་འཁྲུལ་	-10.5055
ཉན་ཞིབ་	-10.5057
▁དེ་ཉིན་	-10.5058
ཀྱི་སྒོ་ནས་	-10.5059
གསུམ་པོ་	-10.5061
ཆགས་པ་རེད	-10.5061
རྣམས་ལགས་	-10.5062
རྟག་པ་	-10.5066
་ཆོས་བཞི་དང་ལྡན་	-10.5067
གྲུབ་པའི་	-10.507
ཆུ་ཀླུང་	-10.507
དུ་བྱུང་སྟེ	-10.5071
དགུང་	-10.5071
ཅི་འདྲ་	-10.5076
དག་ན་	-10.5077
མས་གྲངས་མེད་པ་	-10.5077
མང་པོ	-10.5078
དམ་པ་དེ་ཉིད་	-10.5079
སྐུ་གཟུགས་	-10.508
རང་ལོ་	-10.5084
རྡོ་རྗེ་ལགས	-10.5087
ཤོ	-10.5087
ལྷགས་ནས་	-10.5089
ཆེན་པོ་བྱུང་	-10.509
རྩ་བ་ནས་མེད	-10.5092
ཕྱོགས་ཀྱི་ཆོས་	-10.5092
རྣམས་ལ་ཡང་	-10.5093
རྒྱུ་གལ་ཆེན་པོ་	-10.5099
་བྷ་	-10.5099
▁མིའི་	-10.5101
བཅོམ་ལྡན་འདས་ག	-10.5103
▁རྣམ་པར་ཤེས་པ་	-10.5105
གཟབ་	-10.5108
བརྒྱུད་གསུམ་ནས་	-10.5111
▁སྟོང་གསུམ་གྱི་	-10.5112
ཁྱད་པར་དུ་འཕགས་པ	-10.5112
བརྩིས་	-10.5113
སྡུག་སྦྱོང་	-10.5113
ལྷའི་བུས་སྨྲས་པ་	-10.5113
གཅད་	-10.5115
དངོས་པོ་མེད་པ	-10.5115
སེམས་ཅན་གྱི་	-10.5115
ཅོག་	-10.5117
ཊི	-10.5117
གཙོ་འཛིན་	-10.5119
སྨོན་ལམ་བཏབ་སྟེ་	-10.512
ལུས་སེམས་	-10.512
ཟངས་དཀར་	-10.5121
སྡེ་ཚན་ཁག་གི་	-10.5122
ོལ་	-10.5122
མྱུ་གུ་	-10.5122
ལོག་པར་ལྟ་བ་	-10.5123
ཆིབས་བསྒྱུར་	-10.5124
ལན་གསུམ་བསྐོར་བ་	-10.5126
དགོས་པའི་སྐོར་	-10.5127
རྨ	-10.5129
ཞེས་བྱ་སྟེ་	-10.5132
དུས་བབ་	-10.5138
བདེན་པ་མཐོང་ནས་	-10.5139
▁མདོ་སྡེ་	-10.514
སུམ་ཅུ་རྩ་གསུམ་པ	-10.5142
དགོས་པ་སོགས་	-10.5144
བརྩོན་འགྲུས་རྩོམ	-10.5153
གཞིས་ཆགས་ཁག་	-10.5154
དོ་དམ་	-10.5154
ཁྲོ་བ	-10.5157
རང་རིགས་	-10.5157
བའི་ཕྱིར་རོ་	-10.5158
ཀྱིས་དེ་སྐད་ཅེས་	-10.5159
གོ་སྒྲིག་ཞུས་	-10.5161
བརྩོན་འགྲུས་བརྩམ	-10.5164
བསྟོད་པ་	-10.5166
བཀའ་ལན་སྩལ་	-10.5167
བཅིངས་	-10.5167
ཡོད་པར་བརྟེན	-10.5169
གཞུ	-10.5171
ཚོགས་བཅར་བ་རྣམས་	-10.5172
རྒྱུ་ཡིན་པ་བཅས	-10.5172
འོས་བསྡུ་ཆེན་མོ	-10.5172
▁སྦྱིན་པའི་	-10.5173
ལས་གཞན་	-10.5178
འཇིགས་སྣང་	-10.5179
ཐམས་ཅད་ནི་	-10.518
ནིའུ་ཡོག་	-10.5182
འདི་ག་	-10.5183
འཐུས་མི	-10.5183
རྗེས་འབྲང་པ་	-10.5184
སྟོང་ཉིད་	-10.5185
ངེད་	-10.5186
ཚོང་ཁང་	-10.5188
མ་འོངས་པའི་དུས་ན	-10.5189
པ་ཞེས་བྱའོ་་	-10.5189
སྐོར་གླེང་སློང་	-10.519
ངལ་སེལ་	-10.5198
གྲངས་ཚད་	-10.52
་ཡིན་ནོ་	-10.5201
ཐང་དང་	-10.5202
ཞུས་དང་ཞུ་མུས་	-10.5206
▁དེས་ནི་	-10.5209
སྤྱི་ཚོགས་ཞབས་ཞུ	-10.521
དེ་ལ་ནི་	-10.5211
དང་ལྡན་པ་ཡིན་	-10.5212
གདོང་ལེན་	-10.5213
པར་སྐྲུན་	-10.5214
ཉེ་འཁོར་	-10.5215
་ཉིད་	-10.5217
མངོན་སུམ་	-10.5218
ད་ཐེངས་	-10.5219
གསོལ་་	-10.5222
ནས་བཟུང་སྟེ་	-10.5222
བརྫུན་	-10.5223
དུས	-10.5224
དབང་བསྐུར་	-10.5225
རིང་དུ་	-10.5225
▁སྲིད་སྐྱོང་	-10.5226
དམ་ཚིག་	-10.5228
ཆུ་ཚོད	-10.5228
དེའི་འོག་ཏུ་	-10.523
ཨུ་རུ་སུ་	-10.523
རང་བཞིན་ནི་	-10.5233
ལ་མཁས་	-10.5237
ཞིང་དུ་	-10.5238
ཞུ་རྒྱུ	-10.5239
▁ནང་སྲིད་	-10.524
མི་ནུས་སོ་་	-10.524
ཐུན་མོང་ནས་	-10.5241
ཚོགས	-10.5242
མཐོ་སློབ་ཁང་གི་	-10.5243
ཤིས་	-10.5244
ཡིན་ནའང་འདྲ	-10.5246
དྲི་ཟ་	-10.5246
རིའི་རྒྱལ་པོ་	-10.5249
མི་སྐྱེ་	-10.5249
་བོ་	-10.5251
རྗེས་སུ་ཡི་རང་	-10.5252
་ཇི་ལྟར་	-10.5252
བྱེད	-10.5253
རྣམ་པར་རིག་པ	-10.5254
ེར་	-10.5255
ལ་དགའ་བ་	-10.5259
འགྲན་སྡུར་	-10.5263
ཚངས་པ་མཚུངས་	-10.5265
བོད་ཡིག་ཚན་པའི་	-10.5267
ར་མི་བྱེད་དོ་་	-10.5267
དར་འཕེལ་	-10.5267
ཁག་གཅིག་གི་	-10.527
བཞུགས་ཁྲིར་	-10.5271
ངག་གི་ལས་	-10.5272
རང་བཞིན་ལྡན་པའི་	-10.5272
དེ་ཐོས་ནས་	-10.5282
ཞེས་ཟེར་	-10.5284
དགོས་པ་དེ་	-10.5285
མདོར་བསྡུས་	-10.5287
་རྟག་ཏུ་	-10.5288
ཁྱིམ་གྱི་	-10.5291
ཐེངས་གཉིས་པ་	-10.5291
མེད་སྟབས་	-10.5292
ན་སེམས་ཅན་	-10.5294
ལོ་གཉིས་	-10.5296
ཨ་རི་དང་	-10.53
ཞིང་རྣམས་	-10.5301
འདོད་ན་	-10.5303
འི་ཚོགས་	-10.5303
ཨུ་	-10.5304
ཐུབ་པ་བྱུང་	-10.5305
་བའི་	-10.5306
▁གསར་འགོད་པ	-10.5306
དུས་ནས་དུས་སུ་	-10.5307
▁སྔ་མོ་	-10.5309
བདུན་ཅུ་	-10.531
བྱས་ནས	-10.5311
▁སྔགས་	-10.5314
དབུས་འོས་བསྡུ	-10.5315
ཐོག་རྒྱབ་སྐྱོར་	-10.5315
ཤིང་་	-10.5325
ལོར་	-10.5325
འི་ཆོས་རྣམས་	-10.5329
མཐོང་གི་འདུག	-10.5329
ས་ན་	-10.5332
བཙན་བྱོལ་བ་ཆགས་	-10.5334
ཧེ་	-10.5334
ངེས་པར་འབྱུང་བ	-10.5336
ལས་དོན་ཚན་པའི་	-10.5336
ཞབས་འདེགས་སྒྲུབ་	-10.5337
དེ་ཙམ་དུ་	-10.5338
དབང་ཆ་	-10.5341
མི་གནས་	-10.5343
ཡུལ་གྲུ་	-10.5345
ལས་ཁུངས	-10.5345
སྟོན་ཅིང་	-10.5347
ཕ་མ་གཉིས་ཀྱིས་	-10.5347
▁རབ་འབྱོར་འདི་ལ་	-10.5348
་ཊི་	-10.5349
ས་ཉོན་མོངས་པ	-10.5349
ལ་དྭགས་སུ་	-10.5349
ཅེས་བཀའ་སློབ་སྩལ	-10.535
སློབ་གྲྭ་དང་	-10.5351
ལྟུང་བ་	-10.5352
སློབ་ཕྲུག་གི་	-10.5356
ནི་གང་	-10.5358
ཙམ་ལས་	-10.5362
ར་མི་བྱེད་	-10.5363
རྫུ་འཕྲུལ་གྱིས་	-10.5363
འོ་ན་	-10.5363
▁དེར་བརྟེན་ང་ཚོ་	-10.5365
འོག་གི་	-10.537
ལས་གཞིའི་	-10.5372
བདུན་ཕྲག་	-10.5374
འདུ་བ	-10.5376
སྲུང་སྐྱོབ་ཆེད་	-10.5377
ལྷན་ཚོགས་སྐབས་	-10.5377
ཕོ་བྲང་འཁོར་	-10.5379
ན་གནས་པའི་	-10.5379
འབད་བརྩོན་བྱེད་	-10.538
གནང་དང་གནང་བཞིན་	-10.538
འདི་ཧ་ཅང་	-10.5381
་བྱམས་པ་	-10.5381
ཟེར་རྒྱུ་	-10.5382
ཕྱོགས་བཅུ་	-10.5382
▁དོན་དམ་པར་ན་	-10.5383
ལུས་མེར་བསྲེགས་	-10.5383
ཐུག་འཕྲད་	-10.5385
གསུང་པ་	-10.5386
གྱིས་སྨྲས་པ་	-10.5388
བསྟུན	-10.5388
ལ་འཚམས་འདྲི་	-10.5393
ཐལ་མོ་སྦྱར་ནས་	-10.5394
སྟངས་འཛིན་	-10.5395
འགྲེམས་	-10.5396
ཇི་བྱུང་	-10.54
བསམ་བློ་བཏང་ནས་	-10.5404
འི་སྦྱིན་པ་	-10.5405
འདུགདེ་བཞིན་	-10.5407
ཧུར་ཐག་	-10.5407
འགྱེད་	-10.5408
ངལ་རྩོལ་	-10.541
ས་གནས་བོད་མི་	-10.5412
འདི་སྐད་	-10.5413
ཤེས་པ་ཡང་དག་པར་འ	-10.5415
བཀྲེས་	-10.5417
མཉེས་པར་མ་བྱས་ལ་	-10.5417
འཆི་ཀར་	-10.5418
ལུས་ཀྱིས་	-10.542
སློབ་ཕྲུག་རྣམས་ལ	-10.542
ཉོན་མོངས་པ་མེད་པ	-10.5421
གཞོན་སྐྱེས་ཚོར་	-10.5421
གཙུག་རྒྱན་	-10.5423
ུའུ་	-10.5424
བདེན་པ་དང་	-10.5424
ཉོ	-10.5424
མི་ཆོག	-10.5425
ངོས་འཛིན་གནང་	-10.5426
ཀྱི་ཆེད་དུ་	-10.5434
་ལུ	-10.5434
རབ་ཏུ་བྱུང་ངོ་་་	-10.5441
སུམ་ཅུ་རྩ་གསུམ་	-10.5442
ཕེ	-10.5442
ཏུ་ལུང་བསྟན་ཏོ་	-10.5446
བྱིན་ནས་	-10.545
རྣམ་པར་དག་པས་	-10.5452
མདོ	-10.5454
ཆུ་མཛོད་	-10.5454
གནས་ཤིང་	-10.5454
འཇ	-10.5456
ཟློས་གར་	-10.5456
ལས་དོན་སྤེལ་	-10.5457
མཐའ་གསལ་ཐབས་	-10.5457
འི་ལམ་	-10.5458
མ་བྱུང་བ་	-10.5458
སེར་སྐྱ་མང་ཚོགས་	-10.5458
▁བསམ་གཏན་	-10.5459
འཚེ་མེད་ཞི་བ་	-10.5459
སྤོས་ཀྱི་	-10.5463
ཡོད་པ་ལྟར	-10.5463
དགག་	-10.5464
ཚོགས་ཆེན་ཐོག་	-10.5467
ལྷའི་བུ་མོ་	-10.547
ཆོས་ཀྱི་རྒྱལ་པོ	-10.5475
རྒྱུའི་ཐོབ་ཐང་	-10.5476
རྒྱ་མཚོ་ཆེན་པོ	-10.5478
དེར་ཡང་	-10.5479
▁བོད་དང་	-10.5479
མཁན་རིན་པོ་ཆེ་	-10.5483
མཆོག་དགུང་གྲངས་	-10.5483
ན་རེ་	-10.5483
ལས་ཀ་བྱེད་	-10.5484
ལྷ་མ་ཡིན་གྱི་	-10.5487
དག་གོ་་	-10.5488
སྔགས་ཀྱི་	-10.5489
ཕན་ཚུན་དབར་	-10.549
བཙུན་མོ	-10.549
སེམས་ཅན་དམྱལ་བར་	-10.549
བཙོན་ཁང་ནང་	-10.5491
དུས་ཀྱི་	-10.5492
འོངས་ཏེ་	-10.5495
ཕྱི་དྲོ་ཆུ་ཚོད་	-10.5496
བུམ་པ་	-10.5499
འདས་པ་དང་་	-10.5502
དམའ་	-10.5503
དགོངས་པ་རྫོགས་	-10.5504
འགྲོགས་	-10.5505
▁ཨ་	-10.5505
ངས	-10.5505
▁ཁྱེད་ཚོས་	-10.5506
▁ཕྱོགས་གཅིག་ནས་	-10.5507
དགེ་འདུན་གྱིས་	-10.5507
སྐྱེད་པ་	-10.5511
གྲོལ་བ་	-10.5511
སྤྱི་སྒེར་	-10.5513
བཅར་འདྲི་	-10.5516
སྤྱི་མོས་	-10.5517
ཀྱི་ངོ་བོ་ཉིད་	-10.5517
གཏད་	-10.5524
ཀྱང་མི་	-10.5525
བ་དེ་ནི་	-10.5525
གནས་པས་	-10.5525
ཀྱེ་མ་	-10.5526
སྡེ་སྣོད་གསུམ་	-10.5526
ཞབས་ལ་མགོ་བོས་	-10.5527
རྗེས་འབྲང་	-10.5531
ཕྲད་	-10.5532
འབོད་སྐུལ་གནང་	-10.5536
དེ་ལ་བརྟེན་ནས་	-10.5538
ལས་བྱེད་དང་	-10.5538
རྐང་ལག་	-10.5539
དྲུང་ཆེའི་	-10.5545
དཔྱད་པ་	-10.5548
ཡི་གེ་དྲུག་པ	-10.5548
མགོ་བོས་ཕྱག་འཚལ་	-10.5551
གཟུགས་བཟང་ཞིང་	-10.5551
རིས་ཀྱི་ལྷའི་བུ་	-10.5554
ན་བཟའ་	-10.5556
སའི་ཁམས་	-10.5556
མི་མང་རྣམས་ལ་	-10.5557
བྱེད་ཐབས་	-10.5558
ལ་རྩིས་མེད་	-10.5561
མོན་གྷོ་	-10.5565
ཁམས་ཤེས་པ་	-10.5567
ཤེས་ཡོན་ཐོག་	-10.557
སྒྲ་དང་་དྲི་དང་	-10.5575
བསྐྱེད་དེ་	-10.5575
བཞིས་	-10.5577
བརྗེ་ལེན་	-10.5577
་ཡེ་ཤེས་	-10.5581
རྫིང་	-10.5581
གཅིག་གི་སྟོབས་	-10.5581
དང་བླངས་	-10.5583
ཆེན་པོ་མཆོག་ནས་	-10.5587
འདུད་	-10.5587
སྐོར་སྤྲོ་འཆམ་པ་	-10.5588
▁བྱང་ཆུབ་ཀྱི་	-10.559
མཉན་དུ་ཡོད་པ་ན་	-10.559
ཉེས་པར་སྤྱོད་པ	-10.5591
ཆོས་རྒྱལ་ཁྲི་	-10.5591
ཚུལ་ཁྲིམས་དང་་	-10.5595
ར་མ་	-10.5599
སེམས་ཅན་དག་	-10.5599
རྣམས་ལས་	-10.5602
འདི་ཉིད་དུ་	-10.5602
བསྟི་གནས་ཁང་དུ་	-10.5603
ཐུགས་རྗེ་ཆེན་པོ	-10.5603
རྙིང་པ་	-10.5604
མཐོང་ངམ་	-10.5605
དམིགས་བསལ་གྱིས་	-10.5616
སེར་པོ་	-10.5617
ལག་མཐིལ་	-10.5618
སྤྱི་དང་ལྷག་པར་	-10.5619
དགོན་པའི་ནང་	-10.5621
བྲལ་བ་	-10.5625
སློབ་སྟོན་པ་	-10.5626
ལག་ན་	-10.5627
ཚོགས་ཆེན་གྱི་	-10.5627
ནེ་རུ་	-10.5629
ལ་སྤྱོད་པ་ནི་	-10.5629
སློབ་མའི་	-10.5629
དབུལ་པོ་	-10.563
མཐོང་ལགས་སོ་་	-10.5631
བྷུ	-10.5633
་དང་་ཡང་དག་པར་	-10.5637
དཔག་ཏུ་མེད་པ	-10.5638
གང་ནས་	-10.5639
ཡོངས་སུ་དག་པ	-10.5641
རྣམས་ཀྱིས་ནི་	-10.5643
ཟེར་བ་དང་	-10.5647
སུན་	-10.5649
ཀུན་ཏུ་རྒྱས་པ་	-10.5656
དང་རྒྱལ་སྤྱིའི་	-10.5656
མཛད་འཆར་	-10.5657
འདེམས་	-10.5658
ར་རྟེན་གཞི་བྱས་	-10.566
པྲ	-10.5662
མིན་་	-10.5662
▁བདག་ཉིད་	-10.5663
བྱ་རྒྱུ་དེ་	-10.5665
དང་་སྐྱེ་བ་	-10.5667
གི་དངོས་པོ	-10.5669
ཚུལ་དང་	-10.5669
དོ་བདག་	-10.567
དུ་མའི་	-10.5671
རིག་འཛིན་	-10.5671
མྱ་ངན་མེད་	-10.5671
མང་པོ་དག་	-10.5672
བཟང་བ་	-10.5673
ཐེ་ཝན་ནང་	-10.5674
བེད་སྤྱོད་གཏོང་	-10.5675
དབྱར་	-10.5682
བདག་ཅག་ནི་	-10.5686
དབང་བསྒྱུར་	-10.5688
བཞིན་པ་དེ་དག་	-10.5689
ང་རང་ཚོ་	-10.5692
འགན་དབང་	-10.5693
པང་ནས་སྐྱེས་	-10.5694
གཟུང་བ	-10.5697
ུད་	-10.5697
ཞོར་	-10.57
བྱས་པ་དེ་	-10.57
སྟོབས་ཀྱི་	-10.57
སྒྲ་སྐད་	-10.5702
ཡོངས་སུ་བསྐོར་	-10.5703
ནས་མཆེད་པའི་	-10.5704
བཀའ་སློབ་ཕེབས་	-10.5707
སོ་སོའི་ནང་	-10.5707
བའི་སྐབས་	-10.5708
ནི་གང་ཡིན་	-10.5708
ཕོག་པ་	-10.5709
རིག་སྔགས་	-10.5711
རླུང་གི་	-10.5711
སྐྱོང་མཆོག་དང་	-10.5711
ཆབ་སྲིད་ཚོགས་པ	-10.5713
ཁྱེད་ལ་	-10.5714
མང་པོ་ཡོད	-10.572
ནས་ཕྱི་ལོ་	-10.572
སྐུ་ཚབ་རྣམ་པ	-10.5723
ལྗགས་	-10.5725
རྒྱུའི་ཉེན་ཁ་	-10.5725
དབར་གྱི་	-10.5727
བཅོལ་	-10.5728
བདག་གི་ལུས་	-10.573
ཝི	-10.5731
ཕུལ	-10.5731
ཀཐོག་དགེ་རྩེ་	-10.5731
དགེ་སློང་རྣམས་	-10.5733
ལ་གནས་ཏེ་	-10.5734
བསྒྱུར་བཅོས་	-10.5734
དམ་པ་དེ་ཉིད་ཀྱི་	-10.5735
དབྱིབས་	-10.5735
འཐེན་	-10.5736
▁ཟབ་སྦྱོང་	-10.5736
དོ་ཞེས་	-10.5737
པ་ཡིན་ནའང་	-10.5737
གི་གོ་སྒྲིག་འོག་	-10.5738
སྣེ་	-10.5739
བར་གྱི་བསྐལ་པ་	-10.5739
གསོལ་ཚིགས་	-10.5741
སྡོང་པོ་	-10.5747
གཡོག་འཁོར་	-10.5748
མ་མཆིས་པའི་	-10.5751
རང་གི་མཚན་ཉིད་	-10.5754
བྱེད་སྒོར་	-10.5754
རྒྱལ་ཁབ་ཁག་གི་	-10.5755
གླེང་སློང་གནང་	-10.5756
▁རྒྱལ་བའི་	-10.5756
ཚང་མས་མཁྱེན་གསལ་	-10.5759
ཞུ་དགོས	-10.5763
རྒྱ་གར་དབུས་སའི་	-10.5764
པ་མ་གཏོགས་	-10.5764
མྱངས་	-10.5765
བོད་མི་རྣམས་ཀྱི་	-10.5768
▁ཆེས་མཐོའི་	-10.5774
བཀུར་	-10.5776
དམན་པ་	-10.5779
གཏིང་	-10.578
སྟོང་གི་	-10.578
བོད་ཕྲུག་	-10.5781
▁འཛིན་སྐྱོང་	-10.5782
གོ་སྐབས་འདྲ་མཉམ་	-10.5782
མི་ལོ་ཧྲིལ་པོ་	-10.5783
▁རིམ་བཞིན་	-10.5784
གཉིད་	-10.5784
པ་འདི་	-10.5787
ཡོད་པའི་ནང་ནས་	-10.5788
འོ་མ་	-10.5788
ལྷར་བཅས་	-10.5789
ཅེས་བྱ་བ	-10.5791
ཡུལ་གྲུ་ཁག་ཏུ་	-10.5792
དུས་དྲན་ཐེངས་	-10.5792
ཝན་	-10.5794
བཞག་པའི་	-10.5799
▁འཛམ་གླིང་ནང་	-10.58
འོས་འདེམས་བྱས་པ	-10.5805
འཚེ་མེད་ཞི་བ་དང་	-10.5806
ཁག་ནས་	-10.5808
བཞིན་པ་ལྟར	-10.5816
བཏུལ་	-10.5816
བྱེ	-10.5816
སྒྲོག་	-10.5819
སྐྱེད་སྲིང་	-10.5821
ར་མི་འགྱུར་ཏེ་	-10.5821
དྲང་	-10.5824
ཁག་པོ་	-10.5824
ཆེད་འབད་བརྩོན་	-10.583
དོགས་	-10.583
དབུ་བརྙེས་ནས་ལོ་	-10.583
བཙན་བྱོལ་བའི་	-10.5832
རྒྱ་ནག་ཏུ་	-10.5833
▁དེ་དག་ཐམས་ཅད་	-10.5837
ཁྲི་ཉིས་སྟོང་	-10.5838
ཡུན་	-10.5845
འདོང་	-10.5847
སློབ་འཁྲིད་	-10.5849
ཆོས་བརྒྱུད་ཁག་	-10.585
ཨོ་སི་ཀྲོ་ལི་ཡ	-10.585
འི་དབྱིངས་སུ་	-10.5851
འགྱུར་བ་གཏོང་	-10.5851
འདོར་	-10.5856
མཆོག་འདི་	-10.5858
རིམ་པའི་	-10.5861
ན་དེ་	-10.5863
ནས་ལོ་ངོ་བའི་	-10.5867
ས་ཁུལ་དུ་	-10.5868
རྒྱུའི་ཐད་	-10.587
ཚགས་ཚུད་པོ་	-10.5871
རང་དབང་གི་	-10.5872
▁དེ་ཡང་ཐོག་མར་	-10.5874
བཙན་བྱོལ་བ་རྣམས་	-10.5874
བཀའ་དྲིན་ཆེན་པོ་	-10.5876
མགྲོན་ཁང་	-10.588
ཕྱོགས་བསྐྱོད་	-10.5884
སྦྱིན་པ་དང་་	-10.5885
མཛད་་	-10.5887
་ཡིས་་	-10.5887
མེད་མཁན་	-10.5888
བགྱི་	-10.5891
མཉེས་པར་བགྱིས་ཏེ	-10.5893
ཁོ་བོའི་	-10.5893
བཀྲུས་	-10.5893
▁དེ་དང་ཆབས་ཅིག་	-10.5894
དཔལ་ན་ལེན	-10.5896
སྒྲ	-10.5896
གྱིས	-10.5898
རྒྱ་གར་བྱང་ཤར་	-10.5899
མགྲོན་འབོད་ལྟར་	-10.5901
ཉམས་བཞེས་	-10.5902
འགྱུར་ཏེ་་	-10.5902
པེ་ཅིང་དུ་	-10.5903
▁ས་གནས་འགོ་འཛིན་	-10.5903
རབ་ཏུ་ཕྱུང་སྟེ་	-10.5905
ཡིན་པར་ངོས་འཛིན་	-10.5909
མཛད་སྒོ་གྲོལ	-10.591
བཅས་ཀྱི་ཐོག་	-10.5912
ཧྲ	-10.5914
གཏོང་བཞིན་ཡོད	-10.5914
བསྡུར་	-10.5915
བསྒྲིགས་	-10.5916
འཁྲབ་	-10.5918
སྤོ	-10.5918
མགུལ་	-10.5918
ཚེའི་ཚད་	-10.5918
གསུང་གི་ཡོད	-10.5918
ཁྱིམ་བདག་གཞན་ཡང་	-10.592
བརྩམས་པ་	-10.5922
ྲུང་གི་བསྟན་པ་ལ་	-10.5923
ལོ་རྒྱུས་དང་	-10.5928
ཉིན་རེའི་	-10.5928
▁ཁོང་ཚོས་	-10.593
ཁོ	-10.5931
ཐོབ་ཐང་དང་	-10.5932
བར་དུ་ཡང་	-10.5934
ཁྲིམས་འགལ་	-10.5935
བཅུའི་སྟོབས་	-10.5937
གནོད་པ་དང་ལྡན་	-10.5937
གཏོང་གི་ཡོད	-10.5939
སྐུ་ཚེའི་	-10.594
ུ	-10.5941
▁དེ་རིང་གི་	-10.5946
དཔལ་ཞེས་བྱ་བ	-10.5947
པའི་ཚིག་	-10.5947
འདོད་པའི་ཡོན་ཏན་	-10.5948
གཟུང་བའམ་	-10.5949
ཕྱིན་པའི་	-10.5952
དབུ་ཁྲིད་པའི་	-10.5953
དང་་ནམ་མཁའ་ལྡིང་	-10.5955
བསྒྲུབས་པ་	-10.5957
▁སྦྱིན་པ་	-10.5962
མི་ཚེའི་ནང་	-10.5962
ཆེད་ཕེབས་གནང་ཡོད	-10.5966
སྔོན་འགོག་གི་	-10.5969
གྲོས་ཚོགས་ནས་	-10.597
ཚད་མའི་གཞུང་	-10.5971
ཆོས་འཕེལ་	-10.5975
བརྡ	-10.5975
འཇོག་ཁང་དུ་	-10.5976
ཡིག་ཐོག་	-10.5977
དགོན་པ་དང་	-10.5977
▁དེ་བཞིན་རྒྱ་གར་	-10.5981
ྡ	-10.5981
ངོ་བོར་	-10.5983
བསགས་པའི་	-10.5984
ར་བ་	-10.5984
སྲིད	-10.5987
བསྐལ་བརྒྱར་བརྟན་	-10.599
མཐོ་རིས་	-10.5991
དགའ་བར་བྱེད་	-10.5994
འཕེལ་རྒྱས་	-10.5996
དྷ	-10.5997
ཕྱེ་མ་	-10.5997
སླེབས་ནས་	-10.5999
བསྒྱུར་བ་	-10.6004
ཡང་དག་པའི་ལྟ་བ་	-10.6007
མཆོག་བཅས་	-10.6008
དམ་ཆོས་	-10.6008
བཙ	-10.6009
གནང་བ་ལྟར་	-10.601
ལེགས་བཅོས་	-10.6012
བསམ་བློར་	-10.6012
བུར་	-10.6013
སྐར་དུས་ཆེན་	-10.6015
སྲིད་སྐྱོང་དང་	-10.6016
འགྲོ་བ	-10.6018
▁སྐད་ཡིག་སོགས་	-10.6019
བོད་གངས་ཅན་	-10.602
བདག་དང་	-10.602
བྱེད་པས་	-10.602
སྤེལ་བཞིན་ཡོད	-10.6021
་གཏན་མི་དམིགས་	-10.6023
▁འདི་སྐད་	-10.6028
ཞི་བ	-10.603
ལྷན་དུ་	-10.603
སྤྱི་ཚོགས་ལ་	-10.603
ནས་བོད་ཀྱི་	-10.6031
ཞིག་ཡིན་སྟབས	-10.6032
ལྟ་ཞིང་	-10.6036
ཡིན་པའི་ངོས་ནས་	-10.6038
བོད་ཀྱི་བདེན་	-10.6044
ཅོ	-10.6044
ཤིག་ཆགས་ཡོད	-10.6044
མ་ཡིན་པས་	-10.6045
འདི་འདྲའི་	-10.6046
རྐྱང་	-10.6047
▁རྣམ་པར་	-10.6048
ཤར་ཕྱོགས་	-10.6055
ཀུན་ཤེས་སོ་ཞེས་	-10.6057
▁ཕྱོགས་གཞན་ཞིག་	-10.6057
རྐྱང་རྐྱང་	-10.6057
མངོན་སུམ་དུ་བྱ་བ	-10.6057
ངག་དབང་ཐོགས་མེད་	-10.6057
ཤིན་ཏུ་མཉམ་པ་དང་	-10.6058
དཔྱོད་	-10.606
དྲན་གསོ་	-10.6063
འཇིགས་ཤིང་སྐྲག་	-10.6066
བརྒྱབ་པ་	-10.6067
ཉུང་ཉུང་	-10.6069
རིག་པ་ཐོབ་པ་	-10.6069
བར་དུ་སྔ་མ་བཞིན་	-10.6069
སྦིར་	-10.607
་མཆོག་གི་	-10.6071
ཁྱེར་ཏེ་	-10.6071
ཟེར་བ་ཞིག་	-10.6071
▁སེམས་ཅན་གང་དག་	-10.6073
ལ་ལྟོས་	-10.608
རྣམ་གྲངས་དེས་ན་	-10.6081
དང་་རྣམ་པར་	-10.6084
བྱས་པ་བརྒྱུད་	-10.6084
ལ་ཕྱག་འཚལ་	-10.6088
་དང་་གསལ་བ་དང་་	-10.609
སྦེང་ལོར་	-10.6093
བོད་རང་སྐྱོང་	-10.6094
ཅི་ཡོད་	-10.6094
ལ་རབ་ཏུ་	-10.6095
འགན་བཞེས་	-10.6096
པའི་གནས་ཚུལ་	-10.6099
འཕོ་བ་	-10.61
མཐུན་འགྱུར་རོགས་	-10.6102
གནང་བ་ལྟར	-10.6106
ཡལ་	-10.6106
ཁྲིམས་རྩོད་པ་	-10.6108
ལམ་སྟོན་དང་	-10.6109
▁དེང་དུས་	-10.611
དགའ་མོས་	-10.6112
ཐི	-10.6113
ཚོགས་པ	-10.612
པ་ནས་བཟུང་	-10.6121
སྟེང་གི་	-10.6121
ལྷག་ཙམ་	-10.6121
བྲམ་ཟེ	-10.6123
རྣམས་ཡོངས་སུ་	-10.6123
ཉིན་ལྟར་	-10.6125
དེ་དང་དེ་དག་	-10.6125
སྒོའི་	-10.6126
རྩོམ་པ་པོ་	-10.6128
▁སློབ་དཔོན་	-10.6128
▁ཁྱེའུ་	-10.613
དང་བཅས་པ་དང་་	-10.6131
ཤིག་རེད	-10.6131
འབུལ་བཞེས་མཛད་	-10.6132
ནང་འཁོད་དོན	-10.6133
ཤ་ཟ་	-10.6135
འི་མིང་	-10.6135
ཀོང་	-10.6135
མ་བ	-10.6135
གནས་སོ་	-10.6135
ཕྱི་ལོ་ནས་བཟུང་	-10.6135
ཨ་རིའི་ནང་	-10.6136
པད་	-10.6136
ལ་བརྩི་མེད་	-10.6137
འཆི་བའི་	-10.6138
གོང་མའི་	-10.6138
བརྗོད་ཀྱི་འདུག	-10.6139
བདེན་དོན་	-10.614
མཐའ་མའི་	-10.6142
ཟིང་	-10.6142
མཐོང་བ་དང་་	-10.6144
▁ལྷའི་དབང་པོ་	-10.6146
བ་སྟེ་	-10.6149
ཁྲིམས་སྒྲིག་	-10.6149
ར་འགྱུར་བའི་	-10.6153
ར་མི་འགྱུར་	-10.6154
འདུ་ཤེས་དང་་	-10.6154
བརྡ་ལན་	-10.6159
བྱ་དགའ་	-10.6159
འཚམས་འདྲི་ཞུས་	-10.6164
མཁས་དབང་དང་	-10.6167
སྡེ	-10.6168
གཏོར་བཤིག་བཏང་	-10.6168
བཅུག་ནས་	-10.6168
▁དེ་མཚུངས་	-10.6169
▁ཕྱོགས་གཅིག་ཏུ་	-10.617
སྙེད་	-10.617
བཙོ	-10.6171
བརྙན་ཐུང་	-10.6175
ལ་བཀོད་དོ་་	-10.6177
བྱེད་བབ་	-10.6178
འགྱོད་པ་	-10.6179
གཡོ་བ་	-10.618
འདི་ལྟ་སྟེ་དཔེར་	-10.6184
མཉམ་རུབ་	-10.6187
བྱུག་པ་	-10.6188
མིན་ལ་མ་ལྟོས་པར་	-10.6192
གོད་ཆག་	-10.6193
ཤེས་རིག་བ	-10.6195
▁དེའི་ནང་	-10.6195
ཚེ་རིང་མཆོག་	-10.62
ཐར་པ་	-10.6201
བོད་ལུགས་	-10.621
བརྟན་པའི་	-10.621
འདྲ་་	-10.6211
རང་དབང་ཅན་གྱི་	-10.6212
གཞན་དག་ལ་ཡང་	-10.6213
ཡུ་རོབ་སྤྱི་	-10.6214
གཟིགས་པ་	-10.6215
གཞན་ཕན་	-10.6215
ཀྱི་མེད	-10.6217
ནས་ལོ་ངོ་	-10.6218
ལེན	-10.622
སྐོར་གོ་རྟོགས་	-10.622
▁གནོད་སྦྱིན་	-10.6221
ལན་གསུམ་	-10.6222
སེམས་ཅན་འདི་དག་	-10.6223
སྒོའོ་་	-10.6223
ཐབས་མཉམ་པ་བརྙེས་	-10.6223
མཁའ་ལམ་བརྒྱུད་	-10.6223
ཐག་རིང་པོ་ཞིག་	-10.6224
ནམས་ཀྱང་	-10.6224
སྟེ་བཞི་གང་ཞེ་ན་	-10.6224
ལོགས་	-10.6224
ཐག་རིང་	-10.6226
སྣང་གསལ་ཞལ་ཕྱེ་	-10.6227
ཀྱི་ལས་རིམ་	-10.6227
རྒྱང་	-10.6228
གྲུབ་པ་	-10.6228
ཟབ་ཅིང་	-10.6229
ཆོས་རྣམས་ཐམས་ཅད་	-10.6229
ཁྱིམ་ནས་ཁྱིམ་	-10.623
ཐུབ་རྒྱུའི་	-10.623
སྣུམ་འཁོར་	-10.6231
དང་སྟབས་བསྟུན་	-10.6232
ཁྱིམ་ཐབ་	-10.6232
སྦྱར་ཏེ་	-10.6234
འི་བར་ལ་	-10.6235
དྲ་ཚིགས་	-10.6235
བཙུན་	-10.6237
བཀའ་སློབ་སྩལ་ཡོད	-10.6239
དཔར་	-10.6239
ཀྱིས་གསུངས་པ་ལ་	-10.6241
ན་དུ་	-10.6242
མ་བྱས་པར་	-10.6243
ན་གནས་པ་	-10.6244
མི་མང་པོ་ཞིག་	-10.6247
གོ་ལའི་	-10.6248
ཧུར་བརྩོན་	-10.6248
ལྡན་ཞིང་	-10.6249
རྣམས་ཀྱི་དོན་	-10.625
▁ཤེས་རིག་	-10.6252
གཏོར་བཤིག་	-10.6253
དང་ལྡན་པ	-10.6253
སེམས་ཀྱང་	-10.6258
དུ་སྦྱར་ཏེ་དེ་	-10.6259
▁དེ་ཡང་ཕྱི་ལོ་	-10.6262
གྲོས་ཆོད་བཞག་	-10.6263
ཅུ	-10.6268
མཐོང་བའི་	-10.6269
་བསམ་པའི་	-10.6275
འདི་འདྲ་ཞིག་	-10.6276
ྐྱེ་དགུའི་ཚེ་ལོ་	-10.6276
ས་གནས་གང་དུ་	-10.6277
རྒྱལ་ཁ	-10.6282
མི་ནུས་་	-10.6284
འཐུས་མི་རྣམ་པས་	-10.6285
ལོ་གཅིག་	-10.6286
གཏོང་རྒྱུའི་	-10.6291
གནས་བབ་ཚད་ལྡན་	-10.6293
སྲིད་བྱུས་ཀྱི་	-10.6293
ཐུགས་སྨོན་	-10.6295
རྣམ་གྲོལ་	-10.6297
ཐེབས་རྩ	-10.6297
བཙན་འཛུལ་བྱས་	-10.6299
བཀའ་ཤག་སྐབས་	-10.6304
འཛམ་གླིང་ཡོངས་ལ་	-10.6306
གཏི་མུག་གི་	-10.6306
དོན་གྱི་	-10.6306
▁ཉོན་མོངས་	-10.6307
རྗེ་ཙོང་ཁ་པ་	-10.6307
པ་ཡིན་་	-10.6307
བཙན་འཛུལ་	-10.6308
ལ་དམིགས་ནས་	-10.6309
ཆོས་ལུགས་ཚང་མས་	-10.6312
▁ཚོགས་འདུ་	-10.6312
གྱུར་པ་དེའི་ཚེ་	-10.6313
ལྟར་མི་བལྟ་སྟེ་	-10.6318
ཕྱོགས་ཐད་	-10.6319
ར་བགྱིད་	-10.632
རིས་ཀྱི་ལྷ་རྣམས་	-10.6321
ལྷགས་་	-10.6323
ཅེས་བྱ་བ་དང་་	-10.6323
གནང་ཐུབ་	-10.6325
ཁྱད་ལས་	-10.6327
ཕྱག་དེབ་	-10.6328
སྙན་སེང་ཞུས་	-10.6328
ཨི་ཊ་ལིའི་	-10.6329
ཀྱེ་	-10.6329
འགོག་པ་ཤེས་པ་	-10.633
་མཆོག་ལ་	-10.6332
རྫོང་དཔོན་	-10.6334
ེའུ་	-10.6338
▁དཀའ་ངལ་	-10.6344
དཔལ་འབྱོར་དང་	-10.6347
ལོ་ངོ་བཅུ་ཕྲག་	-10.635
མ་མཐོང་	-10.635
ལྔ་སྟོང་	-10.635
དང་ལྷག་པར་	-10.635
ཆུ་ཚོད་ཙམ་ལ་	-10.6351
སོགས་ལ་བརྟེན་ནས་	-10.6351
བཙོན་འཇུག་བྱས་	-10.6351
འི་རྒྱལ་ཚབ་	-10.6354
རེད་དམ	-10.6354
▁དེའི་སྐབས་	-10.6355
དེང་སང་	-10.6355
ཚང་བར་	-10.6357
ལ་ཕན་	-10.6358
▁ཅེས་སོགས་	-10.636
ཐུགས་རྗེའི་	-10.6363
འི་ངོ་བོ་ཉིད་	-10.6365
སྤྱི་ཚོགས་ཁྲོད་	-10.6366
རྣམ་པ་གསུམ་	-10.6367
དག་པ་	-10.6367
རྩེད་	-10.6368
ཐེག་པ་ཆེན་པོ	-10.6371
ྟོང་ཉིད་ཀྱི་ལྟ་བ	-10.6371
▁མཛད་སྒོའི་ཐོག་	-10.6372
ཆར་པ་	-10.6373
གནང་བྱུང་	-10.6376
དེ་ནི་ཚུལ་ལ	-10.6377
རྒྱ་གར་ནས་	-10.6378
སྙམ་པའི་	-10.6383
བྱས་ཏེ་་	-10.6385
བསྟན་པ་འདི་	-10.6385
དགོན་སྡེ་གྲྭ་ཚང་	-10.6388
ཡོངས་ཀྱིས་	-10.639
▁ཆོས་ཀྱི་དབྱིངས་	-10.6391
▁དྲན་པ་	-10.6391
ཀྱི་གྲོང་ཁྱེར་	-10.6392
▁དེ་གཉིས་ཀྱིས་	-10.6392
བསྒྲུབ་པ་	-10.6392
པ་དང་འདི་བཞིའོ་	-10.6393
▁དུས་ཚོད་	-10.6393
མ་མཆིས་པ་དང་་	-10.6393
ཡོང་རྒྱུའི་	-10.6393
མི་དགེ་བ་	-10.6393
ཤེས་ཤིང་	-10.6394
འཁྲུག་རྩོད་	-10.6394
རེ་རེའི་	-10.6394
བདག་ཉིད་ཆེན་པོ་	-10.6395
▁དེ་ལས་བཞེངས་ནས་	-10.6395
གཙང་མ་བཟང་པོ་	-10.6396
ཡིན་གྱི་	-10.6396
རྩིས་མེད་	-10.6397
འགྲོ་བཞིན་པ་	-10.6397
བྱས་པར་བརྟེན་	-10.6397
བ་སྤུའི་ཁུང་བུ་	-10.6397
མེད་སྟབས	-10.64
མཁས་ཤིང་	-10.6403
འཐོབ་པ་	-10.6403
ལས་དོན་གནང་ཕྱོགས	-10.6403
བཤད	-10.6403
ཆེན་པོ་མཆོག་གིས	-10.6404
▁དེ་ནས་ཁྱེའུ་	-10.6405
བྱུང་བར་བརྟེན་	-10.6406
རྣམ་པ་མང་པོ་	-10.6406
གནས་ཚད་	-10.6407
མཛད་རིམ་	-10.6409
▁ཧི་མ་ཅལ་མངའ་སྡེ	-10.6409
གནས་སྟངས་འོག་	-10.641
དགའ་བས་	-10.6411
སྟོན་པས་	-10.6413
གཅིག་མཚུངས་རེད	-10.6414
ས་སོ་་	-10.6416
འཇགས་	-10.6418
བྱ་རྒྱུ་རེད	-10.6418
ཚང་འཛོམས་ཀྱིས་	-10.6418
ཕུལ་བའི་	-10.6419
གོ་ཆ་བགོས་	-10.642
ཅི་ནས་ཀྱང་	-10.642
གསར་འགྱུར་ཚན་པ	-10.6422
ཆོས་འཁོར་	-10.6423
ཀྱང་བརྩོན་པ་དང་	-10.6423
ལྷན་ཁང་ཁག་གི་	-10.6425
བསྡད་ཡོད	-10.6427
ཐུབ་པ་དེ་	-10.6427
▁དེ་ཡིས་	-10.6429
གྲངས་མེད་པ་	-10.6429
རིས་མེད་ཀྱི་	-10.6432
འཆི་བའི་དུས་	-10.6433
གཞས་སྣ་	-10.6436
ཐེངས་གཉིས་	-10.6437
ཕྱག་ལས་གནང་མཁན་	-10.6437
མྱ་ངན་ལས་འདས་	-10.6439
པོ་དང་་	-10.6441
སྨོན་འདུན་	-10.6442
དུད་འགྲོ་	-10.6444
འདི་ལྟ་བུ་ཞིག་	-10.6447
ཕྱག་དར་	-10.6449
བ་ལང་	-10.6451
གོམ་བགྲོད་	-10.6451
མ་ལགས་པ་	-10.6452
རྒྱལ་རབས་	-10.6458
ྷ་	-10.646
འབུལ་ལམ་ཞུས་	-10.646
ཕུན་སུམ་ཚོགས་	-10.6461
དེ་དག་ཏུ་	-10.6462
▁དབུས་	-10.6463
ཐུབ་ཀྱི་རེད	-10.6463
▁དེ་བས་ན་	-10.6464
རྒྱལ་གཅེས་	-10.6468
འགྱུར་ཏེ་	-10.647
མཉན་དུ་ཡོད་པ་ན་བ	-10.647
ཞིག་བྱུང་	-10.6474
བྲམ་ཟེའི་	-10.6475
གཞིས་ཆགས་དང་	-10.648
སངས་རྒྱས་ཐམས་ཅད་	-10.648
བདེ་སྐྱིད་གླིང་	-10.6481
མཚན་གནས་	-10.6483
མགོན་པོ་མཆོག་	-10.6487
དམིགས་ཡུལ་གཙོ་བོ	-10.6487
དང་་ཆོས་	-10.6489
བཅུད་	-10.6489
དང་ལེན་	-10.6492
བཏང་བ་རེད	-10.6493
རྣམ་པར་ཐར་པའི་	-10.6497
དབེན་པར་	-10.6499
ཡོང་བ་ཞུ	-10.6499
གྱུར	-10.65
གདགས་	-10.65
མཛད་དོ་་	-10.6504
ཚོགས་མི་རྣམས་	-10.6506
སྒྲུབ་པ་དང་འབད་པ	-10.6507
མཆོད་སྦྱིན་གྱི་	-10.6511
འད	-10.6512
གནས་ཚུལ་ཐོན་	-10.6517
བྱེད་དགོས་རྒྱུ་	-10.6518
ཤེལ་	-10.652
སོགས་སུ་	-10.6524
གཏོང་ཐབས་	-10.6526
ི་བ	-10.6527
་གང་ཞེ་ན་	-10.6528
སེམས་ཅན་རྣམས་ཀྱི	-10.6528
འཚོ་རྟེན་	-10.6529
སྒྲ་དབྱངས་	-10.6531
བཏོན་པའི་	-10.6533
བསྒོམ་པ་	-10.6535
ཕྱོགས་མཚུངས་	-10.6536
བྱེད་ཐུབ	-10.6536
ལུག	-10.6538
རྐྱེན་གྱིས་ཚོར་བ	-10.654
གསོ་བ་རིག་པ་	-10.6542
ལི	-10.6543
པ་ཉིད་ཀྱི་ཕྱིར་	-10.6545
གནས་ཡུལ་	-10.6549
ཤེས་པ་དང་་མཐོང་བ	-10.6549
ཁྱོན་བསྡོམས་	-10.655
ླ་སྤྲུལ་ཡང་སྲིད་	-10.655
སྟོན་པ་དང་་	-10.655
ཐེག་	-10.655
སྔོན་གྱི་གནས་	-10.655
རང་གི་ཐོག་ནས་	-10.6552
ཀའ་བློན་མཆོག་གིས	-10.6553
ས་གཞི་	-10.6554
སྙམ་པ་	-10.6556
དགུང་གྲངས་ཕེབས་	-10.6557
རྣམ་གཉིས	-10.6558
ཐུང་	-10.656
ལ་མོས་	-10.6561
པར་བྱ་བ་	-10.6562
ལས་སྐྱེས་པ་	-10.6562
སྨྲེ་སྔགས་འདོན་པ	-10.6562
ཉོན་མོངས་པ་རྣམས་	-10.6563
དེ་དེ་བཞིན་	-10.6564
ཚད་མཉམ་ཤར་གླིང་	-10.6565
རྐང་རྩེད་སྤོ་ལོ	-10.6565
སྐྱེ་བར་འགྱུར་	-10.6567
རོལ་མོ་	-10.6569
ནུས་པ་མཉམ་སྤུངས་	-10.657
ཆོད་སེམས་	-10.6571
▁ཀུན་རྫོབ་ཏུ་ན་	-10.6572
ལྷོད་	-10.6573
ཚོ་ལའང་	-10.6573
ཉེས་དམིགས་སུ་	-10.6574
བོད་མི་ཚོ	-10.6575
འཚམས་གཟིགས་སུ་	-10.6578
རྒྱུ་མཚན་དུ་བྱས་	-10.6578
རྣམ་གཞག་	-10.6578
བཀའ་དྲུང་ཡིག་ཚང་	-10.658
བཅས	-10.6584
འགོ་ཁྲིད་ཚོས་	-10.6584
▁ཆབ་སྲིད་	-10.6585
མཐའ་མར་	-10.6587
བགོ་འགྲེམས་	-10.6588
ཉེན་ཚབས་	-10.659
ལྷག་པ	-10.6591
དབུ་མ་	-10.6592
མཆིས་ཏེ་	-10.6595
བག་ཡོད་	-10.6596
རྗེས་སུ་འཐུན་པ	-10.6597
ཀྱི་རྐྱེན་པས་	-10.6598
བར་འགྱུར་ཏེ་	-10.6601
འཛིན་ཅིང་	-10.6601
དཔལ་ལྡན་བཀའ་ཤག་	-10.6602
རྩེད་མོ་	-10.6603
ཆོས་ཞུ་བ་	-10.6604
སྲིད་དོན་ཚོགས་མི	-10.6604
ནས་དར་བའི་	-10.6605
གསུང་འཕྲིན་ཞིག་	-10.6607
གདུགས་དང་་རྒྱ	-10.6608
ཚངས་པ་ཆེན་པོ་	-10.6609
འབྲས་བུ	-10.661
འོད་སྲུང་དང་	-10.661
དྲ་རྒྱ་བརྒྱུད་	-10.6611
འི་གཞུང་མང་གཉིས་	-10.6612
གོམ་པ་	-10.6613
རོལ་མོའི་སྒྲ་	-10.6615
སླེབས་པ་རེད	-10.6617
ས་སྐྱ	-10.6619
སི་ཊ	-10.662
སུ་གྱུར་པ་	-10.6622
སྟོབས་བཅུའི་	-10.6623
བྱུང་ཚེ་	-10.6624
བྱར་	-10.663
སུའང་	-10.6632
གི་ནང་	-10.6632
སྤུངས་	-10.6634
སྙན་པ་	-10.6634
བསྣམས་	-10.6635
མཇལ་འཕྲད་སྐབས་	-10.6636
་སྒྲིབ་པ་ཐམས་ཅད་	-10.6636
དོན་དམ་པ་	-10.6636
མཚམས་སུ་	-10.6637
སྦྱར་བ་	-10.664
་བཀའ་བརྒྱུད་ད	-10.6641
ཅེས་པའི་	-10.6644
▁སླར་ཡང་	-10.6646
བྱེད་རྒྱུར་	-10.6653
▁དགེ་རྒན་	-10.6654
འི་གོ་སྒྲིག་འོག་	-10.6654
སྨད་འཚོང་མ	-10.6656
སྤྱན་སྔར་	-10.6657
རུམ་	-10.6658
དབུ་འཛིན་	-10.6661
དེ་དག་ལ་ཡང་	-10.6662
དྲང་བདེན་དང་	-10.6662
སྒྲོམ་གཞི་	-10.6665
ལེབ་	-10.6668
སྟོབས་བཅུ་	-10.667
་འདུགདེར་བརྟེན་	-10.6674
སེར་སྐྱ་	-10.6675
ཨ་རིའི་བོད་དོན་	-10.6677
ན་པ་	-10.6677
རྒྱུ་སོགས་	-10.6679
འི་གྲོང་ཁྱེར་	-10.668
པས་ན་་	-10.668
ལེགས་པར་བརྒྱན་	-10.6681
གཏུགས་	-10.6681
ཡོད་པ་སོགས་	-10.6681
ལྟ་གྲུབ་མི་འདྲ་བ	-10.6682
རྒྱ་སྐད་	-10.6682
ྱང་ཆུབ་སེམས་དཔས་	-10.6682
སྲུང་བ་	-10.6685
ཁང་གི་ལས་བྱེད་	-10.6689
ལ་གདོང་ལེན་	-10.6689
▁ད་ནི་	-10.669
ཇེ་ཆེར་འགྲོ་	-10.6691
དང་མཚུངས་པ་	-10.6692
ཆགས་ནས་	-10.6693
སྤོབས་	-10.6693
▁གྲོང་ཁྱེར་	-10.6695
ཡོད་མ་ཡིན་་	-10.6695
ལ་སྤྱོད་པའི་	-10.6697
ཚོང་འབྲེལ་	-10.6702
་མོ་	-10.6703
འི་ཡང་སྲིད་	-10.6704
བྱང་ཆུབ་ལས་	-10.6705
ཚབས་ཆེན་	-10.6706
བསྟར་	-10.6708
ཐོབ་བོ་་	-10.6709
གིས་གསུང་དོན	-10.671
བྱས་དང་བྱེད་	-10.6713
མདུན་ན་འདོན་	-10.6714
ཀྱི་རེད	-10.6714
ཞུ་འདོད་བྱུང	-10.6716
འི་གཟུགས་	-10.672
ནི་སངས་རྒྱས་	-10.6722
དེ་ཉིད་ཀྱི་	-10.6723
བྷེ	-10.6724
ལྷ་དང་་ཀླུ་དང་་	-10.6727
ཨ་མ་	-10.6729
བསམ་མི་ཁྱབ་་	-10.673
བཞག་གོ་་	-10.6732
ལིན་	-10.6732
ས་མ་	-10.6732
ཆེན་པོ་ཡོད	-10.6739
ཐུགས་འགན་	-10.674
▁ཅེས་སོགས་གསུངས	-10.674
ལས་དོན་གང་ཅིར་	-10.6741
འཛིན་བྱེད་ཀྱི་བུ	-10.6741
ཆོས་མཉན་པའི་	-10.6741
རྣམས་ལ་ནི་	-10.6741
དང་་ཚངས་པ་དང་་འཇ	-10.6742
བཟོ	-10.6743
ལྷ་སའི་	-10.6743
བཞི་བཅུ་	-10.6744
མི་འགྲོ་	-10.6744
ནས་གསུང་པའི་	-10.6746
▁སེམས་ཅན་རྣམས་	-10.6746
ཟག་པ་མེད་པའི་	-10.6747
ྟ་	-10.6749
འདི་ཉིད་ལ་ས	-10.6749
ལག་ལེན་བསྟར་	-10.6749
ཞིག་ཡོད་པ་	-10.675
པར་བགྱིད་	-10.675
སེམས་ཁྲལ་	-10.6751
རིགས་ཀྱི་	-10.6753
བཞི་པོ་	-10.6753
བརྙས་	-10.6757
དང་བྲལ་བས་	-10.6758
ཡང་བརྗོད་དུ་	-10.6758
རིན་པོ་ཆེ	-10.6759
བརྩམ་	-10.676
སྩལ་བའི་	-10.676
ཀྱིས་དགོངས་པ་	-10.676
འགྲུལ་བཞུད་	-10.6761
མི་སྣང་	-10.6762
པར་མི་བྱའོ་་	-10.6764
རང་དབང་དང་	-10.6766
ལགས་ནས་	-10.6767
བསྟན་ལ་	-10.6769
གནང་རྒྱུ	-10.6769
སྲིན་པོ་	-10.677
བརྗོད་དུ་མེད་པ་	-10.6778
སུན་གཙེར་	-10.6778
བྱམས་པའི་	-10.6782
རངས་	-10.6783
རྒ་ཤི་	-10.6786
བདེན་པར་	-10.6788
འདོད་པའི་ཁམས་	-10.6788
སྒྲོལ་དཀར་	-10.6789
སྒྲ་ཡང་	-10.6791
▁ཟླ་བ་	-10.6791
ངོ་་	-10.6792
ཡང་མེད་དོ་་	-10.6794
སྲོལ་ཡོད	-10.6796
བརྗེད་	-10.6796
ས་ཡོངས་རྫོགས་	-10.6797
མཆོག་ཏུ་དགའ་བ་	-10.68
རབ་དང་རིམ་པ་	-10.68
གྱི་གནས་སྟངས་	-10.68
པ་ཞེས་བྱ་བའི་	-10.6801
ལས་བྱུང་	-10.6806
▁པ	-10.6806
སྤར་	-10.6807
▁དམ་པ་དེ་ཉིད་	-10.6809
▁འདི་ལོའི་	-10.6814
བསྐྱེད་མ་ཐག་ཏུ་	-10.6814
འཚེ་བ་མེད་པའི་	-10.6815
མཚུངས་མེད་	-10.6816
ཞབས་འབྲིང་	-10.6816
་ཟེར	-10.6818
ཕོ་	-10.6819
བདམས་ཐོན་བྱུང་བ	-10.6819
▁སེམས་ཅན་དེ་དག་	-10.6819
པར་འགྱུར་བའི་	-10.682
དབང་པོ་ཤེས་པ་	-10.682
་དང་་མཁས་པ་	-10.682
རྒྱལ་དར་	-10.6821
སེམས་ཁུར་	-10.6822
ཡོངས་སུ་གང་བ	-10.6822
་ལྟར་	-10.6824
མངགས་	-10.6827
སྣེ་ཁྲིད་	-10.6827
ལྷག་པའི་	-10.683
ཡོང་རྒྱུ་རེད	-10.6831
རུལ་	-10.6831
▁དེ་ནས་ཁྱིམ་བདག་	-10.6833
ལུང་རྟོགས་	-10.6834
ཐམས་ཅད་མཁྱེན་	-10.6838
ཤེས་རྟོགས་བྱུང་	-10.6839
ཐོས་ན་	-10.6839
བདག་གི་བུ་	-10.6839
དམར་ཤོག་	-10.684
བ་དེ་དག་	-10.684
མ་དང་་	-10.6847
ཕ་མས་	-10.6847
གི་ཡོད་པ་རེད	-10.6848
ཀྱིས་ཐོག་མར་	-10.6848
ཀྱི་སྐུ་ཚབ་	-10.685
ངས་ནི་	-10.685
▁མི་གང་	-10.6852
འབྲུ	-10.6853
མཐ	-10.6853
བཙུན་མ་	-10.6857
གཞིའི་	-10.6858
བགྲེས་ཡོལ་	-10.686
ར་སི་	-10.6863
ཐབས་སྡུག་	-10.6863
པ་ཙམ་མ་ཟད	-10.6865
ཁྱོན་ཡོངས་ལ་	-10.6865
བོད་ནང་ཕར་	-10.6868
ཟིན	-10.687
འོས་འདེམས་བྱུང་བ	-10.6871
ལ་གནོད་	-10.6871
བསམ་གཏན་དང་་	-10.6871
▁མངའ་སྡེའི་	-10.6872
འི་ཁམས་ཤེས་པ་	-10.6873
རབ་བྱུང་	-10.6874
ཟུང་དྲུང་	-10.6875
▁དེས་བསམས་པ་	-10.6875
ཆབ་སྲིད་ཐོག་ནས་	-10.6876
ཉེ་དུ་	-10.6876
དེའི་ཚེ་ན་	-10.6877
པར་མ་གྱུར་	-10.6884
གཞིར་བཞག་ཐོག་	-10.6884
འི་རང་སྐྱོང་ཡོང་	-10.6886
པར་བྱེད་ཅིང་་	-10.6886
འཁུར་	-10.6889
གསུང་རབ་	-10.689
བར་མི་འགྱུར་	-10.6891
བོད་མི་ཡོངས་ནས་	-10.6894
འདི་དག་ལ་	-10.6897
བདུན་པ་	-10.6898
་ཞེས་བྱ་བ་	-10.6898
འགྲོ་གི་རེད	-10.6899
ཅིའི་སླད་དུ་	-10.69
ཞུ་ཡི་ཡོད	-10.6902
སྦྲང་	-10.6904
ཀྱི་ཡན་ལག་བདུན་	-10.6906
རྒྱ་ནག་ནས་	-10.6907
ཏིང་འཛིན་འདི་	-10.6908
ཐོས་བསམ་	-10.6908
ལྷན་ཚོགས་ནས་	-10.691
▁རིན་པོ་ཆེའི་	-10.691
སྙིང་སྟོབས་དང་	-10.6912
བཤད་རྒྱུ་	-10.6913
ལས་རོགས་	-10.6913
ཡེ་ཤེས་མཐོང་བ་	-10.6916
ཟིལ་གྱིས་ནོན་	-10.6919
སེམས་དང་སྲོག་གི་	-10.6919
་གྲུབ་བཅུ་བདུན་	-10.692
ཚོགས་མགོན་དུ་	-10.692
དུས་གཞན་ཞིག་ན་	-10.692
ལོར་སྲུང་བརྩི་ཞུ	-10.692
བོད་རྒྱལ་ཁབ་ཆེན་	-10.6921
ཆེན་པོ་མཆོག་བོད་	-10.6923
སྤྱི་ཟུར་	-10.6924
▁ལྷན་ཁང་ཁག་གི་ད	-10.6925
ཡང་དང་ཡང་དུ་	-10.6926
ཕྱིར་མི་ལྡོག་པར་	-10.6927
གལ་ཆེན་པོ་ཞིག་	-10.6927
བྱམས་པའི་སེམས་	-10.6928
འི་མཆོད་རྟེན་	-10.693
དེར	-10.693
ཁེངས་	-10.6931
འཕྲོས་	-10.6933
མང་གཙོ་ཚོགས་པའི་	-10.6937
འདི་རྣམས་ཀྱིས་	-10.6939
ཐེངས་མང་	-10.6939
པའི་ཕྱིར་རོ་	-10.6942
▁བཀའ་ཤག་སྐབས་	-10.6944
ཐེངས་གཅིག་	-10.6945
སྤྱི་ནོར་ས་	-10.6947
ཐུན་མོང་མིན་པའི་	-10.6948
▁བཙན་བྱོལ་	-10.695
ལས་ཁུངས་ནང་	-10.6951
འདུས་བྱས་ཀྱི་	-10.6952
གཞུང་མང་གཉིས་	-10.6954
གསལ་འདོན་གནང་	-10.6954
ནས་བོད་	-10.6955
སྲུང་སྐྱོབ་བྱ་	-10.6955
པ་ཉིད་	-10.6957
ག་འདྲ་	-10.6958
དེ་ལྟ་བུ་ནི་	-10.6958
དང་བོད་མིའི་	-10.6961
གཏུམ་	-10.6962
བཀའ་དྲུང་	-10.6962
བྱེད་པ་ནི་	-10.6962
བྱང་ཆུབ་ཀྱང་	-10.6962
ཡོངས་སུ་གཟུང་བ་	-10.6962
མཐོ་ཤོས་	-10.6963
ཞིག་ཡིན་སྟབས་	-10.6965
ི་བྱེ་མ་སྙེད་	-10.6968
བལྟ་ན་སྡུག་ལ་	-10.697
མི་དགའ་བ་	-10.697
འགྲོ་བཞིན་ཡོད་པ་	-10.6971
ཡ་མཚན་	-10.6973
བལ་ཡུལ་ནང་	-10.6973
འཁོར་གྱི་	-10.6973
སྐུ་མགྲོན་རྣམ་པ	-10.6975
ལྷུག་པོ་གནང་	-10.6977
འགྲོ་གི་ཡོད	-10.6984
དེང་རབས་	-10.6984
འདྲ་བར་	-10.6984
▁ལྷ་ཡི་	-10.6985
ཕྱུང་སྟེ་	-10.699
བཅས་ཚང་འཛོམས་	-10.699
དྲུག་གི་	-10.6992
ལམ་ལྷོངས་	-10.6994
མི་ཆོག་པ་	-10.6994
སུམ་དུ་བྱས་སོ་་	-10.6995
འགན་འཛིན་གཞོན་པ་	-10.6997
ཁོག་	-10.6998
ཚོགས་རྣམས་	-10.6999
འཇིག་རྟེན་སྐྱོང་	-10.7003
ལྷའི་མིག་	-10.7004
ཁ་ཤས་ཀྱིས་	-10.7006
ཕལ་	-10.7006
ཚུན་	-10.7008
དུང་ཕྱུར་བདུན་ཅུ	-10.701
▁ཆོས་ཐམས་ཅད་ནི་	-10.7014
སྐྱོང་ཡོང་བའི་	-10.7018
གཟབ་རྒྱས་	-10.7018
བཅས་ཀྱི་སྐོར་	-10.702
ཐོབ་པར་འགྱུར་་	-10.7022
བརྩེ་བ	-10.7022
རྒྱུ་ཞིང་	-10.7024
གནས་སྟངས་ཇི་ཡིན་	-10.7025
▁དབང་པོ་	-10.7026
དགོངས་བཞེད་	-10.7027
ཡོངས་སུ་དག་པའི་	-10.7027
ས་ཤིག་	-10.7028
སྐོ	-10.7029
འཐུན་པར་	-10.703
འཕགས་པའི་ཡུལ་དུ་	-10.7031
གོ་ལ་	-10.7032
ེས་	-10.7033
བསྒོ་བ་	-10.7033
ཚོགས་གཞོན་མཆོག་	-10.7035
སྐད་དུ་	-10.7035
ཕན་ཐོགས་ཧ་ཅང་	-10.7037
▁སྐྱེ་བ་	-10.7037
བརྒྱུད	-10.7038
འདིས་ནི་	-10.7039
ཁྲིམས་ཞིབ་ཁང་	-10.7043
བྲོ་	-10.7043
ཆོས་ཀྱི་ཚུལ་	-10.7044
བློ་གསལ་གླིང་	-10.7046
སྐོར་སྐྱོད་	-10.7046
་སོ་སོ་ཡང་དག་པར་	-10.7047
ཡོངས་སུ་བཟུང་བ་	-10.7047
སློབ་སྦྱོང་གནང་	-10.7047
ཇེ	-10.7048
ལ་གདུང་སེམས་མཉམ་	-10.7053
ཐུབ་མིན་	-10.7054
མི་གཡོ་བ་	-10.7054
བོད་ལྗོངས་	-10.7054
དེའི་ཐོག་ལ་	-10.7055
ཡུལ་འཁོར་	-10.7055
ཟག་པ་	-10.7059
རྒྱལ་པོའི་བུ་	-10.7059
སོང་བའི་	-10.7059
དགེ་མཚན་	-10.706
ལས་འགུལ་བ་	-10.7062
ཉུང་དུ་འགྲོ་	-10.7065
གཅིག་གིས་གཅིག་ལ་	-10.7066
དྲོ་	-10.7066
གལ་ཆེན་	-10.7066
བྱེད་རྒྱུ་དང་	-10.7067
འཁྱེར་ནས་	-10.7067
བགྲོ་གླེང་དང་	-10.7068
ཀྱི་ཡོད་སྟབས	-10.7068
ཆོས	-10.707
རང་བཞིན་ཅན་	-10.7074
དུལ་	-10.7075
དབང་པོ་དང་་	-10.7075
་ཕུན་ཚོགས་མཆོག	-10.7076
ཉི་ཟླ་	-10.7076
ལ་སྐྱོན་བརྗོད་	-10.7079
ཟེར	-10.708
ཀའ་བློན་པདྨ་དབྱང	-10.7081
པར་བྱ་སྟེ་	-10.7085
ཀྱི་ཕུང་པོ་	-10.7085
གྱུར་ཡོད	-10.7086
བྱེད་མཁན་གྱི་	-10.7088
ལ་མོས་པ་	-10.7089
བྱེད་དགོས་ཞེས་	-10.7091
མཐོང་ཞིང་	-10.7093
ཕྱོགས་ཕེབས་	-10.7094
ཤེས་ཁོང་དུ་ཆུད་	-10.7095
ལྐོག་	-10.7095
སྦྱོར་སྤྲོད་	-10.7096
ཆོས་གླིང་	-10.7098
ལས་གཞི་སྤེལ་	-10.7098
གདགས་པ་	-10.7099
་དག་ཡང་དག་པ	-10.7099
རབ་རྒྱས་གླིང་	-10.7101
རྣམ་པར་སེལ་བས་	-10.7101
པི་བང་	-10.7101
སྨོད་	-10.7101
རུ་སོག་	-10.7102
ཙམ་དུ་ཟད་དོ་	-10.7103
སྔར་བས་	-10.7103
རྒྱུས་མངའ་	-10.7103
ཞུས་ན	-10.7105
ི་ཀ	-10.7106
གསེར་གྱི་ཁ་དོག་	-10.7109
་ཡ	-10.7109
བཅས་ཡིན	-10.7111
མི་ཉམས་གོང་འཕེལ་	-10.7112
གཡས་གཡོན་	-10.7113
དངོས་པོར་	-10.7118
མི་མང་ཚོས་	-10.7121
བཟང་པོའི་རིན་ཐང་	-10.7125
འགྲོ་ཚུར་འོང་གི་	-10.7125
གཅིག་གྱུར་རེད	-10.7125
ནད་ཀྱིས་	-10.7126
ཞིང་བསོད་ནམས་དག་	-10.7126
▁རྒྱ་ནག་ནང་	-10.7126
ཡིད་བདེ་བ་སྐྱེས་	-10.7127
སྙིང་པོར་	-10.7129
བརྩི་བཀུར་	-10.7131
ཐར་བར་	-10.7131
ངག་གི་	-10.7132
རོགས་པ་	-10.7134
བཀག་ཉར་བྱས་	-10.7134
སྤང་བའི་ཕྱིར་	-10.7134
རིག་པར་བྱའོ་་	-10.7136
འཛུལ་	-10.7137
་འགོག་པ་དང་་ལམ་	-10.7137
ཡ་རབས་བཟང་སྤྱོད་	-10.7137
འོས་པའི་	-10.7141
ས་ཟླ་འོད་གཞོན་ནུ	-10.7145
ཁ་ཏོན་	-10.7145
བཟོས་ཡོད	-10.7146
འཐུངས་	-10.7147
ཟབ་རྒྱས་	-10.7148
▁སུད་སི་	-10.7148
པ་བཅས	-10.7149
ལྟ་བ	-10.7149
ལྷོ་སྤྱི་	-10.7151
ཞུམ་པ་མེད་པའི་	-10.7155
▁ང་ཡི་	-10.7158
འདིའི་ཐོག་ནས་	-10.7158
དོགས་པ་	-10.7159
རྒྱབ་སྐྱོར་ཐོབ་	-10.716
ཕྱི་ལོ་བཟུང་	-10.7163
བརྙེས་པ་	-10.7164
གཟུགས་ནི་	-10.7164
བར་སྐབས་	-10.7165
མཇལ་ཁ་ཞུས་	-10.7165
བཅུ	-10.7166
བོད་ཆོལ་ཁ་གསུམ་	-10.7167
འདྲ་ཞིག་ཡིན་རུང་	-10.7167
ཀ་སྦུག་	-10.7169
ངོས་འཛིན་བྱེད་	-10.717
གསུང་བ་	-10.7171
ཅི་ལགས་	-10.7171
གཉིས་ལ་ཐུགས་རྗེ་	-10.7173
ཙམ་ནས་	-10.7174
བསྡུས་པ་	-10.7176
གྱུར་ན་་	-10.7177
དབང་པོ	-10.718
རྒྱུ་ཡིན་སྐོར་	-10.718
སེར་སྐྱའི་གནས་	-10.7182
ཐག་ཆོད་	-10.7183
བསྐོར་ཅིང་	-10.7189
ནས་རྒྱ་གར་	-10.7189
ཐེམ་སྤང་བཀའ་རྒྱ་	-10.719
དཀའ་སྡུག་མྱོང་	-10.719
དད་ལྡན་མང་ཚོགས་	-10.7191
མཁན་པོ	-10.7192
བོད་མི་ཞིག་	-10.7194
ས་གནས་མི་མང་	-10.7194
བོད་ཀྱི་བུད་མེད་	-10.7194
ཕྱིན་པ་ཡིན་ན་	-10.7196
འབྲོས་	-10.7197
བཏང་སྟེ	-10.7198
འི་ཆེད་	-10.7201
དང་འབྲེལ་ཡོད་	-10.7201
ཕོངས་	-10.7208
མཐོང་མཆན་	-10.721
ཅི་ཡང་	-10.721
ཁྲུ	-10.7211
ཡོངས་སུ་འཛིན་	-10.7212
དགེ་སྦྱོང་ག་ཏ་མ་	-10.7212
ཟབ་སྦྱོང་གི་	-10.7213
སྨྲ་བ་དང་་	-10.7215
དེ་ཧ་ཅང་	-10.7216
ཁུག་	-10.7217
བོད་མི་མང་གི་	-10.7217
གཏན་འབེབས་གནང་བ	-10.7218
མི་བྱེད་དོ་་	-10.7219
གསོལ་འདེབས་ཞུ	-10.7222
བསྔགས་པ་བརྗོད་	-10.7222
བྱེད་རྒྱུ་དེ་	-10.7223
བལྟ་བར་བྱའོ་་	-10.7226
ཁོང་དུ་ཆུད་པར་	-10.7228
གཉིས་ཀ	-10.7232
རློམ་སེམས་	-10.7233
པུ	-10.7233
མཁོ་	-10.7235
མ་བྱེད་ཅིག་	-10.7236
མུས་རེད	-10.7238
ཆུང་ངུ	-10.7238
ཁྲོམ་	-10.7239
ལ་ཚིགས་སུ་བཅད་པ	-10.724
སོང་ཤིག་	-10.724
ཞིང་ཡོངས་སུ་དག་པ	-10.7241
བགྱིས་ལགས་	-10.7243
རིམས་ཀྱི་	-10.7245
བཀའ་སློབ་སྩོལ་	-10.7245
བཀྲམ་	-10.7247
རླབས་	-10.7248
ཚོགས་ཀྱིས་	-10.725
བྱུང་བར་གྱུར་ཏོ་	-10.725
ཤུགས་ཆེ་རུ་གཏོང་	-10.725
དགོས་རྒྱུ	-10.7253
ལས་འདས་	-10.7254
མེད་དུ་	-10.7254
པ་རྣམས་དང་་	-10.7255
གི་རེད	-10.7256
ཀྱི་གནད་དོན་	-10.7259
ནང་བསྟན་	-10.7259
རྐང་པ་ལ་ཕྱག་འཚལ་	-10.726
▁ལྡི་ལི་	-10.7261
འབོད་སྐུལ་ཡང་	-10.7265
ལྷའི་མེ་ཏོག་	-10.7266
ངོ་མཚར་དུ་གྱུར་	-10.7268
ལྦ	-10.7269
རྒྱ་ཆེ་སྤེལ་	-10.727
འི་དབུ་འཛིན་	-10.7271
▁གང་ཚེ་	-10.7271
གཅེར་བུ་པ	-10.7273
སེམས་ཀྱི་ཞི་བདེ་	-10.7276
ཚངས་པས་བྱིན་གྱི	-10.7278
རྒྱགས་	-10.7279
རིགས་དབྱེ་འབྱེད་	-10.7281
ཉན་པ་	-10.7284
ཡོང་དུས	-10.7285
འགྲིམ་འགྲུལ་	-10.7286
ི་ལྗོངས་ཡར་རྒྱས་	-10.7286
འཕྲུལ་དབང་བྱེད་	-10.7286
གོ་ལའི་གནམ་གཤིས་	-10.7287
ཤིག་ཡིན	-10.7287
འི་རིའི་རྩེ་མོ་	-10.7288
བཟང་སྐྱོང་	-10.7289
ལྷག་པ་ཚེ་རིང་	-10.7291
སྙིང་རྗེ	-10.7293
ན་འདུག་པ་	-10.7293
མི་མཉམ་པ་དང་མཉམ་	-10.7295
ཡིད་མི་བདེ་བ	-10.7295
བྱས་པ་ཡིན་ན	-10.7298
སྦར་སེལ་	-10.7298
རྒྱལ་ཁབ་ནང་	-10.7298
གཉིས་ཀའི་	-10.7298
ཏང་གི་	-10.73
དྲི་བར་	-10.7301
གོ་སྒྲིག་གནང་བ	-10.7302
དྲུག་པ་	-10.7302
་སྤྱད་པར་འཚལ་ལོ་	-10.7302
འགྲོ་ལུགས་	-10.7302
▁དེ་གང་གི་ཚེ་	-10.7304
ཙམ་མ་ཟད་	-10.7305
ངྒ	-10.7306
ཁོང་ཚོ་	-10.7307
ཇི་སྙེད་ཅིག་	-10.7308
སྲིད་བྱུས་དང་	-10.7308
ལྟ་བུ་ཆགས་ཡོད	-10.7311
གོངས་མཐའ་དག་	-10.7311
་དང་་སྡུག་བསྔལ་བ	-10.7313
▁རླུང་	-10.7313
▁ལྷ་རྣམས་	-10.7313
ལས་ཐར་	-10.7316
པ་ལིའི་	-10.7317
བོད་གངས་ཅན་གྱི་	-10.7317
གསར་བཟོ་	-10.7317
འི་སངས་རྒྱས་ཀྱི་	-10.7318
གཞུང་འབྲེལ་མི་སྣ	-10.7319
མཇལ་ཁ་	-10.7322
རི་ཁྲོད་	-10.7323
གཞོན་ནུར་གྱུར་པ་	-10.7323
ཟུང་འབྲེལ་ཐོག་	-10.7324
བཀྲོལ་	-10.7328
སུ་ལ་ཡང་	-10.7328
ཚིག་བླ་དགས་	-10.7329
་དེ་དག་ཐམས་ཅད་	-10.733
བགྱིད་པ་དང་་	-10.7331
འཁོར་བར་	-10.7331
▁གཞོན་ནུ་འདི་དག་	-10.7332
འཇིག་རྟེན་ཕ་རོལ་	-10.7335
གཏན་ནས་	-10.7335
སྤྱི་ཡོངས་	-10.7339
ཚོར་སྣང་	-10.734
འབྲེལ་བའི་སྐོར་	-10.7341
ཐག་གཅོད་གནང་	-10.7341
ཡོད་སྐབས་	-10.7342
བསམ་ཤེས་	-10.7345
ཁྲོས་	-10.7345
ཁ་ན་མ་ཐོ་བ་	-10.7345
ས་ཚོགས་འཐུས་མི་	-10.7347
པེ་	-10.7351
▁མདོར་ན་	-10.7352
ཕྱིན་ཏེ་	-10.7353
འཕར་མ་	-10.7354
སྟངས	-10.7355
▁སྤྱིར་བཏང་	-10.7357
▁ལོ་ངོ་	-10.736
འཚོ་བྱེད་	-10.7361
བཅོ་བརྒྱད་	-10.7362
བྱུང་བ་ཡིན་ན	-10.7364
བཤད་དོ་་	-10.7364
▁ཕྱི་ལོ་གཟའ་ཉི་མ	-10.7365
དབུ་བརྙེས་ནས་	-10.7369
གསུམ	-10.737
མི་རུང་	-10.7371
རྒྱ་བོད་	-10.7372
རྒྱུའི་ཞལ་བཞེས་	-10.7373
ཁྲིམས་ཐག་བཅད་	-10.7373
རང་བྱང་ཆུབ་	-10.7374
ནང་བོད་མིའི་	-10.7374
དབུས་གཙང་	-10.7376
དགོས་འདུན་	-10.7379
བསུ	-10.7379
མངོན་པར་བསྒྲུབས་	-10.738
གཙང་བཟོའི་	-10.7383
ཡིན་ཏེ་་	-10.7384
སྲོག་གཅོད་པ་	-10.7387
ཞེ་དྲག་	-10.7389
དེ་དེ་བཞིན་ཏེ་	-10.7391
ཞེའམ་	-10.7393
གང་གའི་ཀླུང་	-10.7394
ལྟ་སྐྱོང་ལས་གཞི	-10.7395
བསམ་བློ་བཏང་	-10.7397
སྲིད་འཛིན་མཆོག་	-10.7399
རྣམ་པར་དག་པའི་	-10.74
སྐུ་མགྲོན་རྣམས་	-10.7402
འདེགས་འབུལ་ཞུས	-10.7403
ལྷ་དང་མི་	-10.7403
བློས་གཏོང་གནང་	-10.7403
སྟོབས་དང་་	-10.7404
ས་ཤིང་	-10.7405
བཅུ་གཅིག་	-10.7408
བཏགས་པ་	-10.741
ནང་ན་ཡང་	-10.7415
བཞག་ཡོད	-10.7416
སྡེར་	-10.7417
འཇུ	-10.7419
ཧ་ཅང་གི་	-10.742
ཨ་རིའི་རྒྱལ་	-10.742
གྲོང་ཁྱེར་ནས་	-10.7421
རྒྱ་དམར་གཞུང་གི	-10.7423
ཆགས་སྡང་	-10.7423
སྒྱུ་	-10.7427
སྟོང་ཕྲག་དུ་མ་	-10.7428
སྒྲིབ་པ་ཐམས་ཅད་	-10.7429
དུ་འགྲོ་	-10.7429
གཏོང་དགོས་	-10.743
མཐོ་སློབ་ནས་	-10.7431
པ་ཐམས་ཅད་	-10.7436
ནང་གསེས་	-10.7439
པའི་ལས་དེའི་	-10.744
དོན་དམ་པར་	-10.7441
▁འཛམ་གླིང་གི་	-10.7441
ལྷན་རྒྱས་	-10.7442
ས་གནས་རང་སྐྱོང་	-10.7443
གཞིས་ཆགས་ཁག་ཏུ་	-10.7444
ཅོད་པན་	-10.7444
ཡུལ་དེར་	-10.7448
མ་ལགས་་	-10.7448
ས་གནས་འགོ་འཛིན	-10.7448
གདན་ཞུ་གནང་	-10.7456
པ་ཞེས་བྱ་བ་	-10.7458
་བཛྲ་	-10.7459
མཉམ་འཛོམས་	-10.7461
ལེགས་པར་གྲུབ་	-10.7463
ཀུ་མར་	-10.7463
ལྡན་པའི་ཐོག་ནས་	-10.7464
ཞེས་བཀའ་སློབ་སྩལ	-10.7466
ཕྲིན་ལས་	-10.7471
ཉམ་ཆུང་	-10.7472
ཉི་ཁྲི་ཐུབ་པ་ན་	-10.7475
ལྔ་དང་	-10.7475
ཕྱི་གསལ་ནང་གསལ་	-10.7475
ལུང་དུ་མ་བསྟན་པ	-10.7475
ཤོ་ཟུར་	-10.7475
རང་སྐྱོང་	-10.7476
སྣང་བར་གྱུར་ཏོ་་	-10.7477
ལྟ་བར་གྱུར་པ་	-10.7478
ཁྱེད་རང་ཚོར་	-10.7479
དང་བསྟུན་ནས་	-10.7479
ཏིལ་	-10.7479
ལ་ཡང་དག་པར་	-10.748
ཕྱི་དངོས་པོ་	-10.748
གཉིས་ཀར་	-10.7481
འདུག་པར་བྱའོ་་	-10.7482
གྲུབ་པའི་རྒྱུ་	-10.7484
དང་བོད་	-10.7484
ཕྱི་རྒྱལ་དུ་	-10.7485
ལྟ	-10.7486
དགེ་རྒན་གྱི་	-10.7487
ཁེ	-10.7487
ཆོས་ཚོགས་ཐེངས་	-10.7488
ས་ལ་བཙུགས་ཏེ་	-10.7489
ང་དང་	-10.7489
དེའི་མིང་	-10.7489
སྒྲེང་འཛུགས་གནང་	-10.7489
གོང་ཚེས་ཉིན་	-10.749
ཕྱི་ལོ་ཉིན་	-10.7492
ཕྱག་རོགས་	-10.7492
རྒྱ་མཚོ་ལགས་	-10.7495
ལ་རྒྱབ་སྐྱོར་དང་	-10.7495
ལྷ་རྣམས་ཀྱིས་	-10.7496
ནམ་མཁའ་མཐའ་ཡས་	-10.7499
▁མཁྱེན་	-10.7503
འཕྲོད་བསྟེན་གྱི་	-10.7503
གོ་བསྡུར་གནང་	-10.7503
ཀྱི་དབང་པོའི་	-10.7505
རིག	-10.7505
མི་དེས་	-10.7505
སྦར་སིལ་	-10.7506
དགེ་སློང་དེ་དག་	-10.7507
ལ་བསྔགས་བརྗོད་	-10.7508
བོད་ཟླ་	-10.751
སླེབས་པ་	-10.7513
ཚོ་དང་	-10.7513
རྒྱལ་ཁའི་ངང་གྲོལ	-10.7514
བགྱིས་ཏེ་	-10.7514
ཞུ་ཐུབ་	-10.7515
གཟའ་ཟླ་བའི་ཉིན་	-10.7517
འདྲི	-10.7517
བྱས་དང་བྱེད་མུས་	-10.7518
མཁས་པའི་དབང་པོ་	-10.7518
ལྷན་ཅིག་ཏུ་	-10.7521
མཆུ་	-10.7524
▁བདུད་	-10.7525
ཐོག་ཏུ་	-10.7526
བྱེད་ཕྱོགས་	-10.7531
དཀྱིལ་	-10.7532
ཡེ་ཤུ་	-10.7535
སོག་པོ་	-10.7535
ནི་བདག་	-10.7536
དང་བསླབ་པའི་གཞི་	-10.7536
▁འདོད་པ་	-10.7537
ཁོང་ཁྲོ་	-10.754
ཉུང་མི་རིགས་ཀྱི་	-10.7541
བཀའ་རྒྱ་	-10.7542
པའི་སྐོར་	-10.7543
མངོན་པར་བསྟོད་	-10.7544
སྲུང་སྐྱོབ་ཀྱི་	-10.7546
པ་གང་ཞེ་ན་	-10.7546
ཀྱིས་ནི་	-10.7547
རིག་ནས་	-10.7548
ལ་ངོས་འཛིན་	-10.7548
མཛད་པ་འཕྲིན་ལས་	-10.7548
རྒྱུའི་ཚབ་ཏུ་	-10.7548
བོད་མི་ནང་ཁུལ་	-10.7548
དཀའ་རྙོག་སེལ་	-10.755
ལུང་བསྟན་ཏོ་་	-10.7553
སྤྱི་འཐུས་ཀྱི་	-10.7555
ཧན་	-10.7559
▁དགེ་བ་	-10.7561
བོད་མི་ཡོངས་ལ་	-10.7562
ངན་པའི་	-10.7565
ལ་སློབ་སྦྱོང་	-10.7566
སེམས་ཚོར་	-10.7566
ལས་བྱེད་རྣམ་པ	-10.7573
ཤག་	-10.7573
གཞ	-10.7573
་ཤུགས་ཆེ་བཏོན་	-10.7573
མ་གཏོགས	-10.7575
བོད་སྨན་	-10.7579
གཟི་བརྗིད་ཀྱིས་	-10.7581
དགའ་ཚོར་	-10.7582
མཉམ་ཞིང་	-10.7583
▁འདི་ག་ཕྱི་དྲིལ་	-10.7583
སྲིད་གཞུང་དང་	-10.7588
བ་དེར་	-10.7588
བཤོས་གསོལ་	-10.7589
སེམས་པ་བཟང་པོ་	-10.759
གཞིས་མི་	-10.759
མགྲོན་འབོད་ཞུས་	-10.7594
ས་འདི་སྐད་ཅེས་	-10.7597
མངལ་	-10.7597
ལོ་ལྔ་	-10.7598
མི་སྐྱེ་བ་	-10.7599
དེ་ཉིད་ལ་	-10.76
མི་དགའ་	-10.7602
སྐྱེ་དགུའི་བདག་	-10.7606
མྱོང་མེད	-10.7607
འགྲིག་གི་	-10.7608
ཡིན་འདུགདེ་ཡང་	-10.7608
བཙུགས་པའི་	-10.761
ལྟ་བུ་ཆགས་	-10.7612
མང་མོས་	-10.7615
▁ཞེས་གསུང་	-10.7615
▁ཆུ་	-10.7618
▁བདག་ཅག་གིས་	-10.7619
བློས་གཏོང་	-10.7619
འགྲོ་རྒྱུའི་	-10.7621
ཡི་དམ་	-10.7621
གཡུང་དྲུང་གི་	-10.7622
▁ཞེས་སོགས་	-10.7629
དངོས་པོ་ཡར་རྒྱས་	-10.7629
རྒྱུན་མི་འཆད་པར་	-10.7629
སྐུ་ཞབས་ཨེ	-10.763
ད་ལྟར་གྱི་	-10.763
སྒེར་ལངས་	-10.7631
དེ་ཙམ་གྱིས་	-10.7632
ཡང་ན་	-10.7633
▁ང་ཚོའི་ངོས་ནས་	-10.7633
ཞུགས་སོ་་	-10.7633
ཐོས་པས་	-10.7634
མག	-10.7635
འདུག་པར་	-10.7636
འབེབས་	-10.7636
སྐྱེ་བོ་མང་པོ་ལ་	-10.7638
ཅེས་ཞུ་རྒྱུ་ཡིན	-10.7639
ལས་ཁང་	-10.764
གསོལ་བ་འདེབས་	-10.764
ར་གྱུར་ནས་	-10.764
ལྷག་མཐོང་	-10.7642
རྣ་བའི་རྣམ་པར་	-10.7642
བརྙན་	-10.7645
▁ཁྱེད་ཀྱིས་	-10.7645
བོད་རྒྱ་	-10.7645
རྣམས་དང་་་	-10.7648
ཆོས་ལུགས་ཚང་མར་	-10.7649
ཧེ	-10.765
སྐུ་ཉིད་	-10.765
ཁྱིམ་བདག་དེས་	-10.765
གླགས་	-10.765
▁དེ་ནས་དྲང་སྲོང་	-10.7651
འོན་	-10.7654
ཞུས་པ་ལྟར་	-10.7655
བཙུན་པ་ཤ་རིའི་བུ	-10.7656
བཞིན་པའི་སྐོར་	-10.7659
▁ཕྱི་ལོ་ཨ་རིའི་	-10.7659
མིན་པའི་	-10.766
སོང་་་	-10.7661
སྲོལ་ཡོད་པ་ལྟར	-10.7661
སྐྱེ་བར་འགྱུར་བ་	-10.7662
ཕུང་	-10.7664
རིང་བ་	-10.7666
མཆོག་ནི་	-10.7666
འཇམ་མགོན་རྒྱལ་བ	-10.7667
ཐབས་ཟླར་བབ་པ་ལ	-10.7667
དོགས་འདྲི་	-10.7668
ཆོས་ལུགས་ནང་ཁུལ་	-10.7669
དཔྱད་ཞིབ་	-10.7669
འི་མཚན་	-10.767
དགེ་སྦྱོང་ངམ་	-10.7671
ལག་བསྟར་བྱས་	-10.7672
ཕྱིན་ཆད་	-10.7674
▁བྱང་ཆུབ་ནི་	-10.7675
གསུམ་པའི་	-10.7675
དྲང་པོ་	-10.7677
དེ་རིགས་	-10.7677
གྷི	-10.7679
གཏོང་དགོས	-10.7682
དག་སྣང་	-10.7682
ྲ	-10.7682
འདུ་ཤེས་མེད་མིན་	-10.7683
སྟེང་གི་ནམ་མཁའ་ལ	-10.7683
མཐོང་བ	-10.7684
གཤེགས་ནས་	-10.7684
གླང་པོ་ཆེའི་	-10.7687
ཧམ་	-10.7689
ཀྲུང་དབྱང་	-10.769
ཇི་སྐད་སྨྲས་པ་	-10.7693
མིང་འདོགས་	-10.7696
ཕྱིའི་རྒྱལ་ཁབ་	-10.7697
ཕ་མ་གཉིས་	-10.7699
ཚང་འཛོམས་ཐོག་	-10.7699
ཚོགས་ཁང་གསར་པའི་	-10.7699
འཕངས་	-10.7701
ཁྱེར་ནས་	-10.7701
རྩིས་ལེན་	-10.7701
གྲོང་གསེབ་	-10.7702
བསྡད་པ་རེད	-10.7704
རྙི	-10.7705
ྭ	-10.7709
སྲ	-10.7709
སློབ་གྲྭ	-10.771
མི་གནས་པ་	-10.7711
འདི་ཁོ་ན་ཡིན་ཏེ	-10.7716
འོ་་འདི་ནི་	-10.7717
བླང་བ	-10.7718
རྭ་	-10.772
མི་བདེ་བ་	-10.7721
པ་དེ་དག་ཐམས་ཅད་	-10.7722
རྒྱུའི་འཆར་གཞི་	-10.7726
གཟིགས་འབུལ་ཞུས	-10.7727
འཛིན་ཁང་	-10.7727
ར་མི་བྱའོ་་	-10.7729
རབ་ཏུ་བྱུང་བའི་	-10.7729
▁འགྲོ་བའི་	-10.7732
མོད་	-10.7734
མཚོན་ནའང་	-10.7735
སྲི་ཞུ་བ་	-10.7736
སྟེང་ནས་	-10.7737
ཐོན་པའི་	-10.7737
འཆ	-10.7741
སྒྲིལ་	-10.7745
▁ཚིག་	-10.7745
གནོད་སྐྱོན་	-10.7746
ཀྱི་བསྟན་པ་	-10.7746
དཀར་པོའི་	-10.7751
མེད་པར་འགྱུར་རོ་	-10.7751
ཉེས་ཆད་	-10.7755
ཁེལ་	-10.7756
རྗེས་སུ་འབྲང་བ་	-10.7757
ཐེ་ཝན་གྱི་	-10.7757
མཁྱེན་པ་ཉིད་དུ་	-10.7759
གནང་དགོས་རྒྱུ་	-10.7761
ེལ་	-10.7761
ལ་ཤིན་ཏུ་	-10.7763
ཕ་ཡུལ་	-10.7764
་སྐོར་གསུངས	-10.7765
ས་ཁུལ་གྱི་	-10.7765
དང་བྲལ་ཞིང་	-10.7766
རིམ་བྱོན་	-10.7768
བ་ཡིན་ནའང་	-10.7768
མཛད་བཟང་	-10.7769
ཀྱི་ལས་འགུལ་	-10.7773
ི་སྤྱོད་པ་	-10.7775
མ་ཆགས་	-10.7776
བརྩེགས་	-10.7777
ཡང་དག་པ	-10.7779
ལ་བ་	-10.7782
འདྲ་མཉམ་	-10.7783
ཤིང་དགེ་སློང་	-10.7783
བྱ་སྟེ་	-10.7784
ཕན་བདེ་	-10.7784
ལོའི་	-10.7784
ཡིད་ཀྱི་ལས་	-10.7784
མཛད་རྣམ་	-10.7785
སོགས་ཀྱི་ནང་	-10.7785
རྨི་ལམ་དུ་	-10.7785
དེ་འདི་	-10.7786
ལྔ་བརྒྱ་ཙམ་	-10.7787
བྱུས་	-10.7787
▁ཐམས་ཅད་མཁྱེན་པ	-10.7792
གང་ཡང་མི་འདུག	-10.7792
ཚེ་བརྟན་	-10.7796
ཐུབ་རྒྱུར་	-10.7797
ར་བྱའོ་	-10.78
མགུ་བ	-10.78
ཅི་ལྟར་	-10.7801
མཁན་པོ་དང་	-10.7801
སུ་དག་	-10.7802
མི་ཉམས་	-10.7803
རང་སྐྱོང་ར	-10.7804
སྐུ་ཚབ་འཐུས་མི་	-10.7804
བཤད་དུ་གསོལ་	-10.7805
ཚོགས་མི་རྣམ་པ	-10.7807
འི་དོན་དུ་	-10.7808
མི་ཤེས་སོ་	-10.7808
ཀླུ་སྒྲུབ་ཀྱི་	-10.7809
སྤྲོས་	-10.7811
ཁམས་དང་་	-10.7811
བཙལ་བ	-10.7812
རུབ་	-10.7813
བྱེད་ཀྱི་ཚལ་དུ་	-10.7815
དེ་སྲིད་དུ་	-10.7816
མ་ཐུབ་པའི་	-10.7817
་ར	-10.7817
ཇི་སྲིད་འཚོ	-10.7818
གསུངས་འདུག	-10.7818
▁ཟླ་	-10.7821
ཀྲ	-10.7822
སོ་སོར་རྟོག་པ	-10.7822
གཟུགས་དང་་	-10.7825
མཐོང་ནས་ཀྱང་	-10.7827
རམ་འདེགས་	-10.7827
བཅར་ནས་	-10.7827
ཉེ་དབང་ད	-10.7829
གསོ་རིག་	-10.7832
རྒྱུ་གང་ཡང་མེད	-10.7832
འདས་ནས་	-10.7833
བའི་སྨོན་འདུན་	-10.7833
བོད་མཐོ་སྒང་	-10.7835
ལ་སྙིང་བརྩེ་བ	-10.7835
ན་ད་	-10.7838
ཚིམ་	-10.7839
རྐྱ	-10.7839
རྒྱ་གར་ལྷོ་	-10.7839
ཕྱི་ལོ	-10.7839
སྟོང་སྟེ་	-10.784
མི་མང་རྣམས་	-10.7841
▁ཁམས་གསུམ་	-10.7842
▁རྒྱུ་མཚན་	-10.7843
སྟོབས་ལྡན་	-10.7844
མི་འདྲ་བའི་	-10.7845
རྨི་ལམ་ལྟ་བུ	-10.7845
བཤད་ཀྱི་འདུག	-10.7846
དགོས་གལ	-10.7847
ལ་སྤྱོད་པས་	-10.7848
བཅས་ཁྱོན་	-10.7849
འཚེ	-10.7851
བཅོམ་ལྡན་	-10.7852
ཤེས་པར་བྱ་བའི་	-10.7852
པར་སྤྱོད་པ་	-10.7854
ཡོངས་རྫོགས་ལ་	-10.7855
དབང་ཕྱུག་མཆོག	-10.7857
ལ་གནས་ཤིང་	-10.7857
ཁྱབ་པ་	-10.7857
ང་བཅས་པའི་ལྷ་	-10.7858
མི་འཇིགས་	-10.7858
་འཛུགས་ངོས་ནས་	-10.7859
དགོན་པ	-10.786
ཐུགས་སུ་ཆུད་	-10.7861
▁སྲིད་	-10.7862
བྱས་པའི་འགོག་པ་	-10.7862
ཟིལ་	-10.7863
དགོས་ཀྱི་ཡོད་པ་	-10.7863
▁བུ་མོས་སྨྲས་པ་	-10.7863
མཐོང་བས་རྣམ་པར་ག	-10.7863
དབྱངས་སུ་གྱེར	-10.7863
ཞུ་བ་ཞུས་པ་	-10.7865
ུས་འཁོར་དབང་ཆེན་	-10.7866
རྒྱུས་ལོན་	-10.7866
▁ནོར་	-10.7868
དེ་ཁོ་ན་བཞིན་དུ་	-10.7868
བསྣུན་	-10.7868
ནས་བོད་མིའི་	-10.7868
མཐོང་བས་	-10.7868
▁གྲོགས་པོ་	-10.7869
འཛམ་གླིང་སྤྱི་ལ་	-10.7871
ངེས་རེད	-10.7871
རྩ་ཆེན་པོ་	-10.7872
སྙིང་རྗེ་ཆེན་པོ	-10.7874
དངོས་འབྲེལ་	-10.7874
ཞལ་ཟས་	-10.7874
ཐུན་	-10.7878
དམའ་བ	-10.7879
གསུམ་ལ་	-10.7879
ཡིན་སྐོར་དང་	-10.7879
ནང་ཆོས་ངོ་སྤྲོད་	-10.7882
་དེ་འདི་	-10.7884
གོ་ཆ་ཆེན་པོ་	-10.7884
བསྒྲིལ་	-10.7888
དེང་གི་	-10.7888
དང་བྲལ་	-10.7889
དོན་གྱི་ཕྱིར་	-10.7889
▁མཁན་པོ་	-10.789
ཐབས་ཆེད་	-10.789
ྨྲ་བརྗོད་རང་དབང་	-10.7891
ི་ཏ་	-10.7892
▁སྐྱེས་བུ་དམ་པ་	-10.7893
▁བོད་མཐོ་སྒང་གི་	-10.7894
བཅད་དེ་	-10.7895
ལུས་དང་སེམས་	-10.7895
▁ང་རྒྱལ་	-10.7895
▁བགྲོ་གླེང་	-10.7897
མེར་	-10.7902
ཐེངས་གསུམ་པ་	-10.7903
་ནི	-10.7905
ལྟ་སྐྱོང་	-10.7906
ཀྱི་ལས་དོན་	-10.7908
བཞིན་ནོ་་	-10.791
ཁྲིམས་ཞིབ་པ་	-10.791
ེན་གཟབ་རྒྱས་ཞུས	-10.7912
གུས་པར་སྨྲ་བ	-10.7913
རྗེས་སུ་འབྲང་	-10.7914
དབྱིན་	-10.7914
མེད་པ་ཉིད་	-10.7918
མཉམ་པ་ཉིད་ཀྱིས་	-10.792
སྐྱེ་མཆེད་ཀྱི་	-10.7921
སྐུ་ཞབས་ཝི	-10.7923
ིག་རྟེན་སྐྱོང་བ་	-10.7924
རྒྱུ་མ་གཏོགས་	-10.7924
ཁོང་ཚོའི་	-10.7926
ཤི་བ་	-10.7926
ཡེ་ཤེས་ཀྱིས་	-10.7927
གཟིགས་སྐོར་དུ་	-10.7928
བྱས་ཤིང་་	-10.7931
གྲྭ་ཚང་གི་	-10.7932
དུ་ཆིབས་སྒྱུར་	-10.7933
ཡོད་པའི་ཐོག་ནས་	-10.7934
ཡང་སྤྲུལ་	-10.7934
ཡེ	-10.7934
ཐམས་ཅད་དང་བྲལ་བ་	-10.7936
གལ་ཆེན་པོ་ཆགས་	-10.7939
▁འདུ་བྱེད་ཀྱི་	-10.794
མྱོང་བ	-10.794
པའི་སྐུའི་འཁྲ	-10.7941
ཀྱི་གོ་སྒྲིག་འོག	-10.7942
▁ཆབ་སྲིད་ཀྱི་	-10.7942
དུ་གཞུག་པར་བྱ་	-10.7942
དྲི་ཞིམ་	-10.7944
དྲི་ཟའི་	-10.7944
སྐུ་ལས་	-10.7947
སྦྲ	-10.7947
མྱོས་	-10.7947
ཡོང་གི་མ་རེད	-10.7948
གོ་སྒྲིག་ཞུས་པའི	-10.7948
ཆགས་བསྡད་ཡོད	-10.7951
བཟོ་རྒྱུའི་	-10.7951
འི་ཆོས་ཅན་ནོ་	-10.7956
དགུ་པ་	-10.7958
▁བདག་ལ་	-10.7958
རྒྱལ་པོ་དེ་	-10.7959
ར་མི་འགྱུར་རོ་	-10.7959
བཞིན་པ་ནི་	-10.7959
ཡིན་ནོ་ཞེས་	-10.7961
བཀོད་པའི་	-10.7963
བོད་ནང་གི་འགྲོ་བ	-10.7964
དྲུང་ཆེ	-10.7969
འོངས་ཏེ་ཞེས་བྱ་བ	-10.7971
སྣེ་འཁྲིད་	-10.7971
བཀའ་ཤག་དང་	-10.7972
དབེན་	-10.7973
པའི་སླད་དུའོ་་	-10.7974
པ་ཞིག་ཡིན	-10.7975
གཟུངས་སྔགས་	-10.7975
དཔེ་བྱད་བཟང་པོ་	-10.7975
གསར་ཤོག་	-10.7975
ཉིན་གཉིས་རིང་	-10.7978
སྨོན་པ་མེད་པའི་	-10.7979
འགན་འཁྱེར་	-10.798
ཟུང་ཤིག་	-10.7981
ཚོགས་ཆུང་ཞིག་	-10.7984
▁དེ་དེ་ལྟར་	-10.7985
གནས་ནང་འཁོད་དོན	-10.7985
▁མེ་	-10.7986
འགྲུབ་པར་འགྱུར་	-10.7986
ས་འདི་	-10.7986
རྣམས་སྡུག་བསྔལ་	-10.799
དུས་སྐབས་སུ་	-10.7993
སྨྲའོ་་	-10.7994
ཁོང་ནི་	-10.7995
དགེ་རྒན	-10.7996
བསོད་སྙོམས་ལ་	-10.7999
ཝ་ར་	-10.7999
མཚན་རྟགས་བཀོད་	-10.7999
ཆུ་དང་	-10.7999
མུན་	-10.8007
དགུ་བཅུ་	-10.8007
སྒོམ་པ་	-10.8009
མཚོན	-10.8013
བྱེད་པ་པོ་	-10.8013
མི་ཞིག་	-10.8017
བདག་གིས་ཀྱང་	-10.8019
ཟངས་	-10.802
གོ་འཕང་	-10.8025
ཚང་མའི་ནང་	-10.8026
སྒྱུ་མའི་	-10.8027
འདུགདེ་རྗེས་	-10.8027
དཀའ་རྙོག་སེལ་ཐབས	-10.8031
ཡལ་ག་	-10.8032
འི་སྟོབས་བཅུ་དང་	-10.8033
སྭ་	-10.8035
གང་ཡང་མེད་པར་	-10.8039
སྐུ་ཚབ་དོན་ཁང་གི	-10.8039
ཆོག་ཤེས་	-10.804
ལ་གནས་པར་	-10.8041
ཚུལ	-10.8041
དྲན་པ་རྙེད་	-10.8042
བདག་གིས་ཐ	-10.8042
ལ་མ་ལྟོས་པར་	-10.8042
ཐོབ་པས་	-10.8044
ཐུབ་པའི་རེ་བ་	-10.8044
ཁང་བཟངས་	-10.8045
▁སྐྱབས་རྗེ་	-10.8047
གནང་བཞིན་པའི་	-10.8047
▁སྔོན་མ་	-10.8049
རོགས་གནང་ཞེས་	-10.805
དང་་དགེ་བསྙེན་	-10.805
སྒྲུབ་པའི་	-10.8052
འཇམ་དབྱངས་ཆོས་	-10.8053
སྦྲེལ་	-10.8054
ཐོབ་ཡོད	-10.8055
བཀླག་	-10.8056
མེ་སྐྱོན་	-10.8056
སྐྱེ་གནས་	-10.8058
དག་ཡིན་ནོ་་	-10.8058
མེད་པ་ཡིན་	-10.8061
▁ཅིའི་ཕྱིར་	-10.8062
གདུལ་བ	-10.8063
ཐུགས་འཚབ་	-10.8063
ཁལ་མུག་	-10.8063
ྲོལ་སྙམ་འམ་	-10.8063
མར་དང་ཞུན་མར་དང་	-10.8063
ཕྱོགས་བཅུར་	-10.8063
རེག་པ་ལ་གནས་སམ་	-10.8063
ོས་པ་དུས་གཅིག་ན་	-10.8064
ཆོས་སུ་བཏགས་པ་	-10.8064
སྒྲ་འབྱིན་	-10.8064
མཐའ་མྱུར་དུ་གསལ་	-10.8064
སེར་བྱེས་	-10.8064
ཉན་ཐོས་ཀྱི་སའམ་	-10.8064
ཟས་སྦྱིན་གྱི	-10.8064
་དང་ལག་མཐིལ་དུ་	-10.8064
ཞུགས་པའི་	-10.8064
རིགས་པའི་ལམ་ནས་	-10.8064
ཆེད་རྩོམ་	-10.8065
དྲང་ངེས་	-10.8065
འཆང་བ་	-10.8065
གདོང་ལེན་གནང་	-10.8066
བརྡ་སྤྲོད་	-10.8067
བྱེད་བཞིན་པར་	-10.807
དང་་མིའམ་ཅི་དང་་	-10.807
བྱེད་དོ་	-10.8071
ཐོབ་ཐང་རྩོད་ལེན་	-10.8073
ཁྲུས་	-10.8073
སླ་བ་	-10.8076
ཞབས་འདེགས་ཞུ་	-10.8076
▁ཕན་ཚུན་	-10.8077
དམ་པའི་ཆོས་ཀྱི་	-10.8081
ུ་གླིང་བོད་མིའི་	-10.8082
སུ་གྱུར་	-10.8082
བསིལ་བར་གྱུར་པ་	-10.8083
རྒྱས་པར་བྱས་ནས་	-10.8083
གྲོང་ཁྱེར་ནང་	-10.8083
གཅིག་པ་རེད	-10.8084
ཉེས་དམིགས་	-10.8085
ཕྱི་ལོ་ནས་	-10.8085
ཁག་ལ་ལན་འདེབས་	-10.8086
མཉམ་རུབ་ཀྱིས་	-10.8087
▁འཛམ་གླིང་མཉམ་	-10.809
ཀླ	-10.809
འདི་ཡིས་	-10.8091
▁ཁོང་ནི་	-10.8092
སྨྲས་ཏེ་	-10.8095
་འཐོབ་ཏུ་རུང་ན་	-10.8096
སྐལ་བ་	-10.8097
གཙིགས་ཆེར་འཛིན་	-10.8098
འགྲོ་བ་ཐམས་ཅད་	-10.8099
རིམ་དུ་གནས་སྤར	-10.81
ཆོས་ཀྱི་རང་བཞིན་	-10.8102
དེ་འདྲ་བ་	-10.8103
ཆགས་ཡོད་པ་	-10.8103
ཕ་རོལ་ཕྱིན་་	-10.8103
དེ་ཁོ་ན་	-10.8104
བཀའ་དགོངས་	-10.8105
བོར་ཏེ་	-10.8105
པར་མི་བྱེད་དོ་་	-10.8105
དཔག་	-10.8105
ལོངས་	-10.8106
ནམ་མཁའི་ཁམས་	-10.811
རྩེ	-10.811
རྣམ་གྲངས་འདིས་	-10.8112
རྒས་གསོ་ཁང་	-10.8114
མཛོད་་	-10.8116
འོས་བསྡུ་ལས་ཁང་	-10.8116
ནར་	-10.8118
ཀྱི་ཞིང་དེ་ན་	-10.812
▁དེའི་རྗེས་	-10.8121
ཆི་	-10.8123
▁ང	-10.8123
བརྗོད་ན	-10.8124
གནང་ཡོད་པ་རེད	-10.8125
དབང་ཕྱུག་དང་་	-10.8126
ཀྱི་མ་རེད	-10.8126
མི་འགྱུར་བ་དང་་	-10.8127
བཙུགས་པ་	-10.8127
ལ་ཐུགས་བརྩེ་བ	-10.8129
▁དཔལ་	-10.813
བོད་དང་བོད་མིའི་	-10.8131
དངོས་གཞི་	-10.8133
ནོ	-10.8133
བཟོ་རྒྱུ	-10.8134
ཉོན་ཅིག་	-10.8134
▁དེ་ཚོའི་གྲས་	-10.8139
ཡུལ་གྲུ་ཁག་	-10.814
པ་སྟེ་་	-10.8141
མིའམ་ཅི་	-10.8142
འདུགགཞན་ཡང་	-10.8142
ུངས་སྐར་དུས་ཆེན་	-10.8143
གནས་གཙང་མའི་	-10.8146
མི་རྣམས་ལ་	-10.8147
འདུ་ཤེས་འཛིན་	-10.8147
▁དང་པོ་	-10.8148
མི་འཇུག་	-10.815
ཆོས་གྲོགས་	-10.8153
འཐབ་རྩོད་ལ་	-10.8156
ཟུང་འབྲེལ་	-10.8157
བོད་མི་ཡོངས་དང་	-10.8157
སྤྱི	-10.8166
▁རིག་པ	-10.8168
དྲི་མ་མེད་	-10.8171
▁ངས་ནི་	-10.8171
ཤེས་པ་དང་	-10.8173
▁དེས་ཀྱང་	-10.8173
ཕྱིར་རྒོལ་བར་	-10.8174
ཟིན་པ་དང་	-10.8175
ཁ་པར་	-10.8176
སྤྱིར་བཏང་	-10.8177
གནས་སྟངས་དེ་	-10.8178
པའི་ཚེ་་	-10.818
སེམས་ཀྱི་རྒྱུད་	-10.8181
མངའ་སྡེའི་གཞུང་	-10.8181
རྣམས་ཀྱི་གནས་	-10.8181
གླིང་དུ་	-10.8183
བསླབ་གཞི་	-10.8183
ལྟ་བུས་	-10.8184
བ་དང་སྦྲགས	-10.819
འོད་སྲུང་ཆེན་པོ་	-10.8193
འོན་ཏེ་	-10.8193
འགོ་འཛུགས་ཀྱིས་	-10.8195
བཞི་པའི་	-10.8196
▁མ་འོངས་པའི་	-10.8196
སྨོན་ལམ་གྱི་དབང་	-10.8196
གཅིག་ཙམ་	-10.8199
བོད་མིས་	-10.8201
ཐོན	-10.8201
ཤེས་ཀྱི་ཡོད	-10.8202
བལྟ་བར་	-10.8206
པ་ལྟ་བུ་	-10.8206
▁ལུས་ཀྱི་	-10.8206
འཁོད་ནས་	-10.8209
ཞེས་གསུངས་	-10.8212
རང་ཡུལ་	-10.8213
ུལ་	-10.8213
▁དེ་འདྲ་	-10.8214
འདུ་འཛོམས་ཐོག་	-10.8214
སྐུ་གཤེགས་	-10.8216
པར་བྱ་བ་དང་་	-10.8217
བརྒྱད་པ་	-10.8217
འོས་པ་	-10.8217
▁གང་ཡང་	-10.8217
འདི་ལྟ་བུ་འདི་	-10.8218
འཕེལ་རིམ	-10.8218
བཟོ་བཞིན་ཡོད	-10.8218
ཐམས་ཅད་དུ་ཡང་	-10.8218
ཡོད་ལ་	-10.8219
ཡིན་པར་བརྟེན	-10.822
དབུ་འཛུགས་	-10.8224
བདུན་པའི་	-10.8226
གདུལ་བྱ་	-10.8227
▁སྐུ་ཉིད་	-10.8227
ེའི་	-10.823
འགྲོ་ཞིང་	-10.8231
མངོན་ཤེས་	-10.8232
སུད་ཚོང་	-10.8232
ཚ་བ་དང་	-10.8232
སེང་གེའི་ཁྲི་ལ་	-10.8234
ཁོ་མོ	-10.8234
▁ཤེས་ལྡན་དག་	-10.8234
སློབ་སྤྱི་དང་	-10.8236
ཡང་རུང་སྟེ་	-10.8236
ཕྱི་མ	-10.8238
▁དེའི་ཐོག་ལ་	-10.8243
མི་འགྱུར་རོ་་	-10.8243
བོད་ནང་འགྲོ་	-10.8245
དགོས་བྱུང་	-10.8246
དུས་རྒྱུན་	-10.8246
སྡེ་དཔོན་	-10.8249
འགྲོ་རྒྱུར་	-10.8253
ཚོགས་གནང་ཡོད	-10.8254
སྔ་མོ་	-10.8254
ལ་ཕེབས་	-10.8261
དོང་སྟེ་	-10.8262
ཨོ་སི་ཀྲི་ལི་ཡ	-10.8264
གཅིག་པུའི་	-10.8264
ཆགས་ཀྱི་ཡོད་པ་	-10.8266
འཆམ་	-10.8266
རོ་མྱང་བ་མེད་པར་	-10.8267
བསྐྲད་	-10.8267
ཚབ་ཞུས་ནས་	-10.8267
རྩེ་ཕུད་	-10.8268
ཡོད་པའི་སྐོར་	-10.827
བོད་ས་བཙན་བཟུང་	-10.8271
བདག་གཅེས་	-10.8273
བྲལ་བ་རྣམས་ཡིན་	-10.8274
▁བླ	-10.8275
ནི་འདི་ཡིན་ཏེ་	-10.8275
འཐེན་འཁྱེར་	-10.8275
ཕོགས་	-10.8276
བྱུང་བ	-10.8276
ཐུབ་ཀྱི་མེད	-10.8276
ཉམས་ལེན་བྱེད་	-10.8276
བཙན་བཟུང་བྱས་	-10.8277
སྟོང་ཕྲག་བརྒལ་བ	-10.8278
མི་ཁོམ་	-10.8278
ཞེས་བྱ་	-10.8278
བླུགས་	-10.8278
རང་གི་ལུས་	-10.8279
ོས་	-10.8279
སྲི་ཞུ་	-10.8279
ཤེས་རྟོགས་ཐུབ་	-10.828
སི་ཀོ	-10.8281
ལས་ལྷག་	-10.8281
བ་བཅས	-10.8282
གང་ཡང་མེད་	-10.8285
པ་ལྟར	-10.8285
▁བོད་མི་ཚོར་	-10.8287
དབྱེ་བ་	-10.8287
ཕྱུགས་	-10.8288
ཤ་རིའི་བུ་དང་	-10.8289
ཉི་མ	-10.8289
དཔུང་གཉེན་	-10.829
སྣའི་རྣམ་པར་	-10.829
སྨན་པས་	-10.8291
བསླབས་ནས་	-10.8292
ན་གྱི་སྲིད་བྱུས་	-10.8292
ནི་མི་	-10.8292
གནས་པར་བྱེད་	-10.8296
ཧིན་དུའི་	-10.8297
ནི་མ་ཡིན་ནོ་་	-10.8299
ང་ཚོ་བོད་པའི་	-10.8305
ཞང་	-10.8306
ཐོག་ལའང་	-10.8307
དམུས་ལོང་	-10.8308
མྱ་ངན་ལས་འདའ་བར་	-10.8309
སྩལ་རྗེས་	-10.831
ལ་རྟེན་	-10.8311
ཐོག་གོ་བསྡུར་	-10.8317
རྗེས་སུ་བསྟན་པ་	-10.8318
ལུང་འདྲེན་	-10.8319
སྲོ	-10.8319
▁ལྷའི་བུ་དག་	-10.832
དངུལ་གྱི་	-10.8321
ཐབ་	-10.8321
པ་དང	-10.8323
ཚང་བ་	-10.8323
ནས་ཕེབས་བསུའི་	-10.8324
མཚུངས་པ་	-10.8327
དུས་ཀྱི་ཚེ་	-10.8328
སྲིན་མོ་	-10.8328
ལུས་ལས་	-10.8329
ཇི་ལྟ་བ་	-10.8329
ུ་གླིང་	-10.833
དེ་ཐམས་ཅད་	-10.833
ལ་སོགས་པས་	-10.8331
རང་ཁྱིམ་དུ་	-10.8331
ུས་ན་དྲང་སྲོང་	-10.8332
ུས་ན་རྒྱལ་པོ་	-10.8335
བསྐྱར་གསོ་ཡོང་	-10.8336
དྲགས་	-10.8337
གཞིས་བྱེས་བོད་མི	-10.8337
གནང་མཁན་གྱི་	-10.8338
སྲིང་	-10.8339
བྱིན་ཏེ་	-10.8339
འཐོབ་པར་འགྱུར་	-10.834
བྱས་འདུག	-10.834
པོ་ཆེ་	-10.8342
དད་པ་དང་	-10.8344
རིང་ནས་	-10.8344
གིས་སྨྲས་པ་	-10.8346
སྣང་ངོ་་་	-10.8347
ང་ཚོ་བཙན་བྱོལ་	-10.8347
སྤེལ་ཡོད	-10.8348
བརྒྱ་བྱིན་དང་་	-10.8348
དགོས་ཀྱི་	-10.835
ཚིགས་བཅད་	-10.835
དྲུང་ནས་	-10.8351
མངོན་པར་ཤེས་པའི་	-10.8351
ལས་གཞིར་	-10.8351
གསོ་སྐྱོང་	-10.8352
ོགས་གཙོ་སྐུ་ཞབས་	-10.8352
ལྷགས་པ་	-10.8353
ཁྱེན་པ་སྐྱེས་བུ་	-10.8356
འདི་ལོར་	-10.8357
འཇིགས་བྲལ་	-10.8357
བསྡད་ནས་	-10.836
དམག་ཆེན་གཉིས་པ	-10.836
དམ་པ་མཆོག་	-10.8361
བ་དུརྱ་	-10.8362
རྒྱལ་ཁབ་འདྲ་མིན་	-10.8363
དགོས་མཁོ་ཡོད་པ	-10.8365
ཕེབས་པ་དང་	-10.8367
ནུས་ཤུགས་	-10.8368
ལྷག་མ་	-10.8369
ཆོས་ཀྱང་	-10.837
རིག་པར་བྱ་སྟེ་	-10.837
་ཞེས་བྱ་བའི་	-10.8372
འདིས་ན་བདག་	-10.8375
བསྲེག་	-10.8375
ཁྲོ་	-10.8375
སྩལ་དོན	-10.8377
▁དེ་དག་ལ་	-10.8377
འཇི	-10.8381
མང་གཙོ་དོན་གཉེར་	-10.8382
དམ་བསྒྲགས་ཅ	-10.8383
▁དམ་པ་ཁོང་གིས་	-10.8383
གསུམ་གྱི་བར་དུ་	-10.8384
ཉེ་བར་གཞག་པར་བྱ	-10.8387
བདུད་ཀྱི་ལས་	-10.8389
པན་	-10.8389
རྩ་མེད་གཏོང་	-10.8391
རྡུལ་ཕྲ་རབ་	-10.8391
གཅིག་པུར་	-10.8392
ཞིག་ཏུ་གྱུར་	-10.8392
བྱམས་པ	-10.8392
▁ད་དུང་ཡིན་ནའང་	-10.8393
▁ཁ	-10.8395
ལོང	-10.8396
བཀག་བསྐྱར་ཞིབ་	-10.8398
འགོག་རྐྱེན་	-10.8398
རྣམ་རྒྱལ་གྲྭ་ཚང་	-10.84
ཡོང་མཁན་	-10.8401
པ་ཀུན་འབྱུང་བ་	-10.8402
བྱ་དགོས	-10.8403
རྟེན་འབྲེལ་མཚོན་	-10.8405
ཤིང་དྲུང་	-10.8405
བཞིན་པར་བརྟེན་	-10.8408
ཕྲུ་གུའི་	-10.841
གཟུགས་ཅན་	-10.8411
བསྟན་པར་བྱའོ་་	-10.8412
མ་ཐུབ་	-10.8415
སྟངས་དང་	-10.8416
བརྒྱ་དང་	-10.8416
བརྒྱ་སྟོང་མང་པོ་	-10.8419
མ་ལུས་པར་	-10.8419
▁དེ་བཞིན་ཕྱི་ལོ་	-10.8419
མཐོང་སྐབས་	-10.8419
བསོད་ནམས་གླིང་	-10.8419
མོ་ཧ	-10.842
ཟང་ཟིང་	-10.8423
དགོས་པ་ཞིག་	-10.8425
སྔར་ལས་	-10.8426
ཡོང་གི་ཡོད་པ་རེད	-10.8427
ལ་ཞུགས་པ་	-10.8427
མཆོག་སྤྲུལ་	-10.8427
གསར་འགོད་པ	-10.8428
ལས་བྱེད་རྣམས་	-10.8429
སྐྱོང་མཆོག་ལ་	-10.8429
ཁག་ནང་	-10.8433
གོང་སྤེལ་གཏོང་	-10.8434
གནས་མཇལ་	-10.8435
རྣམས་སམ་	-10.8436
པདྨ་དབྱངས་ཅན་	-10.8438
མཚན་ཉིད་མེད་པའི་	-10.8439
ལས་རྣམས་	-10.8439
མཇལ་འཕྲད་གནང་ཡོད	-10.844
བསྐལ་པར་ལན་གསུང་	-10.844
སྟོང་པ་ཉིད་ཀྱང་	-10.8443
སེམས་ཅན་དེ་དག་ལ་	-10.8444
ཨང་གཉིས་པ་	-10.8445
ཞིག་གི་ནང་	-10.8445
དེང་དུས་ཀྱི་	-10.8446
ཕྱར་གྲུ་མཉམ་འདེ	-10.8451
དྲན་སྐུལ་	-10.8453
རྫོགས་པར་བྱ	-10.8453
མི་དུང་ཕྱུར་	-10.8453
འཇིག་རྟེན་ལ་	-10.8458
ཐོས་པར་	-10.8459
ཊུ་	-10.8459
ཕན་པའི་	-10.8463
སྐྱེ་བ་དང་་	-10.8465
གོ་སྒྲིག་འོག	-10.8466
ལྷུན་གྱིས་འགྲུབ་	-10.8466
གསོལ་ཏེ་	-10.8466
ཤི་ཡ་	-10.8467
སྟོན་ཏོ་	-10.8468
ར་སྤྲོད་	-10.8469
གསལ་བའི་	-10.847
དོན་ཚན་བཅུ་བདུན་	-10.8471
ཞེས་བགྱི་བ་	-10.8471
སྐྱོར་ཚོགས་པ	-10.8473
ཕུགས་རྒྱང་རིང་པོ	-10.8476
བྷི་ཇེ་པི་	-10.8476
ཉམ་ང་བ་ཉུང་ངམ་	-10.8476
རྡོ་རྗེས་བཅོམ་ནས	-10.8476
འི་ཁྲི་འཛིན་	-10.8477
གཙོ་སྐྱོང་བ་	-10.8477
དུས་ཚིགས་	-10.8477
དེ་ལྟ་དེ་ལྟར་	-10.8478
གུས་བཀུར་	-10.848
གླིང་ཆེན་	-10.8482
རྣམ་གཉིས་ནས་	-10.8482
ཁྱེད་རྣམས་	-10.8484
བགེགས་	-10.8487
མྱ་ངན་ལས་འདའ་བ་	-10.8488
དབུགས་འབྱིན་	-10.849
མེད་པའི་བར་དག་	-10.8493
རྗེས་གནང་	-10.8494
ཡུན་རིང་པོར་	-10.8496
འཐུན་	-10.8496
འཁོར་བཞི་པོ་	-10.8499
▁བྱམས་བརྩེ་	-10.8499
ཆེ་་	-10.85
མཆིས་་	-10.8503
ཟུར་པ་སྐུ་ཞབས་	-10.8505
དགོས་པ་ལས་	-10.8506
མིའི་རྣམ་དཔྱོད་	-10.8508
་ཐོག་དུས་བཀག་	-10.8508
ཕྱི་རོལ་དུ་	-10.8508
▁དུད་འགྲོ་	-10.8508
དེ་གའི་	-10.8513
འི་དྲུང་དུ་	-10.8515
བརྙན་འཕྲིན་ཚན་པ	-10.8516
▁གང་ཡིན་ཞེ་ན	-10.8517
ནས་ཤི་འཕོས་ཏེ་	-10.8517
རྒྱ་གར་འཕགས་ཡུལ་	-10.8518
དོན་དམ་གྱི་	-10.8518
བཏོན་ནས་	-10.8519
གནང་གལ	-10.852
་ཇི་སྙེད་པ་ཉིད་	-10.852
མཛོད་ཅིག་	-10.8524
▁ཕྱི་ལོ་བཟུང་	-10.8524
སྣུམ་	-10.8527
བཏང་བ་མ་ཟད	-10.853
ཕེབས་ཐོན་གྱིས་	-10.853
བྲིས་པ་	-10.8531
འོད་དཔག་མེད་	-10.8534
ཁྱོན་ཡོངས་ཀྱི་	-10.8534
ལེགས་པར་བརྒྱན་པ་	-10.8536
ཚེས་གཟའ་པ་སངས	-10.8537
ཕའི་	-10.8539
བསྐོར་ཏེ་	-10.8539
ང་རང་ཚོའི་	-10.8539
བསམ་གཏན་བཞི་དང་་	-10.8539
ི་སི་	-10.8541
མངོན་པར་འགྲུབ་	-10.8544
བསམ་གཏན་དང་པོ་	-10.8544
་སེམས་	-10.8547
ཀྱི་བརྙན་འཕྲིན་	-10.8552
བམ་	-10.8553
▁གཞིས་ཆགས་	-10.8554
▁སུད་སི	-10.8554
ལས་གཞི་ཁག་	-10.8555
ཕྱི་དྲོ་ཆུ་ཚོད	-10.8556
▁རྒྱ	-10.8557
་དེས་ནི་	-10.8557
ཧ་ཅང་ཡག་པོ་བྱུང་	-10.8558
ས་སྒོ་ངའི་སྦུབས་	-10.8559
འཇིག་རྟེན་མ	-10.8559
བར་མཉམ་པ་	-10.8559
ཇི་ལྟ་བུར་	-10.856
སྐྱོར་	-10.8563
བྱུང་སྟེ	-10.8564
ཡོལ་	-10.8565
་འཛུགས་ཀྱི་སྲིད་	-10.8566
བདེ་ཐང་	-10.8567
ྦ	-10.8567
▁དེ་ཡང་ཕྱི་ཚེས་	-10.8568
དང་པོ་དེ་	-10.8571
བསྐྱལ་	-10.8571
འཇུག་པའི་	-10.8572
་ཤེས་རབ་	-10.8572
འགྲོ་བཞིན་འདུག	-10.858
པས་ཀྱང་	-10.858
བརྩི་མེད་	-10.8581
▁བཙུན་པ་བདག་	-10.8583
▁ཞེས་འཁོད	-10.8587
སྤྱོད་ཅིང་	-10.8587
ངོ་བོ་དང་	-10.8588
་ནམ་མཁའི་སྙིང་པོ	-10.8588
གདུགས་དང་	-10.8592
ཞུ་བའི་	-10.8593
གྲངས་ཐོ་	-10.8593
དང་་སེམས་ཅན་	-10.8593
ལས་དོན་ཁག་	-10.8597
ཡོད་པའི་བོད་མི་	-10.8597
ཐམས་ཅད་ཡང་དག་པར་	-10.86
གྲོངས་	-10.8603
མང་པོའི་རིང་	-10.8603
ས་ཤིང་མུན་པ་བསལ་	-10.8604
རྙིང་	-10.8605
▁འཁོར་	-10.8605
ཁག་གཅིག	-10.8606
བལྟས་ན་	-10.8606
གློག་བརྙན་བཟོ་	-10.8608
▁དེའི་བཙས་སྟོན་	-10.8608
རྒྱུར་འབད་བརྩོན་	-10.8608
ཞིང་དགའ་ལ་	-10.8612
སྙིང་པོའི་	-10.8614
དུ་འགྱུར་	-10.8616
མཛད་པ་དང་	-10.862
ཟས་སྦྱིན་	-10.862
བལྟ་བ	-10.862
བཅོམ་ལྡན་འདས་འོ	-10.8622
པོ་་	-10.8623
སྙམ་དུ་སེམས་	-10.8625
གཤེ	-10.8627
རིས་འགྲེམས་སྟོན་	-10.8628
དབུས་བོད་མིའི་	-10.8628
བསྟན་པ་བཞིན་ནོ་་	-10.8629
དགྲ་བཅོམ་	-10.8629
ེ་སི་	-10.8633
འབྲེལ་བ་ཡོད	-10.8633
གནོན	-10.8633
ལ་མཁས་པ་དང་་	-10.8634
དགོས་པའི་འབོད་	-10.8634
དགེ་ལས་	-10.8634
འདི་ཉིད་ལ་	-10.8635
དཀའ་རྙོག་	-10.8639
ཡོང་ཐུབ	-10.8641
མཛད་ཅིང་	-10.8642
མགྱོགས་	-10.8643
ཡོངས་འཛིན་	-10.8644
▁རི་	-10.8647
ཕ་རོལ་ཏུ་	-10.8649
དྲོ	-10.865
ལོངས་སྤྱོད་ཆེ་བ་	-10.865
རྣམས་ཀྱི་དོན་བྱ	-10.865
ལེགས་སོ་	-10.8654
མདོར་ན་	-10.8655
▁འཇར་མན་	-10.8656
དང་་ཡིད་མི་བདེ་བ	-10.8656
འཛུལ་ཞུགས་	-10.8656
བཟོས་ཏེ་	-10.8657
བོད་མི་གྲངས་	-10.8657
ཟླ་སྒྲོན་ལགས་	-10.8658
ཕུལ་འདུག	-10.8658
སྐྱབས་སུ་	-10.866
་ཛི་	-10.866
སྐད	-10.8662
སྤྲོད་རྒྱུ་	-10.8663
ཞིག་ཡིན་པའི་ཆ་ནས	-10.8664
བཞེས་ཏེ་	-10.8666
པ་ཚོར་	-10.8667
སྐོར་སྤྲོ་འཆམ་	-10.8668
རིང་བསྲེལ་	-10.8668
ཕངས་	-10.8669
རྙེད་པར་དཀའ་	-10.8671
དབྱིག་	-10.8671
མ་གཏོགས་གཞན་	-10.8672
མཁས་པ་དང་	-10.8672
པར་མི་འགྱུར་བ་	-10.8672
བ་དན་	-10.8672
རྒྱུད་ལ་	-10.8673
མེད་ནའང་	-10.8673
འི་བར་གྱི་	-10.8675
གདན་འདྲེན་ཞུ་	-10.8677
ཞུ་སྙན་	-10.8678
མགྲིན་ཚབ་པ་	-10.8678
ཀྱི་ཕྱིར་དང་་	-10.8678
འགྱོད་	-10.8678
དང་མཉམ་པ་	-10.868
ཁྱོ	-10.8684
དོན་དང་	-10.8684
རྣམ་པ་དྲུག་ཏུ་	-10.8684
ཁྱམས་	-10.8685
འགེལ་	-10.8686
བཞད་	-10.8688
ཧུར་ཐག་འབད་ཐག་	-10.8689
ལོ་རེ་བཞིན་	-10.8689
སྔ་དྲོ་ཤམ་ཐབས་	-10.8689
ངོ་བོའི་ཐོག་ནས་	-10.8689
ཤི་བའི་འོག་ཏུ་	-10.8689
འཚམས་འཕྲིན་	-10.8689
ས་ར་བོད་ཀྱི་མཐོ་	-10.8692
ཐོས་པའི་	-10.8692
རྡོ་རྗེ་གདན་གྱི་	-10.8692
▁ལྷ་དག་	-10.8693
དོ་སྣང་བྱེད་	-10.8694
ནི་ཧ་ཅང་	-10.8695
ཞེས་བགྱི་བ	-10.8695
བློ་གྲོས་དང་་	-10.8695
ནི་སེམས་ཅན་	-10.8698
དེ་བཞིན་ཕྱི་ལོ་	-10.8698
མི་རྟོག་	-10.8699
ཡེ་ཤེས་གཟིགས་པ་	-10.87
ཞལ་ལག་	-10.87
ཀྱི་དེ་བཞིན་ཉིད་	-10.8701
གྱུར་པས་	-10.8703
སྤྱད་ནས་	-10.8704
མཉན་དུ་ཡོད་པར་	-10.8704
རྒྱ་གར་ནང་དུ་	-10.8705
ལྷག་པའི་བསམ་པས་	-10.8706
བཅད་ནས་	-10.8706
ཐད་ཀར་འབྲེལ་བ་	-10.8706
འདུག་སྤྱོད་གསུམ་	-10.8707
བཙུགས་ཏེ་	-10.8707
སྟོང་དུ་	-10.8707
གི་ལས་བྱེད་	-10.871
དབྱེ་བ་མེད་པར་	-10.871
དཔལ་ན་ལེནྡྲ་	-10.871
ཏིང་འཛིན་མཆོག་	-10.871
བྱེད་སའི་	-10.8712
ཁོ་ཚོས་	-10.8714
སྤོབས་པ་ཟད་མི་	-10.8714
གདངས་	-10.8714
ནམ	-10.8715
སྒྲིག་འཛུགས་འདི་	-10.8715
བསྐྱེད་པའི་	-10.8718
་མེད་པ་དང་་	-10.8718
ལྡེ	-10.8719
གནང་བ་དེ་	-10.872
བོད་ཁང་	-10.872
་སྦྲེལ་པོ་མཆོག་	-10.872
ཆགས་ཡོད་སྟབས	-10.8721
འགྱུར་བ་ཕྱིན་	-10.8722
ལྔ་པའི་	-10.8722
གྲྭ་ཤག་	-10.8722
བརྩིས་ནས་	-10.8723
ཀྱང་མི་གནས་པར་	-10.8725
ཁྱོན་ཡོངས་ནས་	-10.8725
གདུང་བ་	-10.8727
་དབུས་བོད་ཀྱི་	-10.8728
གྱིས་ལ་	-10.873
ཁྱེའུ་གཟུགས་བཟང་	-10.8732
▁བསྟན་འཛིན་	-10.8733
ནད་རྟགས་	-10.8733
འགྲོ་རྒྱུ་རེད	-10.8734
འཇལ་	-10.8735
ཞིག་ཀྱང་ཡིན	-10.8735
དམངས་	-10.8736
པོའི་རྒྱལ་གླུ་	-10.8736
གསུམ་རིང་	-10.8738
ཞིག་ཆགས་ཀྱི་ཡོད	-10.8738
བཙན་དབང་	-10.8742
དྲང་བདེན་	-10.8743
བསྐྱང་	-10.8743
ཁྲལ་	-10.8744
སློབ་ཟུར་	-10.8745
དོན་ལ་	-10.8745
▁སྦེལ་ཀོབ་	-10.8745
རུས་པ་	-10.8747
སོང་བ་ལས་	-10.8749
ཨ་རིའི་མི་སེར་	-10.8749
ཅི་ཡང་མེད་	-10.8749
ངེས་པའི་	-10.875
གནས་ལུགས་	-10.875
བཟའ་བ	-10.8751
བསྙེན་བཀུར་བྱ་བ	-10.8751
ཀྱི་ཡོད་རེད	-10.8751
ཡུ་གུར་མི་རིགས་	-10.8751
ཡི་གེའི་	-10.8752
གས་པའི་	-10.8752
ཡོད་འདུགདེ་ཡང་	-10.8753
ཚོགས་མིའི་	-10.8755
འགོ་འཛུགས་གནང་	-10.8755
སྐུ་ཞབས་ཨ	-10.8756
སོང་བ་དང་་	-10.8757
གཤེགས་ཏེ་	-10.8758
ཡིག་ཆ་ཁག་	-10.8758
ཁྲིམས་ཞིབ་ཁང་ནས་	-10.8759
ལ་མངོན་པར་	-10.8759
མགྲོན་ཁང་དུ་	-10.876
་པའི་ཕྱིར་	-10.876
དང་རྒྱབ་སྐྱོར་	-10.8763
སྐུ་མགྲོན་རྣམ་པ་	-10.8763
བདག་མེད་པ	-10.8763
ཉིན་རྒྱབ་ཆུ་ཚོད་	-10.8763
▁ཏིང་ངེ་འཛིན་	-10.8765
བྲིས་པའི་	-10.8765
▁ཆོས་རྣམས་ཀྱི་	-10.8765
ནོར་གླིང་	-10.8766
ཆོས་བཞིན་དུ་	-10.8769
དེ་དུས་	-10.877
གཙོ་སྐྱོང་གནང་	-10.8772
མདོ་སྨད་	-10.8773
▁མང་གཙོའི་	-10.8773
སྨོན་ལམ་བཏབ་	-10.8774
སྟོང་པ་ཉིད་དུ་	-10.8776
རྟོགས་ནས་	-10.8777
མངའ་བ་	-10.8778
རླུང་གི་ཁམས་	-10.8779
ཏུ་གྱུར་པ་	-10.8779
བོད་ལ་རང་དབང་	-10.878
▁ཅེས་བརྗོད་	-10.8782
་ཁམས་གསུམ་པའི་	-10.8785
གང་པོ་	-10.8787
དགེ་སློང་དེ་	-10.8787
ཡོད་ཚུལ་	-10.8788
འཇིགས་པ་དང་་	-10.8788
དབུ་བཞུགས་	-10.8794
ན་ག	-10.8794
སློབ་མ་རྣམས་	-10.8794
སྐབས་ནས་	-10.8795
མི་གཟུང་བར་	-10.8798
འགོས་	-10.8798
ཁྱབ་བརྡལ་	-10.8799
གནས་པ་དང་་	-10.88
ཕ་མ	-10.8801
ར་བྱེད་དེ་	-10.8801
དེར་ནི་	-10.8802
▁དེ་ཟླ་བ་དགུའམ་	-10.8802
མཛད་སྒོའི་སྐ	-10.8804
འི་དབང་པོ་	-10.8805
ཟམ་གདོང་	-10.8806
འབྱུང་བར་འགྱུར་བ	-10.8807
ནི་བདག་གི་	-10.8807
གནང་བ་དེར་	-10.8808
ུ་མགྲོན་གཙོ་བོར་	-10.8809
དོན་དུ་གཉེར་བ་	-10.8809
བསམ་པའི་	-10.881
་དེ་དག་གིས་	-10.881
སྐྱེས་པ་དང་་	-10.881
རྒྱ་ནག་གཞུང་ཚབ་	-10.881
སེལ་ཐབས་	-10.8812
འཁྲི	-10.8813
རབ་ཏུ་དགའ་བ	-10.8813
འབྲེལ་ཚོགས་པའི་	-10.8816
གྱི་ལས་གཞི་	-10.8817
གཉིས་པོ་	-10.8818
མ་འགགས་པ་	-10.8819
▁ཕྱོགས་བཅུའི་	-10.882
རྣམས་ཀྱི་ནི་	-10.8821
པོ་ཞིག་	-10.8822
བླ་ཆེན་རྣམ་པ	-10.8822
རྡོ	-10.8823
མི་དགོས་པ་	-10.8824
བསྟན་པ་ལ་	-10.8827
དེ་སྲུང་བཀའ་བློན	-10.8827
དངོས་པོའི་	-10.8828
ཕྱི་ཚེས་ཉིན་	-10.883
དམ་འབུལ་	-10.8831
ཆེན་པོ་དང་ལྡན་པ་	-10.8833
གནང་བའི་སྐོར་	-10.8833
ཞུ་སྐབས་	-10.8834
་རགས་	-10.8834
མཐིལ་	-10.8835
ལས་དོན་རྣམས་	-10.8835
གནད་དོན་ཐད་	-10.8838
▁ཕྱི་ལོ་ནས་	-10.8839
བཀོད་ཡོད	-10.884
ཁྱེའུ་འདིའི་མིང་	-10.884
སྣང་བའི་	-10.8841
ས་པ་དེ་དང་དེར་	-10.8841
རྒྱ་ཆེའི་	-10.8844
རྒྱགས་པ་	-10.8845
འཛིན་རིམ་	-10.8849
གནས་སྟངས་ཆགས་ཡོད	-10.885
གཙོ་ཆེ་བ་	-10.8851
གྲྭ་རྒྱུན་	-10.8852
དེ་འདྲ་བའི་	-10.8852
འདུག་གོ་	-10.8853
ཅན་་	-10.8853
འགྲོ་་	-10.8856
གངས་ལྗོངས་དཔ	-10.8857
ཐང་གི་གནད་དོན་	-10.8858
སྦྱིན་པར་བྱེད་པ་	-10.8859
འཐབ་བྲལ་	-10.886
ད་སྲུང་ཞེས་བྱ་བ་	-10.8863
བྱུང་རིམ་	-10.8863
▁ལྷ་མོ་	-10.8863
ཐུབ་ཀྱི་མ་རེད	-10.8864
སྔ་དྲོ་ཆུ་ཚོད་ལ་	-10.8864
གླིང་གི་	-10.8864
ཕྱག་འཚལ་ལོ་་	-10.8866
ཡིན་པས་ན་	-10.8866
མཉམ་ཞུགས་ཀྱིས་	-10.8866
གཤིས་	-10.8867
རྒྱལ་སྤྱིའི་བོད་	-10.8867
འཕགས་ཡུལ་	-10.8869
རྒྱལ་ཡོངས་སུ་	-10.8869
མི་མངའ་་	-10.8871
ངེས་པའི་ཚིག་	-10.8872
པདྨ	-10.8873
རང་དབང་ལྡན་པའི་	-10.8876
▁སྔོན་	-10.8878
ཁོན་	-10.8879
ལྟ་གྲུབ་དང་	-10.8879
་ཟེར་བ་	-10.8879
དོ་སྣང་དང་	-10.888
ཤེས	-10.888
བྲམ་ཟེ་དང་	-10.888
དེ་བས་ཀྱང་	-10.8881
ཡོང་གི་ཡོད་པ་	-10.8881
ཨིན་སྐད་	-10.8882
ཆགས་པར་	-10.8884
ཀྱི་རྣམ་གྲངས་འདི	-10.8884
་ཤེས་པ་གང་གིས་	-10.8884
ཞིག་ཏུ་གྱུར་ཡོད	-10.8884
པའི་ཕྱིར་ཏེ་	-10.8885
ཕྱོགས་གཅིག་	-10.8885
བྱེད་ཕྱོགས་ཀྱི་	-10.8885
བཀླགས་	-10.889
ལྷན་འཛོམས་ཀྱི་	-10.8891
▁ཀུན་འབྱུང་བ་དང་	-10.8893
ལྟ་བར་	-10.8893
འདུ་བྱེད་ཐམས་ཅད་	-10.8894
▁ཚངས་པ་	-10.8894
མེད་པའི་ཐོག་ནས་	-10.8896
སྒོམ་སྒྲུབ་	-10.8897
གྲོང་དུ་	-10.8899
འདུག་པའི་	-10.8902
གཉན་	-10.8904
▁ཉིན་རྒྱབ་	-10.8904
ར་བྱས་	-10.8905
མཆེད་	-10.8905
མ་སྐུ་ནེན་སི་པ	-10.8906
ཐུགས་དགྱེས་ཚོར་	-10.8906
གདམས་ངག་	-10.8906
རབ་རིབ་	-10.8906
གཅིག་པུས་	-10.8906
ཅིང་རྗེད་པ་དང་	-10.8906
འཚར་ལོངས་	-10.8906
འབྲིང་རིམ་	-10.8908
▁སྔར་	-10.8908
་མཆོག་ནས་	-10.8908
ལོ་བཅུ་ལོན་པ	-10.8909
▁དགོན་པ་	-10.8909
ཆགས་ཀྱི་ཡོད་རེད	-10.8911
ཇེ་མང་དུ་འགྲོ་	-10.8911
འཁོད་འདུག	-10.8912
དྲིན་	-10.8912
ཕྱོགས་བཞིར་	-10.8915
བོད་དོན་ཞུ་སྐུལ་	-10.8915
མཆི	-10.8915
སུམ་ཅུ་རྩ་བདུན་	-10.8916
འཇུག་པ་དང་་	-10.8917
ཀྱི་འགྲོ་བ་མིའི་	-10.8919
▁བོད་ནི་	-10.892
ཉེ་བར་གནས་པ་	-10.8921
སྦྱིན་གནས་	-10.8921
ཞིག་སྟེ་	-10.8922
འབྲུ་མར་	-10.8923
མ་མཆིས་པ་ལགས་	-10.8925
ཚུར་ཤོག་ཅེས་བྱ་བ	-10.8925
ཞིང་ཆེན་	-10.8926
ལྡན་གྱི་	-10.8929
དཀའ་ངལ་དང་	-10.8929
▁ཉི་མ་	-10.893
ེན	-10.8931
▁ཁྱིམ་	-10.8933
ཐེག་ཆེན་	-10.8934
་མེད་པར་གྲགས་པ་	-10.8935
འཛུད་	-10.8936
པར་མི་བགྱིད་	-10.8938
▁ཅི་སྟེ་	-10.8938
ཉེ	-10.8938
རྡ་སྟེང་བོད་ཁྱིམ	-10.8938
ལྷན་ཅིག་	-10.894
▁དེ་བཞིན་དུ་མིག་	-10.8941
▁བསྐལ་པ་བྱེ་བ་	-10.8941
སོགས་ངོ་སྤྲོད་	-10.8942
དེ་གཉིས་ལ་	-10.8943
དད་པའི་	-10.8943
གནས་ན་	-10.8943
སྒྲོགས་སྦྱང་ཞུས་	-10.8944
ཐམས་ཅད་ཡོངས་སུ་	-10.8945
དབང་སྒྱུར་བྱེད་	-10.8945
ཚིགས་སུ་བཅད་པ་འད	-10.8946
▁ཅི་ནས་ཀྱང་	-10.8949
▁ཞེས་འཁོད་འདུག	-10.8955
རང་ནས་	-10.8956
དགུ	-10.8959
▁ཚངས་པའི་	-10.896
ཞུ་རྒྱུ་བཅས	-10.8963
མདོ་སྔགས་	-10.8965
སྟོབས་དང་ལྡན་པ	-10.8965
རིས་སུ་མ་ཆད་པའི་	-10.8967
ལ་ལྟ་	-10.8967
ལ་དམིགས་པ་	-10.8968
ཆགས་ཀྱི་རེད	-10.8968
བོར་ནས་	-10.8969
ལ་ཡི་རངས་	-10.897
རྒྱན་གྱིས་བརྒྱན་	-10.8972
གླེང་སྟེགས་	-10.8974
ཁམ	-10.8976
རྒྱུའི་ཁས་ལེན་	-10.8977
སེམས་དང་སེམས་	-10.8977
གནས	-10.8978
འཚེ་བ་མེད་པ་	-10.8982
གཉིས་ཙམ་	-10.8982
མེད་པ་ལ་	-10.8983
འཛམ་གླིང་མི་མང་	-10.8985
སྐོར་གསུང་བཤད་	-10.8986
ཉེ་བར་ལེན་པ	-10.8987
རྒྱལ་སྤྱི་	-10.8988
དུ་ཕེབས་	-10.8988
▁གཞན་གྱི་	-10.8989
▁རྒྱ་	-10.899
སྐྱེ་མཆེད་དང་་	-10.8992
གྱི་རྣམ་པ་	-10.8992
བྱུང་བ་ཡིན་ན་	-10.8993
གཉིས་ནི་	-10.8994
བོད་ས་ཡོངས་	-10.8996
འི་ལས་	-10.8997
མི་འམ་ཅི་	-10.8999
ལོ་གསར་	-10.9002
ཡོངས་སུ་དག་པ་དང་	-10.9003
མ་སྐྱེས་	-10.9004
ཉིས་སྟོང་	-10.9005
སྡེ་ཚན་ཁག་	-10.9006
མཇལ་དར་	-10.9006
ལྡང་བ་	-10.9006
་ན་བདག་	-10.9006
དབུ་བཞུགས་ཐོག	-10.9007
ལངས་ཏེ་	-10.9011
ད་ལྟ་ཡིན་ནའང་	-10.9012
པ་ནས་བཟུང་ད་བར་	-10.9015
ཀུན་ཏུ་ཤེས་	-10.9017
མི་ཆོག་པའི་	-10.902
་དེ་བཞིན་	-10.9021
མིག་གི་རྣམ་པར་	-10.9022
མདོ་འདི་	-10.9023
རྩི་བཞིན་ཡོད	-10.9023
བཞིན་པ་རེད	-10.9025
ཡོངས་སུ་མི་སྐྱོ་	-10.9026
བཏིང་	-10.903
ལ་ཕྱག་འཚལ་ལོ་	-10.9034
བདེན་པའི་ཚིག་	-10.9035
ཆིངས་ཡིག་	-10.9036
ཁོང་ཁྲོ་དང་	-10.9036
མཚམས་འཇོག་དགོས་པ	-10.9037
ཁྲིམས་འཆར་དེ་	-10.9039
འདྲ་བའི་སེམས་	-10.9039
བོད་ནི་	-10.904
ལྷན་ཅིག་ཏུ་རྩེ་	-10.9041
ཛ་དྲག་ངལ་སེལ་	-10.9043
བྱམས་སྙིང་རྗེ་	-10.9043
ལས་ཁང་གི་	-10.9043
བསྟར་འབུལ་ཞུ་	-10.9044
རྒྱུའི་ཆེད་	-10.9045
པར་མི་ནུས་	-10.9046
བཤ	-10.9046
ཡིན་པ་རེད	-10.9046
འབུལ་རྒྱུ་	-10.9048
གཡེང་	-10.9054
དུས་དེབ་	-10.9054
མི་མང་དང་	-10.9055
ཤུགས་ཆེ་རུ་འགྲོ་	-10.9056
ཉམས་སུ་མྱོང་བ	-10.9057
དར་ཁྱབ་	-10.9057
དང་ཉམས་པ་སླར་གསོ	-10.9059
ཀླུ་ཡི་	-10.9059
རྣམ་པར་གྲོལ་	-10.9059
བྱེ་བ་ཕྲག་བརྒྱ་	-10.906
་ཕག་	-10.9061
དོན་འདི་	-10.9062
འཇིག་རྟེན་མགོན་	-10.9066
་བླ་ན་མེད་པ་ཡང་	-10.9066
མ་སྤྲད་	-10.9068
དེས་དེ་	-10.9069
ཚོགས་གཙོར་	-10.907
ཡིག་ཚང་	-10.907
གཉིས་རིང་	-10.9071
ཡར་རྒྱས་ཧ་ཅང་	-10.9071
མྱ་ངན་འདས་པ་	-10.9071
རྣམ་པར་འཇིག་པ་	-10.9073
སྐབས་འདིར	-10.9075
ཞེས་བྱས་ནས་	-10.9076
ཁང་པའི་	-10.9077
་སྙིང་པོ་	-10.9078
དགེ་སློང་གིས་	-10.9081
ཆོས་ཀྱི་རྣམ་ག	-10.9083
མ་སྐུ་མཆོག་	-10.9084
དྲུང་ཆེ་དང་	-10.9084
བུ་མོའི་	-10.9084
དྲིལ་	-10.9087
བཅང	-10.9088
འདེམས་ཐོན་བྱུང་བ	-10.9089
ལྔ་པོ་	-10.909
་རན་སི	-10.909
བདེ་བ	-10.909
ནང་བོད་དོན་	-10.9092
ཕག	-10.9093
པར་འགྱུར་བ	-10.9094
ཧ་ལས་པ་རེད	-10.9094
ཆིབས་	-10.9096
དཔལ་མགོན་	-10.9096
དུ་གནས་	-10.9096
སྲིད་པར་	-10.9096
ཆོས་ཉན་	-10.9097
ལྟ་ཚུལ་	-10.9097
མ་བྱེད་	-10.9098
ན་དགེ་སློང་	-10.91
ཚོགས་པའི་ཚོགས་མི	-10.91
ཟེར་གྱི་	-10.91
སྐུར་	-10.9102
ངས་ཀྱང་	-10.9103
ལ་མངོན་པར་བརྩོན་	-10.9104
བཞེས་མཁན་	-10.9105
གཡ	-10.9106
བཀའ་བསྡུར་གནང་	-10.9106
སུ་ཡོད་པའི་	-10.9107
རང་དབང་སྒེར་ལངས་	-10.9108
འཇོམས་པ་	-10.9109
མྱོང་མཁན་	-10.9109
བལྟས་པ་ཡིན་ན	-10.911
གློ་བུར་	-10.9111
དབེན་པའི་	-10.9114
ག་ཏ་མ་	-10.9117
ཕ་མའི་	-10.9117
པ་ཡིན་ཞེ་ན་	-10.9118
སྙམ་དུ་མི་སེམས་	-10.9119
གནས་ཆུང་	-10.912
ནན་པོ་	-10.912
འི་རིག་གཞུང་	-10.9121
བྱེད་ནས་	-10.9122
རིག་པ	-10.9123
སྐྱེ་ཞིང་	-10.9123
བཅར་བ་ཡིན	-10.9124
བ་དེས་	-10.9127
བསམ་པ་གཅིག་མཐུན་	-10.9128
དགའ་དད་སྤྲོ་	-10.9128
ཐའེ་ཝན་	-10.9128
བསྐྱོད་པ་ཡང་ངམ་	-10.9128
འདུས་ཏེ་རེག་པའི་	-10.9128
ལམ་སང་	-10.9128
མཚན་དུས་དྲུག་ཏུ་	-10.9129
ལྟུང་བའི་རྩ་བ་	-10.9129
ཕྱིན་ཅད་	-10.9129
དོ་དབྱིངས་	-10.9129
ཚོགས་ཞུགས་	-10.9129
མ་ནིང་	-10.913
མཆོད་སྡོང་	-10.913
ཡོང་བ་རེད	-10.9131
གཅིག་རྐང་འཛིན་	-10.9131
འགལ་རྐྱེན་	-10.9132
སྡང་	-10.9132
ཕྱོགས་མཚམས་	-10.9133
རྫིང་བུ་	-10.9134
རྒྱལ་ཞེན་	-10.9135
དེ་མིན་	-10.9136
སྙམ་དུ་བསམས་ནས་	-10.9136
ཞུས་པ་ཡིན་ན	-10.9137
བཀའ་ལུང་	-10.9139
་ཙོང་ཁ་པ་ཆེན་པོ	-10.914
དགོན་སྡེ་ཁག་ཏུ་	-10.914
བཙན་དབང་གིས་	-10.914
གཅིག་ནི	-10.9141
ར་བྱ་བསྙེན་པར་	-10.9142
ཁ་གཏད་	-10.9143
ི་དག་བཀའ་སྩལ་ཏོ་	-10.9143
རྗེ	-10.9143
▁ཁྱེད་ཚོ་	-10.9144
མྱོང་བར་འགྱུར་	-10.9144
འཇམ་ཞིང་	-10.9147
ཚོགས་དུས་དྲུག་པ	-10.9147
བྱེ་མ	-10.9147
ཞུ་རྒྱུ་ཡིན་ཞེས་	-10.9148
ནང་གནས་སྡོད་	-10.915
མགོན་སྐྱབས་	-10.9153
མགྲིན་	-10.9154
མཛད་སྒོར་ཕེབས་	-10.9155
གོ་སྒྲིག་ཞུ་	-10.9155
་དགེ་ཚུལ་	-10.9156
དྲི་མ་དང་བྲལ་བ་	-10.9157
དབང་པོ་རྣམས་	-10.9157
▁ཕྱི་ལོ་བོད་	-10.9158
ལྷོ་ཕྱོགས་སུ་	-10.9158
འཚོང་	-10.916
ཐང་ལ་བརྩི་མེད་	-10.9161
བྱིས་པ་རྣམས་	-10.9163
བོད་མི་དེ་དག་	-10.9164
སྟོང་པའི་	-10.9165
ད་ལྟར་འབའ་ཞིག་	-10.9166
▁ཨོ་གླིང་	-10.9168
▁འདི་འདྲའི་	-10.9168
དེ་དག་ཐོག་	-10.9171
བརྩེ་	-10.9174
ལོ་མང་	-10.9174
དོལ་རྒྱལ་བསྟེན་	-10.9176
ཞུས་རྗེས་	-10.9177
བཟོ་མཁན་	-10.9183
ཆུང་དུས་	-10.9185
སློབ	-10.9185
མི་གནས་སོ་་	-10.9186
སྨོན་པ་	-10.9187
དབྱུང་བ	-10.9188
གནས་ཚུལ་ཐོན་པར་	-10.9188
སྲིད་སྐྱོང་མཆོག	-10.9189
རྗོད་པར་བྱེད་	-10.919
གདུལ་བར་བྱ་བ	-10.919
མ་མཆིས་ཤིང་	-10.9191
རྙེད་པ་དང་་	-10.9192
▁ཀོ་རི་ཡ	-10.9192
དུ་མི་	-10.9192
ཆོས་ལུགས་ཕན་ཚུན་	-10.9193
སྨྱོ	-10.9194
ཞུ་རྒྱུ་བྱུང་	-10.9196
སླེབ་ཡོད	-10.9197
ཞིག་ཡིན་སྐོར་	-10.9197
འགོག་པ	-10.9198
གཏན་ལ་ཕབ་པའི་	-10.92
▁བོད་ལ་	-10.9201
མཁའ་	-10.9201
ཆོས་བརྒྱུད་ཀྱི་	-10.9202
ལྷག་པའི་ང་རྒྱལ་	-10.9203
རྗེས་སུ་འབྲང་བ	-10.9204
དགེ་ཕྲུག་	-10.9204
པུ་	-10.9204
ཉི་ཤུ་རྩ་གཅིག་	-10.9207
འདྲའོ་་	-10.9207
▁རབ་འབྱོར་འདི་	-10.9208
མཆོད་པར་	-10.9211
ཆོས་ཟབ་མོ་	-10.9214
བཞིན་པ	-10.9215
ཡོད་གནས་སྟངས་	-10.9216
སི་ལོ་ཝ་ཀི་ཡའི་	-10.9217
བོད་ཀྱི་ཆོས་དང་	-10.9219
མཁན་ཚོར་	-10.922
བགྲོ་གླེང་གི་	-10.9221
ཞེས་པས་	-10.9222
པ་དག་ཡིན་ནོ་་	-10.9224
འི་དུས་	-10.9225
ར་གྱུར་པ་དང་་	-10.9225
དམག་དོན་	-10.9226
དོན་གྲུབ་ལགས	-10.9231
གནང་ཐུབ་ཡོད	-10.9231
▁ཀླུ་	-10.9231
བར་གྱུར་ནས་	-10.9232
བཟོས་པའི་	-10.9233
ཀྲུ	-10.9234
ཕ་མ་དང་	-10.9234
བགོ་བཤའ་	-10.9235
ཆོས་སྲིད་གཉིས་	-10.9235
དབང་ཕྱུག་ཆེན་པོ་	-10.9235
པ་བཞིན་	-10.9236
བྱས་ཚེ་	-10.9238
▁ང་རང་ཚོ་	-10.9238
ཤཀྱའི་	-10.9238
སུ་འདྲ་ཞིག་	-10.9242
ནང་གསལ་	-10.9242
སྡོད་མཁན་	-10.9244
ཕྱུང་བ་	-10.9245
གཅིག་གིས་གཅིག་	-10.9246
ཞི་གནས་དང་	-10.9247
དེ་ལྟ་བུ་དག་	-10.925
ཆོས་ཀྱི་སྦྱིན་པ་	-10.9251
ཐར་པའི་སྒོ་གསུམ་	-10.9252
སེམས་ཅན་གྱི་ཁམས་	-10.9254
་ཤི་	-10.9255
ཤེས་ཡོན་ཡར་རྒྱས་	-10.9255
གྲགས་པའི་	-10.9257
སེམས་ཅན་དེ་དག་གི	-10.9258
དགོན	-10.926
སྙོམས་པར་འཇུག་པ	-10.9261
གང་གིས་ཀྱང་	-10.9262
ཐ་མ	-10.9264
▁རིན་ཆེན་	-10.9266
ཐམས་ཅད་ལ་ཡང་	-10.9266
ཁག་གཅིག་བཅས་	-10.9269
དེ་ཡིན	-10.9269
་མ་ཧ་	-10.9269
གངས་ཅན་	-10.9272
མངོན་པར་འབྱུང་བ	-10.9272
དང་ལྡན་་	-10.9273
འཕེལ་མཆོག་གིས་	-10.9276
གི་བར་དུ་	-10.9277
སུ་ནི་	-10.9277
ཕྱི་ཚེས་གྱི་	-10.9277
སྙན་སེང་	-10.9278
ཅན	-10.928
བཙན་བྱོལ་དུ་ཕེབས	-10.928
ཕུང་པོའི་	-10.9285
▁དེ་ནས་རིམ་བཞིན་	-10.9285
ནོར་རྒྱས་གླིང་	-10.9286
ལྷ་མོ་སྒྱུ་འཕྲུ	-10.9286
རྫུན་	-10.9286
འདས་པའི་ལོ་	-10.9288
དགུའི་	-10.929
མི་ཟད་པ་	-10.9292
ཤེས་པ་དེ་	-10.9294
▁དེ་ཡང་དཔལ་ལྡན་	-10.9296
ངལ་	-10.9297
▁བཀའ་ཤག་གི་	-10.9298
བྱས་རྐྱེན་	-10.9298
སྨོན་འདུན་ཤུགས་	-10.9299
ཚིགས་སུ་བཅད་པ	-10.93
▁ཕལ་ཆེར་	-10.93
ལ་ཕན་པའི་	-10.9301
སློབ་མ་རྣམས་ལ་	-10.9302
དེད་དཔོན་ཆེན་པོ་	-10.9303
ཚད་མ་རིག་པ་དང་	-10.9306
འགལ་བ་	-10.9308
བའི་ནང་	-10.9309
ཨོ	-10.931
དྲུག་པོ་	-10.9311
བཀོད་ནས་	-10.9311
རྒྱབ་གཉེར་	-10.9312
སྐྱེ་བ་མེད་	-10.9313
ཤེས་པའོ་་	-10.9314
བཀྲིས་	-10.9314
མངོན་པར་བསྒྲུབ་པ	-10.9314
འཚམས་འདྲི་དང་	-10.9314
དེ་བཞིན་གཤེགས་	-10.9315
བཅས་པའི་	-10.9316
ལ་རྣམ་པར་	-10.932
ྐ	-10.9321
སྦྱངས་པ་	-10.9322
▁ཞེས་པ་	-10.9322
མང་ཚོགས་ཀྱིས་	-10.9324
བསྒྲུབ་རྒྱུ	-10.9324
ཐོགས་པ་མེད་པའི་	-10.9325
ལས་མི་	-10.9325
▁དེ་སྐད་ཅེས་	-10.9327
ཊེ	-10.9327
སྨོན་པ་མེད་	-10.9328
མུར	-10.9331
ཡོན་ཏན་གྱི་ཚོགས་	-10.9334
རྒྱུ་ཡོད་པ་	-10.9334
ཀུན་ཏུ་རྒྱུ་	-10.9335
ང་རོ་	-10.9336
འཚེ་བའི་	-10.9338
བྲག་ཅ་	-10.9338
་ཞིང་བདག་ཉིད་	-10.934
བརྟེན་ནས་	-10.9342
ཐོབ	-10.9344
གཅེས་འཛིན་	-10.9344
པར་རིག་པར་བྱའོ་་	-10.9344
བཞི་པོ་དེ་དག་	-10.9345
འཛིན་མཁན་	-10.935
་མེད་་	-10.9351
པ་འདི་ནི་	-10.9351
ནི་འཛམ་གླིང་ནང་	-10.9352
▁ཁོང་ཚོ་	-10.9353
རྣམ་པར་གནོན་	-10.9355
▁ཚང་མས་	-10.9355
རྔ་རོལ་དང་བཅས་	-10.9355
དབྱི་སི་ལན་	-10.9355
གྲུལ་བུམ་	-10.9355
མེད་ཕྱི་རོལ་ན	-10.9356
བླ་མེད་དུ་ཆེ་	-10.9356
བསམ་ཡུལ་ལས་འདས་པ	-10.9356
དུས་ན་	-10.9356
ཐེ་བའི་	-10.9357
ཅུང་	-10.9357
སྣོད་བཅུད་	-10.9357
འཇིགས་སྐུལ་	-10.9358
ཐོས་མ་ཐག་ཏུ་	-10.9358
ཞིག་འདུག	-10.9358
ནི་ཤིན་ཏུ་	-10.9359
སེམས་གསོ་	-10.9359
ཤིང་རྟའི་	-10.936
ཇི་སྐད་	-10.9361
ཁྲེ	-10.9362
ལས་ཡང་དག་པར་འདའ་	-10.9362
ཡུལ་གྲུ་ཁག་གི་	-10.9362
རིག་གནས་གསར་བརྗེ	-10.9364
གསོལ་ཇ་འབྲས་སིལ་	-10.9366
ས་ཤིང་དོན་	-10.9366
ངས་བོད་མིའི་	-10.9366
འདིས་བདག་	-10.9367
རྡུལ་བྲལ་	-10.9368
་ཊོན་	-10.9368
དཔེ་ཟུར་དབང་འདུ	-10.9369
སྔོན་མའི་	-10.9369
རྣམས་ལའང་	-10.9371
པར་བགྱི་་	-10.9372
གདོད་	-10.9372
མ་བུ་	-10.9373
ཕྱུག་པོ་	-10.9373
སྐལ་བཟང་རྒྱ་མཚོ་	-10.9374
སྲིད་འཛིན་གཞོན་པ	-10.9375
རྟོགས་པའི་	-10.9376
ཁུངས་ལྡན་	-10.9376
མ་འོངས་པ་དང་་	-10.9377
བཟང་མོ་	-10.9378
ཡངས་པའི་	-10.9378
་རོ་དང་་རེག་	-10.9382
་རྣམས་ཡིན་ནོ་	-10.9382
དེའི་ནང་ནས་	-10.9382
འབྲང་	-10.9384
ཇོ་ནང་	-10.9384
མེལ་སྦོན་	-10.9389
སྤྱོད་་	-10.9389
པདྨ་འབྱུང་གནས་	-10.9389
གང་རུང་	-10.9389
རིང་མིན་	-10.9391
ཞོན་ཨཅརྱ་ཡེ་ཤེས	-10.9395
རྨང་གཞི་	-10.9399
རིག་པ་དང་་	-10.94
བ་དང་འབྲེལ་	-10.9405
འི་རང་སྐྱོང་	-10.9407
འབྱོར་སྐབས་	-10.9408
རྒྱུ་འདི་	-10.941
ཁྲིད་ནས་	-10.9411
ཙེ	-10.9412
གདུག་པ	-10.9413
དེའི་ལུས་	-10.9413
འདྲ་པོ་	-10.9414
་དེ་དག་གི་	-10.9416
བསྡུ་བ	-10.9417
ཀྱི་གནད་དོན་ཐོག་	-10.9417
ཀུན་ཆུབ་པར་བྱེད་	-10.9418
དེ་གཉིས་ཀྱི་	-10.9418
དང་་་དེ་བཞིན་	-10.9418
སྣ་ཚོགས་ཀྱི་	-10.9419
▁བདག་ཅག་ནི་	-10.9419
བསླང	-10.942
ཞུ་བར་	-10.9422
ཟེར་བ	-10.9423
ཚད་མཐོའི་	-10.9423
ཇེ་སྡུག་ཏུ་འགྲོ་	-10.9424
ཆོས་ཀུན་	-10.9426
▁རྒྱལ་	-10.9426
དྲ་རྒྱའི་	-10.9426
མ་ཡིན་ཞིང་་	-10.9426
སྒྲེང་འཛུགས་	-10.9427
འི་ལྷ་	-10.9428
▁རྒྱ་ནག་དམར་ཤོག་	-10.9429
རྒྱ་གར་གཞུང་ལ་	-10.943
རྨིས་	-10.9431
བགྱི་་	-10.9432
འདུག་གམ	-10.9433
བོད་ཀྱི་ལོ་རྒྱུས	-10.9434
གཞི་རྒྱ་ཆེ་བའི་	-10.9434
སློབ་གཉེར་ཁང་དུ་	-10.9435
འཁྲུག་པ	-10.9435
▁དེ་བས་	-10.9436
གནས་ཚུལ་དེ་	-10.9436
ཝིན་	-10.9437
ཀློ	-10.9437
ཟེར་བ་ནི་	-10.944
▁དོན་ཚན་	-10.9442
བོད་ནང་གི་དངོས་	-10.9443
སྙམ་མོ་	-10.9443
▁ཕ་རན་སི	-10.9443
སྙན་ཞུ་	-10.9443
་པ་གསལ་པོ་རེད	-10.9445
བསམ་གཏན་གླིང་	-10.9446
ཡོད་པ་ཞིག་དང་	-10.9446
འདུག་ཅིང་	-10.9447
ངས་པ་ལྟ་བུར་	-10.9447
ཆུང་མ་ལ་བུ་ཆགས་	-10.9448
▁བདག་གིས་ཀྱང་	-10.9449
མཚན་མ་མེད་	-10.9449
འདུགལྷག་པར་	-10.945
ཤུགས་ཆེ་གནང་ཡོད	-10.9451
སྒྲ་བྱུང་ངོ་་	-10.9451
དུ་བཙན་བྱོལ་ལ་	-10.9451
གོ་སྒྲིག་གནང་ཡོད	-10.9453
མྱངས་དང་མྱོང་	-10.9455
ཨ་སྒོར་	-10.9455
གྱི་བླ་སྤྲུལ་	-10.9461
ཚེས་གཟའ་ཟླ་བ	-10.9461
ཟམ་གདོང་རིན་པོ་	-10.9462
ཞྭ་	-10.9462
རྡ་ས་བོད་ཀྱི་	-10.9464
ང་རང་ཚོས་	-10.9465
▁སྟོང་པ་ཉིད་	-10.9466
བཀག་སྡོམ་	-10.9467
ར་གྱུར་་	-10.9468
▁སུ་ལ་	-10.9469
འགྲོ་བ་ལྔ	-10.9471
མངོན་པར་ཤེས་པས་	-10.9472
བ་བཅས་	-10.9472
ཞེས་པའི་དཔེ་དེབ་	-10.9472
མཐུན་འགྱུར་འོག་	-10.9473
བྱ་རྒྱུ་ཧ་ཅང་	-10.9473
བར་བྱེད་་	-10.9474
▁རྒྱུ་གང་	-10.9475
ཅིག་ཤོས་	-10.9476
བྱོས་	-10.9478
འབངས་	-10.9479
▁བརྩོན་འགྲུས་	-10.948
སྤྱོད་དང་	-10.948
དམིགས་ཏེ་	-10.948
མཐོང་གྲོལ་	-10.9481
བསམ་གཏན་བཞི་པ	-10.9481
▁ཙན་དན་སྦ	-10.9481
ཡུན་རིང་པོ་ནས་	-10.9481
▁ཚོར་བ	-10.9484
ཡང་དག་པར་བསྟན་	-10.9484
ཞུས་གནང་ཡོད	-10.9486
སིལ་	-10.9486
དང་མ་བྲལ་བ	-10.9487
གྱི་སྒོ་ནས་	-10.9487
▁མི་ཡི་	-10.9488
་ཅེས་བརྗོད་	-10.9489
ཕྱིན་པ་དང་་	-10.9489
ན་བ	-10.9492
རྡ་རམ་ས་ལའི་	-10.9492
ངོས་འཛིན་གྱིས་	-10.9492
ཚད་མ	-10.9494
དེ་སྐད་ཅེས་	-10.9498
ཚོགས་པ་ཁག་གི་	-10.9499
སྐུ་ཚབ་དང་ལྷན་	-10.95
རྒྱལ་ཁབ་ཁ་བྲལ་	-10.95
དཀའ་ལས་	-10.9502
མགོ	-10.9502
མེ་ཏོག་གི་ཆར་	-10.9504
སོ་སོ་རང་ཉིད་	-10.9504
▁སྦེལ་ཇམ་	-10.9504
འི་ར	-10.9505
ཡིད་གཟབ་	-10.9505
པོ་དག་	-10.9506
པར་གྱུར་ལ་	-10.9508
▁ལྷ་དང་མི་	-10.9509
འདྲ་བའི་	-10.951
འཐུས་མིའི་	-10.951
རང་ངོས་ནས་	-10.9512
ྱང་ཆུབ་ཀྱི་ཡན་ལག	-10.9512
འདི་དག་གི་	-10.9513
སརྦ་	-10.9513
ར་གྱུར་ལ་	-10.9514
ཤེས་ཀྱི་མེད	-10.9514
འཁྲུངས་སྐར་གྱི་	-10.9516
ཕྲུག་	-10.9517
དག་གིས་ཀྱང་	-10.9521
མིན་པའི་ཚོགས་པ་	-10.9521
་ཆོས་འདི་	-10.9522
རྗེ་བཀའ་དྲིན་	-10.9522
སྲོང་ལྡེའུ་བཙན་	-10.9522
མ་ཟད་	-10.9522
ཇི་སྲིད་དུ་	-10.9522
བྱས་ནས་བསྡད་	-10.9525
ལངས་ནས་	-10.9527
རྒྱ་ནག་མི་མང་	-10.953
བཀའ་སྩལ་པ་དང་་	-10.9534
སྐུ་ཞབས་ཁོང་	-10.9536
དེས	-10.9536
ཏིང་འཛིན་འདི་ནི་	-10.9537
ལྔ་ཙམ་	-10.9539
དཔང་རྟགས་	-10.954
ལ་བརྩི་བཀུར་	-10.954
ཐིགས་པ་	-10.9541
▁སྣང་བ་བྱ	-10.9542
ཉིས་	-10.9543
སོང་བ་དང་	-10.9544
▁དཔའ་བོ་	-10.9544
་ཊ	-10.9545
མཆོད་པའི་	-10.9545
ཐོབ་པར་གྱུར་ཏོ་་	-10.9546
གདུག་པ་	-10.9547
སྤྱི་ཁྱབ་དྲུང་ཆེ	-10.9547
པར་བྱེད་པའི་	-10.9548
འཁྲུ་	-10.9549
བར་གྱུར་ཏེ་	-10.9549
གང་ལས་	-10.9549
ཞིང་གཤེགས་	-10.955
མཇུག་ཏུ་	-10.9553
ྤ	-10.9555
ཆོ་ག	-10.9555
བསྡུས་ནས་	-10.9556
ྒྱལ་པོའི་ཕོ་བྲང་	-10.9559
་ནས་དབང་བསྐུར་བ	-10.956
བཀོད་སྒྲིག་	-10.956
ཡུ	-10.956
འཇམ་མགོན་བླ་མ	-10.956
་ཞེས་བརྗོད་པ་དང་	-10.956
ང་ཚོ་བོད་མི་	-10.9564
▁ནམ་རྒྱུན་	-10.9566
འཐོབ་བོ་	-10.9566
ཁྱེད་གཉིས་	-10.9567
དབང་བསྐུར་བ་	-10.957
ཕ་རོལ་ཕྱིན་	-10.957
ལྗང་	-10.9571
ཉལ་བ་	-10.9571
རིགས་གཅིག་	-10.9572
ཡོངས་སུ་སྨིན་པ	-10.9574
ལོ་དྲུག་	-10.9578
བཟོས་ནས་	-10.9578
སྲིད་བྱུས	-10.9581
མཐོ་རིས་དང་ཐར་པ	-10.9582
ཐམས་ཅད་བསྡུས་པ	-10.9582
ཨེམ་	-10.9583
འབྲོ	-10.9583
སྒྲོགས་པ་	-10.9585
སློག་	-10.9585
▁ལྷག་པར་ཕྱི་ལོ་	-10.9586
གཟའ་	-10.9588
▁བྱས་ཙང་	-10.9588
མ་ཡིན་པ་བཟློག་ལ་	-10.9588
རིང་པོར་མི་ཐོགས་	-10.9588
ཉེ་བའི་རིགས་བདག་	-10.9588
་གནས་སྦྱིན་པར་བྱ	-10.9588
རྒྱ་ནག་སྐམ་ས་	-10.9588
སྐུ་གསུང་ཐུགས་	-10.9588
ཡང་ཇི་སྐད་	-10.9588
འགུལ་བརྙན་	-10.9588
བརྒྱ་རྩ་བརྒྱད་	-10.9589
རྣམས་ལ་སྨྲས་པ་	-10.9589
དཔེར་ན་རྨི་ལམ་ན་	-10.9589
ག་པ་	-10.9589
མེད་པ་ནི་	-10.9589
བཞེས་མྱོང་མཁན་	-10.959
་བླ་བྲང་འཕགས་པ་	-10.959
ཤུགས་ཆེར་	-10.9591
ཐོ་གཞུང་	-10.9591
འཐོབ་པར་འགྱུར་བ་	-10.9591
འདི་ལྟ་བུར་	-10.9592
▁ཕྱི་ལོ་དཔལ་ལྡན་	-10.9592
▁སྲིད་པ་	-10.9592
རྒྱ་དམར་གྱིས་	-10.9594
ཊོ	-10.9596
བདེ་སྐྱིད་ཀྱི་	-10.9597
ཐད་དུ་	-10.9597
པར་མཛད་པ་	-10.9598
ཚང་མ་སྐུ་བཞེངས་	-10.9599
རྣམ་པར་འཇིག་པ	-10.9599
ལེགས་སོ་ཞེས་	-10.9599
ར་བྱ་བའི་དོན་དུ་	-10.9604
ཆིག་སྒྲིལ་གྱི་	-10.9605
གསེ	-10.9607
འདོན་གནང་མཛད་	-10.9607
ཁམས་རྣམས་	-10.9608
ེ་རབས་ནས་ཚེ་རབས་	-10.9608
ཆོས་སྒྲོན་ལགས་	-10.9609
སེམས་ཅན་ཀུན་གྱི་	-10.961
ངོས་འཛིན་དང་	-10.961
སེམས་ལ་ཞི་བདེ་	-10.9611
བཤགས་	-10.9611
བོད་དོན་ཞུ་གཏུག་	-10.9617
གཡེ	-10.9619
གཉིས་པ་ནི་	-10.9619
ྱེད་ཀྱི་ཚལ་	-10.962
ཧ་ཅང་དགའ་པོ་	-10.962
རྣམ་པར་སྤྲོས་པ	-10.962
▁ཇི་ཙམ་ན་	-10.9621
བསྟེན་པ་	-10.9621
ཕྱིན་པ་དང་	-10.9623
ལས་བྱེད་འདེམས་	-10.9623
གས་ཏེ་	-10.9624
འཁོར་བ་འཇིག་	-10.9627
▁ཚོགས་པ་	-10.9627
▁ལ་ལ་ནི་	-10.9627
མ་མཆིས་པ་ལགས་སོ་	-10.963
ཚན་པས་	-10.963
སོན་པའི་	-10.9631
སུམ་	-10.9633
འབྱུང་ཞིང་	-10.9634
སྡིངས་ཆའི་སྟེང་	-10.9634
ཡར་རྒྱས་བཏང་	-10.9635
ཚོགས་འདུ་འཚོགས་	-10.9636
ཀྱིས་དགེ་སློང་	-10.9636
བོད་ཀྱི་བླ་ན་མ	-10.9638
འི་སྟེང་	-10.9638
མེད་ཅེས་	-10.964
གཉིས་པའི་	-10.9644
དགྲ་བཅོམ་པ	-10.9644
བྱེད་བཞིན་འདུག	-10.9644
དང་བྲལ་བའི་	-10.9647
ཙོང་	-10.9649
མི་སྐྲག་	-10.965
ད་ལོ་	-10.9652
མནར་མེད་	-10.9652
མགོ་སྐོར་	-10.9653
མོས་པ་སྣ་ཚོགས་	-10.9654
པ་ལིའི་གཞུང་	-10.9658
ཡུལ	-10.9662
ཡི་དགས་ཀྱི་	-10.9662
གླང་པོ་ཆེ	-10.9663
འཐུན་པ་	-10.9666
གནང་གཏན་འཁེལ་	-10.9667
མཛད་གཙོ་རྣམ་པས་	-10.9669
ལས་བྱས་པ་	-10.9669
ཧ་ཅང་བློ་ཕམ་	-10.9672
རྒྱ་ཆེ་མང་ཚོགས་	-10.9675
གྱུར་ཅིང་	-10.9678
འགྲོ་སོང་	-10.9682
སོ་སོའི་ངོས་ནས་	-10.9682
ཀིརྟི་	-10.9683
བརྗོད་བྱུང་	-10.9683
ཨེན་	-10.9684
▁ཕ་མ་	-10.9685
▁སང་ཉིན་	-10.9686
གཉི་ག་	-10.9686
མ་དགོན་	-10.9687
སྐོང་	-10.9687
དགོས་པ་གལ་ཆེ	-10.9688
མ་བྷ	-10.9689
མེད་པ་སྟེ་	-10.9689
▁ཕྱི་ཚེས་གྱི་	-10.9689
བཀའ་སློབ་བསྩལ་	-10.9691
ཕྱི་ལོ་གྱི་	-10.9692
མུ་སྟེགས་	-10.9692
དཔལ་ལྡན་ཚོགས་ག	-10.9693
▁དགེ་འདུན་	-10.9693
བྱང་ཆུབ་མཆོག་	-10.9694
▁དེར་བརྟེན	-10.9696
ཀྱི་གནས་ཚུལ་	-10.9697
▁དངོས་ཡོད་	-10.9697
སྣང་གསལ་	-10.9699
་དོན་ལྟར་	-10.97
རྫོགས་པར་བྱས་ཏེ་	-10.97
ལེན་པ་མེད་པ	-10.97
མ་ཤེས་	-10.9701
▁དམ་པ་ཁོང་	-10.9703
▁ནད་ཡམས་	-10.9703
བོད་པ་ཚོས་	-10.9706
ཞབས་འདེགས་བསྒྲུབ	-10.9706
ཐབས་མཁས་	-10.9706
ཅི་ཡང་མི་	-10.9707
གནང་གི་ཡོད་པ་	-10.9707
མཇལ་དར་དང་	-10.9707
ཐོབ་པར་འགྱུར་	-10.9707
བྲེ	-10.9707
ཚ་བའི་	-10.9708
རི་དགས་ཀྱི་	-10.9709
སྲིད་བློན་ཟུར་པ་	-10.971
▁འདི་ག་	-10.9714
ཉིས་བརྒྱ་	-10.9716
ར་གྱུར་པ་ལ་	-10.9716
བེད་སྤྱོད་བྱེད་	-10.9718
གསོན་པོར་གནས་	-10.972
པ་དེ་འདྲ་	-10.972
སོ་སོའི་སྐྱེ་བོ	-10.9721
ཤེས་ཡོན་སློབ་གསོ	-10.9725
གཟའ་ལྷག་པ་ཉིན་	-10.9726
སྤེལ་རྒྱུའི་	-10.9726
ལ་བཀོད་	-10.9726
ཟོང་	-10.9726
གི་ཐོབ་ཐང་	-10.9726
ནད་ཐམས་ཅད་	-10.9729
ཕྱི་ཟླ་ནང་	-10.9729
སྲུང་སྐྱོབ་དང་	-10.973
ཡོ	-10.973
བཅུའི་དུས་དྲན་	-10.9731
བོད་མི་ཚང་མས་	-10.9731
▁ཞེས་སོགས་གསུངས	-10.9731
མདུན་ཐང་དུ་	-10.9731
ན་འདུག་	-10.9733
ཡང་རུང་	-10.9735
བ་རྣམས་ཀྱིས་	-10.9735
ཡིད་དུ་འོང་བའི་	-10.9736
དགེ་བཙུན་	-10.9737
དཔེ	-10.974
▁ཐུབ་པ་	-10.9741
འཛ	-10.9741
ཉུང་ངུ་	-10.9742
གནང་མཛད	-10.9743
ལྷའི་ནང་དུ་	-10.9743
ཆེད་ཕེབས་	-10.9744
ལ་གནོད་པ་	-10.9744
ཉིན་གྲངས་གསུམ་	-10.9745
གང་དག་ཡིན་པ་དེ་ད	-10.9745
ཟིལ་གྱིས་མནན་ནས་	-10.9745
པར་བྱེད་ཅིང་	-10.9746
ཤུགས་ཆེ་བ་	-10.9746
བདེ་བས་	-10.9747
རྒྱལ་པོ་དེའི་	-10.9748
གནས་ཚུལ་ཞིག་	-10.9749
ཞིང་གི་	-10.9755
རྣམ་པར་མི་རྟོག་པ	-10.9755
བ་ལས་	-10.9755
མངའ་ཁོངས་	-10.9755
བསྒྲལ་	-10.9756
ཝ་ཤིང་ཊོན་	-10.976
ལྷམ་	-10.976
ཤིག་ཅེས་	-10.9761
རྒྱུ་དེ་རེད	-10.9765
ལས་ཐོག་	-10.9765
་བ་དང་་	-10.9767
བརྗོད་པར་	-10.9768
སློབ་སྦྱོང་གི་	-10.9769
རྣམ་པར་བྱང་བའི་	-10.9775
▁འོན་ཏེ་	-10.9778
ཆེན་པོ་དེ་	-10.9779
མ་སྐུ་མཆོག་གིས་	-10.978
རྒྱ་ཆེ་མི་མང་	-10.978
རྡོ་རྗེ	-10.9781
རྒྱ་མཚོ	-10.9781
ཕྱིན་པ་ཡིན	-10.9782
ཤལ་	-10.9782
བྱེད་ཅེ་ན་	-10.9783
་དང་ལྡན་པ་	-10.9784
ཡར་རྒྱས་དང་	-10.9784
སྣོན་	-10.9784
བསྟན་འཕེལ་མཆོག་	-10.9786
དཔེ་མཛོད་ཁང་	-10.9788
ལ་རབ་ཏུ་གནས་	-10.9788
▁གཉིས་ནས་	-10.9788
ད་བར་བོད་དོན་	-10.9791
▁མཐའ་དོན	-10.9791
འཇིགས་པ་མེད་པ	-10.9794
དཔལ་ཡོན་	-10.9794
གཟིམས་	-10.9795
ཀྱི་ལམ་ནས་	-10.9795
ཆོལ་ཁ་གསུམ་	-10.9796
གི་ཚོགས་མི་	-10.9798
དམ་བསྒྲགས་བྱེད་	-10.9798
རྒྱག་མཁན་	-10.9798
སྦྱར་ནས་	-10.9799
སློང་བ་	-10.98
ཞེ་སྡང་དང་	-10.98
ཐབས་བྲལ	-10.9801
བློ་སྐྱེས་པ་	-10.9801
བརྗོད་ན་	-10.9801
སྐྱེ་མཆེད་རྣམས་	-10.9801
མཛད་འགན་	-10.9801
སྐད་ཡིག་དང་	-10.9802
ཤར་ཕྱོགས་ཀྱི་	-10.9806
▁སུ་དག་	-10.981
བྱེད་རྒྱུ་ནི་	-10.9811
ཐབས་སྐོར་	-10.9811
བསྒྲུབས་ཏེ་གནས་	-10.9813
་བྱམས་པས་	-10.9814
དང་་ཚོར་བ	-10.9814
ཇུ	-10.9816
▁བདེ་སྲུང་	-10.9817
ཀརྨ་ཡེ་ཤེས་མཆོག	-10.9817
བྱོལ་	-10.9817
གནས་ལ་	-10.9817
གཙོ་ཆེ་ཤོས་	-10.9822
འགྲོ་བ་དང་་	-10.9824
རབ་བཟང་	-10.9825
ཆོས་གང་ལ་ཡང་	-10.9826
གཏེར་ཁ་སྔོག་འདོན	-10.9827
སྔ་ལྟས་	-10.9827
མེས་པོ་དམ་པ་	-10.9827
བཀའ་ཕེབས་	-10.983
ཚོང་འདུས་	-10.983
འདུ་འཛོམས་ཀྱིས་	-10.983
ན་ཀ	-10.983
རྒྱལ་བས་	-10.983
མི་དབང་	-10.9831
མཛད་ཁུར་	-10.9832
བརྐྱང་	-10.9832
ཁོར་ཡུག	-10.9834
ྦྱིན་པ་དག་སྦྱིན་	-10.9834
སྙིང་བཅངས་	-10.9835
▁སངས་རྒྱས་དང་	-10.9837
བར་བྱ་བའི་ཕྱིར་	-10.9839
ལ་མ་ཆགས་	-10.984
མདངས་	-10.9841
གཏན་ལ་ཕབ་	-10.9841
རྡ	-10.9842
▁སྐྱེ་བོ་	-10.9842
སྤུར་	-10.9844
ཤེས་བཞིན་དུ་	-10.9844
གསར་རྒྱག་	-10.9845
བཞི་དང་་	-10.9845
རང་སྐྱོང་གི་	-10.9845
སློབ་མ་ཚོས་	-10.9848
བྱས་པ་དེས་	-10.9848
ཡར་ལངས་	-10.9849
ཞུ་དགོས་པའི་	-10.985
ཚེ་རིང་ལགས་དང་	-10.985
་བསམ་གཏན་	-10.9851
པར་ཐུགས་རྗེ་ཆེ་	-10.9852
དགེ་བཤེས་མ་	-10.9852
ར་མཐུན་རྐྱེན་སྦྱ	-10.9853
ཏྲ	-10.9853
མྱ་ངན་ལས་འདས་སོ་	-10.9856
མི་བགྱིད་	-10.9856
མི་རབས་རྒན་པ་	-10.9856
གསལ་སྟོན་	-10.9857
འི་ཚོགས་པ་ཁག་གི་	-10.9857
ཡང་ཡོད་	-10.9858
བྱ་བ་ནི་	-10.9858
ཞུ་དགོས་པ	-10.986
བསྒྲུབས་ཏེ་གནས་པ	-10.986
གནས་དང་	-10.9863
གཅོད་པ་	-10.9864
འཇིག་རྟེན་གསུམ་	-10.9865
དགའ་བོ་	-10.9866
ལ་དམིགས་བསལ་	-10.9866
དྲུང་ན་	-10.9867
་ལགས་ཀྱིས་	-10.9867
ཡོད་པ་དེས་	-10.9867
ཁག་གི་ནང་དུ་	-10.9868
ར་བྱེད་པའི་	-10.9868
བྱས་པ་དེས་ན་	-10.987
▁ལྟ་གྲུབ་	-10.987
རང་བཙན་ཐོབ་	-10.987
ལམ	-10.9871
དམའ་ན་	-10.9875
ནས་དེས་	-10.9877
རྗེས་དྲན་ཞུ་	-10.9879
ཁང་ནས་བཏང་གན	-10.9879
ཆོས་སྨྲ་	-10.988
ས་གནས་སོ་སོའི་	-10.9882
ཡན་ལག་བརྒྱད་	-10.9885
▁རྒྱ་ནག་གཞུང་ལ་	-10.9885
སྤྱད་དེ་	-10.9887
དྲང་པོར་	-10.9887
འི་ཚིག་གིས་	-10.9887
ཝང་	-10.9887
རབ་ཏུ་མཁྱེན་ཏེ	-10.9888
▁སློབ་གྲྭ	-10.9889
མ་ཡིན་ནམ་	-10.9889
སྐྱབས་གནས་	-10.989
སྨིག་རྒྱུ་	-10.9891
ཤུགས་ཆེ་གནང་མཁན་	-10.9895
བཀའ་མོལ་གནང་	-10.9896
པར་ཤོག་	-10.9896
བྱང་བར་གྱུར་ཏོ་	-10.9897
མཆན	-10.99
བརྒལ་	-10.9902
དུ་བཅུག་ནས་	-10.9905
བྱུང་ཡོད་པ་དང་	-10.9906
ཤེས་ཀྱི་	-10.9906
་ཅེས་གསུངས་	-10.9907
▁ནད་པ་	-10.9908
གནང་བཞིན་པ་	-10.9909
གཏོང་དགོས་པའི་	-10.991
མི་གཙང་བ་	-10.991
ཕྱིར་ཞིང་	-10.991
མི་བྱ་་	-10.991
གནས་སྡོད་བོད་མི་	-10.9911
སློབ་གསོའི་	-10.9914
▁འཇིག་རྟེན་གྱི་	-10.9914
སྐོར་སོགས་གསུངས	-10.9914
སྐབས་ཀྱི་	-10.9915
རྗེད་	-10.9916
ལ་གཞི་མེད་དོ་	-10.9916
རིན་མེད་	-10.9918
འཛམ་གླིང་ཐོག་	-10.992
སློབ་གཉེར་བྱེད་	-10.992
བསླེབ་	-10.9921
ལྟུང་བ	-10.9921
འུ	-10.9921
འཆད་པ་	-10.9921
ལོ་འཁོར་སྙན་ཐོ	-10.9922
ལོ་གསུམ་	-10.9923
མཐུན་སྒྲིལ	-10.9924
དགའ་བར་གྱུར་ནས་	-10.9924
དེ་དེ་དང་	-10.9925
བ་ལ་	-10.9926
འི་ཁྲོད་	-10.9927
འི་སྐབས་སུ་	-10.9927
ཨ་རི	-10.9928
གསན་གཟིགས་གནང་	-10.9928
ཚོགས་དྲུང་	-10.9928
ཆོས་ཕྱོགས་	-10.9928
སྨན་ཁང་དུ་	-10.9929
ལྷ་ལྡན་	-10.9931
ཡིད་ནི་	-10.9932
ཡུན་རིང་ནས་	-10.9932
ཆགས་རྒྱུ་རེད	-10.9934
འདི་བཤད་པ་ན་	-10.9936
ཟིལ་གྱིས་གནོན་པ	-10.9937
བདེ་བའི་ཡོ་བྱད་	-10.9937
ཚོགས་འདུ	-10.9938
▁རབ་འབྱོར་གལ་ཏེ་	-10.9938
་དཔའ་བོ་	-10.9939
ར་ངོས་འཛིན་	-10.9942
གཉིས་སུ་མེད་པར་	-10.9945
གཏོང་སྟངས་	-10.9946
་རྒྱུན་དུ་ཞུགས་པ	-10.9948
སློབ་གྲྭ་ནས་	-10.9949
པོ་མཆོག་རྒྱ་གར་	-10.9949
འཚང་རྒྱ་	-10.995
ངོས་རང་རྒྱ་གར་	-10.9951
རླུང་འཕྲིན་ཁང་	-10.9952
་བར་འདོད་པས་	-10.9953
ཡིན་ནམ	-10.9957
▁བདེ་གཤེགས་	-10.9959
ཨ་ན	-10.9961
བྱ་བ་ལམ་ལྷོངས་	-10.9963
བཞེས	-10.9964
མི་མཁས་	-10.9965
▁དེ་སྔ་ཡིན་ན་	-10.9966
མཆོད་པ་བྱས་	-10.9966
ྒྱལ་རིགས་སྤྱི་བོ	-10.9966
ཁྲིམས་མཐུན་གྱི་	-10.9968
མུ་མཐུད་གནང་	-10.9968
ལྟར་ན་	-10.9969
འགྱུར་རོ་	-10.9969
ཀྱི་གོ་སྐབས་	-10.9969
མི་མང་བཅས་	-10.997
▁གང་ཟག་	-10.997
མི་ལྡོག་	-10.9973
བྱང་ཆུབ་ཀྱི་ལམ་	-10.9973
འཆི་འཕོ་	-10.9973
འདུན་དང་བཅས་པ་	-10.9973
གསལ	-10.9974
ཤེད་	-10.9975
མཛེས་པར་	-10.9975
ཕེབས་པའི་སྐུའི་	-10.9978
འཕགས་པའི་ཡུལ་	-10.9979
བཅུའི་	-10.998
འཚེ་བ་མེད་པ་དང་	-10.998
བདག་པོ་ཚངས་པ་	-10.9981
བློན་ཆེན་མཆོག་ལ་	-10.9982
ཆུར་	-10.9984
སྐུ་ཞབས་མཆོག་དང་	-10.9984
བྷུ་	-10.9985
མཚོན་སླད་	-10.9985
འཁྲུལ་པ་	-10.9987
ལས་ཀྱིས་	-10.9988
འགྱུར	-10.999
ལོ་སྟོང་ཕྲག་	-10.9991
ལམ་གྱིས་	-10.9991
མས་མི་མཇེད་འདིར་	-10.9993
བཞིན་ཡོད་པས	-10.9997
བཞུགས་ནས་	-10.9999
བཤད་གྲྭ་	-11.0001
སོགས་གསུངས	-11.0001
གཟུགས་མེད་པ་	-11.0003
བསླངས་	-11.0007
▁བར་སྐབས་	-11.0007
རྒྱལ་བསྟན་ཡོངས་	-11.0007
བཞིན་པ་དེ་	-11.0008
མཆོགགྲོས་ཚོགས་	-11.0011
ར་མི་བགྱིད་	-11.0013
རྐང་གཉིས་	-11.0014
ཀྱི་ཡོད་པ་དང་	-11.0015
་རི་ཡ	-11.0015
བརྗོད་པ་ལྟར་	-11.0015
དབང་ཕྱུག་གི་	-11.0015
ཀླུའི་	-11.0016
ཏོག་དབྱིབས་ནད་	-11.0016
སྐུ་ཞབས་མཆོག་	-11.0018
འདྲ་མིན་ནང་	-11.0019
མི་སྣ	-11.0023
སྟོན་ཏེ་	-11.0023
▁ཐོས་ནས་ཀྱང་	-11.0024
དགོས་མིན་	-11.0025
ཡ་རབས་	-11.0027
དབང་སྒྱུར་བྱས་	-11.0028
རྒྱ་ནག་མི་དམངས་	-11.0028
ཐུགས་རྗེ་ཆེ་ཟེར་	-11.0028
བསྙེན་བཀུར་བྱེད་	-11.0028
ངོ་སྤྲོད	-11.003
མཐུན་ཚོགས་ཀྱིས་	-11.003
བརྒྱ་ཙམ་	-11.003
ཡང་དག་བ	-11.0036
ལེ་ལོ་	-11.0036
བུ་དང་	-11.0036
པའི་སྲིད་བྱུས་	-11.0037
ནོར་བུ་ལགས་ཀྱིས་	-11.0038
འཇིག་རྟེན་གྱིས་	-11.0038
▁དེ་བཞིན་བོད་	-11.004
ཐམས་ཅད་ཀྱིས་ཀྱང་	-11.004
ནང་པའི་ཚན་རིག	-11.0041
▁བོད་པ་	-11.0043
མི་དགེ་བའི་ལས་	-11.0043
ས་གནས་ཁག་གི་	-11.0045
མེ་འཁོར་	-11.0045
སེམས་ཅན་རྣམས་ནི་	-11.0045
གྲིབ་	-11.0051
ང་ཚོའི་ངོས་ནས་	-11.0052
བདག་པོ་རྒྱག་	-11.0059
▁དེ་ནས་དེ་དག་	-11.006
ཡོན་གནས་	-11.0062
དགེ་བའི་རྩ་བའི་	-11.0064
འགྲོ་ལམ་	-11.0064
འཐོབ་སྟེ་	-11.0065
ཙན་དན་གྱི་	-11.0065
གནོད་སྦྱིན་གྱི་	-11.0067
ཕན་ཚུན་དུ་	-11.0067
ཏེ་ལོ་རིན་པོ་ཆེ	-11.0068
དཔར་སྐྲུན་	-11.0068
དྲ་བ་ཅན་གྱི་འོད་	-11.0069
ཟླུམ་	-11.007
ཏུ་ལན་གསུང་སྟེ་	-11.007
སུད་སིར་	-11.007
དང་ཐུན་མོང་དུ་	-11.0071
འཁྱམ་	-11.0072
ནད་དང་	-11.0073
གྲོགས་པོ་རྙིང་པ་	-11.0073
ལས་འགན་རང་འཇགས	-11.0074
འགོ་ཚུགས་	-11.0074
ལ་ཇི་ལྟར་	-11.0075
རྒྱབ་རྟེན་	-11.0076
སྐད་ཆ་ཤོད་	-11.0076
དཀར་མཛེས་	-11.0076
་ཅེས་ཞུ་རྒྱུ་ཡིན	-11.0076
མི་འམ་ཅིའི་	-11.0077
ཡོངས་སུ་གཟུང་བ	-11.0078
མགོ་ལོག་	-11.0079
བརྩེ་བའི་	-11.008
དག་དང་་་	-11.0081
དཔེར་	-11.0081
ལྷུག་	-11.0082
ིག་རྡུལ་མེད་ཅིང་	-11.0082
དེ་བཞིན་ནོ་་	-11.0082
དུམ་བུ་	-11.0083
འཛག་	-11.0084
སྤྱི་པའི་	-11.0087
འདི་ཁོ་ན་	-11.0087
ཕྱིན་པ་ཡིན་ན	-11.0088
མ་མཆིས་ཏེ་	-11.0088
བརྩམས་པའི་	-11.0089
འི་སྡུག་བསྔལ་	-11.009
མེ་ཏོག་སྣ་ཚོགས་	-11.009
ོར་སྤྲོད་བྱེད་	-11.009
གོས་ངུར་སྨྲིག་	-11.0091
ཨ་ལ་ལ་	-11.0092
ལས་ཡུན་	-11.0092
རང་དབང་སླར་གསོ	-11.0095
སློབ་གྲྭ་ཆེན་མོ	-11.0096
་རི	-11.0097
ཀྱི་ནང་དུ་སྐྱེ་བ	-11.0098
ཤེས་པ་གང་ཞེ་ན་	-11.0099
དག་ལ་ཡང་	-11.0099
ཟུང་འབྲེལ་གྱི་	-11.01
མཆོག་གིས་ཐོག་མར་	-11.0101
རྒྱུད་གཅིག་	-11.0102
ཇི	-11.0102
རྣམ་ཐོས་ཀྱི་བུ	-11.0102
འདྲའི་	-11.0103
ཐོར་	-11.0106
ལྟེ་གནས་	-11.0107
ལུས་ཀྱི་ལས་	-11.011
སྐྱེས་པའམ་	-11.011
བདེ་པོ་	-11.011
མེད་པའི་ཕྱིར་རོ་	-11.011
དྲི་བ་རྣམས་ལ་	-11.011
དབུ་འཛུགས་མཛད་	-11.0111
▁མི་མཆོག་	-11.0112
ཞོགས་	-11.0112
མང་ཚོགས་ཁྲོད་	-11.0113
གཅེར་བུ་བ	-11.0114
འགྱུར་མེད་	-11.0115
ཁྱིམ་བདག་དེའི་	-11.0116
ཐུབ་ཀྱི་	-11.0117
མང་གཙོའི་ལམ་ནས་	-11.0117
ག་ལ་བ་དེར་དོང་	-11.0118
ཉན་ཐོས་ཀྱི་དགེ་	-11.0118
ང་གི་	-11.0118
འི་འདུ་ཤེས་	-11.0118
ཟིན་ཡང་	-11.0119
གཏན་ཉིན་སློབ་གྲྭ	-11.0119
▁ཉིན་	-11.0119
ཁྲོད་ནས་	-11.012
རྒྱ་མཚོ་ཆེན་པོར་	-11.012
གཞག་པར་བྱ་	-11.012
གང་དུའང་	-11.0124
▁འོན་ཀྱང་ད་ཆ་	-11.0124
དེ་དང་དེ་	-11.0125
མཉམ་རུབ་ཐོག་ནས་	-11.0125
འགགས་པས་	-11.0125
བཟོད་བསྲན་	-11.0125
ལྷ་མིན་	-11.0128
▁སྤྱན་རས་གཟིགས་	-11.013
བའི་དུས་དྲན་	-11.013
རྒྱལ་པོ་སྡོང་པོ	-11.013
▁གསོལ་པ་བཙུན་པ་	-11.0131
མཐོ	-11.0132
ནད་ཡམས་འདི་	-11.0133
རུ	-11.0133
མ་བྱས་པ་	-11.0135
བསྲུང་	-11.0135
ཉག་	-11.0136
རྒྱལ་མཚམས་མེད་པ	-11.0136
གུས་བརྩི་	-11.0137
ཇི་ནི་ཝའི་	-11.0138
མཆོངས་	-11.014
གནའ་རབས་ཀྱི་	-11.0142
ལ་ལར་	-11.0143
བྱེད་རྒྱུ་ཡིན	-11.0145
ལག་པས་	-11.0145
ཆོས་སྟོན་ཏེ་	-11.0146
རྒྱུའི་དུས་ཚོད་	-11.0146
སྦུ	-11.0148
བྱུང་བར་གྱུར་	-11.0148
ཞུས་པ་རེད	-11.0148
ཕོར་	-11.0148
དེ་ཚོར་	-11.015
བུད་	-11.0151
ཟེར་གྱི་ཡོད	-11.0153
བློས་	-11.0155
བསྲུང་བ་	-11.0156
ལྔ་དང་ལྔ་བཅུ་	-11.0157
བྱ་རྒོད་	-11.0158
ནག་ཉེས་	-11.0158
གྲལ་	-11.0158
མི་ཡིས་	-11.0161
ཐུགས་གསོའི་	-11.0161
▁ཕུང་པོ་	-11.0161
མཐོང་ངོ་་	-11.0161
ཡུད་ཙམ་	-11.0164
གི་འགན་འཛིན་	-11.0164
ནི་རྟག་ཏུ་	-11.0165
རྒྱལ་པོའི་ཁབ་ན་	-11.0167
ཐེངས་གསུམ་	-11.0167
པ་སངས་	-11.0167
བློན་ཆེན་གཞོན་པ་	-11.0167
དྲིལ་བུ་	-11.0168
ལོ་བརྒྱད་	-11.017
བསླབས་ཏེ་	-11.0171
རྗོད་ཀྱི་ཡོད	-11.0171
གྱུར་ཀྱང་་་	-11.0171
བདག་ཉིད་ཀྱི་	-11.0172
པ་དེ་ཉོན་ཅིག	-11.0172
སྟོན་པར་འགྱུར་	-11.0175
ཅི་ཞིག་བྱ་	-11.0176
འབྱོར་མཚམས་	-11.0178
ཞེས་པར་	-11.018
ཏུའང་	-11.0181
མགོ་བོ	-11.0181
ཟབ་མོའི་	-11.0182
འི་ཕྱི་འབྲེལ་	-11.0182
ཞིག་བཟོ་	-11.0183
ཕྱི་མའི་དུས་	-11.0184
འདིའི་སྒང་ལ་	-11.0184
འབྲེལ་མིན་པའི་	-11.0185
སྩལ་བ་	-11.0185
མད	-11.0186
བསྐྱེད་པའི་ཕྱིར་	-11.0186
སྦྱིན་པ་བྱིན་	-11.0188
ཇེ་ཆེར་	-11.0189
བྲམ་ཟེ་དེ་	-11.019
▁ནང་པ་སངས་རྒྱས་པ	-11.0195
▁ཁ་དོག་	-11.0197
སེམས་ཅན་གང་	-11.0198
བྱང་ཆུབ་ནི་	-11.0198
འདྲེ	-11.0198
མཐུན་རྐྱེན་སྦྱར་	-11.0199
མཐོ་སློབ་ཁང་	-11.02
དགོས་པའི་གནད་དོན	-11.0202
རིགས་པ་	-11.0203
འཇོ	-11.0204
ཉལ་ཁང་	-11.0204
ཡུ་རོབ་ནང་	-11.0208
ན་རྒྱལ་པོ་	-11.0208
འབར་ཞིང་	-11.0211
ཐེག་པ་པའི་གང་ཟག་	-11.0213
▁སུད་སིའི་	-11.0215
གདོན་མི་ཟ་བར་	-11.0215
གསར་འགོད་གསལ་	-11.0215
རང་དབང་ཐོག་ནས་	-11.0217
ཕྱག་རྟགས་ཕུལ་	-11.022
སྲིད་བློན་མཆོག་	-11.0223
བྲེས་	-11.0227
མཐོ་སློབ	-11.0229
ཡོང་ཐབས་ཆེད་	-11.0231
གི་གནད་དོན་	-11.0231
ནས་འགྲོ་	-11.0232
རྟེན་གཞི་	-11.0234
ཟ་བ་	-11.0234
▁དེ་འདྲ་ཡིན་དུས་	-11.0234
གྲོལ་བར་	-11.0235
ཚིམ་པ	-11.0235
འདུལ་བ་འཛིན་པ	-11.0235
མེག་	-11.0237
དགེ་བའི་ལས་	-11.0238
གནད་དོན་དེ་	-11.0238
ཀྱང་རུང་་	-11.0238
ཨིན་ཡུལ་གྱི་	-11.0239
རྩེ་བ་	-11.0241
ཀྱི་རྣམ་གཞག་	-11.0242
བསྟུད་མར་	-11.0242
སྲིད་སྐྱོང་གི་	-11.0244
་སྐོར་	-11.0244
བགོས་ནས་	-11.0244
པ་མེད་པར་	-11.0245
སློབ་ཕྲུག་ཚོ་	-11.0245
གྲྭ་བ	-11.0245
ར་བྱེད་དོ་	-11.0248
བསྟི་སྟང་	-11.0249
ལྡན་པ་་	-11.0249
འཛམ་གླིང་གང་སར་	-11.025
མྱ་ངན་ལས་འདས་པར་	-11.025
སྙུན་	-11.0251
མཚམས་སྦྱོར་བ་	-11.0253
བསྐལ་པར་	-11.0255
དྲག་གནོན་བྱས་	-11.0255
གྱེན་དུ་	-11.0255
ཚོགས་གཙོས་	-11.0256
རིག་གནས་དེ་དག་	-11.0258
དེ་ད་ཆ་	-11.0261
ཡིད་དུ་མི་འོང་བ་	-11.0261
སེམས་ཅན་གཞན་	-11.0263
སྔ་མོ་ནས་	-11.0265
སྒྲ་སྙན་	-11.0267
གྲངས་བཞིའི་རིང་	-11.0267
ཡར་རྒྱས་འགྲོ་	-11.0268
དཔེར་ན་སྐྱེས་བུ་	-11.027
ཕྱོགས	-11.0271
ཐོགས་པ་མེད་པར་	-11.0271
ཟུངས་	-11.0273
ལྷག་རིང་	-11.0274
▁ཀྱེ་མི་ཁྱོད་	-11.0275
རྔ་པ་	-11.0276
་རྣམ་པ	-11.0278
▁སེམས་ཅན་དམྱལ་བ་	-11.0279
འཁོན་འཛིན་	-11.028
ཡི་ཤུ	-11.028
རྒྱ་ཆེའི་མི་མང་	-11.0281
དང་འདྲ་བའི་	-11.0282
ར་བགྱི་	-11.0283
▁སོག་པོ	-11.0284
ཉེ་སྔོན་	-11.0285
སླེབས་པའི་	-11.0287
▁རང་ཉིད་	-11.0287
ཚན་རིག་པ་དང་	-11.0287
སེལ་བ་	-11.0287
རབ་ཏུ་འབྱུང་	-11.0288
ལ་མངོན་པར་བསྟོད་	-11.0289
ྗོད་དུ་མེད་པའི་	-11.029
མཛའ་	-11.0292
ནང་ཚུད་	-11.0293
མཁར་	-11.0293
▁ཁྱེད་ཅག་	-11.0293
གནའ་	-11.0294
དང་ལྡན་པ་ཡིན་ནོ་	-11.0295
སྐུ་ཚེ་ཧྲིལ་པོ	-11.0296
མི་འདྲ་བ་ཞིག་	-11.0297
▁འདོད་པའི་	-11.0298
ཐུར་	-11.03
དགོས་ངེས་	-11.03
ཁུལ་ནས་	-11.03
པའི	-11.03
གསོལ་བ་བཏབ་	-11.0301
ཕྱིར	-11.0304
གསོ་སྦྱོང་	-11.0304
གཟིགས་ཆེད་	-11.0309
བཅོམ་ནས་	-11.031
ད་ཞིའི་གཙུག་རྒྱན	-11.031
ལ་ངོ་རྒོལ་	-11.0312
གནས་དང་གནས་	-11.0312
གོམས་	-11.0313
ཀྲོ	-11.0314
ཞེ་ན་རབ་འབྱོར་	-11.0314
བཞིན་པའི་སྐབས་	-11.0317
དཀོན་	-11.0318
པའི་དབང་གིས་	-11.0318
▁རིན་པོ་ཆེ་	-11.0319
མ་སུ་རིར་	-11.032
ཁལ་མུཀ་	-11.032
ཏག་ཏག་	-11.032
ཡན་ལག་དང་ཉིང་ལག་	-11.032
ང་སང་པོའི་དབྱངས་	-11.032
[...]
