<unk>	0
<s>	0
</s>	0
་	-3.31958
▁	-3.34735
དང་	-4.58889
ལ་	-4.88369
ནས་	-5.36478
འི་	-5.3811
བྱང་ཆུབ་སེམས་དཔའ	-5.43931
ས་	-5.45278
ནི་	-5.48549
དང་་	-5.55437
དེ་	-5.56004
ན་	-5.77024
བཅོམ་ལྡན་འདས་	-5.96227
མ་	-5.98923
ར་	-6.03372
ཡང་	-6.06607
▁དེ་ནས་	-6.0871
ཀྱི་	-6.1106
མི་	-6.119
འདི་	-6.18955
ཀྱིས་	-6.23
པ་	-6.25324
གྱི་	-6.31332
དེ་དག་	-6.38119
ལས་	-6.4003
▁བཅོམ་ལྡན་འདས་	-6.40864
བོད་མིའི་	-6.44325
དུ་	-6.45323
རྣམས་	-6.45829
པའི་	-6.46648
ཀྱང་	-6.46678
་སེམས་དཔའ་ཆེན་པོ	-6.46758
▁དེ་	-6.46761
ཏེ་	-6.47396
ཡོད	-6.4839
སངས་རྒྱས་	-6.52621
དེ་བཞིན་གཤེགས་པ	-6.5364
བ	-6.59773
སྐྱབས་མགོན་	-6.61314
གི་	-6.62097
ནང་	-6.62338
ལ	-6.64029
རེད	-6.68215
དག་པར་རྫོགས་པའི་	-6.68575
དེ་བཞིན་གཤེགས་པ་	-6.69656
▁དེ་བཞིན་	-6.69948
ཆོས་	-6.71906
▁ཕྱི་ལོ་	-6.74566
ཕ་རོལ་ཏུ་ཕྱིན་པ་	-6.76139
སྟེ་	-6.78089
འཇིག་རྟེན་	-6.80828
བ་	-6.82127
སྤྱི་ནོར་གོང་ས་	-6.8508
པར་	-6.85617
གང་	-6.86835
དག་	-6.87691
ཐོག་	-6.92292
ཞིང་	-6.9511
ཐམས་ཅད་	-6.96275
སོགས་	-6.98055
ས	-6.98535
གནས་	-7.00276
དེས་	-7.01817
དེའི་	-7.04592
སུ་	-7.06941
སྒྲིག་འཛུགས་ཀྱི་	-7.07419
ཆེན་པོ་	-7.08443
་དང་	-7.08605
གིས་	-7.09034
རྒྱ་ནག་གཞུང་གིས་	-7.09232
ཞིག་	-7.09403
་དང་་	-7.10509
བར་	-7.1455
▁དེ་བཞིན་དུ་	-7.15389
གྱིས་	-7.16449
ཤིང་	-7.16855
དེ་ནི་	-7.18337
ཞེས་	-7.18729
པ	-7.19037
སེམས་	-7.2068
བོད་ཀྱི་	-7.20951
ཡོངས་སུ་	-7.22226
མཆོག་	-7.22308
བྱང་ཆུབ་	-7.23694
ཤིན་ཏུ་	-7.24808
སྐབས་	-7.25108
བྱེད་	-7.25935
རབ་ཏུ་	-7.27939
སངས་རྒྱས་ཀྱི་	-7.28493
བླ་ན་མེད་པ་ཡང་	-7.28886
རྒྱ་གར་	-7.29679
དེར་	-7.29736
ར	-7.29747
སེམས་ཅན་	-7.32454
བདག་	-7.32519
པ་དང་་	-7.32762
འོ་་	-7.33616
འམ་	-7.36445
པས་	-7.36583
དེ་ལ་	-7.36774
ང་	-7.37984
པ་དང་	-7.38366
ཇི་ལྟར་	-7.38691
▁དེ་ཡང་	-7.39157
བྱས་ནས་	-7.4054
བཅས་	-7.40927
འདི་ནི་	-7.41557
གཉིས་	-7.42333
མ	-7.42475
▁བོད་མིའི་	-7.42856
▁ཤ་ར་དྭ་ཏིའི་བུ་	-7.4322
དེ་ལྟར་	-7.43331
ཅིང་	-7.43738
གནང་	-7.43877
ཧ་ཅང་	-7.44646
ཕྱི་ལོ་	-7.44906
རྒྱུ་	-7.46273
▁བཙུན་པ་	-7.46941
ག	-7.46964
བྱུང་	-7.4704
རྣམས་ཀྱིས་	-7.47107
བཅོམ་ལྡན་འདས་ཀྱི	-7.48296
ངས་	-7.48303
མཆོག་གིས་	-7.48776
▁རིགས་ཀྱི་བུ་	-7.49661
བའི་	-7.50035
འདུག	-7.50908
བོད་	-7.51197
རྣམས་ལ་	-7.51463
ན	-7.51733
དཔལ་ལྡན་སྲིད་	-7.52141
འདི་ལྟ་སྟེ་	-7.52331
▁དེར་བརྟེན་	-7.53719
དེ་བཞིན་དུ་	-7.53759
ཁྱོད་	-7.54168
▁དེ་ལ་	-7.55764
མང་པོ་	-7.5589
རྒྱལ་སྤྱིའི་	-7.55937
སྡུག་བསྔལ་	-7.57231
ཤེས་པ་	-7.58391
རྣམས་ཀྱི་	-7.58559
རྗེས་	-7.58984
ར་འགྱུར་རོ་་	-7.59189
་དགྲ་བཅོམ་པ་ཡང་	-7.59557
སོ་་	-7.59717
རྣམ་པར་	-7.59752
ལུས་	-7.59975
དེ་བཞིན་	-7.60478
ལྟར་	-7.60792
ཤེས་རབ་ཀྱི་	-7.60954
ལ་འདི་སྐད་ཅེས་	-7.61401
དོན་	-7.62501
ཆོས་ཀྱི་	-7.62815
ཚོགས་	-7.64242
ཆེན་པོ་མཆོག་གིས་	-7.64416
ཞུ་རྒྱུ་ཡིན	-7.64763
བཞིན་	-7.64967
ཞེས་བྱ་བ་	-7.65155
རྒྱལ་པོ་	-7.65303
ཆེད་	-7.65445
རིགས་	-7.66518
བཞིན་དུ་	-7.67012
གསུང་བཤད་གནང་	-7.67316
གྲོས་ཚོགས་	-7.67853
གཞན་	-7.67972
གཅིག་	-7.68075
ི་	-7.69803
གཟུགས་	-7.69941
▁སངས་རྒྱས་	-7.71646
▁འོན་ཀྱང་	-7.72194
ལམ་	-7.73236
འདིར་	-7.73299
འཕྲོད་བསྟེན་	-7.73605
ཡུལ་	-7.74935
▁དེས་	-7.75363
▁གཞན་ཡང་	-7.75525
ཡང་དག་པར་	-7.75986
ཚེ་དང་ལྡན་པ་	-7.76114
འཛམ་གླིང་	-7.76221
འགྲོ་བ་མིའི་ཐོབ་	-7.76455
ཐོག་ནས་	-7.76702
དགེ་སློང་	-7.7713
བོད་མི་	-7.77251
སྐོར་	-7.77644
ཡེ་ཤེས་	-7.77991
ཡིན	-7.7803
དང་་་	-7.78215
ལོ་	-7.78868
▁དེ་ནི་	-7.79226
ད	-7.79236
▁དེ་དག་	-7.79249
ཡིན་ནོ་་	-7.7961
དང་འབྲེལ་བའི་	-7.79828
བརྒྱུད་	-7.80252
དུས་	-7.80289
མེད་	-7.80462
▁ལྷག་པར་	-7.80694
སྐུ་ཚབ་དོན་གཅོད་	-7.80884
དེ་བཞིན་གཤེགས་པས	-7.81054
སྲིད་བྱུས་	-7.81195
སྨྲས་པ་	-7.81223
ཀྱིས་བཀའ་སྩལ་པ་	-7.8239
▁རབ་འབྱོར་	-7.82485
བདག་གིས་	-7.83157
ཡོད་པ་	-7.83321
▁སྐབས་དེར་	-7.83658
བསོད་ནམས་	-7.83906
ཡོད་པ་དང་	-7.84266
ཚེ་	-7.85307
མེད་པ་	-7.85844
འ	-7.85988
ང་ཚོས་	-7.86308
དེ་ཡང་	-7.87145
པོ་	-7.87296
▁དགེ་སློང་དག་	-7.87627
བྱ་	-7.88251
མཁན་	-7.89374
མུ་མཐུད་	-7.89451
ཆོས་ལུགས་	-7.89611
ལགས་	-7.906
གསུམ་	-7.90617
རྟག་ཏུ་	-7.9086
དེ་དག་གིས་	-7.91296
བཞིན་ཡོད	-7.91296
མ་ཡིན་	-7.91514
ཡོད་པའི་	-7.91622
སྒྲིག་འཛུགས་	-7.9164
ད་	-7.92024
▁དེའི་ཚེ་	-7.92073
གྱི་ཁམས་	-7.92075
ཕྱིར་	-7.92114
རྒྱབ་སྐྱོར་	-7.92472
ཅན་	-7.92647
ཏུ་	-7.92918
གནང་ཡོད	-7.92939
ཁྱོད་ཀྱིས་	-7.93568
ཅི་	-7.93813
ལགས་ཀྱིས་	-7.93815
འདི་ལྟར་	-7.9457
སེམས་ཅན་ཐམས་ཅད་	-7.95353
ཀ	-7.95579
རྒྱལ་ཁབ་	-7.96117
བྱང་ཆུབ་སེམས་དཔ	-7.96196
དག་གིས་	-7.96279
དང་ལྡན་པ་	-7.96427
ཤེས་	-7.96712
ཀུན་	-7.96876
དབུ་ཁྲིད་	-7.96886
གསོལ་ཏོ་་	-7.96983
གཙོ་བོ་	-7.97359
གནས་སྟངས་	-7.97741
▁དེ་བཞིན་གཤེགས་པ	-7.97868
ཚིག་	-7.97963
རྒྱ་གར་གྱི་	-7.9851
བྱས་	-7.98562
▁སེམས་ཅན་	-7.98637
བླ་ན་མེད་པའི་	-7.98691
ཕྱོགས་	-7.98764
འགྲོ་	-7.99146
▁གལ་ཏེ་	-7.9956
རབ་	-8.0021
འཛིན་	-8.009
ཐོབ་	-8.00914
ཆེན་པོ་མཆོག་	-8.01149
་ཇི་ལྟ་བ་བཞིན་	-8.02028
དམིགས་བསལ་	-8.02191
ལ་བརྟེན་ནས་	-8.02641
རབ་ཏུ་མཁྱེན་ཏོ་་	-8.02657
ལྷ་	-8.03066
▁དེ་རྗེས་	-8.03435
མེད	-8.03737
བསམ་གྱིས་མི་ཁྱབ་	-8.03813
བཅོམ་ལྡན་འདས་ལ་	-8.04426
དགོས་པའི་	-8.0504
བཙན་བྱོལ་བོད་མི	-8.0533
ནི	-8.0558
མངོན་པར་རྫོགས་པ	-8.05674
བུད་མེད་	-8.06116
བོད་དོན་	-8.06259
བྱས་སོ་་	-8.06815
གནས་ཚུལ་	-8.06917
གྲངས་	-8.07027
ག་	-8.07214
བཀའ་བློན་	-8.07638
གྲོང་ཁྱེར་	-8.07867
ཁ་	-8.08531
མཛད་	-8.08744
ཏེ	-8.09047
དགོས	-8.09081
བས་	-8.09449
བཞིན་དུ་སྦྱར་ཏེ་	-8.09574
ཅིའི་ཕྱིར་ཞེ་ན་	-8.09632
བཞི་	-8.10001
▁དེ་ན་	-8.10182
ཡི་	-8.10316
ཆེན་པོ་མཆོག་གི་	-8.10326
མེད་པར་	-8.10473
ཐོག་མར་	-8.10511
ཏོག་དབྱིབས་གཉན་	-8.10755
རང་གི་	-8.11041
ེ་	-8.11407
གསུང་	-8.11668
འོ་	-8.11732
རིན་པོ་ཆེ་	-8.11735
ཡིན་	-8.12072
་ནི་	-8.1214
བུ་	-8.12319
བྱས་ཏེ་	-8.12611
སླད་	-8.12862
སྣ་ཚོགས་	-8.12875
ལགས་སོ་་	-8.13621
གང་དག་	-8.13766
བོད་མི་མང་སྤྱི	-8.1399
རྗེས་སུ་	-8.1436
མོ་	-8.14508
སྐུ་	-8.15136
ཆོས་ཐམས་ཅད་	-8.15219
སོ་སོའི་	-8.15332
ཨ་རིའི་	-8.15549
བསྟན་པ་	-8.15647
ས་གནས་	-8.1582
བོད་ནང་	-8.16167
▁དེའི་	-8.16468
སོང་	-8.16656
འདི་དག་	-8.16667
མེ་ཏོག་	-8.16764
ཀུན་ཏུ་	-8.16793
ལྟ་བུ་	-8.16877
ཤིག་	-8.1695
ཐབས་	-8.16957
དགེ་བའི་རྩ་བ་	-8.17117
བདག་གི་	-8.17265
རང་	-8.17783
ཇི་ལྟར་ན་	-8.17877
འཁོར་	-8.17933
ཆགས་	-8.18011
མིག་	-8.18403
བཀའ་སློབ་སྩལ་	-8.19436
བོད་དོན་རྒྱབ་	-8.19443
▁དེ་ལྟར་	-8.19447
ཡང་དག་པར་རྫོགས་པ	-8.19853
རྣམས་དང་་	-8.19917
བཤད་	-8.2016
ཆུ་	-8.20538
རབ་ཏུ་མཁྱེན་ཏེ་	-8.21268
བསྟན་འཛིན་	-8.21381
དཔལ་འབྱོར་	-8.21517
ཕ་རོལ་ཏུ་ཕྱིན་པ	-8.2157
▁གང་	-8.21992
ཞེས་པའི་	-8.22188
ཇི་སྙམ་དུ་སེམས་	-8.22213
ལའང་	-8.22551
▁ཇི་ལྟར་	-8.22635
འདི་ལ་	-8.23006
ཆགས་ཡོད	-8.23408
དཔག་ཏུ་མེད་པ་	-8.2351
པའོ་་	-8.23551
གཞུང་འབྲེལ་	-8.24669
སྤྱི་ཚོགས་	-8.24722
དེ་འདྲ་	-8.24742
གཞན་ཡང་	-8.24911
ཙམ་	-8.24937
འདི་སྐད་ཅེས་	-8.24945
དེ་དག་གི་	-8.25028
ང་ཚོ་	-8.25336
ལས་ཁུངས་ཀྱི་	-8.2535
▁ཕྱོགས་མཚུངས་	-8.25898
▁འདི་ལྟ་སྟེ་	-8.25993
སྐུ་ཞབས་	-8.26176
གང་ཞེ་ན་	-8.26305
དབང་	-8.26435
ངོས་ཀྱིས་	-8.26436
རྒྱུ་དང་	-8.26535
བྱས་པ་	-8.26742
སོ་	-8.26763
སྟོན་པ་	-8.27012
འི་སངས་རྒྱས་	-8.27086
▁ཞེས་	-8.27379
ལེགས་པར་	-8.27688
▁འདི་ནི་	-8.27789
བོད་རིགས་	-8.27892
ཞེས་བྱའོ་་	-8.27952
བློ་	-8.28294
དཀའ་ངལ་	-8.28627
སྤྱོད་པ་	-8.28713
བཞུགས་	-8.28949
བྱ་བ་	-8.29023
ཚུལ་ཁྲིམས་	-8.29327
དྲུག་	-8.2943
▁བོད་ཀྱི་	-8.29431
▁སྤྱི་ནོར་གོང་ས་	-8.29523
གལ་ཏེ་	-8.29791
ཁག་	-8.29807
ཐུགས་	-8.29928
ཤེས་ཡོན་	-8.2999
སྟོང་པ་ཉིད་	-8.30101
ལྡན་	-8.30102
ཡོན་ཏན་	-8.30527
རྒྱ་ནག་	-8.31302
ཞུ་	-8.31403
▁འཇམ་དཔལ་	-8.31442
ས་གནས་འགོ་འཛིན་	-8.31553
དེ་དག་ནི་	-8.3169
རིང་	-8.31746
ཉིད་	-8.31805
འདོད་	-8.319
གཞོན་ནུ་	-8.31955
རང་བཞིན་	-8.32014
སློབ་ཕྲུག་	-8.32165
ལས་བྱེད་	-8.32186
དགེ་འདུན་	-8.32196
སྟོན་	-8.32202
འོག་	-8.32215
▁འཇིག་རྟེན་	-8.32221
ཐམས་ཅད་ཀྱི་	-8.32379
▁ཁྱིམ་བདག་	-8.32438
དཔལ་ལྡན་	-8.32438
བྱང་ཆུབ་ཏུ་	-8.32862
ཅིག་	-8.32911
གང་ཡིན་པ་དེ་ནི་	-8.33506
སྨྲས་སོ་་	-8.34127
སྟོང་	-8.34236
བྱེད་པ་	-8.34334
པར་འགྱུར་རོ་་	-8.34591
གོ་	-8.34678
▁ཚེ་དང་ལྡན་པ་	-8.34834
སྐྱོང་བློ་བཟང་སེ	-8.35354
ས་ནང་འཁོད་དོན	-8.35632
སྨན་	-8.35766
ཕེབས་	-8.3582
ཡིད་	-8.36095
འདུ་ཤེས་	-8.36158
རྒྱ་ནག་གི་	-8.36397
འགྲོ་བ་	-8.36508
པ་རེད	-8.36574
མེད་པའི་	-8.36654
སྒྲ་	-8.36676
རྣམ་པ་ཐམས་ཅད་	-8.36729
འགན་འཛིན་	-8.37211
ལས་དོན་	-8.37314
དེ་དག་ལ་	-8.37337
སྐུ་མགྲོན་གཙོ་བོ	-8.37433
རེ་	-8.37545
གང་གིས་	-8.37554
དོན	-8.37651
ལམ་སྟོན་	-8.37971
རིག་གཞུང་	-8.38081
ཡོང་	-8.38092
དེ་དག་ཐམས་ཅད་	-8.38338
ཤེས་རབ་	-8.38369
ནས	-8.38445
མང་པོ་ཞིག་	-8.38634
བདག་ཅག་	-8.3866
ཡོད་པ་རེད	-8.38883
སྐྱོང་མཆོག་གིས་	-8.38944
མངོན་པར་	-8.39267
▁འཚོ་ཞིང་གཞེས་ལ་	-8.39448
འི་ཕྱིར་	-8.39563
མཆོག་དང་	-8.39904
དམ་པ་	-8.39969
ངེས་པར་	-8.39973
ཤེས་པ་ཡང་དག་པ	-8.40029
བྱུང་བ་	-8.40125
ལྔ་	-8.40207
ཕུན་སུམ་ཚོགས་པ་	-8.40245
མགོན་པོ་གང་ཉིད་	-8.4054
འདིས་	-8.40654
དེའི་ཚེ་	-8.40675
▁མད་གལ་གྱི་བུ་	-8.40716
ཆོས་རྣམས་	-8.40875
ཡིན་ཏེ་	-8.40881
འདོད་པ་	-8.40975
ར་གྱུར་པ་	-8.41146
ཉིན་	-8.41324
་དེ་དག་	-8.41423
པའམ་	-8.4151
སྔོན་	-8.41563
རྒྱལ་	-8.41713
སྤྱོད་	-8.41994
སྤྱི་འཐུས་	-8.42452
བྱེད་བཞིན་ཡོད	-8.42839
ཆོས་ཀྱང་སྟོན་ཏེ་	-8.42899
དོ་་	-8.42902
▁ཀུན་དགའ་བོ་	-8.43057
དབང་པོ་	-8.4311
བརྒྱད་	-8.4329
སྒོ་	-8.43576
སྐྱེས་	-8.43791
ཚུལ་	-8.43835
འོད་	-8.443
སྦྱིན་པ་	-8.44717
སྟེ་་	-8.4512
རྒྱུའི་	-8.45193
སྨོན་ལམ་	-8.45207
དག་ཀྱང་	-8.45346
ནད་	-8.45416
བཟོ་	-8.45918
ཡིན་པ་	-8.45923
ང་ཚོའི་	-8.45931
དག་ནི་	-8.46162
མྱུར་དུ་	-8.46427
བ་དང་	-8.46497
▁རྒྱ་གར་	-8.46616
ཆོས་དད་རང་དབང་	-8.46768
བྱེ་བ་ཁྲག་ཁྲིག་	-8.46784
ཏིང་ངེ་འཛིན་	-8.46996
ཆེན་	-8.47125
ལ་ཡང་	-8.47553
དག་ལ་	-8.47617
རྣམས་ཀྱང་	-8.47704
ཡོད་པ་བཅས	-8.47903
བརྩོན་འགྲུས་	-8.48326
བཏང་	-8.48616
▁བཅོམ་ལྡན་འདས་དེ	-8.48906
▁ང་ཚོས་	-8.49
▁ཅེས་	-8.49118
བརྗོད་	-8.49409
་འཐུས་ལྷན་ཚོགས་	-8.49458
མཐོང་	-8.49464
ནང་དུ་	-8.49591
སྤེལ་	-8.49669
ལགས	-8.49806
▁ཇི་ལྟར་ན་	-8.49986
བློ་གྲོས་	-8.4999
མས་	-8.5001
ཁམས་	-8.50019
གོང་ས་སྐྱབས་མ	-8.50168
ཚོར་	-8.50318
རྣམ་པ་	-8.50344
ད་བར་	-8.50355
མཐུན་འགྱུར་	-8.50437
མཉམ་	-8.50503
དེ་ནས་	-8.50515
རིག་པ་	-8.5067
བསྟན་	-8.50755
འདིའི་	-8.5076
ཕན་ཚུན་	-8.50893
ཆོས་དང་རིག་གཞུང་	-8.50958
▁སྤྱིར་	-8.51061
ཚད་	-8.5149
འབྲེལ་ཡོད་	-8.51499
བྱེད་དགོས	-8.52079
རབ་ཏུ་བྱུང་ནས་	-8.521
ནི་་	-8.52102
བཀྲ་ཤིས་	-8.52632
ཀུན་ནས་ཉོན་མོངས་	-8.53044
བདག་ལ་	-8.53142
ཐུགས་རྗེ་ཆེ་ཞུ	-8.53234
དཔལ་	-8.53367
ལྷའི་	-8.53794
ཀུན་གཟིགས་པ	-8.53908
དགོས་པ་	-8.53959
ན་འཇིག་རྟེན་	-8.53979
གཞི་	-8.54278
ཚོས་	-8.54613
ཚང་མས་	-8.54698
རོ་	-8.54833
▁དེ་རིང་	-8.54884
ཡོད་	-8.55069
ར་གྱུར་ཏོ་་	-8.55336
སྐྱེ་	-8.55373
མཚན་	-8.55642
ནོར་	-8.5565
མཁྱེན་པ་ཉིད་	-8.55683
འཇིག་རྟེན་གྱི་ཁ	-8.55701
ཚོགས་པའི་	-8.56026
▁བོད་	-8.56416
རྒྱལ་པོའི་	-8.56764
འི་ནང་	-8.56857
བདེ་བ་	-8.56978
སམ་	-8.57066
ྟེན་གཞི་བྱས་པའི་	-8.57231
ཡོད་པ་མ་ཟད	-8.57477
ཚིགས་སུ་བཅད་པ་	-8.57788
དགའ་	-8.57919
རྒྱལ་ཡོངས་	-8.58108
ཆེན་པོ་མཆོག་ལ་	-8.58264
འདབ་ཆགས་	-8.58408
སློབ་སྦྱོང་	-8.58409
དེ	-8.58473
འཇིག་རྟེན་དུ་	-8.58768
བར་དུ་	-8.5878
ལ་ཕྱག་འཚལ་ལོ་་	-8.58934
བྲམ་ཟེ་	-8.59127
མངོན་སུམ་དུ་	-8.59597
ཕུལ་	-8.59682
རྒྱ་གར་ནང་	-8.59715
ཁང་	-8.59729
མེ་	-8.59758
སྐྱེ་བ་	-8.59825
རིན་ཆེན་	-8.59918
ལྟ་	-8.60047
བཟང་པོ་	-8.60425
བཞུགས་ཏེ་	-8.60767
མེད་ཅིང་	-8.61033
ལ་སོགས་པ་	-8.61081
གཟིགས་	-8.61182
ཡོངས་སུ་རྫོགས་པ	-8.61188
སྟོབས་	-8.61335
ཕུང་པོ་	-8.61584
ཤ་	-8.61689
གཉིས་ཀྱི་	-8.6174
སྙམ་དུ་སེམས་ཏེ་	-8.62169
བགྲོ་གླེང་	-8.62218
ཡིན་ནོ་	-8.62302
་དང་་འདུ་ཤེས་དང་	-8.62431
བཀའ་སློབ་	-8.62617
▁འདི་ལྟར་	-8.62632
དགྲ་བཅོམ་པ་ཉིད་	-8.62683
ངོས་ནས་	-8.62696
རི་	-8.6273
ཞེས་བྱ་བ་ཡོད་དེ་	-8.62815
▁གཞོན་ནུ་	-8.62944
གས་	-8.62981
ཁོར་ཡུག་	-8.63088
མར་	-8.63163
་རྣམས་ཀྱི་	-8.63216
བསམ་པ་	-8.63293
མེད་དོ་་	-8.63411
སློབ་དཔོན་	-8.6355
གལ་ཆེན་པོ་རེད	-8.63556
ཟླ་བ་	-8.63615
ཉོན་མོངས་པ	-8.63758
དེ་ལྟ་བས་ན་	-8.63758
གསལ་བསྒྲགས་	-8.6388
འབྲས་བུ་	-8.63989
མཆོག་གི་	-8.64135
གྱུར་	-8.64294
བཀའ་དྲིན་	-8.64311
མང་	-8.64561
ལྟ་བ་	-8.6462
རྒྱ་རིགས་	-8.64663
སྐྱོན་	-8.6477
སོ་སོར་	-8.64836
ནམ་	-8.64878
འབུལ་	-8.65041
ཞེས་བྱ་བ	-8.65231
བདུན་	-8.65262
▁བདག་	-8.6532
དག་གི་	-8.65365
▁བདག་གིས་	-8.65633
བྱེད་ཀྱི་ཡོད	-8.65745
ལས་གཞི་	-8.65787
ཀུན་འབྱུང་བ་	-8.66044
བྱས་པའི་	-8.66049
▁དགེ་སློང་	-8.664
▁དེའི་ཡང་	-8.66414
དེ་ལྟར་ན་	-8.66568
དྲན་	-8.66642
རྣམས་ནི་	-8.66694
དབང་ཕྱུག་	-8.66958
དེ་སྔ་	-8.67054
ཐུབ་	-8.67062
འདི་ཉིད་	-8.67248
ཆོས་བརྒྱུད་	-8.67271
སྟེ	-8.67559
་རྣམས་	-8.67602
འབད་བརྩོན་	-8.67624
བྲམ་ཟེའི་ཁྱེའུ་	-8.67643
བཀའ་	-8.67793
འགྲོ་བ་མིའི་	-8.68125
རྣམ་པར་ཤེས་པ་	-8.68175
གོས་	-8.68201
འགྱུར་བ་	-8.68217
སྒྲུབ་	-8.68435
ཅན་གྱི་	-8.68504
གནས་པ་	-8.68723
པར་གྱུར་ཏོ་་	-8.68788
▁ཆོས་	-8.68871
འགྱུར་	-8.6888
ཏ	-8.69019
དེ་དག་ཀྱང་	-8.69321
འཇོག་	-8.69748
རིན་པོ་ཆེའི་	-8.6979
འདོད་ཆགས་	-8.69865
ཁོང་	-8.69982
ཡོད་ཀྱང་	-8.70285
རྒྱབ་སྐྱོར་གནང་	-8.70421
ཡང་དག་	-8.70464
རྒྱ་ནག་གཞུང་གི་	-8.7057
ཆུང་	-8.70681
▁ང་ཚོ་	-8.70708
དྲན་པ་ཉེ་བར་གཞག་	-8.70783
མིའི་	-8.70865
མིང་	-8.7105
ཞེས་བྱ་བའི་	-8.71135
སེམས་ཅན་དམྱལ་བ་	-8.71295
འགྱུར་་	-8.71376
ངོས་རང་	-8.71541
སྲིད་སྐྱོང་མཆོག་	-8.71571
བཞིན་པའི་	-8.71598
ལ་ནི་	-8.71662
ཅེས་	-8.71688
ལག་བསྟར་	-8.71694
སློབ་	-8.71982
དང	-8.72069
བོད་པའི་	-8.72269
ཡོངས་སུ་སྨིན་པར་	-8.72274
རང་དབང་	-8.72422
ལག་	-8.72427
གསུང་དོན	-8.72542
མཁས་པ་	-8.72562
ཚོགས་གཙོ་	-8.72595
པ་མ་ཟད	-8.72647
བསྐལ་པ་	-8.72698
ཐམས་ཅད་ཀྱང་	-8.72721
རྒྱལ་བའི་	-8.72787
རྒྱུར་	-8.72804
གསལ་	-8.72972
རྣམ་གྲངས་འདི་	-8.7299
▁གང་དག་	-8.73027
བཅས་ཀྱི་	-8.73104
ནུས་པ་	-8.73116
འཕགས་པ་	-8.73162
དང་ལྡན་པའི་	-8.73273
ཕྱི་	-8.73357
སྣང་བ་	-8.73429
ལོ་རྒྱུས་	-8.73619
སོགས་ཀྱི་	-8.73733
དུ	-8.73777
▁འདི་གར་	-8.73929
གཏན་འབེབས་	-8.74028
རིན་པོ་ཆེ་མཆོག་	-8.74146
རྒྱུད་	-8.74375
ཤེས་པ་འགོག་པ་	-8.74377
ཁྱིམ་	-8.74389
གོན་ཆེན་པོ་མཆོག་	-8.74392
ཆེན་པོས་	-8.74453
སྤྱི་ནོར་ས་མགོན་	-8.74526
བསམ་གཏན་	-8.74542
མཆོད་	-8.74589
སྔོན་བྱུང་བ་	-8.74724
རེད་འདུག	-8.74764
བ་དང་་	-8.74821
སེམས་ཅན་རྣམས་	-8.75163
ད་ལྟ་	-8.75233
སྲུང་སྐྱོབ་	-8.75309
་དེ་ནི་	-8.7532
དྲང་སྲོང་	-8.75347
ས་བྱང་ཆུབ་སེམས་	-8.75499
དཔའ་རྒྱལ་ཚབ་	-8.75689
བདག་ཉིད་	-8.75852
བོད་ནང་གི་	-8.75904
ལོངས་སྤྱོད་	-8.75927
མཐོང་ནས་	-8.75954
རྐྱེན་	-8.75997
ཤུགས་ཆེ་	-8.76062
སློབ་གྲྭའི་	-8.76075
བོད་མི་ཚོས་	-8.76124
ཡང་དག་པ་ཇི་ལྟ་བ་	-8.76236
ལས་འགུལ་	-8.76269
ཟླ་	-8.76472
མི་རིགས་	-8.76503
དེ་ལྟ་བུ་	-8.76529
ཐང་	-8.76601
ཆ་	-8.76712
ཁྲི་	-8.76824
ཆབ་སྲིད་ཀྱི་	-8.76853
▁ད་ཆ་	-8.76994
ཡིན་་	-8.77023
བོད་ཀྱི་སྐད་ཡིག་	-8.77073
ཁྱོད་ཀྱི་	-8.77159
རྒྱ་	-8.77162
ཡག་པོ་	-8.77234
མཆོག	-8.77317
བུ་མོ་	-8.77369
རིག་	-8.77439
▁ངོས་ཀྱིས་	-8.78031
▁དཔེར་ན་	-8.78184
སེམས་ཅན་རྣམས་ལ་	-8.78326
བཀའ་སྩལ་ཏོ་་	-8.78358
མཚམས་	-8.78381
ལེགས་	-8.78384
ཚོགས་འདུ་	-8.78692
དེ་རིང་	-8.78798
འདུག་གོ་་	-8.78945
ནམ་ཡང་	-8.78959
མི་མང་	-8.79059
སྐད་	-8.79062
ཆེས་	-8.79081
ཤ་ར་དྭ་ཏིའི་བུ་	-8.79327
གཏོང་	-8.79332
ག་ལ་བ་དེར་	-8.79343
ཇི་ཙམ་	-8.79496
ཨ་	-8.79507
ངོ་སྤྲོད་	-8.79523
གྲོས་ཚོགས་ཀྱི་	-8.79693
མཐའ་	-8.79698
▁ངས་	-8.79955
ཕལ་ཆེར་	-8.79989
སྔ་དྲོ་ཆུ་ཚོད་	-8.80044
ཡར་རྒྱས་	-8.8017
འང་	-8.80179
འཇིག་རྟེན་གྱི་	-8.80286
ཕ་	-8.8029
མེད་་	-8.80447
▁སངས་རྒྱས་ཀྱི་	-8.80609
ཆེན་པོའི་	-8.8084
དེ་ཡི་	-8.80995
རྒྱལ་བ་	-8.81078
ཚ	-8.81084
དངོས་གྲུབ་	-8.81124
མིན་	-8.81124
སྐུ་མགྲོན་	-8.81189
རྡོ་རྗེ་	-8.81326
འཛིན་སྐྱོང་	-8.81393
དེ་ཉིད་	-8.81454
ཉེ་བར་	-8.81521
བདག་ནི་	-8.81594
མི་གྲངས་	-8.81654
བཏང་ངོ་་་	-8.81742
དབུ་མའི་ལམ་གྱི་	-8.81748
དགོས་པ་དང་	-8.81833
ནས་ཀྱང་	-8.81836
འབྱུང་བ་	-8.82106
ང་་རྣམ་པར་ཤེས་པ་	-8.82125
་འདུ་བྱེད་རྣམས་ད	-8.82179
ངྒེ་མཆོག་གིས་	-8.8225
སྤྱི་མཐུན་ཚོགས་པ	-8.82301
མང་གཙོའི་	-8.82609
དགེ་བ་	-8.82705
ཡང་་་	-8.82943
མཉམ་འབྲེལ་	-8.82953
ཤེས་པ་དང་་	-8.83197
གསུང་བཤད་གནང་དོན	-8.83305
གྲོས་ཚོགས་འཐུས་	-8.83308
ཐད་	-8.8331
དམ་བསྒྲགས་	-8.83371
ལེན་	-8.83566
སྟོང་པ་ཉིད་དང་་	-8.83603
ཚང་མ་	-8.8374
ཤ	-8.83765
ངའི་	-8.83971
འབྲེལ་བ་	-8.83989
ཐོས་ནས་	-8.84054
ཟས་	-8.84068
ཡིན་ནའང་	-8.84108
ཞུས་	-8.84134
དམ་	-8.84167
བྱུང་ཡོད	-8.84249
མངའ་སྡེའི་	-8.84364
རིམས་	-8.84488
སྤྱི་ཚོགས་ནང་	-8.84511
འཕགས་པའི་	-8.84671
འབྱོར་	-8.84715
་ཤེས་རབ་ཀྱི་	-8.84855
ཐ	-8.84922
▁ཕྱི་ཚེས་	-8.84972
དགོས་	-8.85022
དངོས་ཡོད་	-8.85037
མེད་པ་དང་་	-8.85193
གླིང་	-8.85201
ཡིས་	-8.85236
སྤོབས་པ་	-8.85328
ཚོགས་པ་	-8.85469
དྲི་	-8.85472
ཡུ་རོབ་	-8.85524
སྲོག་ཆགས་	-8.85549
གནང་མཁན་	-8.85646
རྒྱ་ནག་གཞུང་ལ་	-8.85701
གང་ཡང་	-8.85885
ཁྱད་པར་	-8.86041
རིགས་ཀྱི་བུ་མོ་	-8.86047
ནང་གི་	-8.86097
སྦྱིན་པའི་	-8.86145
འདི་དག་ནི་	-8.8615
སྙོམས་པར་འཇུག་པ་	-8.86202
མཛད་སྒོ་	-8.86216
སྦྱིན་	-8.86292
བྱང་ཆུབ་ཀྱི་	-8.86335
འཁོར་བ་	-8.8639
ད་ཆ་	-8.86408
ཞི་	-8.86526
བཅུ་	-8.86638
གོང་	-8.86788
ཞུ་བཞིན་ཡོད	-8.86797
མཐོང་ངོ་་་	-8.86833
རྣམ་	-8.86853
ལན་	-8.86895
ཁྱིམ་བདག་	-8.86908
ཐོབ་ཐང་	-8.86976
བཞེས་	-8.87141
དྲུང་ཆེ་	-8.87144
བ་ཏུ་མཁྱེན་ཅེ་ན་	-8.87213
པའི་ཕྱིར་	-8.87254
▁དེ་དག་གིས་	-8.87258
་ཇི་ལྟ་བ་བཞིན་ར	-8.87399
གྲུབ་	-8.87561
ངེས་	-8.87758
ཉན་ཐོས་	-8.87776
ལྟ་བུར་	-8.87838
གནད་དོན་	-8.88135
▁ཁྱིམ་བདག་འདི་ལ་	-8.88174
ཆེ་	-8.88183
ཧ	-8.88228
སྐུ་ཚབ་	-8.88385
ཀུན་དགའ་བོ་	-8.88418
ཕྱི་ཟླ་	-8.88469
ཡང་ཞུ་བ་ཞུས་པ་ན་	-8.88489
་པ་མ་ཟད	-8.8849
མ་ཡིན་ནོ་་	-8.88521
རྟེན་	-8.88535
དང་འབྲེལ་	-8.88925
ཕྱི་ཚེས་	-8.88939
ཞུགས་	-8.89027
ཁེ་ན་	-8.89156
ལྷག་	-8.89247
སྙིང་པོ་	-8.89284
ལས་ཁུངས་	-8.89346
བཞུགས་སྒར་	-8.89465
རྒྱལ་ཚོགས་ཀྱི་	-8.89588
རུ་	-8.8991
འི་བར་དུ་	-8.89926
འཚམས་འདྲི་	-8.89938
ལྷན་ཚོགས་ཀྱི་	-8.89972
ལ་བཀའ་སྩལ་པ་	-8.90378
མཉེས་པར་བྱེད་པར་	-8.90428
བཀའ་བློན་མཆོག་	-8.90428
སྤྱི་ཁྱབ་	-8.90486
རྙེད་	-8.90505
་དེ་	-8.9056
ཡོངས་རྫོགས་	-8.90635
དང་ལྷན་	-8.90774
གཞོན་སྐྱེས་	-8.90786
ཞལ་	-8.90932
འོད་ཟེར་	-8.90971
སྐབས	-8.91041
འཇུག་	-8.91121
གང་ཟག་	-8.9114
རིགས་ཀྱི་བུ་	-8.91143
ཤེས་རིག་ལས་ཁུངས་	-8.9117
ཕྱག་འཚལ་ཏེ་	-8.91201
གཟའ་མིག་དམར	-8.91237
ཉོན་མོངས་པ་	-8.91264
ཞབས་	-8.91344
བཞག་	-8.91362
འབྱུང་	-8.91434
སྤྱི་	-8.91436
་མཆོག་གིས་	-8.91452
རྣམ་པར་སྨིན་པ་	-8.91478
བསམ་	-8.91621
ཚེ་དེའི་དུས་ན་	-8.91809
གཞུང་	-8.91908
རྫུ་འཕྲུལ་	-8.92193
▁བྱང་ཆུབ་སེམས་དཔ	-8.92249
སྟོང་ཆེན་པོའི་	-8.92285
ཏིང་ངེ་འཛིན་དང་་	-8.92342
གོ་་	-8.9236
བྱེད་མཁན་	-8.92413
ཐམས་ཅད་ཀྱིས་	-8.92413
ལས་ཁུངས་ནས་	-8.92421
དོ་	-8.92516
ལགས་དང་	-8.92637
མཐོང་བ་	-8.92783
མ་མཆིས་	-8.92936
ཡི་གེ་	-8.93078
རྒྱུ	-8.93087
ཤ་རིའི་བུ་	-8.9337
▁དེར་	-8.93786
བདེ་སྐྱིད་	-8.9384
དད་པ་	-8.93902
འབུམ་	-8.93981
ཤེས་པ་འགོག་པར་འག	-8.94181
ལ་མཚོན་ན་	-8.94345
བྱ་བའི་ཕྱིར་	-8.9455
ལྷན་ཚོགས་	-8.94632
རྒྱ	-8.94812
དཔེ་	-8.95072
དགེ་	-8.95106
རྩ་	-8.95271
འདི་ལྟ་བུ་	-8.95443
བཀོད་པ་	-8.95454
གནང་འདུག	-8.95485
སློབ་གྲྭ་	-8.95503
ཉི་མ་	-8.95647
ར་འགྱུར་	-8.95756
▁སུ་ནི་	-8.95838
འཛམ་གླིང་ནང་	-8.95848
མཐར་	-8.95864
རང་བཞིན་གྱིས་	-8.95989
▁མི་	-8.96054
ྱུར་བའི་ལམ་ཤེས་པ	-8.96085
གནས་པའི་	-8.96352
གྲུབ་མཚམས་	-8.96358
རིགས་ཀྱི་བུའམ་	-8.96477
▁འཛམ་གླིང་	-8.96555
▁གང་ལྟར་	-8.96592
ཚོར་བ་	-8.9662
སྐད་ཡིག་	-8.96722
གནང་བའི་	-8.96764
ཁྱབ་	-8.96821
བརྒྱ་ཆ་	-8.97092
མཁན་པོ་	-8.97293
བྱུང་སྟེ་	-8.97327
▁སེམས་ཅན་ཐམས་ཅད་	-8.97416
དར་	-8.97492
བསྐྱེད་	-8.97781
▁གང་གིས་	-8.97786
འཁོར་ལོས་སྒྱུར་བ	-8.97916
དེ་ལྟ་བུའི་	-8.97919
བདེ་	-8.98153
འདོན་	-8.98158
▁ཅེས་གསུངས	-8.98187
དང་ནི་	-8.98212
དམ་པའི་ཆོས་	-8.98545
མཛད་པ་	-8.98555
གཟེངས་རྟགས་	-8.98635
ནང་ཆོས་	-8.98644
▁ལྷའི་བུ་	-8.98665
ཉོན་མོངས་	-8.9883
ཕྱག་	-8.98869
དབུས་	-8.98958
ཡིན་པ་དང་	-8.98972
པར་བྱེད་དོ་་	-8.99072
གནང་སྟེ་	-8.99183
ཁྱེད་	-8.99298
དངོས་པོ་	-8.9931
རྣམ་པར་སྨིན་པས་	-8.99557
འཛིན་པ་	-8.9973
དཔེར་ན་	-8.998
དེ་བཞིན་དུ་ཚོར་བ	-8.99931
སྐྱེད་	-9.00042
བོད་ཀྱི་གནད་དོན་	-9.00167
སྙམ་མོ་་	-9.00173
▁ངོས་རང་	-9.00293
མ་གཏོགས་	-9.00418
བཟང་	-9.00524
དང་བཅས་པ་	-9.0055
བཟོད་པ་	-9.00634
སྔོན་གྱི་	-9.00652
▁གཟུགས་	-9.00698
མཆོག་ཏུ་	-9.00731
བོད་མི་ཚོར་	-9.00813
ན་ཡང་	-9.00862
བསྔགས་བརྗོད་	-9.01211
ཡ	-9.01394
རྟོགས་	-9.01729
▁བཀའ་སྩལ་པ་	-9.01829
དང་པོ་	-9.01921
ཚངས་པར་སྤྱོད་པ་	-9.02059
ལས་རིམ་	-9.0224
དེ་ན་	-9.02279
སྙིང་རྗེ་	-9.02294
ལ་ལོངས་སྤྱོད་པ	-9.02309
་ཐམས་ཅད་སྤངས་ཏེ་	-9.02312
མྱ་ངན་ལས་འདས་པ་	-9.02334
མའི་	-9.02682
གདུང་སེམས་མཉམ་	-9.02919
ཁྱབ་ཁོངས་	-9.02945
▁དེ་ལྟར་ན་	-9.02966
སར་	-9.03051
ལ་དྭགས་	-9.03063
གང་དུ་	-9.03113
འཐུས་མི་	-9.03207
སླར་ཡང་	-9.03232
གཟི་བརྗིད་	-9.03259
གནང་བ་དང་	-9.03323
སྤྱི་མཐུན་	-9.0346
མཐའ་ཡས་	-9.03523
དགོན་པ་	-9.03529
ཆེད་དུ་	-9.03546
བོད་མི་རྣམས་	-9.03662
མཆོད་པ་	-9.03715
གཞན་གྱི་	-9.03747
བརྒྱ་	-9.03759
འི་ཏིང་ངེ་འཛིན་	-9.03759
ངེས་པར་དུ་	-9.03817
མཆོག་ལ་	-9.0389
དེང་སྐབས་	-9.03975
ཟ	-9.04095
དབུ་འབྱེད་	-9.04101
བྱིས་པ་	-9.04142
མགོ་	-9.04191
དག་དང་་	-9.0437
ངོས་འཛིན་	-9.04626
སྦྱོར་	-9.04691
ཏེ་་	-9.04728
ཐུགས་རྗེ་ཆེ་	-9.04832
གསུམ་གྱི་	-9.04896
དབར་	-9.05029
སློབ་མ་	-9.05032
གསོལ་པ་	-9.05055
མཐུན་རྐྱེན་	-9.05065
པར་འགྱུར་་	-9.05094
བླ་མ་	-9.05109
མཆོད་རྟེན་	-9.05136
རབ་འབྱོར་	-9.05208
ལོ་ངོ་	-9.05292
སྣང་	-9.05303
ཐོན་	-9.05494
རྒྱས་	-9.05566
ནང་སྲིད་ལས་ཁུངས་	-9.05599
ཡང་སྲིད་	-9.05717
དགའ་བ་	-9.05732
ཏོ་་	-9.0591
དཀའ་ངལ་འཕྲད་	-9.05932
སོང་ནས་	-9.06098
མི	-9.06124
▁དེང་སྐབས་	-9.06318
བརྩོན་འགྲུས་ཀྱི་	-9.06337
མི་འདྲ་བ་	-9.06362
བདེ་བར་གཤེགས་པ་	-9.06446
དཀྱིལ་འཁོར་	-9.0652
དགེ་རྒན་	-9.0652
ལས་འཆར་	-9.06532
ཡིན་ཞིང་	-9.06772
ངོ་བོ་ཉིད་	-9.06789
འདུགདེ་ཡང་	-9.0683
རྟ	-9.06907
ཆོས་མ་འདྲེས་པ་བཅ	-9.06909
དུས་ཚོད་	-9.07082
གནོད་སྦྱིན་	-9.07151
ཀུན་དུ་	-9.07164
ནི་ཙན་དན་གྱི་	-9.07251
སྐབས་དེར་	-9.07282
▁དེ་ཡི་	-9.07298
ལྷའི་བུ་	-9.07316
སྟེང་	-9.07327
རྒྱལ་སྲིད་	-9.07519
ས་ཁུལ་	-9.07644
འབྲེལ་	-9.07715
ཡིད་ཆེས་	-9.07831
འཛམ་གླིང་གི་	-9.08026
སྐྱོར་ཚོགས་པའི་	-9.08148
སྐྱེ་བ	-9.08291
སུ	-9.08415
ཟབ་སྦྱོང་	-9.08494
ཐོབ་པ་	-9.08806
ཀྱི་བར་འདི་	-9.08854
གཞིས་ཆགས་	-9.09155
གར་	-9.09221
མཁྱེན་	-9.0926
སྐྱེས་པ་	-9.09568
གྲོས་ཆོད་	-9.09579
▁ཤ་རིའི་བུ་	-9.09603
ཆ་ཚང་	-9.09629
སྲོག་	-9.09738
ལྔ་དང་ལྔ་བཅུའི་	-9.0979
དང་སྦྲགས་	-9.09818
གཏི་མུག་	-9.0983
བྱས་ཡོད	-9.09887
འཁོད་	-9.09917
ཤེས་པ་དེ་ལ་	-9.10026
མཛད་སྒོའི་ཐོག་	-9.10069
ཡོད་སྟབས	-9.1017
ཙ	-9.10275
འབོད་སྐུལ་	-9.10281
གཉིས་པ་	-9.10317
ཐུབ་པ་བྱུང་ཡོད	-9.10348
དམིགས་	-9.10376
▁ཤེས་རབ་ཀྱི་	-9.10398
ཁྱམས་དང་ཁང་བཟངས་	-9.10484
ལྷོ་ཕྱོགས་	-9.10551
ཤེས་པའི་ཁམས་	-9.10692
ཁོང་གིས་	-9.10719
བོད་དོན་ཐོག་	-9.1075
སྟོང་གསུམ་གྱི་	-9.10763
▁རྒྱལ་སྤྱིའི་	-9.10926
ཀྱང་་་	-9.10978
འཐུས་མི་སྐུ་ཞབས་	-9.11072
ཁྱོད་ལ་	-9.11072
སོང་ངོ་་་	-9.1125
▁ལྷ་	-9.11287
དངོས་སུ་	-9.11426
བསམས་པ་	-9.11458
ཧ་ཅང་གལ་ཆེན་པོ་	-9.11466
དང་ལྷན་ཅིག་ཏུ་	-9.1159
གྲུབ་འབྲས་	-9.11736
མ་རེད	-9.11764
མགོན་པོ་	-9.11796
སྤྱན་	-9.11871
་སྟེ་	-9.11875
མཁྱེན་པ་	-9.11913
ཆོས་ཀྱི་ཉི་མ་	-9.11915
ཐོས་	-9.12019
▁ཕྱི་ལོ་གཟའ་ཟླ་བ	-9.12134
བྱུང་ངོ་་་	-9.12276
▁ཕྱི་ལོ་ཚེས་	-9.12319
གོང་ཚེས་ཉིན་གྱི་	-9.12367
དུག་	-9.12545
རང་སངས་རྒྱས་ཀྱི་	-9.12679
ས་ཁུངས་ནས་བཏང་གན	-9.1272
འབྱུང་བ	-9.12875
བྱམས་བརྩེ་	-9.12952
་ཞབས་ལ་མགོ་བོས་	-9.13064
རྒྱལ་མཚན་	-9.13093
འི་ཆོས་	-9.13117
ཟེར་བ་	-9.13137
ཐེག་པ་	-9.1327
▁དེས་སྨྲས་པ་	-9.13356
གཟའ་ཕུར་བུ	-9.13363
དག་ཏུ་	-9.13377
་རེད	-9.1338
བྱ་རྒྱུའི་	-9.13434
མདོ་སྡེ་	-9.13443
ནོར་བུ་རིན་པོ་ཆེ	-9.13543
བཤད་པ་	-9.13556
བྱ་རྒྱུ་	-9.1356
དེ་ལས་	-9.13592
བཀོད་	-9.13597
ར་བྱའོ་་	-9.13621
མཚན་ཉིད་	-9.13622
འཇིགས་	-9.1365
བཀྲ་ཤིས་བདེ་ལེགས	-9.13709
སེམས་ཀྱི་	-9.1374
ནུས་	-9.13946
ལྟ་གྲུབ་	-9.14013
གང་གི་ཚེ་	-9.14015
པ་རྣམས་	-9.14091
ི	-9.14173
འདས་པའི་དུས་ན་	-9.14275
རྒྱལ་ཁབ་ཀྱི་	-9.14337
མཐུན་སྒྲིལ་	-9.14504
དཀར་	-9.14657
ཕྱིན་	-9.14854
ང་ཚོར་	-9.14864
ཡན་ལག་	-9.14887
དགེ་བའི་	-9.14894
ཆེས་མཐོའི་	-9.14965
ང་ལ་	-9.1498
མངོན་པར་ཤེས་པ་	-9.1499
བློན་ཆེན་	-9.15012
བོད་མིའི་སྒྲིག	-9.15051
ཅེས་བྱ་བ་	-9.15108
མཚོན་	-9.15121
ཉམས་	-9.15242
ར་འགྱུར་རོ་	-9.15243
ྤྱི་མཐུན་རྒྱལ་ཁབ	-9.15308
ཆོས་རིག་ལས་ཁུངས་	-9.15332
སེལ་	-9.15489
རིམ་བཞིན་	-9.15519
གང་ལ་	-9.15838
དེའི་ཕྱིར་	-9.15852
སྲུང་	-9.15981
རྒྱུའི་གོ་སྐབས་	-9.1616
ལམ་ཡན་ལག་བརྒྱད་པ	-9.16213
ལུང་	-9.16221
སྨྲ་བ་	-9.16227
པའི་ཚུལ་གྱིས་	-9.16271
ཀུན་ནས་	-9.16369
▁ཁ་ཅིག་ནི་	-9.16453
ཁྲིམས་	-9.16525
ངོས་ཀྱི་	-9.16547
ཀྱི་བར་དུ་	-9.16817
ཟིན་	-9.1686
འཇམ་དཔལ་གཞོན་ནུ	-9.16866
ལག་པ་	-9.17038
▁བོད་མི་	-9.17094
དངོས་	-9.1714
ཆར་	-9.17254
ལས་འགན་	-9.17298
ཞིབ་འཇུག་	-9.17393
ཐེ་ཝན་	-9.17533
ཚངས་པའི་	-9.17585
སློབ་གཉེར་	-9.17793
▁ད་ལྟ་	-9.1789
པད་མ་	-9.17904
▁རིགས་ཀྱི་བུ་དག་	-9.17939
དགྲ་བཅོམ་པ་	-9.18135
སྒོམ་	-9.18299
ཐུབ་པ་	-9.18326
དུ་མ་	-9.1836
གསེར་	-9.18437
བཅས་ལ་	-9.18495
དེ་ནས་ཕྱི་ཞིག་ན་	-9.18566
སོགས་ཀྱི་སྐོར་	-9.18594
འདི་བཞིན་	-9.18594
ཚང་མར་	-9.18608
སྣོད་	-9.18649
བསྟེན་	-9.18665
ནད་ཡམས་	-9.18729
གསར་པ་	-9.18783
ཙམ་མ་ཟད	-9.18803
ཕྱོགས་གཅིག་ཏུ་	-9.18851
▁རྒྱལ་པོ་	-9.18869
མྱོང་	-9.18924
རྒྱ་མཚོ་	-9.18972
བདེན་པ་	-9.19069
རྒྱལ་པོ	-9.19106
ཡི་་	-9.19271
འདྲ་	-9.19354
དང་བྲལ་བ་	-9.19517
མད་གལ་གྱི་བུ་	-9.19536
ཁོ་ན་	-9.19572
རྒྱན་	-9.19632
སྤྱན་རས་གཟིགས་	-9.19793
འདུག་	-9.19874
ཚུལ་ཁྲིམས་ཀྱི་	-9.19886
གཅིག་པུ་	-9.19935
ཡོད་ན་	-9.19967
པའི་ཕྱིར་རོ་་	-9.20005
ཐེངས་འདིར་	-9.20096
རྩ་བ་	-9.20206
ཁག་གཅིག་	-9.20324
བྱང་ཆུབ་མངོན་པར་	-9.20352
ཉམས་ལེན་	-9.20578
སོགས་ལ་	-9.20655
ན་ནི་	-9.20699
མྱ་ངན་	-9.2071
སྡེ་	-9.20805
ཆགས་པ་	-9.20831
ང	-9.21007
ཐག་གཅོད་	-9.21053
བདག་ཅག་གིས་	-9.21117
གཞིར་བཟུང་	-9.21128
▁ཨ་རིའི་	-9.2114
མཆིས་	-9.21192
སྐྱེས་བུ་	-9.21214
ཀྱི་བསྟན་པ་ལ་	-9.21287
ཁ་དོག་	-9.21301
མངོན་པར་འདུ་	-9.21363
པ་ཞིག་	-9.21383
ནས་བཏང་གན	-9.21387
་སྤྱན་རས་གཟིགས་	-9.21392
སྙམ་ནས་	-9.21397
གསུངས་	-9.21438
སྤྱི་དང་	-9.21525
དྲིལ་བསྒྲགས་	-9.21578
▁ཁྱིམ་བདག་དེ་ལ་	-9.21593
བརྒྱ་བྱིན་	-9.21653
དུས་རྟག་ཏུ་	-9.21749
ཀླུ་	-9.21826
རྒྱུན་	-9.21856
ཆད་	-9.21883
པ་ནི་	-9.21912
ཆབ་སྲིད་	-9.21993
བསམ་ཚུལ་	-9.22031
ས་གནས་སུ་	-9.22081
ཞི་བ་	-9.22085
སོང་སྟེ་	-9.22093
འཁོར་ལོ་	-9.22175
ཆགས་ཀྱི་ཡོད	-9.22259
བྱུང་བའི་	-9.22262
ངན་	-9.22267
སྣ་	-9.22295
པར་འགྱུར་	-9.22555
སོང་སྟེ་ཕྱིན་ནས་	-9.22612
བྱེད་པའི་	-9.22918
ཧི་མ་ཅལ་མངའ་སྡེ	-9.22927
རྡུལ་	-9.22983
▁ཞེས་གསུངས	-9.23007
འགོ་ཁྲིད་	-9.23288
མཚན་མ་	-9.23351
▁དེ་ཚེ་	-9.2348
ངང་	-9.2351
བརྒྱུད་ནང་བསྟན་	-9.23531
ཞི་བའི་	-9.23537
དེའི་ནང་	-9.23567
ནི་མིང་ཙམ་སྟེ་	-9.23608
ཤོག་	-9.23874
ད་ལྟའི་	-9.24081
ཡར་	-9.24106
གཉིས་ཀྱིས་	-9.24203
འི་ཕྱིར་རོ་་	-9.24275
▁རྒྱ་ནག་	-9.24398
དོན་ཚན་	-9.24453
ཇི་སྙེད་པ་ཉིད་	-9.24494
ཕྲན་བུ་	-9.24608
ལྡན་པའི་	-9.24824
འི་སེམས་	-9.24914
གང་ཡིན་	-9.24919
ཁག་གི་	-9.25105
རང་ཉིད་	-9.25176
དམིགས་ཡུལ་	-9.25255
ཤར་	-9.253
འཕེལ་	-9.25301
གཞན་ལ་	-9.25572
ཕྱི་ལོ་གཟའ་པ་སངས	-9.25572
པོར་	-9.25609
འདུགསྐབས་དེར་	-9.25645
ཡོད་པ་དེ་དག་	-9.25775
སྤྲུལ་པ་	-9.2582
འདས་གྲོངས་སུ་	-9.25861
ཛ་དྲག་	-9.25908
ངོ་རྒོལ་	-9.25925
རྣམ་པར་གྲོལ་བ་	-9.25963
སྲིད་	-9.25998
འཐབ་རྩོད་	-9.2602
ཐུག་	-9.26063
འབྲས་	-9.26088
དོན་གྲུབ་	-9.26157
ཡིག་	-9.26165
▁ཅེས་སོགས་ཀྱི་	-9.26264
བྱེད་རྒྱུ་	-9.26313
འགན་	-9.26341
འདོད་པའི་	-9.26389
་ཡ་	-9.26409
གྲོས་ཚོགས་ནང་	-9.26424
ཐུབ་པའི་	-9.26436
བྱམས་བརྩེའི་	-9.26691
ཐོས་པ་	-9.26757
ཡོངས་ལ་	-9.26814
▁འདི་ལ་	-9.26822
གོ་སྒྲིག་	-9.26832
སྤྱོད་ཡུལ་	-9.26959
བསམ་བློ་གཏོང་	-9.2701
དབྱངས་	-9.27014
བ་མ་ཟད	-9.27069
ལྟ་བུའི་	-9.2709
བྱུང་ནས་	-9.27152
བསམ་བློ་	-9.27193
ཡིན་ན་	-9.27272
རྒྱ་ཆེར་	-9.27283
གཏམ་	-9.27322
བརྟག་དཔྱད་	-9.27344
ཐལ་མོ་སྦྱར་	-9.2741
ཆོས་ཐམས་ཅད་ནི་	-9.27459
་འཐུས་ཚོགས་གཙོ	-9.27464
རྩིས་	-9.27509
བྱས་ན་	-9.27551
བྱང་ཆུབ་ཀྱི་སེམས	-9.27588
ཟུར་	-9.27612
དབུ་འཁྲིད་	-9.27672
ཡོངས་སུ་འཛིན་པ་	-9.2773
ཕན་ཐོགས་	-9.27741
སྲིད་སྐྱོང་	-9.27754
བཅད་	-9.27811
བསྐྱོད་	-9.27814
བྱུང་བ་རེད	-9.27836
སྙིང་	-9.27868
གྲོགས་པོ་	-9.27923
རྗེས	-9.27941
སེ	-9.2797
བོད་མི་རྣམས་ལ་	-9.28004
ངོ་་་	-9.28069
ཀུན་འབྱུང་བ་ཤེས་	-9.28132
སྙིང་རྗེ་ཆེན་པོ་	-9.28166
སྟོང་པ་	-9.28221
ོ་	-9.2828
དགོངས་པ་	-9.28299
རྫོགས་	-9.28299
གྱུར་ཏོ་་	-9.28353
ལམ་ལུགས་	-9.28458
འབྱུང་འགྱུར་	-9.28487
བརྗོད་པ་	-9.28522
ཤེས་རིག་	-9.28538
སྡེ་ཚན་	-9.28577
ངོས་ལ་	-9.28634
ལས་འགུལ་སྤེལ་	-9.28652
ནུབ་	-9.28697
སྐྱབས་	-9.28794
བདེ་སྲུང་	-9.289
དེའང་	-9.28953
རླབས་ཆེན་གྱི་	-9.28987
རིམ་པ་	-9.28988
ར་བྱེད་དོ་་	-9.29072
གནོད་པ་	-9.2909
སྡོད་	-9.29127
་དེ་ལ་	-9.29228
གདུགས་	-9.29258
བདག་པོ་	-9.29278
ཐེ་ཚོམ་	-9.29294
ཚེ་རིང་	-9.29303
རྩ་བ་ནས་	-9.2934
▁གསོལ་པ་	-9.29391
ཚོགས་མི་	-9.29474
ཚོགས་ཁང་དུ་	-9.29493
ཐམས་ཅད་ལ་	-9.29532
▁བཙན་བྱོལ་བོད་མི	-9.29673
པ་ལས་	-9.29688
བས	-9.29817
མདུན་དུ་	-9.29827
ཞེ་ན་	-9.29842
བླ	-9.29878
སླེབས་	-9.29993
ཡོངས་	-9.3003
བདུད་	-9.30227
གཅིག་ཏུ་	-9.30349
ཡོངས་སུ་དག་པ་	-9.30365
འཛུགས་སྐྲུན་	-9.30621
ཀྱང་མིང་ཙམ་	-9.3063
ཆོས་ཀྱི་འཁོར་ལོ་	-9.30638
ལྷའི་དབང་པོ་	-9.30668
སྨན་པ་	-9.30746
དྲན་པ་	-9.30767
▁དེ་སྔ་	-9.30815
འོད་སྲུང་	-9.30912
ཕྱི་རྒྱལ་	-9.30919
དོན་དུ་	-9.30942
ཐམས་ཅད་དུ་	-9.30954
པར་བརྟེན་	-9.31106
རྣམ་པར་དག་པ་	-9.31136
མཛེས་	-9.31197
ཡིན་སྟབས	-9.31203
དག	-9.31238
སྒྲིག་འཛུགས་ནས་	-9.31238
ཞེས་པ་	-9.31243
ཞུ་རྒྱུ་དང་	-9.31417
ཕན་	-9.31743
སྲིད་སྐྱོང་བློ་	-9.31743
ཆེ་བ་	-9.31746
མི་སྐྱེ་བའི་ཆོས་	-9.31784
ཀུན་གྱིས་	-9.318
▁ཅེས་དང་	-9.31819
དཔལ་ལྡན་ཚོགས་གཙོ	-9.31821
རྣམ་པ་སྣ་ཚོགས་	-9.31874
་ཆེན་རིན་པོ་ཆེ་	-9.31906
དགེ་སློང་དག་	-9.31925
བཀའ་ཤག་གི་	-9.32012
ཕ་རོལ་	-9.32052
ཟད་	-9.32075
འོས་	-9.32134
ཚོགས་ཆེན་	-9.32135
གོ་སྐབས་	-9.32192
རྫོགས་པར་འཚང་རྒྱ	-9.32247
རོགས་དངུལ་	-9.32296
ས་ལ་	-9.32323
ཞུས་ཡོད	-9.32343
་ལ་བ་དེ་ལོགས་སུ་	-9.3235
▁འདི་	-9.3245
དུ་དེ་ལྟར་	-9.32494
ཐེངས་	-9.32519
བྱིན་	-9.32563
རྒྱུ་མཚན་	-9.3278
མཐོ་སློབ་	-9.32864
ཆེད་མངགས་	-9.32874
མ་འོངས་པར་	-9.32875
ད་ལྟར་	-9.32915
བྱེད་དོ་་	-9.32922
རྣམས་ཡིན་	-9.32935
འཇིགས་པ་	-9.3295
གཙུག་ལག་	-9.33046
བཅས་ནས་	-9.33156
ཁོང་གི་	-9.33231
མདོ་	-9.33232
ཡོང་བའི་	-9.33285
མོད་ཀྱི་	-9.33412
ཆོས་རིག་བཀའ་བློན	-9.33608
བཙུགས་	-9.33696
གསོལ་	-9.33823
ཤི་	-9.33899
བྱེད་པ་དང་་	-9.33994
▁གང་གི་ཚེ་	-9.34184
འདྲ་མིན་	-9.34389
ཡོང་གི་ཡོད	-9.34473
ལ་སོགས་པའི་	-9.3454
མཛད་སྒོར་	-9.3455
གནང་ཡོད་པ་བཅས	-9.34599
མྱ་ངན་ལས་འདས་པ	-9.34604
རིམ་	-9.34657
ཡང་དག་པར་རབ་ཏུ་	-9.34717
་ཡང་	-9.34718
འདུག་པ་བཅས	-9.34761
ནམ་མཁའ་	-9.34771
མང་བ་	-9.34824
མ་ཡིན་པ་	-9.34886
ཆོས་ཉིད་	-9.34908
་པདྨ་འབྱུང་གནས་	-9.34934
མཁས་	-9.34935
▁རྒྱ་གར་གྱི་	-9.34966
སྟངས་	-9.35089
སྔར་	-9.35157
སུམ་ཅུ་རྩ་གཉིས་	-9.35236
བཟོད་	-9.35291
ཆོས་ལ་	-9.35306
པར་གྱུར་ཏེ་	-9.35343
ཕྱོགས་སུ་	-9.35347
ཐུན་མོང་མ་ཡིན་པ	-9.35365
སྐྱེས་སོ་་	-9.35426
དམིགས་པ་	-9.35452
ཁུལ་གྱི་	-9.35458
ལུས་ཀྱི་	-9.35486
དེ་གཉིས་	-9.35497
རྟགས་	-9.35605
ཤུགས་	-9.35625
ཁོང་དུ་ཆུད་པ	-9.35628
གང་ཞིག་	-9.35713
འབྱུང་བར་འགྱུར་	-9.35722
▁དེ་ནས་དགེ་སློང་	-9.35763
ས་སྨྲས་པ་	-9.35905
རླུང་	-9.35935
ཁ	-9.35976
ས་ཚེ་དང་ལྡན་པ་	-9.36034
བརྒྱ་སྟོང་	-9.36119
ནང་པའི་	-9.36145
དངོས་པོ་མེད་པའི་	-9.36157
ཀུན་གྱི་	-9.36175
འགན་ཁུར་	-9.36246
ས་ནི་	-9.36259
ཕྱི་དྲིལ་	-9.36268
དེའི་ཐོག་	-9.36268
ཞེས་བྱ་བ་ནི་	-9.36278
རྒྱ་ནག་མི་དམངས་ས	-9.36289
སྐོར	-9.36337
▁འཕགས་པ་	-9.36443
ཞུས	-9.36446
སྲིད་འཛིན་	-9.36506
གཅིག་གི་	-9.36565
པའི་ཐོག་ནས་	-9.36584
དཀོན་མཆོག་	-9.36629
དང་བཅས་	-9.36698
འདི་ན་	-9.36703
སྲོལ་རྒྱུན་	-9.36728
ཞེས་བྱ་བར་	-9.36743
རེག་	-9.36744
▁ཐེངས་འདིར་	-9.36877
མཐུ་	-9.369
མིང་དོན་མཚུངས་པ	-9.36922
ངོ་	-9.36992
སྙིང་སྟོབས་	-9.36997
དེ་ཐོས་མ་ཐག་ཏུ་	-9.37009
དགོས་པ	-9.37058
དངུལ་	-9.37101
བསྒྱུར་	-9.37135
ར་འགྱུར་བའི་ལམ་	-9.37222
བྱའོ་་	-9.37369
ལམ་ནས་	-9.37417
ཇི་	-9.37536
བཙན་བྱོལ་དུ་	-9.37598
▁ཁྱོད་ཀྱིས་	-9.37681
སྐོར་དང་	-9.37683
རྒྱུ་ཡིན	-9.37712
་ཐམས་ཅད་	-9.37717
ཐད་ཀར་	-9.3776
གཙུག་ལག་ཁང་	-9.37829
ངམ་	-9.37874
ཡིན་ཞེ་ན་	-9.38028
མཛོད་	-9.38034
རྗེས་སུ་ལྟ་བ	-9.38229
འདས་པའི་དུས་	-9.38293
ཚང་	-9.38335
▁ཆོས་ཀྱི་	-9.384
རྒྱ་ཆེ་	-9.3842
སེམས་ཀྱིས་	-9.38564
བྱ	-9.38614
ཕ་མ་	-9.3862
ཡང་དག་པ	-9.38624
མངོན་	-9.38635
ལགས་ཏེ་	-9.3868
བསྙེན་པར་རྫོགས་པ	-9.38685
སྲིད་པ་	-9.38733
ཉེ་	-9.38765
འཚོ་བ་	-9.38804
དགུ་	-9.38839
བཟང་སེངྒེ་མཆོག་	-9.38888
▁དེ་དག་ནི་	-9.38929
ཝ་	-9.38969
ཆ་རྐྱེན་	-9.38992
གཏན་འབེབས་གནང་	-9.39296
▁བདག་ནི་	-9.39325
གྲགས་པ་	-9.39419
རྒྱལ་པོ་ཆེན་པོ་	-9.39467
རྣམས་དང་	-9.39621
ཚོགས་ཆུང་	-9.39656
ཅི་ཞིག་	-9.39718
ར་བྱེད་	-9.39789
མ་སྐུ་	-9.39814
ལུགས་	-9.39823
བྷ	-9.39914
ཉེས་པ་	-9.40011
ལོག་	-9.40053
གནང་བ་	-9.40065
བོད་ཡིག་	-9.40096
རྣམ་པ	-9.4021
རང་སངས་རྒྱས་	-9.40392
སྟོན་པ་སངས་རྒྱས་	-9.40432
སའི་	-9.40496
བྱས	-9.40602
ྭ་བརྒྱད་ཀྱི་བར་	-9.40722
དགེ་བཤེས་	-9.40759
ེན་	-9.40954
ཚོའི་	-9.40957
གཞུང་མང་གཉིས་ལ་	-9.41
ཁོ་ནར་	-9.41016
སོ་སོ་ཡང་དག་པར་	-9.41051
སྩལ་	-9.41088
དཔེ་དེབ་	-9.4113
ཁྲོད་	-9.41148
▁སྤྱི་འཐུས་	-9.41164
ལ་སྤྱོད་པ་	-9.4122
ལ་གནས་པ་	-9.41259
ཨ	-9.4127
འདིའི་ནང་	-9.41302
ཉི་ཤུ་	-9.41502
ཁྱོན་	-9.41551
མདོག་	-9.41562
ཆོས་ཀྱི་དབྱིངས་	-9.41562
དང་མི་རྣམས་ཀྱི་	-9.4165
གནས་མཆོག་	-9.41679
ཁྱོན་མི་གྲངས་	-9.41685
སྲས་	-9.41699
གྱུར་ཅིག་	-9.41782
་ཡིན་ནོ་་	-9.41802
ལ་རྒྱབ་སྐྱོར་	-9.41881
གྲགས་	-9.41894
བཤེས་གཉེན་	-9.41968
ཡང་མ་ཡིན་	-9.41972
བོད་བརྒྱུད་ནང་	-9.42
▁དཔལ་ལྡན་	-9.42019
འདྲེན་པ་	-9.42057
གྲོལ་	-9.42077
ས་འདི་ལྟར་	-9.42086
གནང་གི་ཡོད	-9.42124
ཤིང་རྟ་	-9.42132
སྐད་ཅེས་གསོལ་ཏོ་	-9.4215
གང་གི་	-9.42335
མདའ་	-9.42377
ཉམ་ཐག་	-9.42396
ཨ་རི་	-9.42406
སྙན་	-9.42461
བོད་ལ་	-9.42488
དགོངས་	-9.4264
དུས་རབས་	-9.42693
▁ང་	-9.42767
གཞུང་གི་	-9.42808
འཛམ་བུའི་གླིང་	-9.4281
ཉིད་དུ་	-9.42816
▁ཀྱེ་མ་	-9.42839
ཟེར་བ་དེ་	-9.43041
ཆེ་བའི་	-9.43088
ཁྲིམས་ཞིབ་པ་ཆེ་བ	-9.43089
་གང་དག་	-9.43231
ཞིང་་་	-9.43244
འི་ཁ་ལོ་སྒྱུར་བ་	-9.4326
ལས་དོན་ཚོགས་ཆུང་	-9.43355
ས་གནས་ཀྱི་	-9.43382
པ་དེ་	-9.4341
སྤྲད་	-9.43429
བསྟན་པའི་	-9.43519
རྫས་	-9.43539
བབ་	-9.43795
བྱེ་བྲག་	-9.43855
སེམས་ཅན་དེ་དག་	-9.43877
ཕྱིར་མི་ལྡོག་པ	-9.43964
གདན་	-9.43984
ནོ་་	-9.43985
དེ་ཙམ་	-9.44011
ཉི་ཧོང་	-9.44023
མ་ཐག་ཏུ་	-9.44075
མོས་	-9.44092
ཚོགས་དྲུང་ལ	-9.44104
དབུ་	-9.44219
རྣམ་པར་ཤེས་པའི་	-9.44221
སྡིག་པ་	-9.44276
ས་ཀྱང་	-9.4437
བཞག་ནས་	-9.44577
མོ	-9.44644
གཤེགས་པས་ཡང་དག་པ	-9.4467
དཔལ་ན་ལེནྡྲའི་	-9.44683
ལྔ་བརྒྱ་	-9.44811
▁དེ་རིང་འདིར་	-9.44815
མཁན་གྱི་	-9.44876
གཤེགས་	-9.44889
ཚོ་	-9.44937
དང་ཞབས་སུ་ལྡན་པ་	-9.45113
ཡིན་སྟབས་	-9.4516
ཁ་ཅིག་ནི་	-9.45224
རྒྱུས་	-9.45312
ཞི་བདེའི་	-9.45314
རྙེད་པ་	-9.45344
བསོད་སྙོམས་	-9.45351
ཁག་ལ་	-9.45356
ོན་	-9.4536
ཞིག་ཡིན	-9.45422
་ཆེན་སྐུ་ཕྲེང་	-9.45427
▁ས་གནས་	-9.4543
▁མཐར་	-9.45506
ཡིག་ཆ་	-9.45508
ཞིག་རེད	-9.45621
སྦྱོར་བ་	-9.45686
▁ཁ་ཅིག་གིས་ནི་	-9.45687
གནས་སོ་་	-9.45784
སྒོ་ནས་	-9.45844
བཏང་ནས་	-9.45844
སྐྱེས་ཏེ་	-9.45864
འཇུག་པ་	-9.45868
ལུས་ལ་	-9.45879
སྤོས་	-9.45928
རོགས་རམ་	-9.46088
མང་ཚོགས་ལ་	-9.46111
དྲག་	-9.46194
བྱེད་དགོས་པ་	-9.46215
གོ་སྒྲིག་འོག་	-9.46241
མཁན་ཆེན་ཞི་བ་འཚོ	-9.46247
དཔེར་ན་སྒྱུ་མ	-9.46303
སྨིན་	-9.46304
བདེ་བར་	-9.46319
རང་ལུས་མེར་སྲེག་	-9.46326
གསར་འགོད་པ་	-9.46347
▁སེམས་	-9.46449
མི་དམིགས་	-9.4649
མཉམ་པ་ཉིད་	-9.46593
ཆོས་སྐྱོང་	-9.46624
དེ་བཞིན་ཉིད་	-9.4685
བསྒྲུབ་	-9.46881
འཛུགས་	-9.46906
སྐྱེས་ནས་	-9.4691
དམག་	-9.46912
མཐོང་ན་	-9.47011
པ་དག་	-9.47121
རྒན་	-9.47242
ཆོས་ཐམས་ཅད་ཀྱི་	-9.47303
ཤེས་པ་འདི་ལྟར་	-9.4736
གང་ཡིན་པ་	-9.47362
གནད་ཡོད་མི་སྣ་	-9.47375
▁འཇམ་དཔལ་གྱིས་	-9.47546
སྐད་ཆ་	-9.47547
ལ་སོགས་	-9.47548
ཕྱུག་ཅིང་ནོར་མང་	-9.47559
བཀའ་སློབ་སྩལ	-9.47586
སྐྱེ་བོ་	-9.47632
རྐང་	-9.47644
བླ་ན་མེད་པ་ལྷ་	-9.47652
དུས་སུ་	-9.47689
མཚོ་	-9.4769
ཆིབས་སྒྱུར་	-9.47724
ོགས་	-9.47724
དེ་ཡིས་	-9.47755
མཛེས་པ་	-9.47793
མི་མང་གི་	-9.47991
འདུས་པ་	-9.48004
ཞི་བདེ་	-9.48033
རྣམས་སུ་	-9.48179
ཀྱིས་སྨྲས་པ་	-9.48181
ཐོག	-9.48257
ཁྱིམ་དུ་	-9.48269
སེམས་ལ་	-9.48272
▁མ་འོངས་པར་	-9.48344
གམ་	-9.48346
བཅར་	-9.4837
ནས་བཟུང་	-9.48422
དགོས་མཁོ་	-9.48456
ནས་སུ་་	-9.48458
ཚོགས་ཆུང་གི་	-9.48462
གཅོད་	-9.48468
འོད་སྲུང་གིས་	-9.4852
འཇམ་དཔལ་	-9.48551
ཡིན་པས་	-9.48593
གསར་འགྱུར་	-9.48667
གསར་	-9.48698
▁རྟག་ཏུ་	-9.48723
འི་ཚིག་བླ་དགས་	-9.48724
འཁོར་བའི་	-9.48732
དགོན་པའི་	-9.48748
ཉམས་ཞིབ་	-9.48756
འི་ཡེ་ཤེས་	-9.4879
སྤྲིན་	-9.48865
དགྲ་	-9.48901
མ་མཆིས་པ་	-9.48907
སླར་	-9.49184
བྱང་	-9.49195
བསླབ་པ་	-9.49227
ལགས་ན་	-9.49315
གྲ་སྒྲིག་	-9.49324
བོད་མི་རིགས་ཀྱི་	-9.49341
ཨང་	-9.4938
གནས་བབ་	-9.49398
སྡུག་བསྔལ་གྱི་	-9.49427
གནང་སོང་	-9.49527
ཤུགས་ཆེན་པོ་	-9.49579
རྒྱ་ནག་དམར་པོའི་	-9.49589
▁གྲོས་ཚོགས་	-9.49695
ཞིག་གིས་	-9.49711
མི་འགྱུར་་	-9.49779
ལས་ཀ་	-9.4981
ཡིན་པར་	-9.49816
མི་འབོར་	-9.49892
ཤུགས་རྐྱེན་	-9.49908
ི་སྤྱད་པ་སྤྱོད་པ	-9.49953
▁དགེ་སློང་དག་དེ་	-9.50074
བླ་མ	-9.50085
ཡོད་དོ་་	-9.50129
གནས་སུ་	-9.50132
མེད་ན་	-9.50161
བསོད་ནམས་ཀྱི་	-9.50167
མཁས་དབང་	-9.50171
འི་སྐྱེས་བུ	-9.50171
▁བསྐལ་པ	-9.50283
གཙོས་	-9.50389
ཚུགས་	-9.50426
▁ལྷག་པར་དུ་	-9.50439
མ་ཡིན་ཏེ་	-9.50626
ཛ	-9.50653
ཆོས་རྣམས་ལ་	-9.50664
མི་འདུག	-9.50664
གས	-9.50672
ས་ཆ་	-9.50712
ཉན་	-9.50741
མཐོང་་་	-9.50774
བྱེད་སྐབས་	-9.50927
ནང་ཁུལ་	-9.50927
བྱང་ཕྱོགས་	-9.50961
ཡར་རྒྱས་གཏོང་	-9.5102
སྔགས་	-9.51102
བ་ར་	-9.51199
ཁང་གི་	-9.51236
ཡང་དག་པར་རྗེས་	-9.51242
ཆོས་གླིང་	-9.51292
ལྟ་སྟེ་དཔེར་ན་	-9.51375
དོ་སྣང་	-9.51499
པའང་	-9.51558
སློབ་ཚན་	-9.51572
འོས་བསྡུའི་	-9.51586
འཁོད་དོ་་	-9.51664
ཐུགས་རྗེ་	-9.51776
མང་པོས་	-9.51793
ཕྱེད་	-9.51875
འི་རྨི་ལམ་ན་	-9.51885
པོའི་	-9.51904
▁རྒྱལ་པོ་ཆེན་པོ་	-9.5191
བྱམས་པ་	-9.51946
མཛད་འཕྲིན་	-9.51991
སྨན་བཅོས་	-9.52048
དཔག་ཏུ་མེད་པ་དག་	-9.52157
མཁྱེན་པ་ཉིད་ཀྱི་	-9.52241
གྲོས་ཚོགས་འོག་མ	-9.5227
བླངས་ནས་	-9.52288
ང་རྒྱལ་	-9.52316
ཚངས་པ་	-9.52339
▁ཀྱེ་	-9.52347
ལྷ	-9.52358
རྐང་པ་	-9.52365
▁ང་ཚོའི་	-9.52382
རྒྱུ་རེད	-9.52438
སྟན་	-9.52452
སྲུང་བརྩི་ཞུ་	-9.52689
མི་དམིགས་སོ་་	-9.52775
འི་བར་	-9.52777
ཕེབས་ཡོད	-9.52921
མངོན་དུ་	-9.52932
རྒྱག་	-9.52958
རེད་ཅེས་	-9.52973
ཐབས་ལམ་	-9.52983
མངོན་པར་ཤེས་པ་ལྔ	-9.53016
གསར་འཛུགས་	-9.5302
གསར་འགོད་	-9.5304
གསུམ་པ་	-9.53085
བཞེངས་	-9.53096
ཐོགས་	-9.531
མི་སྣ་	-9.53124
ཨིན་ཡུལ་	-9.53199
ཡབ་	-9.53218
མངའ་	-9.53275
སྐོར་ངོ་སྤྲོད་	-9.5329
▁བོད་ནང་	-9.53302
▁བདག་གི་	-9.53331
པ་ལ་	-9.53368
པར་གྱུར་པ་	-9.53454
བསྙེན་པར་རྫོགས་	-9.53462
▁མཐོང་ནས་ཀྱང་	-9.53488
སོན་	-9.53517
གཙང་	-9.53563
པདྨ་	-9.53617
གྱུར་པ་	-9.53721
འབབ་	-9.53866
སེང་གེ་	-9.53924
བྲལ་	-9.53958
ཉིན་མོ་	-9.53961
རྣལ་འབྱོར་	-9.54019
ཡིན་པའི་	-9.54027
མི་འཇིགས་པ་	-9.54048
བོད་དོན་ལས་འགུལ་	-9.54059
མོས་པ་	-9.54146
▁ཆོས་ལུགས་	-9.54194
པ་ཡི་་	-9.54357
རི	-9.54459
ཐེག་ཆེན་	-9.54545
རྨི་ལམ་	-9.54586
གང་ལྟར་	-9.54614
ཁྱོད་ནི་	-9.54637
དཀའ་	-9.54697
བསྟུན་	-9.54702
བོད་མིར་	-9.5472
ཁ་ཤས་	-9.54724
་ཡིན་སྙམ་འམ་	-9.54904
ངོ་སྤྲོད་གནང་	-9.54916
གཙུག་ལག་ཁང་དུ་	-9.54972
ལྡན་པ་	-9.54989
ཁུལ་	-9.55048
གྲྭ་	-9.55074
སྤྱད་	-9.5514
ཁག་གཅིག་གིས་	-9.5518
ཉིད་ཀྱིས་	-9.55217
་དེ་ཡི་	-9.55227
བོད་དང་	-9.55343
སྡུག་	-9.55359
གོང་ས་ཏ་ལའི་བླ་མ	-9.55408
▁ལ	-9.55412
ཞུས་པ་	-9.55446
རྟོགས་པ་	-9.55468
བོ་	-9.55501
གནང་བ་མ་ཟད	-9.55527
བརྒྱུད་ནས་	-9.55563
ཞབས་སོར་འཁོད་	-9.55569
གང་ཐུབ་	-9.55571
ཟིན་པ་	-9.55604
ཡང་དག་པའི་	-9.55616
རྒྱ་གར་གཞུང་གིས་	-9.55666
ཚལ་	-9.5571
ངོས་	-9.55768
ཐར་	-9.55843
འཚལ་	-9.55873
རྩེ་	-9.55936
ཡིན་ལ་	-9.55949
ཐོག་ལ་	-9.55996
ས་ནས་	-9.56033
རྒྱུན་དུ་ཞུགས་པ	-9.56066
སྩལ་དོན	-9.56123
་རྣམས་ལ་	-9.56295
མེད་པ་དང་	-9.56354
▁ཨོ་	-9.56358
ཁོངས་	-9.5646
སྦྱར་	-9.56469
སྒོར་	-9.56533
ཞུ་རྒྱུའི་	-9.566
དགའ་ལྡན་	-9.56622
གསུང་བཤད་	-9.5665
འི་འབྲས་བུ་	-9.56678
དེས་ཀྱང་	-9.56779
ཡུལ་དུ་	-9.56826
དབང་གིས་	-9.56847
པ་ཡིན་ན་	-9.56901
▁ད་ལྟའི་ཆར་	-9.56926
སི་	-9.56951
ཡོད་སྟབས་	-9.56962
ཐང་གི་གནས་སྟངས་	-9.56998
བཅུ་གཉིས་	-9.57008
ཀླུའི་རྒྱལ་པོ་	-9.57141
དེ་ཚོའི་གྲས་	-9.57217
ལས་ཁུངས་སུ་	-9.57289
▁ད་ལྟའི་	-9.57328
གི་དགེ་འདུན་	-9.57449
འི་སླད་དུ་	-9.57457
རྣམ་དག་	-9.57477
མཛད་པའི་	-9.57576
བླངས་ཏེ་	-9.57679
ལྷ་རྣམས་	-9.57746
བཏོན་	-9.57811
ཀྱི་དབང་པོ་	-9.57894
སེམས་བསྐྱེད་པ་	-9.57917
འཕྲད་	-9.57977
ལ་ཚེ་དང་ལྡན་པ་	-9.57985
སྟན་ལས་ལངས་ཏེ་	-9.57986
་གོས་ཕྲག་པ་གཅིག་	-9.58005
གཞན་དག་	-9.58052
ར་བྱ་བའི་ཕྱིར་	-9.58166
གཞན་དུ་	-9.58197
ར་འགྱུར་ཏེ་	-9.58239
དང་སྦྲགས	-9.58255
རབ་འབྱོར་གྱིས་	-9.58288
རྩི་	-9.5838
པར་གྱུར་ནས་	-9.5849
ཚོགས་ཁང་ནང་	-9.58514
་དག་	-9.58529
ཆོག་	-9.58587
ར་མི་འགྱུར་རོ་་	-9.58638
ཡུན་རིང་	-9.58645
ལྟར	-9.58656
སུ་ཞིག་	-9.58689
མ་ཟད	-9.58793
འདུས་	-9.58805
་སོགས་	-9.58853
ཕར་	-9.58879
ཞིག་ཆགས་ཡོད	-9.58881
དེབ་	-9.58901
ཕྱི་ལོ་གཟའ་ལྷག་པ	-9.58914
གསེར་གྱི་	-9.5894
འདྲེན་	-9.58941
བཀུར་སྟི་	-9.59038
འཚེ་མེད་ཞི་བའི་	-9.5908
ཉ	-9.59103
གནང་ཡོད་པ་དང་	-9.59109
བཅོམ་ལྡན་འདས་དེ་	-9.59148
སྒྲིག་འཛུགས་དང་	-9.59183
མ་གྱུར་ཅིག་	-9.59221
སྐྱེ་མཆེད་	-9.59269
དྲི་བ་	-9.59278
གང་དང་གང་	-9.59323
ངོ་མཚར་	-9.59329
འཕགས་	-9.59333
ཡིན་པ་མ་ཟད	-9.59414
རིན་པོ་ཆེ་མཆོག	-9.5947
་སངས་རྒྱས་	-9.59484
གནང་རྒྱུ་	-9.59539
བྱིན་གྱིས་བརླབས་	-9.59568
རིག་པའི་	-9.5968
ཀུན་དགའ་བོས་	-9.5969
སྤྱོད་ལམ་	-9.59776
ཁར་	-9.59799
ཕོག་	-9.5981
རྡ་ས་	-9.59826
དང་་རང་སངས་རྒྱས་	-9.59867
གདོང་	-9.59873
▁བརྟན་པའི་	-9.59879
ཐ་སྙད་	-9.59899
འགྲུབ་	-9.59927
གསོལ་འདེབས་	-9.6004
གནང་བར་	-9.60194
ར་ལན་གསུང་བ་ནས་	-9.60213
ཚོད་	-9.60244
ཀྱི་རང་བཞིན་	-9.60294
སྒྲུབ་པ་	-9.6044
དང་ལྡན་	-9.60491
བཟུང་ནས་	-9.60494
▁བཞི་གང་ཞེ་ན་	-9.60571
བསྔགས་པ་	-9.60628
འཆར་གཞི་	-9.60638
ལེགས་སོ་ལེགས་སོ་	-9.60649
ཁྱེའུ་	-9.60685
བགྱིད་	-9.60733
▁དེས་ན་	-9.6085
རོགས་སྐྱོར་	-9.6096
▁ཁྱོད་	-9.61018
གནང་རོགས	-9.61042
བདེན་	-9.61067
ཡང་ཆེས་ཕ་རོལ་ན་	-9.61069
ནོར་བུ་	-9.61094
ཕྱག་ལས་གནང་	-9.61096
རྣམ་པར་རྟོག་པ་	-9.61099
རྫུ་འཕྲུལ་གྱི་	-9.61175
བྱས་པ་རེད	-9.61254
ཛ་དྲག་གི་	-9.61278
པ་རྣམས་ཡིན་	-9.61303
ཕྱིས་	-9.61371
བརྟན་	-9.61378
རྟག་པར་	-9.61381
ཐུབ	-9.61433
ཁྲིད་	-9.61523
ཡོད་དེ་	-9.61589
དགོས་རྒྱུ་	-9.61618
གྲོང་	-9.6168
ལས་ཀྱི་	-9.61698
གསུངས་པ་	-9.6171
རྒྱུན་ལས་	-9.6172
སྐྱོན་བརྗོད་	-9.61756
ནད་པ་	-9.6176
གཅིག་གིས་	-9.61788
་བཞུགས་ཏེ་	-9.61842
གོ་སྒྲིག་གནང་	-9.61847
འདི་སྐད་དུ་	-9.61865
འདི་ཡང་	-9.62012
ཅིའི་ཕྱིར་	-9.62104
སློབ་གྲྭ་ཁག་གི་	-9.62132
རིང་ལུགས་	-9.62136
ཚོགས་གཞོན་	-9.62174
པའོ་	-9.62218
འགྲོ་བཞིན་ཡོད	-9.6231
དེ་དག་དང་ལྡན་ན་	-9.62326
འགོག་དབྱེ་ཟུར་	-9.62388
གཞིས་	-9.62395
བྱེད་དགོས་པའི་	-9.62442
ཙམ་གྱི་	-9.62493
དགའ་མགུར་སྤྱོད་	-9.62494
་ལ	-9.62542
སྐྱབས་རྗེ་	-9.62572
ནི་ཆོས་	-9.62588
ཙམ་ལ་	-9.6269
ཡོང་བར་	-9.62741
སྲིད་གཞུང་གིས་	-9.62772
འཇིག་རྟེན་ན་	-9.62773
ཐག་	-9.62971
▁དཔེར་ན	-9.63001
ཚུར་	-9.63008
རྩོམ་	-9.63052
རྟོག་ཞིབ་	-9.63081
རང་རང་གི་	-9.63115
▁ཤེས་རབ་	-9.63171
རབ་འབྱོར་གཞན་ཡང་	-9.63177
འདས་	-9.63182
བྱང་ཨ་རིའི་	-9.63186
ཀརྨ་དགེ་ལེགས་	-9.63249
ཚན་རིག་	-9.6327
དགའ་ལྡན་ཕོ་བྲང་	-9.63323
བརྒྱ་སྟོང་ཕྲག་	-9.63367
ནའང་	-9.63408
▁ཉེ་ཆར་	-9.63432
ལ་གནས་ནས་	-9.63516
གྱུར་ཅིག་མི་	-9.63519
རྒྱས་པར་	-9.63614
ཇི་སྙེད་	-9.63631
ཡོད་པ	-9.63647
གཞུང་གིས་	-9.63693
ཚོགས་ཆེན་ཐེངས་	-9.63752
་མ་ཡིན་	-9.63755
ཆེན་པོར་	-9.63784
ཀློག་	-9.63796
གཞིས་ཆགས་སུ་	-9.63833
དང་འབྲེལ་བ་	-9.63834
བོད་ཀྱི་ཟློས་གར་	-9.63859
རིན་ཐང་	-9.63866
ཆེན་མོ་	-9.63877
བཞིན་་	-9.63879
རྣམ་པ་དང་	-9.6389
ལས་དེའི་	-9.63919
་པ་བཅས	-9.63944
བརྟུལ་ཞུགས་	-9.63946
འི་གྲོས་ཚོགས་	-9.63959
ཡིན་པར་སེམས་ན་	-9.64026
ཆུའི་	-9.64049
སེམས་ཁམས་རིག་པ	-9.6406
འཆར་	-9.64083
ལྷུང་བཟེད་	-9.64096
གཞི་རྩའི་	-9.64138
ཡོད་ནའང་	-9.64141
ཆུ་ཚོད་	-9.64151
ཡིན་ཡང་	-9.64186
སྐྱེ་བོ་ཕལ་པོ་ཆེ	-9.64188
མཛད	-9.64216
ཕུན་ཚོགས་	-9.64232
▁བུད་མེད་	-9.64236
ཆས་	-9.64255
སྐྱོང་མཆོག་གིས	-9.64285
སྒྲིག་	-9.64303
ཡིད་ལ་	-9.64329
མེད་དོ་	-9.64381
ས་བོན་	-9.64398
འདོད་ཆགས་དང་བྲལ་	-9.64512
པ་ཡིན་	-9.64526
ཞུགས་པ་	-9.64537
པར་བྱའོ་་	-9.64591
སྟོང་ཕྲག་	-9.64632
རང་སྐྱོང་ལྗོངས་	-9.64635
འབྲེལ་རྒྱལ་ཚོགས་	-9.64644
གཟུགས་ཀྱི་	-9.64653
བཟུང་	-9.64659
གྲངས་མེད་	-9.647
གཞག་	-9.64719
ཡོད་མེད་	-9.64744
རིག་གནས་	-9.64836
གྱ	-9.64839
བྱ་་	-9.64893
ཚོང་	-9.64917
▁ཞེས་པའི་	-9.64924
་ཡིན་	-9.64954
ཡེ་ཤེས་ཀྱི་	-9.65033
ཕྱོགས་བཅུའི་	-9.65266
བརྙན་འཕྲིན་	-9.65267
ུ་	-9.65283
སྲོལ་	-9.65296
ཉེ་ཆར་	-9.6531
རྩལ་	-9.65364
སྐབས་སུ་	-9.65403
མི་རྣམས་	-9.65453
མ་གཏོགས་པར་	-9.65538
རྡོ་	-9.6556
སྐྱོར་ཚོགས་པ་	-9.65566
སྤྱད་པ་	-9.65619
སྐྱེས་པའི་	-9.65665
ཁམས་ཤེས་པ་འགོག་པ	-9.6567
ར་གྱུར་པ་དེ་གཞན་	-9.65682
ཤེས་ཡོན་གྱི་	-9.65747
པ་ཡིན་ནོ་་	-9.6584
▁མགོན་པོ་གང་ཉིད་	-9.65842
ལག་བསྟར་བྱེད་	-9.65923
སློབ་གསོ་	-9.6593
དགེ་འདུན་གྱི་	-9.65938
ལེན་པ་	-9.66011
དགོས་ཀྱི་ཡོད	-9.66083
གོང་མ་	-9.66113
གྲོགས་	-9.6613
▁ཡེ་ཤེས་	-9.66151
དེས་བསམས་པ་	-9.66152
གསལ་པོ་	-9.66163
ཧ་	-9.66257
མང་གཙོ་	-9.6628
འདུག་ནས་	-9.66289
བཅོས་	-9.66334
ཉིན་གྲངས་	-9.66431
ཚོར་བ	-9.66448
ཐམས་ཅད་མཁྱེན་པ	-9.66462
ལ་སྨྲས་པ་	-9.6648
ཅིང་་	-9.66555
བཏང་སྟེ་	-9.66566
བརྗོད་གཞིའི་ཐོག་	-9.6657
ལེགས་པར་གསུངས་པ	-9.66604
ཤེས་སོ་་	-9.66613
རྒྱུན་སྐྱོང་	-9.66634
རབ་ཏུ་འབྱུང་བ་	-9.66679
འགྲོ་བར་	-9.66683
གར་སོང་ཆ་མེད་དུ་	-9.66688
མེད་དེ་	-9.66699
▁དགེ་བའི་རྩ་བ་	-9.66702
གཉིས་སུ་	-9.66776
ཞེས་བྱ་བ་དང་་	-9.66863
་རྣམས་ནི་	-9.66895
ཡང་མེད་	-9.66898
ཀྱི་ཡོད	-9.66919
སྤྲོད་	-9.66924
རེ་བ་	-9.66967
ཞིག་ཏུ་	-9.66999
རེ་ཞིག་	-9.67052
མཆོག་གིས	-9.67066
བསྐྱར་གསོ་	-9.6711
བླངས་	-9.67155
མུ་	-9.67192
རྒྱལ་པོའི་ཁབ་	-9.67204
ཞེས་བྱ་བ་ནས་	-9.67245
མི་མང་གིས་	-9.67275
ཡག་	-9.67294
ར་བྱ་	-9.67297
ཙམ་མིན་པར་	-9.67298
ལས་ཀྱང་	-9.67305
མངོན་སུམ་དུ་བྱས་	-9.67312
འཚམས་འདྲིའི་	-9.67315
▁རྣམ་པ་ཐམས་ཅད་	-9.67324
བློན་པོ་	-9.67345
ཡུལ་གྱི་	-9.67415
ཁྱིམ་ཚང་	-9.6742
ལ་སྙོམས་པར་ཞུགས་	-9.67424
སེམས་ཁམས་	-9.67441
ཆོས་ཕྱོགས་ཀྱི་	-9.67451
གང་ཙམ་	-9.67463
བྱེད་བཞིན་པ་	-9.67478
ཕེབས་བསུའི་སྣེ་ལ	-9.67557
སྒྱུ་རྩལ་	-9.6757
འདུགདེར་བརྟེན་	-9.67587
▁དེའི་ཕྱིར་	-9.67645
ཡིད་ཀྱིས་	-9.67671
བཅས་སུ་	-9.67748
མཁས་པའི་	-9.67789
འཛོམས་	-9.67794
▁ཕྱི་ཟླ་	-9.67842
ངན་པ་	-9.67886
▁ཚུལ་ཁྲིམས་	-9.67937
▁གསར་འགོད་པས	-9.68043
སྙན་ཐོ་	-9.68102
རམ་	-9.68151
མི་གཡོ་	-9.68188
སིལ་སྙན་	-9.68194
སྨོན་ལམ་བཏབ་པ་	-9.68229
▁བོད་མི་མང་སྤྱི	-9.68233
ནང་ཡོད་པའི་	-9.68265
ཇི་ལྟ་བ་བཞིན་དུ་	-9.68314
གྲས་	-9.68386
ཕྲེང་བཅུ་བཞི་པ་	-9.6841
མང་དག་ཅིག་	-9.68413
▁ཆོས་ཐམས་ཅད་	-9.68455
དཀའ་བ་	-9.68476
སྒྱུར་	-9.68476
སློབ་ཁྲིད་	-9.68488
འདུས་བྱས་	-9.68533
བདག་ཅག་གི་	-9.68585
གྲོས་མོལ་	-9.68712
▁ཡང་	-9.68744
་གཡུ་ཐོག་	-9.68834
▁དེ་ནས་རྒྱལ་པོ་	-9.68838
ལྷ་མོ་	-9.68857
▁རྒྱ་ནག་གི་	-9.68934
གཡོག་	-9.68964
ཉེས་	-9.68967
ལགས་སོ་	-9.68982
དེས་ནི་	-9.69005
རྣམས་ཡིན་ནོ་	-9.69014
ཐུབ་བསྟན་	-9.69062
ལྷག་པར་	-9.69073
རྒྱལ་བའི་ཕོ་བྲང་	-9.69074
གནང་དགོས་པའི་	-9.69095
རྒྱབ་	-9.69186
ཚེ་རིང་ལགས་ཀྱིས་	-9.69209
དག་དང་	-9.69237
ཚབ་ཞུས་ཏེ་	-9.69474
ཡོ་བྱད་	-9.69496
མང་དུ་	-9.69508
ཕྱིན་ནས་	-9.69583
ཏན་ཏན་	-9.69589
ནེ་	-9.69598
ར་གནས་པའམ་གལ་ཏེ་	-9.69625
མཉམ་དུ་	-9.69644
མེད་པས་	-9.69649
གནོད་	-9.69771
ཡོང་གི་འདུག	-9.69786
བསླབ་	-9.69802
ཉེན་	-9.69829
སྦྱོང་	-9.69829
ཕྱིར་མི་འོང་བ	-9.6983
གསང་	-9.69832
གང་མང་	-9.69856
ཨ་རིའི་གྲོས་ཚོ	-9.69919
ང་ཡི་	-9.70013
འདས་པའི་ལོ་ངོ་	-9.70018
ཀར་	-9.70025
སྔོན་འགོག་	-9.70109
འབྱུང་བར་	-9.70122
གྲོས་ཚོགས་གོང་མ	-9.70124
རྡ་སར་	-9.70159
ལ་མཁས་པ་	-9.70179
དོན་དམ་པར་ན་	-9.70317
སྐུའི་	-9.70331
བྱས་རྗེས་	-9.70368
གྱུར་ཏེ་	-9.70373
འདུ་བྱེད་	-9.70409
གནས་བརྟན་	-9.70438
▁གང་ཞིག་	-9.70441
རྣམ་པར་ཐར་པ་	-9.7045
ཁྱུ་མཆོག་	-9.7059
ཟེར་བའི་	-9.70596
འདེབས་	-9.70653
གཏམ་བཤད་	-9.70744
གནས་་	-9.70778
གཉེན་	-9.70805
དྲི་མ་	-9.70826
ནག་	-9.70891
མཉམ་ཞུགས་གནང་	-9.70919
བྱས་པས་	-9.70949
ཏིང་ངེ་འཛིན་གྱི་	-9.7101
སྲིད་བློན་	-9.71012
གཞན་གྱིས་	-9.71014
ལོན་	-9.71027
དགེ་སྦྱོང་	-9.71038
ཁྱི	-9.71045
འདི་ལྟ་བུའི་	-9.71082
འདིའི་སྟེང་	-9.71096
རྟེན་ཅིང་འབྲེལ་	-9.7112
ཀི་	-9.7112
པ་ཇི་སྙེད་པ་ཉིད་	-9.71167
་ཞུ་རྒྱུ་ཡིན	-9.71192
འཛམ་གླིང་མཉམ་	-9.71235
ལུང་བསྟན་	-9.71287
བྱེད་དེ་	-9.71394
ར་འགྱུར་བ་	-9.71413
རྫོང་	-9.71422
ལས་ནི་	-9.71423
བདེ་བའི་	-9.71436
བཀའ་སྩལ་པ་	-9.71438
ཤཀྱ་ཐུབ་པ་	-9.71481
ད་དུང་	-9.71597
ཚེས་	-9.71618
ཆོས་གོས་	-9.71641
མང་པོར་	-9.71694
ཀུན་ལ་	-9.7172
གང་ཡང་མེད	-9.71758
དེང་	-9.71796
བསྡད་	-9.71832
ཡོང་གི་རེད	-9.71847
ཡིན་གྱིས་	-9.71852
ཟབ་མོ་	-9.71989
འཚོ་	-9.7199
དང་བཅས་པའི་	-9.72084
ངག་	-9.72154
རྩ་ཁྲིམས་	-9.72155
ཁེ་ཕན་	-9.72163
པ་སྟེ་	-9.72176
ཞིབ་	-9.72183
མགྱོགས་མྱུར་	-9.7222
གོང་ས་	-9.72239
ཞིག་དང་	-9.72326
ཐོབ་ནས་	-9.72345
དད་	-9.72377
▁དམིགས་བསལ་	-9.72419
འདུལ་བ་	-9.72501
བཀའ་བློན་མཆོག་གི	-9.72543
▁བདག་ཅག་	-9.72555
འདུག་སྟེ་	-9.72572
རྣམ་པས་	-9.72584
གིས་གཙོས་	-9.7259
ལས་བྱུང་བའི་	-9.72634
▁ཁོང་གིས་	-9.72672
གྱིས་ཤིག་	-9.72731
བཙན་བྱོལ་	-9.72733
མི་སྣང་བ	-9.72789
ཞུ	-9.72794
དེང་དུས་ཤེས་ཡོན་	-9.72826
▁ལུས་	-9.72885
འགྲོ་བ་མི་	-9.72891
གཞལ་མེད་ཁང་	-9.72973
སྤྱིར་	-9.73
འདུག་པ་	-9.73055
རོ	-9.73056
སུད་སི་	-9.73166
ཡོངས་སུ་གཏོང་བ	-9.7317
སྟོབས་ཤུགས་	-9.73256
སྐོར་ལ་	-9.73337
ར་འགྱུར་་	-9.73357
སེམས་ནང་	-9.73502
གོང་མཐོར་གཏོང་	-9.73721
ཕེབས་པའི་	-9.73753
ཇེ་	-9.73789
འདུ་འཛོམས་	-9.73798
རི་དགས་	-9.73822
དྲུང་	-9.73844
་བལ་འབྲུག་གསུམ་	-9.73851
བར་འགྱུར་རོ་་	-9.73859
གཅིག་པ་	-9.73864
བསྒྲུབས་	-9.73874
ར་འགྱུར་བ་དང་་	-9.73913
པར་བྱེད་	-9.73965
འབའ་ཞིག་	-9.73968
རྩོད་	-9.73991
གིས	-9.74085
ཡིད་ལ་བྱེད་པ་	-9.74107
སེམས་བསྐྱེད་	-9.74111
ཆེན་པོ་དང་་	-9.74142
འཚོགས་	-9.74251
འདུ་བྱེད་རྣམས་	-9.74267
ཉོན་མོངས་པའི་	-9.74341
འདས་པའི་	-9.74469
ཚེ	-9.74608
ཞེ་སྡང་	-9.74642
མགོན་	-9.74783
འགྲོ་བའི་	-9.74799
ལགས་སམ་	-9.74851
ཀོ	-9.74894
ཆོ་འཕྲུལ་	-9.74966
དབང་སྒྱུར་	-9.74977
བཏང་སྙོམས་	-9.75016
སྨད་	-9.75017
ཁྱབ་བློན་ཆེན་	-9.75034
འི་སྤྱི་ཁྱབ་	-9.75036
ནང་བཞིན་	-9.75082
རང་གིས་	-9.75099
ཆོ་ག་	-9.75122
མགོན་མེད་	-9.75131
བསླབ་བྱ་	-9.75152
གང་ཡིན་པ་དེ་	-9.75192
རུང་	-9.7524
སྐྲ	-9.75274
ར་གྱུར་པས་	-9.75274
གཏང་	-9.75316
ཡོད་པས་	-9.75387
མཐོང་སྟེ་	-9.75394
▁དཔལ་འབྱོར་	-9.75419
རྩོད་པ་	-9.75477
སྐྱོང་	-9.75519
▁དེ་ཕྱིར་	-9.75528
འཁྲུངས་སྐར་	-9.75603
▁ཡུ་རོབ་	-9.75615
སློབ་ཡོན་	-9.75619
བློ་བཟང་	-9.7563
འི་རྒྱལ་པོ་	-9.75638
བོད་ཀྱི་རྒྱལ་དར་	-9.75653
དང་ལྡན་པས་	-9.75678
རྡོ་རྗེ་གདན་དུ་	-9.75733
བར་གྱི་	-9.75734
རྒྱ་ནག་ནང་གི་	-9.75735
འདུལ་	-9.75741
བཅུ་གཅིག་པ་	-9.75755
བཞིན་ཡོད་པ་དང་	-9.75784
རིན་པོ་ཆེ་དང་་	-9.75803
སྐྱབས་མགོན་ཆེན་	-9.75806
ཆོས་བསྟན་པ་	-9.75809
འདྲ་བ་	-9.75816
ཀྱིས་གཙོས་	-9.75871
ཟིན་པའི་	-9.75915
▁བོད་དོན་	-9.75946
སྲུང་བརྩི་	-9.7603
ཁ་ཆེ་	-9.76099
གྱི་སྔ་དྲོ་	-9.7611
སྐུ་ཚབ་དོན་ཁང་	-9.76152
ཆོས་འབྲེལ་	-9.76179
མ་འོངས་	-9.76216
མན་	-9.76262
ཞལ་འདེབས་	-9.76323
འབྲེལ་ལམ་	-9.76345
སློབ་སྦྱོང་བྱེད་	-9.76376
ཤཀྱ་	-9.76542
ཁྲག་	-9.76543
རྟེན་འབྲེལ་	-9.76595
▁ད་བར་	-9.76609
ཆིབས་སྒྱུར་བསྐྱང	-9.76695
སློབ་གྲྭར་	-9.76697
གཞིས་བྱེས་	-9.76704
པར	-9.76725
མང་སྤྱི་འཐུས་	-9.76776
གོང་དུ་	-9.76778
སོ་སོ་	-9.76814
བལྟ་	-9.76881
ཊ་	-9.76908
འདོད་པས་	-9.77011
ག་རེ་	-9.77025
བརྒྱབ་	-9.77032
▁འདིར་	-9.77044
གནང་བཞིན་ཡོད	-9.77049
དགེ་འདུན་པ་	-9.77053
བརྩོན་	-9.7706
ཏིང་ངེ་འཛིན་འདི་	-9.77062
ཀྱི་ཕྱིར་	-9.77067
རྒྱ་གར་གནའ་རབས་	-9.77087
▁སེམས་ཅན་འདི་དག་	-9.77132
ངེས་པར་འབྱུང་བར་	-9.77193
དཔལ་འབྱོར་གྱི་	-9.77193
ཉམས་མྱོང་	-9.7722
དཔག་ཏུ་མེད་	-9.77236
སྟོད་	-9.77256
ན་གཞོན་	-9.77295
མ་ཡིན་པར་	-9.7732
ཀྱིས་ཀྱང་	-9.7735
ཁོ་བོས་	-9.77377
▁ཁྱོད་ཀྱི་	-9.77409
གང་ཡིན་པ་འདི་ནི་	-9.7743
ཕྱི་ནང་	-9.77487
སློབ་ཕྲུག་རྣམས་	-9.7751
སྨོན་	-9.77589
ནང་པ་	-9.77599
མིན	-9.77625
གསུང་བཤད་གནང་ཡོད	-9.77728
ཁོངས་ནས་	-9.77732
རྒྱ་ནག་དམར་ཤོག་	-9.77781
ཁ་ཟས་	-9.77815
གཉིས་ལ་	-9.77821
ཕྲུ་གུ་	-9.77894
བསྐྲུན་	-9.77909
སེམས་ཁམས་རིག་པ་	-9.77956
འབྲེལ་མཐུད་པ་	-9.77972
ྱ	-9.78008
ང་ནི་	-9.78071
གྲོས་ཚོགས་འཐུས་མ	-9.78073
བོད་སྐད་	-9.78088
སྐྱེས་བུ་འདུལ་བ	-9.78096
རིམ་པས་	-9.78097
བ་མིའི་ཐོབ་ཐང་	-9.78111
▁བོད་མིའི་སྒྲིག	-9.78205
སྟོབས་ཀྱིས་	-9.78215
ཡོན་	-9.78232
ལ་ལོངས་སྤྱོད་ཆེ	-9.78235
གནང་བ་རེད	-9.78278
བཞིའི་	-9.7829
དྲག་གནོན་	-9.78296
རི་མོ་	-9.78303
འདི་ནས་	-9.78317
ཏུ་གཟར་ནས་	-9.78335
སྤངས་	-9.78349
ཆེན་པོ་མཆོག་དང་	-9.78461
ས་མཚམས་	-9.78483
དང་ལྷན་ཅིག་	-9.78516
ཁ་ཆེའི་	-9.7854
འགོ་	-9.78562
ཟེར་	-9.78569
དབུ་མའི་ལམ་	-9.7859
དང་འབྲེལ་ནས་	-9.78605
བཞི་པ་	-9.7861
མངའ་སྡེའི་སྤྱི་	-9.78618
བསྟན་ཏོ་་	-9.78632
རྟག་	-9.78675
བཀའ་ཆོས་	-9.78676
ཕྲེང་བ་	-9.78696
དྲ	-9.78733
བ་རེད	-9.78751
འོག་ནས་	-9.78775
བརྡ་	-9.78805
གུ་	-9.78811
མངོན་འདོད་	-9.78877
མཚུངས་	-9.78889
་ལི་	-9.78896
ལགས་་	-9.78938
སྐྱིད་	-9.78981
མཐུན་	-9.78997
ཅི་འདྲ་བ་	-9.79016
ལྡི་ལི་	-9.79058
རྒྱུ་ཡིན་འདུག	-9.7906
▁ཁོང་	-9.79072
མ་བཅིངས་མ་གྲོལ་བ	-9.79117
འི་ཚོགས་གཙོ་	-9.79131
ཀུ་	-9.79135
ན་ཅིག་ཕྱིར་འོང་བ	-9.79192
ཤར་ཕྱོགས་སུ་	-9.7921
་རྣམས་ཡིན་	-9.79235
སྐོར་གསུངས	-9.79275
་གང་	-9.79308
བསྐྱངས་	-9.79325
ཅིང་་་	-9.79597
གཏོར་	-9.79726
སྟབས་	-9.79733
ཏི་	-9.79741
▁ཕྱི་ལོ	-9.79788
སྐྱེད་མོས་ཚལ་	-9.79791
བྱུང་་་	-9.79836
མཇལ་	-9.79846
ཞིང་་	-9.79913
འགོ་འཛུགས་	-9.79914
ཐོབ་པར་	-9.80023
ཨེ་ཤི་ཡའི་	-9.8003
གལ	-9.80071
གསུངས་་	-9.80082
ནང་ནས་	-9.80138
བཙུན་པ་	-9.80145
བདག་ཀྱང་	-9.80149
ཀུན་དགའ་	-9.80203
ཕྱི་འབྲེལ་	-9.80228
པའི་སྐབས་	-9.80232
མ་ལུས་	-9.80255
ཆོས་བཅུ་པོ་	-9.80258
བཟུང་སྟེ་	-9.80379
རྒྱལ་པོ་ཟས་གཙང་མ	-9.80385
སློབ་གཉེར་ཁང་	-9.80407
▁ཁྱོད་ནི་	-9.80435
དང་ལྷན་དུ་	-9.80458
དཀར་པོ་	-9.80501
ཡོད་མཁན་	-9.80604
ཞེས་བྱའོ་	-9.80667
ལེ	-9.80692
པ་དེ་དག་	-9.80701
ཁས་ལེན་	-9.80702
གནང་རྒྱུའི་	-9.80717
བཞིན་པར་	-9.80806
སྣ	-9.80822
རྒྱལ་དབང་སྐུ་	-9.80827
སྟེང་དུ་	-9.80829
འབྲུག་	-9.8085
བསམ་གཏན་གྱི་	-9.80854
བཅུག་	-9.80908
ཨ་རིའི་ཕྱི་སྲིད་	-9.80967
▁རྒྱལ་བ་	-9.80979
ཝ	-9.80996
མི་སྤྱོད་	-9.81078
བར་ཆད་	-9.8108
བརྟན་བཞུགས་	-9.81133
ཡོན་ཏན་གྱི་	-9.81219
ཚོགས་པས་	-9.8123
ཊ	-9.81234
འི་ནང་དུ་	-9.81237
སངས་རྒྱས་པའི་ཆོས	-9.81239
གླེང་སློང་	-9.81243
ཚངས་པར་སྤྱོད་པ	-9.81262
སྣང་བའི་སྒོ་སྟེ་	-9.81312
ཁ་ཅིག་	-9.81313
ཏོ་	-9.81401
ཡོངས་སུ་བསྔོ་བ	-9.81464
སྐལ་བཟང་	-9.81498
ཉན་ཐོས་ཀྱི་	-9.81553
▁འབྱུང་འགྱུར་	-9.81556
གྱུར་པ་་	-9.8162
སུ་མི་མཐོང་ངོ་་་	-9.81643
ཤ་རིའི་བུས་	-9.81664
ལས་འདས་པའི་	-9.81751
རྒྱ་གཞུང་གིས་	-9.81793
ཆེ་ཤོས་	-9.81818
ཡོད་སྐོར་	-9.81864
སྲི་ཞུའི་ལས་བྱེད	-9.81883
འཆི་	-9.8189
ཡོངས་སུ་དག་པ	-9.81916
པར་འགྱུར་བ་	-9.81921
རྣམས་ནས་	-9.81958
བཞིན་ཡོད་པ་	-9.8196
བྱེད་ཀྱི་	-9.81987
པར་བྱ་བའི་ཕྱིར་	-9.82012
ཕྲ	-9.82029
དང་་དེ་བཞིན་དུ་	-9.82102
ཡོད་པར་བརྟེན་	-9.82131
གཞིས་ཆགས་ཀྱི་	-9.82146
ཐོ	-9.82186
རྔ་	-9.82205
སླེབ་	-9.82284
བྱེ་བ་	-9.8234
ལས་བྱུང་བ་	-9.82371
ལགས་ལ་	-9.82521
སྔ་དྲོ་ཆུ་ཚོད	-9.8262
པར་བྱེད་པ་	-9.82664
ར་འཚང་རྒྱ་བ	-9.827
ཐེངས་འདིའི་	-9.82756
རྒྱ་ཆེན་པོ་	-9.82791
ཡོད་རེད	-9.82801
རྣ་བ་དང་་སྣ་དང་་	-9.82803
མ་བྱས་	-9.82826
ཁུལ་དུ་	-9.82864
▁གྲོགས་པོ་དག་	-9.82935
འདི་འདྲ་	-9.82973
མ་རིག་པ་	-9.82993
ངོ་བོ་	-9.83061
དེ་འདྲའི་	-9.83088
བར་ཐུགས་རྗེ་ཆེ་	-9.83135
ཡིན་ཞེས་	-9.83141
ཉམས་རྒྱུན་འཛིན་	-9.8316
ལག་ཏུ་	-9.83184
ནོ་	-9.83215
སྡུག་བསྔལ་བ་	-9.83215
▁ཁེ་ན་	-9.83217
བསམ་བློའི་	-9.83268
ནས་བཅོམ་ལྡན་འདས་	-9.83309
འོག་ཏུ་	-9.83331
ང་རང་	-9.83453
སངས་རྒྱས་ལ་	-9.83456
▁གཞན་	-9.83465
འཇིག་	-9.8347
ཤིང་་་	-9.83472
དཔའ་བོ་	-9.83473
མདུན་	-9.83516
པ་རྣམས་ལ་	-9.83555
▁སྤྱི་ཚོགས་	-9.83646
སྨན་ཁང་	-9.83667
ནང་དུའང་	-9.83675
དང་རིག་གཞུང་	-9.83697
ལས་བསྡོམས་	-9.8375
ཁུར་	-9.83802
ལྷ་མ་ཡིན་	-9.83827
བཞུགས་པ་	-9.83868
གཏོང་བ་	-9.83873
ཆེ	-9.83877
ཆོས་ནི་	-9.83897
ཚར་	-9.83933
འཇིགས་མེད་	-9.83968
ཁམས་གསུམ་	-9.83994
▁ད་རེས་	-9.84034
ཡོད་ཅེས་	-9.84048
གཤིན་རྗེའི་	-9.84102
རོགས་	-9.84116
གྲ	-9.84119
ཡང་མི་	-9.84171
བོད་དུ་	-9.84177
ཁྱེད་ཀྱིས་	-9.84205
གཅིག་གྱུར་	-9.84215
བྱས་པ་དང་	-9.8425
ནུབ་ཕྱོགས་	-9.84289
དཔྱད་	-9.84388
ཏོག་དབྱིབས་	-9.84389
ད་ལྟར་བྱུང་བའི་	-9.84405
འགྱུར་རོ་་	-9.84406
ཅི	-9.8442
ཤུ	-9.84439
འདི་དག་གིས་	-9.84489
་ཆེན་	-9.84581
་ཏ་	-9.84644
མཐའ་གཅིག་ཏུ་	-9.84647
སུས་ཀྱང་	-9.84688
བཅུའི་ལས་ཀྱི་ལམ་	-9.84699
ཚིགས་སུ་བཅད་དེ་	-9.84699
བཙུན་མོའི་འཁོར་	-9.84707
པོ	-9.84713
མངོན་སུམ་དུ་བྱ	-9.84776
གང་ཡིན་པ་དེ་དག་	-9.8478
དེད་དཔོན་	-9.84827
ཆ	-9.84838
ཉིད་དང་་	-9.84891
ཕྱིའི་	-9.84925
ཆུང་ངུ་	-9.84932
བོད་པ་	-9.85045
བུ	-9.85057
ཞི་བར་	-9.85066
དག་ལས་	-9.85074
ཡོད་འདུག	-9.85076
བསྙེན་བཀུར་	-9.8508
རྣམ་གཉིས་	-9.85141
དགའ་བའི་	-9.85162
ཡོང་ཐབས་	-9.85164
མི་ཤེས་	-9.85173
ཡོད་ཅིང་	-9.85174
སྲེད་པ་	-9.85187
▁དེ་མིན་	-9.85193
འོ་ཞེས་	-9.85282
བསྟན་གྱི་	-9.85341
ཀྱི་ཐད་དུ་	-9.85383
རི་རབ་	-9.85396
བརྟེན་	-9.85399
▁བོད་ནང་གི་	-9.85417
མྱུར་	-9.85425
འི་གསུང་བཤད་གནང་	-9.85435
རྒྱུ་དེ་	-9.85515
དང་་ཚེ་དང་ལྡན་པ་	-9.85549
ས་ཏེ་	-9.85592
གསལ་བཤད་	-9.85604
མངོན་པར་ཞེན་པ	-9.85657
བཅུ་དང་ལྡན་ན་	-9.85669
གསོག་	-9.85675
ཤིང་ས་ལ་ཆེན་པོ་	-9.85683
དགའ་ཞིང་	-9.85688
ཚུད་	-9.85691
་དེས་	-9.85763
ཏོག་ཙམ་	-9.85776
འི་འབྲས་བུ་མངོན་	-9.8578
འོ	-9.85832
▁དེའི་འོག་ཏུ་	-9.85902
ར་ཡང་	-9.85947
མང་པོ་ཞིག་གིས་	-9.85956
ཡོངས་ནས་	-9.85993
ལངས་ཕྱོགས་	-9.86007
གཟུགས་རྣམས་	-9.86019
ོག་	-9.86081
གྷ	-9.86167
པར་འགྱུར་ཏེ་	-9.86172
ཏ་ལའི་བླ་མ་	-9.86257
བསྟི་གནས་ཁང་	-9.86259
གཟུགས་ཀྱི་ཁམས་	-9.86321
དྲི་མེད་	-9.86339
བདུད་རྩི་	-9.86364
མ་ཡིན་པའི་	-9.86593
བྱེད་ཅིང་	-9.86595
་ཞིག་	-9.866
ས་ཡ་	-9.86617
ཁུ	-9.86657
▁ལོ་	-9.86719
ཐོབ་པར་འགྱུར་རོ་	-9.86845
བཏང་ཡོད	-9.8686
བྱིན་པ་	-9.86925
གདུང་	-9.86942
བྱེད་་	-9.86959
མཉམ་ཞུགས་	-9.86972
་བཏང་ངོ་་་	-9.86993
གླ	-9.87
སླ	-9.87017
▁དེ་ཅིའི་སླད་དུ་	-9.87029
དང་ལྡན་པ་དང་་	-9.8704
▁བྲམ་ཟེ་	-9.8707
་ལས་	-9.87124
ཕན་ཡོན་	-9.8713
ལྷོ་	-9.87136
རྒྱུ་མེད	-9.87272
ལ་བརྟེན་	-9.87285
དགེ་བའི་ཆོས་	-9.87286
འདས་པ་ན་	-9.87314
རྟོག་པ་	-9.87335
ཞིག་ཀྱང་	-9.87366
འགྲོ་གྲོན་	-9.87389
གོ་བསྡུར་	-9.87419
དོན་གཅོད་	-9.87424
▁ཕྱི་	-9.87511
ཐོག་མ་	-9.87536
ེ	-9.87564
པ་རྣམས་ཀྱི་	-9.87609
རྗེས་སུ་དྲན་པ་	-9.87685
བཅོམ་	-9.87698
▁མད་གལ་གྱི་བུ་དེ	-9.87722
ཀྱིས	-9.87763
ཡོང་བ	-9.87799
རྒྱ་ནག་ནང་	-9.87803
འཁྲབ་སྟོན་	-9.87812
▁སྲིང་མོ་	-9.87829
ཆོས་རྒྱལ་	-9.87863
ད་ལྟའི་ཆར་	-9.87875
ཡོད་པ་དེ་	-9.87876
རྣམ་དཔྱོད་	-9.87895
རབ་ཏུ་བྱུང་བ་	-9.88056
བླ་	-9.88073
▁གཙོ་བོ་	-9.88103
བསགས་པ་	-9.8811
གོ་རྟོགས་སྤེལ་	-9.88122
སྙིང་ཐག་པ་ནས་	-9.88289
ཁྱོད་ཀྱིས་དེ་	-9.88326
རྒྱལ་རིགས་	-9.88365
དགེ་ལས་སློབ་ཕྲུག	-9.88374
རེ་རེ་	-9.88421
བྱེ་བ་ཕྲག་	-9.88438
སྐད་འབོད་	-9.88518
དགོས་རྒྱུ་ཧ་ཅང་	-9.88524
ཐེག་པ་ཆེན་པོའི་	-9.88541
ཉིད་ཀྱི་	-9.88546
▁ཡང་ན་	-9.88573
རྟེན་གཞི་བྱས་པ	-9.88656
གནས་པར་མི་བྱའོ་་	-9.88672
ཡིད་ཀྱི་	-9.88711
ལས་ཁུངས་དང་	-9.88718
གོང་ས་མཆོག་གི་	-9.88729
བཞིན་ཡོད་སྟབས	-9.88777
ལེགས་བཤད་དེ་དག་	-9.88801
དགོན་	-9.88815
མ་ཡིན་ནོ་	-9.88818
མི་རིགས་ཀྱི་	-9.88835
▁བྱམས་པ་	-9.88941
ལྷག་པའི་བསམ་པ་	-9.88952
སྲིད་འཛིན་ཟུར་པ་	-9.88975
རོ་་	-9.89019
གནང་མཛད་	-9.8903
སློབ་གྲྭ་ཁག་	-9.89073
གསུངས	-9.89081
སྐྱབས་སུ་འགྲོ་བ་	-9.89086
ཞུ་རྒྱུ་	-9.89115
▁དེ་འདི་	-9.89116
སྐུ་པར་	-9.89136
ཡང་ཡིན་	-9.8921
བླ་ན་མེད་པ་	-9.89272
ཡང་ཡང་	-9.89349
རྒྱུན་དུ་	-9.89361
ཏ་ལའི་བླ་མའི་	-9.89377
རབ་ཏུ་འབྱུང་བ	-9.89408
དཔུང་	-9.89419
པ་དེའི་ཚེ་	-9.89437
མང་ཚོགས་	-9.89467
ས་གནས་བོད་རིགས་	-9.89489
ཧིན་སྒོར་	-9.8949
རྐྱེན་གྱིས་	-9.89537
འཆར་སྣང་	-9.89557
རློམ་སེམས་སུ་མི་	-9.89605
འཚོ་བའི་	-9.89704
་ཡི་	-9.89718
ཚན་རིག་པ་	-9.8973
དེ་ཚེ་	-9.89769
ལུང་པ་	-9.89797
སྙམ་དུ་	-9.89901
ཤ་ར་དྭ་ཏིའི་བུས་	-9.89907
རྒྱབ་སྐྱོར་གྱི་	-9.89909
་པ་	-9.89916
ཚོང་ལས་	-9.89918
བོད་ཁྱིམ་	-9.89954
རིས་	-9.89956
ཚོལ་	-9.89964
བརྒྱད་ཅུ་	-9.90075
ཆུང་མ་	-9.90076
ར་སངས་རྒྱས་ནས་	-9.90106
ཐུགས་རྗེ་ཆེ་ཞུས་	-9.90113
ཚུལ་བཞིན་དུ་	-9.90148
འཛིན་རིམ་བཅུ་	-9.90168
ད་ལྟར་བྱུང་བ་	-9.90179
ནགས་ཚལ་	-9.90201
བྱུང་ན་	-9.90228
▁བྱང་ཆུབ་	-9.90289
བོད་ཀྱི་ཁོར་ཡུག་	-9.90298
དྲུང་ཆེ	-9.90316
▁རྒྱ་ནག་གཞུང་གི་	-9.90329
བའོ་་	-9.904
▁བྲམ་ཟེའི་ཁྱེའུ་	-9.90411
སེམས་པ་	-9.90419
ཡོད་པར་	-9.90449
སྙིང་བསྡུས་	-9.90461
ལྟོས་	-9.90522
སྦྱོང་བརྡར་	-9.90547
མི་འགྱུར་	-9.90593
བྱེད་རྒྱུའི་	-9.90628
སྐུ་ཚབ་ཚོགས་ཆུང་	-9.90639
གསར་པ་ཞིག་	-9.90726
ཕ	-9.90733
མིན་པར་	-9.90734
སྤྲུལ་	-9.90771
བསྐོང་ཚོགས་གནང་	-9.90772
བསྐྱེད་པ་	-9.90838
ཞིག་ལ་	-9.90927
གྱུར་ཏེ་་	-9.90931
ར་གྱུར་ཏེ་	-9.90932
ཕྲག་	-9.91115
མངའ་སྡེ་	-9.91115
▁བུ་	-9.91128
བཟང་སྤྱོད་	-9.91175
དེ་ཉིད་དུ་	-9.91186
གྱུར་བའི་	-9.912
རྗེ་	-9.91222
དགེ་སློང་གི་	-9.91271
▁དེ་དེ་བཞིན་	-9.91336
འཇོམས་	-9.91347
གྱིས་གཙོས་	-9.91358
ཉུང་	-9.91366
ོ	-9.91394
པར་གྱུར་	-9.9151
སྦྱིན་པར་བྱེད་	-9.9156
ཚེ་གཅིག་ཏུ་	-9.9157
ཀྱི་སྤྱན་སྔར་	-9.91572
རང་ཉིད་ཀྱི་	-9.91577
དབེན་པ་	-9.91644
པ་ཡིས་་	-9.91661
་ཆེན་དགེ་འདུན་	-9.91662
འགྲེལ་	-9.91686
ཆོས་སྟོན་པ་	-9.91732
ནང་མི་	-9.91761
འཁོད་པ་	-9.91774
སྐྱེས་བུ་དམ་པ་	-9.9178
ཟབ་	-9.91782
པར་མི་བྱེད་	-9.91794
དགུང་གྲངས་	-9.918
པོས་	-9.91851
པ་ལགས་	-9.91926
གསང་བ་	-9.92022
གཏེར་	-9.9204
བྱེད་བཞིན་པའི་	-9.9205
དེ་དག་ཐམས་ཅད་ནི་	-9.92069
བསྒྲགས་	-9.92087
▁རིག་གཞུང་	-9.92108
ཡི་རངས་	-9.92112
རིག་གཞུང་དང་	-9.92127
པར་འགྱུར་རོ་	-9.92137
བསྟན་བཅོས་	-9.92173
ཉལ་	-9.92188
མྱ་ངན་ལས་འདའ་བ	-9.92202
གང་་་	-9.92256
བོད་ཀྱི་རྩ་དོན་	-9.92259
▁འཕྲོད་བསྟེན་	-9.92318
▁ཐེངས་འདིའི་	-9.92344
བརྟན་པ་	-9.92346
ས་ཕྱོགས་གང་སར་	-9.92354
གང་ན་	-9.92364
རྨོངས་	-9.92375
ཁུངས་	-9.92379
གཟུངས་	-9.92415
དཀའ་སྡུག་	-9.92431
ལྟོ་འཕྱེ་ཆེན་པོ་	-9.92457
་ཐམས་ཅད་སྤངས་ནས་	-9.92463
གནས་ཏེ་	-9.92542
དུ་གྱུར་པ་	-9.92561
གྱུར་་	-9.92582
འགྲོ་བ་མི་རིགས་	-9.92587
ཐུབ་པ་དང་	-9.92592
ཆད་པ་	-9.92595
སེམས་འཚབ་	-9.92617
་སེམས་ཅན་	-9.92642
འཇམ་	-9.92689
གསང་སྔགས་	-9.92776
ཀྱི་ཚབ་ཞུས་ཏེ་	-9.92786
འཐོན་	-9.92793
ཡུལ་མི་	-9.92798
ཆགས་པའི་	-9.92875
་པ་དང་	-9.92878
བཟོས་	-9.92901
བའམ་	-9.92918
ཀྱིས་དེའི་ཚེ་	-9.9296
དགའ་བ་དང་	-9.92973
ན་ལེནྡྲའི་	-9.92989
ཟད་པ་	-9.93007
རྒྱས་པ་	-9.93031
ཐལ་མོ་སྦྱར་ཏེ་	-9.93034
བཞག་སྟེ་	-9.93065
ཙམ་གྱིས་	-9.93081
དང་ལྡན་ཞིང་	-9.93147
བསྐྱར་ཞིབ་	-9.93228
ང་ཉིད་	-9.9323
རྣམ་པར་བྱང་བ་	-9.93246
ང་ཚོ་ཚང་མ་	-9.93303
དམ་པའི་	-9.93346
བརྗོད་གཞི་	-9.93392
ཁྲིམས་འཆར་	-9.93398
སྟོན་ཏོ་་	-9.93404
བཏང་བ་	-9.93413
མཐུན་ཚོགས་པའི་	-9.93504
དུས་སྐབས་འདིར་	-9.93647
པར་གྱིས་ཤིག་	-9.9368
མངོན་པར་སྤྲུལ་	-9.93692
དགའ་བ་དང་་	-9.9371
▁གླེང་གཞི་	-9.93733
བརྗོད་པར་བྱའོ་་	-9.93753
རྟོག་	-9.93762
བོད་རིགས་ཡོངས་ལ་	-9.93769
▁གོང་དུ་	-9.93779
གཅིག་ལ་	-9.93791
ཡིག་རྒྱུགས་	-9.93792
ཤེས་པས་	-9.93799
ཆོས་ཐམས་ཅད་ལ་	-9.93844
ཁང་པ་	-9.93907
དེ་ལྟ་བུར་	-9.93984
དགེ་བསྙེན་	-9.93985
གྲོང་ཁྱེར་དུ་	-9.94031
ཚོང་པ་	-9.94038
ཞེས་ཟེར་རོ་་	-9.94041
རག་	-9.94055
མར་མེ་	-9.94106
སྔོན་རྩིས་	-9.94123
ང་ཡིས་	-9.94162
འཇར་མན་	-9.9424
འགྲེམས་སྟོན་	-9.94245
ནན་	-9.94248
ཤིན་ཏུ་རྣམ་པར་དག	-9.94317
ཇི་བཞིན་	-9.94365
འགའ་ཤས་	-9.94456
ལུང་སྟོན་	-9.94493
ངྒེ་མཆོག་དང་	-9.94546
དགེ་སློང་མ་	-9.94556
འོངས་	-9.94587
ཟན་	-9.9459
བའི་ནང་འཁོད་དོན	-9.94596
ཤེས་པའི་	-9.94658
མིག་གི་	-9.94689
བཞིན་འདུག	-9.94746
པར་བརྟེན	-9.94768
གཟུགས་མེད་པའི་	-9.94769
ཆེར་	-9.94772
མི་རྟག་	-9.94802
འདུས་མ་བྱས་	-9.94804
འཛིན་གྲྭ་	-9.94809
་ལུང་བསྟན་པ་གང་ཡ	-9.94845
ིན་པའི་སངས་རྒྱས་	-9.94845
སྒྲིག་གཞི་	-9.94847
སྦྱིན་བདག་	-9.94861
▁དེ་ཅིའི་ཕྱིར་	-9.94883
པར་གྱུར་ན་	-9.94892
སྦས་	-9.94929
འཕགས་པའི་བདེན་པ་	-9.94938
▁དེ་ནས་དེ་	-9.94951
ནམ་མཁའ་ལ་	-9.94952
ཆོས་ལུགས་ཀྱི་	-9.94988
གསན་	-9.94995
ཟེར་རྒྱུ་འདི་	-9.94996
རེ	-9.95
བཀའ་དྲིན་རྗེས་དྲ	-9.95003
དགའ་པོ་བྱུང་	-9.95003
འགྲོ་བཞིན་པའི་	-9.9501
ཚད་མེད་	-9.95103
རྙོག་གྲ་	-9.95142
མ་ལགས་	-9.9519
ཤེས་རྟོགས་	-9.95198
ཕོ་བྲང་	-9.95266
བསྒོམ་	-9.95287
▁ཕྱི་ལོ་གྱི་	-9.95298
▁བདག་ཀྱང་	-9.95361
བྲན་	-9.95395
གཡས་	-9.95422
▁ཐོག་མར་	-9.95432
འི་ཆོས་འདུལ་བ་ལ་	-9.95497
བདེན་པའི་	-9.95503
ཁུལ་དེར་	-9.95532
རྒྱ་མཚོའི་	-9.95713
གཅིག་ལ་གཅིག་	-9.9572
མོའི་	-9.95726
མི་མང་ལ་	-9.95767
ཧོང་ཀོང་	-9.95781
བུའི་	-9.95796
བཀའ་བཞེས་བཟང་པོ་	-9.9582
ཁོ་ནའི་བསྟན་པ་ལ་	-9.95836
ལིད་ཙ་བི་དྲི་མ	-9.95838
ཆེན་པོ	-9.95887
བཀག་	-9.95888
རྔམ་སྟོན་	-9.95898
བུ་ཆེན་པོའི་མཚན་	-9.95898
མི་མང་སྤྱི་འཐུས་	-9.95904
སློབ་ཁྲིད་གནང་	-9.95926
འདི་གཉིས་	-9.95946
ཤེས་པར་བྱ་	-9.95988
གཞུང་ཆེན་	-9.96001
ཚོགས་བཅར་བ་	-9.96097
མཐུན་ཚོགས་ཀྱི་	-9.96101
པར་གྱུར་ཅིག་ཅེས་	-9.96112
ིང་	-9.96113
གྱི་ཡོད	-9.96136
ིའི་	-9.96232
བྱང་ཆུབ་ཏུ་སེམས་	-9.96235
མཉམ་ཞུགས་གནང་ཡོད	-9.96261
ལས	-9.96297
སྐུལ་	-9.96338
▁ཅི་	-9.96344
ཐུབ་ཡོད	-9.96358
འདི	-9.96375
ཨོ་	-9.96392
མིར་	-9.96399
སློང་	-9.96435
འཆད་	-9.96461
ལྔ་བཅུ་	-9.96497
དྲུང་དུ་	-9.96498
མཆོད་སྦྱིན་	-9.96537
གླང་པོ་	-9.96556
མེད་ཀྱང་	-9.96574
སོགས་ཀྱིས་	-9.96591
འདི་ལྟ་སྟེ་དཔེར་	-9.96592
སྨྲ་	-9.96602
པ་ཡིན	-9.96609
འགན་འཁུར་	-9.9661
གི་གནས་སྟངས་	-9.96619
དེ་སྐད་	-9.96624
བདེ་དོན་	-9.96632
ཚད་མེད་པ་	-9.96643
ལམ་གྱི་	-9.96713
བྱེད་ཅིང་་་	-9.96719
པའི་འཇིག་རྟེན་	-9.96794
མཇལ་འཕྲད་	-9.96818
ལ་དོ་སྣང་	-9.96824
བྱས་ཤིང་	-9.9683
▁སྲེད་མེད་ཀྱི་བུ	-9.96831
དེ་ཚོ་	-9.96836
ཚོགས་འདུའི་	-9.9686
སྒེར་	-9.96879
དཔུང་གི་ཚོགས་	-9.96897
གཟུགས་བརྙན་	-9.96897
བྱམས་	-9.96907
དགྱེས་	-9.96909
གང་ཡིན་པ་དང་་	-9.9697
་ཡིན་ནོ་	-9.97027
ཐེག་པ་ཆེན་པོ་	-9.97031
སྤངས་པ་	-9.97035
ལས་ཡང་དག་པར་འདས་	-9.9707
ངེས་པར་འབྱུང་བ	-9.97083
རྗེས་དྲན་	-9.97122
དོང་	-9.97128
གོ་རྟོགས་	-9.97158
རྐྱེན་པས་	-9.97171
ཀྱི་རྣམ་གྲངས་	-9.97216
ཤོད་	-9.97251
ཡིན་འདུག	-9.97257
ལམ་སྲོལ་	-9.97307
ལན་འདེབས་	-9.97342
བུད་མེད་ཀྱི་	-9.97366
ཡིན་ནམ་	-9.97369
ཏིང་འཛིན་	-9.97454
གཅིག་མཚུངས་	-9.97472
གྲུ་	-9.9748
བརྒྱན་པ་	-9.9748
བོད་དོན་བདེན་	-9.9749
འབད་	-9.97508
དཔག་ཚད་	-9.97546
གཉིས་སྨན་	-9.97668
་དེ་ལྟར་	-9.97681
སྐྱེ་བོ་མང་པོ་	-9.97685
རབ་ཏུ་བྱུང་སྟེ་	-9.97709
པར་གྱུར་་	-9.97744
པུས་མོ	-9.97748
འོས་བསྡུ་	-9.97757
བྱེད་པ	-9.97763
ཕྱོགས་ཕེབས་གནང་	-9.97766
སངས་རྒྱས་པའི་	-9.97788
གཉེར་	-9.97799
མྱ་ངན་ལས་འདས་ནས་	-9.97818
ནམ་རྒྱུན་	-9.97861
མྱ་ངན་འདས་	-9.97866
ཁང་པ་བརྩེགས་པ་	-9.97876
ཉེ་ལམ་	-9.97902
ཉེར་	-9.97908
ཐེ་ཙོམ་	-9.97911
མངོན་པར་རྟོགས་པ	-9.98008
སྐར་མ་	-9.98172
དངོས་གནས་	-9.98175
ཡིན་པའི་ཕྱིར་རོ་	-9.98206
བཀའ་སློབ་ལམ་སྟོན	-9.983
ཆོས་དང་	-9.98311
བོད་མི་ཚོའི་	-9.98357
དམིགས་བསལ་གྱི་	-9.98374
▁ཞེས་སོགས་ཀྱི་	-9.98376
ཡིན་ཏེ	-9.98439
འབྱུང་སྟེ་	-9.98442
བཟང་སྤྱོད་ཀྱི་	-9.98468
འདེགས་འབུལ་ཞུས་	-9.9848
འགའ་	-9.98496
གནང་རྒྱུ་དང་	-9.9851
མེས་	-9.9852
སེང་གེའི་སྒྲ་	-9.98536
བརྒྱན་	-9.98554
གོ་ཆ་	-9.98561
རྒྱལ་དབང་	-9.98591
ཁྲག་ཁྲིག་	-9.98674
ཚོགས་ཀྱི་	-9.98687
ོང་	-9.98705
པ་ཡིན་ན	-9.98725
བླ་སྤྲུལ་	-9.98739
མི་དམིགས་པ་	-9.98743
དྲན་རྟེན་	-9.98754
སོགས་ནས་	-9.98766
གལ་ཆེན་པོ་	-9.98805
མང་པོའི་	-9.98812
ཤ་སྟག་	-9.98888
བགྱི་བའི་སླད་དུ་	-9.9889
དྲི་མ་མེད་པའི་	-9.98901
སྐུའི་འཁྲུངས་	-9.98926
ཚུལ་བཞིན་	-9.98938
ཆོས་སྨྲ་བ་	-9.98951
ངག་དབང་	-9.98987
སྦ	-9.9908
ཐུན་མིན་	-9.99126
ཡོང་དུས་	-9.99152
ཉན་ཐོས་ཀྱི་ཐེག་པ	-9.99158
་ཀ་	-9.9916
ལན་གསུང་བ་ནས་དེ་	-9.99167
མེད་པའོ་་	-9.99168
སེམས་ཤུགས་	-9.99219
སྙམ་སྟེ་	-9.99219
རྙེད་པ་དང་	-9.99226
་མཆོག་དང་	-9.99262
་བཅས་	-9.99296
དེ་གཉིས་ཀྱིས་	-9.993
བོད་རིགས་ཚོགས་པ	-9.99304
འདི་སྙམ་དུ་སེམས་	-9.99307
ལགས་ཀྱིས་ས་གནས་	-9.99334
ཕྱི་ལོ་བོད་མིའི་	-9.9937
འགྲེལ་བརྗོད་	-9.99378
ོ་་	-9.99437
ཧ་ཅང་ཡག་པོ་	-9.99471
ཐལ་	-9.99472
འཐབ་	-9.99482
འི	-9.99503
ལ་གནས་པའི་	-9.99518
ཞེན་	-9.99592
ཆེན་པོ་ཞིག་	-9.99595
ཆག་	-9.99619
དབང་དུ་	-9.99641
འཕྲུལ་	-9.99651
ཁོ་	-9.99655
འབྲས་སྤུངས་	-9.99706
བཞག་པ་	-9.99728
མལ་	-9.99892
▁བསྐལ་པར་	-10.0011
རྒྱ་གཞུང་གི་	-10.0016
འདུན་པ་	-10.0017
འབོད་	-10.0017
གཟའ་སྤེན་པ	-10.0018
པི་	-10.0018
འཕྲུལ་ཆས་	-10.002
འགོག་པ་	-10.002
ལ་མཚོན་ནའང་	-10.0023
འདི་ལས་	-10.0026
སྨན་རྩིས་ཁང་གི་	-10.0026
ཐེངས་དང་པོ་	-10.0032
ནས་དེའི་ཕ་རོལ་	-10.0038
▁སྐད་ཡིག་	-10.0038
བརྒྱ་བྱིན་གྱིས་	-10.0042
གནང་དགོས	-10.0042
ཡིད་དུ་འོང་བ་	-10.005
དགོངས་པ་བཞེས་	-10.0051
འི་བཅའ་ཁྲིམས་	-10.0051
ལེའུ་	-10.0053
ཀྱི	-10.0054
འི་སྟོབས་བཅུ་	-10.0056
པད་མའི་	-10.0059
ར་བྱེད་པ་	-10.0062
སྲིད་དོན་ཚོགས་པ	-10.0062
སྤ	-10.0071
སྙིང་རྗེའི་	-10.0072
ལེགས་བཤད་	-10.0073
བེད་སྤྱོད་	-10.0076
ཆུ	-10.0077
ཞིག་ཡོད	-10.0077
ཕྱག་རྟགས་	-10.0089
རྒ	-10.009
ནས་དེ་	-10.009
ཡི	-10.0092
▁འགྲོ་བ་	-10.0093
མིས་	-10.0096
སྨྲས་སོ་	-10.0098
སོང་བ་	-10.0099
རྒྱ་ནག་དང་	-10.0102
རིན་པོ་ཆེ་སྣ་	-10.0103
ཨེ་	-10.0105
སྔ་	-10.0114
གདོན་	-10.0119
▁དམ་པའི་ཆོས་	-10.0123
དུས་སྟོན་	-10.0129
བསྐོ	-10.0131
སྐུ་ཚེའི་འཕེན་པ་	-10.0132
མྱ་ངན་གུས་འདུད་	-10.0132
དེ་ལ་སྨྲས་པ་	-10.0133
དེ་སྔོན་	-10.0135
ལགས་ཀྱིས	-10.0139
ཁང་གི་འགན་འཛིན་	-10.0143
ཁབ་	-10.0147
ཚན་པ་	-10.015
སྒང་	-10.0151
གོང་འཕེལ་	-10.0155
བདེ་སྡུག་	-10.0158
གནས་སྟངས་སྐོར་	-10.0164
སོ་སོའི་སྐྱེ་བོ་	-10.0165
བྱེད་པ་་	-10.0166
སོགས་པ་དགེ་སློང་	-10.0171
གོ་སྐབས་འདི་	-10.0173
ལོ་འཁོར་	-10.0175
འི་གནས་སུ་	-10.0176
སྒྲོན་མ་	-10.0178
གང་དང་གང་དུ་སྐྱེ	-10.0182
ཕྱག་ལས་	-10.0183
འབྱུང་་་	-10.0184
དབ	-10.0185
དང་་ལུས་དང་་ཡིད་	-10.019
ཅ	-10.0194
རང་བཞིན་གྱི་	-10.0198
སྟོན་པའི་	-10.0199
རེས་	-10.0201
ལས་འདས་པ་	-10.0202
བསྔགས་	-10.0203
བསམ་འཆར་	-10.0203
མི་ལོ་	-10.0205
མཆོག་གིས་གཙོས་	-10.0209
མཇུག་	-10.0209
▁དེ་ནས་དེའི་ཚེ་	-10.0212
བྱ་རྒྱུ་ཡིན	-10.0213
མངོན་པར་འདུ་བྱ་བ	-10.0216
བདག་མེད་	-10.0216
ལོ་ལྟར་	-10.0223
རྟོགས་པར་	-10.0225
ལུང་བསྟན་པ་	-10.0225
གོ	-10.0227
གཅིག་དང་	-10.0229
ལི	-10.0237
གནས་སྡོད་	-10.0239
གསུང་ཆོས་	-10.0243
སོ	-10.0243
འི་སྐོར་	-10.0245
ཆེ་བསྟོད་	-10.0247
བཙོན་འཇུག་	-10.0253
ཉམས་པ་	-10.0254
གཙོ་བོར་གྱུར་བའི	-10.0258
བཞུགས་སྒར་རྡ་སར་	-10.026
བོད་མི་བཙན་བྱོལ་	-10.0268
ངན་སོང་	-10.0275
ཚུར་ཤོག་	-10.0278
དི	-10.0278
དང་དེ་བཞིན་	-10.0278
སྟོབས་ཆེན་	-10.0278
ཡང་དག་པར་ཞུགས་པ་	-10.0281
ར་མི་འགྱུར་	-10.0285
སོ་ཞེས་	-10.029
ཐོགས་པ་	-10.0293
རྒྱལ་ཁབ་ཁག་	-10.0296
ཚགས་ཚུད་	-10.0297
ཕྱི་ལོ་ཚེས་	-10.0297
ིན་	-10.0297
གུས་	-10.0298
སོང་ལ་	-10.03
▁མད་གལ་གྱི་བུ་ང	-10.0301
རྡོ་རྗེའི་	-10.0302
རྗེས་སུ་ཡི་རངས་	-10.0303
འི་འགན་འཛིན་	-10.0303
གཞས་	-10.0304
ལ་སྙོམས་པར་འཇུག་	-10.0306
འགོག་	-10.0308
འཕེལ་བ	-10.0308
ཟུར་པ་	-10.0311
སྲ་བརྟན་	-10.0318
▁ང་རང་	-10.0322
སྒྲོགས་	-10.0325
་རྣམས་དང་་	-10.0327
འབྱུང་གནས་	-10.0329
གློག་	-10.0332
དགོན་པར་	-10.0333
སྦྱིན་པ	-10.0334
སྡུག་བསྔལ་བ	-10.0341
མཛད་རྗེས་	-10.0341
་དེ་ཚེ་	-10.0341
ཐམས་ཅད་དང་་	-10.0343
ནད་གཞི་	-10.0344
ཨི	-10.0344
ངེས་པར་འབྱུང་བ་	-10.035
ཧུ་	-10.0351
ཡོད་དམ	-10.0353
གནང་ཡོད་པ་མ་ཟད	-10.0354
ཡོང་བཞིན་ཡོད	-10.0354
སྐྱོབ་	-10.0358
གཟབ་རྒྱས་ཞུས་ཡོད	-10.0358
འབྲེལ་མཐུད་	-10.0364
གྲོང་ཁྱེར་གྱི་	-10.0371
སྤོང་བ་	-10.0375
རྩྭ་	-10.0381
ནམ་མཁའི་	-10.0382
ལྷ་ཡི་	-10.0386
ཁྲིམས་ལུགས་	-10.039
ཕབ་	-10.0398
སྙམ་	-10.0399
སུས་	-10.0401
ལོག་པར་	-10.0401
ངོ་བོ་ཉིད་སྟོང་	-10.0403
ནང་སྟོང་པ་ཉིད་	-10.0406
▁འདོད་ཆགས་	-10.0407
གཟའ་པ་སངས་ཉིན་	-10.0408
་ཡིན་ཏེ་	-10.0412
འདུགཅེས་	-10.0414
དྲི་མ་མེད་པ་	-10.0415
ཕོ	-10.0417
ཡིད་ཀྱི་རྣམ་པར་	-10.0418
འདོད་པ་དང་་	-10.0419
ཤིང་ལྗོན་པ་	-10.042
ཞི་རྒོལ་	-10.0421
འབར་བ་	-10.0423
གཏན་འཁེལ་	-10.0424
གཟེངས་བསྟོད་	-10.0426
འགོད་	-10.0427
ཤེས་ཏེ་	-10.0431
་སྐོར་དང་	-10.0434
རབ་ཏུ་མཁྱེན་	-10.0435
▁གང་ལ་	-10.0446
བར་གྱུར་ཏོ་་	-10.0447
འོད་གསལ་	-10.0459
ཏམ་	-10.046
དེ་བས་	-10.0463
འགྲེལ་བཤད་	-10.0465
པར་བྱ་	-10.0467
བལྟ་ན་སྡུག་པ་	-10.047
དེར་བརྟེན་	-10.0472
▁བཟང་སྐྱོང་	-10.0472
འབར་	-10.0472
ལྷུན་པོ་	-10.0476
་ཞེས་བྱའོ་་	-10.0476
མཐའ་ཡས་པ་	-10.0476
ཕྱག་རྒྱ་	-10.0479
ལས་ཡོངས་སུ་ཐར་བ	-10.0483
བཙན་	-10.0491
རྒྱུད་ཀྱི་	-10.0495
འཁྲིད་	-10.0496
བཅོམ་པ་	-10.0498
པ་ལྟར་	-10.0498
ཁྲི་བཞི་སྟོང་	-10.0502
དམར་	-10.0503
ཆོས་གང་ཡང་	-10.0507
བྱས་པ་ཡིན	-10.0507
་ཡིས་་	-10.0507
ཞིག་ཆགས་	-10.0508
མཐོན་པོ་	-10.051
བཞུགས་སྒར་དུ་	-10.0513
ཐེབས་	-10.0518
ཨ་རུ་ན་ཅལ་	-10.0522
ཞེས་བྱ་བ་དེ་ནི་	-10.0526
མེ་ལ	-10.0526
ཇི་འདྲ་ཞིག་	-10.0528
ཅུང་ཟད་	-10.0529
དགོས་པ་རེད	-10.0532
རྒྱབ་སྐྱོར་བ་	-10.0534
བྱེད་པར་	-10.0534
རང་བྱུང་	-10.0535
དེ་རིང་འདིར་	-10.0536
གསལ་བ་	-10.0541
འདབ་མ་	-10.0542
གང་འདྲ་	-10.0543
བསྐུལ་	-10.0548
གཞུང་དང་གཞུང་	-10.0556
ཁྲི	-10.0556
འབྱུང་བའི་	-10.0557
ཁོ་བོ་	-10.0558
ཇ	-10.0559
འདི་དག་ཐམས་ཅད་	-10.056
་རུ་	-10.0563
འཐུས་མི་ལ	-10.0572
གྱི་བར་དུ་	-10.0578
དང་བསྟུན་	-10.0579
ཡིད་འོང་	-10.058
ཐུགས་སུ་ཆུད་ནས་	-10.058
བཀ	-10.0584
ཚིགས་	-10.0585
ཡོངས་གྲགས་	-10.0588
འཐོབ་	-10.0593
གནམ་གཤིས་	-10.0594
བཅའ་ཁྲིམས་	-10.0595
་འདོད་རྒུ་གླིང་	-10.0596
ཕུན་སུམ་ཚོགས་པ	-10.0596
སྨྲས་	-10.0598
དང་འདྲ་བ་	-10.0598
ཆོས་ཀྱི་རྣམ་ག	-10.0605
ནང་སྲིད་	-10.0606
བདུད་སྡིག་ཅན་	-10.0607
བསྐོར་བ་	-10.0608
ཡོད་པ་རྣམས་	-10.0612
ཚན་པའི་འགན་འཛིན་	-10.0613
ཁེ་	-10.0613
ཡང་དག་པའི་མཐའ་	-10.0615
མང་གཙོ་དང་	-10.0618
་འཇིག་རྟེན་	-10.0623
ཞིག་གི་	-10.0623
སེམས་ཅན་གང་དག་	-10.0624
ཁོང་ལ་	-10.0632
དབུས་སུ་	-10.0633
སྨན་གྱི་	-10.0634
གུས་པར་	-10.0636
གནང་ནས་	-10.0637
སྐྱོ	-10.0642
ཧིན་སྒོར་འབུམ་	-10.0643
བཏབ་	-10.0643
▁ང་ནི་	-10.0643
འཛིན་པ་དང་་	-10.0645
དབུགས་	-10.0646
▁སྐྱེས་བུ་	-10.0651
ཞུ་བ་	-10.0652
དེ་སྙེད་	-10.0653
ཐབས་དང་	-10.0657
▁འགྲོ་བ་མིའི་	-10.066
ཕྱོགས་ཀྱི་	-10.0661
རྒྱུ་ཡིན་པ་	-10.0665
རྒྱ་མཚོ་ཆེན་པོ་	-10.0668
གནས་པར་	-10.0668
བཞུགས་སོ་་	-10.0668
བརྟན་བཞུགས་བསྟར་	-10.0669
དཔག་མེད་	-10.0678
▁འདས་པའི་ལོ་ངོ་	-10.0679
ཡི་དགས་	-10.0692
མི་དགེ་བའི་ཆོས་	-10.0693
འགག་	-10.0696
▁འདུ་བྱེད་	-10.0699
་འདི་ནི་	-10.0701
བསྲུངས་	-10.0704
གཡོ་	-10.0704
བོད་མིའི་ཐོག་	-10.0704
དབུ་འབྱེད་གནང་	-10.0706
སྲིད་གཞུང་	-10.071
སྐྱོད་	-10.0712
▁ཀ་ཤི་ཀ་	-10.0714
དང་ཐབས་ཅིག་ཏུ་	-10.0714
བ་བཏུད་དེ་	-10.0716
དུའང་	-10.072
སྐྱེ་བའི་	-10.0722
སྐོར་གྱི་	-10.0728
བལ་ཡུལ་	-10.0729
ཕུག་	-10.073
འཆི་མེད་	-10.0734
མདུན་ལམ་	-10.0735
ཧ་ལམ་	-10.0735
བཟང་ཕྱོགས་ཀྱི་	-10.0736
རྒྱ་སྐྱེད་	-10.0737
་པ	-10.0738
གནང་སྟེ	-10.0739
བཞིན་པ་	-10.074
བུས་	-10.0741
གང་གའི་ཀླུང་ག	-10.0744
▁འདིས་	-10.0744
སླད་དུ་	-10.0751
དེ་ལ་ཡང་	-10.0753
སྐྱབས་མགོན་ཆེན་པ	-10.0754
བདེ་འཇགས་	-10.0756
སྦྱར་བར་བྱའོ་་	-10.0758
▁དུས་	-10.0758
གསུང་འཕྲིན་	-10.0764
དང་མཐུན་པའི་	-10.0764
ངོ་བོ་ཉིད་ཀྱིས་	-10.0767
གཞུང་དང་	-10.0767
ཉམས་ཞིབ་ཁང་གི་	-10.0768
བོ་་	-10.0772
དེ་དང་འཐུན་པའི་	-10.0773
འདིར་ནི་	-10.0775
བཤད་ཀྱི་ཡོད	-10.0783
་དྭགས་པོ་བསོད་ནམ	-10.0783
▁ཕྱི་རྒྱལ་	-10.0784
རིགས་ཀྱི་བུ་ཆོས་	-10.0785
གསོད་	-10.079
ཨུ་རུ་སུའི་	-10.0794
བདེ་གཤེགས་	-10.0794
དེས་སྨྲས་པ་	-10.0795
ངོ་སྤྲོད་དང་	-10.0795
ཁག་གཅིག་ལ་	-10.0801
ཐ་དད་པ་	-10.0811
ཅེས་བྱ་སྟེ་	-10.0812
དགའ་བར་	-10.0813
གྱི་ཁམས་མི་མཇེད་	-10.0813
བླངས་པ་	-10.0822
▁དུས་རབས་	-10.0822
▁ཕྱིས་སུ་	-10.0824
ལྟ་བུ་དང་་	-10.0826
་བཅས་ཀྱི་	-10.0833
ཚུན་ཆད་	-10.0834
ཐོགས་ཏེ་	-10.0836
དང་་རྣམ་པར་ཤེས་པ	-10.0838
རབ་ཏུ་ཤེས་སོ་་	-10.0844
དེ་ཡང་མི་དམིགས་	-10.0844
་གཡས་པའི་ལྷ་ང་	-10.0845
▁སྲོག་ཆགས་	-10.0846
རྣམ་རྟོག་	-10.0846
དམིགས་སུ་མེད་པ	-10.0854
▁དེ་འདྲའི་	-10.0858
▁ལྷའི་	-10.0858
དཔའ་	-10.0864
ཀེ	-10.0864
བསྟན་ཏེ་	-10.0865
རྡོག་རོལ་གཏོང་	-10.0867
བློན་ཆེན་ཟུར་པ་	-10.0867
་ལགས	-10.0871
གཟིགས་འབུལ་ཞུས་	-10.0876
ཆོག	-10.088
འདུགཕྱོགས་མཚུངས་	-10.0881
མཆིས་པ་	-10.0882
དྲུག་ཅུ་	-10.0887
དགོངས་ཚུལ་	-10.0888
སྔོན་གྱི་མཐའ་	-10.0888
མང་ཚོགས་ཀྱི་	-10.0889
▁རྒྱ་གར་ནང་	-10.0892
རྨ་	-10.0896
ཕེབས་འབྱོར་སྐབས་	-10.0898
རེག་པ་	-10.0899
བོད་རྒྱའི་	-10.09
འཚལ་བ་	-10.0903
དེ་འདྲའི་ཐོག་ནས་	-10.0904
དང་་བཟོད་པའི་	-10.0904
གསལ་བར་	-10.0905
ཚངས་	-10.0905
ལྔའི་	-10.0907
བསྡུས་	-10.0909
འཕྲོག་	-10.0912
ལ་བརྩོན་	-10.0915
ཐུབ་པར་	-10.0919
བསམས་	-10.0921
བསྟན་་	-10.0923
བྱ་སྤྱོད་	-10.0924
▁དེ་གཉིས་	-10.0927
▁ཀྱེ་རྒྱལ་པོ་	-10.0931
འབྲིང་	-10.0934
འདུན་	-10.0936
མཁས་པས་	-10.0938
ཤེས་ནས་	-10.0938
མཚན་མོ་	-10.094
གཏན་	-10.0942
བཞུགས་སྒར་རྡ་ས་	-10.0942
སྤྲོ་	-10.0944
སུ་ཡང་	-10.0945
ཇི་ཙམ་དུ་	-10.0946
གྲངས་གསུམ་རིང་	-10.0947
དབུ་བཞུགས་ཐོག་	-10.095
ཟུང་	-10.095
གནས་ནས་	-10.0955
གནོད་སེམས་	-10.0956
བཟའ་བ་དང་བཅའ་བ་	-10.0956
སྔར་ལྷག་	-10.0958
སྤྲུལ་པའི་	-10.0959
དུས་སྐབས་	-10.0963
སུད་སིའི་	-10.0965
གདན་ས་	-10.0967
གས་ཀྱི་	-10.0972
ལྟ་ཅི་སྨོས་	-10.0974
སུམ་ཅུ་རྩ་གསུམ་པ	-10.0975
རིམས་སྔོན་འགོག་	-10.0979
ལགས་རྣམ་གཉིས་	-10.0979
ཡོད་ན	-10.0981
▁ཡུལ་	-10.0983
རྫོགས་པའི་	-10.0985
འགའ་ཞིག་	-10.099
དེའི་ཚེ་དེའི་ད	-10.0991
བརྗོད་དུ་མེད་པ	-10.0991
མེད་པ	-10.1
▁ཤེས་ཡོན་	-10.1001
རྣམ་འགྱུར་	-10.1002
ཚན་	-10.1005
འོང་བ་	-10.1007
ཙམ་ཡང་	-10.1008
གནང་རྗེས་	-10.1012
ཞུས་ཏེ་	-10.1013
རབ་ཏུ་འབྱུང་བར་	-10.1013
སི	-10.1015
བརྩམས་	-10.1015
མེ	-10.1016
▁ཉོན་མོངས་པ་	-10.1016
▁ཤིན་ཏུ་	-10.1017
འཁྲུག་	-10.1018
བག་ཆགས་	-10.1019
མཚན་མ་མེད་པ་དང་་	-10.102
རིས་མེད་	-10.1028
སྲང་	-10.1031
ཆོས་འདི་	-10.1035
རིའི་	-10.1036
▁ངའི་	-10.1036
ལོ་རྒྱུས་ཀྱི་	-10.1037
ཤེས་པ་ཞེས་བྱ་སྟེ	-10.1038
དཔོན་	-10.1042
དེ་དག་ལས་	-10.1042
▁བསྐལ་པ་	-10.1048
གཙོ་	-10.1049
རྒྱལ་ས་ལྡི་ལིར་	-10.1053
འགྲོ་རྒྱུ་	-10.1054
བླ་མེད་	-10.1054
ལགས་ཀྱི་	-10.1056
མཚམས་འཇོག་	-10.1061
བྱའོ་	-10.1061
གཙོ་བོ་ནི	-10.1064
པར་འབྱུང་བ་	-10.1066
ལྡི་ལིར་	-10.1068
ཚེ་རིང་ལགས	-10.1071
ར་བྱེད་དེ་	-10.1072
ཀྱི་སྲིད་བྱུས་	-10.1074
པ་ཡིན་ནོ་	-10.1077
བཀའ་མོལ་	-10.1079
རུས་	-10.1081
དགེ་འདུན་འཚོ་	-10.1083
གདུལ་བྱ	-10.1086
བོད་མི་མང་	-10.1087
དུས་ཡུན་	-10.1088
སྔ་དྲོ་	-10.1092
ཕྱུང་	-10.1092
ཁོངས་སུ་	-10.1094
་ཇི་སྙམ་དུ་སེམས་	-10.1095
མ་མཆིས་་	-10.1099
ཁྲ	-10.1102
བཀའ་སྩལ་ནས་	-10.1107
ངོན་སུམ་དུ་བྱེད་	-10.1109
བོད་མཐོ་སྒང་གི་	-10.111
ཕེབས་སྐབས་	-10.1115
འགྱུར་བའི་	-10.1115
གཡོས་	-10.1117
སངས་རྒྱས་ཀྱིས་	-10.1119
གཏིང་ཟབ་	-10.1122
མཛད་དེ་	-10.1123
ཡོང་རྒྱུར་	-10.1127
▁དེ་དག་གི་	-10.1135
རྒྱལ་པོས་	-10.1144
ཨིན་	-10.1144
དུས་ཆེན་	-10.1145
ར་བྱས་ནས་	-10.1162
རྩིས་ཞིབ་	-10.1166
ཟླ་བའི་	-10.1166
ལོ་རྒྱུས་ཐོག་	-10.1167
ལ་བ	-10.1167
བོད་མི་དང་	-10.1171
བསྟི་གནས་	-10.1172
ཞུས་པ་དང་སྦྲགས	-10.1174
▁གང་གི་	-10.1174
རིམ་གྱིས་	-10.1178
སྐོམ་	-10.1179
བཀའ་ཤག་གིས་	-10.1181
▁དེང་སང་	-10.1186
པའི་ཚིག་བླ་དགས་	-10.119
ཐམས་ཅད་ལས་	-10.119
རྒྱ་ནག་ལ་	-10.1194
ཁག	-10.1195
འཁོར་ལྷ་ཚང་བསོད་	-10.1204
ཐོག་དམ་བསྒྲགས་	-10.1205
ག་ལ་བ་དེར་སོང་	-10.1207
ཆང་	-10.1209
གང་མགྱོགས་	-10.121
བྱེད་སྟངས་	-10.1216
གཟུགས་ཅན་སྙིང་པོ	-10.1216
བསྟོད་	-10.1219
བརྒྱ	-10.1221
མྱོང་ཡོད	-10.1222
འཆི་བ་	-10.1222
པ་ཡིན་ཏེ་	-10.1222
གནམ་	-10.1225
རྣམ་པར་ཤེས་པ	-10.1226
མ་འོངས་པའི་	-10.1226
ཆ་ནས་	-10.1229
འི་གནས་	-10.1232
བོར་	-10.1235
ཉན་ཐོས་ཆེན་པོ་	-10.1235
སྒ	-10.1235
▁ག	-10.1239
སྡོད་ཁང་	-10.1247
ར་བགྱིའོ་་	-10.1248
གཙོ་བོར་	-10.1249
▁ཧོང་ཀོང་	-10.1251
ཀརྨ་ཡེ་ཤེས་མཆོག་	-10.1251
མཛད་སྒོའི་	-10.1256
མཐོ་	-10.1259
པ་སོགས་	-10.1262
རིང་ལུགས་ཀྱི་	-10.1264
▁བདེ་བར་གཤེགས་པ་	-10.127
ཚོགས་པ་དང་	-10.127
འི་འབྲས་བུ་དང་་	-10.1277
བཞིན་པ་དང་	-10.1279
བསྐོར་	-10.1283
འགྲོ་སྟངས་	-10.1285
འགྲོ	-10.1285
སྨན་གྱི་རྒྱལ་པོ་	-10.1286
སྐྱེ་མཆེད་དྲུག་	-10.1293
་འདུ་བྱེད་རྣམས་	-10.1293
ཉན་ཐོས་དང་རང་	-10.1295
དགྲ་བཅོམ་པ་ཉིད་མ	-10.1301
གནང་ཡོད་འདུག	-10.1302
ཆོས་དེ་དག་	-10.1302
ཆོས་བསྟན་ཏེ་	-10.1305
ཐང་ལྷན་ཁང་གི་	-10.1308
གཟུང་	-10.1314
བཀའ་ཤག་	-10.1315
ཞི་བ	-10.1317
▁འདས་པའི་	-10.132
ཡོད་པས	-10.1323
སྐད་ཅིག་	-10.1325
གློད་བཀྲོལ་	-10.1329
་འདི་ལྟར་	-10.1331
བྱིན་གྱི་རླབས་	-10.1331
བཀོད་ཁྱབ་	-10.1334
གཉིས	-10.1336
མིང་དང་གཟུགས་	-10.1342
འཛིན་བཟུང་བྱས་	-10.1349
ཐེ	-10.135
མུན་པ་	-10.1352
ཕེབས་བསུ་	-10.1357
གཞུང་མང་གཉིས་ནས་	-10.136
ཨ་རིའི་གཞུང་གིས་	-10.1363
འགྲེམས་སྤེལ་	-10.1366
ཁྱེའུ་དེ་	-10.1367
ཤུགས་ཆེ་གནང་	-10.1389
གསུང་འདོན་གནང་	-10.139
▁གོང་ས་	-10.1392
ལྷ་སར་	-10.1395
གཞོན་	-10.1396
ཡང་དག་པར་འཛིན་	-10.1397
སྲིད་བྱུས་འོག་	-10.1397
བཟོད་པའི་	-10.1398
▁བཅུ་གང་ཞེ་ན་	-10.1398
ཡོང་སྐབས་	-10.14
ཕེབས་ཐོན་གནང་	-10.14
ལྟས་	-10.1401
རྨོངས་པ་	-10.1403
པར་མི་འགྱུར་	-10.1403
པར་འགྱུར་བ་དང་་	-10.1405
གྱི་ཁམས་འདི་	-10.1407
ཕེབས་ནས་	-10.1408
ཆོད་	-10.1411
ངེས་པ	-10.1415
གཟུགས་སུ་	-10.1417
བསལ་	-10.1417
ཐབས་མཁས་པ་	-10.1418
་ཡེ་ཤེས་	-10.1423
མེད་པའི་ཕྱིར་	-10.1425
མི་བྱེད་་	-10.1433
དང་་ཞེ་སྡང་དང་་	-10.1434
ེན་གཟབ་རྒྱས་ཞུས་	-10.144
ཞབས་འདེགས་	-10.1443
ཡོངས་ཀྱི་	-10.1447
བཟའ་	-10.1453
བརྙེས་	-10.1457
རྒྱ་མིའི་	-10.1457
པར་གྱིས་་	-10.1458
འཇིག་ཚོགས་ལ་ལྟ་བ	-10.1459
་ཉིད་	-10.1459
ས་པ་	-10.146
མང་གཙོའི་ཀ་བ་	-10.146
མུས་ཡིན	-10.146
རྫོགས་པར་	-10.1462
པད་མ་དཀར་པོའི་	-10.1467
▁རིགས་ཀྱི་བུ་འདི	-10.1473
སྟེན་	-10.1478
གནང་རྗེས	-10.1479
ཡིན་འདུག་པ་བཅས	-10.1481
ཐང་གི་	-10.1482
རྣམ་པ་གཉིས་	-10.1485
བཀའ་སྩལ་ཏོ་	-10.1491
▁མི་རིགས་	-10.1492
བཙུགས་ནས་	-10.1493
▁ཆོས་རྣམས་	-10.1493
སྦྱངས་	-10.1499
འཁྱེར་	-10.15
སྤྲོས་པ་	-10.1503
གྱིས་་	-10.1508
ཇི་སྙེད་ཡོད་པ་	-10.1509
སྤྱོད་པའི་	-10.1511
འབུམ་རམས་པ་	-10.1512
སྨྲ་བ	-10.1513
▁ས	-10.1515
གསར་འཛུགས་གནང་	-10.1517
གང་དག་གིས་	-10.1518
དེ་འདྲ་ཞིག་	-10.152
འདོད་ན་	-10.1523
▁དེ་ནས་ཡང་	-10.1524
དྲག་པོ་	-10.1524
རྒྱལ་ཆེན་བཞིའི་	-10.1529
མདོ་སྡེ་འདི་	-10.1535
ར་མི་བགྱིད་	-10.1537
སངས་རྒྱས་ཡེ་ཤེས་	-10.1538
ཅེས་བྱ་བ	-10.1538
བྱུང་བར་	-10.1541
ཧ་ཅང་ཆེན་པོ་	-10.1541
ག་ལ་	-10.1542
དུས་ཐོག་	-10.1544
འཕར་	-10.1544
དྲི་བར་ལན་འདེབས་	-10.1544
མཐར་གྱིས་	-10.1545
གྲང་	-10.1549
་ཡིན་དུ་བཅས་པའི་	-10.155
བཅུ་དྲུག་	-10.155
གྲོང་ཁྱེར་ཆེན་པོ	-10.1559
འཕྲལ་	-10.1562
ཨར་	-10.1563
མངོན་པར་བསྟོད་དོ	-10.1564
སྡོམ་	-10.1565
ཞེ་	-10.1566
ནམས་སྟོབས་རྒྱལ་	-10.1568
དང་བཅས་པར་	-10.1568
ཞུགས་ཏེ་	-10.1575
རུ་ཁག་	-10.158
་རྣམས་ཀྱིས་	-10.1581
བྱུང་བ་དང་	-10.1581
ལྟོ་	-10.1586
དང་པོའི་	-10.1587
དབང་ཆེན་ལགས་	-10.1587
ལྟ་སྨོས་ཀྱང་ཅི་	-10.1589
རྗེས་སུ་མི་མཐོང་	-10.1591
གློ་བུར་དུ་	-10.1596
ཀྱི་ཐོག་ནས་	-10.1596
སྤྱི་ཚོགས་ཀྱི་	-10.1598
རིམ་གྲོ་	-10.1599
ཆོལ་གསུམ་	-10.16
བྱ་བ་བཞུགས་ཏེ་	-10.1602
ཅེས་བྱ་བའི་	-10.1605
ལོ་ངོ་སྟོང་ཕྲག་	-10.1606
ཆོས་སྟོན་ཏོ་་	-10.1609
ར་མི་བྱེད་དོ་་	-10.1614
སྲེད་མེད་ཀྱི་བུ་	-10.1617
ལུས་པོའི་	-10.162
▁ཉི་ཧོང་	-10.1625
འདི་སྙམ་དུ་	-10.1626
དྲུང་འཕར་	-10.1628
མ་མཆིས་པར་	-10.1629
ཤེས་་	-10.1631
རྒྱུག་	-10.1632
ཅེས་བྱ་བ་ཡོད་དེ་	-10.1637
▁བསོད་ནམས་	-10.1638
བྲག་	-10.1638
ལ་མཆོད་པ་	-10.164
སད་	-10.1642
རྣམ་རྒྱལ་	-10.1642
ཟད་པར་	-10.1645
ཆུས་	-10.1648
བའི་ཕྱིར་	-10.1648
ཡོངས་ཁྱབ་	-10.1649
མིག་གི་ཁམས་	-10.1649
པར་གྱུར་ཏོ་	-10.1653
ཐབས་ལ་མཁས་པ་	-10.166
ཞིབ་ཕྲ་	-10.1664
མེའི་	-10.1671
བསགས་	-10.1672
ཟུར་དུ་	-10.1673
འི་སྐབས་	-10.1674
ར་བྱའོ་	-10.1679
▁བོད་པའི་	-10.1679
བསྟན་པར་	-10.1682
ལྡན་པ་ཞིག་	-10.1686
མཉམ་པར་	-10.1688
རལ་གྲི་	-10.169
གཞན་དག་ཀྱང་	-10.1693
པར་གྱུར་ཅིག་	-10.1693
བརྒྱ་ཕྲག་	-10.17
▁ཀ	-10.17
གྲོས་མཐུན་	-10.1702
བཏགས་	-10.1702
ཁག་དང་	-10.1706
ཨེ	-10.1708
བདུད་རྩིའི་	-10.171
བྱ་རྒྱུར་	-10.171
གོང་ས་མཆོག་གིས་	-10.1711
ནགས་	-10.1719
ང་མཉེས་པར་བྱས་ཏེ	-10.1721
སྡོམ་པ་	-10.1724
གི་དབང་པོ་ནི་	-10.1725
སྲོལ་རྒྱུན་གྱི་	-10.1726
བརྒྱུད་རིམ་	-10.1729
འགྲོ་བ	-10.173
རོལ་	-10.173
དང་་ཤེས་རབ་ཀྱི་	-10.173
སློབ་གཉེར་ཁང་གི་	-10.1745
▁ཉེ་ལམ་	-10.1746
གཤེགས་སོ་་	-10.1748
ཁ་གསལ་	-10.1748
ཞུགས་ནས་	-10.1748
བོད་ཀྱི་ཐུན་མིན་	-10.1751
ཤུལ་	-10.1752
▁དེས་དེར་	-10.1758
ཞག་	-10.1758
པ་མེད་པ་དང་་	-10.1764
བཅས་པ་	-10.1765
▁མ་ཕམ་པ་	-10.1767
གང་གི་ཕྱིར་	-10.1768
པར་བྱེད་་	-10.1769
བསྐྱར་བཅོས་	-10.1772
འི་ཐོག་	-10.1774
འཆང་	-10.1778
▁སྔོན་གྱི་	-10.1778
གཞུག་	-10.1781
གང་ལགས་	-10.1783
སངས་རྒྱས་རྣམས་	-10.1785
ཡོང་སླད་	-10.1788
དཔོན་རིགས་	-10.1792
དུས་དྲན་	-10.1793
ཉི་མའི་	-10.1795
དཔག་ཏུ་མེད་པའི་	-10.18
ཚོང་དཔོན་	-10.1804
་འཛུགས་ཀྱིས་	-10.1804
ནན་ཏན་	-10.1804
སྔ་མ་	-10.1805
རྒྱ་ཆེན་	-10.1806
དང་ལྡན་པ	-10.181
ལམ་ལུགས་ནང་	-10.181
ཆོས་ཀྱིས་	-10.1814
ཐབས་ཤེས་	-10.1818
ར་གྱིས་ཤིག་	-10.1821
འི་སངས་རྒྱས་འོད་	-10.1821
ས་ན་	-10.1825
▁ལ་དྭགས་	-10.1829
དང་འདྲ་བར་	-10.183
ཞིག་ཡིན་པ་དང་	-10.1831
ཤེས་པར་	-10.1831
▁རྒྱ་གཞུང་གིས་	-10.1831
མི་ཤེས་པ་	-10.1831
ལོགས་སུ་	-10.1836
སྟོན་པར་བྱེད་པ་	-10.1836
▁སྡུག་བསྔལ་	-10.184
ཐབས	-10.1842
བ་རྣམས་	-10.1842
ཧ་ཅང་མང་པོ་	-10.1844
གཟིགས་སྐོར་	-10.1846
བསྟན་ནས་	-10.185
ཁང་དུ་	-10.1851
གཙོས་པའི་	-10.1851
ད་རེས་	-10.1852
འགྲམ་	-10.1853
ལས་ཅི་བགྱིས་ན་	-10.1854
བ་ལྟ་ག་ལ་མཆིས་	-10.1854
འི་རྒྱལ་པོ	-10.1855
གཞན་དག་ལ་	-10.1856
སྐལ་	-10.186
ཀྱི་གྲོས་ཚོགས་	-10.1863
བསྐལ་པ་བཟང་པོ་	-10.1866
འདི་ལོའི་ཕྱི་ཟླ་	-10.1872
བོད་མི་ཡོངས་ཀྱི་	-10.1875
དེ་མཐོང་ནས་	-10.1877
▁ཐེ་ཝན་	-10.1884
གསོ་	-10.1884
སྐ	-10.1887
དགེ་ཚུལ་	-10.1891
ཧོ	-10.1893
སྟོབས་དང་	-10.1893
མཛད་ནས་	-10.1897
འཕྲིན་ལས་	-10.1897
སྤུ་	-10.1897
ཕན་པ་	-10.1906
▁བུ་མོ་	-10.1913
ལྷ་དང་བཅས་པའི་	-10.1914
ཡར་རྒྱས་ཐེབས་རྩ	-10.1915
ཕུལ་ཏེ་	-10.1915
སྤྱོད་པ་དང་་	-10.1916
རྒྱ་ནག་གཞུང་	-10.1918
ཁྱད་	-10.1919
སློབ་ཕྲུག་གྲངས་	-10.1922
དམག་མི་	-10.1922
རིན་	-10.1923
རྣམ་པར་གྲོལ་བའི་	-10.1924
ཐ་ན་	-10.1925
▁དྲང་སྲོང་	-10.1925
དད་པས་	-10.1927
ཚོལ་བ་	-10.1935
བྱས་་	-10.1941
རབས་	-10.1944
གཟའ་པ་སངས	-10.195
ཉེ་བར་ཞི་བ	-10.195
▁དགེ་སློང་དག་ང་	-10.1954
དེས་ན་	-10.1967
མ་ཡིན་་	-10.1968
་སེམས་ཅན་ཐམས་ཅད་	-10.1968
ཚེ་དབང་	-10.1972
ཕྱིན་པ་	-10.1986
ཆོས་དེ་	-10.1993
བྱམས་པ་དང་བརྩེ་བ	-10.1996
བོད་ནང་དུ་	-10.1999
མི་རབས་	-10.2
ཚེ་རབས་	-10.2007
འཛུམ་	-10.2009
▁འོད་སྲུང་	-10.2016
དང་་བསམ་གཏན་གྱི་	-10.202
ཁག་ཅིག་	-10.2024
དོན་དངོས་	-10.2026
དག་གིས་སྨྲས་པ་	-10.2026
ཡུམ་	-10.2035
གསོན་	-10.2038
གཉིས་དབར་	-10.2038
མས་གང་གའི་ཀླུང་ག	-10.2038
▁ཁ་ཅིག་	-10.2041
ི་བྱེ་མ་སྙེད་དག་	-10.2041
ལྷོ་ཨ་ཕི་རི་ཀའི་	-10.2042
ཇི་ཡོད་	-10.2043
ཁྱེད་ཅག་	-10.2045
དུ་ཡོད་པའི་	-10.2045
འཚེ་བ་	-10.2047
མི་དགེ་བ་	-10.2047
བརྟག་	-10.2047
བཀའ་ཤག་ནས་	-10.2049
ཡིན་ན	-10.2052
འདུལ་བའི་	-10.2053
བལྟས་	-10.2058
ཐམས་ཅད་དང་ལྡན་པ	-10.2063
ཇ་	-10.2063
ལྷན་ཁང་གི་	-10.2067
སྨན་པའི་	-10.2067
དེ་དག་དང་་	-10.2069
ལྡང་	-10.2074
ཆོས་རྣམས་ཀྱི་	-10.2076
འགན་འཛིན་རྣམ་པ	-10.2082
འཚམས་གཟིགས་གནང་	-10.2085
གལ་ཆེ་	-10.2085
ཕུལ་བ་	-10.2089
པྲ	-10.209
འབྱུང་པོ་	-10.2092
ལ་ལ་ནི་	-10.2092
མི་ཐུབ	-10.2092
རིན་པོ་ཆེས་	-10.2094
▁བཅོམ་ལྡན་འདས་ག	-10.2097
▁ད་དུང་	-10.2099
རྗོད་	-10.2102
རྩ	-10.2107
་བའི་	-10.2112
་ལགས་	-10.2114
དག་མངོན་པར་འདུས་	-10.2117
གནས་སྟངས་དང་	-10.2118
ནག་པོ་	-10.2119
རྒྱ་མི་	-10.212
དགུང་ལོ་	-10.2123
རྣམས་ཀྱིས་མཆོད་	-10.2126
སྤངས་ནས་	-10.2127
ཧ་ལས་པའི་	-10.2129
སྤྱི་ཡོངས་ཀྱི་	-10.2131
གྱུར་ནས་	-10.2131
རྣམས་ཀྱི་ནང་དུ་	-10.2132
་མཆོག	-10.2139
གན་དུ་	-10.2141
གསུང་ཡོད	-10.2142
གཡོགས་	-10.2143
ཁྲིམས་ཞིབ་ཁང་གི་	-10.2146
དགེ་སྦྱོང་དང་	-10.2147
སྦེལ་ཇམ་	-10.2148
དེ་བཞིན་ཏེ་	-10.2149
དངོས་པོ་མེད་པ་	-10.2151
གྱི་སྲིད་བྱུས་	-10.2151
འི་ཐོག་ནས་	-10.2151
སྣ་ཚོགས་ཀྱིས་	-10.2153
མི་སེར་	-10.2154
བོད་ནང་གི་ཛ་དྲག་	-10.2162
དཀའ་ཐུབ་	-10.2163
གྱི་ཐོག་ནས་	-10.2164
▁མཐའ་དོན་	-10.2167
པུ	-10.2171
མ་སྐྱེས་པ	-10.2176
ལྟར་མི་བལྟ་སྟེ	-10.2179
སྔོན་ལ་	-10.218
ཤེས་རབ་ཀྱིས་	-10.2183
ལེགས་སོ་་	-10.2186
ལྷུང་	-10.2187
མ་ཐག་	-10.2192
ཞུས་པ་ཡིན	-10.2193
ཕྱག་འཚལ་ནས་	-10.2196
ཏུ	-10.2197
ནང་པའི་ལྟ་གྲུབ་	-10.2198
དྲིས་པ་	-10.2201
གོང་གསལ་	-10.2201
བཅིངས་པ་	-10.2212
ལམ་སྟོན་འོག་	-10.2212
བཟང་པོ་ཞིག་	-10.2216
ལ་བསྙེན་བཀུར་	-10.2218
རྣ་བ་	-10.2218
བཀའ་དྲིན་བསྐྱངས་	-10.2223
བསྒོམས་	-10.2226
དབང་པོའི་	-10.2226
དགེ་བའི་རྩ་བ་རྣམ	-10.2229
་བའི་རིགས་སུ་	-10.2232
སྨོན་པ་མེད་པ་	-10.2232
ཚབས་ཆེ་	-10.2237
ཉི་	-10.2245
བསམས་ནས་	-10.2245
ད་རྡུལ་དངོས་ཁམས་	-10.2246
མཇུག་སྒྲིལ་	-10.2247
སྔོན་དུ་	-10.2247
འགན་འཛིན	-10.2253
བ་བཏུད་ནས་	-10.2257
རྫ	-10.2258
སྤངས་ཏེ་	-10.226
ཙམ་ཞིག་	-10.226
རྣམ་པ་ཐམས་ཅད་དུ་	-10.2261
སྟོང་པར་	-10.2261
▁འཕགས་པའི་	-10.2262
དེ་དང་དེར་	-10.2262
ཅེས་བྱའོ་་	-10.2263
བའི་དོན་དུ་སྔོན་	-10.2265
སྒེར་གྱི་	-10.2268
ཕྱི་རོལ་	-10.227
བརྡ	-10.227
བོད་བསྟན་སྲིད་	-10.2276
དེ་དང་རྐྱེན་དེ	-10.2276
སེང་གེའི་ཁྲི་	-10.2278
གང་དག་ཡིན་པ་	-10.2279
བསྙེན་	-10.2282
ཤོར་	-10.2283
ལོ	-10.2284
འཛིན་བཟུང་	-10.2285
ཚངས་པས་བྱིན་	-10.2286
བཅིངས་	-10.2286
ན་ཚ	-10.2287
ཕྱེ་མ་	-10.2288
འདི་ལོའི་	-10.2289
▁ཕྱི་དྲིལ་	-10.2289
ཚ་བ་	-10.2292
ས་སོ་་	-10.2292
དྲིས་	-10.2294
དོན་དམ་	-10.2295
རྐྱེན་གང་དག་གིས་	-10.2296
་སིར་	-10.2298
གནད་འགག་	-10.2299
མྱོང་བ	-10.2299
་པ་རེད	-10.2305
གངས་སྐྱིད་	-10.2309
སྲུང་བརྩི་ཞུས་	-10.231
པར་མི་འགྱུར་རོ་་	-10.2313
ལོང་	-10.2318
▁ངོས་ཀྱི་	-10.2324
སྔོན་མ་	-10.2326
ྭ་	-10.2327
དགོན་སྡེ་	-10.2329
འབད་བརྩོན་གནང་	-10.2332
▁སྲིད་པའི་	-10.2334
བསྐྱེད་ནས་	-10.2335
ཀུན་ཀྱང་	-10.2339
རྒྱ་ནག་གིས་	-10.2339
ཧར་	-10.2342
ཐུབ་པ་ཞིག་	-10.2344
ཨོ་གླིང་	-10.2345
སྐུ་མགྲོན་རྣམ་པ	-10.2347
ཞུགས་ཏེ་དེའི་ཚེ་	-10.2349
གནང་འདུགདེ་ཡང་	-10.2349
ཐམས་ཅད་མཁྱེན་པ་	-10.2351
གྲོས་འཆར་	-10.2352
པ་ན་	-10.2353
▁འདྲེན་པ་	-10.2354
ཆེ་ཁག་	-10.2358
ཉོན་མོངས་པ་མེད་པ	-10.2358
རྒྱ་དཀར་ནག་གཉིས་	-10.2359
▁རང་གི་	-10.2362
ཞུས་པའི་	-10.2366
གྲོས་ཚོགས་སུ་	-10.2366
བཞིན་ཡོད་པ་མ་ཟད	-10.2367
ཕྲག་དོག་	-10.2368
བཀྲ	-10.2368
མཆོད་སྦྱིན་གྱི་	-10.2369
གི	-10.237
གུས་པ་	-10.2371
ཕ་རོལ་གྱི་	-10.2371
བསླབ་པའི་གཞི་	-10.2372
སྔོན་ཆད་	-10.2373
གནང་རྒྱུ་ཡིན་	-10.2375
ར་བྱ་བ་	-10.2378
སྐྱེའོ་	-10.2379
འི་རིང་	-10.238
དུད་འགྲོའི་སྐྱེ	-10.2382
བག	-10.2386
མ་ཡིན་གྱི་	-10.2389
མ་ཡིན་པ་དང་་	-10.2396
བཞིན	-10.2397
▁མ	-10.2398
ཐབས་ཀྱི་	-10.2403
མགུ་བ	-10.2403
སྐྱིལ་མོ་ཀྲུང་	-10.2406
ཡང་མ་ཡིན་ནོ་་	-10.2407
རྒྱལ་བ་རིན་པོ་ཆེ	-10.2408
སྐྱེ་བོའི་ཚོགས་	-10.2412
མཚོན་ན་	-10.2415
འགགས་	-10.2416
བར་བརྟེན་	-10.2417
མཐོ་སློབ་ཀྱི་	-10.2423
དེ་བདག་གིས་	-10.2423
རིགས་ལ་	-10.2425
ཕྱིར་ཡང་	-10.2425
་གང་ཞེ་ན་	-10.2425
འཛིན་པའི་	-10.2427
ིར་	-10.2428
བསྐོ་གཞག་	-10.2429
བབས་	-10.2429
མོར་	-10.2431
བྱུང་སོང་	-10.2434
དུས་རྒྱུན་དུ་	-10.244
བརྩི་	-10.244
མོ་་	-10.2443
རྣམ་པ་དུ་མ་	-10.2446
མི་སྡུག་པ་	-10.2447
▁བོད་མི་ཚོས་	-10.2448
རྟེན་འབྱུང་	-10.2449
དུ་སྦྱར་རོ་་	-10.245
བརྟན་ལྷིང་	-10.2451
དོང་ངོ་་་	-10.2455
བཞུད་	-10.2455
ཞི་གནས་	-10.2456
དྲ་ལམ་བརྒྱུད་	-10.2464
ལོ་་	-10.2467
མཐོ་བ་	-10.2467
བརྒྱུད་ལམ་	-10.2468
འདྲ	-10.2468
འགྲིག་	-10.247
སྐྱབས་བཅོལ་	-10.247
དེ་སྐད་ཅེས་གསོལ་	-10.2473
གོང་འཕེལ་གཏོང་	-10.2477
ཀྱི་ཞིང་དེར་	-10.248
བཙལ་	-10.2481
དྲོ	-10.2481
གང་བ་	-10.2483
སེམས་ཅན་དམྱལ་བ	-10.2483
ཙམ་དུ་	-10.2484
འདུས་མ་བྱས་ཀྱི་	-10.2488
སྨན་རྩིས་ཁང་	-10.2489
ཕྱིན་ཅི་ལོག་	-10.2489
བསད་	-10.2491
▁ཉན་ཐོས་	-10.2495
བགྱིས་	-10.2499
▁དེ་སྔོན་	-10.25
ཞ	-10.2503
མཐའ་དག་	-10.2508
པའི་ཐོག་	-10.2509
འི་ངོ་བོ་ཉིད་	-10.251
གྱུར་ཅིང་་་	-10.2512
འགོ་འཁྲིད་	-10.2513
ལྡོག་	-10.2516
སྟོང་པ་ཉིད་ལ་	-10.2517
བསླབས་	-10.2522
ཀར་ན་ཊ་ཀ་མངའ་སྡེ	-10.2531
སུམ་ཅུ་	-10.2534
མུ་ཏིག་	-10.2534
བཅྭ་བརྒྱད་	-10.2535
་ཇི་ལྟར་	-10.2536
དྲི་ཟ་	-10.2537
རྣམ་པར་སྨིན་པ	-10.2538
ལངས་	-10.2539
བཞོན་པ་	-10.254
ལ་གནས་	-10.2547
འདོད་པ་རྣམས་ལ་	-10.2549
གྲོང་སྡེའི་	-10.2549
དྲུང་གཞོན་	-10.2549
བཟློག་	-10.2553
་ཀྱི་རྩ་ཁྲིམས་	-10.2553
མིག་གིས་	-10.2554
འོན་ཀྱང་	-10.2556
སླེབས་ཡོད	-10.2559
ཉིད་ཀྱང་	-10.2561
འཁྲུངས་	-10.2562
ཡི་རངས་ཏེ་	-10.2562
སྐད་ཆ་བཤད་	-10.2565
འཕྲལ་དུ་	-10.2566
པའི་ཆོས་	-10.2566
ཐབས་སུ་	-10.2567
ར་གྱུར་པའི་	-10.2568
ནི་འདི་ལྟ་སྟེ་	-10.2568
མཁན་དང་	-10.257
འདོད་ཆགས་ཀྱི་	-10.2571
ཅུང་ཟད་ཀྱང་	-10.2575
གོ་མཚོན་	-10.2575
འོད་ཀྱི་	-10.2577
ལགས་བཅས་	-10.2579
གཅིག་ནི་	-10.258
སྦྱང་	-10.2584
གོང་ནས་	-10.2585
རྒྱ་གར་ནང་གི་	-10.2592
གསོ་བ་རིག་པའི་	-10.2594
གཅིག་ཀྱང་	-10.2594
རྒྱུ་བ་	-10.2596
དུ་གནས་སྤོས	-10.2597
ཞེས་བརྗོད་	-10.26
མ་བྱུང་	-10.2607
འགྲེལ་བཤད་རྒྱག་	-10.261
ཆེ་མཐོང་	-10.2611
མཆོག་གིས་དབུས་	-10.2612
སྟོང་ཕྲག་མང་པོ་	-10.2617
ཐོགས་ནས་	-10.2619
ཚུལ་དང་	-10.2628
ལ་མི་	-10.2631
གཙོ་ཆེར་	-10.2635
ལ་བཟོད་པ་	-10.2635
གྲོང་སྡེ་	-10.2636
འཚམས་གཟིགས་	-10.2637
གལ་ཆེའི་	-10.2638
རྒྱ་ནག་ཝུ་ཧན་	-10.264
འི་ལམ་	-10.264
ཐེག་པ་ཆེན་པོ་ལ་	-10.2643
སྟ	-10.2643
གང་དང་གང་དུ་	-10.2644
ཕུལ་ཡོད	-10.2645
དཔེར་ན	-10.2646
མ་འོངས་པ་	-10.2647
སོ་སོས་	-10.2648
ིག་	-10.2649
▁ཨིན་ཡུལ་	-10.265
གཟའ་མིག་དམར་ཉིན་	-10.2651
ཆེ་ཞིང་	-10.2651
འདུགསྤྱིར་	-10.2652
འགོག་པ་ཤེས་པ་	-10.2656
འབྱོར་པ་	-10.266
ཆེད་ལས་	-10.2667
ཁྲིམས་མཐུན་	-10.2669
འབོད་སྐུལ་ཞུས་	-10.267
མུ་སྟེགས་ཅན་	-10.2671
བདེ་བ་དང་་	-10.2672
ཆོས་ཚོགས་	-10.2672
དེ་ཉིད་ཀྱིས་	-10.2673
གཞོན་ནུའི་	-10.2676
སའི་ཁམས་	-10.2676
རྒྱབ་སྐྱོར་དང་	-10.2678
འོངས་པ་	-10.2679
ལ་མངོན་པར་ཞེན་པ་	-10.2681
མང་ཆེ་བ་	-10.2681
བརྗོད་ཀྱི་ཡོད	-10.2683
ཁྲིད་དེ་	-10.2683
ལྗོངས་	-10.2688
བྱིས་པའི་	-10.2692
སྐར་མའི་རྒྱལ་པོ་	-10.2694
དྲག་པོའི་	-10.2697
་མི་མཉེས་པར་མ་བ	-10.2697
ལྷ་དང་མི་དང་ལྷ་མ	-10.2698
རྒྱལ་པོའི་ཁབ་ཏུ་	-10.27
འི་སྐུ་	-10.2705
ཕྱག་འཚལ་	-10.2712
གཞི་རིམ་	-10.2714
་ཞིང་	-10.2716
བསྐོ་གཞག་གནང་	-10.2717
མིན་་	-10.272
དམག་འཁྲུག་	-10.2723
ཡུལ་དེའི་	-10.2725
མིའམ་ཅིའི་	-10.2725
སྐམས་	-10.2729
མིན་པའི་	-10.2733
མི་མངའ་	-10.2734
▁དེ་ནས་དེས་	-10.2735
དེ་རེད	-10.2738
བསྐལ་པ་གྲངས་མེད་	-10.2739
ཁག་གི་ནང་	-10.274
རྒྱལ་སྤྱིའི་ནང་	-10.2743
བསྐྱེད་དོ་་	-10.275
མཐོང་བ	-10.2751
ཐུབ་ཚེ་	-10.2754
ར་གྱུར་	-10.2756
་བྱམས་པ་	-10.2764
མགོ་བོས་ཕྱག་འཚལ་	-10.2764
རྩེད་འགྲན་	-10.2766
ལགས་ཀྱིས་གཙོས་	-10.2767
རྒྱ་གར་དུ་	-10.2768
བརྒྱ་སྟོང་དུ་མ་	-10.2768
འདུག་ཅེས་	-10.277
འདམ་	-10.2773
ཇི་སྲིད་	-10.2776
སྤྲུལ་སྐུ་	-10.2777
དག་ན་	-10.2778
རྩོད་རྙོག་	-10.278
མི་མཇེད་ཀྱི་	-10.2784
རིག་སྔགས་	-10.2785
འཁོར་དང་བཅས་པ་	-10.2786
ཚེ་དབང་རྒྱལ་པོ་	-10.2787
▁དེ་ལ་འདི་སྐད་	-10.2792
བྱས་ཀྱང་	-10.2796
སྟག་	-10.2797
ཆོས་སྟོན་	-10.2802
གཏན་འཁེལ་ཡོད	-10.2803
དབང་སྒྱུར་འོག་	-10.2808
པར་བྱའོ་	-10.281
▁སྟོན་པ་	-10.2815
འགོ་བཙུགས་	-10.2815
གྲྭ་བཙུན་	-10.2816
ཕྱི་ནང་གི་	-10.2822
མཉམ་པ་	-10.2822
བྱང་ཆུབ་སེམས་	-10.2822
བཟུང་བ་	-10.2825
གསོས་	-10.2829
གླང་པོ་ཆེ་	-10.2832
འཐུས་མི་དང་	-10.2836
▁མཁས་པ་	-10.2837
འོག	-10.2838
རླབས་ཆེན་	-10.284
ཁྱིམ་མཚེས་	-10.284
གཟོད་མ་ནས་	-10.2841
ཕྱི་རོལ་གྱི་	-10.2841
རྒྱ་གར་གཞུང་མང་	-10.2842
བཅས་ཀྱིས་	-10.2844
སྟོང་པ་ཉིད་ཀྱི་	-10.2846
གནས་ཤིང་	-10.2852
ཆིབས་བསྒྱུར་	-10.2853
འི་སྦྱིན་པ་	-10.2854
གསུམ་བཅུའི་	-10.2856
མི་དེ་	-10.2862
▁འདི་དག་ནི་	-10.2864
སྟབས	-10.2864
རྒྱ་ཡིག་	-10.2865
གནང་དགོས་	-10.2867
▁རྒྱལ་བའི་	-10.2872
འདི་རྣམས་	-10.2872
གྱོན་	-10.2875
▁བདག་ཉིད་	-10.2875
མི་འདོད་	-10.2875
དེ་དེ་བཞིན་ནོ་་	-10.2877
ཚད་ལྡན་	-10.2879
ར་འགྱུར་བའི་	-10.288
རྣམ་པའི་	-10.288
པ་རྣམས་ཡིན་ནོ་	-10.2889
ཁྱེད་རང་ཚོ་	-10.2891
▁ལམ་	-10.2891
ལས་ཁུངས་ཀྱིས་	-10.2894
ཀྱི་ངོ་བོ་ཉིད་	-10.2895
འཚོ་བར་	-10.2896
ཟེར་ནས་	-10.2899
བོད་རིགས་སྤྱི་	-10.2899
དགེ་འདུན་ལ་	-10.2901
བྱེད་སྒོ་	-10.2903
སྐྱེའི་	-10.2903
དངོས་པོ་མེད་པར་	-10.2903
རྒྱ་འབྲེལ་མོལ་	-10.2907
བོ	-10.2908
དགོས་པའི་རེ་འདུན	-10.2911
ཡངས་པ་	-10.2921
དམར་པོ་	-10.2927
འུ་	-10.2929
ལོ་མ་	-10.2931
བསྒྲགས་གཏམ་	-10.2931
དུས་ལ་བབ་	-10.2931
སྐྲག་	-10.2931
ཆུ་ཀླུང་	-10.2932
སྐྱེ་བ་དང་་	-10.2932
ཆེན་མོའི་	-10.2933
འགྲེམས་སྟོན་ཁང་	-10.2934
མུ་མཐུད་གནས་	-10.2935
སྲིད་བྱུས་ལ་	-10.2938
ནང་ན་	-10.2941
་བ་	-10.2944
བཅོམ་ལྡན་འདས་ག	-10.2945
རྣམས་ཀྱིས་ཀྱང་	-10.2946
་ཆོས་བཞི་དང་ལྡན་	-10.2946
▁དེ་ལས་	-10.2947
མང་ཚོགས་ནས་	-10.295
ཆིག་སྒྲིལ་	-10.2951
བྱས་ཏེ	-10.2951
རེ་འདུན་	-10.2951
ཁྲི་ཕྲག་	-10.2952
ཉེ་བའི་	-10.2954
བདག་ཉིད་ཀྱིས་	-10.2954
འཇིག་པ་	-10.2958
▁ཡོན་ཏན་	-10.2959
སེམས་ཅན་རྣམས་ཀྱི	-10.2964
ཞེས་བྱ་སྟེ་	-10.2968
བོད་མི་རྣམས་ནས་	-10.297
▁དེ་ལྟ་བུའི་	-10.2971
འཛམ་བུ་གླིང་	-10.2973
མགོ་བོ་	-10.2974
བྱས་པ	-10.2975
ཐེར་འབུམ་བདུན་	-10.2977
དུལ་བ་	-10.2977
གྱིས་སྨྲས་པ་	-10.2978
ཤེས་པའི་ཁམས་དང་་	-10.2978
དཔལ་ཞེས་བྱ་བ་	-10.2979
འོད་ཀྱིས་	-10.2981
སྤྱི་འཐུས་རྣམ་པ	-10.2981
ཕྱེ་	-10.2982
རབ་ཏུ་དབྱུང་བ	-10.2982
▁ཁྱེད་	-10.2983
ཐོས་སོ་་	-10.2985
ཆོ	-10.2986
གླུ་	-10.2988
▁གཟའ་ཟླ་བ	-10.299
▁དེས་ནི་	-10.2991
ཀྱ	-10.2994
ལྷའི་བུས་སྨྲས་པ་	-10.2994
འགྱུར་ལྡོག་	-10.2997
ཚོགས་ཆུང་ནས་	-10.2997
ནང་པ་སངས་རྒྱས་པ	-10.3
རྒྱུན་ལས་རྣམ་པ	-10.3
སྨོན་ལམ་བཏབ་སྟེ་	-10.3
གཤེགས་ནས་	-10.3002
ཡིད་གཉིས་	-10.3002
སོ་ནམ་	-10.3003
པོ་དེ་དག་	-10.3004
ལ་མཚན་དང་་བ་དན་	-10.3008
སེམས་ཅན་དམྱལ་བར་	-10.3008
ལག་འཁྱེར་	-10.3009
བགྱིའོ་་	-10.3009
ཆེད་ཕེབས་ཀྱིས་	-10.301
▁ཁོང་གི་	-10.3013
ལ་སྤྱོད་པ་ན་	-10.3013
བྱ་རྒྱུ་དང་	-10.3014
ར་གྱུར་ནས་	-10.3015
རོགས	-10.302
བརྩོན་པ་	-10.3022
ཚོགས་གཙོ་མཁན་པོ་	-10.3022
གནམ་ཐང་དུ་	-10.3023
སྐབས་འདིར་	-10.3024
པའི་ནང་	-10.3027
སྒྲིབ་པ་	-10.3029
བར་འགྱུར་	-10.3031
སྣེ་ལེན་	-10.3032
ལན་གསུམ་བསྐོར་བ་	-10.3032
་ར	-10.3032
ཡིན་མིན་	-10.3033
མ་འོངས་པའི་དུས་ན	-10.3034
ཡོངས་སུ་རྫོགས་	-10.3036
དུང་	-10.3037
བྱེད་དགོས་པ་དང་	-10.3038
ཀྱིས་དེ་སྐད་ཅེས་	-10.304
▁ཁོར་ཡུག་	-10.3041
རྗེས་སུ་དྲན་	-10.3043
མཐར་ཕྱིན་	-10.3043
འོག་མའི་འཐུས་མི་	-10.3047
ལོ་རྒྱུས་ཐོག་ནས་	-10.3048
གྲགས་ཅན་	-10.3056
ཉེན་ཁ་	-10.3058
གསར་དུ་	-10.306
ཚོ	-10.306
འདུག་པ་དང་	-10.3064
ལྷགས་ནས་	-10.3064
ཆུད་	-10.3066
བོད་གཞུང་	-10.307
▁མིག་	-10.3074
རྒྱལ་པོ་ཞེས་བྱ་བ	-10.3077
སྭ་ཧ་	-10.3079
མི་ནུས་སོ་་	-10.3083
ཕྱིར་ལོག་	-10.3084
སྨོན་ལམ་རྒྱག་	-10.3087
དེ་དང་	-10.309
པེ་ཅིང་	-10.3094
བྱ་བ་དང་་	-10.3097
མ་ཐོབ་	-10.31
བགྱི་བ་	-10.31
ལྷག་མཐོང་	-10.3102
བརྫུན་	-10.3105
ུག་	-10.3106
གནང་དང་གནང་མུས་	-10.3107
སྐྱོ་བ་	-10.3107
གཞིས་བཞུགས་	-10.3109
ཁང་གིས་	-10.311
གྲུབ་རྗེས་	-10.311
བྱུང་འདུག	-10.3112
▁དེ་ལྟ་བས་ན་	-10.3115
སྤོང་	-10.312
དང་མཉམ་དུ་	-10.3122
བླང་	-10.3122
བལྟ་ན་སྡུག་ལ་	-10.3124
རབ་གནས་	-10.3125
ཁྲིམས་ཀྱི་	-10.3125
འདྲ་་	-10.3125
ཕྱོགས་དང་	-10.3129
ནྡ	-10.3129
རྒྱ་མཚོ་ཆེན་པོ	-10.3131
ཕྱི་ནས་	-10.3133
ལབ་	-10.3134
དྷ་	-10.3134
་སྐོར་སོགས་གསུངས	-10.3135
གྲྭ་པ་	-10.3135
སྐར་	-10.3136
བདེན་པ་མཐོང་ནས་	-10.314
ལོག་པར་ལྟ་བ་	-10.3141
ཨརྱ་	-10.3141
ཅི་འདྲ་	-10.3142
པས་་	-10.3143
གནས་སྐབས་	-10.3144
འདྲི་	-10.3145
ལག་ལེན་	-10.3145
ནང་པའི་ཆོས་	-10.3145
རེ་སྐུལ་	-10.3146
གླང་	-10.3146
འབྲི་	-10.3146
ཕྱོགས་ཀྱི་ཆོས་	-10.3147
བསྔགས་བརྗོད་དང་	-10.3148
ཨ་རིར་	-10.3148
མཚན་མ་མེད་པ་	-10.3149
ཡན་	-10.3149
མངོན་པར་འདུས་	-10.3154
རྔ	-10.3155
གསལ་བསྒྲགས་སྤེལ་	-10.3157
▁སྦྱིན་པའི་	-10.3158
▁སློབ་ཕྲུག་	-10.316
འོང་	-10.316
སེམས་ནི་	-10.3162
▁རང་	-10.3162
རྣམས་ཀྱི་དོན་	-10.3165
▁ཡི་གེ་	-10.3166
བྲིས་	-10.3166
དེ་རྣམས་	-10.3166
མཆོག་ཕྱི་ལོ་	-10.3167
འག	-10.3167
ཤེས་པ་ཡང་དག་པར་འ	-10.3168
ས་གནས་འཐུས་ཚོགས་	-10.317
ངལ་རྩོལ་	-10.3171
པ་དེས་	-10.3172
ྭ་བརྒྱད་	-10.3172
ཁྱོན་དུ་	-10.3172
གྲོས་	-10.3173
▁དོན་དམ་པར་ན་	-10.3174
རླུང་གི་	-10.3175
ཐབས་བྱེད་བཞིན་	-10.3182
ཚབ་	-10.3184
ཕུལ་ལོ་་	-10.3189
དགེ་བ	-10.319
གཅིག་ལ	-10.319
་ཡང་དག་པ	-10.319
དེ་ལ་ནི་	-10.3193
གཏོང་དགོས	-10.3198
ནི་རབ་ཏུ་	-10.3198
ནམ་མཁའ	-10.3199
བདག་གིས་ཐོས་པ	-10.3203
ལས་བྱེད	-10.3206
གནང་རོགས་ཞེས་	-10.3207
་སྐོར་སོགས་ཀྱི་	-10.321
བསྟོད་པ་	-10.3211
སྤོས་ཀྱི་	-10.3211
རྒྱུ་ནི་	-10.3215
སྐམ་	-10.322
ཅེས་བྱ་བར་	-10.3222
འབྲུ་	-10.3222
ལྟ	-10.3227
▁རབ་འབྱོར་འདི་ལ་	-10.3227
ཞི	-10.3229
སྡིག་པའི་ལས་	-10.323
དབུས་གཞུང་གི་	-10.3236
བསྲེགས་	-10.3237
ན་ལེན	-10.3237
སྤྲོ་བ་	-10.324
▁སྟོང་གསུམ་གྱི་	-10.3241
ཚོགས་དུས་	-10.3248
པ་ཡང་	-10.3249
བགྱིད་པ་	-10.3249
བརྒྱབ་ནས་	-10.325
མི་བཟད་	-10.3251
ཡོད་དམ་	-10.3251
གཟིགས་ནས་	-10.3259
གི་ཡོད	-10.3261
འདིའི་ཐོག་	-10.3262
རྩོམ་ཡིག་	-10.3265
ལ་བརྟེན་པའི་	-10.3266
ཐུག་འཕྲད་ཀྱིས་	-10.3268
མངོན་སུམ་	-10.3269
སེམས་ཅན་དག་	-10.3271
ཏུ་ལུང་བསྟན་ཏོ་	-10.3271
ནས་ནི་་	-10.3272
བོད་དོན་སྐོར་	-10.3279
ཞིག་ཡིན་པ་	-10.3281
ཆབ་	-10.3282
བསམ་ཡས་	-10.3285
བཞིན་ཡོད་ཀྱང་	-10.3286
ཤས་	-10.3286
འཛམ་གླིང་ནང་གི་	-10.3288
གླེང་	-10.3292
ཕྱོགས་གཅིག་ནས་	-10.3292
མང་པོ་ཞིག་ལ་	-10.3295
རིའི་རྒྱལ་པོ་	-10.3295
འཆི་ཀར་	-10.3296
མཉེས་པར་མ་བྱས་ལ་	-10.3296
ཕྱི་དངོས་པོའི་	-10.3297
རྫུ་འཕྲུལ་གྱིས་	-10.3297
སྒྲོལ་	-10.3298
བཞག་གོ་་	-10.3301
སློབ་གྲྭའི་ནང་	-10.3302
སྨོས་	-10.3303
ཕེབས་བསུའི་	-10.3303
དེའི་དུས་	-10.3306
བཞིན་ཡོད་པ་ལྟར	-10.3307
ཀྱེ་མ་	-10.3307
ཆགས་ཀྱི་འདུག	-10.331
▁མགོན་པོ་	-10.3312
ར་མི་འགྱུར་ཏེ་	-10.3314
མཐོང་ངམ་	-10.3317
ངོ་མ་	-10.3318
འཐོབ་་	-10.3322
པར་བྱ་་	-10.3323
རབ་ཏུ་བྱུང་ངོ་་་	-10.3324
མཇལ་འཕྲད་ཀྱིས་	-10.3325
གཙུག་ལག་ཁང་གི་	-10.3327
མཆོག་དགུང་གྲངས་	-10.3327
གུ	-10.3331
གྱུར་པའི་	-10.3333
རྣམ་པར་དག་པས་	-10.3335
ན་སེམས་ཅན་	-10.3339
མཉན་དུ་ཡོད་པ་ན་	-10.3339
ས་ཉོན་མོངས་པ	-10.3339
▁སྐབས་	-10.334
འདུ་ཤེས་མེད་	-10.3342
གཙང་མ་	-10.3344
སྐུ་ཚབ་རྣམ་པ	-10.3345
དགོན་སྡེ་ཁག་	-10.3348
སྡིག་	-10.3349
གཏོང་མཁན་	-10.335
བཙན་དབང་འོག་	-10.3351
ར་མི་བྱའོ་་	-10.3353
སྤོབས་	-10.336
ཤ་སྟག་རེད	-10.3362
གསོལ་བ་	-10.3366
ཟོས་	-10.3367
མཚོན་པའི་	-10.3368
འགག་པ	-10.3369
རྟག་པ་	-10.3372
སྤྱིའི་	-10.3376
ཉན་ཐོས་དང་་	-10.3377
དོད་	-10.3378
སྦེལ་ཀོབ་	-10.338
རྣམས་ལ་ཡང་	-10.3382
སྟོབས་དང་ལྡན་པ་	-10.3383
རྡོག་རོལ་བཏང་	-10.3385
▁རྣམ་པར་	-10.3388
ཤིང་གི་	-10.3388
མགྲོན་འབོད་	-10.3391
ཞིང་རྣམས་	-10.3391
རྣམ་པར་མི་རྟོག་	-10.3394
ཕྱ	-10.3394
པའི་ཡིད་སྐྱོའི་	-10.3396
ལ་ཐུགས་རྗེ་ཆེ་ཞུ	-10.3396
འགྲན་བསྡུར་	-10.3398
ཞུ་རྒྱུར	-10.3398
ཞུས་འདུག	-10.3398
མྱུ་གུ་	-10.3404
སོས་	-10.3405
ཡི་གེ་དྲུག་པ	-10.3409
ནོན་	-10.3413
སོ་སོར་རྟོག་པ	-10.3413
མི་བྱེད་	-10.3414
ཕོ་མོ་	-10.342
མཛད་པ་་	-10.3421
བསྩལ་	-10.3425
བྱ་བར་	-10.343
ང་དེའི་	-10.3432
ཐ་མ་	-10.3432
དེའི་འོག་ཏུ་	-10.3439
བདུན་གྱི་	-10.3439
▁བྱིས་པ་	-10.344
བྱིན་ནས་	-10.3442
སྡུག་པ་	-10.3443
བཅུ་གསུམ་	-10.3443
གཞུང་ནས་	-10.3446
སྐྱེ	-10.3447
སྔོན་པོ་	-10.3448
སོར་	-10.3449
འདེམས་སྒྲུག་	-10.3451
ཆབ་སྲིད་བཙོན་ཟུར	-10.3451
སྒྲ་དང་་དྲི་དང་	-10.3452
གཅིག་གི་སྟོབས་	-10.3456
འོངས་ནས་	-10.3456
ཇི་ལྟར་སྔོན་ནས་	-10.3457
ཚིག་བླ་དགས་སམ་	-10.3458
འཕྱ	-10.3459
▁མེ་ཏོག་	-10.3459
ན་གནས་པའི་	-10.3462
ཆེས་ཐོག་མ་	-10.3462
སྤོ་	-10.3463
འཕགས་བོད་གཉིས་	-10.3464
ཉེས་པར་སྤྱོད་པ	-10.3468
ཐང་སྲུང་སྐྱོབ་	-10.347
དམ་ཚིག་	-10.3471
▁དེ་ལ་བརྟེན་ནས་	-10.3475
ཞུས་ནས་	-10.3475
ཝི་	-10.348
བདག་ཅག་ལ་	-10.3481
བཅུ་དྲུག་པའི་	-10.3481
མཐོང་ལགས་སོ་་	-10.3487
དགེ་འདུན་གྱིས་	-10.3496
མི་དམངས་	-10.3499
ཕན་ཐོགས་ཆེན་པོ་	-10.3499
འགྲོའོ་་	-10.35
ལས་རིགས་	-10.3502
འི་སྒོ་ནས་	-10.3503
ནས་བཟུང་སྟེ་	-10.3503
▁དེ་དག་ཐམས་ཅད་	-10.3509
ཞི་གནས་དང་	-10.351
རིས་ཀྱི་ལྷའི་བུ་	-10.3512
བགོས་	-10.3512
གནང་དགོས་པ་	-10.3518
ཐུགས་འགན་བཞེས་	-10.3518
དོན་དམ་པའི་	-10.3523
ི་ཡ	-10.3524
ངར་	-10.3525
བརྩོན་འགྲུས་བརྩམ	-10.3526
འཚོལ་	-10.3526
དགའ་སྤོབས་	-10.3527
་རྟག་ཏུ་	-10.3529
ཚོགས	-10.3531
གསུམ་དང་	-10.3531
་དང་ལྡན་པ་	-10.3535
་ལྟ་སྟེ་དཔེར་ན་	-10.3536
འི་དབྱངས་ཀྱིས་	-10.3536
གསར་གཏོད་	-10.3539
ལས་ཕྱིར་མི་ལྡོག་	-10.354
སྐྱེལ་	-10.354
ལ་གནས་ཏེ་	-10.354
སྒྱུ་མ་	-10.3541
ཀུན་ཏུ་རྒྱས་པ་	-10.3541
ཧི	-10.3541
བདག་ཅག་ནི་	-10.3541
སྲིད་གཞུང་གི་	-10.3543
ཁྱད་ཆོས་	-10.3545
ཅི་ནས་	-10.3546
གཟུང་བ	-10.3548
ནས་མཆེད་པའི་	-10.3549
▁ང་ཚོར་	-10.3551
ཡངས་	-10.3555
གཟུགས་ཀྱིས་	-10.3556
ཁམས་ཀྱི་	-10.3561
ཞན་	-10.3561
བའི་ཐོག་ནས་	-10.3566
དབུ་འབྱེད་ཀྱི་	-10.3567
ཚོགས་འདུ་ཚོགས་	-10.358
བསྟུན	-10.3581
སྐུ་ཚེ་	-10.3583
ལན་འདེབས་གནང་	-10.3585
▁སྦྱིན་པ་	-10.3586
གླུ་དབྱངས་	-10.3587
ལྷགས་	-10.3588
པང་ནས་སྐྱེས་	-10.3589
ཐལ་མོ་སྦྱར་ནས་	-10.3591
དངོས་པོ་མེད་པ	-10.3591
བྱེ་	-10.3591
་དང་་ཡང་དག་པར་	-10.3592
ཤོས་	-10.3605
བར་གྱི་བསྐལ་པ་	-10.3611
ལྷ་ཁང་	-10.3612
འཇུག་གོ་་	-10.3615
▁མི་མང་	-10.3615
ལྷ་མ་ཡིན་གྱི་	-10.3616
ས་བསྐྱེད་བསྲིངས་	-10.3617
བདུད་ཀྱི་	-10.3618
དགེ་རྒན་དང་	-10.3618
སྡོང་པོ་	-10.3622
པ་དེར་	-10.3623
གོན་ཏ་ལའི་བླ་མ་	-10.3624
ཐུབ་ཐབས་	-10.3624
ཐམས་ཅད་ནི་	-10.3626
དགོས་ཀྱི་འདུག	-10.3628
ཚན་རིག་དང་	-10.363
གོང་ས་མཆོག་	-10.3631
འོ་ན་	-10.3632
རང་གི་མཚན་ཉིད་	-10.3634
གཞུང་ལ་	-10.3634
པོ་དང་་	-10.3634
པ་ཞེས་བྱའོ་་	-10.3636
ཁྱད་པར་ཅན་	-10.3637
འདི་ཉིད་དུ་	-10.3638
ལ་འཇུག་པ་	-10.3642
གདུག་རྩུབ་	-10.3643
ཤི་ནས་	-10.3643
འགྱུར་བར་	-10.3643
དུ་བྱུང་སྟེ	-10.3645
མཇལ་འཕྲད་གནང་	-10.3649
གོང་སྤེལ་	-10.3658
པ་ནས་	-10.3662
སྐུ་ཚབ་དང་	-10.3668
མནར་གཅོད་	-10.367
གང་འདྲ་ཞིག་	-10.3671
▁བསམ་གཏན་	-10.3672
པར་ཡང་	-10.3673
རྗེ་བཙུན་	-10.3674
ནང་འཁོད་དོན	-10.3675
ཐ་དད་	-10.3675
བསྡོམས་	-10.3676
གྲངས་མེད་པ་	-10.3678
དང་ལྡན་པར་	-10.3679
གཡུང་དྲུང་	-10.368
ཧ་ཅང་ཡག་པོ་རེད	-10.3681
རེར་	-10.3682
་ཞེས་	-10.3683
པར་བྱེད་དེ་	-10.3685
གསུངས་ཡོད	-10.3685
རྣམ་འདྲེན་	-10.3685
སོམ་ཉི་	-10.3689
གཞི	-10.3689
དང་ལྡན་པ་ཡིན་	-10.3689
དེ་མཚུངས་	-10.3691
དེ་ཙམ་དུ་	-10.3694
མེད་ལ་	-10.3694
ནས་ཡིན་པའི་	-10.3696
མི་རྟག་པ་	-10.3699
ཚོགས་ཁང་	-10.3699
▁ཐ་ན་	-10.3701
དུ་གྱུར་	-10.3701
གདོང་ལེན་བྱེད་	-10.3702
མཚོན་ཆ་	-10.3703
འི་གཞིས་ཆགས་ཁག་	-10.3703
དང་་དྲི་ཟ་དང་་	-10.3703
སྲིད	-10.3707
བ་དེ་	-10.3708
ནས་ད་བར་	-10.371
དང་ལྡན་ན་	-10.3713
མ་དངུལ་	-10.3717
སྐྱེ་དགུ་	-10.3719
ཕེབས་ཏེ་	-10.3721
ཡིན་སྐོར་	-10.3723
་འདུག་པ་བཅས	-10.3726
བར་སྣང་	-10.3727
སྦྱིན་སྲེག་	-10.3727
འི་དབྱིངས་སུ་	-10.3733
སྒྱུ་མའི་	-10.374
ཁྲིམས་ཡིག་	-10.374
གུང་	-10.3742
ཐུགས་སྣང་	-10.3742
དང་་ནམ་མཁའ་ལྡིང་	-10.3746
འདབ་	-10.3748
ཁ་ཏོན་	-10.3748
སྒོའོ་་	-10.375
མཆོག་ནས་	-10.3751
དཔལ་ལྡན་བོད་མི་	-10.3752
ཕས་	-10.3756
རྣམ་པ་ཚོ་	-10.3757
བཙས་	-10.3758
ལམ་དུ་	-10.376
བླ་མའི་	-10.3761
ཆོག་མཆན་	-10.3763
བལྟས་ནས་	-10.3764
ཀྱི་རྣམ་གྲངས་འདི	-10.3769
སྲིད་བཀའ་བློན་	-10.377
ནོ་སྦེལ་	-10.3771
བཀོལ་སྤྱོད་	-10.3772
མཉེས་པར་བགྱིས་ཏེ	-10.3772
རྣམ་ཐར་	-10.3775
རབ་ཏུ་ཕྱུང་སྟེ་	-10.3783
པར་བགྱིའོ་་	-10.3786
བླ་ཆེན་	-10.3795
ཨིན་ཡིག་	-10.3799
བྱེད་ཀྱི་འདུག	-10.3802
ཞེས་པ་དེ་	-10.3803
སྒྲིལ་	-10.3803
བསྐྱར་དུ་	-10.3804
▁ཐམས་ཅད་	-10.3805
ཅི་ཡོད་	-10.3806
བཟང་པོའི་	-10.3808
རང་བཙན་	-10.3813
གནོད་པ་དང་ལྡན་	-10.3814
ཚོན་	-10.3817
ཁམས་ཤེས་པ་	-10.3817
གསུང་བཤད་དང་	-10.3818
གནད་འགག་ཆེན་པོ་	-10.3819
▁གཟའ་ལྷག་པ	-10.3823
བ་ལང་	-10.3824
རྩེ་མོ་	-10.3824
སེམས་ཅན་གྱི་	-10.3827
རྩོམ་སྒྲིག་པ་	-10.3831
ནགས་ཁྲོད་	-10.3831
གཟུང་བའམ་	-10.3832
▁ད	-10.3834
གྱུར་ནས་་	-10.3841
ཕེབས་པ་	-10.3841
འཇམ་དབྱངས་	-10.3842
ལྷན་	-10.3843
ཐུབ་རྒྱུ་རེད	-10.3843
འོས་བསྡུ་ཆེན་མོ	-10.3843
གནང་བ་དང་སྦྲགས	-10.3844
ལྷར་བཅས་	-10.3846
ལྟུང་བ་	-10.3847
མི་གནས་	-10.3847
དག་པ་	-10.3855
ཁ་བ་	-10.3859
▁དེའི་ནང་ནས་	-10.386
བཏུལ་	-10.3866
རྩ་བ་ཉིད་ནས་	-10.387
ཁྱིམ་བདག་གཞན་ཡང་	-10.3873
བདེ་ལེགས་	-10.3876
ཡི་ནི་	-10.3877
སྒྲ་སྐད་	-10.3882
▁རྣམ་པར་ཤེས་པ་	-10.3882
ཀི	-10.3882
དགའ་ལྡན་ཁྲི་	-10.3884
འགྱུར་ཏེ་་	-10.3884
འཁྱོག་བཤད་	-10.3884
ར་མི་བྱེད་	-10.3889
མེད་པར་གྱུར་	-10.3893
གང་སར་	-10.3894
ཁག་ཏུ་	-10.3896
ལོན་པ་	-10.3896
▁འདི་སྐད་	-10.3896
ཕི	-10.3897
ས་ཡང་དག་པ	-10.3898
སེམས་ཀྱང་	-10.3909
ཁྱེད་ཀྱི་	-10.3911
▁བྱང་ཆུབ་ཀྱི་	-10.3914
ཅེག་	-10.3917
ཡོ་བྱད་ཐམས་ཅད་	-10.3918
ཡོད་ཚེ་	-10.392
འཕགས་བོད་	-10.3923
རྒྱུགས་	-10.3925
▁ཕྱོགས་གཅིག་ཏུ་	-10.3927
སྐུ	-10.3928
▁སྐུ་ཞབས་	-10.3932
འབྱོར་ཞབས་ཞུ་ཁང་	-10.3933
འབྲེལ་མོལ་	-10.3934
ཀུན་ཤེས་སོ་ཞེས་	-10.3935
ྐྱེ་དགུའི་ཚེ་ལོ་	-10.3935
▁ཡང་སྒོས་	-10.3935
ཁོ་བོའི་	-10.3935
ཤིན་ཏུ་མཉམ་པ་དང་	-10.3936
ཞི་བདེ་བག་ཕེབས་	-10.3938
འོ་མ་	-10.3942
ཀྱི་གྲོང་ཁྱེར་	-10.3942
ལྟར་ན	-10.3943
རིག་པ་ཐོབ་པ་	-10.3946
ཐག་རིང་པོ་ཞིག་	-10.3948
དམ་པ་ཁོང་གི་	-10.3948
བསྡམས་	-10.395
བར་དུ་སྔ་མ་བཞིན་	-10.3952
ལུ	-10.3953
ཀྱི་ཡོད་པ་རེད	-10.3954
བྱམས་པ་ཆེན་པོ་	-10.3955
ཆུང་ཆུང་	-10.3957
འཇིགས་ཤིང་སྐྲག་	-10.3958
སྦྱོར་སྤྲོད་	-10.396
འཛིན་ཅིང་	-10.396
རྣམ་གྲངས་དེས་ན་	-10.3961
ཁོ་ནས་	-10.3962
རྣམ་གཉིས་ཀྱིས་	-10.3963
▁སེམས་ཅན་གང་དག་	-10.3964
གད	-10.3964
སྔོན་འགྲོའི་	-10.3965
གལ་ཆེན་པོ་ཡིན	-10.3969
བརྟན་པོ་	-10.3971
▁ལྷའི་དབང་པོ་	-10.3973
སྣང་གསལ་	-10.3973
མཐོང་བར་	-10.3975
གནས་སྟངས་ཐོག་	-10.3975
ངོམས་	-10.3976
ཁྱེར་ཏེ་	-10.3978
མངའ་སྡེའི་ནང་	-10.3978
ཚངས་པ་མཚུངས་	-10.3979
་དང་་གསལ་བ་དང་་	-10.398
བོད་མི་རིགས་	-10.3982
འདས་པ་	-10.3987
ཐུབ་པ	-10.3994
་ཡོད་པ་བཅས	-10.3998
ཚིག་གིས་	-10.4
གི་དངོས་པོ	-10.4003
མཐོང་བ་དང་་	-10.4009
ཕ་རན་སིའི་	-10.401
བོད་མི་ཚོ་	-10.4011
རིམས་ནད་	-10.4016
ཕ་རན་སི་	-10.4019
བཅངས་	-10.4019
མི་བྱེད་པ་	-10.402
སྔ	-10.4021
ཀྱི་ཕུང་པོ་	-10.4025
བྱོན་	-10.4028
▁འདི་གའི་	-10.4028
མ་བྱུང་བ་	-10.403
▁དབང་པོ་	-10.403
སྔོན་འགོག་གི་	-10.4031
ཚོང་ཁང་	-10.4035
ཤོག	-10.4035
པའི་རྐྱེན་གྱིས་	-10.4037
ཤེས་བྱ་	-10.4039
བཏང་བའི་	-10.4039
འབྱིན་	-10.4042
ཁྲོམ་སྐོར་	-10.4043
ཤིག	-10.4043
ཁྱེར་	-10.4044
ེད་	-10.4045
འདོད་པའི་ཡོན་ཏན་	-10.4048
རྐང་ལག་	-10.4048
བསྟི་གནས་ཁང་གི་	-10.4048
ཀྲ	-10.4048
གཙོ་བོར་གྱུར་པ	-10.4049
བཙོན་	-10.4052
ནས་ཕྱི་ལོ་	-10.4053
ལ་མཚོན་ན	-10.4053
སྟོང་གི་	-10.4054
རང་ལ་	-10.4054
ཞེས་ཞུ་རྒྱུ་ཡིན	-10.4058
སྨ	-10.4059
སྨྲེ་སྔགས་འདོན་པ	-10.4059
བྱེད་པས་	-10.4063
▁རྒྱལ་ཁབ་	-10.4064
གསུམ་གྱིས་	-10.4064
བདུན་ཕྲག་	-10.4065
དོ	-10.4066
▁མཉམ་འབྲེལ་	-10.4068
གངས་	-10.4073
རྒྱ་གར་གཞུང་གི་	-10.4077
ཕམ་	-10.4079
བྱེད་ཀྱི་མེད	-10.408
▁དབུ་མའི་ལམ་གྱི་	-10.4081
གང་བྱུང་	-10.4081
དབེན་པར་	-10.4082
རྣམ་པ་མང་པོ་	-10.4084
ལ་སེམས་	-10.4085
ཁྲོ་བ	-10.4086
གཞོན་སྐྱེས་རྣམས་	-10.4088
ཤར་ཏུར་ཀི་སི་ཐན་	-10.4089
འདུགའོན་ཀྱང་	-10.409
ཁོང་ཚོར་	-10.4092
སུན་	-10.4092
རྒྱ་ཆེ་བ་	-10.4093
▁རྒྱ་རིགས་	-10.4094
ས་ཕྱོགས་	-10.4097
ནམས་ཀྱང་	-10.4102
ཐབས་མཉམ་པ་བརྙེས་	-10.4102
དངངས་སྐྲག་	-10.4102
ལ་རྟེན་གསུམ་	-10.4105
འདྲ་བར་	-10.4109
གནོན་ཤུགས་	-10.411
སྐྱེད་པ་	-10.4112
ལ་ཚིགས་སུ་བཅད་པ	-10.4113
ཡིན་པ	-10.4114
ཕྱིར་མི་ལྡོག་པ་	-10.4117
སྲིད་པའི་	-10.4117
སྤང་	-10.4121
སྐོར་གསུང་	-10.4122
ཞབས་སོར་བདེ་བར་	-10.4123
ཐུན་མོང་གི་	-10.4125
གལ་ཆེ་ཤོས་	-10.4125
གནག་	-10.4129
རྒྱལ་ཁབ་གཞན་	-10.4129
བཀའ་དྲིན་སྩལ་	-10.413
་ཞིག་རེད	-10.4131
ས་དེ་	-10.4136
དེ་ལ་བརྟེན་ནས་	-10.4136
མྱོང་བ་	-10.4137
ཐུགས་རྗེ་ཆེ་ཞེས་	-10.4138
འཁྲུགས་	-10.4138
ཆོས་རིག་	-10.4138
བྲམ་ཟེའི་	-10.4141
གྱི	-10.4146
སྟེ་བཞི་གང་ཞེ་ན་	-10.4146
དེ་དང་དེ་དག་	-10.4147
ཕྱེད་ཡོལ་ཆུ་ཚོད་	-10.4148
ཆུ་སྲིན་	-10.4151
སྐྱེས་ཤིང་	-10.4151
མ་ཐུབ་	-10.4152
བྱང་ཆུབ་ལས་	-10.4152
ཚན་པའི་	-10.4155
ཝེ་	-10.4156
ཁྱད་པར་དུ་འཕགས་པ	-10.4156
རིག་བྱེད་	-10.4164
ར་བྱེད་དོ་	-10.4168
བཀོད་པ་པོ་འདོད་	-10.4168
གཞུང་ལམ་	-10.4171
སྐྱེ་བར་	-10.4177
རྒྱུན་འཛིན་	-10.4177
མེ་ཏོག་གི་	-10.4178
མཐོ་རིམ་	-10.4184
ལྷན་ཚོགས་སུ་	-10.4185
འི་ལས་	-10.4185
ཆོས་རྣམས་ཐམས་ཅད་	-10.4186
བཅུའི་སྟོབས་	-10.4187
ཀུ	-10.4187
ཡུ་	-10.4188
▁ཁྱེད་རང་ཚོ་	-10.4188
ལ་སྤྱོད་པ་ནི་	-10.4191
བ་ལྟར་	-10.4192
པའི་སེམས་ཅན་	-10.4192
▁རྩ་བའི་	-10.4194
▁ཆོས་ཀྱི་དབྱིངས་	-10.4195
ཞིང་བལྟ་ན་སྡུག་	-10.4195
འབྲེལ་མིན་པའི་	-10.4196
རི་བོ་	-10.4196
བྱས་ཏེ་་	-10.4197
ཀྱིས་གསུངས་པ་ལ་	-10.4198
འཆི་བའི་དུས་	-10.4198
གདན་ཞུ་	-10.4198
རྣམ་པ་ཚོས་	-10.4202
ངེས་སྟོན་པ་	-10.4203
བཅས་ཏེ་	-10.4203
དེ་ནི་ཚུལ་ལ	-10.4204
པ་དེ་ནི་	-10.4205
ཐུབ་ན་	-10.4213
བསྒྲིལ་	-10.4218
ས་འདི་སྐད་ཅེས་	-10.4221
ཉིན་མོར་	-10.4223
བཞུགས་པའི་	-10.4224
བསྒྲུབས་ཏེ་གནས་པ	-10.4226
དོགས་	-10.423
གཞུང་ཚབ་	-10.4235
འི་སྒྲིག་འཛུགས་	-10.4235
བྱེད་པ་དང་	-10.4235
ཡོད་པ་ཞིག་	-10.4239
དེའི་ནང་དུ་	-10.4242
ཡོད་མ་ཡིན་་	-10.4244
བྱེད་ཕྱོགས་ཀྱི་	-10.4249
མང་པོ་དག་	-10.4262
ལྟར་མི་བལྟ་སྟེ་	-10.4262
ཉི་ཧོང་གི་	-10.4263
▁དེ་གཉིས་ཀྱིས་	-10.4264
བཀའ་སྩལ་	-10.4264
མི་འབྱུང་	-10.4264
འདས་པ་དང་་	-10.4266
འོངས་ཏེ་	-10.4269
ཟློག་	-10.4271
་དུས་གཅིག་ན་	-10.4271
པ་དང་འདི་བཞིའོ་	-10.4271
གནས་པས་	-10.4273
གཙང་མ་བཟང་པོ་	-10.4273
▁དེ་ལས་བཞེངས་ནས་	-10.4274
བ་སྤུའི་ཁུང་བུ་	-10.4276
རྗེས་སུ་ཡི་རང་	-10.4279
ལ་རྩིས་མེད་	-10.428
ལག་བསྟར་གནང་	-10.4281
གསུང་འཕྲིན་ཞིག་	-10.4286
རྒྱལ་སྲས་	-10.4287
ཕྲན་	-10.4289
དྲ་རྒྱ་བརྒྱུད་	-10.4291
མཆོད་འབུལ་	-10.4293
གོམས་གཤིས་	-10.4303
ཅེ	-10.4303
མི་སྣང་བར་གྱུར་	-10.4303
་ཞེས་བྱ་བ་	-10.4311
མི་ཚེ་	-10.4312
ཆེད་ཕེབས་གནང་	-10.4312
ྭ	-10.4316
བེ	-10.4317
པས་ན་	-10.432
▁འདི་ལོར་	-10.4321
ཞུས་པ་དང་	-10.4321
བྱེད་ཐུབ	-10.4326
ཚེ་རིང་ལགས་	-10.4328
ཅི་ནས་ཀྱང་	-10.4329
▁མིའི་	-10.4332
ཕུ	-10.4332
ཟག་པ་ཟད་པ་	-10.4333
སྟོན་པ་དང་་	-10.4333
▁དེ་བས་ན་	-10.4335
ཐུགས་གསོ་	-10.4335
སངས་རྒྱས་ཐམས་ཅད་	-10.4342
གཉིས་ནས་	-10.4344
དུ་སྦྱར་ཏེ་དེ་	-10.4344
ཝར་	-10.4346
འི་མིང་	-10.4349
▁ཁ་སང་	-10.4352
་ས	-10.4352
སེར་སྐྱ་མི་མང་	-10.4354
འབྱུང་ངོ་་་	-10.4356
སྤྱི་ཁྱབ་པ་	-10.4364
བསྐྱེད་མ་ཐག་ཏུ་	-10.4366
རིན་པོ་ཆེ	-10.4368
སྒྲུབ་པ་དང་འབད་པ	-10.4369
ཞིག་བྱུང་ངོ་་་	-10.4371
ཛ་	-10.4371
ཇེ	-10.4373
དེ་ཐོས་ནས་	-10.4374
ཚན་རིག་པས་	-10.4376
བ་སོགས་	-10.4377
ོར་	-10.438
གློད་བཀྲོལ་གཏོང་	-10.4382
འགྱེད་	-10.4383
▁སྐབས་དེ་དུས་	-10.4383
གནང་སྐབས་	-10.4384
ི་བ	-10.4386
རོལ་མོ་	-10.4386
ཁུང་	-10.4387
རྒྱལ་གཅེས་པ་	-10.4388
བསྒྲུབ་པ་	-10.4391
དེ་ཁོ་ན་	-10.4391
▁དེ་ནས་ཁྱིམ་བདག་	-10.4392
མི་ལོ་ཧྲིལ་པོ་	-10.4392
ན་དེ་	-10.4394
རྒྱ་གར་བ་	-10.4395
་སྒྲིབ་པ་ཐམས་ཅད་	-10.4398
སྦྱར་ཏེ་	-10.4398
བརྙན་	-10.44
ཕོ་བྲང་དུ་	-10.4402
དོན་ཡོད་	-10.4403
ཤེས་པ་དང་་མཐོང་བ	-10.4407
▁གནོད་སྦྱིན་	-10.4409
ལ་དམ་བསྒྲགས་	-10.441
དང་བཅས་པ་དང་་	-10.4412
ཕྱི་ལུགས་ལྟར་	-10.4413
རྐྱེན་གྱིས་ཚོར་བ	-10.4413
པར་བྱེད་དོ་	-10.4414
སེར་	-10.4419
གྲངས	-10.4421
རྩད་གཅོད་	-10.4423
ཚོས་ཀྱང་	-10.4425
དམ་པ་ཁོང་	-10.4427
ཞབས་ལ་མགོ་བོས་	-10.4429
བརྩོན་འགྲུས་རྩོམ	-10.443
འགན་འཛིན་དང་	-10.443
དཔེ་ཆ་	-10.4432
སྙན་པ་	-10.4436
རྫི	-10.4437
གཡོག་འཁོར་	-10.4439
ཁྱེད་རང་ཚོས་	-10.4439
པ་དང་་་	-10.4441
བར་གྱུར་	-10.4441
▁དེ་ནས་ཁྱེའུ་	-10.4441
གཞུང་དེ་དག་	-10.4441
འདི་ཡི་	-10.4443
▁ཀུན་རྫོབ་ཏུ་ན་	-10.4444
སྨོན་ལམ་བཏབ་	-10.4447
མོས་མཐུན་	-10.4447
སྟོབས་ཀྱི་	-10.4448
▁ནང་སྲིད་	-10.4449
བོད་དོན་ཆེད་	-10.445
མཁས་ཤིང་	-10.445
བསྒྲུབས་པ་	-10.4462
མཉན་དུ་ཡོད་པ་ན་བ	-10.4468
▁ཁྱད་པར་	-10.4473
སྟོན་ཅིང་	-10.4477
བཞེད་	-10.4478
མཛད་ཡོད	-10.448
བྲལ་བ་	-10.448
ལྡན་་	-10.4485
གཡོ་བ་	-10.4487
དུ་ཡང་	-10.4487
མཉེས་	-10.4488
ྲུང་གི་བསྟན་པ་ལ་	-10.449
ན་བཟའ་	-10.4491
མདུན་ན་འདོན་	-10.4498
སྡིག་པའི་གྲོགས་	-10.4501
▁སེམས་ཅན་རྣམས་	-10.4501
འི་གནས་སྟངས་	-10.4501
ཀྱང་བརྩོན་པ་དང་	-10.4507
སྦྱིན་པ་སྦྱིན་	-10.4511
བརྙེས་པ་	-10.4512
ཐུ	-10.4514
ཡུ་གུར་	-10.4517
ཚོགས་པ་ཁག་	-10.4517
དོར་	-10.4519
གསང་བའི་	-10.4522
པའི་ཚེ་	-10.4523
གློག་བརྙན་	-10.4523
ལ་སྤྱོད་པའི་	-10.4527
དེ་སྔ་ཕྱི་ལོ་	-10.4527
བདེ་བ	-10.4527
དེའི་ཚེ་ན་	-10.4529
གདུགས་དང་་རྒྱ	-10.453
དད་ལྡན་	-10.4534
སྟོབས་བཅུ་	-10.4538
ཨིན་ཇིའི་	-10.454
པ་ཀུན་འབྱུང་བ་	-10.454
སྤང་བ	-10.4542
གནས་སྟངས་ཤིག་	-10.4542
ཝེ	-10.4545
ལེགས་པར་བརྒྱན་	-10.4545
▁ཐུགས་རྗེ་ཆེ	-10.4546
དབུལ་པོ་	-10.4549
དགོས་སྐོར་	-10.4551
མཁྱེན་ནས་	-10.4553
མཐ	-10.4553
ཅིག་ཅེས་	-10.4555
ཀྱིས་དགོངས་པ་	-10.4557
འཆི་བའི་	-10.4567
རྣམས་ཀྱིས་ནི་	-10.457
ཐུན་མོང་	-10.4572
་དེ་དག་ཐམས་ཅད་	-10.4572
དགོངས་དོན་	-10.4576
ཡོང་ཆེད་	-10.4577
རླུང་གི་ཁམས་	-10.4577
མས་གྲངས་མེད་པ་	-10.4579
མི་སྐྱེ་བ་	-10.458
འཇིག་རྟེན་པའི་	-10.4584
རྒྱུ་རྐྱེན་	-10.4584
ལྔ་སྟོང་	-10.4585
ཐོབ་བོ་་	-10.4586
འི་ཚེ་	-10.4588
བོད་སྨན་	-10.4591
གཞིས་ཆགས་ཁག་གི་	-10.4592
འོས་འདེམས་	-10.4594
རྫིང་	-10.4594
ལས་སྐྱེས་པ་	-10.4594
ར་འཚང་རྒྱ་བར་	-10.4598
གོང་གི་	-10.4602
རང་ཉིད་ཀྱིས་	-10.4604
བྱས་པ་ཡིན་ན་	-10.4614
བཀའ་ཟུར་	-10.4615
གནས་སྟངས་ལ་	-10.4615
རིས་ཀྱི་ལྷ་རྣམས་	-10.4616
གཞན་ཕན་	-10.4617
གང་ལེགས་	-10.4618
ྲངས་ཉུང་མི་རིགས་	-10.4618
ལོངས་སུ་སྤྱོད་	-10.4619
་དང་་མཁས་པ་	-10.4619
ལྷ་དང་་ཀླུ་དང་་	-10.462
འཛིན་བྱེད་ཀྱི་བུ	-10.462
མཆིས་ཏེ་	-10.462
དང་་ཚངས་པ་དང་་འཇ	-10.4621
ཁྱབ་བསྒྲགས་	-10.4621
ན་བ	-10.4622
དངོས་ཤུགས་	-10.4622
རྒྱལ་ས་ལྷ་སར་	-10.4624
ཐར་པ་	-10.4624
འཁོད་ཡོད	-10.4625
ཉིན་རེ་བཞིན་	-10.4625
འདི་ཉིད་ལ་ས	-10.4627
བར་འགྱུར་་	-10.4627
སེང་གེའི་	-10.4627
བཤིག་	-10.4629
གསོལ་མགྲོན་ཁང་དུ	-10.4629
གུ་ཡངས་	-10.463
ནེ	-10.463
སྒྲ་དབྱངས་	-10.4634
གཙོ་བོ་ནི་	-10.464
མན	-10.4641
འི་རང་སྐྱོང་གི་	-10.4642
འི་སྤྱི་ཚོགས་	-10.4643
བརླ	-10.4644
▁ཕྱི་ལོ་ཉིན་	-10.4647
བཙལ་བ	-10.4651
རྣ	-10.4651
བཙོ	-10.4652
ལ་མ་བརྟེན་པའི་	-10.4652
ཐོགས་མེད་	-10.4652
ཟབ་ཅིང་	-10.4653
▁རྒྱལ་པོའི་	-10.4654
སོག་པོའི་	-10.4655
ཚུལ་ཁྲིམས་དང་་	-10.4656
པར་བགྱི་	-10.4657
སྐོར་བཀའ་སློབ་	-10.466
བྱམས་པའི་སེམས་	-10.4661
བྱོས	-10.4662
ག་འདྲ་	-10.4663
སྡིག་པའི་	-10.4664
བསམ་མི་ཁྱབ་་	-10.4664
སྒོ	-10.467
ལོགས་	-10.467
ཐོབ་པའི་	-10.4674
ཁ་རས་	-10.4676
འདུ་བ	-10.4678
་སྟབས	-10.468
▁བཅོམ་ལྡན་འདས་ལ་	-10.468
སྲིད་ཚབ་	-10.4681
དགོངས་འཆར་	-10.4681
འཆར་འགོད་	-10.4682
འབོད་སྐུལ་གནང་	-10.4685
ཕྱིན་པ་རེད	-10.4687
ལ་རབ་ཏུ་	-10.4689
ན་གནས་པ་	-10.4701
གྲོལ་བ་	-10.4701
གནས་སོ་	-10.4701
ནི་གང་	-10.4702
ཕྱིན་ཡོད	-10.4702
ཆེ་ཞུ་རྒྱུ་ཡིན	-10.4705
བཞིན་ཡོད་སྐོར་	-10.4706
གྲུབ་པའི་	-10.4707
གཟུགས་བཟང་ཞིང་	-10.4707
ཀྱི་ཡན་ལག་བདུན་	-10.4709
རྡུང་	-10.4709
▁དེས་བསམས་པ་	-10.4712
བསྐྱེད་དེ་	-10.4714
དཔེ་མཚོན་	-10.4715
བརྩམས་པ་	-10.4715
ལེགས་སྦྱར་གྱི་	-10.4715
ཝི	-10.4715
ནས་ལོ་	-10.4716
▁མི་གང་	-10.4716
དུས་དུས་སུ་	-10.4718
སྙན་ཐོའི་ནང་	-10.4719
▁རིན་པོ་ཆེའི་	-10.4719
བླང་བ	-10.4719
ས་ཡོངས་སུ་	-10.4721
ཅེས་བྱ་བ་དང་་	-10.4722
སྐྲུན་	-10.4723
སེམས་ཅན་འདི་དག་	-10.4723
ཀླད་པ་	-10.4724
སྐུ་ལས་བསྐྱོན་	-10.4725
སྲིན་པོ་	-10.4726
མཆོག་ཏུ་དགའ་བ་	-10.4727
ཕྱིར་མི་ལྡོག་པར་	-10.4728
འདོད་པའི་ཁམས་	-10.4729
འི་ཁམས་ཤེས་པ་	-10.4729
གནའ་བོའི་	-10.4729
ར་མ་	-10.4729
མཆོག་འདི་	-10.4732
བཤམས་	-10.4732
འི་ཆོས་རྣམས་	-10.4733
རོལ་མོའི་སྒྲ་	-10.4733
དགའ་བས་	-10.4734
དགེ་སྦྱོང་ག་ཏ་མ་	-10.4737
མ་མཆིས་པའི་	-10.4739
གཅིག་སྒྲིལ་	-10.474
དམན་	-10.4742
བཞི	-10.4745
ཚོགས་འདུ་ཐེངས་	-10.4745
རྒྱ་ནག་གཞུང་ནས་	-10.4747
སོ་སོ་ནས་	-10.4747
དོན་དག་	-10.4748
གོ་བ	-10.4751
ེད་པའི་དབུ་ཁྲིད་	-10.4752
གྲངས་འབོར་	-10.4754
ཟངས་དཀར་	-10.4754
པ་མ་ཡིན་	-10.4754
སློབ་གཉེར་གནང་	-10.4756
མུས་	-10.4758
གཉིས་དང་	-10.4759
པ་ཞིག་རེད	-10.4767
མཚུངས་མེད་	-10.4768
ངོ་་	-10.4771
བཤད་སྒྲུབ་	-10.4773
འཐོབ་པ་	-10.4776
ཅིའི་སླད་དུ་	-10.4777
ཁོ་ནའི་	-10.4777
ཐུབ་མེད	-10.479
བཟང་བ་	-10.4793
ཉོན་མོངས་པ་རྣམས་	-10.4796
ཡོ་རོབ་	-10.4798
འཕྲད་བཞིན་པའི་	-10.4798
གཞུ	-10.4798
དུས་གཞན་ཞིག་ན་	-10.4798
དྲི་བ་དྲིས་ལན་	-10.4798
རང་རེའི་	-10.4798
དུས་ནས་དུས་སུ་	-10.4798
རྒྱུ་མ་ཟད	-10.4799
བྲོ་	-10.4803
ཡང་དང་ཡང་དུ་	-10.4804
ཉེས་དམིགས་སུ་	-10.4806
གཡར་	-10.4807
པར་རིས་	-10.4808
བརྗོད་དུ་མེད་པ་	-10.4808
ཡོང་རྒྱུ་	-10.4809
ཡོད་པ་ནི་	-10.4811
དགོས་ཞེས་	-10.4811
གཞན་རྣམས་	-10.4812
བསྟན་འགྱུར་	-10.4813
འདུས་བྱས་ཀྱི་	-10.4814
ཚོགས་བཅར་བ་ཡོངས་	-10.4815
རྣམ་པ་གསུམ་	-10.4815
▁ལྔ་དང་ལྔ་བཅུའི་	-10.4816
རིགས་ལམ་	-10.4819
ལ་ཡང་དག་པར་	-10.482
ལག་ན་	-10.482
བགྱིས་པ་	-10.482
བདག་ཅག་གཉིས་	-10.4825
ངས་ནི་	-10.483
མཐོང་ཞིང་	-10.4831
དབྱིབས་	-10.4834
ཕྱི་དྲིལ་བོད་	-10.4835
གསར་འགོད་པས་	-10.4836
བསགས་པའི་	-10.4837
ཡི་རང་	-10.4837
གཞན་ཞིག་	-10.4839
བསམ་གཏན་དང་པོ་	-10.484
གཅིག	-10.484
ཤེས་པ་འགོག་པ	-10.4841
དང་བྲལ་བས་	-10.4843
ཡོངས་སུ་སྨིན་པ	-10.4845
ལྷན་ཚོགས་ཐོག་	-10.4846
གྱུར་ན་་	-10.4846
དགོས་པ་མ་ཟད	-10.4847
གཞོན་པ་	-10.4847
ཕྱི་དྲིལ་ལས་ཁུངས	-10.4847
▁སྐྱེ་བ་	-10.4847
ཟག་པ་མེད་པའི་	-10.4847
ཤར་ཕྱོགས་	-10.4851
ཇི་ལྟ་བུ་	-10.4852
དེ་དག་གིས་ཀྱང་	-10.4853
དབུ་འཛུགས་གནང་	-10.4855
ཕྱུང་སྟེ་	-10.4856
ཡང་བརྗོད་དུ་	-10.4858
དང་་ལྷ་མ་ཡིན་དང་	-10.4858
འབུམ་ཕྲག་	-10.4859
ཆུང་བ་	-10.486
བསྒོམ་པ་	-10.486
ཡང་དག་པའི་ལྟ་བ་	-10.4861
འདུགདེ་ནས་	-10.4862
་གཏན་མི་དམིགས་	-10.4864
བྲམ་ཟེ	-10.4867
རིགས་ཀྱི་	-10.4867
▁ཆོས་ཐམས་ཅད་ནི་	-10.4869
▁ང་ཚོ་ཚང་མ་	-10.487
མ་སུ་རི་བོད་ཁྱིམ	-10.4873
གནང་གྲུབ་མཚམས་	-10.4874
ངེས་ཡིན	-10.4874
་ཇི་སྙེད་པ་ཉིད་	-10.4881
སུམ་དུ་བྱས་སོ་་	-10.4883
▁ཚིག་	-10.4885
ས་པའི་	-10.4885
རྒྱལ་བུ་རྒྱལ་	-10.4886
བར་བྱེད་དོ་་	-10.4887
རྒྱལ་ས་ལྡི་ལི་	-10.4887
ཕྱི་ཟླ་ཚེས་	-10.4889
ཞུ་དགོས་	-10.4891
ལྔ་བརྒྱ་པོ་	-10.4894
དང་མཇལ་འཕྲད་གནང་	-10.4895
ལེགས་སྐྱེས་	-10.4896
འཛམ་གླིང་ཞི་བདེ་	-10.4897
ཆགས་འདུག	-10.4897
གྱི་སྔ་དྲོར་	-10.49
མཛད་དོ་་	-10.4903
ཁྱེད་ཚོ་	-10.4903
འདིས་ནི་	-10.4905
འདི་སྐད་	-10.4907
གྲྭ་ཚང་	-10.4909
དམ་ཆོས་	-10.491
དེ་དག་ལ་ཡང་	-10.4911
ལྷའི་བུ་མོ་	-10.4916
ལྷའི་མིག་	-10.4916
ལྟ་བ་དང་་	-10.4921
ྱང་ཆུབ་སེམས་དཔས་	-10.4922
མི་ནུས་	-10.4924
གནང་དོན	-10.4935
བརྩིས་	-10.4935
འཛམ་གླིང་ཞི་བདེ	-10.4937
བྱིན་ནོ་་	-10.494
ོལ་	-10.4941
ཕྱི་སྲིད་	-10.4943
མི་ཡི་	-10.4943
པར་བྱ་བ་	-10.4944
འི་ལྷ་	-10.4951
འཐུས་	-10.4952
སུམ་ཅུ་རྩ་གསུམ་	-10.4956
ཐོབ་པར་འགྱུར་་	-10.4957
་ཙ	-10.4957
སླར་གསོ་	-10.4958
རྒྱའི་	-10.4959
ཆོག་པའི་	-10.496
ཞུ་གཏུག་	-10.4964
ཚངས་པས་བྱིན་གྱི	-10.4966
མཉམ་འབྲེལ་གྱི་	-10.4967
་དག་ཡང་དག་པ	-10.4968
བརྗེད་	-10.4968
གལ་ཆེན་	-10.4969
▁ཚོར་བ	-10.497
དབང་ཆ་	-10.4971
འཚམས་	-10.4978
ཤེས་ཁོང་དུ་ཆུད་	-10.4978
པ་བཞི་	-10.4979
གི་ཡོད་པ་རེད	-10.4979
པི་བང་	-10.498
བསྒྱུར་བཅོས་	-10.4982
▁ཁྱེའུ་	-10.4982
བརླག་	-10.4983
རྐང་པ་ལ་ཕྱག་འཚལ་	-10.4985
གཞུང་ཞབས་	-10.4985
འི་གཟུགས་	-10.4986
ཕྱོགས་བཅུ་	-10.4987
ར་བགྱིད་	-10.499
འཐུངས་	-10.4992
ར་བ་	-10.4992
▁རང་དབང་ཅན་གྱི་	-10.4993
ཡང་མེད་དོ་་	-10.4993
ཁ་ཞེ་གཉིས་མེད་	-10.4994
པ་ཚོས་	-10.4994
ལྷས་	-10.4998
སྤྱི་ཚོགས་དང་	-10.5
སྤེལ་བའི་	-10.5001
ཆོས་ཀྱི་ཚུལ་	-10.5005
ཕྱིས་སུ་	-10.5007
ཁྲུ	-10.5009
▁ཅེས་གསུང་	-10.501
ཛ་དྲག་གནས་སྟངས་	-10.5015
གསེར་གྱི་ཁ་དོག་	-10.5015
བཙུན་མོ་	-10.502
ན་པ་	-10.5021
རྣམ་གྲངས་	-10.5024
བྱེད་ཕྱོགས་	-10.5024
ཞིང་བསོད་ནམས་དག་	-10.5026
རྒྱ་ནག་ནང་དུ་	-10.5026
ང་ཚོ་ཚང་མས་	-10.5027
ས་ཟླ་འོད་གཞོན་ནུ	-10.5027
སུ་ནི་	-10.5027
གསུང་གི་	-10.5031
སྤང་བའི་ཕྱིར་	-10.5033
འབྱུང་ཁུངས་	-10.5036
ཕྱོགས་ནས་	-10.5038
རྒས་	-10.5043
བྱ་རྒྱུ	-10.5044
ཡོངས་སུ་བསྐོར་	-10.5046
ཅི་ལགས་	-10.5049
སེར་སྐྱའི་གནས་	-10.5051
ཕུད་	-10.5055
སྟོང་ཉིད་	-10.5059
ཞུས་དོན་ལྟར་	-10.5059
གི་སྐུ་ཚབ་	-10.5062
ནི་སངས་རྒྱས་	-10.5062
བཟའ་བ	-10.5063
ཞོ་	-10.5063
མི་ཤེས་སོ་	-10.5065
བའི་ཕྱིར་རོ་	-10.5065
མཆི	-10.5065
ཉོན་ཅིག་	-10.5065
ཁོང་ཚོས་	-10.507
་འདུག	-10.5071
སྦྲེལ་རྒྱལ་ཚོགས་	-10.5071
རྒྱལ་པོའི་བུ་	-10.5072
འབྲོས་	-10.5072
ཇིམ་མེག་གྷོ་ཝན་	-10.5073
▁གོང་གསལ་	-10.5075
པའི་ཚིག་	-10.5076
གྲངས་ཚད་	-10.5078
ཆོས་མཉན་པའི་	-10.5078
ཞེས་ཟེར་	-10.5079
ཞིང་ཡོངས་སུ་དག་པ	-10.5081
ལྟ་བའི་	-10.5084
གནང་དང་གནང་བཞིན་	-10.5085
སེར་སྣ་	-10.5086
དགའ་བསུ་	-10.5087
དབྱེ་འབྱེད་	-10.5087
འཐུན་པར་	-10.5087
ཅན་ཞིག་	-10.5092
དེ་རིང་གི་	-10.5094
མཐའ་མའི་	-10.5096
དགོངས་བཞེས་	-10.5096
སྒར་	-10.5098
▁སྐབས་རེ་	-10.5098
ངོ་ཤེས་	-10.5102
འཁྲུལ་	-10.5104
ཕེབས་པར་	-10.5105
▁ང་ཡི་	-10.5106
སྤུན་	-10.5107
རྣམ་པར་སེལ་བས་	-10.5107
བཤད་པའི་	-10.511
ཡོངས་སུ་རྫོགས་པ་	-10.5112
ལ་བ་	-10.5113
ཁོང་རྣམས་	-10.5115
བལྟ་བར་བྱའོ་་	-10.5116
འཕོ་བ་	-10.5116
ར་བ	-10.5117
ཚོགས་ཆུང་གིས་	-10.5118
ལུང་བསྟན་ཏོ་་	-10.5119
ཡིན་ཞིང་་	-10.5123
འདི་རྣམས་ཀྱིས་	-10.5125
འགྱོད་པ་	-10.5127
ཆབ་སྲིད་བཙོན་པ་	-10.5128
པ་འདི་	-10.5129
ཉིན་གཅིག་	-10.5129
རྡོ་རྗེ་ལགས་ཀྱིས	-10.5129
གཞིས་མི་	-10.5135
མཐུན་འགྱུར་གནང་	-10.5136
བཞིན་པ་དེ་དག་	-10.5136
གཉེན་པོ་	-10.5136
ཇི་འདྲ་	-10.5136
རློམ་སེམས་	-10.5138
སྦྲུལ་	-10.5141
བར་བྱའོ་་	-10.5143
མཐུན་འབྲེལ་	-10.5145
▁གང་ཚེ་	-10.5145
▁ཉོན་མོངས་	-10.5151
བྱུང་བར་གྱུར་ཏོ་	-10.5152
ཆབ་སྲིད་ཚོགས་པ་	-10.5154
དང་འབྲེལ	-10.5155
ལྗགས་	-10.5157
ཀརྨ་	-10.516
ཙམ་རིང་	-10.516
▁གང་ཡང་	-10.5161
སྐུ་ཕྲེང་	-10.5163
སྐུ་འཚོ་བཞུགས་	-10.5165
སྐྲ་དང་ཁ་སྤུ་	-10.5165
སྨིན་སྩལ་ཐོབ་སྟེ	-10.5165
སོང་ངམ	-10.5166
འི་རིའི་རྩེ་མོ་	-10.5166
དཔལ་ན་ལེན	-10.5168
ཡོངས་སུ་འཛིན་པ	-10.517
ལོ་མང་རིང་	-10.517
ཉེན་རྟོག་པས་	-10.517
དབུས་འོས་བསྡུ	-10.5171
གཟའ་མཇུག་	-10.5171
▁བདུད་	-10.5172
སྦར་སེལ་	-10.5173
་སྤྱད་པར་འཚལ་ལོ་	-10.5173
དུས་བཀག་	-10.5176
ཕྱེད་ཡོལ་ཆུ་ཚོད	-10.5177
ངོས་ནས་ཀྱང་	-10.5178
ལ་ཐུགས་རྗེ་ཆེ་	-10.5178
ལ་ལྟོས་	-10.5181
བཟང་སྐྱོང་	-10.5185
ལེན	-10.5185
དོན་རྐྱེན་	-10.5186
དམན་པ་	-10.5187
ཆོས་ཀྱི་རྒྱལ་པོ	-10.5188
སྒྲ	-10.5191
འཚལ་ལོ་་	-10.5191
ཇོ་	-10.5192
དངུལ་ཁང་	-10.5194
ལ་མོས་པ་	-10.5194
རྒྱུན་ལྡན་	-10.5195
སུ་ལ་ཡང་	-10.5198
བྱམས་པའི་	-10.5202
སྡེ་སྣོད་གསུམ་	-10.5207
གསུང་རབ་	-10.5207
ཀྱི་ཆེད་དུ་	-10.5209
་བསམ་གྱི་འདུག	-10.5211
སྨྲ་བ་དང་་	-10.5213
བསྡུ་	-10.5214
སྨོན་ལམ་གྱི་	-10.5218
གྱུར་ཡོད	-10.5219
ས་མཚམས་སུ་	-10.5221
ཚོང་འབྲེལ་	-10.5229
དགུན་	-10.5229
གཞན་དག་ལ་ཡང་	-10.5233
བགྱི་	-10.524
ལ་དྭགས་སུ་	-10.5242
སྙིང་པོའི་	-10.5243
རིག་པའི་རྣམ་གཞག་	-10.5247
རྣམས་ལགས་	-10.5247
འི་མཆོད་རྟེན་	-10.5251
མི་དགའ་	-10.5253
སྡེ་ཚན་གྱི་	-10.5253
བོད་ཕྲུག་	-10.5254
འགྲོ་་	-10.5254
དང་བསྟུན	-10.5255
ས་གཞི་	-10.5256
▁ཨ་རི་	-10.5256
གང་ཡོད་	-10.5257
པའི་སེམས་	-10.5258
སྔོ་	-10.526
་ཆེན་རིན་པོ་ཆེ	-10.526
རིག་པར་བྱའོ་་	-10.5265
སྲོག་གཅོད་པ་	-10.5266
དད་ལྡན་ཆོས་ཞུ་བ་	-10.5269
ཚང་བར་	-10.527
རྣམ་པར་དག་	-10.5272
ཞུམ་	-10.5273
ཤི	-10.5273
ཞབས་འབྲིང་	-10.5277
ལ་སྙིང་བརྩེ་བ	-10.5277
ཁྲི་ཉིས་སྟོང་	-10.5278
ནང་ན་ཡང་	-10.5278
ཕ་མས་	-10.5279
གཏིང་	-10.528
རིང་དུ་	-10.5281
འཇོག་ཁང་དུ་	-10.5285
དེ་དེ་བཞིན་ཏེ་	-10.529
ཨན་	-10.5295
ཆོས་དད་	-10.5297
ཁྱིམ་གྱི་	-10.5297
ཚུལ་དུ་	-10.5298
སོང་ཤིག་	-10.5301
▁ད་ཐེངས་	-10.5303
▁སེམས་ཅན་དེ་དག་	-10.5304
འཇིག་རྟེན་ཕ་རོལ་	-10.5304
འཛུལ་	-10.5304
ཡེ་ཤེས་མཐོང་བ་	-10.5306
བྱམས་བརྩེ་དང་	-10.5309
བརྙས་	-10.5311
▁སྔགས་	-10.5313
འི་ཚོགས་	-10.5313
ངོ་མཚར་དུ་གྱུར་	-10.5314
ཟབ་པ་	-10.5315
གནས་ཀྱི་	-10.5318
ཐུབ་པ་ཡིན་ན་	-10.5319
མགོན་སྐྱབས་	-10.532
དགོད་	-10.5321
ལྟ་བུ	-10.5322
▁ཁྱེད་ཀྱིས་	-10.5324
མ་ལགས་པ་	-10.5324
རྒན་པ་	-10.5325
ན་རེ་	-10.5327
ཐོག་རྒྱབ་སྐྱོར་	-10.5327
ཡུལ་འཁོར་	-10.5331
དངོས་པོར་	-10.5336
བར	-10.5336
ཕ་མ་གཉིས་	-10.5338
དུས་ཀྱི་	-10.534
ཀྱི་ཚོགས་གཙོ་	-10.5341
ལམ་སྟོན་གནང་	-10.5341
ཉམས་ཞིབ་པ་	-10.5342
ཤིང་དགེ་སློང་	-10.5344
ང་དང་	-10.5345
ར་བྱ་སྟེ་	-10.5345
མི་མཉམ་པ་དང་མཉམ་	-10.5346
པའི་ལས་དེའི་	-10.5346
▁སོ་སོའི་	-10.5348
བཙན་བྱོལ་བ་	-10.535
ཡིན་ནོ་ཞེས་	-10.5351
ནི་གང་ཡིན་	-10.5351
སྣ་ཚོགས་ཀྱི་	-10.5351
བདུན་པ་	-10.5352
སྤེལ་བ་	-10.5353
ལུང་དུ་མ་བསྟན་པ	-10.5354
ཉི་ཁྲི་ཐུབ་པ་ན་	-10.5354
རེ་རེའི་	-10.5354
སྒྲིབ་པ་ཐམས་ཅད་	-10.5355
ཟིན་བྲིས་	-10.5355
ས་ལ་བཙུགས་ཏེ་	-10.5356
ལྟ་བར་གྱུར་པ་	-10.5357
ཀྱི་དབང་པོའི་	-10.5358
ཁྱབ་སྤེལ་	-10.5358
འདུག་པར་བྱའོ་་	-10.5358
མེ་ཏོག་དང་་	-10.5359
▁གནས་	-10.5359
དགོས་དམིགས་	-10.536
ཞི་བདེ་དང་	-10.536
འཇིགས་སྣང་	-10.5361
གྲུབ་པའི་རྒྱུ་	-10.5361
རྒྱལ་པོ་དེ་	-10.5362
ཀྱི་རྐྱེན་པས་	-10.5365
དྲུག་གི་	-10.5368
ལན་གསུམ་	-10.5369
ཏིང་འཛིན་འདི་	-10.537
བྱང་ཆུབ་ཀྱང་	-10.5371
མི་དགའ་བ་	-10.5372
བདེ་བ་དང་	-10.5372
མ་པ་	-10.5373
བྲམ་ཟེ་དང་་	-10.5375
བསྐྱར་	-10.5377
པས་ན་་	-10.5379
གྷོ་	-10.5379
ནམ་མཁའ་མཐའ་ཡས་	-10.5382
ཙན་དན་	-10.5382
ལྷག་པ་	-10.5385
ར་མི་འགྱུར་རོ་	-10.5386
རྗེས་དྲན་གྱི་	-10.5387
ནུས་སྟོབས་	-10.539
བྱེད་ཀྱི་ཡོད་པ་	-10.539
བོད་ཐོག་འཛིན་	-10.5391
▁དེ་ནས་རྒྱལ་པོ	-10.5391
ཨུ་	-10.5395
ཨ་རིའི་རྒྱལ་	-10.5397
ཅན་དུ་	-10.5398
དཀའ་ངལ་དེ་དག་	-10.5398
དང་བསླབ་པའི་གཞི་	-10.54
གདུངས་	-10.5406
ལྷགས་་	-10.5408
ཞག་བདུན་	-10.5411
ཆེ་ཆུང་	-10.5412
སྐྱེ་དགུའི་བདག་	-10.5416
རིག་ནས་	-10.5417
གཡོན་	-10.5418
▁གོང་ས་མཆོག་གི་	-10.542
དུ་ར	-10.542
སྐྱེ་བ་མེད་པ་	-10.542
མཐར་ཐུག་	-10.542
རྩེད་མོ་	-10.5421
བགྲེས་ཡོལ་	-10.5423
ཐུགས་རྗེའི་	-10.5423
་འགོག་པ་དང་་ལམ་	-10.5424
དེ་ལྟ་བུ་ནི་	-10.5424
སྒྲིག་འཛུགས་ལ་	-10.5426
མཉམ་ཞིང་	-10.5429
་རི་	-10.5431
རེ་རེ་བཞིན་	-10.5432
ུད་	-10.5434
▁ད་ནི་	-10.5435
ངལ་སེལ་	-10.5436
འདི་ག་	-10.5438
དགེ་སློང་དེ་དག་	-10.5439
མཐོང་ནས་ཀྱང་	-10.5442
ཐེ་ཝན་ནང་	-10.5447
འགྲོ་བ་ཐམས་ཅད་	-10.5449
བདེན་པར་	-10.5449
པ་རྣམས་དང་་	-10.5451
སྐུ་ཞབས་ཨ་	-10.5452
རྒྱ་མི་རིགས་	-10.5453
པ་ཡིན་་	-10.5453
བྱའི་	-10.5453
▁བྱང་ཨ་རིའི་	-10.5455
རིམ་པའི་	-10.5455
སྨོན་པ་	-10.5458
བྱེད	-10.5459
ཞུགས་སོ་་	-10.5459
སྐུ་གཟུགས་	-10.5461
སྐུ་ཚབ	-10.5463
ཁྱབ་གདལ་	-10.5465
ཚོགས་ཆེན་གྱི་	-10.5465
བླང་དོར་	-10.5467
ལྟ་གྲུབ་མི་འདྲ་བ	-10.5469
རུལ་	-10.5472
དེ་ཉིད་ཀྱི་	-10.5473
བཞི་པོ་	-10.5477
བསྲེག་	-10.5478
ལ་བཀོད་དོ་་	-10.5479
ལྷག་བསམ་	-10.5483
འི་མང་གཙོའི་	-10.5484
བཏང་བ་དང་	-10.5484
སྐྱེ་བར་འགྱུར་	-10.5487
བཏུད་	-10.5488
ཡིན་པར་བརྟེན་	-10.5489
ཅང་	-10.5489
བཀའ་འཁྲོལ་	-10.5491
སོགས་ཀྱི་ཐོག་	-10.5493
རྒྱུའི་ཐོབ་ཐང་	-10.5495
ལག་བསྟར་བྱས་	-10.5496
དགོངས་པ་རྫོགས་	-10.55
བོད་རྒྱ་གཉིས་	-10.55
གནོན་	-10.5502
ལས་གཞིའི་	-10.5512
ལས་བྱུང་	-10.5514
ཧ་ལས་པ་	-10.5516
ཆུ་བོ་	-10.5516
འབྲོག་	-10.5517
གསུམ་པོ་	-10.5517
རླབས་	-10.5522
ལ་མངོན་པར་	-10.5522
བརྒྱག་	-10.5522
ཚོགས་པ་ཁག་གི་	-10.5524
རབ་ཏུ་བྱུང་	-10.5524
ཆུང་ངུ	-10.5525
གཞོན་ནུར་གྱུར་པ་	-10.5527
▁བདག་ལ་	-10.553
་དང་་སྡུག་བསྔལ་བ	-10.5536
ུ	-10.554
བྱེད་པ་པོ་	-10.5541
གནད་	-10.5541
ཡིད་བདེ་བ་སྐྱེས་	-10.5542
མི་གནས་པ་	-10.5542
ཁ་ནས་	-10.5545
དབང་པོ	-10.5546
ཧིན་བོད་མཛའ་	-10.5546
ཐབས་ཟླར་བབ་པ་ལ	-10.5546
འགྲན་སྡུར་	-10.5546
ཡོང་བཞིན་འདུག	-10.5547
འི་གཞུང་མང་གཉིས་	-10.5547
གནང་ཕྱོགས་	-10.5549
སྔ་འགྱུར་རྙིང་མ	-10.5549
ཡོད་པ་མ་རེད	-10.555
ཞིང་དགའ་ལ་	-10.5551
སྙིང་བསྡུས་ཤིག་	-10.5552
འདུ་ཤེས་མེད་མིན་	-10.5552
རང་བཞིན་ལྡན་པའི་	-10.5555
ཁྲིམས་སུ་	-10.5558
▁མདོ་སྡེ་	-10.556
མ་མཆིས་པ་དང་་	-10.5562
་ཊི་	-10.5564
དགོན་སྡེ་ཁག་གི་	-10.5564
ཅན་དང་་	-10.5565
གྲོང་ཁྱེར་ནས་	-10.5565
སྲེག་	-10.5567
ཇི་སྙེད་ཅིག་	-10.5569
རྣམ་པར་རྟོག་པ	-10.557
མཛའ་བརྩེའི་	-10.5574
ངོ་ཚ་	-10.5576
ཇི་སྲིད་འཚོ	-10.5577
འགྲོགས་	-10.5577
ཨ་རི་དང་	-10.558
འགལ་	-10.5582
ཟླ	-10.5583
▁འདོད་པ་	-10.5583
རྣམས་ཀྱི་གནས་	-10.5584
དོན་གྱི་	-10.5584
ཇི་སྐད་སྨྲས་པ་	-10.5586
རིག་འཛིན་	-10.5588
འདི་ཁོ་ན་ཡིན་ཏེ	-10.5588
ཆེན་པོ་མཆོག་གིས	-10.559
སྐྱེ་བོ་མང་པོ་ལ་	-10.5591
ཡོན་ཏན་གྱི་ཚོགས་	-10.5591
ཚོགས་འདུའི་ཐོག་	-10.5591
མི་རྣམས་ཀྱིས་	-10.5593
རྣ་བའི་རྣམ་པར་	-10.5595
ཁོར་ཡུག་གི་	-10.56
མི་སྐྱེ་	-10.5603
ཞུ་གི་ཡོད	-10.5603
དེང་དུས་	-10.5604
ནང་ར	-10.5604
དྲང་	-10.5606
▁བྱང་ཆུབ་ནི་	-10.5612
གསར་པའི་	-10.5612
རྨི་ལམ་ལྟ་བུ	-10.5615
དབུ་མ་	-10.5615
བར་མ་	-10.5616
▁སྐུ་	-10.5618
ཞུས་པར་	-10.562
ཁོང་དུ་ཆུད་པར་	-10.562
་རྣམས་ཡིན་ནོ་	-10.5621
་སོ་སོ་ཡང་དག་པར་	-10.5621
གནས་པར་བྱེད་	-10.5623
ག་ཚོད་	-10.5623
གཟི་བརྗིད་ཀྱིས་	-10.5624
གང་ནས་	-10.5627
▁ཅེས་སོགས་	-10.5632
བཤད་དུ་གསོལ་	-10.5632
འཁོར་གྱི་	-10.5632
འི་སེམས་ཅན་རྣམས་	-10.5634
པའི་སླད་དུ་	-10.5636
སྣང་བར་གྱུར་ཏོ་་	-10.5638
གཅ	-10.5648
པར་མ་གྱུར་	-10.5651
རྨི་ལམ་དུ་	-10.5652
རྡོག་རྩ་གཅིག་	-10.5653
▁སྐྱེས་བུ་དམ་པ་	-10.5653
མང་པོ	-10.5655
གླང་པོ་ཆེ	-10.5655
རབ་ཏུ་དགའ་བ	-10.5656
ཞུ་མཁན་	-10.5657
ལྟ་བུ་ཞིག་	-10.5658
ས་ཤིག་	-10.5661
སྐྱེ་བར་འགྱུར་བ་	-10.5664
སྙིང་རྗེ་ཆེན་པོ	-10.5667
ཡོངས་སུ་གཟུང་བ་	-10.5667
ཡིན་ཏེ་་	-10.5669
སྩོལ་	-10.567
འཕངས་	-10.5671
སྨད་འཚོང་མ	-10.5672
ཁྱིམ་བདག་དེ་	-10.5673
པར་རིག་ནས་	-10.5673
ཨེ་ཤི་ཡ་	-10.5673
ཐོས་པས་	-10.5675
དབུ་འབྱེད་མཛད་	-10.5675
ཚོགས་འདུ་ཞིག་	-10.5676
ར་གྱུར་་	-10.5677
དང་མཚུངས་པ་	-10.5678
སྨོན་པ་མེད་པའི་	-10.5679
རྡ་ས་གངས་སྐྱིད་	-10.5679
བཀོད་པ་པོ་	-10.568
རང་རིགས་	-10.5683
དགོས་གལ་	-10.5687
ར་གྱུར་ལ་	-10.5689
འདེམས་	-10.5692
ངོས་ལེན་	-10.5692
བཞི་བཅུ་	-10.5694
རྒྱུ་ཞིང་	-10.5695
ངག་གི་ལས་	-10.5696
ཞེའམ་	-10.5696
འགྲེལ་བརྗོད་གནང་	-10.5699
ཕྲེང་	-10.5699
ཉེ་དབང་ད	-10.5699
▁ཨ་	-10.5702
བསིལ་	-10.5702
གསོ་བ་རིག་པ་	-10.5702
དྲ་བ་	-10.5704
དགའ་བར་བྱེད་	-10.5706
གནས་པ་དང་	-10.5706
འཚོ་བྱེད་	-10.5708
བུམ་པ་	-10.5708
གདགས་པ་	-10.571
ཞུས་དང་ཞུ་མུས་	-10.571
གཟིགས་པ་	-10.5712
ལ་ཤིན་ཏུ་	-10.5715
ཚོགས་དྲུང་	-10.5716
སྒྲ་ཡང་	-10.5716
གཞི་རྩའི་འགྲོ་	-10.5716
▁གཞོན་ནུ་འདི་དག་	-10.5718
གཟབ་	-10.5719
ཐུག་འཕྲད་	-10.572
ལ་དགའ་བ་	-10.5722
བརྗེ་ལེན་	-10.5723
ཉམས་སུ་མྱོང་བ	-10.5724
ད་པ་	-10.5729
ར་བྱའོ་ཞེས་	-10.573
ཐམས་ཅད་ཡོངས་སུ་	-10.5731
ལུས་ནི་	-10.5731
དེ་ཐམས་ཅད་	-10.5731
གྲྭ་ཚང་གི་	-10.5734
རྒྱབ་ལྗོངས་	-10.5735
བཀའ་འགྱུར་	-10.5735
མ་བྱེད་ཅིག་	-10.5736
སྤར་	-10.5737
སྔོན་གྱི་གནས་	-10.5737
▁རྒྱུ་མཚན་	-10.5737
བསྟན་པ་འདི་	-10.5738
བཞིས་	-10.5739
བདག་གི་ལུས་	-10.574
ང་བཅས་པའི་ལྷ་	-10.574
མཐོང་བས་རྣམ་པར་ག	-10.5742
▁བུ་མོས་སྨྲས་པ་	-10.5743
གངས་ལྗོངས་	-10.5743
བོད་མི་ས་ཡ་དྲུག་	-10.5745
ཤེས་ཡོན་ལམ་ལུགས་	-10.5746
བྱས་པ་དེ་	-10.5747
དེ་ཁོ་ན་བཞིན་དུ་	-10.5748
རེད་བསམ་གྱི་འདུག	-10.5749
▁གང་ཡིན་བརྗོད་ན་	-10.575
དེའི་ཐོག་ནས་	-10.575
དྲི་ཟའི་	-10.5752
་མེད་་	-10.5755
ཞུ་བ་ཞུས་པ་	-10.5756
ཉེ་འཁོར་	-10.5758
▁ལྷ་རྣམས་	-10.576
དང་བྲལ་ཞིང་	-10.5762
རྡ་རམ་ས་ལར་	-10.5765
དོན་གྱི་ཕྱིར་	-10.5765
་སེམས་	-10.5766
ུའུ་	-10.5768
དུ་གཞུག་པར་བྱ་	-10.5769
པར་འགྱུར་བའི་	-10.577
ཚངས་པ་ཆེན་པོ་	-10.5773
མཉམ་པ་ཉིད་ཀྱིས་	-10.5773
ཞེས་བགྱི་བ་	-10.5775
མར་གྱི་ཉིང་གུ	-10.5775
དེར་ནི་	-10.5775
བྱས་ནས་་	-10.5776
སྐབས་སུའང་	-10.5776
ཕུང་པོའི་	-10.5776
འདི་ལྟ་བུ་འདི་	-10.5779
གུས་པར་སྨྲ་བ	-10.5779
ལ་ཡིད་ཆེས་	-10.5781
རྒྱུ་གལ་ཆེན་པོ་	-10.5782
ན་འདུག་པ་	-10.5783
དགོས་དོན་ནི	-10.5783
མཁན	-10.5784
རྒྱལ་སྤྱིའི་ཐོག་	-10.5785
▁སློབ་གྲྭའི་	-10.5788
པའི་ཚེ་་	-10.5789
ཕ་རོལ་ཕྱིན་་	-10.579
དང་་དུད་འགྲོ	-10.579
ཅི་ཡང་	-10.579
བའི་སྐབས་	-10.5791
ལྷན་ཅིག་ཏུ་	-10.5792
འཁོད་ནས་	-10.5794
སྒྲོན་	-10.5795
རྗེས་སུ་འབྲང་བ	-10.5795
དད་པ་དང་	-10.5797
བོད་རང་སྐྱོང	-10.5798
ལྷ་དང་མི་	-10.58
བདག་དང་	-10.5802
རྣམས་ཡོངས་སུ་	-10.5803
ཁང་བཟངས་	-10.5804
སྟོང་ཕྲག་དུ་མ་	-10.5806
ལེགས་སྦྱར་	-10.5807
ནས་ཕེབས་པའི་	-10.5808
རྣམས་སྡུག་བསྔལ་	-10.581
རབ་བྱུང་	-10.5811
ཟེར་རྒྱུ་	-10.5813
ཏ་ལའི་བླ་མ་མཆོག་	-10.5813
འོངས་ཏེ་ཞེས་བྱ་བ	-10.5816
▁འདུ་བྱེད་ཀྱི་	-10.582
བཏགས་པ་	-10.582
འགྱུར་ཏེ་	-10.5821
སྐུའི་ཡང་སྲིད་	-10.5821
་མ་ཧ་	-10.5823
▁དེ་དག་ལ་	-10.5827
ཚང་མའི་	-10.5827
བར་བརྟེན	-10.5833
རབ་ཏུ་ཤེས་	-10.5834
འི་བར་ལ་	-10.5835
བྱུག་པ་	-10.5838
▁དེའི་ཐོག་	-10.584
ཆོས་ལུགས་ཚང་མས་	-10.5843
ཁ་པར་	-10.5843
གློ་	-10.5844
གཞིས་ལུས་	-10.5848
ིག་རྟེན་སྐྱོང་བ་	-10.5851
འདི་བརྒྱུད་	-10.5856
འབྲེལ་བ་ཡོད	-10.5856
རྒྱལ་ཁབ་དང་	-10.5857
རོགས་ཚོགས་	-10.5859
གཏུགས་	-10.5861
དག་ཡིན་ནོ་་	-10.5862
དོན་ལྡན་གླིང་	-10.5862
ལམ་སྟོན་དང་	-10.5863
▁གྲོང་ཁྱེར་	-10.5864
སྟེང་གི་ནམ་མཁའ་ལ	-10.5864
ཁྲིམས་འགལ་	-10.5865
བགོ་འགྲེམས་	-10.5866
གཉིད་	-10.5874
ད་བར་བོད་མི་	-10.5874
འི་འདུ་ཤེས་	-10.5875
དཀྲུག་	-10.5879
དུལ་	-10.588
དབང་ཕྱུག་གི་	-10.5884
སུ་གྱུར་པ་	-10.589
བརྙན་ཐུང་	-10.5891
རྫོགས་པར་བྱ	-10.5892
མགུལ་	-10.5892
ལ་སྤྱོད་པས་	-10.5894
གཟབ་རྒྱས་	-10.5894
ཞིག་ཡིན་སྟབས	-10.5894
ཁོང་དུ་ཆུད་	-10.5894
སློབ་ཕྲུག་ཚོས་	-10.5899
དེ་བཞིན་ཉིད་དང་་	-10.5899
གསལ་པོར་	-10.59
ུར་	-10.5903
མུར་	-10.5903
▁ཟླ་བ་	-10.5904
མཆོག་རྣམ་གཉིས་	-10.5904
ཀུན་དགའ་ར་བ	-10.5905
ཡོང་བ་དང་	-10.5905
▁རིག་པ	-10.5906
མ་འགགས་པ་	-10.5908
བོད་རང་བཙན་	-10.5909
སྟོབས་དང་་	-10.591
འདི་དག་ལ་	-10.5911
ཐོས་ན་	-10.5912
བྷེ	-10.5915
མཁྱེན་པ་ཉིད་དུ་	-10.5916
གཉེར་གསར་འགོད་པ་	-10.5916
ི་བྱེ་མ་སྙེད་	-10.5921
གཞི་ནས་	-10.5922
▁རིམ་པས་	-10.5922
མི་འགྱུར་རོ་་	-10.5926
བསམ་བློ་བཏང་ནས་	-10.5928
འི་སྟོབས་བཅུ་དང་	-10.5929
་དེ་འདི་	-10.5931
▁ཐམས་ཅད་མཁྱེན་པ	-10.5932
བསམ་བློའི་ནང་	-10.5933
སྐུ་མགྲོན་དུ་	-10.5933
་མཆོག་གི་	-10.5933
ཁྲིམས་རྩོད་པ་	-10.5935
དང་་དགེ་བསྙེན་	-10.5938
ཉན་ཞིབ་	-10.5939
ཡོངས་སུ་ཤེས་པ	-10.594
དམུས་ལོང་	-10.594
མར་དང་ཞུན་མར་དང་	-10.5942
ྲོལ་སྙམ་འམ་	-10.5942
རེག་པ་ལ་གནས་སམ་	-10.5942
ཆོས་སུ་བཏགས་པ་	-10.5942
ཉན་ཐོས་ཀྱི་སའམ་	-10.5942
སྐུའི་འཕྲོད་བཞེ	-10.5942
སྒྲོགས་སྦྱང་གནང་	-10.5943
ནས་བོད་མིའི་	-10.5945
གཙོ་འཛིན་	-10.5947
དང་་མིའམ་ཅི་དང་་	-10.5947
པའི་སླད་དུའོ་་	-10.5948
གཟུགས་དང་་	-10.5949
རྒྱ་ནག་གཞུང་དང་	-10.595
གནོད་པ	-10.5951
སྒྲོག་	-10.5951
རིག་པར་བྱ་སྟེ་	-10.5952
བཙན་བྱོལ་ནང་	-10.5955
ཅེས་སོགས་ཀྱི་	-10.5955
བྱ་བའི་	-10.5956
གྱིས་ལ་	-10.5957
རང་བཞིན་ནི་	-10.5957
རྒྱས་པར་བྱས་ནས་	-10.5958
ཡར་རྒྱས་ཕྱིན་	-10.5959
▁རྡ་ས་	-10.596
གནས་ན་	-10.596
མཛོད་ཅིག་	-10.596
བསིལ་བར་གྱུར་པ་	-10.5962
བཤད་ན་	-10.5963
▁ཕྱི་ལོ་གཟའ་ཉི་མ	-10.5964
སོང་་་	-10.5966
ས་པའི་འགོག་པ་	-10.5969
དེབ་སྐྱེལ་	-10.5969
བོར་ཏེ་	-10.597
བཞིན་ནོ་་	-10.5975
་འཐོབ་ཏུ་རུང་ན་	-10.5976
▁བདག་ཅག་གིས་	-10.5979
ལྷ་རྣམས་ཀྱིས་	-10.5979
དྲ་ཚིགས་	-10.598
དགོན་པ	-10.5981
དབང་ཕྱུག་དང་་	-10.5981
རྒྱུ་ཡིན་པ་བཅས	-10.5981
ལྷན་ཁང་	-10.5983
འབེབས་	-10.5984
མཚམས་སུ་	-10.5986
བསོད་སྙོམས་ལ་	-10.5986
ཚེའི་ཚད་	-10.5987
གནོན་ཤུགས་སྤྲོད་	-10.5987
ཀྱི་དེ་བཞིན་ཉིད་	-10.5989
དབང་ཕྱུག་མཆོག་	-10.5992
ལྷན་འཛོམས་ཐོག་	-10.5992
རྣམ་གྲངས་འདིས་	-10.5994
དང་རྒྱལ་སྤྱིའི་	-10.5996
སྙོམས་པར་འཇུག་པ	-10.5996
གཏི་མུག་གི་	-10.5997
ཅུང་	-10.5997
ནམ་མཁའི་ཁམས་	-10.5998
ཀྱི་ཞིང་དེ་ན་	-10.5999
གྱིས་ཤིག་ཅེས་	-10.6006
སྨོན་ལམ་གྱི་དབང་	-10.6007
བཞུགས་ཁྲིར་	-10.6007
ཕྱག་དར་	-10.6007
ཡེ་	-10.6009
བགྱིད་པ་དང་་	-10.601
ལས་དོན་ཐོག་	-10.6011
བསླབས་ནས་	-10.6012
འི་སངས་རྒྱས་ཀྱི་	-10.6012
་དང་ལག་མཐིལ་དུ་	-10.6013
བཅད་དེ་	-10.6013
གཏན་འབེབས་གནང་བ་	-10.6015
པེ	-10.6016
བཀུར་	-10.6016
ཏོག་	-10.6018
འཇིག་རྟེན་ཁམས་	-10.6019
ལ་གནས་ཤིང་	-10.602
ཀྱི་གནས་སྟངས་	-10.6021
རྒྱ་གར་དབུས་	-10.6023
བཅོམ་ལྡན་	-10.6024
ནི་བདག་	-10.6026
དགོན་པ་དང་	-10.6026
དེ་འདྲ་བ་	-10.6027
འཛམ་གླིང་ཡོངས་ལ་	-10.6027
འཁོར་བར་	-10.6029
་མཆོག་	-10.6029
ཆོས་ཀྱི་རང་བཞིན་	-10.6033
▁ཆུ་	-10.6033
▁རླུང་	-10.6033
ཡིད་ཀྱི་ལས་	-10.6034
རྗེས་སུ་འབྲང་བ་	-10.6037
མ་ལགས་སོ་་	-10.6038
སེམས་ཀྱི་རྒྱུད་	-10.6044
གོང་མའི་	-10.6045
ར་བྱ་བ་དང་་	-10.6045
རང་ལོ་	-10.6046
གནང་རྒྱུ	-10.6046
བཅོ་ལྔ་	-10.6047
མ་སོང་	-10.6047
ལྡན་ཞིང་	-10.6048
▁བོད་དང་	-10.605
ཞབས་ཞུ་	-10.6052
སྦྱངས་པ་	-10.6052
འོད་སྲུང་ཆེན་པོ་	-10.6053
གྲུབ་མཚམས	-10.6053
གསུང་བ་	-10.6063
ཁག་ནས་	-10.6064
ལྟ་བུ་རེད	-10.6069
མཐུན་ཚོགས་	-10.607
ལྷན་ཅིག་ཏུ་རྩེ་	-10.607
གྲུབ་པ་	-10.6074
གནད་དོན་སྐོར་	-10.6074
གནས་གཙང་མའི་	-10.6076
སྲིད་སྐྱོང་དང་	-10.6077
མི་སྒེར་	-10.6079
འཇིག་རྟེན་སྐྱོང་	-10.6079
ལོ་གཉིས་	-10.6079
གལ་ཆེ་བ་	-10.608
རབ་ཏུ་བྱུང་བའི་	-10.6083
མི་ནུས་་	-10.6085
ཡོངས་སུ་བཟུང་བ་	-10.6086
སྐྱོང་སྤེལ་གསུམ་	-10.6087
ཐམས་ཅད་མཁྱེན་	-10.6088
དགོས་པ་ཧ་ཅང་	-10.6089
རིམ་པར་	-10.609
ལྷན་འཛོམས་ཀྱིས་	-10.6091
གྲོ	-10.6096
ཡོད་མ་རེད	-10.6097
གཟུགས་ནི་	-10.6098
དགག་	-10.6103
▁ཤེས་ལྡན་དག་	-10.6104
ཆོས་ཀྱང་	-10.6104
་ནི	-10.6104
བདག་གིས་ཀྱང་	-10.6105
ཡོངས་སུ་དག་པའི་	-10.6106
འཇིག་རྟེན་མ	-10.611
མི་འགྱུར་བ་དང་་	-10.6112
འདུ་ཤེས་དང་་	-10.6113
ལོག་པ	-10.6117
དབྱར་	-10.612
ཕ་ཡུལ་	-10.612
ལས་དོན་སྤེལ་	-10.612
▁སེམས་ཅན་དམྱལ་བ་	-10.612
སྐུ་ཚེ་ཞབས་པད་	-10.612
་སྟེ་་	-10.6122
འི་ཆོས་ཅན་ནོ་	-10.6123
རྒྱུན་མི་འཆད་པར་	-10.6126
གཡུང་དྲུང་བོན་	-10.6127
མངོན་པར་འབྱུང་བ	-10.613
དོན་ཁང་གི་	-10.6134
འདས་ནས་	-10.6135
འབྱུང་བར་འགྱུར་བ	-10.6135
ཆུ་ཚོད	-10.6136
འདི་ཡིས་	-10.6136
དབྱེ་	-10.6139
ཡིན་གྱི་	-10.614
ཉེས་དམིགས་	-10.614
རྡོ་རྗེ་ལགས	-10.6142
ཁྱེད་རང་	-10.6143
བགྱིས་ཏེ་	-10.6144
ཞལ་ཟས་	-10.6145
སྲ	-10.6145
རོ་མྱང་བ་མེད་པར་	-10.6146
བསྣུན་	-10.6146
བྱིན་རླབས་	-10.6149
བགྲང་བ	-10.6149
▁ཏིང་ངེ་འཛིན་	-10.615
དམིགས་སུ་མེད་	-10.615
ལྷན་ཚོགས་སྐབས་	-10.6151
ནི་འདི་ཡིན་ཏེ་	-10.6152
དེ་དག་ཚང་མ་	-10.6152
▁བླ	-10.6153
གསུང་གི་འདུག	-10.6153
མར་མེ་ཞལ་ཕྱེ་	-10.6154
འཆམ་མཐུན་	-10.6154
འཐུང་	-10.6155
ྲ	-10.6156
མཁན་ཚོས་	-10.6158
ཇི་ལྟ་བུར་	-10.6159
རྗེས་སུ་བསྟན་པ་	-10.6161
ཁྱིམ་བདག་དེས་	-10.6161
བྱེད་ཐབས་	-10.6162
▁དེ་དུས་	-10.6166
རྣམས་སམ་	-10.6166
རྒྱགས་	-10.6166
བགྱིས་ལགས་	-10.6169
སྤོ	-10.6169
སྦིར་	-10.617
་ལགས་ཀྱིས་	-10.6171
རྣམས་ལས་	-10.6172
ཕན་ཚུན་དབར་	-10.6174
བྱེད་ཀྱི་ཚལ་དུ་	-10.6178
ཙམ་ནས་	-10.6178
འཕྲད་བཞིན་ཡོད	-10.6179
འགྲོ་ཞིང་	-10.6183
གནང་མཁན་ཡོངས་ལ་	-10.6188
མི་འཇིགས་	-10.6194
རྒྱུ་སོགས་	-10.6194
བདུད་ཀྱི་ལས་	-10.6194
ཡུ	-10.6197
སེང་གེའི་ཁྲི་ལ་	-10.6198
ཁྱེན་པ་སྐྱེས་བུ་	-10.62
གཞིས་ཆགས་ཁག་	-10.62
▁གཞུང་འབྲེལ་	-10.6201
གི་གོ་སྒྲིག་འོག་	-10.6202
▁དེ་ཡིས་	-10.6204
དེ་ཉིན་	-10.6204
མིག་གི་རྣམ་པར་	-10.6208
ཉིན་ལྟར་	-10.6208
གནས་སྟངས	-10.6209
མཆི་	-10.6209
སློབ་ཕྲུག་ཚོར་	-10.6211
བྱུང་མེད	-10.6214
བརྗོད་སྐབས་	-10.6215
ལས་བྱེད་དང་	-10.6217
ཤ་རིའི་བུ་དང་	-10.6217
ཐུང་	-10.6218
▁ངས་ནི་	-10.6218
འབྱེད་	-10.6221
བརྡ་ལན་	-10.6223
ཀྱིས་ནི་	-10.6227
ཇི་བྱུང་	-10.6228
གོ་ཆ་ཆེན་པོ་	-10.623
འཁེལ་	-10.623
དགོངས་གཞི་	-10.6231
སྣེ་	-10.6232
་ཡ	-10.6232
ཀྱིས་ཐོག་མར་	-10.6236
སྒོམ་པ་	-10.6237
་ཞེས་བྱ་བའི་	-10.624
འི་དུས་	-10.6242
ཤེས་ཤིང་	-10.6242
དོང་སྟེ་	-10.6243
ཀྲི	-10.6245
སྡིངས་ཆ་	-10.6245
སྐོ	-10.625
གནས་པ་དང་་	-10.6255
ཉེ་བར་གཞག་པར་བྱ	-10.6257
མདོ	-10.6257
ཞིག་ལ་ངོས་འཛིན་	-10.6258
ཐོག་མའི་	-10.6258
ལ་ཐུགས་བརྩེ་བ	-10.6261
དགུང་	-10.6262
ཕྱི་དྲོ་ཆུ་ཚོད་	-10.6262
▁ཅིའི་ཕྱིར་	-10.6264
མངོན་པར་ཤེས་པའི་	-10.6265
ཤིང་དྲུང་	-10.6265
པར་བཞེད་ན་ནི་	-10.6266
ཆོས་ལུགས་ནང་ཁུལ་	-10.6268
གཞས་སྣ་འཁྲབ་སྟོན	-10.6271
ཁྱེད་ལ་	-10.6272
མཆིས་་	-10.6273
ལ་གནས་པར་	-10.6273
ཟངས་	-10.6274
ཐང་དང་	-10.6274
བྱར་	-10.6276
བྱེད་བཞིན་ཡོད་པ་	-10.6277
བྷོ	-10.6277
དེའི་མིང་	-10.6277
ཟེར་ན་	-10.6279
གྲུ	-10.6279
མངོན་པར་བསྟོད་	-10.6279
ཁྲིམས་ཞིབ་ཁང་	-10.628
རྩིས་མེད་	-10.628
མི་འགྲོ་	-10.628
མྱ་ངན་མེད་	-10.6285
ཆེད	-10.6289
རྣམ་གྲོལ་	-10.6293
འཛམ་གླིང་ཁྱོན་དུ	-10.6294
▁ཚངས་པའི་	-10.6297
ནྟ	-10.6297
བདུན་ཅུ་	-10.6298
▁ཡིན་ནའང་	-10.6298
སྲེད་	-10.6298
འགོག་པ	-10.63
སྨྲས་ཏེ་	-10.6302
ལུས་ཀྱིས་	-10.6302
▁ཀུན་འབྱུང་བ་དང་	-10.6303
མངོན་པར་དགའ་བ	-10.6305
སྣང་བ	-10.6305
ལོ་རྒྱུས་ནང་	-10.6308
བཤད་དོ་་	-10.631
དེ་དག་ཏུ་	-10.631
རང་དབང་གི་	-10.6311
རྒྱལ་ཁབ་ཁག་གི་	-10.6312
ཕྲད་	-10.6314
མང་ཤོས་	-10.6315
འི་བར་གྱི་	-10.6316
བྱང་ཨ་རི་	-10.6316
དགེ་སློང་རྣམས་	-10.6318
་སི་	-10.6324
ལྷན་དུ་	-10.6324
ཁྱོན་བསྡོམས་	-10.6324
ལུས་སེམས་	-10.6325
མ་ལུས་པར་	-10.6325
▁ལྷ་ཡི་	-10.6326
འབྲེལ་བ་ཡོད་པ་	-10.6326
གཞིར་	-10.6327
མིའམ་ཅི་	-10.6329
སྒང་ལ་	-10.6331
སིལ་	-10.6331
འགུལ་	-10.6332
▁གསར་འགོད་པ	-10.6332
▁གཞི་རྩའི་	-10.6332
བསྟན་པར་བྱའོ་་	-10.6333
▁ལྷའི་བུ་དག་	-10.6334
སློབ་འཁྲིད་	-10.6334
དགུང་གྲངས་ཕེབས་	-10.6337
རྩ་དོན་	-10.6338
བཙན་འཛུལ་	-10.6339
སྲིན་མོ་	-10.6339
བསྐལ་པར་ལན་གསུང་	-10.634
་ཟབ་མོ་འདི་	-10.634
བཙོན་འཇུག་བྱས་	-10.6341
ཚོགས་ཆེན་ཐོག་	-10.6345
▁དེས་ཀྱང་	-10.6345
ཤོ	-10.6345
ཕྱིར་རྒོལ་བར་	-10.6347
རིག་གཞུང་གི་	-10.6348
བརྒྱ་སྟོང་མང་པོ་	-10.635
བརྟགས་	-10.635
▁བོད་མི་རྣམས་	-10.6354
ཕྱོགས་བཅུར་	-10.6354
རྡོ་རྗེས་བཅོམ་ནས	-10.6355
སྡུག་སྦྱོང་	-10.6356
དེ་ལྟ་དེ་ལྟར་	-10.6356
རླངས་འཁོར་	-10.6356
སྔ་རྗེས་	-10.6357
མཐོ་སློབ་ཏུ་	-10.6357
ཞིག་ཡིན་ཞིང་	-10.6357
རྨ	-10.6358
ཀུན་སློང་	-10.6361
བ་ཡིན་ན་	-10.6361
ཉར་	-10.6362
སྐོར་གོ་རྟོགས་	-10.6363
མཛད་རིམ་	-10.6364
རྣམ་པར་མི་རྟོག་པ	-10.6366
ལ་གནོད་	-10.6367
སྡེ་དཔོན་	-10.6367
སྙམ་པའི་	-10.6367
ལུས་མེར་བསྲེགས་	-10.6369
རོགས་རམ་གནང་	-10.637
རྩ་བའི་	-10.637
མངོན་པར་བསྒྲུབས་	-10.6372
འི་སྒྲ་	-10.6373
ཐོས་པར་	-10.6373
དབུགས་འབྱིན་	-10.6373
་འཛུགས་ཀྱི་སྲིད་	-10.6374
ཨ་རིའི་ནང་	-10.6375
གཞིར་བཞག་	-10.6376
མེད་པའི་བར་དག་	-10.6376
ཟུང་ཤིག་	-10.6378
ྟ	-10.638
ཚད་མ	-10.6381
▁དགེ་བ་	-10.6387
སྲིད་དོན་ཚོགས་མི	-10.6388
སོ་སོའི་སྐྱེ་བོ	-10.6389
རྗེས་སུ་འཐུན་པ	-10.639
ས་གནས་བོད་མི་	-10.639
བགྲོ་གླེང་གནང་	-10.6393
ས་ཚོགས་འཐུས་མི་	-10.6395
▁དེ་བཞིན་དུ་མིག་	-10.6396
སྨོན་པ་མེད་	-10.6397
ཅརྱ་ཡེ་ཤེས	-10.6399
རྣམས་ཀྱི་དོན་བྱ	-10.6399
རྒྱལ་ས་ལྡི་ལིར་ར	-10.6399
སྐྱབས་བཅོལ་བ་	-10.64
ཐུགས་བསྐྱེད་	-10.6402
མ་སྐྱེས་པ་	-10.6402
འོད་དཔག་མེད་	-10.6407
བདེན་པའི་ཚིག་	-10.6407
སྙམ་དུ་མི་སེམས་	-10.6409
ལྷག་ཙམ་	-10.6409
ལེགས་པར་བརྒྱན་པ་	-10.6411
▁པ	-10.6412
འཁྲི	-10.6414
གྲག་	-10.6415
སྣའི་རྣམ་པར་	-10.6415
འདུག་པར་	-10.6416
ཀྱི་སྒོ་ནས་	-10.6416
གདོང་ལེན་	-10.6418
ས་སྒོ་ངའི་སྦུབས་	-10.6418
ཏུ་གྱུར་པ་	-10.6419
ཟབ་མོ་འདི་ལ་	-10.642
འཁོད་པའི་	-10.6423
བསྒོ་བ་	-10.6426
ཐམས་ཅད་དུ་ཡང་	-10.6427
ངེད་	-10.6427
ཀྱི་ཕྱིར་དང་་	-10.6431
བསམ་གཏན་བཞི་དང་་	-10.6432
▁བོད་རིགས་	-10.6433
སྣང་ངོ་་་	-10.6435
ཐུན་	-10.6435
འདིས་ན་བདག་	-10.6435
འགྲུལ་བཞུད་	-10.6438
ཧུར་ཐག་	-10.6438
ལས་ཁུངས་ཁག་གི་	-10.6439
ཕྱག་འཁྱེར་	-10.644
བ་ཞིག་	-10.6444
འཇིགས་པ་མེད་པ	-10.6445
མི་རྣམས་ལ་	-10.6446
ནི་མ་ཡིན་ནོ་་	-10.6447
དེ་སྲིད་	-10.6447
སྟོན་པས་	-10.6447
མཚོན་ནའང་	-10.6449
ར་འགྱུར་བ	-10.645
ཁྲིམས་ཐག་བཅད་	-10.645
ལས་གྲུབ་པའི་	-10.6451
ཅིག	-10.6452
བྱིན་ཏེ་	-10.6454
བྱས་པར་བརྟེན་	-10.6454
ཞིག་སྤེལ་	-10.6455
ལས་ཁུངས	-10.6455
སྤོང་བ	-10.6456
བཙུན་པ་ཤ་རིའི་བུ	-10.6457
་དེ་དག་ཀྱང་	-10.6457
མིའི་ལྷན་སྐྱེས་	-10.6458
ས་ཤིང་མུན་པ་བསལ་	-10.646
འཁོར་བཞི་པོ་	-10.646
བསྟན་ལ་	-10.6461
པའི་སྐུའི་འཁྲ	-10.6461
ཡིད་མི་བདེ་བ	-10.6462
ཏོ	-10.6464
ཕུགས་	-10.6465
ཤེས་ཡོན་དང་	-10.6465
བརྗོད་པར་	-10.6467
ཡིན་ནའང་རེད	-10.6468
བྱེད་ན་	-10.647
ཀྱི་བརྙན་འཕྲིན་	-10.6472
བགྲང་	-10.6474
སྤྱོད་ཅིང་	-10.6475
་ལ་སོགས་པ་	-10.6477
མུ་མཐུད་ནས་	-10.6478
སེམས་ཅན་དེ་དག་ལ་	-10.6481
▁དེའི་བཙས་སྟོན་	-10.6481
ཚོགས་གཙོ་མཆོག་	-10.6482
ལྷག་པའི་	-10.6483
▁དེ་ཡང་ཕྱི་ལོ་	-10.6485
ཕལ་ཆེ་བ་	-10.6488
ལོངས་སྤྱོད་ཆེ་བ་	-10.6489
▁རྒྱ	-10.649
ས་པ་དེ་དང་དེར་	-10.6493
སེར་པོ་	-10.6493
གཟི་	-10.6494
ཞེས་བྱས་ནས་	-10.6494
རིང་བ་	-10.6496
▁འབྲེལ་ཡོད་	-10.6499
འི་ཕོ་བྲང་འཁོར་	-10.6503
སྦྲང་	-10.6504
དབུ་འཛུགས་ཀྱིས་	-10.6506
གསུམ་གྱི་བར་དུ་	-10.6507
▁དེ་སྐད་ཅེས་	-10.6508
གཤམ་གསལ	-10.6509
ཅི་ལྟར་	-10.6509
ལྟུང་	-10.6511
སྤེལ་བཞིན་ཡོད	-10.6513
གནང་གལ	-10.6514
བསྟན་པ་བཞིན་ནོ་་	-10.6515
གསོལ་སྟོན་	-10.6516
གསལ་བཤད་གནང་	-10.6517
བོད་རྒྱལ་ཁབ་	-10.6518
སྐྱེ་གནས་	-10.6519
བྱ་དགོས་	-10.652
རྫུན་	-10.6521
བློ་གྲོས་དང་་	-10.6521
ཅན་་	-10.6521
བདག་མེད་པའི་	-10.6521
ན་དུ་	-10.6523
གལ་ཆེན་པོ་ཡིན་པ་	-10.6524
ཡག་པོ་ཞིག་	-10.6525
ལྟ་སྐྱོང་	-10.6526
མེད་སྟབས	-10.6527
ཡོད་པ་ལྟར	-10.653
▁ལྷ་དག་	-10.653
ཤེས་ཡོན་ཐོག་	-10.6532
་ཁམས་གསུམ་པའི་	-10.6534
གཏོང་གི་ཡོད	-10.6535
བཏོན་པའི་	-10.6536
ཁྱིམ་ཐབ་	-10.6539
གསོ	-10.654
པར་བྱེད་ཅིང་་	-10.6542
ཀོང་	-10.6543
ཉེ་བར་གནས་པ་	-10.6543
ཚིགས་སུ་བཅད་པ་འད	-10.6544
དོན་གཉེར་	-10.6545
བྱས་པར་	-10.6545
རྒོད་	-10.6546
▁སྟོང་པ་ཉིད་	-10.6548
ནད་ཀྱིས་	-10.6549
ཕེབས་འབྱོར་གནང་	-10.655
ཁང་ནས་	-10.6556
བཙུགས་པ་	-10.6558
རིམས་ཀྱི་	-10.6558
ངྒ་	-10.6561
ཉམ་ང་བ་ཉུང་ངམ་	-10.6564
་ནམ་མཁའི་སྙིང་པོ	-10.6566
གངས་ཅན་	-10.6567
གཟེངས་སུ་ཐོན་པ	-10.6567
གསོད་ཁྲག་སྦྱོར་	-10.6567
ཧུར་བརྩོན་	-10.6567
སྔ་དྲོ་ཤམ་ཐབས་	-10.6567
ཤི་བའི་འོག་ཏུ་	-10.6568
ཕྱིན་ཏེ་	-10.657
ནང་མཉམ་ཞུགས་	-10.6574
འོས་འདེམས་བྱས་པ	-10.6574
བླུགས་	-10.6575
འཇིག་རྟེན་ལ་	-10.6576
ཕྱོགས་སྒྲིག་	-10.6577
རི་མོར་	-10.6577
འདུག་གོ་	-10.6577
འཆང་བ་	-10.6578
ཊར་	-10.6578
མཉན་དུ་ཡོད་པར་	-10.6578
བོད་ཡིག་ནང་	-10.6579
་བར་	-10.6579
རྒྱ་མིས་	-10.6582
དཔེ་མཛོད་ཁང་གི་	-10.6583
བརྒྱ་བྱིན་དང་་	-10.6583
སྟོབས་ལྡན་	-10.6585
ཡེ་ཤེས་གཟིགས་པ་	-10.6585
བ་རྣམས་ལ་	-10.6587
བཀའ་ལན་སྩལ་	-10.6588
རང་གི་ལུས་	-10.6589
པོ་་	-10.6589
རྩ་བ་ནས་མེད	-10.6589
ཏིང་འཛིན་མཆོག་	-10.6592
ཆབ་སྲིད་དང་	-10.6594
མཇུག་སྡོམ་	-10.6595
ལྷག་པའི་བསམ་པས་	-10.6595
རྣམས་དང་་་	-10.6598
ཉེ་བར་ལེན་པ	-10.6599
ཀྱང་མི་གནས་པར་	-10.6602
སྤོབས་པ་ཟད་མི་	-10.6603
▁རིམ་བཞིན་	-10.6605
འགོར་	-10.6606
མཐོང་བའི་	-10.6606
སྦྱིན་པར་བྱེད་པ་	-10.6607
སྟེང་གི་	-10.6607
དུས་དྲན་ཐེངས་	-10.6609
▁བཙུན་པ་བདག་	-10.6613
མེད་སྟབས་	-10.6613
བཞག་པའི་	-10.6615
ཡུད་ཙམ་	-10.6616
ཁྱེའུ་གཟུགས་བཟང་	-10.6617
གི་མཐར་ཐུག་པ་	-10.6618
མི་སྣང་	-10.662
ཚབས་ཆེན་	-10.6621
ལ་འཚམས་འདྲི་	-10.6621
འོད་སྲུང་དང་	-10.6623
སྐབས་རེ་	-10.6628
སྨྲའོ་་	-10.6629
ེའུ་	-10.6631
▁དགེ་རྒན་	-10.6636
ཆོས་བཞིན་དུ་	-10.6638
ཡང་རུང་སྟེ་	-10.6639
ུས་ན་དྲང་སྲོང་	-10.664
རིང་པོ་	-10.6641
མ་དང་	-10.6643
སྣེ་ཁྲིད་	-10.6645
འདྲ་མིན་གྱི་	-10.6646
བཞིན་པ་དེར་	-10.6647
ར་བྱ་བསྙེན་པར་	-10.6649
▁རྒྱ་གར་གནའ་རབས་	-10.6653
སྩལ་བའི་	-10.6655
ཡོངས་སུ་དག་	-10.6655
རྒྱལ་ཁ་ཐོབ་	-10.6656
སེམས་ཅན་དེ་དག་གི	-10.6657
ཟས་སྦྱིན་	-10.6658
མ་ཆགས་	-10.6659
▁ཕྱོགས་བཅུའི་	-10.666
་ཤུགས་ཆེ་བཏོན་	-10.6662
ར་བྱ་་	-10.6663
ད་ཐེངས་	-10.6665
ཤ་ཟ་	-10.6665
་མེད་པར་གྲགས་པ་	-10.6665
བོར་ནས་	-10.6667
▁ཕྱི་ལོ་རྒྱ་གར་	-10.6667
ཐུབ་མཁན་	-10.6668
དང་བླངས་	-10.667
གང་ལས་	-10.6671
བྱམས་པ་དང་	-10.6673
འཁྲུག་པ་	-10.6674
སྲིད་པར་	-10.6675
མི་གཟུང་བར་	-10.668
རིག་པ	-10.668
བལ་ཡུལ་ནང་	-10.6681
བཞིན་ཡོད་སྟབས་	-10.6682
མྱ་ངན་ལས་འདའ་བ་	-10.6685
དྲི་བར་	-10.6693
▁ཁྱིམ་	-10.6696
འབྱོར་བ་	-10.6696
བཅོམ་ལྡན་འདས་འོ	-10.6697
ཆེན་པོ་མཆོག་ནས་	-10.6697
གཅིག་པོ་	-10.6698
ལ་ཕྱག་འཚལ་ལོ་	-10.6698
སྦྱིན་གནས་	-10.6698
སྤྲོས་	-10.6698
མ་དང་་	-10.6699
▁དེ་ཟླ་བ་དགུའམ་	-10.67
འཐོར་	-10.6701
སློབ་གྲྭ	-10.6702
སྐབས་དེའི་	-10.6703
▁བརྩོན་འགྲུས་	-10.6703
ལྷའི་མེ་ཏོག་	-10.6704
སྐར་དུས་ཆེན་	-10.6705
ལས་འགུལ་བ་	-10.6706
བཀོད་ཡོད	-10.6708
ནོར་འཁྲུལ་	-10.6708
ཐོབ་པས་	-10.671
ཚང་བ་	-10.671
གླང་པོ་ཆེའི་	-10.6711
འདོར་	-10.6712
ཟིལ་གྱིས་གནོན་པ	-10.6712
གཉིས་ཀ	-10.6714
ཁྱེའུ་འདིའི་མིང་	-10.6716
བོད་ནས་	-10.6717
ི་དག་བཀའ་སྩལ་ཏོ་	-10.6718
ཐང་གི་གནས་སྟངས	-10.6721
ཡོ་	-10.6722
གཏད་	-10.6724
གོ་སྒྲིག་ཞུས་	-10.6724
མཐོ་རིས་	-10.6726
སྦེང་ལོར་	-10.6728
གང་པོ་	-10.6729
▁ང་རྒྱལ་	-10.6731
ཕྱག་འཚལ་ལོ་་	-10.6733
གནང་བ་ལྟར	-10.6738
གདུག་རྩུབ་ཅན་	-10.674
▁ས་གནས་འགོ་འཛིན་	-10.6742
ཁྲིམས་ཞིབ་པ་གཞན་	-10.6743
ཐེམ་སྤང་བཀའ་རྒྱ་	-10.6744
ལེགས་སྦྱར་སྐད་	-10.6745
པོ་དང་	-10.6746
བསྡད་ཡོད	-10.6748
བྱེད་དོ་	-10.6751
ངག་གི་	-10.6751
ཡུ་རོབ་རྒྱལ་ཁབ་	-10.6752
མི་མངའ་་	-10.6755
ལས་ཡང་དག་པར་འདའ་	-10.6757
བཀའ་དྲིན་ཆེ་	-10.6765
གཟབ་རྒྱས་ཞུས་	-10.6765
དེར་ཡང་	-10.6766
གྲངས་གཉིས་རིང་	-10.6769
འདྲ་བའི་སེམས་	-10.6769
ཤིས་	-10.677
དུད་འགྲོ་	-10.6771
བ་དན་	-10.6777
ཡོད་པ་ལྟར་	-10.6778
་ལྟར་	-10.6782
ྒྱལ་པོའི་ཕོ་བྲང་	-10.6782
བྱུང་ཚེ་	-10.6783
ི་ལྗོངས་ཡར་རྒྱས་	-10.6785
ཅིང་རྗེད་པ་དང་	-10.6785
ལྷག་བསམ་རྣམ་དག་	-10.6786
པ་དང	-10.6786
ལོ་བཅུ་ལོན་པ	-10.6787
ཉེན་རྟོག་	-10.6789
མོན་གྷོ	-10.6789
བསུ	-10.6791
སེར་སྐྱ་མང་ཚོགས་	-10.6793
ཆོས་ཚོགས་ཐེངས་	-10.6794
ཕྱོགས་བཞིར་	-10.6794
རྗོད་པར་བྱེད་	-10.6797
འཐུས་མི	-10.6799
རྒྱགས་པ་	-10.68
▁ཅི་ནས་ཀྱང་	-10.6806
ཚུར་ཤོག་ཅེས་བྱ་བ	-10.6806
སྟོང་པ་ཉིད་ཀྱང་	-10.6807
ཀྱི་སྐུ་ཚབ་	-10.6808
སྐྱ་	-10.6808
བཅུག་ནས་	-10.6811
སྐུ་མགྲོན་རྣམས་	-10.6813
ཉི་ཤུ	-10.6816
མངོན་པར་ཤེས་པས་	-10.6817
མི་དགོས་པར་	-10.6818
མཐོང་བས་	-10.6819
ཕུན་ཚོགས་ལགས་	-10.6819
བསྐྱོན་	-10.6819
བཀག་སྡོམ་	-10.682
དམ་པ་དེ་ཉིད་	-10.6821
▁སླར་ཡང་	-10.6821
▁རྒྱལ་	-10.6823
དཔྱད་པ་	-10.6828
རང་དབང་དང་	-10.6831
སྐལ་བ་	-10.6832
རྒྱ་གར་ལ་	-10.6832
སྣ་མང་	-10.6833
ཕྱོགས་གཞན་ཞིག་	-10.6833
སྐོར་གླེང་སློང་	-10.6834
▁ཁྱེད་ཚོས་	-10.6836
་དེ་བཞིན་	-10.6836
ཆེ་་	-10.6837
འཐབ་རྩོད་ཐོག་	-10.6838
ཤི་བ་	-10.6838
ཟག་པ་	-10.6839
ཐེག་	-10.684
སྟོབས་དང་ལྡན་པ	-10.684
བོད་ནང་གི་འགྲོ་བ	-10.6842
་ན་བདག་	-10.6843
▁དབུས་	-10.6843
འི་སྣོད་	-10.6844
ཕུན་སུམ་ཚོགས་	-10.6845
དཀའ་ངལ་སེལ་	-10.6845
དེ་གཉིས་ལ་	-10.6846
མྱ་ངན་འདས་པ་	-10.6846
སྲུང་བ་	-10.6847
སྣུམ་	-10.6849
སོག་པོ་	-10.6851
རྒྱན་གྱིས་བརྒྱན་	-10.6853
ལྟ་ཞིང་	-10.6854
རང་བཞིན་ཅན་	-10.6855
གཅིག་གྱུར་གྱི་	-10.6856
ནོ	-10.6859
ཉིན་རེའི་	-10.6862
བཛྲ་	-10.6862
བཏོན་པ་	-10.6863
འི་ཚུལ་གྱིས་	-10.6865
མ་མཆིས་པ་ལགས་	-10.6866
གཏོང་བཞིན་ཡོད	-10.6866
སྡུད་	-10.6866
རྣམས་ལ་ནི་	-10.6866
བདམས་ཐོན་བྱུང་བ	-10.6868
ཐད་དུ་	-10.6868
ཚོགས་ཀྱིས་	-10.6869
མ་ཡིན་ནམ་	-10.687
ཁག་པོ་རེད	-10.687
དང་མཉམ་པ་	-10.6872
འབྱུང་ཞིང་	-10.6874
▁གྲོགས་པོ་	-10.6875
གཤེགས་ཏེ་	-10.6884
བསྐོར་ཏེ་	-10.6886
པའི་ཕྱིར་རོ་	-10.6889
▁སྐད་ཡིག	-10.6891
རིག་པ་དང་་	-10.6891
རང་སྐྱོང་ར	-10.6892
བསལ་བ	-10.6896
ནས་ལོ་ངོ་	-10.6897
དབུ་བརྙེས་ནས་ལོ་	-10.6898
སྔགས་ཀྱི་	-10.6899
ར་གྱུར་པ་དང་་	-10.69
གཞིས་ཆགས	-10.6901
རྣམ་པར་གྲོལ་བ	-10.6902
ཟུང་འབྲེལ་ཐོག་	-10.6903
ངོས་འཛིན་གནང་	-10.6904
དགོས་པའི་སྐོར་	-10.6905
རྙིང་པ་	-10.6908
ཤེས་རིག་བ	-10.6909
སོང་བ་ལས་	-10.691
རྡོ་རྗེ་ལགས་	-10.6913
བཀའ་སློབ་སྩལ་བ་	-10.6914
ཁྱིམ་ནས་ཁྱིམ་	-10.6915
འི་རྒྱལ་ཚབ་	-10.6916
བགྱི་་	-10.6916
ཞེས་བྱ་	-10.6917
ཚོགས་གཙོ	-10.6917
་སིངྒ་	-10.6919
མཉན་	-10.692
ཆོས་ཕྱོགས་	-10.692
བི་	-10.6922
▁ཀླུ་	-10.6922
གཟུགས་ཅན་	-10.6924
ད་སྲུང་ཞེས་བྱ་བ་	-10.6925
ཡོད་ལ་	-10.6925
བྱ་རྒྱུ་དེ་	-10.6925
ཁང་གི་ལས་བྱེད་	-10.6927
བར་འགྱུར་རོ་	-10.6928
གཅིག་མཚུངས་རེད	-10.6929
རྟོགས་ནས་	-10.693
▁ཆོས་རྣམས་ཀྱི་	-10.6932
ཆུང་མ་ལ་བུ་ཆགས་	-10.6932
ལས་ཁུངས་ཁག་	-10.6933
དམའ་བ	-10.6934
ཆོས་ཟབ་མོ་	-10.6937
ཚོགས་པ	-10.6938
ཨོ་སི་ཊོ་ལི་ཡའི་	-10.6942
▁མ་འོངས་པའི་	-10.6943
དྲ་རྒྱ་	-10.6943
ར་མི་འགྱུར་བ་	-10.6946
རང་དབང་འཐབ་རྩོད་	-10.6947
མཐོ་སློབ་ཁང་གི་	-10.6948
དེར་བརྟེན་ང་ཚོས་	-10.6956
ཉོ་	-10.6959
དག་སྣང་	-10.6959
ལྟར་་	-10.6959
སྦྱིན་པ་དང་་	-10.6961
གཏོང་ཐབས་	-10.6964
མི་འདོད་པ་	-10.6967
ར་བྱ་བའི་དོན་དུ་	-10.6968
ཀའ་བློན་པདྨ་དབྱང	-10.6968
གསོ་རིག་	-10.6969
མི་ཆོག	-10.697
དྲུག་པོ་	-10.697
ར་མཚོན་ན་	-10.6971
ེར་	-10.6973
གཞས་སྣ་	-10.6975
མཚན་ཉིད་མེད་པའི་	-10.6979
སྤྱོད་དང་	-10.6982
བོད་ཕྱི་ནང་གཉིས་	-10.6983
སྦྱར་བ་	-10.6985
▁བསྐལ་པ་བྱེ་བ་	-10.6986
འདུ་བྱེད་ཐམས་ཅད་	-10.699
དམའ་	-10.6991
་མ	-10.6992
ཐེབས་རྩ་ཁང་	-10.6992
སེལ་བ་	-10.6998
ལོངས་	-10.6999
ཡོངས་སུ་མི་སྐྱོ་	-10.7
མངལ་	-10.7
བཀའ་བློན་རྣམ་པ	-10.7002
གནས་ཡོད	-10.7004
བསྐྱོད་པ་ཡང་ངམ་	-10.7007
རྐྱང་རྐྱང་	-10.7007
ངག་དབང་ཐོགས་མེད་	-10.7007
ལྟུང་བའི་རྩ་བ་	-10.7007
ཕྱིན་ཅད་	-10.7008
▁འཇིག་རྟེན་གྱི་	-10.7008
ས་ཤིང་དོན་	-10.7008
རབ་རྒྱས་གླིང་	-10.7008
དར་སྤེལ་	-10.7008
དར་འཕེལ་	-10.7012
སུམ་ཅུ་རྩ་བདུན་	-10.7012
▁དེ་བཞིན་རྒྱ་གར་	-10.7013
སྙམ་དུ་བསམས་ནས་	-10.7014
མཇལ་ཁ་	-10.7015
ཐུབ་རྒྱུ་	-10.7016
འི་བར་དུ་ཡང་	-10.7016
མ་ནིང་	-10.7018
གཙུག་རྒྱན་	-10.7018
བ་ནི་	-10.702
རྒྱ་གར་བྱང་ཤར་	-10.702
ཞིག་སྟེ་	-10.7022
ཆོག་པ་	-10.7022
འགྲོ་བ་ལྔ	-10.7023
འཇམ་ཞིང་	-10.7024
ཨ་རིའི་བོད་དོན་	-10.7026
ཡོང་བ་ཞུ	-10.7029
ཚིམ་པ	-10.703
དྲི་མ་དང་བྲལ་བ་	-10.7032
ལོ་སྟོང་ཕྲག་	-10.7033
བོད་མི་རྣམས་ཀྱི་	-10.7037
གཏུམ་	-10.7041
བཞི་པོ་དེ་དག་	-10.7042
ཨུད་པ་ལ་	-10.7043
བི	-10.7044
བཅས་ཀྱི་སྐོར་	-10.7045
སྟོན་ཏོ་	-10.7047
གདུག་པ་	-10.7052
མཛད་་	-10.7053
འདོགས་	-10.7054
ད་ལྟར་འབའ་ཞིག་	-10.7055
གོ་ལའི་	-10.7056
འི་སྡུག་བསྔལ་	-10.7058
བླ་བྲང་	-10.7058
ཟེར་དུས་	-10.7059
▁སློབ་དཔོན་	-10.706
ཕག	-10.706
ནང་པའི་གཞུང་	-10.7062
ནོར་བུ་ལགས་ཀྱིས་	-10.7063
▁ཚངས་པ་	-10.7064
མཆོགདེ་བཞིན་	-10.7065
བདེ་སྐྱིད་གླིང་	-10.7066
བསྐོར་ཅིང་	-10.7066
སློབ་ཕྲུག་དང་	-10.707
བསྔགས་པ་བརྗོད་	-10.7071
སྐྱོང་མཆོག་ལ་	-10.7072
པ་ཞེས་བྱ་བའི་	-10.7074
▁དེ་དེ་ལྟར་	-10.7077
ལ་གདོང་ལེན་	-10.7078
སྟོང་པ་ཉིད་དུ་	-10.7079
ཡུན་རིང་པོར་	-10.7079
དགོས་པ་དེ་	-10.7084
ལྷག་པའི་ང་རྒྱལ་	-10.7085
ེས་	-10.7087
སོ་སོའི་ནང་	-10.7088
ཕའི་	-10.7088
ྒྱལ་རིགས་སྤྱི་བོ	-10.7089
ཧུ	-10.709
བྱུང་བ	-10.7091
སློབ་སྟོན་	-10.7092
ཚིགས་བཅད་	-10.7092
དོ་དམ་	-10.7092
▁ལུས་ཀྱི་	-10.7093
ལོ་ལྔ་	-10.7093
གདུལ་བར་བྱ་བ	-10.7095
་མ་ཟད	-10.7096
སློབ་སྤྱི་	-10.7097
པར་སྐྲུན་	-10.7098
ཕྱིན་པའི་	-10.7098
ཡར་རྒྱས་ཀྱི་	-10.7099
ཕེབས་པའི་སྐུའི་	-10.71
ཀྱི་མེད	-10.7101
་དེས་ནི་	-10.7101
ི་ཏ་	-10.7103
སྐོར་སོགས་	-10.7103
དྲི་བ	-10.7104
ཞབས་འདེགས་སྒྲུབ་	-10.7105
མི་གནས་སོ་་	-10.7107
་དགེ་ཚུལ་	-10.7107
ཤེས་རབ་སྙིང་པོ་	-10.7109
གྲངས་ཐོ་	-10.7111
▁དྲན་པ་	-10.7111
མང་པོ་ཡོད	-10.7115
ལུག	-10.7115
ལྡ	-10.7117
འཚེ་མེད་ཞི་བ	-10.7118
ཕན་ཐོགས་ཧ་ཅང་	-10.7119
མཆོག་ནི་	-10.7119
དགའ་བསུའི་	-10.7123
འི་མཚན་	-10.7124
ཚོགས་རྣམས་	-10.7125
ས་ཤིང་	-10.7125
འདུད་	-10.7126
་ལྟར་ན	-10.7128
གྲོས་བསྡུར་	-10.713
▁འགྲོ་བའི་	-10.7131
ཁག་གཅིག་དང་	-10.7132
་ཕུན་ཚོགས་མཆོག་	-10.7133
ཧན་	-10.7134
ལྷག་པ་ཚེ་རིང་	-10.7135
ལྟ་བར་	-10.7139
་ཏི་	-10.7141
མཆུ་	-10.7142
ཐམས་ཅད་བསྡུས་པ	-10.7144
འགོ་ཁྲིད་ཚོས་	-10.7147
འདུས་ཏེ་རེག་པའི་	-10.7147
དགོས་པ་སོགས་	-10.7147
རྗེ	-10.7147
པ་དེ་དག་ཐམས་ཅད་	-10.715
ཁྱེར་ནས་	-10.7151
སེམས་པ་བཟང་པོ་	-10.7151
དམ་དྲག་	-10.7152
འཇིག་རྟེན་མགོན་	-10.7155
འབྲུ	-10.7159
དཔལ་ལྡན་བཀའ་ཤག་	-10.716
བོད་ལུགས་	-10.7161
པ་གང་ཞེ་ན་	-10.7162
གང་གིས་ཀྱང་	-10.7163
མ་ལགས་་	-10.7163
ཅོད་པན་	-10.7165
བཅར་འདྲི་	-10.7165
ལྟ་བ	-10.7167
འོ་་འདི་ནི་	-10.7167
ཀྱང་མི་	-10.7173
ཨུ་རུ་སུ་	-10.7176
ཤེས་པ་དེ་	-10.7177
དབུལ་	-10.7177
སྐྱེད་སྲིང་	-10.7178
དགོན་པའི་ནང་	-10.7179
ལ་སོགས་པས་	-10.7179
སྒྲུབ་པའི་	-10.7179
ཁྱད་ལས་	-10.718
ཡུལ་གྲུ་ཁག་ཏུ་	-10.7181
ལྷ་མོ་སྒྱུ་འཕྲུ	-10.7181
ས་གནས་གང་དུ་	-10.7183
འོག་གི་	-10.7184
དར་རྒྱས་	-10.7184
དེ་ཉིད་ལ་	-10.7185
ལྔ་བརྒྱ་ཙམ་	-10.7186
ལྡང་བ་	-10.7188
སྤྱི་དང་ལྷག་པར་	-10.719
ལ་ཞུས་པ་	-10.7191
་ཊ	-10.7191
ཁོང་ཁྲོ་	-10.7191
▁དེ་རིང་གི་	-10.7192
མཆོད་པར་	-10.7192
དུ་མའི་	-10.7193
འབར་བ	-10.7193
དགོས་གལ	-10.7199
གསར་འགོད་པའི་	-10.72
སྐུ་དབང་	-10.72
ཐམས་ཅད་ཡང་དག་པར་	-10.7203
ཐོས་མ་ཐག་ཏུ་	-10.7205
▁རབ་འབྱོར་འདི་	-10.7206
དྷ	-10.7207
ཡུ་རོབ་གྲོས་ཚོགས	-10.7208
དབང་བསྐུར་	-10.7211
སྦར་སིལ་	-10.7212
མ་ཡིན་ཞིང་་	-10.7212
ཐོབ་པར་གྱུར་ཏོ་་	-10.722
བོད་མཐོ་སྒང་	-10.722
ཕྲིན་ལས་	-10.722
▁བལ་ཡུལ་	-10.7222
ཉི་ཟླ་	-10.7222
གཏོང་རྒྱུའི་	-10.7222
ལག་མཐིལ་	-10.7223
བར་མཉམ་པ་	-10.7223
ཡིན་པའི་ངོས་ནས་	-10.7229
མྱོས་	-10.7229
དོན་དུ་གཉེར་བ་	-10.723
ཕུང་པོ་ཆེན་པོ་	-10.723
རྒྱ་གར་དབུས་སའི་	-10.7231
མེད་ཕྱི་རོལ་ན	-10.7234
གྲུལ་བུམ་	-10.7234
སྲིད་བྱུས་དེ་	-10.7234
སྲིད་བྱུས་ཀྱི་	-10.7235
གནང་བར་བརྟེན་	-10.7235
ཆགས་སྡང་	-10.7236
ར་སྤྲོད་	-10.7236
་ཞིང་བདག་ཉིད་	-10.7237
བུ་ཕྲུག་	-10.7238
ོད་	-10.7239
རྣམ་པར་དག་པའི་	-10.724
མི་བགྱིད་	-10.724
འདི་ལྟ་བུ་ཞིག་	-10.7241
སྐུ་ཉིད་མཆོག་	-10.7242
བྲལ་བ་རྣམས་ཡིན་	-10.7243
མདོ་སྨད་	-10.7243
སྣུམ་འཁོར་	-10.7243
གཞིས་ཆགས་དང་	-10.7246
བྱེད་བབ་	-10.7247
གདོད་	-10.7249
འཕྲལ་མར་	-10.7249
བཟླས་	-10.7249
དགོས་ཀྱི་	-10.725
མཉམ་རུབ་ཀྱིས་	-10.725
ཟློས་གར་ཚོགས་པས་	-10.7252
མི་འ	-10.7253
གསུང་གི་ཡོད	-10.7256
ཚོགས་འདུར་	-10.7259
་ཞེས་བརྗོད་པ་དང་	-10.7261
་བླ་ན་མེད་པ་ཡང་	-10.7261
བཟོས་པ་	-10.7261
དབང་ཕྱུག་ཆེན་པོ་	-10.7261
མཁན་པོ་དང་	-10.7264
ཁ་བྲལ་	-10.7265
མང་མོས་	-10.7266
མདོར་བསྡུས་	-10.7266
སློབ་ཕྲུག་རྣམས་ལ	-10.7267
ཡོངས་སུ་སྔོ་བ	-10.7273
སྡེ་ཚན་ཁག་གི་	-10.7275
དགྲ་བཅོམ་	-10.7276
▁ཁམས་གསུམ་	-10.7278
སྐྱེ་མཆེད་དང་་	-10.7279
ཐུན་མོང་ནས་	-10.728
ཐང་ལ་	-10.7282
གནས་ཡུལ་	-10.7282
ཡང་སྤྲུལ་	-10.7282
ད་ལྟར་གྱི་	-10.7284
ཡག་ཤོས་	-10.7285
ལྷན་ཅིག་	-10.7287
བྱེ་བ་ཕྲག་བརྒྱ་	-10.7287
ཅིག་ཤོས་	-10.7289
མགྲོན་ཁང་	-10.7294
▁བདག་ཅག་ནི་	-10.7295
ཡོད་པ་དེར་	-10.7296
ཚད་མའི་གཞུང་	-10.7301
རང་ཁྱིམ་དུ་	-10.7303
ངས་པ་ལྟ་བུར་	-10.7305
བརྟེན་ནས་	-10.7306
རྒྱུད་གཅིག་	-10.7306
▁བདག་གིས་ཀྱང་	-10.7307
དོན་ཁང་	-10.7309
ས་འདི་	-10.7309
མདོ་འདི་	-10.7309
པར་རིག་པར་བྱའོ་་	-10.7312
བསྟར་	-10.7314
མཐོ་ཤོས་	-10.7314
བལྟས་ན་	-10.7315
གཞིས་ཆགས་ཁག་ཏུ་	-10.7318
དེའི་གཟེངས་རྟགས་	-10.7318
བོད་མིས་	-10.7319
དང་་ཆོས་	-10.7321
ཤེས་པའོ་་	-10.7323
དབང་པོ་དང་་	-10.7325
བ་སྟེ་	-10.7325
ཡོད་སྐོར་གསུངས	-10.7329
ར་གྱུར་པ་ལ་	-10.733
པ་ལྟར	-10.7331
པེ་ཅིང་དུ་	-10.7332
འདིས་བདག་	-10.7334
ཅོ	-10.7335
སྐུ་ཉིད་	-10.7337
སེམས་ཅན་གྱི་ཁམས་	-10.7337
གཞུང་མང་	-10.7337
བར་བྱེད་་	-10.7338
མ་ཡིན་པས་	-10.734
གནས་དང་	-10.7341
བགོ་བཤའ་	-10.7341
གཞུང་མང་གཉིས་	-10.7343
གི་འགན་འཛིན་	-10.7343
མཐའ་གསལ་ཐབས་	-10.7343
ཁྲོ་	-10.7343
འི་རང་སྐྱོང་ཡོང་	-10.7345
དེ་ལྟ་བུ་དག་	-10.7345
ཇི་ལྟ་བ་	-10.7345
འཕར་མ་	-10.7346
འོན་ཏེ་	-10.7349
ཁྱེད་ཚོས་	-10.7352
མོས་པ་སྣ་ཚོགས་	-10.7353
ཡོད་པའི་ནང་ནས་	-10.7354
བསྡུར་	-10.7354
་པུར་	-10.7354
▁ཙན་དན་སྦ	-10.7356
བརྗོད་ཀྱི་འདུག	-10.7358
ཆ་ཤས་	-10.7359
འཇུ	-10.7359
རི་ཁྲོད་	-10.736
དོགས་པ་	-10.736
ཐབས་མེད	-10.7361
ཆོས་ཀྱི་སྦྱིན་པ་	-10.7361
ཡུན་རིང་པོ་ནས་	-10.7362
་རོ་དང་་རེག་	-10.7362
མུ	-10.7363
ནང་དོན་	-10.7363
གོངས་མཐའ་དག་	-10.7367
དབང་ཕྱུག་ལགས་	-10.7368
ུངས་སྐར་དུས་ཆེན་	-10.7369
གྱུར་པ་དེའི་ཚེ་	-10.737
འདི་ལྟ་བུར་	-10.737
བདག་དབང་	-10.7372
འཐོབ་བོ་	-10.7375
རྣམ་པ་དྲུག་ཏུ་	-10.7377
བཀྲམ་	-10.7379
པགས་པ་	-10.738
རྫོང་དཔོན་	-10.7384
འཐུན་	-10.7385
ཆེད་ཕེབས་གནང་ཡོད	-10.7385
མཐུས་	-10.7387
སྒྲ་འབྱིན་	-10.739
མི་བྱེད་དོ་་	-10.7391
སྲོ	-10.7392
ཙམ་ལས་	-10.7392
དམ	-10.7393
རྒྱལ་བས་	-10.7395
▁ཕུང་པོ་	-10.7395
ཐོན་པ་	-10.7396
ཕྱི་ལོ་ནས་བཟུང་	-10.7398
▁ཚོགས་འདུ་	-10.7398
བཟོས་ཡོད	-10.7399
དང་་ཡིད་མི་བདེ་བ	-10.7399
སྤྱི་འཐུས་ཀྱི་	-10.7399
གས་པ་	-10.7401
གན	-10.7401
ཡོད་པ་ཞིག་རེད	-10.7403
རྒྱ་གར་དང་	-10.7403
གླིང་དུ་	-10.7405
ཆགས་པ་རེད	-10.7406
སེར་སྐྱ་	-10.7409
▁སངས་རྒྱས་དང་	-10.7409
མཚུངས་པ་	-10.741
▁ལ་ལ་ནི་	-10.7412
མེ་ཏོག་གི་ཆར་	-10.7413
ཞོར་	-10.7414
རྣམ་པར་གྲོལ་	-10.7415
དམ་པ་དེ་ཉིད་ཀྱི་	-10.7415
དང་བོད་	-10.7416
གི་ནང་	-10.7416
དབྱུང་བ	-10.7417
གཟའ་	-10.7418
མུས་རེད	-10.7419
དགེ་སློང་དེ་	-10.742
རྡ	-10.7421
བལྟ་བར་	-10.7426
▁ལྷ་མོ་	-10.7426
་ཆོས་འདི་	-10.7426
ངས་ཀྱང་	-10.7431
་རྒྱལ་བ་	-10.7432
གཅེར་བུ་པ	-10.7432
▁བསྟན་འཛིན་	-10.7432
དགེ་བ་དང་མི་	-10.7433
བཀའ་སྩལ་པ་དང་་	-10.7435
མི་ཟད་པ་	-10.7435
ཙམ་དུ་ཟད་དོ་	-10.7436
ཁ་ན་མ་ཐོ་བ་	-10.7439
▁སྣང་བ་བྱ	-10.744
དབྱིག་	-10.744
སྤུངས་	-10.7441
རི་དགས་ཀྱི་	-10.7443
རྫིང་བུ་	-10.7445
འདྲེས་	-10.7446
མུན་	-10.7447
ཟླ་འདིའི་	-10.7448
དེ་བཞིན་གཤེགས་	-10.7448
དང་་་དེ་བཞིན་	-10.7451
ཐོགས་པ་མེད་པའི་	-10.7451
མ་འོངས་པ་དང་་	-10.7452
དེད་དཔོན་ཆེན་པོ་	-10.7455
ལེགས་སོ་ཞེས་	-10.7456
དུ་འགྱུར་	-10.7458
རྣམ་པར་བྱང་བ	-10.746
སྨྲ་་	-10.7461
དང་ལེན་	-10.7465
བཙུན་	-10.7465
རིང་པོར་མི་ཐོགས་	-10.7467
བརྒྱ་རྩ་བརྒྱད་	-10.7467
མ་ཡིན་པ་བཟློག་ལ་	-10.7467
▁རྒྱུ་གང་	-10.7467
བསྟུད་མར་	-10.7467
བརྒྱུད་གསུམ་ནས་	-10.7467
་གནས་སྦྱིན་པར་བྱ	-10.7467
དཔེར་ན་རྨི་ལམ་ན་	-10.7467
ཀྱིས་དགེ་སློང་	-10.7468
དེ་སྔའི་	-10.7471
འི་ཡེ་ཤེས་མཐོང་བ	-10.7473
ལུས་དང་སེམས་	-10.7475
རྒྱུ་མཚན་དུ་བྱས་	-10.7475
ས་བསམས་པ་	-10.7476
▁མངའ་སྡེའི་	-10.7476
ེའི་	-10.7476
ཟུང་འབྲེལ་	-10.7477
ཅི་དགོས་	-10.7478
ཡངས་པའི་	-10.7478
ཕུལ	-10.7478
འདྲའོ་་	-10.7479
ནོ་བེལ་ཞི་བ	-10.7479
ཉམས་བཞེས་	-10.7481
ཡང་ཇི་སྐད་	-10.7484
རྒྱལ་པོ་སྡོང་པོ	-10.7484
ལངས་ཏེ་	-10.7487
ན་དགེ་སློང་	-10.7488
་འཛུགས་ཕྱི་དྲིལ་	-10.7488
▁དཔའ་བོ་	-10.7488
ལེགས་པར་གྲུབ་	-10.7488
དུས་ཚིགས་	-10.7491
འཐུས་མི་རྣམ་པས་	-10.7492
རྣམ་པར་སྤྲོས་པ	-10.7494
ཉན་ཐོས་ཀྱི་དགེ་	-10.7494
རྡུལ་བྲལ་	-10.7497
པ་ཞེས་བྱ་བ་	-10.7499
ཏིང་འཛིན་འདི་ནི་	-10.7502
བདེན་དོན་	-10.7508
སྨྱོ	-10.7509
་མེད་པ་དང་་	-10.7512
ལུང་རྟོགས་	-10.7512
བསྡུས་པ་	-10.7517
ལྷན་ཚོགས་ཤིག་	-10.7518
ཉོ	-10.7522
སོང་བ་དང་་	-10.7524
ལེན་པ་མེད་པ	-10.7524
འབྲས་ལྗོངས་	-10.7524
རབ་དང་རིམ་པ་	-10.7526
དང་རྒྱབ་སྐྱོར་	-10.7528
▁ཡང་དག་	-10.7529
ལ་བརྩོན་པ	-10.7533
ས་ཁུལ་དུ་	-10.7535
སྨྲ	-10.7535
ཡན་ལག་བརྒྱད་	-10.7535
རོགས་ཞེས་	-10.7536
རྣམ་པར་རིག་པ་	-10.7538
གོམ་པ་	-10.754
རྩེད་	-10.7544
པ་མེད་	-10.7544
ཤྲི་	-10.7546
འདུགགཞན་ཡང་	-10.7548
འདི་དག་གི་	-10.7548
ཡིད་སྐྱོའི་	-10.755
སློབ་མའི་	-10.755
རྒྱལ་ཁ	-10.7551
ལ་མཁས་པ་དང་་	-10.7552
ཡིན་པའི་ཆ་ནས་	-10.7552
གདན་འདྲེན་ཞུས་	-10.7553
སྤེལ་ཡོད	-10.7554
རྣམ་པར་འཇིག་པ	-10.7554
ནས་ལོ་ངོ་བའི་	-10.7557
▁སྐད་ཡིག་སོགས་	-10.7557
བཞུགས་མོལ་	-10.7559
ཡིན་སྐོར་གསུངས	-10.7566
ཨི་ཊ་ལིའི་	-10.757
▁དམ་པ་ཁོང་གིས་	-10.7573
བདེན་མཐའ་གསལ་	-10.7573
རྒྱ་ནག་ཏུ་	-10.7573
གླེང་སློང་གནང་	-10.7574
ཐུབ་པ་ཡིན་ན	-10.7576
▁སུ་དག་	-10.7577
▁བཙན་བྱོལ་	-10.7579
ཤེས་པར་བྱ་བའི་	-10.758
ཀྱི་ལས་འགུལ་	-10.7581
་བྱམས་པས་	-10.7581
འཁུར་	-10.7584
རྒྱུའི་ཞལ་བཞེས་	-10.7584
ཟིལ་གྱིས་མནན་ནས་	-10.7585
མི་བྱ་་	-10.7587
འདོད་པ	-10.7588
▁ཆབ་སྲིད་	-10.7588
བཀའ་སློབ་སྩལ་ཡོད	-10.7589
ཆར་པ་	-10.7591
བཀའ་དྲུང་ཡིག་ཚང་	-10.7596
ཆོས་གང་ལ་ཡང་	-10.7604
རྫོགས་པར་བྱས་ཏེ་	-10.7607
མེད་པ་ཡིན་	-10.7607
འབད་བརྩོན་བྱེད་	-10.7608
རྣམས་ལ་དགེ་བའི་	-10.7608
བར་མི་འགྱུར་	-10.7609
པའི་གནས་ཚུལ་	-10.7611
གང་དག་ཡིན་པ་དེ་ད	-10.7611
བསླབ་གཞི་	-10.7612
མཁས་དབང་དང་	-10.7615
ིས་	-10.7618
གཉིས་པའི་	-10.7619
ཡོད་པ་འདི་	-10.7619
▁ཇི་ཙམ་ན་	-10.7619
ཐམས་ཅད་ལ་ཡང་	-10.762
▁སྲིད་པ་	-10.7622
བཞི་པའི་	-10.7624
ནད་ཐམས་ཅད་	-10.7625
ལས་ཐར་	-10.7625
མཛད་སྒོ་གྲོལ	-10.7626
དྲིལ་བུ་	-10.7626
ྱེད་ཀྱི་ཚལ་	-10.7628
གདུང་བ་	-10.7629
ཡིད་དུ་འོང་བའི་	-10.7632
མི་མཁས་	-10.7635
བྱམས་པ	-10.7636
ལྷམ་	-10.7637
བཀའ་སློབ་ཕེབས་	-10.7644
མྱ་ངན་ལས་འདས་སོ་	-10.7644
འཇིག་རྟེན་གསུམ་	-10.7645
▁མདོར་ན་	-10.7645
དུ་བཅུག་ནས་	-10.7647
འགྲེམས་	-10.7648
བདུན་པའི་	-10.7649
གདུལ་བ	-10.765
མཐོ་རིས་དང་ཐར་པ	-10.7652
ལྟ་བར་གནས་པ་དེ་	-10.7656
སོགས་ལ་བརྟེན་ནས་	-10.7656
སྲོང་བཙན་སྒམ་པོ	-10.7657
སྨན་ཞབས་པ	-10.7657
ངོ	-10.7661
མཛེས་པར་	-10.7661
སྒྲོལ་མ་	-10.7664
པར་བྱ་སྟེ་	-10.7666
ལྗོངས་ཀྱི་	-10.7667
▁དེ་ནས་དྲང་སྲོང་	-10.7668
ཕྱིན་ཆད་	-10.7675
སླ་བ་	-10.7677
སྐྱོང་མཆོག་དང་	-10.7681
ཁོ	-10.7684
ཐོབ་ཐབས་	-10.7684
གཏོང་རྒྱུ་	-10.7685
▁བདེ་གཤེགས་	-10.7687
བམ་	-10.7687
བློ་སྐྱེས་པ་	-10.7687
བརྒྱད་པ་	-10.769
ལས་དོན་ཚན་པའི་	-10.7691
སྙམ་དུ་སེམས་	-10.7693
གལ་གནད་སྐོར་	-10.7694
ཀུན་ཆུབ་པར་བྱེད་	-10.7694
ས་དེའི་ཕྱིར་	-10.7695
མཚན་མ་མེད་	-10.7697
ལོ་ན་	-10.7698
དབང་པོ་ཤེས་པ་	-10.7701
དབེན་པའི་	-10.7702
▁དེར་བརྟེན་ང་ཚོ་	-10.7704
གདམས་ངག་	-10.7705
མཚན་དུས་དྲུག་ཏུ་	-10.7705
་སྙིང་པོ་	-10.7705
གསོལ་་	-10.7706
ནས་བོད་ཀྱི་	-10.7707
འཚལ་་	-10.7707
པར་མི་བྱའོ་་	-10.7709
བདེ་བས་	-10.771
གཅིག་ཙམ་	-10.771
བསྟི་གནས་ཁང་དུ་	-10.7711
ཕེབས་འདུག	-10.7712
མགྲོན་འབོད་ལྟར་	-10.7712
བགེགས་	-10.7714
སྐྲག་པ	-10.7714
མི་རྟོག་	-10.7716
མཇུག་སྐྱོང་	-10.7716
བསྐྱེད་དམ་བཅའ་	-10.7719
ཁྲུས་	-10.7723
ལ་རྣམ་པར་	-10.7724
མེད་དུ་	-10.7724
འདྲ་མཉམ་	-10.7724
བཙོན་ཁང་ནང་	-10.7726
ཁམས་རྣམས་	-10.7727
བྱེད་སྒོར་	-10.7728
གདགས་	-10.7731
སྨོན་འདུན་	-10.7732
ཚན་རིག་གི་	-10.7733
སློབ་སྟོན་པ་	-10.7733
གཟུགས་ལ་	-10.7733
ཐོབ་པར་འགྱུར་	-10.7734
མི་ཚེའི་ནང་	-10.7734
འི་མཚན་ཉིད་	-10.7735
མང་གཙོ་ཚོགས་པའི་	-10.7735
རྩ་བ་བསྐྱེད་ནས་	-10.7735
མ་མཆིས་པ་ལགས་སོ་	-10.7736
ངེས་རེད	-10.7738
བ་ཡིན་ན	-10.7738
དང་མི་	-10.7743
ཕན་ཚུན་དུ་	-10.7744
དུ་མི་	-10.7745
མ་ཐོས་	-10.7745
ཁེབས་	-10.7746
དགའ་བར་གྱུར་ནས་	-10.7746
དང་བོད་མིའི་	-10.7747
པ་ཐམས་ཅད་	-10.7748
མཇལ་དར་	-10.7748
▁སུ་ལ་	-10.7749
་པར་བརྟེན	-10.7749
དེ་འདི་	-10.7749
མཛད་ཅིང་	-10.7749
གོང་ཚེས་ཉིན་	-10.7751
དཔག་	-10.7752
ཙན་དན་གྱི་	-10.7752
སྤྱོད་་	-10.7752
མཐོ་སློབ་ནས་	-10.7753
རྒ་ཤི་	-10.7753
རིང་ནས་	-10.7757
བཅད་ནས་	-10.7758
་ཧུ་ཕཊ་	-10.7758
▁འདི་ལོའི་	-10.7758
ཕ་མ་གཉིས་ཀྱིས་	-10.7761
རེག་བྱ་	-10.7763
ཐག་ཆོད་	-10.7766
གོམས་	-10.7767
ཡོངས་ཀྱིས་	-10.7767
ྦྱིན་པ་དག་སྦྱིན་	-10.7768
ཡ་མཚན་	-10.7772
བྱམས་བརྩེ་ལྡན་པ་	-10.7775
གླེང་སྟེགས་	-10.7776
གྱིས	-10.7777
ཕྱུང་བ་	-10.7778
ར་མཛད་དོ་་	-10.7781
དང་ལྡན་་	-10.7781
་བསམ་པ་	-10.7782
ལྷན་ཚོགས་ཐེངས་	-10.7783
དངོས་གཞི་	-10.7787
ཆབ་སྲིད་ཚོགས་པ	-10.7787
འཛམ་གླིང་མི་མང་	-10.7793
འཐབ་རྩོད་ཀྱི་	-10.7796
བྱེད་པ་ནི་	-10.7796
ཚོགས་གཙོ་དང་	-10.7796
རྣམ་པར་འཇིག་པ་	-10.7797
འི་ཚིག་གིས་	-10.7797
ཡུལ་གྲུ་	-10.7797
བྱང་བར་གྱུར་ཏོ་	-10.7798
བདེ་བའི་ཡོ་བྱད་	-10.7798
བཅས་ཀྱི་ཐོག་	-10.7804
ཤར་ཕྱོགས་ཀྱི་	-10.7804
དགེ་བའི་ལས་	-10.7806
ཇི་སྐད་	-10.7807
དགོས་རྒྱུ	-10.781
ཐམས་ཅད་དང་བྲལ་བ་	-10.7815
དགེ་བའི་རྩ་བའི་	-10.7815
བསྙེན་བཀུར་བྱེད་	-10.7818
བྱང་ཆུབ་ཀྱི་ལམ་	-10.7819
རྣམ་པར་གནོན་	-10.782
སྲོལ་ཡོད	-10.782
▁རབ་འབྱོར་གལ་ཏེ་	-10.782
▁འོན་ཏེ་	-10.7821
དང་བྲལ་བའི་	-10.7822
གཞིས་བྱེས་བོད་མི	-10.7822
རྒྱ་ནག་མི་མང་	-10.7823
ཇི་སྲིད་དུ་	-10.7823
སྤྱན་སྔར་	-10.7824
བཙན་འཛུལ་བྱས་	-10.7825
གི་ཐོག་ནས་	-10.7825
སེམས་ཅན་ཀུན་གྱི་	-10.7826
སྒྲས་	-10.7827
་འཆི་བ་	-10.7827
སྤྱི	-10.7828
ཚ་བ་དང་	-10.7829
་ལེ	-10.7833
ལ་མཁས་	-10.7833
སློབ་ཕྲུག་གི་	-10.7834
ས་སུ་	-10.7836
ཨོ་སི་ཀྲོ་ལི་ཡ	-10.7836
མེད་པ་ཉིད་	-10.7837
▁ཉི་མ་	-10.7838
གོ་འཕང་	-10.7842
▁རྒྱ་ནག་དམར་ཤོག་	-10.7845
འཇམ་དབྱངས་ཆོས་	-10.785
ཡི་དགས་ཀྱི་	-10.7851
དབང་བསྒྱུར་	-10.7851
་དེ་དག་གིས་	-10.7854
སྐུ་ངལ་	-10.7856
ཚ་བའི་	-10.7857
ཐུབ་ཀྱི་རེད	-10.7857
ཁྲིད་ནས་	-10.7861
དེ་བས་ཀྱང་	-10.7861
▁ཐོས་ནས་ཀྱང་	-10.7864
རྗེ་ཙོང་ཁ་པ་	-10.7867
སྐྱེ་མཆེད་རྣམས་	-10.787
རྨིས་	-10.7871
དྲི་མ་མེད་	-10.7871
དེ་འདྲ་བའི་	-10.7871
ལས་ཀ་བྱེད་	-10.7873
ཤེས་རིག་དྲུང་ཆེ	-10.7878
བསྐལ་བརྒྱར་བརྟན་	-10.788
བྱེད་ཅེ་ན་	-10.7881
གནས་ཚད་	-10.7882
སུ་གྱུར་	-10.7883
ལྷག་མ་	-10.7885
ཡིད་ནི་	-10.7885
ཀྱི་ལས་རིམ་	-10.7886
ར་བྱས་སོ་་	-10.7889
ཕྱི་ལོ་ཟླ་	-10.789
རུ	-10.7892
མེད་པར་འགྱུར་རོ་	-10.7893
རྒོལ་	-10.7895
ཕྲ་བ	-10.7896
འཚེ་མེད་ཞི་བ་དང་	-10.7898
ནང་ལ་	-10.7898
དང་་རྣམ་པར་	-10.79
ལ་ཞུགས་པ་	-10.79
དོན་དམ་པར་	-10.7901
མིན་པའི་ཚོགས་པ་	-10.7901
བཟོ་བཞིན་ཡོད	-10.7903
རིན་མེད་	-10.7903
མེད་པའི་ཕྱིར་རོ་	-10.7904
ས་གནས་ཁག་	-10.7912
མང་ཙམ་	-10.7912
▁གསོལ་པ་བཙུན་པ་	-10.7915
དང་ལྷག་པར་	-10.7916
སུམ་	-10.7922
བདེན་པ་དང་	-10.7922
བཞི་དང་་	-10.7922
བདག་པོ་ཚངས་པ་	-10.7922
བཙན་བྱོལ་བ་ཆགས་	-10.7923
ནད་ཡམས་འདི་	-10.7925
བློན་ཆེན་མཆོག་	-10.7925
དོན་དམ་པ་	-10.7926
▁སྔ་མོ་	-10.7926
ཆོས་ཀྱི་ཁམས་	-10.7927
བཞིན་པ་ལྟར	-10.7928
▁དེའི་ནང་	-10.7933
ལུས་ཀྱི་ལས་	-10.7933
བཅུད་	-10.7934
▁དེ་ནས་ལྷའི་བུ་	-10.7934
རྡུལ་ཕྲན་མཚོན་ཆ་	-10.7934
འདོང་	-10.7938
མས་མི་མཇེད་འདིར་	-10.7938
མི་རུང་	-10.7939
རྒྱ་མཚོ་ལགས་	-10.794
ཆུ་ཚོད་ཙམ་ལ་	-10.794
རྣམ་ཐོས་ཀྱི་བུ	-10.794
ཨ་མ་	-10.7941
བསྐྱེད་པའི་ཕྱིར་	-10.7942
ལ་ཕན་ཐོགས་	-10.7942
ཞིག་ཡིན་	-10.7942
▁ཧི་མ་ཅལ་མངའ་སྡེ	-10.7943
ཉེ་དུ་	-10.7943
བྱང་ཆུབ་ནི་	-10.7944
་པྲ་	-10.7944
ཐུགས་སྨོན་	-10.7948
ནོར་རྒྱས་གླིང་	-10.7948
བརྒྱའི་ཆར་ཡང་	-10.7949
དྲ་བ་ཅན་གྱི་འོད་	-10.7949
ཏུ་ལན་གསུང་སྟེ་	-10.7949
གོ་ལའི་ཚ་དྲོད་	-10.7949
ཕེབས་ཐོན་གྱིས་	-10.7949
འཚམས་འཕྲིན་	-10.7949
གྱུར་ཀྱང་་་	-10.7949
ི་སྤྱོད་པ་	-10.7952
དེ་གཉིས་ཀྱི་	-10.7953
རིགས་པའི་ལམ་ནས་	-10.7956
དེ་དེ་བཞིན་	-10.7956
ཡི་གེའི་	-10.7957
▁མི་མཆོག་	-10.7958
ཡི་དམ་	-10.796
གས་ཏེ་	-10.796
སུ་ཝི་	-10.7962
་བྷ་	-10.7962
ིག་རྡུལ་མེད་ཅིང་	-10.7963
པར་འགྱུར་བ	-10.7966
འོན་	-10.7966
རྒྱུ་ཡིན་པའི་	-10.7968
གོས་ངུར་སྨྲིག་	-10.7968
སྙེད་	-10.797
མེད་པ་ལ་	-10.797
བསྐྱེད་པའི་	-10.7971
སྟོན་པར་འགྱུར་	-10.7972
དང་ཐུན་མོང་དུ་	-10.7973
གསན་གཟིགས་གནང་	-10.7974
ཞུ་དགོས	-10.7977
ཀྱི་ཡོད་སྟབས	-10.7978
འདུ	-10.7979
ལུས་ལས་	-10.798
ཡོན་གནས་	-10.7982
ཧི་མ་ཅལ་	-10.7982
ཆུ་མཛོད་	-10.7983
དྲུག་པ་	-10.7983
ཀྱི་སྙིང་པོ་	-10.7984
མཆོག་བཅས་	-10.7984
ཨོ་སི་ཀྲི་ལི་ཡ	-10.7985
མཁོ་	-10.7992
ཆོས་འཁོར་	-10.7993
གཞག་པར་བྱ་	-10.7993
བ་བཅས་	-10.7995
ཐར་བར་	-10.7997
་བརྩོན་འགྲུས་	-10.7997
བདག་མེད་པ་	-10.7998
རྒྱལ་པོའི་ཁབ་ན་	-10.7998
▁ཁོང་ནི་	-10.7999
མགྲིན་	-10.7999
ཟིལ་	-10.7999
བྱུས་	-10.7999
པར་མི་བྱེད་དོ་་	-10.8
གནང་བ་ལྟར་	-10.8001
སྟོན་ཅིག་	-10.8003
ཁྱོན་ནས་	-10.8006
ངལ་	-10.8006
ཤེས་ཡོན་ཅན་	-10.8008
▁དཀའ་ངལ་	-10.8008
འོས་བསྡུ་ལས་ཁང་	-10.8009
ཞིག་རེད་འདུག	-10.801
བྲི	-10.8012
དམ་བཅའ་	-10.8012
མི་ཆོག་པའི་	-10.8012
སྟོབས་བཅུའི་	-10.8012
འཇིག་རྟེན་གྱིས་	-10.8014
ཐུབ་རྒྱུའི་	-10.8014
མཉན་པ	-10.8015
འི་དེ་བཞིན་ཉིད་	-10.8015
ལ་དམིགས་པ་	-10.8016
ར་བྱས་	-10.8018
ཐེངས་གཉིས་པ་	-10.8018
ལྷན་རྒྱས་	-10.8018
ཕྱིར་ལྡོག་པ	-10.8019
སྟོན་ཏེ་	-10.802
སྤྱི་འཐུས་རྣམ་པ་	-10.8022
གྲུབ་བསྟུན་	-10.8026
སྣང་བའི་	-10.8026
དག་ལ་ཡང་	-10.8029
ནི་ཆོས་ཐམས་ཅད་	-10.8029
ཚང་འཛོམས་ཀྱིས་	-10.803
▁སྔོན་	-10.8031
རབ་ཏུ་མཁྱེན་ཏེ	-10.8033
མ་མཆིས་ཤིང་	-10.8034
ཡོད་པ་མ་ཡིན་	-10.8036
་གཉིས་	-10.8036
ཐར་པའི་སྒོ་གསུམ་	-10.8038
སྤྱི་ཚོགས་ཞབས་ཞུ	-10.804
བསྒྲགས་པ་	-10.804
ལྷ་མི་	-10.8041
ནས་ཡིན་པ་	-10.8042
རིག་གཞུང་དེ་དག་	-10.8042
ཅི་ཞིག་བྱ་	-10.8043
གཅིག་རྐང་འཛིན་	-10.8043
ལ་གཞི་མེད་དོ་	-10.8044
འཁྲབ་	-10.8046
ལྟུང་བ	-10.8046
▁ང་ཚོའི་ངོས་ནས་	-10.8048
དབར་གྱི་	-10.8048
▁སྨན་	-10.8049
ཚུལ་གྱིས་	-10.8049
ཆོས་འཕེལ་	-10.8051
སྒྱུ་མ་ལྟ་བུ	-10.8051
དགེ་རྒན་གྱི་	-10.8054
མ་གྱུར་	-10.8057
བསླབས་ཏེ་	-10.806
ཉེས་ཆད་	-10.8063
དང་་སྐྱེ་བ་	-10.8065
པ་ཉིད་ཀྱི་ཕྱིར་	-10.8068
མངའ་བ་	-10.8069
་བར་འདོད་པས་	-10.8075
དང་་གོས་དང་་	-10.8077
རྒྱལ་པོ་དེའི་	-10.8078
བཅས་པའི་	-10.8078
▁དེ་ནས་དེ་དག་	-10.8079
བཀའ་དགོངས་	-10.808
དབང་ཕྱུག་མཆོག	-10.808
མཉན་པའི་ཕྱིར་	-10.8081
བསྡུ་བ	-10.8084
དགོས་ན་	-10.8089
ཐམས་ཅད་ཀྱིས་ཀྱང་	-10.809
དྲུང་ནས་	-10.8094
བཞི་དང་	-10.8095
བློ་ཕམ་	-10.8097
ཁྲོམ་	-10.8098
སྤྱི་ཚོགས་ལ་	-10.8101
ཚོགས་གཙོའི་	-10.8102
འཇིགས་པའི་	-10.8102
གསུང་པ་	-10.8103
ཐོས་པའི་	-10.8103
གྱུར	-10.8104
དེ་སྐད་ཅེས་	-10.8104
དམ་པ་ཁོང་གིས་	-10.8105
▁རིན་པོ་ཆེ་	-10.8105
རྒྱ་མཚོ་ཆེན་པོར་	-10.8105
ཆོས་རྒྱལ་ཁྲི་	-10.8107
ཉུང་དུ་འགྲོ་	-10.8116
ལ་རྟེན་	-10.8116
ཀྱི་ནང་དུ་སྐྱེ་བ	-10.8116
འགྱུར་བ་གཏོང་	-10.8118
ཞུ་རྒྱུ་བཅས	-10.812
ི་ཀ	-10.8123
དེའི་ཆུང་མ	-10.8124
འི་གོ་སྒྲིག་འོག་	-10.8124
ཞིག་ཡོད་པ་	-10.8125
ཞུ་འདོད་བྱུང	-10.8126
ུལ་	-10.8127
ཁེངས་	-10.813
ཡིད་དུ་མི་འོང་བ	-10.8132
ལོ་ངོ་བཅུ་ཕྲག་	-10.8136
རྟོགས་པའི་	-10.8136
གདོན་མི་ཟ་བར་	-10.8138
ལ་ཕྱག་འཚལ་	-10.8138
བལྟ་བ	-10.8145
ཡེ་ཤེས་ཀྱིས་	-10.8145
ཁྱེད་གཉིས་	-10.8145
ལྟ་བུས་	-10.8145
གཅིག་གིས་གཅིག་	-10.8145
བསྐལ་པར་	-10.8148
དགོས་པ་ཞིག་	-10.8151
དང་འབྲེལ་ཡོད་	-10.8151
སློབ་གྲྭ་དང་	-10.8151
བོད་མི་ཡོངས་ནས་	-10.8152
▁ཁྱེད་ཅག་	-10.8152
ཨིན་ཡུལ་གྱི་	-10.8152
བརྒྱབ་པ་	-10.8153
ཁོན་	-10.8153
པ་མ་གཏོགས་	-10.8153
སྐྱོབ་པ	-10.8154
གཟུགས་མེད་པ་	-10.8159
ནང་གསེས་	-10.8164
ཉུང་མི་རིགས་ཀྱི་	-10.8167
དུ་འགྲོ་	-10.8167
ལ་བབ་	-10.8168
དགའ་བ	-10.8168
དམིགས་བསལ་གྱིས་	-10.8169
ཁུག་	-10.8169
ལས་ཁང་	-10.817
བསམ་གཏན་དང་་	-10.817
འཇགས་	-10.8171
ར་བྱེད་པ་དང་་	-10.8173
ས་གནས་མི་མང་	-10.8174
དོ་སྣང་དང་	-10.8174
གོང་མའི་འཐུས་མི་	-10.8174
ཕྱི་རྒྱལ་དུ་	-10.8177
ཆགས་པར་	-10.8178
ཆོས་སྟོན་ཏེ་	-10.8178
ཕྱི་རོལ་དུ་	-10.8183
་རྒྱུན་དུ་ཞུགས་པ	-10.8184
གསར་འགྱུར་ཚན་པ	-10.8184
▁ཅེས་སོགས་གསུངས	-10.8184
གསོ་སྦྱོང་	-10.8186
བཅུ	-10.8187
རྒྱ་ནག་ནས་	-10.8187
པར་ཤོག་	-10.8187
ུན་	-10.819
མེད་པ་སྟེ་	-10.8192
གསུམ	-10.8193
རྣམས་ཀྱི་མཆོག་	-10.8193
▁རྒྱ་ནག་གིས་	-10.8195
ཁྱམས་	-10.8195
སརྦ་	-10.8195
པ་ཡི་	-10.8196
ྐུའི་འཁྲུངས་སྐར་	-10.8197
ི་སྤྱོད་པ་ལ་	-10.8197
འདྲ་ཞིག་ཡིན་རུང་	-10.8198
ཁག་གཅིག་གི་	-10.8198
སྤྱི་ཚོགས་ཁྲོད་	-10.8198
ང་སང་པོའི་དབྱངས་	-10.8198
ཡན་ལག་དང་ཉིང་ལག་	-10.8199
བདུད་བརྗེད་ངས་	-10.8199
་གྲུབ་བཅུ་བདུན་	-10.8199
སྤྱད་ནས་འཆི་ཀར་	-10.8199
དགོན་སྡེ་གྲྭ་ཚང་	-10.8199
རྒྱང་	-10.82
གཅིག་པུའི་	-10.82
འཁྲུངས་སྐར་གྱི་	-10.82
ལས་འགན་རང་འཇགས	-10.8201
ཤོ་ཟུར་	-10.8204
ནི་བྱང་ཆུབ་བོ་་	-10.8204
▁རིགས་དེ་ནི་	-10.8205
ལེ་ལོ་	-10.8209
མཚན་གནས་	-10.821
ཞལ་ལག་	-10.821
འི་ཆོས་ཅན་	-10.8212
▁ཀྱེ་མི་ཁྱོད་	-10.8213
འཚམས་གཟིགས་སུ་	-10.8213
བཤགས་	-10.8214
བོད་མི་ཡོངས་	-10.8215
བརྫུན་དུ་སྨྲ་བ	-10.8217
དག་གོ་་	-10.8217
་སྭ་ཧ་	-10.8218
བརྩེ་	-10.8221
ཡོད་པར་བརྟེན	-10.8221
▁འཛིན་སྐྱོང་	-10.8223
ལ་བཟོད་པ་ཐོབ་པ	-10.8227
བྱ་སྟེ་	-10.8228
བཙུན་མ་	-10.8228
འདོད་པ་ན་སྤྱོད་པ	-10.8229
བརྒྱ་དང་	-10.8229
▁མཛད་སྒོའི་ཐོག་	-10.823
གསོལ་ཚིགས་	-10.8231
མེ་ཏོག་སྣ་ཚོགས་	-10.8231
བཞིན་པའི་སྐོར་	-10.8233
ཟས་སྦྱིན་གྱི	-10.8233
ལ་ཆོས་ཀྱི་མ	-10.8234
འི་རྣམ་གཞག་	-10.8234
ཁྱིམ་བདག་དེའི་	-10.8234
▁དགེ་བའི་	-10.8234
་ཞེས་བྱ་བ	-10.8234
མ་བྱས་པར་	-10.8235
ན་ཡང་མི་གནས་སོ་	-10.824
སྨན་ཁང་དུ་	-10.824
བའི་སྨོན་འདུན་	-10.8243
འཇོམས་པ་	-10.8245
རྐྱང་	-10.8246
རིགས་པ་	-10.8246
ཁྱབ་འཇུག་	-10.8247
བསམ་བློ་བཏང་	-10.8249
ལེབ་	-10.825
བཀྲེས་	-10.8252
རྣམ་པར་ཐར་པའི་	-10.8255
མྱ་ངན་ལས་འདའ་བར་	-10.8256
་ན	-10.8257
ལམ་ལུགས་ལ་	-10.8257
རིས་མེད་ཀྱི་	-10.826
བཟླས་པ	-10.8261
ནིའུ་ཡོག་	-10.8262
ཡིད་དུ་མི་འོང་བ་	-10.8265
བདག་ཉིད་ཀྱི་	-10.8266
ཕན་བདེ་	-10.8267
བཀྲ་ཤིས་ལྷུན་པོ	-10.8267
ཉམ་ཆུང་	-10.8268
མ་མཆིས་ཏེ་	-10.827
ལྡན་པ་་	-10.8272
▁ཐུབ་པ་	-10.8273
▁ང་ཡིས་	-10.8274
་འཛུགས་ངོས་ནས་	-10.8275
བྱེ་བ་སྟོང་ཕྲག་	-10.8275
སུ་དག་	-10.8276
ལམ་གྱིས་	-10.8278
འགྲོ་རྒྱུ་རེད	-10.8279
ལ་སྐྱོན་བརྗོད་	-10.828
ཐ་མ	-10.8281
ཆབ་སྲིད་ཐོག་ནས་	-10.8281
སེང་	-10.8282
གནས་ཚུལ་ཐོན་	-10.8282
རྗེས་སུ་འབྲང་	-10.8282
བློའི་རྣམ་གཞག་	-10.8283
སྡང་	-10.8283
▁འདི་ག་ཕྱི་དྲིལ་	-10.8284
བྲམ་ཟེ་དེ་	-10.8284
དག་དང་་་	-10.8284
མི་ཉམས་གོང་འཕེལ་	-10.8286
འབུ	-10.8288
སྟངས་འཛིན་	-10.8291
ཊི	-10.8294
བ་བཅས	-10.8295
ཞེ་ན་རབ་འབྱོར་	-10.8295
གྱི་ལམ་ནས་	-10.8297
བྱང་ཆུབ་མཆོག་	-10.8299
▁འཛམ་གླིང་གི་	-10.83
འོས་པ་	-10.8302
གཞིར་བཞག་ཐོག་	-10.8302
▁སྐབས་དེའི་	-10.8303
ག་ལ་བ་དེར་དོང་	-10.8305
་གསལ་རྒྱལ་གྱིས་	-10.8306
ནད་པའི་	-10.8306
ཕྱོགས་གཅིག་	-10.8307
ཐེ་ཝན་གྱི་	-10.8307
སྒྲོལ་དཀར་	-10.8308
འི་དྲུང་དུ་	-10.8308
དུ་མར་	-10.831
ཕ་རོལ་ཕྱིན་	-10.8314
ཆེན་པོ་དང་ལྡན་པ་	-10.8315
སྐྱེས་པ་དང་་	-10.8315
འདི་ཉིད་ལ་	-10.8316
ས་གནས་འགོ་འཛིན	-10.8316
པའི་ཕྱིར་ཏེ་	-10.8317
ཉོན་	-10.8318
དཔེར་ན་སྐྱེས་བུ་	-10.8319
དྲང་པོ་	-10.832
ར་སི་	-10.832
ཀྱི་རེད	-10.8322
▁དགོན་པ་	-10.8322
དགུ	-10.8323
་དྲི་ཟར་བཅས་	-10.8323
འཕྲོད་	-10.8324
དབུ་འཛུགས་	-10.8327
སྣང་བས་	-10.8327
སྙམ་མོ་	-10.8327
འི་ཆོས་ཉིད་	-10.8329
བྱས་དང་བྱེད་	-10.8333
སྤྱི་སྒེར་	-10.8333
དེ་ཧ་ཅང་	-10.8334
▁སྨན་ཆེན་	-10.8339
སྙིང་པོ་མེད་པ་	-10.834
མཆེད་	-10.834
སྤྱད་ནས་	-10.834
སྦེ	-10.8342
ག་ནི་འདི་ལྟ་སྟེ་	-10.8342
ཟློས་གར་	-10.8343
ལྔ་པ	-10.8343
རྣམ་པར་ཐར་པ་བ	-10.8343
སྤྲིན་གྱི་	-10.8344
ཡིན་སྐོར་དང་	-10.8344
དྲིལ་	-10.8346
ལྔ་པོ་	-10.8347
ཉེ་འགྲམ་	-10.8348
སྒྲིབ་	-10.8349
དྲ་ཐོག་	-10.8349
ནི་རབ་	-10.8353
ཆོས་སྨྲ་	-10.8353
དད་པའི་	-10.8355
སྒྲེང་འཛུགས་གནང་	-10.8356
དམིགས་པར་	-10.8357
བཅུའི་	-10.8358
མི་དགེ་བའི་ལས་	-10.8358
བསྐྱར་གསོ་ཡོང་	-10.836
བཀྲུས་	-10.8361
དཔལ་འབྱོར་དང་	-10.8362
བཅོ་བརྒྱད་	-10.8362
བསླེབས་	-10.8363
འཇོ	-10.8363
གནོད་སྦྱིན་གྱི་	-10.8365
▁ཞེས་འཁོད་འདུག	-10.8366
ཚད་ལྡན་ཞིག་	-10.8367
ཕྱི་སྟོང་པ་ཉིད་	-10.8367
བཅོམ་ནས་	-10.8369
གསོ་བ་	-10.837
དཔེ་བྱད་བཟང་པོ་	-10.8371
་ཝན་	-10.8371
▁ཞེས་སོགས་	-10.8375
བཀུར་སྟི་བྱེད་	-10.8375
གདའ་	-10.8377
གོད་ཆག་	-10.8379
ལ་གནོད་པ་	-10.838
བཞེས་ཏེ་	-10.8381
ཐེག་པ་པའི་གང་ཟག་	-10.8385
དྲན་པ་རྙེད་	-10.8387
བསྲུང་བ་	-10.8388
གདན་ཞུ་གནང་	-10.8389
ཐོགས་པ་མེད་པ་	-10.8389
རྣམ་པར་སེལ་བ་	-10.839
མཐོང་མཆན་	-10.8392
བསམ་བློར་	-10.8392
འདྲིས་	-10.8393
འཐོབ་སྟེ་	-10.8393
སྐོར་སྤྲོ་འཆམ་པ་	-10.8396
ཆུ་དང་	-10.8398
བོད་རིགས་སྤུན་ཟླ	-10.8398
ཞུ་རྒྱུ	-10.84
འོང་བ	-10.8402
ཡོངས་སུ་སྦྱང་བ་	-10.8403
རྩེ་བ་	-10.8404
པ་ཡིན་ནའང་	-10.8404
འདི་དག་ཀྱང་	-10.8405
པར་སྤྱོད་པ་	-10.8406
བཀག་ཉར་བྱས་	-10.8406
རྒྱ་ཆེ་མང་ཚོགས་	-10.8408
གདུལ་	-10.8408
བསྟེན་པ་	-10.8412
སྐུ་ཚེའི་	-10.8412
ཧི་མ་ལ་ཡ་རི་	-10.8412
ཉན་པ་	-10.8413
གཤེགས་པ་	-10.8413
སྣང་་་	-10.8414
ཉེན་རྟོག་པ་	-10.8415
མོ་ཧ	-10.8415
མྱོང་མེད	-10.8416
ལ་ལེགས་སོ་ཞེས་	-10.8416
མི་གཙང་བ་	-10.8417
ལས་བྱེད་རྣམ་པ	-10.8418
▁དེ་ཉིན་	-10.8419
འཇིགས་པ་དང་་	-10.842
▁གང་ན་	-10.8421
ལྷན་ཚོགས་ནས་	-10.8422
ཤེས་ཀྱི་ཡོད	-10.8423
གསོལ་འདེབས་ཞུ	-10.8424
སླེབས་པ་རེད	-10.8425
དག་གིས་ཀྱང་	-10.8426
ཉིན་རྒྱབ་ཆུ་ཚོད་	-10.8426
ཐོགས་པ་མེད་པར་	-10.8426
ཀྱི་བར་	-10.8427
བྱ་རྒོད་ཀྱི་	-10.8429
ལང་ཚོ་	-10.843
སྨན་པས་	-10.8433
ཡིན་པས	-10.8434
བཏང་བ་མ་ཟད	-10.8436
བསྒྲུབ་རྒྱུ	-10.8436
ཨ་སྒོར་	-10.8438
འི་རང་བཞིན་ཅན་	-10.8438
མི་མཐུན་པ་	-10.8438
དགེ་སྦྱོང་ངམ་	-10.8438
▁ནད་ཡམས་	-10.8439
རེབ་གོང་	-10.844
▁སུད་སིའི་	-10.8441
ཟག་པ་དང་བཅས་པ	-10.8441
ཇུ	-10.8443
ཀློ	-10.8443
ཕྱིར་ཞིང་	-10.8446
ི་སི་	-10.8449
གི་བར་དུ་	-10.845
ལྐོག་	-10.8451
་ཡང་མེད་གཉི་ག	-10.8453
བཀའ་དྲིན་ཆེན་པོ་	-10.8453
བྱ་རྒྱུ་རེད	-10.8454
ཆོམ་རྐུན་	-10.8455
རུ་སོག་	-10.8455
ལས་གུད་ན་ཡང་	-10.8455
འཇམ་མགོན་རྒྱལ་བ	-10.8455
གདན་བཤམས་པ་	-10.8456
གནས་རིམ་	-10.8456
ཀྱེ་	-10.8456
འགྲུབ་པར་འགྱུར་	-10.8456
ཀ་སྦུག་	-10.8456
གཙེ་བ	-10.8456
བརྣབ་སེམས་	-10.8456
མུ་སྟེགས་	-10.8457
སྟོབས་དང་བདེ་བར་	-10.8457
རྨ་བྱ་	-10.8458
ཡངས་ཤིང་རྒྱ་ཆེ་བ	-10.8458
གི་རེད	-10.8458
དགའ་བྱེད་	-10.846
བདག་གི་བུ་	-10.846
བདེ་བར་གཤེགས་པས་	-10.8461
གཡེང་	-10.8461
བཙན་བྱོལ་བ་རྣམས་	-10.8462
མིང་འདི་ཞེས་བྱ་བ	-10.8462
འི་ཡང་སྲིད་	-10.8462
ལས་རོགས་	-10.8464
སྐུ་ལས་	-10.8465
ཀྱིས་བརྒྱན་པ་	-10.8466
ལ་ཕྱག་འཚལ་ཞིང་	-10.8466
གདངས་	-10.8467
རྣམ་གྲངས་འདི་ལ་	-10.8467
འད	-10.8468
▁ཁ་དོག་	-10.847
འོས་པའི་	-10.8472
གྱི་མཛད་སྒོ་	-10.8473
གང་ཡིན་པའི་	-10.8474
ཁའི་	-10.8474
ལྷུང་བཟེད་ཐོགས་	-10.8475
གྱེན་དུ་	-10.8476
སྲི་ཞུ་	-10.8477
བཏང་སྟེ	-10.8477
ལྷན་ཁང་ཁག་གི་	-10.8477
འོད་མའི་ཚལ་བ	-10.8477
སློབ་སྤྱི་དང་	-10.8478
ཕྲུ་གུའི་	-10.8478
དཀྱིལ་	-10.848
རྫུ་འཕྲུལ་ཆེ་	-10.8481
མྱ་ངན་ལས་འདས་པར་	-10.8482
ྨྲ་བརྗོད་རང་དབང་	-10.8483
རིམ་དུ་གནས་སྤར	-10.8483
ེ་སི་	-10.8486
▁རི་	-10.8486
འདུགལྷག་པར་	-10.8487
འཆང་བ་དང་་ཀློག་པ	-10.8488
ར་འགྲུབ་པ་དེ་	-10.8488
གནད་དོན་ཐོག་	-10.8493
▁དེ་བས་	-10.8493
ཇུས་	-10.8494
དམིགས་སུ་མ་མཆིས་	-10.8494
ཤག་	-10.8495
ལག་པས་	-10.8496
དུས་བབ་	-10.8496
པས་ཀྱང་	-10.8496
མེར་	-10.8497
སྐྱི	-10.8498
ཚན་པོ་ཆེ་ཆེན་པོ་	-10.8498
ཡང་དག་པར་བསྟན་	-10.8498
འཛིན་སྐྱོང་གི་	-10.8501
བསྐྱེད་པར་བྱའོ་་	-10.8503
བོད་ཡིག་ཚན་པའི་	-10.8503
འི་དོན་དུ་	-10.8503
▁མྱུར་དུ་	-10.8505
འི་སེམས་ཅན་	-10.8506
གསོལ་བ་བཏབ་	-10.8508
▁གལ་ཏེ་མི	-10.8509
ཐེངས་མང་	-10.851
འི་ཡོན་ཏན་	-10.851
▁ཕྱི་ལོ་ཨ་རིའི་	-10.8511
ཕུང་པོ་ལྔ་	-10.8512
ང་ཚོ་བོད་མི་	-10.8513
རང་གི་ཐོག་ནས་	-10.8514
དེས	-10.8514
ཤེས་རྟོགས་བྱུང་	-10.8515
རླུང་གིས་	-10.8516
བལྟམ་	-10.8517
མངོན་པར་བསྒྲུབ་པ	-10.8518
ངན་པའི་	-10.8519
དང་བྲལ་	-10.8519
ཐོན་པའི་	-10.8519
ཚོགས་བཅར་བ་རྣམས་	-10.852
བཟོ་མཁན་	-10.8521
འདུས་པའི་	-10.8523
▁གལ་སྲིད་	-10.8526
་མེད་	-10.8527
ལ་མ་ལྟོས་པར་	-10.8527
རབ་ཏུ་བྱུང་་་	-10.8528
བཞི་དང་ལྡན་ན་	-10.8531
འཕྲོས་	-10.8531
སྲི་ཞུ་བ་	-10.8531
ཆོས་མཉན་པ	-10.8532
དེར	-10.8533
ཆོས	-10.8533
གནང་བཞིན་པ་	-10.8536
ཨིན་ཇི	-10.8538
འགྲོ་གི་རེད	-10.854
མ་བྱས་པ་	-10.8541
རྒྱ་གར་ནས་	-10.8541
དང་་དགེ་བསྙེན་མ་	-10.8541
ེ་རུ་	-10.8542
མེད་པར་འགྱུར་	-10.8544
རེད་དམ	-10.8545
ཤེས་པ་གང་ཞེ་ན་	-10.8546
རྣམ་མང་	-10.855
ལ་མངོན་པར་བསྟོད་	-10.8553
▁ཟླ་	-10.8553
གཅད་	-10.8554
བོད་ཐོག་	-10.8554
བར་སྣང་ལ་	-10.8555
ད་ནི་	-10.8556
མི་དེས་	-10.8556
▁དེར་ནི་	-10.8561
ཁམས་དང་་	-10.8563
བཀའ་བློན་རྣམ་པ་	-10.8563
ལས་དོན་གནང་ཕྱོགས	-10.8563
གསུམ་དུ་	-10.8564
གསལ་རྒྱལ་	-10.8565
ཕྱིར་སྤྱན་སྔར་འ	-10.8567
འདྲ་བའི་	-10.8571
པར་བྱེད་པའི་	-10.8572
ཀྱིས་བསམས་པ་	-10.8573
བསྒྱུར་བ་	-10.8573
ལེགས་སོ་	-10.8576
དང་་སྙིང་རྗེ་	-10.8578
་དེ་དག་དང་་	-10.8578
འི་སྐྱེ་གནས་དང་་	-10.8578
བྱུགས་	-10.8579
རྒྱུའི་ཐད་	-10.8579
བག་ཡོད་	-10.858
་བཀའ་བརྒྱུད་	-10.8582
ཕོགས་	-10.8583
▁རྒྱ་མཚོ་	-10.8586
གྲོས་ཚོགས་ནས་	-10.8589
མང་བ	-10.8589
ཚོང་དཔོན་གྱི་བུ་	-10.8589
གང་གའི་ཀླུང་	-10.859
ཟིན	-10.8593
▁འཛམ་གླིང་ནང་	-10.8596
ལས་བྱས་པའི་	-10.8596
བྱེད་དགོས་ཞེས་	-10.8596
ལས་གཞན་	-10.8597
ལ་ཆགས་པ	-10.8597
བཅུ་གཅིག་	-10.8597
དེའི་ལུས་	-10.8598
དེའི་ཐད་དུ་	-10.8598
གིས་སྨྲས་པ་	-10.8599
བཟོ་གྲྭ	-10.8599
མཐིལ་	-10.86
ྟོང་ཉིད་ཀྱི་ལྟ་བ	-10.8601
▁ལྟ་བ་	-10.8601
འཚམ་པ	-10.8602
་དེ་ཕྱིར་	-10.8605
ཡུ་རོབ་སྤྱི་	-10.8606
་བི་	-10.8609
ཡུན་	-10.8609
བཞུགས་ནས་	-10.861
བཅས	-10.861
བསྙད་	-10.8613
སྙིང་པོར་	-10.8615
འདི་ལྟར་བདག་གིས་	-10.8617
ླ་སྤྲུལ་ཡང་སྲིད་	-10.8618
འཁྲུལ་འཁོར་	-10.8619
ལ་ཕན་	-10.8619
▁དམ་པ་དེ་ཉིད་	-10.8621
འཕགས་པའི་ཡུལ་དུ་	-10.8622
ཀྱི་སླད་དུ་	-10.8622
པ་དེ་ལྟ་བུ་ནི་	-10.8622
གནོད་སེམས་མེད་པ	-10.8623
འི་ཆེད་	-10.8624
དང་ལྡན་པ་ཡིན་ནོ་	-10.8624
་དཔའ་བོ་	-10.8625
རོགས་པ་	-10.8625
མིག་དཔེ་	-10.8626
འདེགས་འབུལ་ཞུས	-10.8626
གསུམ་པའི་	-10.8626
གཏོར་བཤིག་བཏང་	-10.8629
ཟག་པ་མེད་པ	-10.8629
འོད་གསལ་བ་	-10.8629
ཐོབ་ཐང་དང་	-10.863
▁དེ་ཉིད་	-10.8634
ལེའུ་ཞེས་བྱ་སྟེ་	-10.8639
དཀའ་ངལ་ཧ་ཅང་	-10.8639
ངོན་པར་ཤེས་པ་དང་	-10.8642
▁འདོད་པའི་	-10.8642
རྒྱབ་སྐྱོར་གནང་བ	-10.8643
བྱང་བ	-10.8643
ཟོས་ནས་	-10.8644
མཚན་མར་	-10.8644
ཕུང་	-10.8645
ལེ་ལོ་ཅན་	-10.8645
ཤེལ་	-10.8646
སྤོང་བར་བྱེད་	-10.8646
ཇི་སྙེད་པ་	-10.8647
འཛུམ་པ་མཛད་	-10.8647
▁དེ་ཡང་ཐོག་མར་	-10.865
་དེ་དག་ནི་	-10.865
བཀའ་དྲུང་	-10.8652
བསོད་ནམས་གླིང་	-10.8654
ལ་མངོན་པར་བརྩོན་	-10.8655
པས	-10.8657
་ཏི	-10.8657
དོང་ནས་	-10.8663
▁བོད་མཐོ་སྒང་གི་	-10.8668
ཁྱེད་རྣམས་	-10.8669
འགན་འཛིན་གཞོན་པ་	-10.867
ཡོངས་སུ་དག་པ་དང་	-10.8671
ཁྱོན་ཡོངས་ལ་	-10.8672
▁རིན་ཆེན་	-10.8672
འི་འདུ་ཤེས་དང་་	-10.8673
བྲེགས་	-10.8673
བསྙེན་བཀུར་བྱ་བ	-10.8676
པི	-10.8676
རྫུ་འཕྲུལ་གྱི	-10.8676
ཐུགས་སུ་ཆུད་	-10.8677
བདག་ཅག་ཀྱང་	-10.8678
ཟབ་མོའི་	-10.8678
པ་ཡིན་ཞེ་ན་	-10.868
བྷུ	-10.8681
གཡུལ་	-10.8683
བཙན་དབང་	-10.8686
ཧོར་	-10.8687
པར་གྱུར་ལ་	-10.8688
ྗོད་དུ་མེད་པའི་	-10.8688
ཛ་དྲག་ངལ་སེལ་	-10.8689
བགོས་ནས་	-10.8689
རིང་བསྲེལ་	-10.8691
▁ནད་པ་	-10.8692
▁མེ་	-10.8698
འཇ	-10.8701
གྱུར་ཅིང་	-10.8703
མེད་ནའང་	-10.8704
སྙི	-10.8704
པད་	-10.8705
བཙན་བྱོལ་དུ་ཕེབས	-10.8705
དང་ལྡན་ཏེ་	-10.8706
དགེ་མཚན་	-10.8706
རྒྱ་ནག་གཞུང་ཚབ་	-10.8709
ཀླུའི་	-10.8709
ཆེན་པོ་དེ་	-10.871
གྲོན་	-10.8711
བོད་ཀྱི་བདེན་	-10.8712
དྲང་སྲོང་དེ་	-10.8715
སུ་ཡོད་པའི་	-10.8717
པ་ཉིད་	-10.8717
ཆོས་མ་ཡིན་པ་	-10.8718
ྱ་ཀ་ལན་ད་ཀ་གནས་པ	-10.8718
རྒ་བ་དང་་ན་བ་དང་	-10.8718
རྒྱབ་ཀྱིས་ཕྱོགས་	-10.8718
མཁའ་ལམ་བརྒྱུད་	-10.8718
ཡུལ་མ་ག་དྷའི་	-10.8718
རྒྱད་ལ་བསམ་གཏན་པ	-10.8718
བདུགས་	-10.8719
རྩེ་ཕུད་	-10.8719
ཚོགས་མི་རྣམས་	-10.8719
འཁྲུག་རྩོད་	-10.8721
རྒྱུས་མངའ་	-10.8721
ཆོད་སེམས་བརྟན་པོ	-10.8721
འི་རིགས་	-10.8722
▁དེ་དང་ཆབས་ཅིག་	-10.8723
དྭང་བླངས་	-10.8723
ནི་ཆོས་ཉིད་ཀྱིས་	-10.8724
ཁ་སང་	-10.8725
རྒྱུའི་ཁས་ལེན་	-10.8726
འདི་གཉིས་ཀྱིས་	-10.8727
ཚོགས་ཆུང་ཞིག་	-10.8727
ཐེ་བྱུས་བྱེད་	-10.8727
ཚིམ་	-10.8728
རྣམས་ཀྱི་ནི་	-10.8729
པོ་མཆོག་གི་ཐུགས་	-10.8729
ཆེན་པོ་བྱུང་	-10.8729
ཚེ་འཕོས་པ་	-10.8729
ཡོངས་སུ་བཤད་པའི་	-10.8729
སྤྱད་དེ་	-10.873
མཐའ་མ་	-10.873
ལྔ་དང་	-10.8731
དཔང་རྟགས་	-10.8732
མཆིའོ་་	-10.8732
ཟག་	-10.8732
གསུང་་་	-10.8733
བཅས་ཡིན	-10.8734
བོད་ས་བཙན་བཟུང་	-10.8735
མཚམས་འཇོག་དགོས་པ	-10.8735
ར་སངས་རྒྱས་ཏེ་	-10.8735
རེ་རེ་ལ་ཡང་	-10.8735
▁བཟོད་པ་	-10.8738
་ཡི་་	-10.8738
ལེགས་བཅོས་	-10.8739
མི་མང་རྣམས་ལ་	-10.874
ལས་དོན་རྣམས་	-10.874
བ་དེ་དག་	-10.8741
དང་་དགེ་སློང་མ་	-10.8741
ཚིག་འདི་སྐད་ཅེས་	-10.8744
ཁོ་མོ	-10.8747
མཛོད་་	-10.8748
▁འཇམ་དཔལ་འདི་	-10.8751
ཟིལ་གྱིས་ནོན་	-10.8751
བརྩི་བཀུར་	-10.8751
་མཆོག་ལ་	-10.8752
སྙིང་རྗེ	-10.8752
གནས་བབ་ཚད་ལྡན་	-10.8753
ཤེས་པ་དང་	-10.8753
ཀླུང་	-10.8753
རློམ་སེམས་སུ་	-10.8753
མི་འམ་ཅིའི་	-10.8755
རྗེ་བཀའ་དྲིན་	-10.8756
ཤི་བའི་	-10.8756
གསལ་བའི་	-10.8756
མི་ཞིག་	-10.8757
འདོད་ཅིང་	-10.8758
བཏང་བ་རེད	-10.876
འི་སེམས་ཀྱིས་	-10.8762
ཧ་ཅང་གསལ་པོ་རེད	-10.8765
སྐྱབས་གནས་	-10.8765
ལོར་	-10.8766
ཅེས་བཀའ་སློབ་སྩལ	-10.8767
བེད་སྤྱོད་གཏོང་	-10.8769
ལ་དམིགས་ནས་	-10.8769
འཆི་འཕོ་	-10.877
དཔེ་མཛོད་ཁང་	-10.8772
དེའི་དྲུང་དུ་	-10.8772
གང་དང་ལྡན་པས་	-10.8774
སྲུང་སྐྱོབ་ཆེད་	-10.8774
ཞིག་འདུག	-10.8774
ཧ་ཅང་ཡག་པོ་བྱུང་	-10.8775
ཐེངས་གཉིས་	-10.8775
ཀུན་ཆུབ་པ	-10.8776
བརྩེགས་	-10.8776
ཁྱེའུ་དེས་	-10.8779
འི་བར་དང་་	-10.8779
ཚོད་དཔག་	-10.878
དུ་བྱུང་ངོ་་་	-10.8781
ཟེར་བ་དང་	-10.8781
དུ་ཕེབས་	-10.8784
རུམ་	-10.8784
▁ཤེས་རིག་	-10.8788
འཆད་པ་	-10.8788
འབུལ་བཞེས་མཛད་	-10.8788
མཛད་འཆར་	-10.8789
དམིགས་ཡུལ་གཙོ་བོ	-10.8792
མཐོང་གི་འདུག	-10.8794
མཆོགགྲོས་ཚོགས་	-10.8797
འཁྲུལ་པ་	-10.8797
མཆོངས་	-10.8798
ཡོང་རྒྱུ་རེད	-10.8799
ཁང་པའི་	-10.8799
་ཤེས་རབ་	-10.88
རྩུབ་	-10.8801
▁ཟབ་སྦྱོང་	-10.8801
ཚོ་ལའང་	-10.8801
ཚོགས་འདུ་འཚོགས་	-10.8802
དངུལ་གྱི་	-10.8803
འཚོང་	-10.8805
རྒྱབ་གཉེར་	-10.8806
བལྟའོ་་	-10.8806
ཅི་ཡང་མི་	-10.8808
དང་་སེམས་ཅན་	-10.8809
་ཧ་	-10.881
ནས་གསེར་དང་བོང་	-10.8811
ནད་རྟགས་	-10.8811
▁དེ་ཡིན་དུས་	-10.8812
སྦུ	-10.8812
བསམ་གཏན་གླིང་	-10.8812
དང་ལྡན་པར་འགྱུར་	-10.8813
རྒས་གསོ་ཁང་	-10.8813
▁བདེ་སྲུང་	-10.8813
བྱེད་མཁན་གྱི་	-10.8815
འགྱུར	-10.8815
བསྐོར་བའི་	-10.8818
ཐུབ་མིན་	-10.8819
གང་ཡང་རུང་བ་	-10.882
ལས་གཞི་སྤེལ་	-10.8822
ཚེ་རིང་ལགས་དང་	-10.8822
ཞེས་བཀའ་སློབ་སྩལ	-10.8823
རྒྱུའི་ཚབ་ཏུ་	-10.8823
འཇིག་རྟེན་དག་ན་	-10.8824
▁པད་མའི་དཔལ་གྱི	-10.8825
མི་སྐྲག་	-10.8825
དམ་པ་མཆོག་	-10.8825
འཇུག་པའི་	-10.8827
བཙན་བྱོལ་བའི་	-10.8828
བསྟབས་	-10.8829
གིས་གསུང་དོན	-10.883
འི་འདམ་དུ་བྱིང་བ	-10.8833
བརྩེ་བ	-10.8834
སྨོད་	-10.8836
རྒྱ་བོད་	-10.8838
ཀླུ	-10.8839
མིང་འདོགས་པར་	-10.8842
ལྷ་མིན་	-10.8845
བྱེད་སའི་	-10.8845
གནོད་སེམས་ཀྱི་	-10.8845
ལྟ་བུའོ་་	-10.8846
གི་དགེ་འདུན་ལ་	-10.8847
སྙམ་པ་དང་་	-10.8847
་ལ་མི་ཤེས་པ་དག་	-10.8848
སེམས་ཀྱི་ཞི་བདེ་	-10.8849
མཛངས་པ་	-10.8851
གཅིག་གྱུར་རེད	-10.8853
བྲ	-10.8853
ཨ་རི་གཞུང་གིས་	-10.8854
ནི་གང་ལགས་	-10.8855
མེད་པ་ནི་	-10.8856
བསྟན་དུ་གསོལ་	-10.8861
▁སྦེལ་ཇམ་	-10.8861
ནས་གསུང་པའི་	-10.8866
་པར་བརྟེན་	-10.8867
སྒོའི་	-10.8868
མེད་པར་གྱུར་ཏེ་	-10.8868
རྒྱ་མཚོ	-10.8869
བསྙེན་བཀུར་བྱས་	-10.8869
མེད་མཁན་	-10.8871
བརྗོད་དོ་་	-10.8871
མི་རྒོད་	-10.8872
བཟོ	-10.8873
བདག་ཉིད་ཀྱང་	-10.8874
བཞི་པོ་འདི་དག་	-10.8875
གལ་གནད་	-10.8876
▁མཁན་པོ་	-10.888
འདྲི	-10.888
རུས་པ་	-10.8881
ཞུམ་པ་མེད་པའི་	-10.8881
ལེགས་གྲུབ་བྱུང་	-10.8882
▁རྡོ་རྗེ་	-10.8883
རྣམ་པར་སྤངས་པ	-10.8883
སྦྱར་ནས་	-10.889
་བྱེ་བ་ཁྲག་ཁྲིག་	-10.8894
ཐུབ་པ་བྱུང་	-10.8895
བ་དེ་ནི་	-10.8899
མཇལ་ཁ་ཞུས་	-10.8899
▁རང་སངས་རྒྱས་	-10.89
དྲུང་ཆེའི་	-10.8903
དགའ་བར་གྱུར་ཏེ་	-10.8904
མང་དུ་ཐོས་པ་	-10.8904
དང་བསྟུན་ནས་	-10.8905
ཡོད་པའི་བོད་མི་	-10.8906
དེས་དེ་	-10.8908
བསྣམས་	-10.8909
བོད་རྒྱལ་ཁབ་ཆེན་	-10.891
རྣམ་གཞག་	-10.891
ཡིན་པས་ན་	-10.8912
ཀྱི་ཚོགས་གཙོ	-10.8914
པ་ནས་བཟུང་ད་བར་	-10.8914
ལམ་ལྷོངས་	-10.8917
ཕྱི་ལོ་ཉིན་	-10.8918
སླུ་བ	-10.8918
རྒྱ་ཆེ་སྤེལ་	-10.8918
སེམས་ཏེ་	-10.8921
སྐབས་ནས་	-10.8923
མད	-10.8925
རྒྱལ་པོ་དེས་	-10.8927
དུས་གསུམ་མ	-10.8927
▁དྲི་བ	-10.8928
ཐུར་	-10.8929
དེ་མཐོང་མ་ཐག་ཏུ་	-10.8934
གནང་བྱུང་	-10.8934
ཕྱིན་པ་ཡིན་ན་	-10.8936
ས་བརྒྱན་པ་	-10.8938
སྲུང་བ	-10.8938
བསོད་ནམས་མ་ཡིན་པ	-10.8939
་འདི་དག་	-10.894
▁གོང་ས་མཆོག་གིས་	-10.894
ལོའི་	-10.8941
རྗེས་འབྲང་	-10.8942
འདི་ལོར་	-10.8942
ཕྱོགས་ཕེབས་	-10.8946
ཚུལ་ཁྲིམས་འཆལ་པ་	-10.8947
ཕྱོགས་ཐད་	-10.8948
ཡོངས་སུ་གང་བ	-10.8951
ཏོག་དབྱིབས་ནད་	-10.8951
ངོས་འཛིན་ཞུ་	-10.8952
གསུངས་འདུག	-10.8952
ཁྲིམས་སྒྲིག་	-10.8952
ཚེ་རིང་མཆོག་	-10.8953
ནས་རྒྱ་གར་	-10.8954
གྲོང་རྡལ་	-10.8956
ནས་དེས་	-10.8957
མི་བཟད་པ་	-10.8957
སྤྱི་མོས་	-10.8958
མཚོན	-10.8958
བརྡུངས་	-10.8959
མགོན་པོ་མཆོག་	-10.896
▁སྤྱན་རས་གཟིགས་	-10.8961
ལྡན་གྱི་	-10.8961
▁སྐྱེ་བོ་	-10.8962
ར་གྱུར་ཅིག་	-10.8963
སེམས་ཅན་གྱི་དོན་	-10.8964
བྱས་ནས	-10.8967
ཚང་མས་མཁྱེན་གསལ་	-10.8971
རྒྱལ་ཁབ་འདྲ་མིན་	-10.8974
བཀྲོལ་	-10.8975
སེན་མོ་	-10.8976
དངོས་པོ་ཡར་རྒྱས་	-10.8976
བསྲུང་བ	-10.8977
ཐུབ་པ་དེ་	-10.8978
་གང་གིས་	-10.8978
ཝང་	-10.8981
གཞོན་སྐྱེས་ཚོར་	-10.8982
▁ཁོང་ཚོས་	-10.8983
མཆོད་སྡོང་	-10.8984
ཞུ་ཡི་ཡོད	-10.8987
ཞྭ་	-10.8988
ཚན་དུས་གསུམ་སྟེ་	-10.8988
འཁོར་ལོ་བསྐོར་བ	-10.8988
གཙིགས་ཆེར་འཛིན་	-10.8988
ར་སངས་མ་རྒྱས་	-10.8988
བཀའ་མཆིད་	-10.8988
འགྲིམ་འགྲུལ་	-10.8988
དྲང་སྲོང་ཀ་ནེ་ཡ	-10.8988
བསྡུ་བའི་དངོས་པོ	-10.8988
ཇོ་བོ་	-10.8989
གོ་ལའི་གནམ་གཤིས་	-10.8989
གཉིས་ཀའི་	-10.8989
དོན་ཐམས་ཅད་གྲུབ་	-10.899
བོད་ནི་	-10.899
ཐོ་གཞུང་	-10.899
བྱ་དགའ་	-10.899
ཁྱེད་རང་ཚོར་	-10.8991
ནམ་མཁའི་སྙིང་པོ་	-10.8993
ཇི་ལྟ་བུའི་	-10.8993
ནུས་པ་མཉམ་སྤུངས་	-10.8993
▁ལྷའི་བུ་མོ་	-10.8994
དངོས་འབྲེལ་	-10.8995
སྐུ་ཚབ་དོན་ཁང་གི	-10.8996
བསྲུང་	-10.8996
ལྷོ་སྤྱི་	-10.8998
བ་ནས་བསྐལ་པ་བར	-10.8998
མཉམ་རུབ་	-10.8999
ལས་གཞི་ཁག་	-10.9
པ་ལྟ་བུ་	-10.9
གྱི་དཀྱིལ་འཁོར་	-10.9001
དབུས་གཙང་	-10.9001
མཉམ་འཛོམས་	-10.9001
བཤད་རྒྱུ་	-10.9002
རྐང་པ་ལ་	-10.9002
ཀྱི་ཞིང་འདི་ནས་	-10.9003
མདངས་	-10.9006
མཐའ་མར་	-10.9007
▁ཕན་ཚུན་	-10.9008
ཞེས་བགྱི་བ	-10.9009
་དག་གིས་	-10.901
ཁ་ན་མ་ཐོ་བ་མེད་པ	-10.9012
ཆོས་ལུགས་ཚང་མར་	-10.9017
དཀའ་སེལ་	-10.9019
ཡེ་ཤུ་	-10.9021
ཅི་ཡང་མེད་	-10.9022
གྲོལ་བ	-10.9025
▁མཁྱེན་	-10.9026
འདོང་བ	-10.9026
ཐ་མར་	-10.9027
ལོ་བཅུ་གཉིས་	-10.9027
ནི་སེམས་ཅན་	-10.9027
མི་བདེ་བ་	-10.9029
འཚམས་འདྲི་ཞུས་	-10.9029
དྲང་བ	-10.903
རྒྱལ་རབས་	-10.9031
སྤྱི་ནོར་ས་	-10.9032
▁ཕྲུ་གུ་	-10.9034
སྒྱུ་	-10.9036
བསྲུང་བ་དང་་	-10.9037
འི་སྡེ་དང་་	-10.9038
རྣམས་ལའང་	-10.9039
བགྱིས་ནས་	-10.9041
རྩེ	-10.9041
འབྱུང་བ་ཆེན་པོ་	-10.9041
བྱ་བ	-10.9046
བདུད་ཀྱིས་	-10.9047
ཐིགས་པ་	-10.9048
དོན་འདི་	-10.9051
ཉིན་མཚན་	-10.9052
དགེ་འདུན་ཆེན་པོ་	-10.9053
སྨྲས་པ་བུ་མོ་	-10.9054
འདི་ཉིད་ཡིན་ཏེ་	-10.9055
་ཕུན་ཚོགས་མཆོག	-10.9055
ར་སངས་རྒྱས་པའི་	-10.9055
གོང་ས་མཆོག་ལ་	-10.9059
ར་རྟེན་གཞི་བྱས་	-10.906
དད་ལྡན་མང་ཚོགས་	-10.9061
་ཐེག་པ་རབ་མཆོག་	-10.9062
ནི་འཇིག་རྟེན་	-10.9063
མ་སྐྱེས་	-10.9063
དང་ལྡན་པ་ནི་	-10.9064
འདི་ནས་ཤི་འཕོས་	-10.9064
གོ་སྒྲིག་འོག	-10.9065
བཤད	-10.9067
བྱུང་བར་བརྟེན་	-10.9067
▁ཀོ་རི་ཡ	-10.9069
ཤེས་པ་དེ་ཡང་དག་པ	-10.9069
རྒྱུའི་ཉེན་ཁ་	-10.907
བར་གྱུར་ཏེ་	-10.9071
འི་སྒོ་	-10.9073
དང་་སྟོབས་དང་་	-10.9074
འི་རྐྱེན་གྱིས་	-10.9075
ར་མཛད་	-10.9075
དབེན་	-10.9076
ཁེལ་	-10.9077
བྷི་	-10.9079
ཀྱང་ཡིན་	-10.9081
་ཀུན་དགའ་ར་བ་ན་	-10.9081
རྗེས་སུ་ཡི་རང་བ	-10.9081
མཐོང་ངོ་་	-10.9082
སྐྱེ་མཆེད་ཀྱི་	-10.9083
ལས་དོན་ཁག་	-10.9084
བགྲོ་གླེང་དང་	-10.9084
ཤེས་བཞིན་དུ་	-10.9085
དབུ་ཁྲིད་པའི་	-10.9087
སྒྲ་སྙན་	-10.9088
▁དེ་མཚུངས་	-10.9088
པ་མེད་པར་	-10.9088
ལུང་འདྲེན་	-10.9089
སྨན་པ་དང་	-10.9092
ཁལ་	-10.9093
ནི་བདག་གི་	-10.9093
ཆོས་ཀྱི་སྒོ་	-10.9093
གྲོང་དུ་	-10.9094
མེག་	-10.9096
བཙན་ཁྲིད་བྱས་	-10.9096
ལས་རྣམས་	-10.9097
བལ་ཡུལ་ནང་གི་	-10.9097
གནོད་པ་ཆུང་ངམ་	-10.9098
པར་བྱ་གོར་མ་ཆག་	-10.9101
▁རྣམ་པར་ཤེས་པའི་	-10.9102
སྟོང་ཞེས་བྱ་བར་	-10.9102
ཞུ་བར་	-10.9103
ག་ཏ་མ་	-10.9103
་བ་དང་་	-10.9104
རྣམ་པར་གཟིགས་	-10.9106
ཇེ་ཆེར་འགྲོ་	-10.9112
▁འདི་ན་	-10.9113
ངོ་མཚར་རྨད་དུ་	-10.9114
ལོ་རྒྱུས་དང་	-10.9114
སྐྱེ་བ་མེད་པ་དང་	-10.9115
འི་ར	-10.9115
བཀོད་ནས་	-10.9115
ཆོས་གང་	-10.9116
གྱུར་པས་	-10.9116
གང་ཡང་མེད་པར་	-10.9116
མཆོད་པ་བྱས་	-10.9118
མཆོད་པའི་	-10.912
ཡོད་པ་སོགས་	-10.9121
མི་མང་ཚོས་	-10.9122
འཚེ་བ་མེད་པའི་	-10.9123
ར་བགྱི་	-10.9124
ལས་ཐོག་	-10.9124
དབང་པོ་རྣམས་	-10.9125
གཞིའི་	-10.9131
མང་ཚོགས་ཁྲོད་	-10.9132
་ཨ	-10.9134
སྲུང་སྐྱོབ་ཀྱི་	-10.9135
དབང་སྒྱུར་བྱས་	-10.9135
མི་གཡོ་བ་	-10.9136
▁སུད་སི་	-10.9138
པ་རྣམས་ལགས་	-10.9138
ཉིད་ལ་	-10.9138
འི་གཏམ་	-10.9139
སྲུང་བརྩིའི་	-10.9139
དགོས་པ་ཞིག་རེད	-10.9144
དགེ་བཙུན་	-10.9145
ཁྲེ	-10.9145
ཞུ་གལ	-10.9146
་མོ་	-10.9147
མར་མེ་མཛད་	-10.915
ཆེད་འབད་བརྩོན་	-10.9151
རིམས་ཁྱབ་གདལ་	-10.9154
དྲི་ཞིམ་	-10.9154
པའི་སྲིད་བྱུས་	-10.9156
མ་ཡིན་ལ་	-10.9157
ཞེས་སྨྲས་ནས་	-10.9157
དོག་	-10.9157
རྒྱལ་སྤྱིའི་བོད་	-10.9157
འགྲོ་བ་དང་་	-10.916
གནང་གི་ཡོད་པ་	-10.9161
སོགས་སུ་	-10.9162
གཞུང་ལུགས་	-10.9162
སེམས་ཅན་རྣམས་ནི་	-10.9167
དཀའ་རྙོག་སེལ་	-10.9168
ཆོས་བརྒྱུད་ཁག་	-10.9168
བྱས་པ་ཡིན་ན	-10.9169
མངོན་སུམ་དུ་བྱ་བ	-10.9169
མ་བ	-10.917
ལྟ་བུ་ཆགས་ཡོད	-10.9171
ཐུགས་འགན་	-10.9172
བྱིན་ན་	-10.9172
བྱེད་པར་འགྱུར་་	-10.9172
དང་་དགའ་བ་དང་་	-10.9173
ཕན་པའི་	-10.9173
མྱ་ངན་ལས་འདས་	-10.9173
ཟུང་དྲུང་	-10.9173
ཟིན་པ་དང་	-10.9175
བརྒྱར་	-10.9177
དུ་འགྲོ་བའི་ལམ་	-10.9177
འདི་འདྲའི་	-10.9177
འབུལ་རྒྱུ་	-10.9178
བཞག་ཡོད	-10.9179
▁འཁོར་	-10.9181
ར་འགྱུར་གྱི་	-10.9181
་ཅེས་	-10.9181
▁ཚེས་	-10.9182
ལུས་ཀྱང་	-10.9182
དམ་བཅས་པ་	-10.9184
ཁམས་སུ་	-10.9184
བོད་དེ་	-10.9184
མ་གྱུར་ཅིག་ཅེས་	-10.9184
མགྱོགས་	-10.9185
དེང་སང་	-10.9188
མཁན་རིན་པོ་ཆེ་	-10.9188
གནས་ནང་འཁོད་དོན	-10.9189
བཀུར་འོས་	-10.9189
་ཞིག་བྱུང་སྟེ་	-10.9189
བཅུག་པ་	-10.919
བཞིན་ཡོད་པས	-10.9191
སྲོག་ཆགས་བྱེ་བ་	-10.9191
གོ་སྒྲིག་གནང་བ	-10.9192
ཤིག་རེད	-10.9193
ཁོང་ནི་	-10.9197
བྱེད་བཞིན་པར་	-10.9197
མ་མཐོང་	-10.9197
དགའ་ཚོར་	-10.92
པ་ཉིད་ཀྱི་བར་དུ་	-10.9201
སོང་བའི་	-10.9201
ཡང་སྲིད་ཐག་གཅོད་	-10.9201
འི་ཆོས་ཀྱི་	-10.9203
ཆེན་པོ་མཆོག་སྐུ་	-10.9204
དམག་ཆེན་གཉིས་པ	-10.9204
བརྟ	-10.9207
ལྷ་སའི་	-10.9208
རབ་རིབ་	-10.9208
བོད་གངས་ཅན་གྱི་	-10.9208
མཆིས་སོ་་	-10.9212
ཡང་རུང་་	-10.9214
ཆོ་ག	-10.9215
སྲིད་བློན་མཆོག་	-10.9215
མྱངས་	-10.9215
མཐུན་འགྱུར་རོགས་	-10.9217
བོད་མི་ནང་ཁུལ་	-10.9219
མི་ནུས་སོ་	-10.9219
ཐོག་ཏུ་	-10.9222
མཚན་རྟགས་བཀོད་	-10.9224
སེམས་ཤིང་	-10.9225
ས་ཡང་	-10.9225
སྲིད་བྱུས་དང་	-10.9226
བརྟན་པའི་	-10.9228
དགོས་ཀྱི་ཡོད་པ	-10.9229
བཏོན་ནས་	-10.9231
སུའང་	-10.9231
སྲུང་སྐྱོབ་བྱེད་	-10.9233
བསྐོར་བར་	-10.9234
བོད་མི་གྲངས་	-10.9236
ཡོད་སྐབས་	-10.9241
སྨྲ་བའི་	-10.9241
▁གཞན་གྱི་	-10.9241
པའི་འོག་ཏུ་	-10.9242
རབ་ཞི་	-10.9245
ལྷོ་ཕྱོགས་སུ་	-10.9247
བོད་ནང་ཕར་	-10.925
▁ཞེས་གསུང་	-10.9251
སྐྱེ་ཞིང་	-10.9251
འཕེལ་བར་འགྱུར་	-10.9252
ཀྱི་བསམ་པ་	-10.9253
བྱས་པ་དེས་	-10.9253
སྐྱབས་སུ་	-10.9255
སྦྱིན་པར་བྱའོ་་	-10.9256
ལ་སློབ་པ་	-10.9256
པ་རྣམས་ཀྱིས་	-10.9257
དགོས་མིན་	-10.9258
སྭ	-10.9262
ཚོགས་ཁང་གསར་པའི་	-10.9264
ཀ་ན་ཊ་ཀ་མངའ་སྡེ	-10.9266
ཕྱི་གསལ་ནང་གསལ་	-10.9266
དབུ་འཛིན་	-10.9266
རྒྱ་ནག་སྐམ་ས་	-10.9266
ཡིད་ལ་ཟུང་ཤིག་དང	-10.9267
ཚོགས་མགོན་དུ་	-10.9268
ནི་མི་	-10.9268
ཆེན་པོ་ཡོད	-10.9268
ཐོབ་ཐང་རྩོད་ལེན་	-10.9268
དོང་སྟེ་ལྷགས་ནས་	-10.9269
བྱམས་སྙིང་རྗེ་	-10.9269
ནས་བོད་	-10.927
ར་གྱིས་་	-10.927
ཆུ་ཡི་	-10.9271
ཡུག་	-10.9271
རྐ	-10.9272
བདེ་བ་འདོད་པ་	-10.9272
རང་གཅེས་འཛིན་	-10.9272
རྩོམ་པ་དང་་	-10.9274
གཞན་ནི་བརྫུན་ནོ་	-10.9275
རྣམ་པར་དག་པའོ་་	-10.9276
བཙན་དབང་གིས་	-10.9277
བསམས་བཞིན་དུ་	-10.9277
སེམས་ཁྲལ་	-10.9277
གཉི་ག་	-10.9278
ལ་རབ་ཏུ་གནས་	-10.9279
འདྲེན་པས་	-10.9279
གང་ལ་ལ་ཞིག་	-10.9281
མཚོན་གྱིས་	-10.9281
▁ཕྱི་ལོ་དཔལ་ལྡན་	-10.9282
མོད་	-10.9282
འི་ཁྲོད་	-10.9282
བརྗོད་ན་	-10.9283
མཐའ་མྱུར་དུ་གསལ་	-10.9284
ཞང་	-10.9285
ཚོར་སྣང་	-10.9287
ཆེ་ཞིང་མཐུ་ཆེ་བ	-10.9287
ཐུན་མོང་མིན་པའི་	-10.929
ཀླུ་སྒྲུབ་ཀྱི་	-10.9291
ཁ་ལོ་སྒྱུར་བ་	-10.9293
བཅར་ནས་	-10.9294
ཚབ་ཏུ་	-10.9294
རང་ནས་	-10.9297
བསྡུས་ནས་	-10.9299
འདུག་པའི་	-10.93
གསར་བཟོ་	-10.9301
འཆིང་བ་	-10.9302
བརྟགས་པ་	-10.9303
འདེགས་འབུལ་	-10.9304
▁ལྷ་དང་མི་	-10.9305
དགྲ་བཅོམ་པ	-10.9306
▁ལྡི་ལི་	-10.9307
ཅེས་པའི་	-10.9307
རྗེས་སུ་ཆགས་པ	-10.9308
ཕྱག་རོགས་	-10.931
ཞིག་གི་ནང་	-10.931
ཚོགས་མིའི་	-10.931
བསྒྲུབས་ནས་	-10.9311
གང་དུའང་	-10.9313
འཛིན་རིམ་	-10.9314
ཕེབས་པ་དང་	-10.9314
་ཆོས་བཞི་པོ་	-10.9315
དེ་དག་དང་	-10.9315
ན་རྒྱལ་པོ་	-10.9316
ཚུལ་བཞིན་ཡིད་ལ་	-10.9316
མཆིས་ནས་	-10.9318
ངོ་བོར་	-10.9319
ཟེར་བ་ཞིག་	-10.932
སྤྱི་ཡོངས་	-10.9323
་དང་་ཀུན་ཆུབ་པར་	-10.9325
འཕེལ་རིམ་	-10.933
བློ་ལྡན་	-10.9331
བྲོས་	-10.9332
འཚོ་རྟེན་	-10.9335
དངོས་པོ་མེད་	-10.9335
བསླབས་པ་	-10.9337
སློབ་སྦྱོང་གནང་	-10.9338
འབྱོར་སྐབས་	-10.9338
དཀྲུགས་	-10.9339
▁འདི་འདྲའི་	-10.9339
གྱུར་བ་	-10.9339
འགྱུར་མེད་	-10.9339
▁ཁང་པ་བརྩེགས་པ་	-10.9341
གནང་བཞིན་པའི་	-10.9342
▁ཕྱོགས་གཅིག་ནས་	-10.9343
ཞོ	-10.9344
་རི་ཡ	-10.9345
དམ་པའི་ཆོས་ཀྱི་	-10.9345
ཁ་ཤས་ཀྱིས་	-10.9345
ཡོངས་རྫོགས་ལ་	-10.9345
ར་བྱས་ཏེ་	-10.9346
མ་སྐུ་མཆོག་	-10.9347
ཡིན་ནོ་སྙམ་ནས་	-10.9349
པ་དེ་ཉོན་ཅིག	-10.9349
བཀོད་པའི་	-10.9349
པ་ཉིད་ཀྱི་བར་	-10.9352
པར་བགྱིད་	-10.9352
དམངས་	-10.9353
བཏིང་	-10.9354
སྔོན་དུ་འགྲོ་བ་	-10.9354
མི་མང་རྣམས་	-10.9354
གནས་སྟངས་ཆགས་ཡོད	-10.9355
འཐོབ་པ་དང་་	-10.9358
ན་ཡང་་་	-10.9358
སྤྱི་ཟུར་	-10.9358
སྡེ་ཚན་ཁག་	-10.9358
ཚུལ	-10.9359
མ་ཐུབ་པའི་	-10.9359
ཀུན་འབྱུང་	-10.936
དཀར་པོའི་	-10.9361
ཁྱེའུ་དེ་གཉིས་	-10.9363
བྱོན་པ་	-10.9365
▁སུད་སི	-10.9366
སྟོང་གསུམ་	-10.9369
ལ་མངོན་པར་ཞེན་པ	-10.937
བཀའ་ལུང་	-10.937
ནད་མནར་	-10.9371
བརྒལ་	-10.9372
དྲུང་ཆེ་དང་	-10.9372
ལ་རྒྱབ་སྐྱོར་དང་	-10.9374
དོན་ལྟར	-10.9376
སིམ་	-10.9377
བྱེད་རྒྱུ་དེ་	-10.9378
བཏང་་་	-10.9378
གྱི་བླ་སྤྲུལ་	-10.9379
ནང་སྲིད་དྲུང་ཆེ	-10.9379
མཉམ་ཞུགས་ཀྱིས་	-10.9381
རྣམ་པར་ཐར་པ་དང་་	-10.9381
འཚེ་བ་མེད་པ་	-10.9381
ནྡྲ	-10.9382
པོའམ་	-10.9385
ཕྱི་རྒྱལ་ཡུལ་གྲུ	-10.9386
ལྡུམ་ར་	-10.9387
སྡུག་བསྔལ་བ་དང་་	-10.9388
བཞུགས་གནས་	-10.9389
བཙ	-10.939
འགྲོས་	-10.939
ཞིག་ཡིན་པའི་ཆ་ནས	-10.9391
མདོར་ན་	-10.9391
ཚེས	-10.9393
པར་བྱེད་པའོ་་	-10.9394
ལོ་བརྒྱད་	-10.9395
དྲུང་ཆེ་ཀརྨ་	-10.9395
གཏན་དུ་	-10.9395
གནང་ཡོད་པ་རེད	-10.9396
འཚང་རྒྱ་	-10.9398
ཐོན	-10.9399
གླིང་ཆེན་	-10.94
སྙིང་སྟོབས་དང་	-10.94
བྱ་དགོས	-10.94
པ་ནས་བཟུང་	-10.94
▁ཅི་ནས་	-10.9401
▁དེང་དུས་	-10.9401
འཚེ་བ་མེད་པ་དང་	-10.9402
ཐེ་བྱུས་	-10.9402
ལྟ་གྲུབ་དང་	-10.9402
བློས་གཏོང་	-10.9403
སྙན་སྒྲོན་	-10.9408
སྙན་སེང་ཞུས་	-10.9409
ལོ་མ	-10.9412
ལངས་ནས་	-10.9416
མངའ་སྡེའི་གཞུང་	-10.9416
ཕྲུག་	-10.9419
ལྡན་པའི་ཐོག་ནས་	-10.942
འཆམ་	-10.942
སྲིད་འཛིན་མཆོག་	-10.9422
▁ལག་པ་	-10.9423
མི་མང་པོ་ཞིག་	-10.9424
མི་འདྲ་བའི་	-10.9424
ཏིལ་	-10.9425
▁ཀྱེ་མི་	-10.9426
ར་སངས་རྒྱས་པ་	-10.9427
▁འདི་དག་	-10.9428
མྱངས་དང་མྱོང་	-10.9431
ཐབས་མཁས་	-10.9432
གོ་སྐབས་འདྲ་མཉམ་	-10.9434
▁དེའི་སྐབས་	-10.9434
ཁྲིམས་འཆར་གསར་པ་	-10.9434
འཛིན་དུ་བཅུག་	-10.9438
བོད་དོན་ལ་	-10.9439
གྲགས་པའི་	-10.9439
སློང་བ་	-10.9439
རྣམ་པར་དག་པ་དང་་	-10.9441
འགྲོ་ཚུར་འོང་གི་	-10.9442
ནམ་མཁའ་ལྡིང་	-10.9442
▁སོག་པོ	-10.9443
▁དེའི་ཚེ་ན་	-10.9443
བོད་མི་དེ་དག་	-10.9443
འགྲིག་གི་	-10.9444
▁ཁ	-10.9444
ནས་དར་བའི་	-10.9445
▁རྣལ་འབྱོར་	-10.9446
འདི་ཁོ་ན་	-10.9446
ཉི་ཤུ་རྩ་གཅིག་	-10.9446
མཛའ་བཤེས་	-10.9447
ཁོག་	-10.9449
འོས་འདེམས་བྱུང་བ	-10.9451
གཟུངས་སྔགས་	-10.9452
གསལ་འདོན་	-10.9452
བསམས་ཏེ་	-10.9452
ཝན་	-10.9453
ི་ཧ	-10.9456
གསོ་སྐྱོང་	-10.9457
སྤྲ	-10.9459
རང་བྱང་ཆུབ་	-10.946
སྟེང་གི་བར་སྣང་ལ	-10.946
ཁུལ་ནས་	-10.9461
འཕྲོད་བསྟེན་གྱི་	-10.9462
ཕྱི་དངོས་པོ་	-10.9462
་དེ་ཉིད་	-10.9463
ཕྱོགས་བསྐྱོད་	-10.9464
ར་ངོས་འཛིན་	-10.9464
ཏྲ	-10.9465
རྗེས་འབྲང་པ་	-10.9466
བདུག་པ་དང་་སྤོས་	-10.9468
ལྷགས་པ་	-10.9469
བཤད་ལུང་	-10.947
རྒྱལ་གཅེས་	-10.9471
ཐེག་པ་ཆེན་པོ	-10.9474
སྐུ་ཞབས་ཁོང་	-10.9474
ཤིག་ཡིན	-10.9475
ཁྲོད་ནས་	-10.9475
འབབ་པ	-10.9475
གཟིགས་འབུལ་	-10.9475
གཡོ	-10.9476
ཞུ་དགོས་པའི་	-10.9476
ས་གསོལ་པ་	-10.9476
ཤི་འཕོས་ཏེ་	-10.9476
བར་སྣང་ལས་	-10.9477
ཟེར	-10.9478
་དག་ཡིན་ནོ་་	-10.948
སྟོན་ལ་	-10.9481
བར་བྱ་བའི་ཕྱིར་	-10.9481
ལ་སློབ་སྦྱོང་	-10.9481
མི་ཕོད་	-10.9481
བོར་བ་	-10.9484
▁ལྷག་པར་ཕྱི་ལོ་	-10.9484
དོན་གྲུབ་ལགས	-10.9485
དང་་ཚུལ་ཁྲིམས་	-10.9486
བྱང་ཆུབ་ཀྱི་ས	-10.9487
ཁྱོད་ཀྱང་	-10.9488
སྔར་བས་	-10.9488
དང་་ཆོས་དང་་	-10.9489
འཁོར་བ་འཇིག་	-10.949
གཟའ་ཟླ་བའི་ཉིན་	-10.9492
འགྲོ་བཞིན་པ་	-10.9494
མེའི་ཕུང་པོ་	-10.9498
འི་བུ་	-10.9498
དོན་དེ་	-10.9502
འཛམ་གླིང་གང་སར་	-10.9503
ལམ	-10.9503
ཁོང་ཁྲོ་བ	-10.9507
མགྲིན་ཚབ་པ་	-10.9507
ཡིན་འདུགདེ་ཡང་	-10.9509
བསམ་པའི་	-10.9511
འདི་ལ་ནི་	-10.9511
བཅའ་བ	-10.9513
འཁོར་ལོའི་	-10.9514
པར་གྱུར་པ་དང་་	-10.9517
སྡིགས་	-10.9519
ཡར་རྒྱས་དང་	-10.9519
་པའི་ཕྱིར་	-10.9521
དང་ལྡན་པར་གྱུར་	-10.9521
▁དེ་འདྲ་	-10.9523
དང་་ཆུ་	-10.9523
ཚེའི་	-10.9524
འཐེན་	-10.9525
མཐུ་ཆེ་བ་	-10.9527
དགོས་འདུན་	-10.953
▁ཉིན་	-10.9532
▁དུས་མ་ཡིན་པར་	-10.9534
དུར་ཁྲོད་	-10.9534
བརྒྱད་སྟོང་	-10.9535
འཕྲུལ་དབང་བྱེད་	-10.9537
རྒྱལ་བུ་རྒྱལ་བ	-10.9538
སེམས་ཅན་གང་	-10.9539
སྤོང་བ་དང་་	-10.9539
གློ་བུར་	-10.9539
ལས་ཀྱིས་	-10.9539
སྙམ་པ་	-10.9541
དོ་ཞེས་	-10.9541
ོས་	-10.9542
ནི་ཧ་ཅང་	-10.9543
ཤན་	-10.9543
གནང་སྐྱོང་ཡོང་བ	-10.9544
ལྷོད་	-10.9544
འབྲེལ་བའི་སྐོར་	-10.9548
ཟད་དོ་་	-10.9549
མི་འཇུག་	-10.9551
བྱེད་པར་འགྱུར་	-10.9551
ཧོང་ཀོང་གི་	-10.9551
ར་གནས་པའི་བར་དེ་	-10.9552
གསེར་དང་་དངུལ་	-10.9552
མདུན་ཐང་དུ་	-10.9552
ཡི་གེར་བྲིས་	-10.9552
རྙེད་མི་དཀའ་་	-10.9552
འབོད་སྐུལ་ཡང་	-10.9552
སྦན་ད་ར་	-10.9552
ཡོང་རྒྱུའི་	-10.9553
ཤས་ཆེར་	-10.9553
གཞིས་སྒར་	-10.9553
དགའ་བོ་	-10.9553
གླང་པོའི་	-10.9553
སྐུ་གསུང་ཐུགས་	-10.9554
བླ་བྲང་འཕགས་པ་	-10.9554
གཟུངས་ཀྱི་སྒོ་	-10.9555
དཀའོ་་	-10.9556
་ཐ	-10.9556
དགོས་བྱུང་	-10.9557
ནད་ཡམས་ཁྱབ་གདལ་	-10.9558
དྲི་ཟའི་རྒྱལ་པོ་	-10.9559
ཐུགས་བརྩོན་	-10.956
ལ་དད་པ་	-10.9561
ཀྱིས་མཐོང་ན་དགའ་	-10.9562
▁དེ་བཞིན་ཕྱི་ལོ་	-10.9562
བཅས་ཁྱོན་	-10.9564
འདུག་སྤྱོད་གསུམ་	-10.9564
▁རྒྱ་	-10.9565
དང་་མྱ་ངན་དང་་	-10.9565
དང་་ཡུལ་འཁོར་དང་	-10.9567
ལྟ་རྟོག་	-10.9567
འགྲོ་ལུགས་	-10.9568
ངག་གིས་	-10.9568
འགྲོ་འོང་	-10.9568
▁གང་དུ་	-10.9568
རྣ་བ	-10.9569
་ཟ་	-10.957
ཆུའི་ཁམས་དང་	-10.9573
སྡེ	-10.9575
ཏིང་ངེ་འཛིན་དེ་	-10.9575
འཛིན་པར་བྱེད་	-10.9575
▁དེའི་ཐོག་ནས་	-10.9575
སྤེལ	-10.9577
མ་ཡིན་ཏེ་་	-10.9578
་ལྗོངས་ཟེར་བའི་	-10.9581
དང་བྲལ་བ་དང་་	-10.9581
མི་དང་མི་མ་ཡིན་པ	-10.9581
རིང་པོར་	-10.9587
ར་གྱུར་ཏོ་	-10.959
རྒྱལ་པོ་སྡོང་པོ་	-10.959
ནང་གནས་སྡོད་	-10.959
དེ་རིགས་	-10.9592
ལྟ་བར་གནས་པ་ནས་	-10.9592
བཙུགས་ཏེ་	-10.9593
གང་ཡང་མེད་དོ་་	-10.9593
སྲན་	-10.9594
ཚོགས་གཙོས་	-10.9594
གསལ་བ	-10.9595
སྐུ་ཕུང་	-10.9596
▁འདུ་ཤེས་	-10.9596
སྲིད་གསུམ་	-10.9596
ཟླ་འོད་གཞོན་ནུ	-10.9598
▁འདུན་པ་	-10.96
ཆོས་ཀྱི་གཏམ་	-10.9601
རང་སྐྱོང་	-10.9603
་ནི་ཆོས་	-10.9604
ཕོ་ཉ	-10.9604
རྒྱལ་ཁབ་གཅིག་	-10.9604
རྒྱུན་ཆད་	-10.9604
ཕྱི་ལོ་ནས་	-10.9605
བློས་	-10.9611
བཀའ་བསྡུར་གནང་	-10.9612
གཅིག་པུར་	-10.9612
སྒོ་བརྒྱབ་	-10.9612
ྱུག་པ་དང་་ཕྱེ་མ་	-10.9613
འགྱུར་ཞིང་་་	-10.9613
ཆུར་	-10.9614
ཕ་མ	-10.9615
གཟིགས་འབུལ་ཞུས	-10.9616
བསྐྱེད་དོ་	-10.9618
སྐྱ	-10.9621
ངོས་འཛིན་བྱེད་	-10.9623
▁ཕྱིན་ནས་	-10.9623
རྒྱལ་བ	-10.9624
▁རྒྱ་ནག་ནང་	-10.9624
བཀའ་ཤག་སྐབས་	-10.9625
▁འོ་ན་	-10.9626
ཤེས་པ་ཡོངས་སུ་	-10.9627
ཁས་བླངས་	-10.963
མཇལ་དར་སྒྲོན་	-10.963
དཔས་བྱིན་	-10.963
སེལ་ཐབས་	-10.9632
གནས་སྡོད་བོད་མི་	-10.9634
གཞ	-10.9635
▁རྒྱལ་པོས་	-10.9635
དགེ་ལས་	-10.9636
རྒྱལ་དར་	-10.9637
སྒྲོགས་པ་	-10.9638
སྐབས་འདིར	-10.964
འི་དོན་	-10.964
ཚོགས་པར་	-10.9641
བ་ལས་	-10.9642
ང་རང་ཚོ་	-10.9643
འབ	-10.9643
ཞུ་བའི་	-10.9643
པར་བགྱི་་	-10.9647
ངོ་ཞེས་	-10.9648
མདོ་སྔགས་	-10.9649
ལ་ཡང་མི་	-10.9652
ཕ་རོལ་ཏུ་	-10.9653
ཁེ	-10.9653
གསར་འགོད་པ་བཅས་	-10.9654
བསྡུས་པའི་	-10.9654
ཉམས་ལེན་བྱེད་	-10.9654
བོད་མི་ཞིག་	-10.9656
རྩོམ་པ་པོ་	-10.9656
དག་མཐོང་ན་	-10.9657
དང་བྲལ་བ	-10.9657
ནང་བསྟན་	-10.9658
འགག་པ་	-10.9659
ཆགས་བསྡད་ཡོད	-10.9661
རྗེས་སུ་མ་མཐོང་	-10.9663
དངོས་པོའི་	-10.9663
མི་འབྱེད་དོ་་	-10.9665
ཚིག་འབྲུ་	-10.9666
▁རྒྱལ་ཚོགས་ཀྱི་	-10.9667
ཡང་གཞན་	-10.9667
སེམས་ཅན་ཐམས་ཅད་ལ	-10.9669
ཏང་	-10.967
བྱས་པ་དང་་	-10.9671
ཡལ་ག་	-10.9672
བསོད་ནམས་བསྟན་	-10.9673
▁མིའམ་ཅིའི་	-10.9674
ར་བྱེད་པའི་	-10.9675
ནང་བོད་མིའི་	-10.9678
གཤིས་	-10.9679
བསོད་ནམས་ཆེན་པོ་	-10.9679
བར་འགྱུར་ཏེ་	-10.9681
ཐལ་བ	-10.9681
▁དུས་ཚོད་	-10.9682
ཚང་མའི་ནང་	-10.9682
ུས་ན་རྒྱལ་པོ་	-10.9683
ཚངས་པར་སྤྱད་པ་	-10.9688
ལགས་ནས་	-10.9689
ས་གཙོས་	-10.9691
རབ་ཏུ་ཞི་བ	-10.9692
▁སྤྱིར་བཏང་	-10.9692
ལྷན་ཅིག་གནས་པ	-10.9692
རྣམས་ལ་སྨྲས་པ་	-10.9693
ཇི་སྙེད་པ་་	-10.9695
ཡལ་	-10.9696
ཕྱི་མའི་མཐའ་	-10.9696
ཤིག་ཅེས་	-10.9697
ལས་མི་	-10.9702
མི་འམ་ཅི་	-10.9702
་བོ་	-10.9703
ཉམས་པ་སླར་གསོ་	-10.9703
དང་སྟབས་བསྟུན་	-10.9704
དཀའ་རྙོག་སེལ་ཐབས	-10.9705
ཤིག་ཆགས་ཡོད	-10.971
དགོས་དོན་	-10.9711
▁དུད་འགྲོ་	-10.9712
རྡུལ་མེད་	-10.9715
ཤུགས་ཆེ་གནང་ཡོད	-10.9718
ལྔ་གང་ཞེ་ན་	-10.9718
ནས་ཕྱུང་སྟེ་	-10.9719
▁ཕྱི་ལོ་ནས་	-10.9721
▁ཚུལ་ཁྲིམས་ཀྱི་	-10.9721
དང་་བཟོད་པ་དང་་	-10.9722
འཐོབ་པར་འགྱུར་བ་	-10.9724
རྣམ་པར་གཞག་པ་	-10.9729
རབ་ཏུ་ཤེས་ཏེ་	-10.9729
ཆོས་ལུགས་ཕན་ཚུན་	-10.9732
▁ཚེ་དང་ལྡན་པ་དག་	-10.9733
ཕུལ་ནས་	-10.9733
▁ཁྱོད་ལ་	-10.9735
སྤྲས་པ་	-10.9737
བྱུང་ངོ་་	-10.9738
▁ཕྱི་ལོ་བཟུང་	-10.9738
ཞུ་དགོས་པ	-10.9743
ཕྱག་ལས་གནང་མཁན་	-10.9744
བརྩིས་ནས་	-10.9747
གཉིས་ནི་	-10.9747
སེམས་ཁུར་	-10.9748
བཞད་	-10.9748
གཞན་མུ་སྟེགས་ཅན་	-10.975
ཀུན་ཏུ་ཤེས་	-10.9751
ངན་འགྲོ་	-10.9752
འདུགདེ་བཞིན་	-10.9752
ཁོང་ཚོའི་	-10.9754
བླངས་སོ་་	-10.9755
▁ཡིད་	-10.9756
▁ར	-10.9756
བདེ་ཐང་	-10.9759
འདུག་གམ	-10.9759
བརྒྱད་ཁྲི་	-10.9761
▁གཞིས་ཆགས་	-10.9763
ཚེས་གཟའ་ཟླ་བ	-10.9765
ཕེ	-10.9768
ནི་རྟག་ཏུ་	-10.9768
འདུ་འཛོམས་ཐོག་	-10.9768
འཚལ་ཏེ་	-10.977
གོ་བསྡུར་གནང་	-10.977
▁ཡབ་	-10.9771
དབུས་བོད་མིའི་	-10.9772
བཙས་པ་	-10.9772
དེའི་ལུས་ལ་	-10.9772
▁མཐའ་དོན	-10.9772
དང་བཅས་པས་	-10.9775
དབང་ཕྱུག་གིས་	-10.9775
སེམས་ཅན་དག་པ་	-10.9778
གོང་སྤེལ་གཏོང་	-10.9778
ན་འདུག་	-10.9778
ཕྱི་དྲོ་ཆུ་ཚོད	-10.9779
གཞན་དང་	-10.978
མུན་པ་མུན་ནག་	-10.978
དོ་བདག་	-10.978
་ཏིང་འཛིན་	-10.9781
བར་གྱུར་་	-10.9781
འི་ཐད་དུ་	-10.9782
ཆིངས་ཡིག་	-10.9784
བསྟན་པ་འཛིན་	-10.9784
གཡས་གཡོན་	-10.9784
བྱིན་པས་	-10.9787
ཀུན་རྫོབ་	-10.9787
མིག་ནི་	-10.9789
གསུམ་པའོ་་	-10.979
རྒྱལ་བུ་	-10.9794
བསམ་ཤེས་	-10.9796
དྲན་སྐུལ་	-10.9797
གཅོད་པ་	-10.9797
མ་དགོན་	-10.9798
ཀྱང་རུང་་	-10.98
པ་རྣམས་ཡིན་ནོ་་	-10.9803
འདི་དག་སྨྲས་སོ་་	-10.9803
སྣང་སྟེ་	-10.9806
དགོས་པ་ལས་	-10.9806
▁རྒྱུན་དུ་ཞུགས་པ	-10.9806
གཅིག་ནི	-10.9809
དཔལ་མགོན་	-10.9809
སྤུན་མཆེད་	-10.981
ཨོ་སི་ཀྲི་ལི་ཡ་	-10.981
ནི་འཛམ་གླིང་ནང་	-10.9812
བྱས་པ་བརྒྱུད་	-10.9813
ཁང་དང་	-10.9814
སྤངས་ཤིང་	-10.9814
སྐྱོང་ཡོང་བའི་	-10.9815
བལྟ་བའི་ཕྱིར་	-10.9817
གྲིབ་	-10.9817
▁ཆོས་ལ་	-10.9817
ཀྱི་ཚབ་ཞུས་ཏེ	-10.9819
ཆེད་ཕེབས་	-10.982
ན་ཀ	-10.9822
འགྱུར་བ	-10.9822
ཕྱུགས་	-10.9822
བཞིན་པ་རེད	-10.9823
སྐུ་ཚབ་འཐུས་མི་	-10.9823
རྙེད་ན་	-10.9823
ལས་བྱས་པ་	-10.9824
དྲགས་	-10.9826
གཙ	-10.9828
ཞུགས་པའི་	-10.983
རྗེད་	-10.9831
འདོད་པ་དག་	-10.9832
་མཛད་པ་མཉམ་པ་དང་	-10.9837
པར་ཐུགས་རྗེ་ཆེ་	-10.9842
འདི་བཤད་པ་ན་	-10.9843
་ཛ	-10.9844
ཡུ་གུར་མི་རིགས་	-10.9844
དོན་ཚན་བཅུ་བདུན་	-10.9845
དུད་ཚང་	-10.9845
པ་དང་བཀུར་སྟི་ལ་	-10.9845
དགའ་དད་སྤྲོ་	-10.9846
བགྲོད་པ་གཅིག་པ	-10.9846
ཕུགས་རྒྱང་རིང་པོ	-10.9846
ལོ་རེ་བཞིན་	-10.9846
ཅེཀ་	-10.9846
ཁྲོ་བོ་གཏུམ་པོ	-10.9847
འི་སྤྱོད་ཡུལ་	-10.9847
བསྒྱུར་བཀོད་ཁང་	-10.9848
ཡན་ཆད་	-10.9849
རྒྱལ་བུ་གཞོན་ནུ་	-10.9851
ས་སྐྱ	-10.9853
རིགས་པས་	-10.9853
སོ་སོར་རྟོག་སྟེ་	-10.9853
དགོན་སྡེ་ཁག་ཏུ་	-10.9853
སྤྱད་པ་སྤྱོད་	-10.9853
སྣང་གསལ་ཞལ་ཕྱེ་	-10.9856
▁གཞན་དུ་ན་	-10.9857
མི་ཤེས་ཏེ་	-10.9858
ཀྱི་ཚིག་བླ་དགས་	-10.9859
▁ནོར་	-10.9859
ཡུལ་གྲུ་ཁག་གི་	-10.9859
ཆོས་ཀྱི་རྒྱལ་པོ་	-10.986
འཁོད་འདུག	-10.986
བོད་གངས་ཅན་	-10.9861
མཚན་ཉིད་གཅིག་	-10.9862
ཁོང་རྣམ་པའི་	-10.9863
ལན་བདུན་	-10.9864
བསྒོམས་པ་	-10.9865
དུམ་བུ་	-10.9865
ཟང་ཟིང་གི་	-10.9865
གཞུང་འབྲེལ་མི་སྣ	-10.9865
བསྒྲིགས་	-10.9866
བྱས་དང་བྱེད་མུས་	-10.9866
ཇེ་མང་དུ་འགྲོ་	-10.9866
ཅན་དུ་འགྱུར་རོ་་	-10.9867
ཚེ་བརྟན་	-10.9871
ལྗོངས་རྒྱུ་ཞིང་	-10.9871
མེ་སྐྱོན་	-10.9872
▁གང་ཟག་	-10.9872
དར་བའི་	-10.9872
གཅིག་པ་རེད	-10.9872
སོང་བ་དང་	-10.9874
ང་ཚོའི་ངོས་ནས་	-10.9874
བླ་གོས་	-10.9874
གནའ་རབས་	-10.9876
དགེ་རྒན་རྣམ་པས་	-10.9876
ཡལ་བར་	-10.9876
དྲོད་	-10.9877
ཡ་རབས་བཟང་སྤྱོད་	-10.9879
འགོ་བཙུགས་པ་	-10.988
མཚན་མ	-10.988
རྒྱུ་ཡིན་སྐོར་	-10.9881
དེང་གི་	-10.9881
ཁྲིམས་ཞིབ་པ་	-10.9881
གྱི་སྒོ་ནས་	-10.9882
ི་སྤྱོད་པ་གང་	-10.9882
རོགས་གནང་ཞེས་	-10.9882
སྦྱོར་བས་	-10.9883
བཅོལ་	-10.9883
ཞེ་ན་འདི་ལྟར་	-10.9884
ཆོས་ཀྱང་སྟོན་ཏོ་	-10.9884
སྙན་ཞུ་	-10.9886
གཏོར་མ་	-10.9886
བརྗོད་པར་བྱ་སྟེ་	-10.9887
▁ཕ་མ་	-10.9887
ཟོང་	-10.9889
བོད་ཟླ་	-10.9889
ལ་ཡོད་པའི་	-10.9889
དང་བཅས	-10.989
ནི་ཤིན་ཏུ་	-10.989
གསོལ་ཏེ་	-10.989
རྒལ་	-10.9891
བརྗོད་དེ་	-10.9892
གི་གསུང་རབ་ལ་	-10.9893
ེ་བ་ལ་བཙུད་པ་ནི་	-10.9894
ར་བྱས་ནས་བད	-10.9895
▁ཕྱག་འཚལ་	-10.9896
གསོལ་ནས་	-10.9897
མངོན་པར་སྒྲུབ་པ་	-10.9898
ཚོགས་པའི་ཚོགས་མི	-10.9899
སྙིང་པོའོ་	-10.9903
དགོས་མཁོ་ཡོད་པ	-10.9903
་པད་མའི་དཔལ་གྱི	-10.9903
ཡིན་པར་ངོས་འཛིན་	-10.9904
རྣམ་ཐོས་ཀྱི་བུའ	-10.9905
དང་མི་རིགས་	-10.9905
་དེ་ལྟ་ལགས་སོ་	-10.9905
▁བགྲོ་གླེང་	-10.9905
རྗོད་ཀྱི་ཡོད	-10.9906
ངེས	-10.9907
བོད་དང་བོད་མིའི་	-10.9908
རྟེན་འབྲེལ་མཚོན་	-10.9909
སྐོམ་པ་	-10.991
ཚགས་	-10.991
བཤད་་	-10.991
སྡེའི་	-10.9913
མ་འདྲེས་པའི་	-10.9913
འཇིག་རྟེན་ལོང་བ	-10.9913
་ཞིག་ཆགས་ཡོད	-10.9913
ཟེར་བའི་ནང་	-10.9914
བཏོན་ཡོད	-10.9915
རྗེས་སུ་བལྟ་བ	-10.9916
བྱེད་དགོས་རྒྱུ་	-10.9916
ལ་ཕན་པའི་ཕྱིར་	-10.9917
མགོ་སྐོར་	-10.9918
དེ་བཞིན་ཕྱི་ལོ་	-10.9918
ཁང་ནས་བཏང་གན	-10.9919
བོད་ཀྱི་ཆོས་དང་	-10.9919
དགེ་སྦྱོང་གི་	-10.9919
ཐོས་ཏེ་	-10.9919
སྐྱིད་སྡུག་	-10.992
སྒྲ་དང་	-10.992
བཙན་བཟུང་བྱས་	-10.9921
འགྲོ་བཞིན་ཡོད་པ་	-10.9924
བུ་མོ་དེ་	-10.9926
▁བསམ་པ་	-10.9926
མེ་ཏོག་གིས་	-10.993
རྒྱན་ཐམས་ཅད་	-10.993
གསལ་འདོན་གནང་	-10.9932
སུན་གཙེར་	-10.9932
མདོ་རྫོགས་སོ་་་	-10.9935
སྟོན་་	-10.9936
ཕྲོགས་	-10.9937
ཆོས་ཡོངས་སུ་ཚོལ་	-10.9938
སློབ་མ་རྣམས་	-10.9939
སྔ་དྲོ་ཆུ་ཚོད་ལ་	-10.9941
རབ་ཏུ་གཡོས་	-10.9941
འཐུན་པ་	-10.9941
ཡང་ན་	-10.9941
ཁྲོ་བའི་	-10.9942
གདན་འདྲེན་ཞུ་	-10.9942
གཏོར་བཤིག་	-10.9942
▁ཚོགས་ཆེན་	-10.9945
མི་རྣམས་ཀྱི་	-10.9945
གཏན་ཉིན་སློབ་གྲྭ	-10.9946
ལས་བརྩམས་ཏེ་	-10.9946
མགོ་ལ་	-10.9947
གྱི་ལས་གཞི་	-10.9947
སྐབས་ཀྱི་	-10.9947
དང་ལྡན་པ་ཡིན་ཏེ་	-10.9949
བཞག་ན་	-10.995
སྙམ་ནས	-10.9951
དེ་ལྟ་བས་ན་བ	-10.9953
ལས་གཞིར་	-10.9953
ཆུ་སྐྱ	-10.9953
མ་གཏོགས	-10.9956
བསད་པ་	-10.9957
པ་འདི་ནི་	-10.9957
ག་གི་	-10.9958
རྐང་གཉིས་	-10.9959
པོ་ཆེ་	-10.996
གཏན་ནས་	-10.9961
▁དང་པོ་	-10.9962
བསྡད་པ་རེད	-10.9963
ངེས་པའི་ཚིག་	-10.9964
ཐེར་འབུམ་	-10.9965
ཡོངས་སུ་རྟོག་པ་	-10.9965
ཟ་བ་	-10.9966
་མཁས་པ་	-10.9968
སྲུ	-10.9969
གླིང་གི་	-10.9969
སླེ	-10.9971
མགོ	-10.9971
་ག	-10.9973
སྟངས་དང་	-10.9974
དྲང་བདེན་དང་	-10.9974
བྲམ་ཟེ་དང་	-10.9978
ཉིས་སྟོང་	-10.9979
སྤོང་ཞིང་	-10.9979
རྒྱུའི་འཆར་གཞི་	-10.998
ཀླུ་ཡི་	-10.9983
གྱི་རྣམ་པ་	-10.9984
ཞིག་གནས་པ་དེས་	-10.9985
བསྐོར་བ་བྱས་ནས་	-10.9985
ལྟེ་གནས་	-10.9986
ཁྱབ་པ་	-10.9987
རྩེ་ཞིང་དགའ་	-10.9987
འདུག་པ་དང་་	-10.999
རྣམ་ཤེས་	-10.9991
དམིགས་པའི་	-10.9995
སྒྲོ	-10.9996
སྐོར་གསུང་བཤད་	-10.9997
་ཞིག་ཡིན	-10.9999
བོད་དོན་ཞུ་གཏུག་	-11
མཐུན་འགྱུར་འོག་	-11.0002
མགོ་དང་	-11.0004
བསྒྲལ་	-11.0004
གནས	-11.0004
གནས་སྟངས་ཇི་ཡིན་	-11.0005
རྒྱལ་ས	-11.0006
བོད་ཀྱི་བླ་ན་མ	-11.0006
རྫོགས་པ་	-11.0007
ཀྱི་མ་རེད	-11.0013
མ་རུངས་	-11.0013
ཤི་ཡ་	-11.0013
ཆེན་པོ་དང་	-11.0014
▁དེ་ཡང་ཕྱི་ཚེས་	-11.0014
མཛད་རྣམ་	-11.0015
སྐྲག་ཅིང་	-11.0016
བྱས་ལ་	-11.0016
སྐྱོ་བ	-11.0017
ཚད་མེད་པ་བཞི་	-11.0017
གཉིས་པོ་	-11.0017
སྙམ་དུ་དགོངས་ནས་	-11.0019
ཁུ་བ་	-11.0019
བདུག་པ་	-11.002
འདི་ལྟ་བུ་དག་	-11.002
་དགེ་སློང་གི་	-11.0022
སློབ་ཕྲུག	-11.0023
མིང་འདི་ཞེས་བ	-11.0024
འགོ་འཛུགས་གནང་	-11.0026
ཝི་ཏི་ནམ་	-11.0026
▁ལུས་ལ་	-11.0026
ཞི་ཞིང་	-11.0026
དོན་དང་	-11.0028
ཤེས་པར་གྱིས་་	-11.0029
ཞེས་བྱ་བའམ་མི་	-11.0029
ཚགས་ཚུད་པོ་	-11.0029
བྱེད་རྒྱུར་	-11.003
▁དགེ་སྦྱོང་	-11.0032
སྟོང་གིས་	-11.0032
བོད་ཆོལ་ཁ་གསུམ་	-11.0032
འདི་འདྲ་བ་	-11.0034
ཚད་མ་རིག་པ་དང་	-11.0035
བདུད་རྩི	-11.0035
མི་ཡིས་	-11.0035
པའི་སྐོར་	-11.0037
བསམ་གཏན་བཞི་དང་	-11.0038
་ཕག་	-11.0039
སྟེང་ནས་	-11.0043
གྱི་གནས་སྟངས་	-11.0043
་ཛི་	-11.0044
སྩལ་རྗེས་	-11.0044
་ཝ	-11.0044
▁སྟོབས་བཅུ་	-11.0045
མངོན་པར་འཕགས་པ་	-11.0046
འགོག་རྐྱེན་	-11.0047
དགེ་སློང་གིས་	-11.0049
བརྐྱང་	-11.0051
སྐྱོར་	-11.0051
▁ཚ	-11.0051
ལྟ་ཅི་སྨོས་ཏེ་	-11.0052
སྣེ་འཁྲིད་	-11.0052
ན་སངས་རྒྱས་	-11.0055
▁བཀའ་ཤག་སྐབས་	-11.0056
རྣམ་པར་འདྲེན་པ་	-11.0056
བ་དུརྱ་	-11.0056
ཀུན་ནས་ལྡང་བ་	-11.0057
བར་སྐབས་	-11.0057
འདོར་བ	-11.0058
བཀའ་བསྡུར་	-11.0058
ངོན་པར་བརྩོན་པར་	-11.0059
▁དེར་བརྟེན	-11.006
་གྷ	-11.006
འདྲེན་པའི་	-11.0063
མྱ	-11.0065
ཚོགས་ཡོད	-11.0066
ཆགས་ཡོད་པ་	-11.0067
ས་ཆོས་ཐམས་ཅད་	-11.0069
ཁྱོན་ཡོངས་ཀྱི་	-11.007
ཚོགས་གཙོ་ལ	-11.0071
གསུམ་ལ་	-11.0071
ཅེས་བྱ་བ་ནི་	-11.0072
དཔར་	-11.0072
པའི་སྨོན་འདུན་	-11.0076
སློབ་གཉེར་བྱེད་	-11.008
འདི་འདྲ་ཞིག་	-11.008
སྨོན་ལམ་འདེབས་	-11.0081
▁སྔར་	-11.0081
ཐད་ཀར་འབྲེལ་བ་	-11.0085
བསྐོ་ལྷན་ཁང་གི་	-11.0088
སོན་པའི་	-11.009
མཁྱེན་པའི་	-11.0092
མེ་ལོང་	-11.0095
སྐྱེ་བོ་མང་པོས་	-11.0096
དཀའ་རྙོག་	-11.0097
མིའི་རྣམ་དཔྱོད་	-11.0097
འདུ་ཤེས་འཛིན་	-11.0098
དེ་ནི་ང་ཉིད་ཡིན་	-11.0098
ལས་འཕགས་པ	-11.0098
འདུག་ཅིང་	-11.0099
བཅོམ་ལྡན་འདས་ལས་	-11.01
བཙུགས་པའི་	-11.0101
གཙོ་ཆེ་ཤོས་	-11.0102
གཞན་དག་གིས་	-11.0103
ཚུལ་ཁྲིམས་སྲུང་བ	-11.0104
ཆོས་གྲོགས་	-11.0105
གསུངས་སོ་་	-11.0105
གི་བསྟན་པ་ལ་	-11.0106
མི་རྟག་ཅེས་བྱ་བ	-11.0107
ཕན་གྱི་	-11.0108
དང་བསྔགས་བརྗོད་	-11.0108
▁ལོ་ངོ་	-11.0109
འཇོག་ཁང་	-11.011
མཆིས་ན་	-11.011
ཆོས་ཐམས་ཅད་ཀྱང་	-11.0113
▁ད་ལྟར་	-11.0114
གཉིས་རིང་	-11.0114
བཟོ་དགོས	-11.0114
སྦྱིན་པ་སྦྱིན་པ	-11.012
ར་བྱེད་ཅིང་	-11.0122
དབུལ་བ་	-11.0122
དེ་སྲིད་དུ་	-11.0123
ཐོག་ལའང་	-11.0123
མོན་གྷོ་	-11.0124
བཀང་	-11.0124
བུ་དང་	-11.0124
དམིགས་པ་ཅན་	-11.0125
གདུལ་བྱ་	-11.0126
ཁ་ཅིག་གིས་ནི་	-11.0126
བྱ་བ་ནི་	-11.0126
འགན་དབང་	-11.0127
དགུ་པ་	-11.0127
དུང་ཕྱུར་བདུན་ཅུ	-11.0128
འགྲོ་གི་ཡོད	-11.0128
དྲང་བདེན་	-11.0132
ལག་ལེན་བསྟར་	-11.0132
དབང་བསྐུར་བ་	-11.0133
སྤངས་པས་	-11.0133
▁སྒྲ་	-11.0134
ད་ཞིའི་གཙུག་རྒྱན	-11.0134
▁ཆོས་གང་	-11.0134
དེ་གའི་	-11.0136
ཞིག་བྱུང་	-11.0137
བཟོ་རྒྱུ	-11.0137
གླུ་དང་	-11.0139
བྱས་ཚེ་	-11.014
▁འཇིག་རྟེན་མགོན་	-11.014
ལ་ཇི་ལྟར་མ	-11.014
་རྟག་པར་རྗེས་སུ་	-11.0141
རྒྱལ་ཁའི་ངང་གྲོལ	-11.0143
ཀྱི་ཡོད་པ་དང་	-11.0143
དང་འཐུན་པ་	-11.0143
རྒྱལ་བསྟན་ཡོངས་	-11.0145
བརྙས་པ	-11.0146
ཐུགས་རྗེ་ཆེན་པོ	-11.0148
ེ་ཝི་	-11.0149
རྔ་རོལ་དང་བཅས་	-11.0149
བསམ་པ་གཅིག་མཐུན་	-11.0149
རིས་སུ་མ་ཆད་པའི་	-11.0149
གསོལ་ཇ་འབྲས་སིལ་	-11.0149
སེམས་དང་སྲོག་གི་	-11.0149
སྡིངས་ཆའི་སྟེང་	-11.0149
སྦྲ་གཉིས་ཚེ་རྒྱལ	-11.0149
གཤེགས་སུ་གསོལ་	-11.0149
འབྲེལ་མ་ཡིན་པའི་	-11.0149
ལྷུང་བཟེད་བསྣམས་	-11.015
▁ཀྱེ་ཀྱེ་	-11.015
ནད་རྟགས་ཡོད་མེད་	-11.015
ཡོད་ཅེས་བྱ་བའམ་	-11.0151
རྒན་རབས་	-11.0151
མི་གྲངས	-11.0151
ུས་འཁོར་དབང་ཆེན་	-11.0151
་ཤུགས་མཉམ་པ་དང་	-11.0152
་་་་	-11.0152
བོད་དོན་ཞུ་སྐུལ་	-11.0153
རྒྱལ་བའི་སྲས་	-11.0154
་འདུགདེར་བརྟེན་	-11.0154
འདོན་གནང་མཛད་	-11.0155
བྱ་རྒྱུ་ཧ་ཅང་	-11.0155
ཐོགས་པ་དང་་	-11.0155
ས་གནང་བར་རིག་ནས་	-11.0156
དེ་དང་དེ་དག་ཏུ་	-11.0157
ཀྱི་རྣམ་པ་	-11.0159
▁བྱམས་བརྩེ་	-11.016
དབྱེ་བ་མེད་པར་	-11.016
བོད་ས་དབང་སྒྱུར་	-11.0161
ཐོབ་ཡོད	-11.0163
སྨིན་པར་བྱ་	-11.0164
བལྟས་པ་	-11.0164
ལན་གསུམ་དུ་བཟླས་	-11.0165
གནང་དགོས་རྒྱུ་	-11.0166
བོད་མི་ཡོངས་ལ་	-11.0166
རྡོ་རྗེ་གདན་གྱི་	-11.0166
བཟློག་པ	-11.0167
གཏོང་དགོས་པའི་	-11.0167
ཀྱི་དངོས་པོ་ལས་	-11.0168
▁ལྷན་ཁང་ཁག་གི་ད	-11.0169
▁ཁྱེད་ཚོ་	-11.017
ཡོངས་སུ་གཟུང་བ	-11.017
ནགས་ཁུང་	-11.0171
▁དེ་དགྲ་བཅོམ་པ	-11.0171
དྷ་ར་	-11.0171
ཡང་རུང་	-11.0171
མན་ངག་	-11.0172
གདའ་་	-11.0172
རྒྱ་དམར་གཞུང་གི	-11.0173
ཞུས་པ་ལྟར་	-11.0174
་མེད་པར་གྲགས་པས་	-11.0178
ཟོ	-11.0178
རིག་པ་བཞི་དང་་	-11.0179
སྒྲོགས་སྦྱང་ཞུས་	-11.0181
ཀྱི་ཐོག་མར་	-11.0182
ཕ་མ་དང་	-11.0183
པའི་སྐབས་སུ་	-11.0185
དག་ཅིང་	-11.0186
་བོད་རིགས་སྤྱི་	-11.0186
པའི་མི་	-11.0186
སྐྱེས་པའམ་	-11.0186
རྒྱལ་སྤྱི་	-11.0187
པ་ལས་ཡོངས་སུ་	-11.0187
སྤོས་མཆོག་	-11.0188
སྤྱན་གྱིས་	-11.0188
ཆེ་གེ་མོ་	-11.0188
▁ཆོས་སྨྲ་བ་	-11.019
བཅར་བ་ཡིན	-11.0191
སྐྱེད་པར་བྱེད་	-11.0192
▁བོད་པ་	-11.0192
དགེ་རྒན	-11.0197
་ཅེས་བརྗོད་	-11.0198
ཀུན་ཏུ་སྦྱོར་བ་	-11.0198
ཟེར་གྱི་ཡོད	-11.02
དེའི་སྐོར་	-11.0201
ལས་བྱེད་རྣམས་	-11.0202
ཆོས་དང་ལྡན་པ	-11.0202
རེད་མ་གཏོགས་	-11.0205
སྤྱོད་པ་་དེ་དག་	-11.0205
གཟིམ་ཆུང་ཕོ་བྲང་	-11.0206
ནམ་མཁའ་དང་མཚུངས་	-11.0208
ཡོང་གི་མ་རེད	-11.0208
་རགས་	-11.0209
▁སྲིད་	-11.0214
ཝུ་ཧན་	-11.0214
རྒྱ་ཆེའི་	-11.0215
ར་མཛད་པ་	-11.0216
ལ་བརྟེན་ཏེ་	-11.0216
པར་མཛོད་ཅིག་	-11.0217
ཆེན་པོ་མཆོག་བོད་	-11.0218
རིམ་གྲོ་བྱས་	-11.0219
དགེ་སློང་འདི་	-11.0221
འཇུག་པར་བྱེད་	-11.0221
གཏན་ལ་ཕབ་	-11.0222
ཞལ་གྱི་	-11.0222
མཇལ་འཕྲད་གནང་ཡོད	-11.0223
སུ་ཡི་	-11.0223
གནས་ཚུལ་ལ་	-11.0224
གང་ཡིན་པ་སྟེ་	-11.0225
ཕྱུག་ལ་དབང་བྱེད་	-11.0225
གཞིས་ཆགས་ནང་	-11.0226
ལོ་དྲུག་	-11.0226
འདོད་པའི་ཕྱིར་	-11.0232
རིམས་ཁྱབ་བརྡལ་	-11.0235
ལུང་བསྟན་པ་་	-11.0235
བཞིན་པ་ནི་	-11.0235
མང་གཙོ་དོན་གཉེར་	-11.0239
འབུལ་ཞུས	-11.024
དབྱངས་ཀྱི་	-11.0241
ལས་ཐར་བ	-11.0245
བཤད་ཀྱི་འདུག	-11.0246
པ་ཙམ་མ་ཟད	-11.0246
སྙིང་རྗེ་ཅན་	-11.0246
ལས་ཡོངས་སུ་ཉམས་པ	-11.0247
དཀའ་སྡུག་མྱོང་	-11.0248
ས་ཆུང་མ་བླངས་ནས་	-11.0252
ཚན་རིག་པ་ཚོས་	-11.0252
ལྷུན་གྱིས་འགྲུབ་	-11.0253
ཐོང་	-11.0253
དང་གཏོང་བཞིན་པ	-11.0253
སྐུ་ཉིད་ཀྱི་	-11.0253
བརྩེ་བའི་	-11.0254
མཛད་གཙོ་རྣམ་པ་	-11.0255
སྡུག་བསྔལ་འགོག་པ	-11.0255
པར་མི་བྱ་	-11.0257
ནེ་རུ་	-11.0257
ཆེད་དུ་བརྗོད་པ་	-11.0258
ཡོང་མཁན་	-11.0258
སེམས་ཅན་ཁྲི་ཕྲག་	-11.0258
དྲི་ང་བ	-11.0258
ཞིག་ཡིན་སྟབས་	-11.0259
ཁྱུ	-11.026
བདོག་པ་ཐམས་ཅད་	-11.0264
ི་ལི་	-11.0265
རྣག་	-11.0266
དབུས་གཞུང་ནས་	-11.0267
ནས་ཤི་འཕོས་ཏེ་	-11.0267
སྦྱིན་པ་བྱིན་	-11.0269
ཉིན་གུང་	-11.0269
རུང་བ་	-11.027
མང	-11.0271
དྲན་པ་དང་ལྡན་པ	-11.0273
ལས་ཁང་གི་	-11.0273
བྱོས་	-11.0274
མོས་པ་དང་་	-11.0275
མ་ཞི་བ	-11.0275
འབྱུང་བ་དང་་	-11.0276
ཞུ་སྐབས་	-11.0276
ར་མི་སྤྱོད་ན་	-11.0278
ཤར་བ་	-11.0278
བསྟན་པ	-11.0279
ཉལ་བ་	-11.0281
ཡོད་སྐོར	-11.0281
བོད་ནང་གི་དངོས་	-11.0282
▁རྒྱ་ནག་ཝུ་ཧན་	-11.0283
ེའི་རྣམ་པར་	-11.0283
ཡིན་པའི་ཕྱིར་ཏེ་	-11.0284
ཐོས་པ་དང་་	-11.0284
སྐྱེ་བ་མེད་པ	-11.0285
ནང་ཆོས་ངོ་སྤྲོད་	-11.0285
སྟོན་པར་མཛད་	-11.0286
ངོས་རང་རྒྱ་གར་	-11.0287
འི་ནང་ནས་	-11.0287
བྱའོ་སྙམ་ནས་	-11.0291
སྲིད་སྐྱོང་གི་	-11.0291
འགྲོ་ལ་	-11.0292
མ་མ	-11.0292
▁ཏིང་འཛིན་	-11.0293
སྨིག་རྒྱུ་	-11.0294
ཡོངས་སུ་སྤྱད་པ	-11.0295
ཐབས་ཀྱིས་	-11.0295
དུ་མས་	-11.0295
སོགས་ཀྱི་ནང་	-11.0296
▁བདག་ཅག་གཉིས་	-11.0297
མི་སྐྱེད་དོ་	-11.0299
བྱིན་པས་ནི་	-11.0299
གྲོལ་བར་	-11.0299
བརྟག་དཔྱད་བྱས་	-11.03
ཀྱི་འདུག	-11.0301
ཤེས་པ་སྟེ་	-11.0301
ཅད་	-11.0302
ཞེ་དྲག་	-11.0302
ཐུབ་རྒྱུར་	-11.0303
ཡིད་ལ་བྱེད་པ་ན་	-11.0305
▁བཟོད་པའི་	-11.0305
ཆོས་དབྱིངས་	-11.0306
བདུད་ཐམས་ཅད་	-11.0306
རབ་ཏུ་བཤད་	-11.0307
འི་ཁྲི་འཛིན་	-11.0309
བདེ་ཞིང་	-11.0311
དེང་དུས་ཀྱི་	-11.0312
▁དངོས་ཡོད་	-11.0312
གཏོགས་པ་	-11.0313
ཇེ་སྡུག་ཏུ་འགྲོ་	-11.0316
་མངོན་པར་འདུ་	-11.0316
རྟ་དང་	-11.0316
པར་མི་འགྱུར་བ་	-11.0316
▁རིག་པ་དང་མ	-11.0317
རྒྱུ་གང་ཡང་མེད	-11.0318
འགྱུར་རོ་	-11.032
▁བོད་མི་ཚོར་	-11.032
གཟུགས་སམ་	-11.032
བྱ་ཡུལ་	-11.0321
མི་ལེན་	-11.0321
མཛད་དུ་གསོལ་	-11.0322
ཐམ་པ་	-11.0322
དགོས་པ་སོགས་ཀྱི་	-11.0322
སླེབས་པ་	-11.0323
ཡ་ལ	-11.0326
ཚར་བཅད་	-11.0326
བརྒྱུད	-11.0327
རྣམ་པར་འཕྲུལ་པ་	-11.0329
པོ་དག་	-11.0329
དབྱེ་བ་	-11.0329
ཕྱོགས་མཚུངས་	-11.033
བཞི་པའོ་་	-11.0332
ཕྱི་ལོ་བཟུང་	-11.0337
གོས་དང་	-11.0339
་དེ་དག་གི་	-11.0339
ཞེས་པའི་དཔེ་དེབ་	-11.0341
མཚུངས་སོ་་	-11.0344
དང་་ལྷ་དང་་མི་	-11.0345
ཀརྨ་ཡེ་ཤེས་མཆོག	-11.0345
མེད་ཅེས་	-11.0345
པར་བྱེད་ཅིང་	-11.0346
ཞེ་སྡང་གི་	-11.0346
སྣང་བ་ཆེན་པོས་	-11.0347
ཆོས་བཤད་	-11.0347
འི་གསར་འགོད་	-11.0348
ག་ལས་	-11.0348
ཕྱུག་པོ་	-11.0349
▁ལྷོ་	-11.035
བྷོ་	-11.035
བལྟ་བ་དང་་	-11.035
རྣམ་པར་རྟོག་	-11.0351
པ་དེ་བཞིན་དུ་	-11.0351
དྲུང་ན་	-11.0352
པར་འགྱུར་ཞིང་་	-11.0353
འགྲེ	-11.0353
ཆེད་རྩོམ་	-11.0354
འཕེལ་རྒྱས་	-11.0354
འཆང་བ	-11.0355
དྲང་སྲོང་ཆེན་པོ་	-11.0355
སྔར་ལས་	-11.0355
འི་སེམས་དང་་	-11.0356
▁ཅི་སྟེ་	-11.0357
ཡི་གེར་འདྲི་བ	-11.0358
ཡུལ་དེར་	-11.0359
ས་མཆོག་གིས་	-11.0362
རམ་འདེགས་	-11.0362
སེམས་ཅན་གཞན་	-11.0362
ཡིན་པ་རེད	-11.0362
གས་འོག་མའི་	-11.0363
▁སྙམ་ནས་	-11.0363
མཐོ་བ	-11.0363
དཔུང་གཉེན་	-11.0364
མ་རིག་	-11.0364
བྲལ་བའི་	-11.0364
བྱེད་དམ་	-11.0366
ཡོང་གི་ཡོད་པ་རེད	-11.0367
སྲེད་པའི་	-11.0367
བརྒྱ་ཕྲག་སྟོང་	-11.0368
གཡ	-11.0369
སྡོང་	-11.037
འདྲ་ཞིང་	-11.037
ཊུ་	-11.0374
འགན་བཞེས་	-11.0376
པ་དག་ཡིན་ནོ་་	-11.0376
སོགས་ངོ་སྤྲོད་	-11.0377
བགྲོ་གླེང་གི་	-11.0379
ཐབས་ཆེད་	-11.038
སྤྱིར་བཏང་	-11.038
དེ་ཙམ་གྱིས་	-11.0381
མངོན་ཤེས་	-11.0381
ྱོ	-11.0384
ལ་ཡང་རྒྱ་ཆེར་	-11.0388
རྒྱལ་ཁབ་ནང་	-11.0389
འབྱུང་བར་འགྱུར་་	-11.0389
[...]
