▁ 16519
ལ་ 6662
་བྱང་ཆུབ་སེམས་དཔ 6063
་ 5983
ནི་ 5842
ན་ 4786
ས་ 4350
མི་ 4210
་དང་ 4189
་བ 3820
་དང་་ 3651
འི་ 3547
མ་ 3395
ཡང་ 3365
▁དེ་ 3240
འ་སེམས་དཔའ་ 3066
ར་ 3059
ནས་ 3013
ཡང་དག་པར་རྫོགས་པ 3010
ལས་ 2946
འདི་ 2764
▁བཅོམ་ལྡན་འདས་ 2632
་དེ་ 2579
རྣམས་ 2572
ཆེན་པོ་ 2554
ལ་བ 2454
ཏེ་ 2376
▁བ 2238
འོ་་ 2234
ེ་བཞིན་གཤེགས་པ 2206
ཐམས་ཅད་ 2205
ཀྱང་ 2197
ཀྱིས་ 2183
ེ་བཞིན་གཤེགས་པ་ 2121
འ་ 2066
ཀྱི་ 2000
ས་བ 1960
▁ད 1862
ན་བ 1841
ར་འགྱུར་རོ་་ 1824
འམ་ 1818
ལ 1780
ར་བ 1774
ཀྱི་ཕ་རོལ་ཏུ་ཕྱི 1768
ཆོས་ 1754
▁དེ་བཞིན་དུ་ 1754
ཁམས་ 1702
ཞིང་ 1694
་དེ་དག་ 1691
་དང་་བ 1688
རབ་ཏུ་ 1661
ག 1626
ན 1613
ུ 1609
ནས་བཅོམ་ལྡན་འདས་ 1606
་དག་ 1594
ཆོས་ཀྱི་ 1576
་ད 1551
ནི་བ 1508
ཡོངས་སུ་ 1506
ོ 1505
▁བྱང་ཆུབ་སེམས་དཔ 1505
མེད་པ 1490
ཅོམ་ལྡན་འདས་ 1486
མ་བ 1477
ཤིན་ཏུ་ 1471
ཤེས་པ་ 1447
གནས་ 1440
མ 1430
ང་ 1428
གང་ 1425
▁དེ་ནས་ 1403
སེམས་ 1401
མེད་པ་ 1399
ེ་བཞིན་གཤེགས་པས་ 1390
འི་སངས་རྒྱས་ 1358
ད 1356
ུ་ 1332
ཤེས་རབ་ 1275
ཁྱོད་ 1272
་དང་་་ 1263
ངས་ 1249
མེད་ 1233
ཡིན་ནོ་་ 1219
འཇིག་རྟེན་གྱི་ 1215
ན་ད 1208
ག་ 1201
གི་ 1191
་་ 1188
སྟེ་ 1187
རྣམས་ཀྱི་ 1185
འདི་ནི་ 1174
འོ་ 1164
ཆེན་པོ 1155
ས་བྱ 1148
འི་བ 1144
འ 1141
ས 1135
་སྟེ་ 1131
འི་ཕྱིར་ 1130
ས་བཅོམ་ལྡན་འདས་ 1126
ཉིད་ 1119
ཡི་ 1119
ར 1118
ང་བ 1112
འཇིག་རྟེན་ 1109
་དེ 1102
ཤ 1100
མཆོག་ 1090
་དགྲ་བཅོམ་པ་ 1085
ཅིང་ 1082
ས་ད 1077
་དེ་ནི་ 1076
བ 1076
རྣམས་དང་་ 1074
ལ་ད 1069
ར་བྱའོ་་ 1067
ན་པ་ 1061
ང 1056
་དེས་ 1053
ཇི་ལྟ་བ་བཞིན་ 1052
ས་པ་ 1049
ོ་ 1048
ཤིང་ 1043
ད་ 1039
ལུས་ 1033
རྣམ་པར་ 1032
ེ 1030
ལ་འདི་སྐད་ཅེ 1024
ེ་ 1021
ཅན་ 1017
སེམས་ཅན་ 1015
སངས་རྒྱས་ཀྱི་ 1014
གྱི་ 999
གིས་ 998
ས་སོ་་ 997
ར་གྱུར་ཏོ་་ 994
ནས་བ 989
རྒྱ 987
ས་པའི་ 978
རྣམས་ལ་ 972
ེ་བ 970
ང་ཆུབ་སེམས་དཔའ་ 963
ཞེས་བྱ་བ 960
▁དེ 960
་དག 957
ལགས་ 956
ཟ 951
ོན་ 951
དག་ 950
་དེའི་ 946
ང་ཆུབ་སེམས་དཔ 945
ཕ 939
ཅི་ 933
ར་འགྱུར་ 932
ལམ་ 929
ལ་ཡང་ 923
ས་པ 918
ཀ 917
ོ་བ 916
མི 914
ཡིན་ 904
ནི 900
ྲ 897
ཞིག་ 890
ར་བྱེད་ 890
འདི་ལྟ་སྟེ་ 887
མ་ཡིན་ 884
ལྷ 880
རྣམས་ཀྱིས་ 868
མེད་པའི་ 854
་དེ་ལ་ 851
རྒྱལ་པོ་ 850
▁རིགས་ཀྱི་བུ་ 850
ལགས་སོ་་ 848
ང་ད 846
ར་འགྱུར་་ 845
▁དེ་དག་ 845
འདི་དག་ 844
་དང་བ 842
ཉོན་མོངས་པ་ 841
ླ་ན་མེད་པ་ 839
▁དེ་ལ་ 839
ལྟ 821
▁དེའི་ 812
སྒྲ 804
མངོན་པར་རྫོགས་པ 803
རྣམ་པ་ 800
ུས་ 800
ད་པ 799
ཏེ 795
ཐོབ་པ 791
ས་དེ་ 790
ཞེས་ 786
ཆ 784
ཏ 781
ས་་ 781
ཀྱི 777
ུ་བ 777
དེ་ 776
ན་པ 775
ར་བྱ 775
གཟུགས་ 774
ར་ད 774
ཞེས་བྱ་བ་བ 772
ཡང་དག་པ་ 772
▁བཙུན་པ་བ 772
▁གང་ 768
ཆེན་པོའི་ 767
ཀྱང་བ 762
ལྟར་ 759
ཡང་བ 758
མས་ 757
ད་དེ་ 756
ཞི 756
གནས་པ་ 753
ཇི་ལྟར་ 753
ཞེས་བྱ་བ་ 751
ཡིན་ཏེ་ 751
ཁ 750
སངས་རྒྱས་ 750
འི་ད 749
དང་ 746
▁ཁྱིམ་བདག་ 741
ཏེ་་ 740
ནི་ད 739
གནས་པ 738
ཡེ་ཤེས་ 737
གྱིས་ 735
ཀྱིས་བ 734
ནི་་ 733
་བ་ 731
འི་བྱང་ཆུབ་ 730
གཉིས་ 729
ན་པའི་ 728
མེད་པར་ 726
ཅིག་ 725
ར་གྱུར་ 724
སྟོང་ 722
▁ཤ་ར་དྭ་ཏིའི་བུ་ 721
ོས་ 718
ཐམས་ཅད་ཀྱི་ 711
ཞི་ 711
ར་བྱེད་པ 710
ཤེས་པ 710
སྡུག་བསྔལ་ 705
འདི 703
འི 702
ོར་ 702
ཀུན་ 699
ཡིན་ནོ་ 695
ར་བྱེད་དོ་་ 695
རྟ 694
ཞེ་ན་ 693
ས་སྨྲས་པ་ 691
གས 690
ཏུ་ 688
ལྷ་ 686
ག་པ 682
རྗེས་སུ་ 682
ཚིག་ 681
་དང་་ད 680
ང་བ་ 680
ཙ 680
▁དེ་ནི་ 679
ནས་ད 677
་དང་ལྡན་པ་ 676
ཐམས་ཅད་མཁྱེན་པ་ 675
ཆོས་རྣམས་ 674
ན་་ 674
མིག་ 674
མེད་་ 674
▁ཆོས་ 672
ཆོས་ཐམས་ཅད་ 670
ལ་་ 669
མཐོང་ 667
▁སེམས་ཅན་ 667
མཐོང་བ 664
ས་ཏེ་ 664
ཅ 662
ན་དང་ 658
ན་དང་་ 656
མོ 654
འོད་ 654
གང་ཞེ་ན་ 651
ཞེས་བྱའོ་་ 651
ལྟ་བ 651
▁དེ་བཞིན་གཤེགས་པ 649
མོ་ 647
▁དེ་ཅིའི་ཕྱིར་ 647
གཅིག་ 646
རི 646
ུང་ 646
མ་ད 645
རབ་ཏུ་མཁྱེན་ཏོ་་ 645
གྲ 644
གི 642
ཐ 642
ཀྱི་བ 641
ས་གསོལ་ཏོ་་ 640
ག་པ་ 638
གཞན་ 638
ཚེ་དང་ལྡན་པ་ 638
མེད་པ་དང་་ 636
་བྱ 635
གས་ 633
དང་་ 633
མའི་ 633
པ 632
ར་འགྱུར་རོ་ 629
ུང་བ 629
ཞུགས་ཏེ་ 626
འདི་ལྟར་ 622
ཡུལ་ 621
གྱི 619
འབྲས་བུ་ 616
མེ་ཏོག་ 615
རྣམས་དང་ 615
སྐ 615
སྟེ 615
ན་དུ་ 613
ི་ 613
ཇི་སྙམ་དུ་སེམས་ 612
ད་པ་ 612
གས་པ་ 611
མངོན་སུམ་དུ་བྱ 610
མི་བ 605
ཤིག་ 605
ལས་བ 604
ཀུན་ཏུ་ 600
ར་བྱ་ 600
སྐྱེ་བ 596
ལྡན་ 592
གྱུར་པ་ 591
ཡང་དག་པར་ 591
ར་བྱེད་པ་ 591
ཐོས་ 587
ེ་བ་ 587
གང་དག་ 585
གད 585
ོའི་ 584
ལོ་ 582
ཕྱིར་ 580
གཞ 578
▁དེས་ 578
▁མི་ 577
ཅི 576
ར་འགྱུར་བ 576
ན་གྱིས་ 574
སྨ 574
ི 574
ན་ག 573
འདི་སྐད་ཅེ 573
མཚན་ 571
ཞ 569
ཏེ་བ 568
ར་བྱའོ་ 568
▁བདག་ 568
མ་པ་ 567
རྒྱལ་པོ 567
འབྱུང་བ 566
ད་བ 565
ཚུལ་ཁྲིམས་ 565
ས་པར་ 565
ན་དེ་ 564
ཞེ 564
ཀྱིས་བཀའ་སྩལ་པ་ 562
གསུམ་ 562
ཕྱོགས་ 562
འགྲོ་བ 562
བ་ 561
ོན་པ 560
ཆུ་ 559
དག་གིས་ 559
ལ་ནི་ 559
འདུ་བྱེད་ 554
ེད་པ 554
ཡོངས་སུ་བ 553
ལ་བ་ 553
འི་བྱང་ཆུབ་ཏུ་ 551
་པ 549
ན་པར་ 549
ས་ན་ 545
སྒྲ་ 544
རྟག་ཏུ་ 540
ས་ལ་ 538
ཀུན་འབྱུང་བ་ 535
འདིར་ 535
▁དགེ་སློང་དག་ 535
ཉིད་དུ་ 534
མ་ཡིན་པ 534
རབ་ཏུ་མཁྱེན་ཏེ་ 533
གཏ 529
ས་ནས་ 528
སྤྱོད་པ 527
དག་གི་ 526
རྒྱུ་ 526
གྱུར་པ 525
སླ 525
ུང་བ་ 524
ཆེ 521
སྦྱར་ཏེ་ 520
་དང་ད 519
ཆེན་པོ་བ 519
ཞི་བ 519
རྣམ་པ 519
རྣམས་བ 518
འ་བ 517
འཆ 517
རབ་ 517
འད 515
རྩ 515
ར་མི་ 514
སྤྱོད་པ་ 514
འདི་ལ་ 513
རྣམ་པར་ཤེས་པའི་ 513
ས་སུ་ 513
ེར་ 513
ཡང་ད 512
མཆོད་པ 511
ལ་མི་ 510
ད་དུ་ 507
ུ་ད 506
ཡི 505
ལྷའི་ 503
མངོན་པར་ 501
ཡིད་ 501
ཡིན་་ 501
ཤེས་ 501
སྡ 501
ོང་ 501
གས་པ 499
ཕུང་པོ་ 499
ངས་པ 498
རྣམས་ནི་ 497
སྐྱེ་བ་ 496
མ་པ 495
ངས་པ་ 494
ད་ད 494
འི་ཕྱིར་རོ་་ 492
ན་འཇིག་རྟེན་གྱི་ 490
ར་བྱ་བ 490
གིས་བ 489
མང་པོ་ 489
་དེ་དག་ཐམས་ཅད་ 488
མ་བྱ 488
སྦྱིན་པ 488
ཡ 486
▁དེ་ན་ད 486
ར་གྱུར་ཏེ་ 485
མཐ 484
ུར་ 484
ེའི་ 484
ང་དུ་ 483
ཡང་མི་ 481
རང་བཞིན་ 481
སྟོབས་ 479
ུ་དེ་ 479
▁དེའི་ཚེ་ 479
ཀྱང་ད 477
ཕྱི 477
སོད་ནམས་ 477
མེད་ཅིང་ 476
ཚ 476
ཚོགས་ 476
ཀུན་ནས་ 475
▁ཇི་ལྟར་ 474
▁བཅོམ་ལྡན་འདས་དེ 474
མཐོང་ངོ་་་ 473
ར་བྱ་བ་ 473
ལྟ་བུ་ 473
འཁོར་ 472
ེས་ 472
ན་པ་དང་་ 471
མེད་དོ་་ 471
འི་བར་དུ་ 471
ཤེས་པ་ཡང་དག་པ་ 471
བ་པ་ 470
སྟ 469
སྟན་པ 469
དེ་བ 468
ཞེས་བྱ་བའི་ 468
འདུ་ཤེས་དང་་ 468
འདོད་པ 468
སྲ 468
▁ལྷ 468
ཏོ་་ 467
་ན་ 466
ན་གྱི་ 466
▁སངས་རྒྱས་ 466
▁རབ་འབྱོར་ 464
་བྱང་ཆུབ་ 462
ཤེས་པ་འགོག་པ་ 462
་དེ་དག་ནི་ 461
་སྟེ་་ 461
འདོད་པ་ 461
ཡང་དག་པ 460
་དང་ལྡན་པ 457
ཁྱོད་ཀྱིས་ 457
ནས་་ 457
ར་འགྱུར་བ་ 457
ེད་པ་ 457
ུའི་ 455
འདི་བ 454
་དེ་ཡང་ 453
་ར 453
་ས 451
ན་བྱ 451
དེ 450
རྣམ་པར་ཤེས་པ་ 449
རྒ 448
▁འཚོ་ཞིང་གཞེས་ 448
་དེ་བཞིན་གཤེགས་པ 447
ལ་ཆོས་ཀྱང་སྟོན་ 447
ླ 447
ག་བ 445
མེ་ 445
ས་པ་དང་་ 445
ཡིས་ 444
ལེགས་པར་ 444
ྲི 443
ར་འགྱུར་བའི་ལམ་ 441
ཅོམ་ལྡན་འདས་ད 440
འདི་སྙམ་དུ་སེམས་ 440
རྣམས་ཡིན་ 440
་དག་གིས་ 439
་དེ་ལྟར་ 439
ཆུ 438
དག་ཅག་ 438
་དེ་བཞིན་དུ་ 436
འགྲོ་བ་ 436
རྣམས་ཀྱང་ 436
འདུ་ཤེས་ 435
སུ་ 434
ལ་དུ་ 433
ན་པ་ལ་ 432
ུག་ 432
ཆོས་བ 430
▁འདི་ 430
་བྱང་ཆུབ་ཀྱི་ 427
ང་དང་ 427
ཐམས་ཅད་ལ་ 427
འབ 427
▁འཇམ་དཔལ་ 427
རི་ 426
ཡོད་ 425
སྐྱེད་པ 425
ཉ 423
ཚེ་ 423
ཡོན་ཏན་ 423
ས་སོ་ 423
་དང་་ས 422
གི་བ 421
ན་ཡང་ 421
གོས་ 420
འགྱུར་ 420
སྣང་བ 419
ངོ་བོ་ཉིད་ 418
ཅུ་ 417
ཡོད་པ 417
ར་འགྱུར་ཏེ་ 417
སྐྱེ 417
གན 416
འདུག་ 416
རྒྱ་ 416
སྟན་པ་ 416
་དེར་ 413
ང་བྱ 413
▁ག 412
གལ་ཏེ་ 410
ཐོས་ནས་ 410
ནད་ 409
ལ་བར་ 409
རྣམས་ཀྱི 408
ལྟ་བུ 408
སྟོན་པ 408
ེར་ན་ 408
རིགས་ 406
་དགེ་སློང་ 404
ད་པའི་ 404
ག་དང་ 403
ོང་བ 403
གྱུར་ 402
ོ་དང་་ 402
ཕ་རོལ་ཏུ་ཕྱིན་པ 401
སམ་གྱིས་མི་ཁྱབ་པ 401
་དྲ 400
མར་ 400
མ་ཡིན་པ་ 399
▁འཇིག་རྟེན་ 399
ད་དོ་་ 398
ས་དང་ 396
སྤ 396
གང་ཡིན་པ་དེ་ནི་ 395
ད་པར་ 395
ཆེན་པོས་ 394
ཏང་ངོ་་་ 394
ཅིང་་ 392
མ་དང་ 392
ར་བྱ་་ 392
གས་པའི་ 391
ལྡ 391
▁བཅོམ་ལྡན་འད 390
ད་དོ་ 389
ཉིད་ཀྱི་ 388
ནས་ཀྱང་ 388
ཕྲ 388
ཡོངས་སུ་སྨིན་པ 387
་མ་ 386
ས་སྨྲས་སོ་་ 386
ང་བའི་ 385
སངས་རྒྱ 385
ྲུ 384
ཡོངས་སུ་རྫོགས་པ 383
རབ་ཏུ་བ 383
་དཔ 382
ག་ལ་བ་དེར་ 382
ནང་དུ་ 382
ས་སམ་ 382
འཁོར་བ 381
ནས་ས 379
མས་པ 379
ས་ས 379
སྟོང་པ་ཉིད་ 378
ཉེ་བར་ 377
དག་ལ་ 377
འི་ཚེ་ 377
ིང་ 377
་དེ་དག 376
་དེའི་ཚེ་ 375
མཛ 375
རྣམ་གྲངས་འདི་ 375
ར་འ 374
▁སངས་རྒྱས་ཀྱི་ 374
ཚད་ 373
འང་ 373
▁འདི་ནི་ 373
གང་ཡིན་པ 372
གོ་་ 372
རབ་ཏུ་མཁྱེན་ 372
སྤྱོད་ 372
་དག་བ 371
ར་བྱེད་་ 371
སྟེ་་ 370
་སྤ 369
ཉན་ཐོས་ 368
མཆོག 368
འག 368
འདུ 368
ང་གི་ 367
ཇི་སྙེད་པ་ཉིད་ 367
▁དགེ་སློང་ 367
མཐོང་ནས་ 366
ཞུགས་ 366
ལ་ཕྱག་འཚལ་ལོ་་ 366
ནམ་ 365
ས་ཀྱང་ 365
ས་སེམས་ཅན་ 365
▁སངས་རྒྱ 365
་དག་ལ་ 364
ཞུགས་པ 364
འབྱུང་ 363
་དགའ་བ 362
བ་པ 362
གོ་ 361
ཕ་རོལ་ཏུ་ཕྱིན་པ་ 361
རྗོད་པ 361
སྣ 361
གཡོ 360
ལ་བྱ 360
▁གལ་ཏེ་ 360
ནས་དེ་ 359
འོ 359
ཡིན་པ 359
རང་གི་ 359
ལ་སོགས་པ 358
སྙིང་པོ་ 358
▁དེ་ནས་བ 358
རིན་པོ་ཆེ་ 357
ལ་དང་་ 357
སོང་ 357
སྟན་ 357
ཞེས་བྱ་བ་ཡོད་དེ་ 356
ལྟ་བ་ 356
གསོལ་ 355
འདིས་ 355
ཡང་འདབ་ཆགས་ 355
ོན་པ་ 355
▁ཤེས་རབ་ 355
་ལ་ 354
རྣམ་ 354
རྩོན་འགྲུས་ 354
▁མ་ 354
ཕུན་སུམ་ཚོགས་པ་ 353
རྣམ་པར་ཤེས་པ 353
ལ་དེ་ 353
▁བཙུན་པ་ 352
ལྟ་བུའི་ 350
ན་གྱི 349
ཏིང་ངེ་འཛིན་ 348
ཐོབ་ 348
འགྱུར་་ 348
འདུག་གོ་་ 348
ལུས་ཀྱི་ 348
ས་ནི་ 348
ག་ད 347
ག་པའི་ 347
ཞིང་་ 347
རྟོགས་པ 347
ྱི 347
ོད་ 346
▁སེམས་ 346
མཛད་ 345
ཚུལ་ 345
འདོད་ 345
འི་ཚེ་དེའི་དུས་ 345
ར་བྱེད་དེ་ 345
རྒྱུ 345
ཤེས་པ་དེ་ 345
▁མད་གལ་གྱི་བུ་ 345
ངས་ཏེ་ 344
ས་པས་ 344
གཞན་ཡང་ 343
མ་པའི་ 343
▁ཆོས་ཀྱི་ 343
ང་དང་་ 342
མཚན་ཉིད་ 342
ྱ 342
རབ 341
ི་བ 341
་དག་ཀྱང་ 340
འགྲོ་ 340
ར་ར 340
ྲམ་ཟེ་ 339
མཐའ་ 338
མིང་ 338
རྒྱལ་བ 337
ད་བྱ 336
ཚོར་བ་དང་་ 336
་དེ་དག་གིས་ 335
ད་དང་་ 335
ེ་བཞིན་དུ་ 335
ལ་བའི་ 334
སྙམ་མོ་་ 334
་དེ་བ 333
ལོ 333
ཤེས་པ་དང་་ 333
སྔ 333
ཅོམ་ལྡན་འདས་ཀྱི་ 332
ད་དང་ 332
ནང་ 332
ར་བ་ 332
▁དེ་ལྟར་ 332
ཐུགས་ 331
ཡོད་པ་ 331
▁ཀུན་དགའ་བོ་ 331
མ་ཡིན་ནོ་་ 330
ཟླ 330
འི་ཚོགས་ 330
ཡ་ 330
་དགེ་འདུན་ 329
ན་ནི་ 329
སྙ 329
ུག་པ 329
་དྲུག་ 327
ཀྱིས་ད 327
འཕ 327
ཤེས་པ་འགོག་པ 327
སྨྲས་པ་ 327
་སེམས་ཅན་ 325
ལ་དང་ 325
རྙེད་པ 324
དག 323
མངོན་པར་བ 323
་དེ་དག་གི་ 322
ུགས་ 322
ཆགས་པ 321
རྒྱལ་པོའི་ 321
ལ་པ 321
ལགས་སོ་ 321
▁ལྷ་ 321
འདི་ལྟ་བུ་ 320
ལྟ་ 320
ོལ་ 320
གང་བ 319
ནས 319
འཛིན་ 319
རྒྱན་ 319
ལྟ་བུར་ 319
ོད་པ 319
ཀ་ 318
རྒྱལ་ 318
སྒོ་ 318
ཨ 318
ང་བ་དང་་ 317
ཞིང་བ 317
ེ་དག་ 317
གྱ 316
ར་གྱུར་་ 316
རྟོག་པ 316
་དབ 315
གིས་ད 315
དེ་བ་ 315
ན་དེ 315
ཁྱིམ་ 314
ངས་བ 314
དུ 314
འདི་དག་ནི་ 314
ཞུགས་པ་ 313
ཕ་རོལ་ 312
བས་ 312
ར་བྱས་ 312
ལུ 312
སྣང་བ་ 312
ཉིད་ལ་ 311
འབྲ 311
སྒྲུབ་པ 311
ོག་ 311
ཅེ་ན་ 310
འདྲ་བ 310
རབ་ཏུ་བྱུང་ནས་ 310
ོ་བོས་ཕྱག་འཚལ་ 310
▁རིགས་ཀྱི་བུ 310
ཀྲ 309
ཕྱ 309
མཁ 309
ཙམ་ 309
འཇིགས་པ་ 309
་སྐྱེ 308
གས་ས 308
ར་གྱུར་ནས་ 308
ར་བྱ་བའི་ཕྱིར་ 308
ལེ 308
ུ་བྱ 308
་སེམས་ 307
་སངས་རྒྱ 306
རྒྱད་ 306
ཤི 306
ཉོན་མོངས་པ 305
ཏོ་ 305
ཁྲི 304
ང་ལ་ 304
མཚ 304
འཇུག་པ 304
▁གཟུགས་ 304
ནས་བྱ 303
ུལ་བ 303
ཆགས་པ་ 302
འམ་བ 302
ལྔ 302
མས་པ་ 301
རིན་ཆེན་ 301
ུང་བའི་ 301
ོར་བ 301
གང་གིས་ 300
ཆེན་ 300
ཕ་རོལ་ཏུ་ཕྱི 300
ཡང་དག་ 300
གཞོན་ནུ་ 299
ནམ་མཁའ་ 299
ཞིན་དུ་ 299
ོས་པ 299
ྱིན་ 299
་བའི་ 298
ཚིགས་སུ་བཅད་པ་ 298
་དང་ལྡན་པའི་ 297
ཇི་ལྟ་བ་བཞིན་དུ་ 297
ཐམས་ཅད་བ 297
ནི་དེ་ 297
ཞི་བ་ 297
འོད་སྲུང་ 297
སྔོན་བྱུང་བ་ 297
ོ་དང་ 297
འདི་ལ་ད 296
▁མད་གལ་གྱི་བ 296
་པ་ 295
ཆེ་ 295
མེ 295
ལས་ཀྱི་ 295
ུད་ 295
ཇི་ལྟར་ན་ད 294
ར་གྱུར་པ 294
རིག་པ 294
རྒྱ་མཚོ་ 294
ལས་ད 294
སྐྱེས་པ 294
▁དེ་ནས་བྱ 294
་དགའ་ 292
ཁ་ 292
ཁྱེད་ 292
་བཞི་ 291
ངས་པའི་ 291
འདྲ 291
རིན་པོ་ཆེའི་ 291
རྨ 291
སྦ 291
ཆགས་ 290
ཟག་པ་ 290
ུད་མེད་ 290
་སངས་རྒྱས་ 289
ཐམས་ཅད 289
ན་གྱི་བ 289
འི་ཆོས་ 289
ར་ཡང་ 289
ལ་བཀའ་སྩལ་པ་ 289
ཧ 289
▁འདི་ལྟ་སྟེ་དཔ 289
ཆུང་ 288
ཉིད་དང་་ 288
སྟོན་པ་ 288
▁ཁྱོད་ 288
མ་དང་་ 287
ཡང་དག་པའི་ 287
ཁྱོད་ཀྱི་ 286
འགྲ 286
འཛིན་པ་ 286
ཡང་དག་པར་བ 286
ཚངས་པར་སྤྱོད་པ 285
འབྱུང་བ་ 285
ར་བགྱི་ 285
▁དེ་ནས་དེ་ 285
རྟོག་ 284
ུ་མོ་ 284
་དང་་སྤ 283
ཐམས་ཅད་ཀྱིས་ 283
ས་དང་་ 283
ཉི 282
སྙམ་ནས་ 282
སྲུང་བ 282
་བཞིན་དུ་ 281
ར་རྗེས་སུ་ 281
ལེགས་སོ་ 281
ཤིན་ཏུ་བ 281
ོམ་ 281
ཐབས་ 280
ར་མི་འགྱུར་ 280
རྒྱུད་ 280
་བྱེད་པ 279
སྙོམས་པར་འཇུག་པ 279
▁གང་དག་ 279
ག་པར་ 278
ག་བྱ 278
ག་ལ་བ 278
ཟླ་བ་ 278
ལེགས་པར་བ 278
▁བཅོམ་ལྡན་འདས་ད 278
ས་པ་བ 277
་དག་ནི་ 276
ཉེ 276
ཡི་་ 276
རྡ 276
གྱི་བ 275
མད 275
རྫུ་འཕྲུལ་ 275
ཐོབ་པ་ 274
མེད་དོ་ 274
ཟོད་པ 274
འདི་ལྟ་སྟེ་དཔ 274
ལ་ཡང་ཞུ་བ་ཞུས་པ་ 274
ལ་སོགས་པ་ 274
སྣ་ཚོགས་ 274
ཐེག་པ་ 273
མཉམ་པ་ 273
ཤེ 273
ོགས་ 273
་དགེ་བ 272
གས་སོ་་ 272
མེད་དེ་ 272
ལས་བྱ 272
སོང་སྟེ་ 272
ོན་ད 272
་བྱེད་ 271
གཟུགས་ཀྱི་ 271
མངོན་པར་འདུ 271
འཆི་བ 271
འི་ཕྱི 271
ས་སྤ 271
ཀྱི་བར་དུ་ 270
ད་་ 270
ཡིད་ཀྱི་ 270
ལ་གྱི་ 270
གསུམ་གྱི་སྟོང་ 269
ཐད་དུ་ 269
མ་མཆིས་ 269
མཉེས་པར་བྱེད་པ 269
སྐྱོ 269
་དག་དང་་ 268
གྱིས་ཤིག་ 268
མཐོང་བ་ 268
ལྡན་པ་ 268
ྲུག་ 268
▁བདག་ཅག་ 268
▁ཚེ་དང་ལྡན་པ་ 268
གཅིག་པ 267
མང་པོ 267
ཟུང་ 267
འདིའི་ 267
ལོངས་སྤྱོད་པ 267
ེད་ 267
པོ་ 266
མཐུ་ 266
འི་བུ་ 266
སྒོམ་པ 266
སྨྲ 266
ཆེན་པོ་ཤེས་རབ་ 265
ད་པ་དང་་ 265
བྱ 265
ཟང་ 265
ས་བཀའ་སྩལ་ཏོ་་ 265
▁བསྐལ་པར་ལན་གས 265
མཁས་པ 264
འཚ 264
ར་འཚང་རྒྱ་བ 264
སྟོན་ 264
ྱོ 264
▁ཀྱེ་ 264
▁གཞོན་ནུ་ 264
ཀུན་དུ་ 263
གོ 263
འ་ས 263
རྣམས་ཀྱིས་བ 263
▁ང་ 263
▁སུ་ནི་ 263
ཀུ 262
སྐལ་པ 262
མྱུར་དུ་ 261
འི་ཚ 261
ལ་མཁས་པ་ 261
གས་བ 260
གི་ད 260
ར་བགྱིའོ་་ 260
ར་བྱས་ནས་ 260
སྐྱ 260
ེ་བཞིན་ 260
ཁྲ 259
འཇ 259
ར་གྱུར་ཏོ་ 259
ལྔ་ 259
་བདག་ 258
་སྟེ 258
ཁྱིམ་བདག་ 258
ཅུ 258
བ་བོ་་ 258
རབ་ཏུ་འབྱུང་བ 258
སྨྲ་བ 258
ུ་དང་ 258
་བརྒྱ 257
ཅིང་བ 257
འཐ 257
རྔ 257
སོ་ 257
མཆོག་ཏུ་ 256
མཚན་མ་ 256
ཡོ 256
སེམས་ཅན་རྣམས་ 256
ྲི་ 256
གནས་སུ་ 255
གཟི་བརྗིད་ 255
ཕན་ 255
མང་ 255
རྟོག་པ་ 255
རྡུལ་ 255
རྣམ་པར་བ 255
་དང་མི་ 254
མི་བྱེད་ 254
ཚེ་དང་ལྡན་པ་ཤ 254
ཞེས་བ 254
འདུག་པ 254
སྐྱེད་ 254
ཚོ 253
ཡོངས་སུ་དག་པ 253
ར་བྱས་ཏེ་ 253
་དེ་ཡི་ 252
ཁྱེའུ་ 252
གནོད་པ 252
མོས་པ 252
མྱ་ངན་ལས་འད 252
ཞུགས་པའི་ 252
འི་སངས་རྒྱ 252
་བཞི 251
ཀླ 251
གཅིག་ཏུ་ 251
གཙ 251
ཅིང་་་ 251
ན་གང་ 251
མཛད་པ་ 251
ཞིང་ད 251
ས་སེམས་ 251
སྐྱེས་པ་ 251
སྙེན་པར་རྫོགས་པ 251
▁རྒྱལ་པོ་ 251
ཀྱི་ད 250
ན་པས་ 250
ནས་དེ 250
ནོར་ 250
མ་ཡིན་ཏེ་ 250
མཁས་པ་ 250
མཁྱེན་ 250
ལྡན་པ 250
ས་དེ 250
སྒོ 250
སྙམ་དུ་ 250
▁བདག་གིས་ 250
འཇིག་རྟེ 249
ར་རྗེས་སུ་མི་ 249
རྩི 249
སྐུ་ 249
སྦྱོར་བ 249
ག་དང་་ 248
མཆིས་ 248
སྤྱ 248
ོངས་ 248
▁བྱ 248
འཇིག་རྟེན་དུ་ 247
སྟོང་པ་ 247
སྦྱིན་པ་ 247
ུ་དེ་ལྟར་ 247
་བྱེད་པ་ 246
ངོ་ 246
དག་གི 246
འཁྲུ 246
ཐམས་ཅད་དུ་ 245
ཐོས་པ 245
འཐོབ་པ 245
ར་གྱུར་ཅིག་ 245
ར་དུ་ 245
ུལ་ 245
▁ཤ་ར་དྭ་ཏི 245
ཁྱོད་ལ་ 244
མ་མཆིས་པ་ 244
མང 244
འི་དུས་ 244
ཤིང་ད 244
ཀྱིས་བྱ 243
འདྲ་བ་ 243
་དང་ལྡན་ 242
གཉིས་ཀྱིས་ 242
མཐའ་ཡས་ 242
རྒྱལ་ཚབ་ 242
ལྷ་དང་མི་ 242
སྐྱེ་ 242
སྙེ 242
ོག་པ 242
གྲོང་ཁྱེར་ 241
དག་ཉིད་ 241
ཙན་དན་གྱི་ཁྱམས་ 241
ར་དེ་ 241
སྐལ་པ་ 241
སྔགས་ 241
དུད་ 240
འཛིན་པ 240
ཡིན་ཞེ་ན་ 240
ློ་གྲོས་ 240
གླ 239
ཆོས་མ་འདྲེས་པ་བཅ 239
ན་དེ་དག་ 239
ཟང་པོ་ 239
འདས་པའི་དུས་ 239
རྣམ་པར་དག་པ 239
སྲོག་ 239
ཀྱང་་ 238
ངོ་་ 238
མྱ་ངན་ 238
ཞིང་་་ 238
སྤྱོད་ཡུལ་ 238
▁དགེ་སློང་དག་དེ་ 238
་དེ་དག་ལ་ 237
ུང་ངོ་་་ 237
་དེ་དག་བ 236
ན་པ་དང་་བ 236
འི་ཕྱིར་བ 236
རྣམས་ཡིན་ནོ་ 236
ས་བདག་ 236
ནི་མི་ 235
ནོ་་ 235
སྙམ་ 235
ོང་བའི་ 235
གཉིས་སུ་ 234
ངོས་པོ་ 234
ཞུགས་སོ་་ 234
▁དེ་ནས་ད 234
▁འདི་ལྟ་སྟེ་ 234
གཞན་དག་ 233
འི་རྒྱལ་པོ་ 233
ལག་ 233
ལོ་་ 233
སྐད་ 233
་མ 232
ཐམས་ཅད་ཀྱང་ 232
ཚངས་པའི་ 232
་དགྲ་བཅོམ་པ་ཉིད་ 231
གཟུང་བ 231
ཅེས་བྱ་བ 231
ནོར་བུ་ 231
ཕྱི་ 231
འི་ཚིག་ 231
ར་བྱ་སྟེ་ 231
སོང་ནས་ 231
སྐྱེས་བུ་ 231
ཅོམ་ལྡན་འདས་ལ་ 230
ད་དེ 230
ན་གྱིས་བ 230
ཟད་པ 230
ར་དང་་ 230
ངོ་་་ 229
སླད་དུ་ 229
ུ་དང་་ 229
ྷ 229
ཁ་དོག་ 228
གས་པས་ 228
ན་ལ 228
མི་དམིགས་པ 228
རྣ 228
ས་བཅོམ་ལྡན་འདས་ད 228
ོ་བ་ 228
་དུས་ 227
འཇིག་རྟེན་ད 227
འདས་པ་ 227
ཡན་ལག་ 227
ུམ་ 227
་སྟ 226
ཆེན་པོ་དང་་ 226
མྱ་ངན་ལས་འདས་པ་ 226
ར་འགྱུར་བའི་ 226
ས་སྟོང་ 226
ཐོས་པ་ 225
མི་སྣང་བ 225
འཁོར་ལོས་སྒྱུར་བ 225
རྗོད་པ་ 225
ཤ་ 225
སྐྲ 225
▁མ 225
ཐོ 224
▁མི 224
ཀྱི་བར་འདི་ལ་ 223
གང་ཡང་ 223
ང་དེ་ 223
ཐམས་ཅད་སྤངས་ཏེ 223
པོ 223
མངོན་པར་ཤེས་པ་ 223
འཇིགས་པ 223
སྲི 223
ོགས་པ 223
ྷ་ 223
ཁྲི་ 222
ཆེ་བ་ 222
རྡོ་རྗེ་ 222
▁དེ་ཡི་ 222
་བར་ 221
ཆད་ 221
ཉིད་ཀྱིས་ 221
ཏིང་ངེ་འཛིན་དང་་ 221
▁དེ་ནས་ཕྱི་ཞིག་ 221
དང་ཁང་བཟངས་ 220
འཇམ་དཔལ་ 220
་དབང་པོ་ 219
་སྟོང་ 219
གཉི 219
ངེས་པར་འབྱུང་བ 219
ལ་གནས་པ 219
ས་སྐ 219
ོག 219
གྱུར་ཏོ་་ 218
གྲངས་ 218
ཏུ་བ 218
ཐུ 218
ད་དམ་ 218
དུན་ 218
ན་པ་དང་ 218
འོད་ཟེར་ 218
རྣམ་གྲངས་ 218
སྟོ 218
ེ་བའི་ 218
་བརྒྱད་ 217
ཁོ་ན་ 217
གས་ཏེ་ 217
ངའི་ 217
ངས་ནས་ 217
ན་དག་ 217
མག 217
མདོག་ 217
ཟླ་བ 217
རོ་ 217
གཏི་མུག་ 216
རིང་ 216
ལ་པ་ 216
སེམས་ཀྱི་ 216
སེམས་ཅན་དེ་དག་ 216
སྦྱིན་པའི་ 216
་སྙ 215
ཉམས་ 215
འདོ 215
འཚལ་ 215
ཡོད་དེ་ 215
ར་འགྱུར་བ་དང་་ 215
རྒྱལ་བ་ 215
སྤྱན་རས་གཟིགས་ 215
་སྐྱེས་བུ་ 214
ཁམས་དང་་ 214
གཞི 214
དེ་དག་ 214
ཕྱིན་ 214
ཞིན་ 214
རྐ 214
ལྔ་བརྒྱ 214
ཤིང་་ 214
་དེ་བཞིན་ 213
་སྐ 213
ཀྱིས་བཀའ་སྩལ་པ 213
ཁ་ཅིག་ 213
ཐོགས་ 213
མཆི 213
མེད་པའོ་་ 213
མོད་ཀྱི་ 213
འི་དབང་པོ་ 213
ལོངས་སྤྱོད་ 213
ལྷའི་བུ་ 213
ས་ཤིང་ 213
གནོད་སྦྱི 212
གསོལ་པ་ 212
ན་མི་ 212
ཛ 212
ར་དང་ 212
ལ་བ་དང་་ 212
་བླ་ན་མེད་པ་ 211
ཀོད་པ་ 211
གང་ཟག་ 211
ང་བྲལ་བ 211
འ་བ་ 211
ཡོ་བྱད་ 211
ར་མ་ 211
ར་མི་འགྱུར་རོ་་ 211
རྨི་ལམ་ 211
ལ་གནས་པ་ 211
ོད་པ་ 211
ངན་ 210
ཞུ 210
རྙེད་ 210
རྣམ་པར་སྨིན་པ 210
ལུས་ལ་ 210
ཀྱི་བུ་ 209
གང་ད 209
གེ་སློང་ 209
འགོག་པ 209
སྦྱོར་བ་ 209
ྲམ་ཟེ 209
ང་ཆུབ་སེམས་དཔའ 208
ང་བར་ 208
ཅན་དུ་ 208
ཅི་ཡང་ 208
ཆེན་པོར་ 208
ཏུ 208
ཞག་ 208
འབར་བ 208
ར་གྱུར་པ་ 208
སྨྲ་བ་ 208
་བྱས་ 207
གཞན་དུ་ 207
གསུ 207
ཅན་གྱི་ 207
ཅེས་ 207
ཇི་ལྟ 207
ཕྱོགས་གཅིག་ཏུ་ 207
མཛོད་ 207
འགྱུར་བ 207
ོན་གྱི་ 207
ནུས་ 206
སྔོན་གྱི་ 206
ོ་་ 206
ོང་བ་ 206
བ་པའི་ 205
མྱོང་བ 205
ཟད་ 205
འཕགས་པ་ 205
འི་བུ་ད 205
ར་བྱེད་དོ་ 205
རིག་པ་ 205
རྗོད་ 205
རླ 205
▁བརྟ 205
▁འདི་ལྟར་ 205
ག་ལ་ 204
ན་པ་བ 204
ནམ་ཡང་ 204
ཡོན་ཏ 204
ལྟར་བ 204
སམ་པ་ 204
སྐྱེས་ 204
ཀུན་དགའ་བོ་ 203
གདུགས་ 203
ཆེ་བ 203
མི་འགྱུར་་ 203
ཤད་པ 203
ཤེས་པ་འདི་ལྟར་ 203
ངེས་པར་ 202
ཅིང་ད 202
ནས་སུ་་ 202
མཉམ་པ 202
མཚམས་ 202
འཛི 202
རྣམ་པར་ཐར་པ 202
ལ་ལ་ 202
ལགས་ཏེ་ 202
▁ལུས་ 202
▁ཨ 202
ཐེ་ཚོམ་ 201
ནི་བྱ 201
ཕྱག་ 201
མེད་པ་དག་ 201
ཚངས་པ 201
འི་བར་ 201
ཡེ་ཤེས་ཀྱི་ 201
རིམ་གྲོ 201
རྟག་པ 201
སོ་་ 201
སྙིང་ 201
གསུང་ 200
ཅིག 200
ད་དེ་་ 200
མཐའ་ཡ 200
འདོད་ཆགས་ད 200
རབ་འབྱོར་ 200
ུན་ 200
▁སུ་ 200
གནས་པའི་ 199
གཡ 199
ཕུང་པོ 199
མཁྱེན་པ 199
མཛད་པ 199
མཛེས་པ 199
ཟོད་པའི་ 199
རང་སངས་རྒྱས་ཀྱི་ 199
སེམས་ཅན་ཐམས་ཅད་ 199
▁དེ་ནས་དེ 199
▁ཚུལ་ཁྲིམས་ 199
▁ལྷའི་བུ་ 199
་དག་གི་ 198
་དང་་མི་ 198
གནས་པར་ 198
མེད་པ་རྣམས་ 198
ས་དེ་དག་ 198
▁རྣམ་པ་ 198
▁ལ 198
འདི་ནི་བ 197
འི་དོན་ 197
ཡང་་་ 197
ར་འབ 197
རབ་ཏུ་བྱུང་ 197
རིན་པོ་ཆེ 197
ལྷན་ཅིག་ 197
ློ་ 197
▁ཁྱིམ་བདག་དེ་ལ་ད 197
ཆོས་རྣམས་ལ་ 196
བ་བ 196
ཚོར་བ 196
འམ་གལ་ཏེ་ 196
ར་པ 196
རྣམ་པར་སྨིན་པ་ 196
སྙིང་པོ 196
སྦྱི 196
ི་བ་ 196
གྱིས་་ 195
ཅེ 195
ཆེས་ 195
དེ་བར་གཤེགས་པ་ 195
ཡུ 195
རྒྱལ་པོའི་ཁབ་ 195
སེམས་བསྐྱེད་པ 195
ུས་བ 195
ཆོས་ལ་ 194
ཇི་ལྟར་ན 194
ཐམས་ཅད་ད 194
ད་ནས་ 194
རིགས་ཀྱི་བུའམ་ 194
ས་སྟ 194
ྭ་བརྒྱད་ 194
གང་ལ་ 193
གསེར་གྱི་ 193
ཐ་ 193
དེན་པ་ 193
མ་དུ་ 193
མ་པའི་ཆོས་ 193
མཆོད་པ་ 193
མདོ་སྡེ་ 193
ཚངས་པ་ 193
ཚི 193
ཞེས་བྱ་བར་ 193
ཡིན་ཏེ 193
ར་མི་བྱ 193
ལགས་་ 193
ས་སྔ 193
སྲེ 193
གང་དུ་ 192
གསོལ་་ 192
ཇི་ལྟར་བ 192
ཏིང་ངེ་འཛི 192
མོ་བ 192
ཟོད་པ་ 192
རྣམས་་ 192
སྔོན་ 192
གས་སུ་ 191
འཚོ་བ 191
རྟག་ཏུ་བ 191
སྐུ 191
སྙིང་རྗེ་ 191
▁འཇིག་རྟེན་གྱི་ 191
▁རབ་འབྱོར་ད 191
་དེ་བཞིན་དུ་ད 190
ནི་འདི་ 190
མ་མཆིས་པ 190
ཞབས་ 190
འཁ 190
རྟེན་ 190
རྫ 190
ལྟ་བའི་ 190
སྐྱོན་ 190
སྲུ 190
་པོ་ 189
ག་ཏུ་ 189
ཉམས་པ 189
མད་གལ་གྱི་བུ་ 189
ལེགས་སོ་་ 189
ས་སྨ 189
སྐོར་བ 189
སྣང་ 189
ཀྱང་དེ་ 188
ན་གནས་ 188
ན་དག 188
རྣམས་སུ་ 188
ལ་མཁས་པ 188
་དྲི་ 187
གྲུབ་པ 187
ཉོན་མོངས་པའི་ 187
དཔ 187
ཡིས་་ 187
སྤྱོ 187
་དགོ 186
ཀྱང་་་ 186
ཀྱི་ཞབས་ལ་མག 186
ཁྱི 186
གནས་སོ་་ 186
ངན་སོང་ 186
མས་པའི་ 186
འདུག་པ་ 186
སམ་གཏ 186
སྒ 186
་སྣ་ཚོགས་ 185
ཀའ་བ 185
གཟི 185
ཏིང་འཛིན་ 185
ཕྱོགས་ཀྱི་ 185
མཉ 185
འདི་ཉིད་ 185
འདོད་ཆགས་ 185
རྩོན་པ 185
ལ་བདག་ 185
ལྕ 185
ཤད་པ་ 185
▁ཤ 185
▁ཤ་ར་དྭ་ཏིའི་བུ 185
ཁམས་ཤེས་པ་ 184
གཞན་ཡང 184
ཆོ 184
མ་ཡིན་ནོ་ 184
འདས་པ 184
སྣ་ 184
གཞི་ 183
གཞོན་ནུར་གྱུར་པ 183
གཞོན་ནུར་གྱུར་པ་ 183
གས་པ་དང་་ 183
ཇི་ 183
མི་དམིགས་ 183
ཞེ་ 183
འདུལ་བའི་ 183
ལས་ས 183
སྤོས་ 183
ྲེ 183
▁ཁ་ཅིག་ནི་ 183
་དགེ་བའི་རྩ་བ་ 182
གྱུར་ཏེ་ 182
ཆོས་གོས་ 182
ཏང་ 182
འདྲ་ 182
འི་དཔ 182
རྣམས་ད 182
ལེན་པ་ 182
སམ་གཏན་གྱི་ 182
▁ཅི་ 182
▁དག 182
་དེ་དག་ཀྱང་ 181
ཉེ་བ 181
མ་ལ 181
ཞེས་བྱ 181
ཟླ་ 181
ར་མི་འགྱུར་བ 181
རུང་ 181
སུམ་ཅུ་རྩ་ 181
ྱེད་ 181
▁དེ་ཡང་ 181
ཀྱི་དབང་པོ་ 180
གཤེ 180
ང་བཅ 180
མ་་ 180
མཐར་ 180
མཛེས་ 180
འབུམ་ 180
འོག་ཏུ་ 180
རྟོགས་ 180
སྟོང་པ 180
ྱོད་པ་ 180
་དགེ་སློང་ད 179
ཀྱང་མི་ 179
གྲགས་པ་ 179
ཅན་ད 179
ཆ་ 179
ཆོས་སྟོན་པ 179
ཉོན་མོངས་ 179
མིག་གི་ 179
སྤོང་བ 179
སྦྱ 179
ོང་སྟེ་ 179
ྲན་ 179
▁དེར་ 179
་དེ་ལོགས་སུ་ 178
ཁ་ལོ་སྒྱུར་བ 178
གང་གི་ 178
གསུམ་པ 178
ཕྱིར་མི་ལྡོག་པ 178
འཇུག་ 178
ལ་དགའ་བ 178
ྱེ 178
▁ཆོས་ཐམས་ཅད་ 178
▁སེམས་ཅན་ད 178
ཀའ་ 177
ཀྱང་མིང་ཙམ་ད 177
གྲོང་ 177
ཉི་ 177
ནོ་ 177
འདི་ལ 177
རེ་ 177
ེད་པ་དང་་ 177
▁རྒྱལ་པོ 177
་དག་དང་ 176
གཤེགས་ 176
མདུན་དུ་ 176
ཚེ 176
འདུ་ཤེ 176
འཕགས་པའི་ལམ་ 176
རབ་བ 176
ོན་དུ་ 176
▁དེའི་ཚེ 176
་དང་་བྱ 175
ཀུན་གྱི་ 175
གའ་བ 175
ཉི་མ་ 175
ནི་བདག་ 175
མ་ཐག་ཏུ་ 175
མངོན་པར་ཤེས་པ 175
མེད་ལ་ 175
ཟིན་ 175
འཇིགས་ 175
འདྲེན་པ་ 175
སྟེ་བ 175
ླངས་ 175
▁བཀའ་སྩལ་པ་ 175
ཀོད་པ 174
ཅོམ་ 174
ན་རྒྱལ་པོ་ 174
ཕྱིར་བ 174
རྙེ 174
ལ་བཟོད་པ་ 174
ཤིང་བ 174
ས་ཀྱི་ 174
ོམ་པ 174
ོལ་བ 174
ངོས་པོ་མེད་པའི་ 173
ན་བདག་ 173
མུ་ 173
ཡང་དེ་ 173
རྒྱ་ཆེར་ 173
རྒྱལ་སྲིད་ 173
ལགས་ན་ 173
ལུང་ 173
ལྟ་བ་དང་་ 173
སམ་པ 173
སེམས་ཀྱིས་ 173
སེམས་ཅན་རྣམས་ལ་ 173
སོང་ངོ་་་ 173
སྡུག་བསྔ 173
ོས་པ་ 173
▁ཇི་ལྟར་ན་ 173
ང་དག་ 172
ཅེས་བྱ་བ་ 172
ཅེས་བྱས་སོ་་ 172
ཅོམ་ལྡན་འད 172
མངོན་དུ་ 172
མོའི་ 172
ཞེས་བྱའོ་ 172
ཟས་ 172
སམས་པ་ 172
ོན་བ 172
▁དེ་དག་གི 172
་དང་བྲལ་བ་ 171
ཀུར་སྟི 171
གདུ 171
གནས་་ 171
གཟིགས་ 171
ང་་་ 171
ཅེས་བྱ་བ་བ 171
མེ་ཏོག 171
ཟད་པ་ 171
འཇུག་པ་ 171
རྣམས་ལ་བ 171
▁ཚེ་དང་ལྡན་པ་ཤ 171
་དང་བྲལ་བ 170
ཀྱི་དབ 170
མི་དམིགས་སོ་་ 170
འགྱུར་བ་ 170
འདི་ན་ 170
ཡི་བ 170
རྐྱེན་གྱིས་ 170
རྫུ་འཕྲུལ་གྱི་ 170
ས་བྱི 170
▁ཁ 170
▁ངས་ 170
▁དེ་བ 170
་བ་དང་་ 169
ཆོས་ཐམས་ཅད་ཀྱི་ 169
ཚོར་བ་ 169
ཞིག་བ 169
འདི་དག་བ 169
ཡང་དག་པར་འཛི 169
རིགས་ཀྱི་བུ་ 169
རྐང་པ 169
ལ་མངོན་པར་བ 169
སོད་སྙོམས་ 169
གལ་ཏེ 168
ཅི་བ 168
ཉིད་དེ་ 168
ཕུན་སུམ་ཚོགས་པ 168
ཡང་བྱ 168
རྒྱས་པ 168
སྡེ་ 168
སྲིད་ 168
ུར་བ 168
▁གང་གིས་ 168
▁ཇི་ལྟར་ན 168
▁བདག་གི་ 168
་དགེ་སློང་གི 167
ན་པའི་བློ་གྲོས་ 167
ཞེས་བྱ་བ་ནི་ 167
འི་བུ་དེ་ 167
ལྡན་པ་བ 167
▁བྱང་ཆུབ་ 167
▁སྨ 167
ཀྱིས་དེ་ 166
ཆར་ 166
ད་པས་ 166
ཞེ་སྡང་ 166
འཕགས་པ 166
ཡང་་ 166
རྩེ་ 166
སྤྱོད་པའི་ 166
་དེ་ནི 165
གམ་ 165
གྱིས་བ 165
ཐོགས་པ་ 165
བ་པ་དང་་ 165
ཚུ 165
ར་བྱས་སོ་་ 165
རྟག་པར་ 165
ལ་ས 165
ལག་པ་ 165
ས་སངས་རྒྱ 165
སྟེན་པ 165
སྟོང་པ་ཉིད་དང་་ 165
▁བསྐལ་པ 165
་དབང་ 164
ང་བྲལ་བ་ 164
ཏང་སྙོམས་ 164
ཕ་རོལ་གྱི་ 164
ཕུལ་ 164
མ་ཡི 164
འཕགས་པའི་ 164
རུ 164
སྐྱེ་མཆེད་ 164
སྟན་པའི་ 164
▁དེས་སྨྲས་པ་ 164
་དཔག་ཏུ་ 163
་བྱ་བ་ 163
ཀྱི་བསྟན་པ་ལ་ 163
ཁམས་ད 163
གནོད་པ་ 163
གས་ནས་ 163
ངས་པར་ 163
ཆེན་པོ་དེ་ 163
ནང་ན་ 163
ནས་དེ་བཞིན་དུ་ 163
རྗེ 163
ལོག་པར་ 163
ཤེས་་ 163
ས་སུ་བ 163
ུང་སྟེ་ 163
▁ཤ་རིའི་བུ་ 163
་དགའ་བ་ 162
གྲ་བཅོམ་པ་ཉིད་ 162
ཡོངས་སུ་འཛིན་པ་ 162
ར་བྱ་བ་དང་་ 162
ར་བྱེད་པ་དང་་ 162
རྙ 162
རྣམ་པར་སྨིན་པས་ 162
▁བཅོམ་ལྡན་འདས་བ 162
ཁྱད་པར་ 161
མཆོད་རྟེ 161
མཉན་དུ་ཡོད་པ་ 161
འི་ཚུལ་གྱིས་ 161
ཡོངས་སུ་དག་པ་ 161
ལྷའི་དབང་པོ་བ 161
ས་དེ་ལ་ 161
སྟན་ཏོ་་ 161
ོས་ཏེ་ 161
ྭ 161
▁དེ་དག 161
▁དེ་ནས་རྒྱལ་པོ་ 161
▁འདི་ལྟ 161
་བྱ་བ 160
ཀླུ་ 160
གེ་བ 160
གྱུར་ཅིག་ 160
ངམ་ 160
ཅོ 160
ཐམས་ཅད་དང་ 160
ཐེག་པ 160
ནས་དེའི་ 160
མེད་པ་ལ་ 160
མོས་པ་ 160
ཡེ་ཤེ 160
ཡོངས་སུ་གཏ 160
ཡོད་དོ་་ 160
རྒྱལ་བའི་ 160
ལྟར་ད 160
སྒྲིབ་པ་ 160
སྟན་ཏེ་ 160
སྨོན་ལམ་ 160
ུག་པ་དང་་ 160
ེ་བ་ཁྲག་ཁྲི 160
་དྲུ 159
་ལ 159
གཉིས་ཀྱི་ 159
གཟུ 159
ཉིད 159
འཐུ 159
རྒྱུན་དུ་ 159
ལྔ་བརྒྱ་ 159
སེམས་དང་ 159
སྦྱར་ 159
་དོན་ 158
་པོ 158
ཁྱིམ་དུ་ 158
མོས་ 158
ཚིམ་པ 158
ཟང་པོ 158
ར་བྱས་པ་ 158
རྫོགས་པ 158
་དུ 157
་དེ་དག་གི 157
་སྨ 157
གཟུགས་ཅན་ 157
གས་པར་ 157
ཏིང་ངེ་འཛིན་ལ་ 157
ནི་མིང་ཙམ་སྟེ 157
བང་པོ་ 157
མགོ་ 157
ར་མ་གྱུར་ཅིག་ 157
རིག་ 157
རེ་རེ་ 157
རྐང་པ་ 157
ལེགས་པ 157
ས་སེམས་ཅན་ད 157
སྐྱེས་བུའི་ 157
ྱོད་པ 157
ངེས་པ 156
མངོན་པར་འདུས་བྱ 156
མི་དགེ་བའི་ 156
མི་བྱ 156
མྱ་ངན་ལས་འདས་པ 156
ཞེ་སྡ 156
འདོད་པའི་ 156
འི་སྤྱད་པ་སྤ 156
ར་བགྱི 156
རྒྱལ་བུ་ 156
ཤེས་པར་བྱ་བ 156
སྐོར་ 156
སྐྱེད་དོ་་ 156
སྐྱེས་སོ་་ 156
སྙོམས་པར་ 156
སྤོབས་པ་ 156
ུ་མ་ 156
▁དེ་བཞིན་དུ་ད 156
▁དེས་བ 156
▁བླ་ན་མེད་པ་ 156
་བྱས་ནས་ 155
ཁྱོད་ནི་ 155
ཐར་བ 155
ཕྱུག་ཅིང་ནོར་ 155
མང་དུ་ 155
འི་ཁམས་ 155
འོང་བ 155
རང་ 155
རྣམ་པ་སྣ་ཚོགས་ 155
ས་གསོལ་ཏོ་ 155
སམ་གཏན་ 155
ཁམས་དང་ 154
གང་གི་ཚེ་ 154
དག་ནི་ 154
མཐོང་་་ 154
འཇི 154
ར་བྱེད་ཅིང་ 154
རང་བཞི 154
ེ་བར་ 154
ཁོ་ན 153
གསེར་ 153
ཐེག་པ་ཆེན་པོ་ 153
ད་དག་ 153
དུད་ཀྱི་ 153
དེ་བའི་ 153
མིགས་པ་ 153
འམ་ད 153
འི་ཚིག་བླ་དགས་བྱ 153
རྣམས་ཀྱི་སྟོན་པ 153
སོད་ནམས་ཀྱི་ 153
སྒྱུ་མ་ 153
སྤྱད་པ 153
གཏོར་ 152
མཆོད་རྟེན་ 152
འགའ་ 152
ཡང་མ་ཡིན་ 152
རིག་པ་དང་ཞབས་སུ་ 152
རིགས་ཀྱི་བུ་མོ 152
ས་སྐྱེ 152
སེམས་ཅན་དམྱལ་བ་ 152
སྟོད་ 152
སྤྱན་སྔར་ 152
ྲང་ 152
▁ཀུན་དགའ་བོ 152
གཙང་ 151
གྲོ 151
ངས་རྒྱས་ཀྱི་ 151
ཆོས་ཐམས་ཅད་ནི་ 151
ཏེ་དེ་ 151
འཐུན་པ 151
ཡིན་སྙམ་འམ་ 151
ར་འགྲོ་བ 151
རུ་ 151
རྗེས་སུ་བ 151
ཤད་ 151
▁གཞན་ཡང་ 151
▁ང 151
▁ཇི་ 151
ཁོ་བོ་ 150
གཉིས་ལ་ 150
གུ 150
ཅོམ་ལྡན་འདས་དེ་ 150
ཉན་ཐོས་ཀྱི་ 150
མགོན་ 150
མང་ལ་ལོངས་སྤྱོད་ 150
མིའམ་ཅི 150
ར་རོ་་ 150
ལྷག་པར་ 150
ས་སྨྲ 150
▁དཔ 150
▁དེ་ཚེ་ 150
་བྱེ་བ་ཁྲག་ཁྲི 149
ཅིག་བ 149
ཏུ་ད 149
མིགས་པ 149
མྱ 149
ཙུན་པ་ 149
འཁོར་ལོ་ 149
འདྲ་བའི་ 149
འོངས་ 149
རྒྱ་བྱིན་ 149
རྨི་ལམ་ན་ 149
སེམས་ཅན་ད 149
སྙེན་བཀུ 149
སྡུ 149
ུ་མོ 149
གཞན་ལ་ 148
གསོ 148
ང་ཆུབ 148
དག་བ 148
ནས་དེ་དག་ 148
མ་འོངས་པ 148
མ་ཡིན་པའི་ 148
མྱ་ངན་ལས་འདའ་བ 148
ཚོལ་བ 148
ཟློག་པ 148
འདུལ་བ 148
རླུང་ 148
ལ་མཆོད་པ 148
ལྷ་རྣམས་ 148
སྣོད་ 148
སྦྱར་བ 148
ྲང་སྲོང་ 148
ྲལ་ 148
་བྱེ་བ་ 147
ངག་ 147
ན་པོ་ 147
མཆོག་གི་ 147
མེའི་ 147
ཚོལ་ 147
འབྲས་བ 147
ཡང 147
ཡིན་ལ་ 147
རྒྱུན་ 147
ལགས་སམ་ 147
ལུས་དང་ 147
ཤིན་ཏུ་ད 147
ེ་ན་ 147
ོང་ངོ་་་ 147
▁དཔེར་ན་ 147
▁འཇམ་དཔལ་གྱི 147
་མི་ 146
ཁྱིམ་བདག 146
གེ་ 146
ཆེན་པོ་ནི་ 146
ཐོགས་པ 146
ཕྲག་བ 146
མེད་པས་ 146
འི་དཔལ་ 146
ལ་ཡང་དག་པར་ 146
ལྟ་བས་ 146
ཤུགས་ 146
ས་སྨྲས་པ་བ 146
ཨ་ 146
▁ཀུན་ 146
་བཞིན་ 145
་ར་དྭ་ཏིའི་བུ་ 145
ཀྱང 145
ཁྱ 145
གང་ཡིན་པ་དེ་ 145
གཅིག་གིས་ 145
གཞན་གྱི་ 145
གཟ 145
གོ་ཆ་ 145
ཐོས་མ་ཐག་ཏུ་ 145
མ་དེ་ 145
ཚུལ་བཞིན་ 145
འཁོ 145
འབའ་ཞིག་ 145
ར་བགྱིད་ 145
ར་བྱེད་པའི་ 145
ལ་ཕ 145
ལས་ནི་ 145
སམ་གྱིས་མི་ཁྱ 145
སྟན་་ 145
ྲིས་པ་ 145
▁ས་ 145
གས་སོ་ 144
ཅད་ 144
ནགས་ 144
འགག་ 144
འཕྲ 144
འི་བསྟན་པ་ལ་ 144
འི་སྒོ་ 144
ལྟ་བར་གནས་པ 144
ས་མི་ 144
སྔགས་པ་ 144
ུ་དེ 144
▁གསོལ་པ་བ 144
▁དབ 144
▁ལྷའི་བུ 144
་བྱུང་བ 143
་རི་ 143
གས་་ 143
ངས་་ 143
ཆོས་དང་ 143
ད་དུ་བ 143
མ་ཐ 143
མཆི་བ 143
མཉམ་ 143
འ་རྣམས་ཀྱི་ 143
འི་དབ 143
རྐྱེ 143
ཤོག་ 143
ིག་ 143
ུ་དེ་ལྟ་བས་ན 143
ློན་པོ་ 143
▁ལྷའི་ 143
་དམ་པ་ 142
་དེས་བ 142
ཐེ 142
ན་གན 142
འདྲེ 142
འི་ཕྱིར་ད 142
རྒྱལ་བྱེད་ཀྱི་ཚ 142
ལ་དབ 142
ཤིག 142
སྒྲུབ་པ་ 142
སྨན་ 142
ེར་ན་སྒྱུ་མའི་ 142
ོ་དག་ 142
ོས་་ 142
ྲམ་ཟེའི་ཁྱེའུ་བ 142
▁གནས་ 142
▁བུ་ 142
་བ་བ 141
་སྤྱད་པ 141
ང་བ་དང་ 141
ནི་གང་ 141
ཚེ་གཅིག་ཏུ་ 141
ཚེ་དང་ལྡན་པ 141
འདི་ནས་ 141
རུང་བ 141
རྒྱལ་པོ་ཆེན་པོ་ 141
ཤིང་རྟ 141
ས་དག་ 141
ས་སངས་རྒྱས་ཀྱི་ 141
ས་སྟོང་པ་ 141
སུ 141
སྐྱེད་པ་ 141
སྐྱེས་ཏེ་ 141
▁ཤིན་ཏུ་ 141
་དང 140
གཏམ་ 140
ངས་ཤིང་ 140
ཅུང་ཟད་ 140
དག་ཅག་གིས་ 140
ནུབ་ 140
ནོ 140
འཁོད་དོ་་ 140
འགྲོ 140
འོ་ཞེས་ 140
ལ་ཚེ་དང་ལྡན་པ་ 140
ལེན་པ 140
ཤེས་པའི་ 140
སྟོབས་དང་ 140
▁སྟོང་ 140
་དང་ལྷན་ཅིག་ཏུ་ 139
་བྱང་ཆུབ 139
་བྱེ 139
་སྔ 139
ག་པ་དང་་ 139
ངོས་ 139
ཐམས་ཅད་ཀྱིས་བ 139
ཕ་མ་ 139
མེད་བ 139
ར་བགྱི་་ 139
རྒྱ་བྱི 139
རྟག་ 139
ྲ་ 139
▁དེ་ད 139
▁ས 139
ཀུན་ཆུབ་པ 138
ཆོ་ 138
ནམ་མཁའ་ལ་ 138
ནུ 138
མཉམ་པ་ཉིད་ 138
མིའི་ 138
འདུས་པ་ 138
ཡང་མེད་ 138
རྒྱན་པ་ 138
རྒྱས་པ་ 138
ུང་བ་ནས་ 138
ོར་བ་ 138
▁དེ་ནས་དགེ་སློང་ 138
▁དེ་ལྟར་ན 138
▁བདག་ནི་ 138
་དང་ལྡན་ན 137
་དེས་ནི་ 137
གཅི 137
གཟུངས་ 137
གྲོང་ཁྱེ 137
ཐོག་ 137
མ་པར་ 137
མཆ 137
མཆི་ 137
ཞེས་ད 137
ཞེས་བྱས་སོ་་ 137
ར་བའི་ 137
རེ 137
སྦྱིན་ 137
ྲན་པ་ཉེ་བར་གཞ 137
▁དེ་བཞིན་དུ 137
▁ཡང་ 137
་དམ 136
་དུ་ 136
་སྒྲ 136
ཀྱི་བར་ 136
ཁྱེ 136
ག་བརྒྱ་སྟོང་ 136
གང་དང་གང་དུ་ 136
གཟུགས་ཀྱིས་ 136
གྱུར་་ 136
ང་དུ་བ 136
བ་སྟེ་ 136
ཟི 136
འབྲུ་ 136
འོང་བ་ 136
ར་་ 136
ར་གྱི་ 136
རྟེ 136
ལྡན་པའི་ 136
ས་ཏེ 136
སེ 136
ེད་པའི་ 136
ཁ་ཅིག་ནི་ 135
ཁམས་འདི་ 135
ཁྱེའུ་དེ་ 135
གནོད་སྦྱིན་ 135
བང་ 135
འཕགས་ 135
ཡོན་ཏན་བ 135
ར་གྱིས་ཤིག་ 135
ར་རོ་ 135
ལ་པའི་ 135
སྟེང་དུ་ 135
གཅིག་པ་ 134
གསུངས་་ 134
ང་རྒྱལ་ 134
མ་མཆི 134
མཆོད་ 134
ཟོ 134
འཕྱ 134
ཡན་ལག་བརྒྱད་པ 134
ར་འགྱུར་བ་དེ་ 134
ལེན་ 134
ས་སྙ 134
སེང་གེ་ 134
སྤང་བ 134
སླབ་པ 134
ུང་་ 134
ུས་སུ་ 134
▁ཁྱིམ་བདག 134
▁ན 134
་དགེ་འདུ 133
་དཔག་ཏུ་མེད་པ 133
་རྩ 133
་སྤྱ 133
ན་དྲང་སྲོང་ 133
མི་འགྱུར་ 133
འོང་ 133
ར་གྱུར་ཅིག་མི་ 133
ར་མཛད་ 133
ར་འཇུག་པ 133
ར་འཕ 133
རིགས་ཀྱི་བུ་མོ་ 133
ཤེས་པར་ 133
ས་བུ་ 133
ས་སྐྱ 133
སྤྲ 133
་དགེ་སྦྱོང་ 132
གནས་ཏེ་ 132
གྲགས་པ 132
ཅེས་བྱ 132
ཇི་ལྟ་བུ་ 132
ད་དེ་བ 132
ན་གནས་པ་ 132
ན་བྱེད་ 132
མཐོང་སྟེ་ 132
ཚིགས་སུ་བཅད་པ 132
འཁོར 132
ཡིན་གྱིས་ 132
ཡིན་པར་སེམས་ 132
ཡོངས་སུ་མི་ 132
ལ་སྨྲས་པ་ 132
ས་སླ 132
▁བཞི་གང་ཞེ་ན་ 132
་བྱུང་ 131
ཁམས་ཀྱི་ 131
ཁོང་དུ་ཆུད་པ 131
ང་ཡི་ 131
ཆེན་པོ་དང་ 131
མེད་པའི་ཕྱིར་ 131
རི་མོ 131
རྣམས་ཀྱི་བ 131
རྣམས་ལགས་ 131
ླ་ 131
ླ་མ 131
▁ཉོན་མོངས་པ་ 131
་བྱས་པ་ 130
ཀའི་ 130
ཀར་ 130
གནོད་སེམས་ 130
ཅིའི་ཕྱིར་ 130
ཆུད་ 130
ཉིད་བ 130
ཐམས་ཅད་རྣམ་པར་ 130
པད་ 130
མཁན་པོ་ 130
མེད་པ་དང་ 130
འགྱུར་རོ་་ 130
འདི་ལྟ་སྟེ 130
འདི་སྐད་དུ་ 130
འདུལ་བ་ 130
འི་བུ་བ 130
རྐྱེན་ 130
ཤཀྱ་ 130
སམས་ 130
སྔོ 130
ཧ་ 130
ུ་མ 130
ྲི་མ་ 130
་དེ་ལྟ་བུ་ 129
ན་པ་ལ་སྤྱོད་པ་ 129
ན་བཟ 129
ནས་སྨྲས་པ་ 129
མ་ཟ 129
མཆོག་བ 129
མདོ་ 129
ཙམ་དུ་ 129
འདབ་ 129
འི་ཕྱིར 129
འི་སངས་རྒྱས་ཀྱི་ 129
ར་འདོད་པ 129
རོལ་ 129
རྟགས་ 129
རྣམས་ཀྱི་ནང་དུ་ 129
ལྟས་ 129
སྐབས་ 129
ོན་པའི་ 129
ྭ་ 129
▁ཁ་ཅིག་གིས་ནི་ 129
▁གང་གི་ཚེ་ 129
▁དགེ་ 129
་དཔག་ཏུ་མེད་པ་ 128
་བ་དང་ 128
ཁམས་མི་མཇེད་ 128
གསེ 128
ང་ཆུབ་ 128
ཉིད་དང་ 128
ནང་གི་ 128
བྱངས་ 128
མ་མཆིས་པའི་ 128
མཁའ་ 128
མཉན་ 128
ར་བྱས་པ 128
ར་སངས་རྒྱ 128
ལ་བརྟེན་ 128
ལ་བརྩོན་པ 128
ལུང་སྟོན་པ 128
ཤི་ 128
ས་བྱང་ཆུབ་ 128
ོག་དང་ 128
ྔ 128
▁དེ་བཞིན་ 128
་སེམས་ཅན་ད 127
ངོ 127
ན་གྱི་ད 127
ན་དུ་བ 127
པག་ཏུ་ 127
མངོན་སུམ་དུ་ 127
ཙམ་གྱིས་ 127
ཞལ་ 127
ཞེས་བགྱི་བ 127
ཞེས་ཟེར་རོ་་ 127
ཟངས་ 127
རྟ་ 127
རྣམ་པར་དག་པ་ 127
ལན་ 127
སྡུ་བ 127
ུང་་་ 127
▁ཁྱོད་ཀྱིས་ 127
▁ཕ 127
་དག་ཡིན་ནོ་་ 126
ཀྱེ་ 126
ཁྱབ་པ 126
གསུངས་པའི་ 126
ཅོམ་ལྡན་འདས་བྱ 126
ཆོས་ཀྱི་དབྱིངས་ 126
ཕྲག་ 126
མངོན་པ 126
འི་ཚིག་བ 126
རབ་འབྱོར་གྱིས་ 126
རིག་པར་བྱའོ་་ 126
རྣམ་པར་མི་ 126
ལས་ཀྱང་ 126
ཤིང་ས་ལ་ཆེན་པོ་ 126
ཤེས་པ་བ 126
སེམས་པ 126
སེལ་བ 126
སྒོམས་ 126
ྱིས་པ་ 126
▁དེ་དག་ནི་ 126
་དགེ་སློང་དག་ 125
་དེའི་ཕྱིར་ 125
་སྲ 125
ཅོམ་ལྡན་འདས་བ 125
ད་ཅིང་ 125
ཕ་ 125
མ་ལ་ 125
མགོན་པོ་ 125
མངོན་པར་འཕ 125
མཛེས་པ་ 125
འདུས་མ་བྱ 125
ཡི་གེ་ 125
ས་སྒྲ 125
སྤངས་ 125
ེ་དག་གི་ 125
▁རབ་འབྱོར 125
་དང་་སྐྱ 124
་དང་ལྡན་ན་ 124
་སྟོང་པ་ 124
ཁོང་དུ་ཆུ 124
ཆོས་ཉིད་ 124
ཐམས་ཅད་ནི་ 124
ནམ་མཁའི་ 124
ཕྱོགས་སུ་ 124
འཁོར་ལོ་བསྐོར་བ 124
འཛིན་པ་དང་་ 124
ར་བགྱི་བ 124
རབ་ཏུ་བྱུང་བ 124
ལེའུ་ 124
ལོག་པ 124
ལྟ་ན་སྡུག་ལ་ 124
སྒྲུབས་ 124
▁ཉན་ཐོས་ 124
་དེ་དང་དེར་ 123
གྲུབ་པ་ 123
ཉམས་པ་ 123
ཉེ་ 123
ཏིང་ངེ་འཛིན་འདི་ 123
ན་དེ་ནི་ 123
ནམ་མཁ 123
མྱུར་དུ་བ 123
འཆི་བ་ 123
རྣམ་པར་གྲོལ་བ་ 123
ལ་ཆོས་ 123
ལྷའི་བུ 123
ཤེས་ཏེ་ 123
སོ་ཡང་དག་པར་ 123
སྦྱོ 123
སླད་དུ་བ 123
ུག་པ་ 123
ུད་འགྲོའི་སྐྱེ་ 123
ེ་མ 123
ེང་ 123
ོས་པའི་ 123
ླངས་ཏེ་ 123
་དང་ནི་ 122
་དང་ལྷན་ཅིག་ 122
་བྱས་ཏེ་ 122
་བྱེ་བ 122
གང་ཡིན་པ་ 122
གནས་ཀྱི་ 122
གཡེ 122
གཡོ་བ་ 122
གསལ་བ 122
གྲངས་མེད་པ 122
གྲོལ་བ 122
ང་པོ 122
ཅན་དང་་ 122
ཐ་ད 122
ཕྱི་རོལ་ 122
མ་ལགས་ 122
མཉམ་པར་ 122
མཐར་གྱིས་ 122
ར་གྱུར་ན་ 122
རང་སངས་རྒྱ 122
རིག་སྔགས་ 122
རྣ་བའི་ 122
སོ་སོར་ 122
ུ་དག་ 122
▁དྲང་སྲོང་ 122
▁རྟག་ཏུ་ 122
ཀླུ 121
ཁྲག་ 121
གཉེ 121
མངོན་པར་འདུ་ 121
མཐོང་ན་ 121
མན 121
ཟོད་ 121
འི་ཚུལ་ 121
ཡིད་ལ་བྱེད་པ 121
རི་བ 121
ལ་རབ་ཏུ་ 121
སྣོ 121
ུ་བ་ 121
ུང་གི་ 121
ེལ་བ 121
ྲན་པ 121
▁དགའ་བ 121
་དེའི་བ 120
ན་དེའི་ 120
ཕྱག་འཚལ་ 120
ཕྲེང་བ 120
མཐོང་བ་དང་་ 120
མེད 120
ཞེས་སྨྲ 120
འཁོད་པ 120
འུ་ 120
རྟག་པ་ 120
ལ་ལ 120
ལའང་ 120
ལས་བྱུང་བ 120
ལེགས་ 120
ཤ་རིའི་བུ་ 120
ོན་བྱ 120
ྲམ་ཟེའི་ཁྱེའ 120
▁དེ་བཞིན་དུ་བ 120
་སུ་ 119
ཁྱུ་མཆོག་ 119
གཉིས་པ 119
གཙོ་བོ་ 119
ཆུའི་ 119
ཕྱོགས་བཅུའི་ 119
མི་བྱེད་དོ་་ 119
མྱོ 119
ཞུ་བ 119
འཁོར་གྱི་ 119
འགའ་ཞིག་ 119
རབ་ཏུ་ད 119
རྟོགས་པ་ 119
ལ་དཔ 119
ཤར་ 119
▁འདུ་བྱེད་ 119
་དབྱ 118
་དེ་དང་ 118
ཁྱེར་ 118
ཉམ་ 118
ཉེ་བར་བ 118
དཔག་ཏུ་ 118
བ་་ 118
མིན་ 118
མེད་པའི་བ 118
འ་རྣམས་ 118
འཁོར་བ་ 118
འདྲེན་པ 118
འི་བུ 118
ར་འཁ 118
ར་སངས་རྒྱས་ 118
རང་བཞིན་གྱི 118
རང་སངས་རྒྱས་ 118
རྟུལ་ཞུགས་ 118
རྣམ་པར་བྱང་བ་ 118
སོང་བ 118
སྲས་ 118
▁གང་ད 118
▁ང་དེ 118
་དེ་ཉིད་ 117
་དྲང་སྲོང་ 117
་དྲི 117
་བཅ 117
གཅོད་པ 117
གཞན་ཡང་ད 117
གཟུགས་བཟང་ཞིང་བ 117
གསུངས་པ 117
གསུམ་པ་ 117
གསོལ་པ་བ 117
གླིང་ 117
ནས་སུ་ 117
ཞེས་བགྱི་བ་ 117
ཞེས་བྱ་བ་དང་་ 117
འི་བྱ 117
འི་ཚིག་བླ་དག 117
ཡི་དགས་ 117
ར་དག་ 117
ར་བཅ 117
ར་མི་བྱེད་ 117
རིགས་ཀྱི་བ 117
རྒྱ་ཆེ 117
ལྷ་དང་མི 117
ས་ཏེ་་ 117
ས་པ་དང་ 117
ས་པོ་ 117
ས་བསམས་པ་ 117
སྟན་པ་ལ་ 117
▁དེ་ཅིའི་སླད་དུ་ 117
▁བདག་གི 117
▁རབ་འབྱོར་བྱ 117
་དམ་པ 116
་དེའི་ཚེ 116
གཏོང་བ 116
ངོས་པོ 116
ཆོག་ 116
ཇི་ལྟ་བ 116
ཉིད་ཀྱི་ཕྱི 116
ཉིན་ 116
ནས་དེས་ 116
མས་བ 116
ཡན་ལག་བ 116
ར་དུ་བ 116
ར་འཇ 116
རི་དགས་ 116
རྒྱལ་མཚན་ 116
རྗ 116
རྣམ་པར་གྲོལ་ 116
སེམས་ལ་ 116
ུ་བཅ 116
ོག་བ 116
ྱིས་པ 116
▁གལ་ཏེ་བ 116
▁དེ་དག་གིས་ 116
▁ཨོ་ 116
་དགེ་བའི་ 115
་དང་བཅས་པ་ 115
་དེ་ལྟ་བུ 115
གཅིག་གི་ 115
ང་པོ་ 115
མཛད་་ 115
ཞི་བའི་ 115
ར་འཚལ་ལོ་་ 115
རྒྱུ་བ 115
རྙེད་པ་ 115
ྲི་བ 115
▁ཆོས་རྣམས་ 115
▁ལས་ 115
▁སེམས་ཅན་དཔག་ཏུ་ 115
་དེ་དག་དང་་ 114
གཅིག་པུ་ 114
གནས་ནས་ 114
གྲུ 114
ཅེས་བ 114
ཐོས་སོ་་ 114
ཕྱེ་ 114
མངོན་དུ་བྱ 114
མངོན་པར་སྤྲུལ་ 114
ཙུ 114
འ་ནི་ 114
འགག་པ་ 114
འབྱུང་བར་འགྱུར་ 114
ཡང་དག་པར་རབ་ཏུ་བ 114
རྒྱལ་པོས་ 114
ལྟུང་བ 114
ཤེས་རབ 114
སེམས་པ་ 114
སྨོན་པ་ 114
སྩ 114
▁དུས་ 114
▁དེ་ནས་ས 114
▁རྣམ་པར་ 114
་དག་ཏུ་ 113
་དང་་དེ་བཞིན་དུ་ 113
་དང་་སྨ 113
་དཔལ་ 113
ཁམས་བ 113
ག་ལ་བ་དེར་ད 113
གནས་དང་ 113
གྲ་བཅོམ་པ 113
ངས་སོ་་ 113
ཅུ་རྩ་ 113
ཆད་པ 113
ཏམ་ 113
པལ་ 113
མཉེས་པ 113
ཞིག་ན་ 113
འཇིག་རྟེན་ལས་འད 113
འི་དབྱངས་ 113
འི་ཚུལ་ཁྲིམས་ 113
ཡིད་ཀྱིས་ 113
ཡིན་པར་ 113
རྣལ་འབྱོ 113
རྩོན་པ་ 113
ལྡན་་ 113
ས་ཡོངས་སུ་ 113
ྲམ་ཟེའི་ཁྱེའུ་ 113
▁བྱང་ཆུབ་ཀྱི་ 113
་དགའ 112
ཀླུའི་རྒྱལ་པོ་ 112
ཁང་ 112
གང་དག་ཡིན་པ 112
ཆོས་སྣང་བའི་སྒོ་ 112
ཐབ 112
ནི་དགེ་བའི་རྩ་བ་ 112
ནི་མ་ 112
ཕན་པ 112
བ་བོ་ 112
རྣ་བ་དང་་སྣ 112
ལམ་བ 112
ལྷ་ཡི་ 112
ལྷགས་ 112
ུའམ་ 112
▁བདུད་ 112
▁བྱང་ཆུབ 112
▁འཇིག་རྟེ 112
་དང་བཅ 111
་དང་བཅས་པའི་ 111
་དེ་ལྟར་ན 111
ཀུན་ཏུ་བ 111
གནས་དང་་ 111
གིས་ནི་ 111
ཕྱག་བྱ 111
ཚོལ་བ་ 111
ཞིག་བྱུང་ངོ་་་ 111
འདི་སྙམ་དུ་བ 111
འི་ཁམས་དང་་ 111
ར་སྣང་ 111
ས་དེའི་ 111
ས་བོན་ 111
སྭ་ཧ་ 111
ོག་པ་ 111
▁བསོད་ནམས་ 111
▁རང་གི་ 111
་སྐྱ 110
་སྟོབས་ 110
ཁྱོད་ཀྱི 110
གཟུགས་བ 110
གས་བྱ 110
ཆེ་ཞིང་ 110
ཉིད་ད 110
ཐམས་ཅད་ལས་ 110
ན་པ་ནི་ 110
མ་དག་ 110
མགུ་བ 110
མེ་ཏོག་གི་ 110
མྱ་ངན་འད 110
འདོད་པ་དང་་ 110
ཤིང་་་ 110
ས་སྤྱ 110
སྒྲུབས་ཏེ་ 110
སྔ་ 110
▁གླ 110
▁ཐབས་ 110
▁བྲམ་ཟེ་ 110
ཀྱིལ་འཁོར་ 109
གང་གའི་ཀླུང་ 109
གང་གི་ཚེ 109
གང་ཞིག་ 109
ཏ་ 109
པ་ 109
མ་ཡིན་་ 109
མང་པོས་ 109
མངོན་པར་དགའ་བ 109
འཐུན་པར་ 109
འདི་ཉིད་ལ་ 109
འདུག་ནས་ 109
རྒྱལ་པོའི་ཕོ་བ 109
ལྷག་པ 109
སྟོབས་བ 109
སྡུག་བསྔལ་བ 109
སྦྱར་རོ་་ 109
སྲིད་པ་ 109
ོད་་ 109
▁ཀུན་ནས་ 109
▁རྒྱལ་བ 109
་དང་་ལྕེ་དང་་ 108
་དེ་ལ་བ 108
་དྲི་མ་མེད་པར་ 108
་སངས་རྒྱས་ཀྱི་ 108
གྱིད་པ་ 108
ཆགས་བ 108
ཏིང་ངེ་འཛིན་གྱི་ 108
ཐམས་ཅད་སྤ 108
ད་མ་ 108
མཆོག་འདི་ 108
མི་འབྱུང་ 108
ཙལ་བ 108
ཟབ་མོ་ 108
འཁོར་བའི་ 108
འཇིག་རྟེན་སྐྱོ 108
འི་ཚེ 108
རྒྱ་སྟོང་ 108
ལ་གནས་ 108
ལ་སོགས་པའི་ 108
ལས་ཡང་དག་པར་འད 108
སམ་ 108
སེང་གེའི་ 108
སོའི་སྐྱེ་བོ་ 108
སྐྱེ་བར་ 108
སྡུག་བསྔལ་གྱི་ 108
སྤྲུལ་པ་ 108
སྨིན་ 108
ྦ 108
▁ཁྱོད་ཀྱི་ 108
▁གཞ 108
▁དགེ་བ 108
▁མིག་ 108
་དགེ་སྦྱོ 107
གཅིག་ཏུ་གཟར་ 107
གས་པ་དང་ 107
གསལ་ 107
ངུ 107
ངོས་པོ་མེད་པ 107
དག་ཅག་གི་ 107
ན་དང་་་ 107
ནོར་བ 107
མ་བྱེད་ཅིག་ 107
མངོན་ 107
མཐའ 107
མཚུངས་པ་ 107
འགྲུབ་པ 107
འི་བུ་མོ་ 107
ཡང་ཡིན་ 107
ཡིན་ནམ་ 107
ར་གྱིས་ 107
ར་གྱུར་པ་དེ་གཞན་ 107
རྒྱལ་རིགས་ 107
རྒྱས་ 107
རྗོ 107
ལས་ཡོངས་སུ་ 107
ཤཀྱ་ཐུབ་པ་ 107
ཤེས་པ་ཡང་དག་པར་འ 107
སྐྱབས་ 107
སྐྱེད་ནས་ 107
ླངས་ནས་ 107
་རི 106
་སྣ 106
་སྦྱི 106
གང་གི 106
གསུངས་པ་ 106
གེ 106
གླང་པོ་ 106
ཅེས་བྱ་བའི་ 106
ཆོས་དེ་ 106
དག་དང་ 106
ཕྲག་བརྒྱ 106
མི་སྐྱེ་བའི་ཆོས་ 106
མོ་་ 106
ཙྪ 106
ཞི་པ 106
ཞེས་བྱ་བ་ནས་ 106
ཟའ་བ 106
འདི་ལྟ 106
འདོགས་པ 106
འདྲི 106
འཚོ་བ་ 106
འོད་སྲུང་གིས་བ 106
ར་གྱུར་ཏེ 106
རྣལ་འབྱོར་ 106
ལས་དེའི་ 106
ལུང་བ 106
ལྕེའི་ 106
ལྷ་མོ་ 106
ལྷུ 106
ཤེས་པ་དང་ 106
སྐྱེད་མོས་ཚ 106
སྙམ་སྟེ་ 106
སྡིག་པའི་ 106
སླབ་པའི་གཞི་ 106
ུང་ནས་ 106
ོན་ཏེ་ 106
▁གང་གི་ 106
▁དེ་གཉིས་ 106
▁དེ་སྐད་ཅེ 106
་དང་ལྡན་པས་ 105
གྲ་བཅོམ་པ་ 105
ང་་ 105
ཅན་ག 105
ཅི་ཞིག་ 105
ཆེ་བའི་རིགས་སུ་ 105
ཉན་ཐོས་ཀྱི 105
ཉུང་ 105
ཉེས་པ་ 105
ནུབ་པ 105
བང་ཕྱུག་ 105
བས་སུ་ 105
མ་བཅ 105
ཞིག་གིས་ 105
འདུས་པ 105
འབྱིན་ 105
འམ་མི་ 105
འི་ཕྱིར་་ 105
འོན་ཏེ་ 105
རིན་པོ་ཆེ་དང་་ 105
ལུས་བ 105
ལྟ་ཞིང་ 105
ཥ 105
ས་བརྒྱ 105
སྐྱབས་སུ་ 105
སྟེང་ 105
སྤྱད་པ་ 105
ེས་པ་ 105
ླ་མ་ 105
▁པ 105
▁ལམ་ 105
་དབང་པོ 104
་དྷ 104
་བཅུའི་ལས་ཀྱི་ 104
་སྟེ་བ 104
ཀང་ 104
གཙུག་ 104
ང་བཅས་པ་ 104
ཅན་བ 104
ཉན་ཐོས་དང་་རང་ 104
པོ་བ 104
ཕན་ཡོན་ 104
མཐོང་་ 104
འགག་པ 104
འདུས་བྱ 104
འབྱ 104
འཛམ་བུའི་ 104
འཛམ་བུའི་གླིང་ 104
འི་དབང་པོ 104
འོད་ཟེ 104
ཡང་ཆེས་ཕ་རོལ་ 104
རབ་ཏུ་ཕྱ 104
རྒྱན་པ 104
རྣམ་པར་རྟོག་པ 104
རྩ་བ་ 104
ལས་འད 104
སོང་སྟེ་ཕྱིན་ནས་ 104
སླབ་པ་ 104
ོལ་བ་ 104
་ཏ 103
་དང་བཅས་པ 103
་བདུ 103
་བཞི་དང་་ 103
་སྦྱིན་པ 103
ཀྱིས་ཀྱང་ 103
ཁྱོད་ཀྱིས་བ 103
གར་ 103
ང་ནི་ 103
ང་པ 103
ང་པོའི་ 103
ང་བྲ 103
ཆོས་བཅུ་པོ་དེ་དག 103
ཆོས་སྟོན་ 103
ནོར་བུ་རིན་པོ་ཆེ 103
འཇིག་པ 103
འདུག་སྟེ་ 103
འབྱུང་པོ་ 103
འོ་་་་ 103
རེག་ 103
རྟེན་ཅིང་འབྲེལ་པ 103
རྡུ 103
རྣམ་པར་འཕ 103
རློམ་སེམས་སུ་ 103
ལྷན་ཅིག་ཏུ་ 103
སྙེད་ 103
སྤྲུལ་པ 103
སྲུང་ 103
སློབ་ 103
ྲག་ 103
ྲན་པ་ 103
▁ཀྱེ་མ་ 103
▁ཡེ་ཤེས་ 103
་དེ་ནི་བ 102
ཀུ་ 102
གས་སམ་ 102
ང་ཆུབ་སེམས་དཔའི་ 102
ངས་སོ་ 102
ཆོས་དེ་དག་ 102
ཆོས་བཅུ་དང་ལྡན་ན 102
ཆོས་འདི་ 102
ཇི་སྙེད་ 102
མང་བ་ 102
མཚན་མ་མེད་པ 102
ཚད་མེད་པ 102
ཞབས་ལ་མག 102
ཞིང་དེ་ 102
འི་བསོད་ནམས་ཀྱི་ 102
ར་བདག་ 102
རྐང་ 102
ལ་ནས་ 102
ལ་འཇུག་པ 102
ཤེས་རབ་ཀྱི་ 102
སྙམ་དུ་སེམས་ 102
སྡོམ་པ་ 102
ུས་ད 102
ེ་དང་ 102
▁དགེ་སློང་དག 102
▁འཕགས་པ་ 102
▁སེམས་ཅན་ཐམས་ཅད་ 102
་བས་ 101
་བྱ་ 101
་རིའི་བུ 101
་སྡ 101
གཏོང་ 101
གསུམ་གྱི་ 101
ཐམས་ཅད་མཁྱེ 101
ཐུགས་སུ་ཆུ 101
ཕུ 101
མ་བགྱིས་ 101
མིགས་སུ་ 101
འཐུན་པ་ 101
འདི་དག་ནི 101
འི་དགེ་སློང་ 101
འི་རྒྱལ་པོ 101
ཡིན་པས་ 101
རབ་ཏུ་དབྱུང་བ 101
རི་རབ་ 101
ལ་ཏེ་ 101
ས་སངས་རྒྱས་ 101
ོང་དུ་ 101
ཀུན་ལ་ 100
ཁམས་གསུམ་ 100
གཉིས་པ་ 100
གཉེན་ 100
གི་བྱེ་མ་སྙེ 100
གྱུར་པ་་ 100
ཅན་་ 100
ཉེས་པར་ 100
ཐ་དད་པ་ 100
ཕྱིར་མི་འོང་བའི་ 100
ཚངས་ 100
ཞིག་ཏུ་ 100
འདུ་ 100
འབྲུ 100
འི་དྲུང་དུ་ 100
ཡིས་བ 100
ཡེ་ཤེས་བ 100
ར་བྱེ 100
རྗེ་ 100
རྟན་པ་ 100
ལ་མ་ 100
ལ་སྤྱོད་པ་ 100
ས་སྔོན་ 100
སྤྱན་ 100
ློ 100
▁མེ་ཏོག་ 100
་དང་་སྙ 99
ཀུན་ཏུ་རབ་ཏུ་ 99
ཀྱིས་་ 99
ངོ་བོ་ 99
ཆུང་མ་ 99
ཐོབ 99
མདའ་ 99
ཞི་པོ་ 99
ཞེས་བྱ་སྟེ་ 99
འཇིག་རྟེན་ལ་ 99
འདི་སྙམ་དུ་ 99
ཡངས་པ་ 99
ཡིད་ལ་ 99
ར་རིག་ 99
རང་བཞིན་གྱིས་ 99
རིང་བ 99
རེག་པ 99
ལག་ན་ 99
ལས་བྱུང་བའི་ 99
ཤེས་ནས་ 99
སྒྱུར་ 99
སྤྲི 99
སློབ་པ 99
ྐ 99
▁བཅོམ་ལྡན་འདས་ལ་ 99
▁སྐྱེས་བུ་ 99
་དགུ 98
་དེ་ནས་ 98
་དེ་ལས་ 98
་སྒ 98
ཀུན་དགའ་བོས་ 98
ཁོ་ 98
ག་པོ་ 98
གང་ཡིན་པ་འདི་ནི་ 98
གནས་སོ་ 98
གྲགས་ 98
ཉིད་ཀྱང་ 98
ཐེག་པ་ཆེན་པོའི་ 98
མིང་འདི་ 98
མྱལ་བ་ 98
ཚོད་ 98
ཞིག 98
འགྲོའོ་་ 98
འཆི་འཕ 98
འདི་ནི་ད 98
འི་ཕྱིར་རོ་ 98
འི་བཤེས་གཉེ 98
ར་འགྲོ་བ་ 98
རྒྱ་མཚོའི་ 98
རྒྱང་ 98
རྡོ་རྗེ 98
རྩེ 98
རྩོན་འགྲུས་རྩ 98
ལས་མི་ 98
ལྕེ་ 98
ུམ་པ 98
ོན་དང་ 98
ོན་དུ་བ 98
་ད་ 97
་བདུན་ 97
ཀྱ 97
ཁོ་བོས་ 97
གང་དང་ 97
གའ་ 97
གསོལ་ཏེ་ 97
གྲུབ་པའི་ 97
ཆོས་སྨྲ་བ་ 97
ཐ་མ་ 97
དེན་པ 97
ན་པོ 97
ནགས་ཚ 97
མཐུ 97
ཙུན་པ་བ 97
ཡོངས་ 97
རྒྱད་ཁྲི་བཞི་ 97
ལོགས་སུ་ 97
ལྔ་པོ 97
ཤེས་སོ་་ 97
སྐྱེ་བོ་མང་པོ་ 97
སྟེན་ 97
སྤྲིན་ 97
ེ་བཞིན་གཤེགས་པ་བ 97
ོགས་པ་ 97
ོན་དམ་པར་ན་ 97
ླ་ན་ 97
▁དགེ་སློང་ད 97
▁དེ་ཁོ་ན 97
▁བུད་མེད་ 97
▁ཡ 97
▁རིགས་ཀྱི་བུ་དག་ 97
ཁྱོད་བ 96
གཟུགས་མེད་པའི་ 96
གསང་ 96
གསོལ་བ 96
ཅན་གྱི 96
ཕྲེ 96
ཕྲེང་བ་ 96
མ་ཡིན་པར་ 96
མཆོག་ཏུ་བ 96
ཞུ་བ་ 96
འཁོར་ལོ 96
འདི་དག 96
འི་རྒྱལ་པོ་སྡོང་ 96
ཡབ་ 96
ར་གྱིས་་ 96
ལྷུང་བཟེད་ 96
ཤིང་གི་ 96
ས་སྲ 96
སམས་པ 96
སོང་སྟེ་ཕྱིན་ 96
སྐྱེ་བོ་ 96
སྒྲི 96
▁གལ་ཏེ 96
▁རྒ 96
▁ལུས་ཀྱི་ 96
་དག་གི 95
ཀྱིས་སྨྲས་པ་ 95
ཀྲུ 95
ཁྱད་པ 95
ག་དེ་ 95
གནས་པར་མི་བྱའོ་་ 95
གཟུགས་དང་ 95
གཟུགས་ས 95
གསོལ་བ་ 95
ངན་སོང་དུ་ 95
ཆོས་མཉན་པ 95
ཉེས་པ 95
ནན་ཏ 95
པོར་ 95
བ་ཏུ་ 95
མཉམ་པ་དང་ 95
མཚོན་ 95
མེད་ཅེས་བྱ་བ 95
ཞུགས་ནས་ 95
འགོག་པ་ 95
འཐུན་པའི་ 95
འཛུ 95
འི་བྱང་ཆུབ་ལས་ 95
ཡིད་ལ་བྱ 95
ཡིན་ན་ 95
ར་བྱེད་ཅིང་་ 95
རྣམས་ཀྱི་ད 95
ལ་མངོན་པར་ཞེ 95
ལྟ་བས་ན་ 95
ཤཀྱ་ཐུབ་པ 95
སེམས་བ 95
ུད་མེ 95
ོམ་པ་ 95
ླ་གོས་ཕྲག་པ་ 95
ླ་མ་ལུང་བསྟན་པ་ 95
▁གཞོན་ན 95
▁དེ་དག་གི་ 95
▁བྱམས་པ་ 95
▁འདོད་ཆགས་ 95
▁རྒྱལ་པོ་ཆེན་པོ་ 95
▁སྲ 95
་དང་་སྐ 94
་བྱང་ཆུབ་ཏུ་ 94
ཀོན་མཆོག་ 94
ཀྱིས་དེའི་ཚེ་ 94
གང་བ་ 94
གང་ལགས་པ 94
གཅ 94
གནང་ 94
གས་པ་བ 94
ན་པ་འདི་ 94
ནས་བླ་ན་མེད་པ་ 94
པེར་ན་ 94
མ་ཡིན་གྱི་ 94
མས་པར་ 94
མི་ཟ 94
ཚར་ 94
ཞི་པ་ 94
ཞེས་དེ་ 94
ཞེས་བྱས་ནས་ 94
འཐུན་པའི་ཆོས་བ 94
འདུས་ 94
འདྲེན་ 94
ཡོང་ 94
ར་གྱུར་ལ་ 94
ར་བགྱི་བའི་ 94
ར་འཚ 94
རློམ་སེམས་ 94
ལྟ་བུ་དང་་ 94
སར་ 94
སྐྱེ་བའི་ 94
སྤྱོད་པ་དང་་ 94
ོད 94
ོན་པ་དང་་ 94
ོས་ཤིག་ 94
ྒ 94
ྲལ་བ 94
▁གླེང་གཞི་ 94
▁ད་ 94
▁བཙུན་པ 94
▁མཐོང་ནས་ 94
▁སྲིང་མོ 94
་དང་་སོ་ 93
་དང་་སྨོན་པ་ 93
་དཔག་ 93
་དེ་ལྟ 93
་ར་དྭ་ཏིའི་བུས་ 93
་སོ་ 93
ཁམས་ཤེས་པ་འགོག་པ 93
གཉིས་ད 93
གས་སྤ 93
གི་བུ་ 93
གོས་པ་ 93
ཆེན་པོའི་མཚན་ 93
ཉི་ཤུ་ 93
ཏང་བ 93
ཐམས་ཅད་དང་་ 93
ན་དགེ་སློང་ 93
ན་དུ་བྱ 93
ནང་སྟོང་པ་ཉིད་ 93
ཕྲག་བརྒྱད་ 93
མ་པ་དང་་ 93
མན་ 93
ཙུན་པ 93
ཞེས་བརྗོད་པ 93
ར་བྱེད་ན་ 93
ར་རིག་ནས་ 93
རབ་ཏུ་ཞི་བ 93
རིང་པོ་ 93
ལ་ཡང་མི་ 93
ཤཀྱ 93
ཤེས་བ 93
ས་ན་་ 93
ས་བྱིན་ 93
ས་སྦྱིན་པ 93
སྐྱེད་དེ་ 93
ོད་དོ་་ 93
ྲུང་དུ་ 93
▁ཟ 93
▁འཇམ་དཔལ 93
▁སེམས་ཅན་ག 93
་དགེ་བའི་རྩ་བ 92
་བྱས་པ 92
་སྐྱེས་ 92
ཁང་བཟངས་ 92
ག་གི་ 92
ག་ཏ་མ་ 92
ག་པ་རྣམས་ 92
གཞལ་དུ་ 92
གུས་པར་ 92
གེ་འདུན་ 92
གྱུར་པའི་ 92
ང་དང་་བ 92
ངག་གི་ 92
ངུ་ 92
ཆད་པ་ 92
ཆེན་མོ་ 92
ཆོས་སྨྲ་བ 92
དེ་བར་ 92
ཕན་ཚུན་ 92
ཕྱེད་ 92
མ་དུ་བ 92
མ་པོ་ 92
མངའ་བ 92
འ་དེ་ 92
འགྲུ 92
འདྲའི་ 92
འབུ 92
འཛ 92
ཡོན་ཏན་གྱི་ 92
རྐྱ 92
རྒྱལ་པོ་བ 92
རྣམས་ལ་ནི་ 92
ལ་སེམས་ 92
ལས་་ 92
ལས་དེ་ 92
སྐྱེས་ནས་ 92
ཧུ་ 92
ུག་པའི་ 92
ེད་པར་གྱུར་ཅིག་ 92
ོད་པ་དང་་ 92
ྲི་ཟ 92
་བཞིན་་ 91
་ལྟར་ 91
གཉིས་དང་ 91
གྲ་ 91
ཆོ་འཕྲུལ་ 91
ཏབ་ 91
ནུས་པ 91
མཁས་ 91
ཚིགས་སུ་བཅད་དེ་ 91
ཞིག་བྱ 91
འཇིག་རྟེན་ན་ 91
འཐོབ་ 91
འདི་གཉིས་ 91
འི་བསོད་ནམས་ 91
འི་ཚིག་བླ་དགས་ 91
ཡིད་ལ་བྱེད་པ་ 91
ཡུན་རིང་ 91
ར་དག 91
ར་བགྱིད་པ་ 91
རྣམ་པར་རྟོག་པ་ 91
ལ་བསྙེན་བཀུ 91
ལ་བསླབ་པ 91
ལྟར་བྱ 91
ཤར་ཕྱོགས་སུ་ 91
སྟན་དུ་ 91
སྟོན་་ 91
ོ་ཞིང་ 91
▁གང་ཞིག་ 91
▁ར 91
▁སྔོན་གྱི་ 91
་དགེ་འདུན་ད 90
་དང་བྲ 90
་རིའི་བུ་ 90
ང་ག 90
ངོ་མཚར་ 90
ཉིད་ཀྱི་ཕྱིར་ 90
ཐལ་མོ་སྦྱར་བ 90
ན་པའི་བ 90
ཕྱོགས་ད 90
མང་པོ་དག་ 90
མཛད་དོ་་ 90
མལ་ 90
མི་བྱེད་པ 90
ཚུལ་བཞིན་དུ་ 90
འཁོད་ 90
ཡོངས་སུ་བསྐོར་ 90
ར་འགྲོ་ 90
ར་འབྱུང་བ 90
ར་རམ་ 90
རབ་ཏུ་ཤེས་ 90
རྣ་བ 90
ལ་བུ་ 90
ལན་ཅིག་ཕྱིར་འ 90
ལོང་ 90
ཤི་ནས་ 90
ས་སྣ 90
སེང་གེའི་ཁྲི་ 90
སྙིང་རྗེ་ཆེན་པོ་ 90
ཧ་ཅང་ 90
ུང་ད 90
ེ་བ་ཁྲག་ཁྲིག་ 90
ོ་ཤ 90
▁ཁྱེའུ་ 90
▁དགེ་བའི་རྩ་བ 90
▁ཚེ་དང་ལྡན་པ 90
▁འཇམ་དཔལ་ད 90
▁རི 90
▁རིགས་ཀྱི་བ 90
▁རིགས་ཀྱི་བུ་དེ་ 90
་དང་་ད་ལྟར་བྱ 89
གཅིག་བ 89
གཤིན་རྗེའི་ 89
གུས་པ 89
གེ་སློང་ད 89
ཆོས་འདུལ་བ་ལ་ 89
ཐེ་ཙོམ་ 89
དབང་ཕྱུག་ 89
ནས་དགེ་སློང་ 89
ནས་ནི་ 89
མཁན་ 89
འཁོར་དེ་ 89
འདི་ཡང་ 89
འི་བར་གྱི་ 89
འོག་གི་ 89
ར་མི་བྱའོ་་ 89
ར་འགྱུར་ཞིང་ 89
ར་འཚལ་ 89
རྒྱ་བྱིན་དང་་ 89
རྣམས་བྱ 89
ལས་ཡང་དག་པར་ 89
ལྔ་པ 89
ཤི་འཕོས་ 89
སུ་ཞིག་ 89
སེམས་ཅན་ག 89
སོ་སོ་ཡང་དག་པར་ 89
སྐད་ཅེ 89
སྒོམ་པ་ 89
སྙེན་པར་རྫོགས་ 89
སྟོན་ཏོ་་ 89
སྡིག་པ་ 89
སྤུ་ 89
སྨྲ་ 89
ེད་དུ་ 89
▁ཁྱོད་ནི་ 89
▁འདི་ལ 89
▁འདི་ལ་ 89
▁འཕགས་པ 89
་དགེ་ 88
་དང་་སེམས་ཅན་ 88
་དེ་ཚེ་ 88
་དྲི་མ་ 88
་བས 88
་བྱེད་་ 88
ཀྱིས་དགེ་སློང་ 88
ཁྱད་པར་དུ་ 88
གྱུར 88
ངས་ཏེ་བ 88
ཉན་པ 88
ཐོབ་བོ་་ 88
ན་སེམས་ཅན་ 88
ནས་ནི་་ 88
ཕྱུང་སྟེ་ 88
མ་ལགས་པ་ 88
མངོན་པར་རྟོགས་པ 88
མཐའ་ཡས་པ་ 88
མཚུ 88
མི་ཤེས་སོ་་ 88
མེད་པ་ཡིན་ནོ་་ 88
ཚོགས་བ 88
འདི་ལྟ་བུ 88
འདྲ་་ 88
འདྲ་བར་ 88
ར་འགྱུར་ལ་ 88
ས་སྨྲས་པ 88
སུམ་ 88
སོར་ 88
སྐད་ཅིག་ 88
སྲོག་ཆགས་ 88
སློ 88
ིང་བ 88
▁ཇི་ལྟ 88
▁བསམ་གཏ 88
་དང་་སྡུག་བསྔ 87
་བི་ 87
་བོ་ 87
་སྣ་ 87
ཀུན་གྱིས་ 87
ཁྱེའ 87
གདུགས་དང་་ 87
ང་བཞི 87
ཅུ་རྩ 87
ཏོག་ 87
ཐ་མ 87
ཐམས་ཅད་སྤངས་ནས་ད 87
ཕྱིན་པ 87
མ་མཆིས་་ 87
མ་རིག་པ་ 87
ཚོང་དཔོ 87
ཝ 87
འདོད་པས་ 87
འི་དངོས་པོ་ 87
འི་དོན་དུ་ 87
འི་བདག་པོ་ 87
འི་ཚིགས་སུ་བཅ 87
ར་མི་ནུས་ 87
ར་འབྱུང་བ་ 87
རང་རང་གི་ 87
རྒྱལ་ཚབ 87
རྣམ་ཐོས་ཀྱི་བ 87
རྫོགས་ 87
ལྷ་དང་་ 87
ཤོས་ 87
ས་ལ 87
སའི་ 87
སྐྱོ་བ 87
སྦྲུལ་ 87
ྲམ་ཟེའི་ 87
▁སེམས་ཅན་དེ་དག་ 87
་དང་་སྦ 86
་དང་ལྷ་མ་ཡི 86
་བཞིན་ནོ་་ 86
་སྲོག་ 86
ཀའ་བ་ 86
ཀྱང་བྱ 86
ཀྱིས་ནི་ 86
ཁོ་ནར་ 86
གང་ལགས་ 86
གཅོ 86
གཙུག་ལག་ཁང་ 86
གཡོ་ 86
གསུམ་པའི་ 86
གོ་བ 86
ང་ཆུབ་ཀྱི་ 86
ངས་པ་དང་་ 86
ཆུ་བ 86
ཇི་ལྟར་ན་ 86
ཉིད་དོ་་ 86
ན་ཁྱོད་ཀྱིས་དེ་ 86
ནས་སེམས་ཅན་ 86
མ་མཆིས་པར་ 86
མཛོད་ཅིག་ 86
ཚུར་ 86
ཞེ་སྡང་དང་་ 86
ཟུང་བ 86
འགྲོ་བའི་ 86
འཆི་ 86
འདི་ནི 86
འབྱི 86
འི་ཚུལ་གྱི 86
འི་ཡེ་ཤེས་ 86
ཡང་དག་བ 86
ར་བྱེད་ལ་ 86
ལ་དགའ་མགུར་ 86
ལ་སྤྱོད་པ 86
ལོ་བ 86
ཤིན་ཏུ་དགའ་བ 86
ས་པའི་འཇིག་རྟེན་ 86
སྟོད་དོ་་ 86
སྤྱོད་ལམ་ 86
▁ཁ་ཅིག་ 86
▁དེ་ན་ 86
▁ཤ་རི 86
▁སྡུག་བསྔལ་ 86
་དེ་ད 85
་དེས་ན་ 85
ཁ་དོག 85
ཁྱིམ་གྱི་ 85
གང་ཡིན་ 85
གཞོན་ན 85
གཟུགས་སུ་ 85
གཡོས་ 85
གས་ཀྱི་ 85
གྱིས་ན་ལས་དེའི་ 85
གྲོགས་པོ་ 85
ང་བཅས་པ 85
ངེས་པར་བ 85
ཐལ་མོ་སྦྱར་བ་བཏུ 85
ཕྱིར་མི་ལྡོག་པ་ 85
མཁྱེན་པ་ 85
ཟློག་ 85
འདུས་བྱས་ 85
འབྱུང་བ་དང་་ 85
འི་ཕྱིར་བྱ 85
ཡོངས་སུ་སྔོ་བ 85
ར་བྱའོ་ཞེས་ 85
རོ 85
རྗོད་དུ་མེད་པའི་ 85
ལ་བབ་པ 85
ལས་ཡོངས་སུ་ཐར་བ 85
ལུང་བསྟན་པ་ 85
ས་སྨོན་ལམ་ 85
སོ 85
ུ་བོ་ 85
ྣ 85
▁ཁྱེད་ 85
▁གཞན་ 85
▁གསོལ་པ་ 85
▁དེ་ལ་བ 85
་དམིགས་སུ་ 84
་པད་མ་ 84
་སྟོན་པ 84
ཀར་པོ་ 84
ག་པ་དང་ 84
གྲང་ 84
ཆེན་པོ་གང་ 84
ཆོས་ད 84
ཎ་ 84
ཏང་སྟེ་ 84
ན་གང་དག་ 84
ན་དབ 84
ནང་ནས་ 84
ཕྱི་རོལ་གྱི་ 84
མ་ཡིན་བ 84
མཁས་པའི་ 84
མོད་ 84
མོར་ 84
ཞུགས་་ 84
ཞེས་བྱ་བའམ་ 84
ཟླ་བའི་ 84
འདས་པའི་ 84
འདིའི་མིང་ 84
འཕེལ་བ 84
འབབ་ 84
འཚལ་བ་ 84
འི་དོན་དུ་སྔོན 84
འོད་སྲུང་གི་བ 84
ཡང་བཅོམ་ལྡན་འདས་ 84
ར་དཀའ་བ 84
རབ་ཏུ་ཤེས་སོ་་ 84
རྐྱེན་གྱི 84
རྗེས་སུ་འབྲ 84
ལ་དགེ་སློང་ 84
ལམ 84
ལོན་ 84
ཤུ 84
ཤེས་པས་ 84
ས་འདི་སྐད་ཅེ 84
སྐྱེས་པའི་ 84
སྒོ་བ 84
སྦྱོང་ 84
ུད་མེད་ཀྱི་ 84
▁སྐྱེ་བ་ 84
་དགའ་ཞིང་ 83
་དྲི་མེད་ 83
གཉིས་བ 83
གོ་ཆ་བ 83
གྱུར་ནས་ 83
ཅན་བྱ 83
ཆེན་པོ་རྣམས་ཀྱི་ 83
ཆོས་ནི་ 83
ཆོས་བསྟན་པ་ 83
ཏུ་བྱ 83
ཐོབ་ནས་ 83
དེ་ནི་ 83
ན་གནས་པ 83
ན་དང་་དྲི་ཟ 83
ན་དུ་ད 83
ན་དེ་ལ་ 83
ནས་སེམས་ཅན་ད 83
ཕྱིར་མི་ 83
ཕྲག་དུ་ 83
མི་མཉེས་པར་མ་བྱ 83
འདུ་ཤེས་དང་ 83
འཚལ་བ 83
ར་བགྱིད་པ 83
ར་བྱ་བའི་ཕྱིར་བ 83
རྒྱལ་མཚ 83
རྣམ་པར་སྤ 83
ལ་གཏ 83
ལུས་དང་་ 83
སྡེ 83
ོབ 83
ྱིན་པ 83
ྱོད་ 83
ྲུལ་པ 83
▁འདི་ལྟར་བ 83
་དག་དེ་ 82
་དེས་ད 82
ཀའ་སྩལ་པ་ 82
ཀྱིལ་ 82
ཀྲི 82
ཁ་ཏ 82
ཁོར་ཡུག་ 82
གནས་ད 82
གསལ་བ་ 82
གིས་སྨྲས་པ་ 82
ཐུབ་པ 82
དག་ཀྱང་ 82
ན་གནས་པའི་ 82
ཕོ 82
ཕྱོགས་དང་ 82
ཕྱོགས་བཅུ་ 82
བེ 82
མ་གཏོགས་པར་ 82
མ་སྐྱེས་པའི་ 82
མས་པས་ 82
ཚངས་པས་བྱི 82
ཞུས་པ་ 82
ཟ་བ 82
འགྱ 82
འཐོབ་་ 82
འི་སྟོབས་བཅུ་ 82
འོད་ད 82
ཡང་དག་པར་རབ་ཏུ་ 82
ར་བ་དང་་ 82
ར་རྙ 82
རེ་ཞིག་ 82
རྣམ་པར་ད 82
ལ་གཞ 82
ལག་པ 82
ལྟ་ཅི་སྨོས་ 82
སུ་བ 82
སྐྱེས་བུ་དམ་པ 82
ེ་བདག་གིས་ 82
་དགུ་ 81
་རྫ 81
ཁྱེའུ 81
གི་དངོས་པོ་ 81
གྱིད་ 81
གྲོགས་པ 81
གྲོལ་ 81
ང་པོས་ 81
ངས་སུ་ 81
ཅས་ 81
ཊ 81
ན་གཟུགས་ 81
ན་གྲ 81
ན་བཞུགས་ཏེ 81
ཕྱིས་ 81
ཕྱོགས་བཞི 81
མཉན་པ 81
མཉེས་པར་བྱས་ཏེ་ 81
མི་བགྱིད་ 81
མེད་ན་ 81
ཞིང་དུ་ 81
ཞེས་ཡང་དག་པ་ 81
ཟས་དང་ 81
ཟེ 81
འདི་རྣམས་ 81
འདུན་ 81
འཛུམ་པ་ 81
འི་བསམ་པ 81
ཡང་མ་ 81
ར་དགའ་བ 81
ར་དུ་ད 81
ར་བཞེད་ན་ནི་ 81
རབ་ཏུ་འབྱུང་བ་ 81
རིའི་ 81
རེ་ར 81
རྩེ་བ 81
རྩེ་ཞིང་དགའ་ 81
ལ་ཕྱག་འཚལ་ 81
ལྷན་ 81
ས་སྤྲ 81
སེམས་ནི་ 81
སྟོད་པ 81
སྤྱན་སྔ 81
སྤྲུལ་ 81
སྲུངས་ 81
ུང་བ་དང་་ 81
ོན་པར་ 81
▁ཉི་ 81
▁འདི་དག་ 81
▁སེམས་ཅན་འདི་དག་ 81
▁སྒྲ 81
་ཏ་ 80
་བྱུང་ངོ་་་ 80
་སྟོན་ 80
ཁམས་སུ་ 80
ཁོང་ 80
ཁྱུ་ 80
ག་གོ་་ 80
གང་ན་ 80
གན་དུ་ 80
གཞུག་པ 80
གོས་དང་་ 80
གྱུར་ཏེ་་ 80
ང་ཆུ 80
ང་དུ་ད 80
ངས་པས་ 80
ངེས་པར་འབྱུང་བ་ 80
ཅི་འདྲ་བ 80
ཆོ་ག་ 80
ཏེ་བཅོམ་ལྡན་འདས་ 80
མཐུས་ 80
མཐོང་བས་ 80
མནར་ 80
མས་པ་དང་་ 80
འཁྱ 80
འདི་ལྟར་བ 80
འབར་བ་ 80
ཡོངས་སུ་ཤེས་ 80
ར་ཤོག་ 80
རེག་པ་ 80
རྩོན་འགྲུས་བརྩ 80
ལ་དག 80
ལས་བྱུང་བ་ 80
ལྡན་ཞིང་ 80
ལྡོག་པ 80
སླད་དུའོ་་ 80
ུས་ཏེ་ 80
▁རབ་འབྱོར་གཞན་ཡང 80
▁སྲོག་ 80
▁སླ 80
ང་དཔ 79
ངུལ་ 79
ཐབས་ལ་མཁས་པ 79
དུད་རྩི 79
ན་གཞ 79
མ་པའི་ཆོ 79
མཐོང་བའི་ 79
མཚན་མ་མེད་པ་ 79
མི་དག 79
མུ་སྟེགས་ 79
མྱལ་བ 79
ཚོགས་པ་ 79
ཞག་བདུན་ 79
ཞེས་བྱ་བ་དེ་ནི་ 79
འཇིག་ཚོགས་ལ་ 79
འདུ་བ 79
འདུ་བྱེད་རྣམས་ 79
ཡིད་དུ་འོང་བ 79
ཡིད་བདེ་བ 79
ར་འགྱུར་ཏེ 79
རྒྱ་ཕྲག་ 79
རྒྱ་མཚ 79
རྒྱལ་ཆེན་བཞིའི་ 79
རྗོད་དུ་ 79
རྟན་པ 79
ལྟར་་ 79
ས་ནས་་ 79
སེམས་ཅན་དམྱལ་བ 79
སྐབ 79
སྐུལ་ 79
སྐོམ་ 79
སྒྱུ་ 79
སྟན་བཅོས་ 79
སྣོད་དུ་ 79
སྨོན་ལམ་བཏབ་པ་ 79
ེད་དེ་ 79
ོང་ད 79
▁ཀྱེ་མ 79
▁ཐམས་ཅད་ 79
▁དེ་ལ་ཤེས་པ་དང་་ 79
▁ནམ་མཁའ་ 79
▁ཕུང་པོ་ 79
▁བཅུ་གང་ཞེ་ན་ 79
▁འདོད་པ 79
་དྲན་པ་ཉེ་བར་གཞ 78
་དྲི་ཟ 78
ཀུན་དགའ་བོ 78
གཏོགས་པ 78
གཡོག་ 78
གསལ་བ་དང་་ 78
གོང་ 78
གྲི 78
ཅེས་བྱ་བ་ཡོད་དེ་ 78
ཆེར་སྐྱེས་པ 78
ཆོས་བསྟན་པ 78
དག་བླ་ན་མེད་པ་ 78
དུད་རྩི་ 78
དེ་བ་དང་་ 78
ནེ་ 78
ཕ་མ་གཉིས་ 78
ཕྱིན་ནས་ 78
མ་བཅིངས་མ་གྲོལ་བ 78
མང་པོར་ 78
མཐོ་བ 78
མཐོང་ངོ་་ 78
ཚངས་པ་དང་་ 78
ཚུར་ཤོག་ 78
ཟང་ཟིང་ 78
ཟོ་ 78
འགོད་པ 78
འདུན་པ་ 78
འདོང་བ 78
འབད་པས་ 78
འབྱོར་པ་ 78
འི་སྐུ་ 78
འི་སྒྲ 78
ཡིན་ཏེ་་ 78
ཡོངས་སུ་བསྔོ་བ 78
ཡོད་དོ་ 78
ར་མི་འགྱུར་རོ་ 78
རྒྱུ་བ་ 78
རྣམ་པར་གྲོལ་བའི་ 78
ལྔ་བ 78
ལྷག་ 78
ས་པད་མ་དཀར་པོའི་ 78
སེམས་མི་ 78
སྐལ་བ་ 78
ུག་ཅིང་ 78
ུས་ནས་ 78
ེབ 78
ེམས་ 78
ོ་བའི་ 78
ླ་ན་མེད་པའི་ 78
▁བདག་ཉིད་ 78
▁བྲམ་ཟེ 78
▁ཡིད་ཀྱི་ 78
་དཔའ་བ 77
་དཔུང་ 77
་དུརྱ 77
་བསྐལ་པ 77
་བྱེ་བ་ཁྲག་ཁྲིག་ 77
་སྲི 77
ཀློག་ 77
ཁམས་གང་གའི་ཀླུང་ 77
ཁྱི་ 77
ཁྱོད་ད 77
གཡོ་བ 77
གཤེགས་སོ་་ 77
ང་དུ་བྱ 77
ཆོས་སྟོན་ཏོ་་ 77
ཇི་སྙེད་པ 77
ཉན་ 77
ནུས་པ་ 77
ཕ་རོལ་ཏུ་ 77
མང་བ 77
མི་དགའ་བ 77
ཟོས་ 77
འདས་པའི་དུས་ན་བ 77
འདི་དག་གིས་ 77
འདོར་བ 77
འདྲའོ་་ 77
འབྲིང་ 77
འི་དཀྱིལ་འཁོར་ 77
ར་བྱ་བའི་ 77
ར་མཛ 77
རིག་པའི་ 77
རིང་བ་ 77
རིན་པོ་ཆེ་སྣ 77
རྗེས་ 77
ལང་ 77
ལོག་ 77
ལྕགས་ཀྱི་ 77
ལྟ་སྨོས་ཀྱང་ 77
ས་པའི་ལྷ་ང་ 77
ས་སྦྱི 77
ས་སྨྲས་སོ་ 77
སོང་བ་ 77
སྟེང་གི་ 77
སློབ་པ་ 77
ུའང་ 77
ུལ་བ་ 77
ྲིན་ 77
▁དབང་པོ་ 77
▁དེའི་ཚེ་བ 77
▁ཡུལ་ 77
▁རྒྱ་མཚོ་ 77
་ན་་ 76
ཀྱི་བར་གྱི་ 76
ཀླུའི་ 76
ཁྲོ་བ 76
གནས་བརྟན་ 76
གསང་སྔགས་ 76
གསལ་རྒྱལ་ 76
གསོལ་ཏོ་་ 76
གོས་བ 76
གྲངས་མེད་པ་ 76
ང་པོ་བ 76
དང་ད 76
ནས་སྤ 76
ཕྱི་མ་ 76
མཐོ་རི 76
མདུ 76
མཚན་ད 76
མཚན་མ 76
མཛེ 76
མཛོད་་ 76
མར་གྱི་ཉིང་ 76
མི་མངའ་ 76
མྱོང་ 76
འ་་ 76
འཇོག་ 76
འདིར་ནི་ 76
འབྱུང་གནས་ 76
འཚོ 76
འི་བཤེས་གཉེན་ 76
འི་བློ་ 76
འི་ཚེ་་ 76
ར་ནི་ 76
ལ་པོ་ 76
ལིད་ཙ་བི 76
སེམས་བསྐྱེད་ 76
ེ་བཞིན་ཉིད་ 76
ེལ་ 76
ྐྱ 76
ྲན་པ་ཉེ་བར་གཞག་པ 76
▁གྲ 76
▁མེ་ 76
▁ཚིག་ 76
▁སངས་རྒྱས་བ 76
▁སྲིང་མོ་ 76
་དེ་ན་ 75
་དེ་ལྟ་བུའི་ 75
་སྡུག་བསྔལ་ 75
ཀའ་སྩལ་ཏོ་་ 75
ཁང་པ 75
ཁྱེར་ཏེ་ 75
གཞོན་ནུ 75
གསུངས་སོ་་ 75
གསོ་ 75
གེ་བའི་རྩ་བ་ 75
གོས་པ 75
ངས་རྒྱས་ 75
ཅེས་བྱའོ་་ 75
ཆུང་ང 75
ཆེར་ 75
ཆོས་སྟོན་པ་ 75
ཇ 75
ཉན་ཐོ 75
ཉོན་མོ 75
ཐུགས་རྗེ་ 75
ཐོགས་ཏེ་ 75
ད་པ་ནི་ 75
དང་་བ 75
ནྡ 75
མངོན་སུམ་དུ་བ 75
མཆོག་ལ་ 75
མིན་་ 75
མུ 75
ཞི་པོ 75
ཟེར་ 75
ཟླ་འོད་ 75
འདེབས་ 75
འདོད་ཆགས་དང་་ 75
འཕེ 75
འབྱིན་པ 75
འོད་མའི་ཚ 75
ཡིད་བ 75
རུང་སྟེ་ 75
རྒྱ་སྟོང་དུ་ 75
རྒྱལ་སྲི 75
རྟག་པ་དང་ 75
རྟན་ 75
ལ་དགེ་བའི་རྩ་བ་བ 75
ལ་དད་པ 75
ལ་ཞིང་ 75
ལ་ཡང་བ 75
ལོན་པ 75
ལྟ་ན་སྡུག་པ་ 75
ལྟུང་བའི་ 75
ལྷགས་་ 75
ཤིག་དང་་ 75
སེམས་དང་ལྡན་པ་ 75
སྒྱུར་བ 75
སྔགས་པ 75
སྙི 75
སྟན་ལ་ 75
ེ་བོ 75
ེད་དོ་་ 75
ེས་པ 75
▁མཐོང་ནས་ཀྱང་ 75
▁ཡབ་ 75
▁ཡི་གེ་ 75
▁སྦྱིན་པའི་ 75
▁སྲེད་མེད་ 75
་དབང་ཕྱུག་ 74
་བཏུད་ 74
ཁམས་དང་་ར 74
ག་པོ 74
གཏོང་བ་ 74
གདུལ་བ 74
གནས་པ་དང་་ 74
གཞན་ཞིག་ 74
གསུངས་ 74
གིས་བྱ 74
གྱི་བ་ 74
ཉིད་ཀྱི་བར་དུ་ 74
ཐམས་ཅད་ཡོངས་སུ་ 74
ཐུགས་སུ་ཆུད་ 74
དག་གིས་བ 74
ནས་སངས་རྒྱས་ཀྱི་ 74
ནས་སྟ 74
མ་ཡིན་ནམ་ 74
མཁན་པོ 74
མཉེ 74
མདོ་སྡེ 74
མཚན་མོ་ 74
མེ་ཏོག་ཀུན་ཏུ་ 74
མེད་ད 74
ཞིན་་ 74
ཞེས་བྱ་བ་དང་ 74
ཟབ་པ་ 74
འགགས་པས་ 74
འགུལ་ 74
འཇིག་པ་ 74
འབྱུང་ངོ་་་ 74
འཚོ་ 74
འོ་་འདི་ནི་ 74
ཡི་ད 74
ར་འདོད་པ་ 74
རབ་ཏུ་བྱུང་བ་ 74
རིན་ཆེ 74
རྣམ་པར་དག་ 74
རྣམས་ཡོངས་སུ་ 74
ལ་བཅོམ་ལྡན་འདས་ 74
ལ་འདི་སྐད་ཅེས་བྱ 74
ལས་ཅི་བ 74
ལུང་བསྟན་པ 74
ལོངས་སྤྱོ 74
ས་པད་ 74
ས་བཀའ་སྩལ་ཏོ་ 74
སྐོ 74
སྐྱེས་བ 74
སྔ་མ་བཞིན་དུ་ 74
སྙོམས་པར་འཇུག་པ་ 74
ེ་དག་ལ་ 74
ོད་དེ་ 74
ོམ་ཉི་ 74
ོས་དང་ 74
▁ཏིང་འཛིན་ 74
▁ཐ 74
་དང་་སྡ 73
་དེ་ལྟར་ན་ད 73
་དེས་ཀྱང་ 73
་སྨྲ 73
ཁྲག་ཁྲིག་ 73
གདོ 73
གླང་ 73
གླིང་དུ་ 73
ཅི་ནས་ 73
ན་གས 73
ནམ་མཁའ་དང་ 73
ནི་བདག་གི་ 73
ནི་བླ་ན་མེད་པ་ 73
ཕྲག་དུ་མ 73
བ་པར་ 73
བེན་པ་ 73
མ་ཡིན་པ་དང་་ 73
མཛད་པ་་ 73
མར་མེ་ 73
མྱུ་གུ་ 73
འདི་སྐད་ཅེས་ 73
འི་དྲ 73
འི་བུས་ 73
འི་ཚད་ 73
འི་སླད་དུ་ 73
འོངས་པ 73
འོད་སྲུ 73
ཡོད་ན་ 73
ར་བགྱིས་ཏེ་ 73
རིས་ཀྱི་ 73
རུང་་ 73
རྣམ་པར་གན 73
རྩོད་པ 73
རྩོན་འགྲུ 73
ལ་བལྟ་བ 73
སྐྱབས་སུ་འགྲོ་བ 73
སྐྲག་ 73
སྒྲུབ 73
སྟོབས་དང་ལྡན་པ་ 73
སྤྱན་དྲ 73
ུ་བྱུང་སྟེ 73
▁ཡོངས་སུ་ 73
་དང་་ལྟོ་འཕྱེ་ 72
་དབུ 72
་སྒྲ་ 72
གཞན་དག་ཀྱང་ 72
གཞལ་མེད་ཁང་ 72
གླགས་ 72
ང་རྒྱ 72
ཆོས་ཐམས་ཅད་ལ་ 72
དགའ་བ 72
ཕྱིན་ཅི་ལོག་ 72
ཕྲག་དྲུག་ 72
མ་ཐག་ཏུ 72
མཆོད་སྦྱིན་བྱ 72
ཟད་པར་ 72
འདྲི་བ 72
འབྲས་ 72
འི་དུས་ན་ 72
འི་སྟོབས་བཅུ 72
འི་སྤྱོད་པ་ 72
ཡང་དག་པར་བླ 72
ཡན་ལག་བརྒྱ 72
རབ་ཏུ་བྱུང་སྟེ་ 72
རིང་དུ་ 72
རྒྱུ་དེ་དང་རྐྱེ 72
རྒྱུས་ 72
རྡོ་རྗེའི་ 72
རྣ་བ་ 72
རྣམ་དག་ 72
རྣམས་ལ 72
རླབས་ 72
ལ་བྱིན་ 72
ལམ་ཡང་ 72
ལྷག་པའི་བསམ་པ 72
ཤེས་སོ་ 72
ཥ་ 72
ས་སུ་ད 72
སྐུལ་བ 72
སྙམ་མོ་ 72
སྲེད་པ་ 72
ུང་ན་ 72
ྭ་བརྒྱད་ཀྱི་བ 72
ྱིན་པ་ 72
ྲོ་ 72
▁ཆུ་ 72
▁དགེ་བའི་རྩ་བ་ 72
▁དེས་ན་ 72
▁འགྲོ་བ་ 72
▁འོན་ཀྱང་ 72
་དང་ལྡན་པར་ 71
་དབྱངས་ 71
་སྐད་ 71
ཀུར་སྟི་ 71
ག་ཆགས་ 71
གང་ཡིན་པ་དེ་དག་ 71
གྲུབ་ 71
ངམ་བ 71
ཉིད་དང་་ད 71
ཐམས་ཅད་ཀྱི 71
ན་ད་ 71
ན་དེས་ 71
ན་བྲམ་ཟེ་ 71
ན་རེ་ 71
ཕྱེ 71
མཐུ་ཆེ་བ་ 71
མཛའ་བ 71
མི་བྱེད་་ 71
མུན་པ་ 71
ཚེའི་ཚད་ 71
ཚོགས་པ 71
འ་དང་་ 71
འདས་པའི་དུས་ན་ 71
འདི་ལས་ 71
འདིར་བ 71
འདུས་མ་བྱས་ཀྱི་ 71
ཡིད་མི་བ 71
ཡོད་དེ 71
ར་བགྱིས་ 71
རྒྱད་པ 71
རྒྱལ་པོ་ཟས་གཙང་ 71
རྗེའི་ 71
རྗོད་དོ་་ 71
རྟ་བ 71
ལྟ་ག་ལ་མཆིས་ 71
ས་སྡུག་བསྔ 71
སམ་གཏན་བ 71
སྒོའོ་་ 71
སྙིང་བརྩེ་བ 71
སྟོབ 71
སྟོབས་ཀྱིས་ 71
སྤྲོས་པ་ 71
ཨོ་ 71
ེ་བཞིན་ག 71
ེད་པ་་ 71
ོད་ཅིང་ 71
▁ང་ནི་ 71
▁དེའི་ཕྱིར་ 71
▁དེའི་འོག་ཏུ་ 71
▁བུ་མོ་ 71
་དགེ་འདུན་གྱི་ 70
་དང་་ལྷ་མ་ཡི 70
་དངོས་པོ་ 70
་དེ་གཉིས་ 70
་པོ་དང་་ 70
་བཅོམ་ལྡན་འདས་ 70
་སྟོང་པ་ཉིད་ 70
་སྤྱད་ 70
ཀུན་དགའ་ 70
ག་པས་ 70
གང་དག་བ 70
གཏན་ 70
གཏི་མ 70
གལ་ཏེ་བ 70
གཤེགས་པ་ 70
གསུམ་དུ་ 70
གྱིད་པ 70
གླང་པོ་ཆེ་ 70
ན་རྒྱལ་པོ 70
ནམ་མཁའ་ལྡིང་དང་་ 70
ཕྱིར་རྒོལ་བ 70
བུགས་ 70
མ་འོ 70
མཁས་པས་ 70
མི་འམ་ཅི 70
མི་ཤེས་ 70
མེ་ཏོག་དང་་ 70
ཞག་བདུ 70
ཞོན་པ་ 70
ཟག་པ 70
འདི་ལྟ་བུའི་ 70
འབྱུང་་ 70
རབ་འབྱོ 70
རྒྱལ་མཚན་དང་་བ་ད 70
རྗོད་་ 70
རྡོ་ 70
རྣམས་ལ་ཡང་ 70
ལེ་ 70
ལྟར་མི་བལྟ་སྟེ 70
ས་ཕྱོགས་ 70
སེམས་ཅན་གྱི་ 70
སྣང་ངོ་་་ 70
སྤྲོ་བ 70
སྦྱར་ཏེ 70
སྦྱིན་པ་སྦྱིན་པ 70
ོན་དང་་ 70
ློ་གྲོས་བ 70
▁དཔའ་བོ་ 70
▁པད་ 70
▁བཀའ་སྩལ་པ 70
▁འོ་ 70
▁ཡོན་ཏན་ 70
▁ཤཀྱ 70
་སངས་རྒྱས་བ 69
ཀུན་བ 69
ཁ་ཟས་ 69
གཏུམ་པོ་ 69
གུ་ 69
གླིང་བ 69
ཅན་གྱིས་ 69
ཐམས་ཅ 69
ན་དགེ་ 69
ནི་ཆོས་ 69
ནི་དབ 69
བྱང 69
མངོན་པར་ཞེ 69
མཆོག་ཏུ་དགའ་བ 69
མཚོ་ 69
མི་གནས་སོ་་ 69
མི་ཡི་ 69
ཚངས་པ་མཚུངས་པར་ 69
འ་བོ་ 69
འཇིགས་བ 69
འདས་ 69
འདི་སྐད་སྨྲ 69
འི་སེམས་ 69
ཡང་མ་ཡིན་ནོ་་ 69
ཡིད 69
ཡོད་དམ་ 69
ཡོན་ཏན་གྱི་ཚོགས་ 69
ར་བྱེད་པའོ་་ 69
ར་མི་བྱེད་དོ་་ 69
ར་མི་སྤྱོད་ 69
རབ་ཏུ 69
རབ་ཏུ་དགའ་བ 69
རྒྱས་པར་ 69
རྔ་ 69
རྩོན་ 69
ལན་གསུམ་བསྐོར་བ 69
ལས་སྐྱེ 69
ལྗ 69
ལྟ་ན་ 69
ཤིན་ 69
ཤེས་བྱ 69
ས་སྔོན་གྱི་ 69
སུ་ཡང་ 69
སེམས་བསྐྱེད་པ་ 69
སྔར་ 69
སྟོབས་ཀྱི་ 69
ི་ཀ 69
ུ་དེ་ལྟར་ན 69
ོང་བ་དང་་ 69
ོངས་པ་ 69
ོན་ནས་ 69
ྱིན་གྱིས་བརླབ 69
ྲང་བ 69
▁གྲོགས་པོ་དག་ 69
▁དགེ་སློང་དག་ང་ 69
་དང་་ཡང་དག་པར་ 68
་དེ་ནི་ད 68
་བྱམས་པ 68
་སྤྱོད་ 68
ཀྱི་དབང་པོ 68
ཁྱེད་ཅག་ 68
གང་ཡིན་པ་དེ་ནི 68
གཅིག་ལ་གཅིག་ 68
གནས་བ 68
གྱུར་པ་དང་་ 68
ངན་པ 68
ངས་རྒྱ 68
ཇི་སྙེད་ཡོད་པ 68
ཐོས་ནས་་ 68
དང་བ 68
ན་བཅོམ་ལྡན་འདས་ 68
བ་ཅིང་ 68
མགུ་ 68
མེད་པ་ཉིད་ 68
མྱ་ང 68
ཚང་བ 68
ཚིག་བ 68
ཟུང་ཤིག་ 68
འི་དབྱངས་ཀྱིས་ 68
འི་དྲི་ 68
འོད་སྲུང་དང་ 68
ཡང་དེ 68
ར་བགྱིའོ་ 68
ར་མི་འགྱུར་ཏེ་ 68
རིས་ 68
རྣམས་ཀྱི་ནི་ 68
རྣམས་དང་་་ 68
ལ་ཕྱག་འཚལ་ཏེ་ 68
ལྡོག་ 68
ཤད་་ 68
ཤད་དོ་་ 68
ཤས་ 68
ཤིང་ལྗོན་པ 68
སྐད་དུ་ 68
སྐལ་པ་བ 68
སྐལ་པ་བཟང་པོ་ 68
སྙོ 68
ུ་བྱུང་ 68
ོད་ཀྱི་ 68
ྲལ་བ་ 68
▁ཇི་ལྟར་བ 68
▁དངོས་པོ་ 68
▁དེས་ད 68
▁ཕྱོགས་གཅིག་ཏུ་ 68
▁འོད་སྲུང་ 68
▁ཡང་དག་པའི་ 68
▁རྣམ་པར་ཐར་པ 68
▁སྒྲ་ 68
་དགེ་སླ 67
་བྱེད་དོ་་ 67
་སྟོང་པ་ཉིད་དང་་ 67
་སྤོས་ 67
ཀྱིས་དེ་སྐད་ཅེ 67
ཁོང་དུ་ཆུད་ 67
གཅད་པ 67
གཟུགས་བརྙན་ 67
གི་བྱེ་མ་སྙེད་ 67
ངན་པ་ 67
ཅི་ཞིག་བྱ 67
ཆེད་དུ་བ 67
ཇི་སྐད་བསྟན་པ 67
ཏི 67
ཏིང་ངེ་འཛིན 67
ཏེ་ད 67
དེ་གཤེགས་ 67
དེ་བ་དང་ 67
ན་དགའ་བ 67
ཕྲག་དོག་ 67
མ་བྱེད་ 67
མཐའ་ཡས་སྐྱེ་མཆེ 67
མི་དགེ་བ་ 67
མི་དེ་ 67
མི་ནུས་ 67
མི་ནུས་་ 67
ཚངས་པར་ 67
ཚུལ་དང་ 67
ཞག་སྟེ་ 67
ཟབ་ 67
ཟུང་སྟེ་ 67
འཇིག་ 67
འཇོག་པ 67
འཐོ 67
འདུ་ཤེས་མེད་ 67
འབྱུང་་་ 67
འབྱུང་སྟེ་ 67
འབྲས་བུ 67
འཛིན་བྱེད་ 67
འོན་ 67
ཡེ་ཤེས་དང་ 67
ཡོན་ 67
ར་མི་ནུས་སོ་་ 67
རི་དགས་ཀྱི་ 67
རྒྱ་ཆེ་བ་ 67
རྩ་བ 67
རྫུ་འཕྲུ 67
ལ་ཕན་པ 67
ལ་བརྟེན་ནས་ 67
ལུས་ད 67
ས་པ་་ 67
ས་སེམས་ཅན་རྣམས་ 67
ས་སྟོན་རྒྱས་པ 67
ས་སྦ 67
སེམས་ཅན་དག་ 67
སྐར་ 67
སྒྱ 67
སྡུག་པ 67
སྦྱར་ཏེ་དེ་ནི་ 67
ིལ་སྙ 67
ེ་ལ་ 67
ོམས་ 67
ྡ 67
▁གས 67
▁དེ་ནས་རྒྱལ་པོ 67
▁དེ་ལྟ 67
་དང་་སྣ 66
་དུང་ 66
་དེ་ཡི 66
་དྲི་མ་མེད་པའི་ 66
་བླ 66
ཀྱིས་གསུངས་པ་ 66
གང་ག 66
གཅིག་ལ་ 66
གཏན་མི་དམིགས་ 66
གསུང་རབ་ལ་ 66
གླང་པོ་ཆེ 66
ཅུ་ད 66
ཆད་བྱ 66
ཆེ་་ 66
ཆེད་དུ་ 66
ཆོས་ཀྱིས་ 66
ཆོས་རྣམས་ཀྱི་ 66
ཐར་ 66
ཐར་པ 66
ཐོབ་པར་གྱུར་ཏོ་་ 66
ན་གསུ 66
ན་དང་་བ 66
ཕྱིར་མི་ལྡོག་པའི 66
ཕྱོགས་མཚམས་ 66
འཆང་ 66
འི་དབྱིངས་སུ་ 66
འི་ཕྱིར་ཏེ་ 66
འོག་ཏུ་བ 66
ཡིན་ན 66
ཡུན་ 66
ར་འགྱུར་ཞིང་་ 66
ར་འབྱ 66
རང་བཞིན་ཅན་ 66
རིན་པོ་ཆེ་བ 66
རུས་ 66
རྣམ་པར་བྱང་བ 66
ལག་པ་བ 66
ལས་སྐྱེས་པ 66
ལུགས་ 66
ལུང་བསྟན་ཏོ་ 66
ལྔ་བརྒྱ་པོ 66
ལྟ་བུ་བ 66
ས་སེམས་ཅན་ག 66
ས་སྐྱེ་བ་ 66
སུས་ 66
སྐྱེད་དོ་ 66
སྐྲག་པ 66
སྟོད་པ་ 66
ེགས་ 66
ྟ 66
ྱ་ 66
ྲ་བ 66
▁དེ་ལྟར་ན་ 66
▁རབ་ཏུ་ 66
▁ལྷའི་བུ་ད 66
▁སྟོང་པ་ཉིད་ 66
་དག་གོ་་ 65
་དང་བྱ 65
་བརྙེས་པ 65
་བྱུང་སྟེ་ 65
ཀྱི་བར་ལ་ 65
ཁ་ན་མ་ཐོ་བ་ 65
ཁུ 65
ཁྱོ 65
གང་་་ 65
གང་ནས་ 65
གཅིག་ཏུ་བ 65
གནས་པས་ 65
གཙུག་ལག་ཁ 65
གཞན་དག་ལ་ཡང་ 65
ང་བྱེད་ 65
ངེས་པ་ 65
ཅག་ 65
ཆེན་པོ་དག་ 65
ཉེ་བར་ཞི་བ 65
ཏིང་ངེ་འཛིན་དེ་ 65
ཏུལ་ 65
ཐབས་མཁས་པ་ 65
ད་དུ་ད 65
ན་གྱི་བུ་ 65
ཕུང་པོ་དང་་ 65
ཕྱག་འཚ 65
ཕྱིན་པ་ 65
ཕྱེ་མ 65
མཐུ་ཆེན་ 65
མི་གཡོ་ 65
མི་མཇེད་ 65
མུ་སྟེགས་ཅན་ 65
ཞེས་་ 65
ཟའ་བ་དང་བཅའ་བ་ 65
འགོག་པ་དང་་ 65
འགྱོད་པ 65
འཆང་བ་དང་་ 65
འཇུག་གོ་་ 65
འདི་དང་ 65
འབྱོར་པ 65
འམ་ཅི་ 65
འི་དུ 65
འི་བསམ་པ་ 65
འི་བྱང་ཆུབ 65
ཡང་ཡོད་ 65
ར་དཀའ་བ་ 65
ར་བཅོམ་ལྡན་འདས་ 65
ར་འགྱུར་གྱི་ 65
ར་འཛི 65
ར་ཡང་དག་པ 65
རབ་ཏུ་བྱུང་ངོ་་་ 65
རིས་ཀྱི་ལྷ་ 65
རྣ་ 65
ལ་པོ 65
ལའི་ 65
ལོན་པ་ 65
ལྷུན་པོ་ 65
སིལ་ 65
སུམ་ཅུ་རྩ་གཉིས་ 65
སོད་སྙོམས་ལ་ 65
སྐྱེ་དགུའི་ཚེ་ 65
སྐྱེ་མཆེད་དྲུག་ 65
སྐྱེའོ་ 65
སྟན་པར་ 65
སྡུག་བསྔལ་བ་ 65
སྤོས་ཀྱི་ 65
སློབ་དཔོ 65
ཧུ་ཕཊ་ 65
ུ་བྱུང་ངོ་་་ 65
ེ་བྲག་ 65
ོགས་སོ་་ 65
ོན་དམ་པར་ 65
▁གཡ 65
▁དེ་དག་བ 65
▁བརྩོན་འགྲུས་ 65
▁ཚ 65
▁རིགས་ 65
▁སྲི 65
་དང་་དྲི་དང་་ར 64
་དེ་དག་གི་བ 64
་བདག་ཅག་ 64
ག་བརྒྱ 64
གང་དུ་བ 64
ངོ་མཚར་དུ་ 64
ཅིངས་པ་ 64
ཇི་སྲི 64
ཐོས་པའི་ 64
ན་གྱི་བར་དུ་ 64
ན་བཞི 64
ནས་སྐྱ 64
ཕུལ་ལོ་་ 64
བས་དང་ 64
བས་པ 64
མ་གཏ 64
མ་གྱུར་ 64
མངོན་པར་འ 64
མངོན་པར་ཤེས་པ་ལྔ 64
མཆོག་དང་ 64
མར་གྱི་ 64
མི་དགེ་བ 64
མི་མཉེས་པར་ 64
མེད་པ་་ 64
མེད་པ་ནི་ 64
མེད་པ་བ 64
ཞབས་ཀྱི་ 64
ཞེས་ཟེར་ 64
འ་ད 64
འདི་ལྟ་སྟེ་དཔེར་ 64
ཡི་གེ་དྲུག་པའི་ 64
ཡུངས་ 64
རྒྱའི་ 64
རྒྱལ་པོ་ཆེན་པོ་བ 64
རྗེས་སུ་དྲ 64
རྙོག་པ་ 64
རྣམ་པར་གྲོལ་བ 64
རྩལ་ 64
ལ་དག་ 64
ལ་བདག་གིས་ 64
ལྡང་ 64
ས་པའི་ལྷ་ 64
ས་སྤྱོད་ 64
སེར་སྣ་ 64
སོ་སོར་རྟོག་ 64
སོང་ཤིག་ 64
སྐྲ་ 64
སྒྲུབ་པ་དང་ 64
སྒྲོན་མ་ 64
སྤོབ 64
ིན་ 64
ྒྱ 64
▁གཞོན་ནུ 64
▁དེས་དེ་ 64
▁འདོད་པ་ 64
▁འོན་ 64
▁རིག་པ 64
▁སྲེད་མེད་ཀྱི་བ 64
་དགེ་བསྙེན་ 63
་དང་ལྡན་པ་བ 63
་པད་མའི་ 63
་བདག་གིས་ 63
་བརྒྱ་སྟོང་ 63
་རང་ 63
་རྙ 63
་སྤུའི་ཁུང་བ 63
་སྤྱོད་པ་ 63
ཀར་པ 63
ཀློག་པ་དང་་ 63
གདུང་ 63
གཟོད་མ་ནས་ 63
གཡུལ་ 63
གིས་ཀྱང་ 63
གུང་ 63
གྱིས་ད 63
ངེས་ 63
ཆུང་ངུ་ 63
ཆེན་པོ་དང་ལྡན་པ་ 63
ཆོས་ཀྱི་མིག་ 63
ཆོས་ཀྱི་འཁོར་ལོ་ 63
ཐ་སྙད་ 63
ཐག་ 63
ཐམས་ཅད་བསྡུ 63
ཐལ་མོ་སྦྱར་ 63
ཐུབ་པ་ན་ 63
ད་དུ་བྱ 63
དུག་པ 63
ན་ཁྱིམ་བདག་ 63
ན་གད 63
ནག་པོ་ 63
ནས་སྐ 63
པག་ 63
ཕ་མ 63
ཕྱོགས་བཅུ 63
མེད་པ་སྟེ་ 63
ཙ་ 63
ཙན་ད 63
ཙུན་མོའི་ 63
ཚོང་པ་ 63
ཞག་གོ་་ 63
ཞིང་དེར་ 63
འགྱུར་ཏེ་ 63
འགྲོགས་ 63
འི་ཚི 63
ཡང་གཞན་ 63
ཡིད་འོང་ 63
ཡོངས་སུ་གཟུང་བ 63
ཡོངས་སུ་བསྔ 63
ར་བྱས་་ 63
ར་འོ 63
རུང་བ་ 63
རྒན་ 63
རྙེས་པ་ 63
རྣམས་ཡིན་ནོ་་ 63
ལུས་ཀྱིས་ 63
ལེན་པའི་ 63
ལྔ་བཅུ 63
ལྟའོ་་ 63
ས་དེའི་ཕྱིར་ 63
སོང་ལ་ 63
སྔོན་གྱི 63
སྟན་པ་འདི་ 63
སྟོབས་སོ་་ 63
སློབ་མ་ 63
ྱིན་ནོ་་ 63
▁ཀྱེ་མི་ 63
▁གང་བ 63
▁གང་ཟག་ 63
▁བཅོམ་ལྡན་འདས་བྱ 63
▁སོ་ 63
་དང་དེ་དག་ 62
་དེ་་ 62
་སྙིང་ 62
་སྤྱོད་པ 62
ཀུན་དགའ་བ 62
ཀྱི་དོན་བྱ 62
ཀྱིས་དེ 62
ཀྱིས་སྟོང་ 62
ཁྲོ་བོ་ 62
ག་ཏ་ 62
གས་སྟ 62
གསོལ་བ་བཏ 62
གི་དབང་པོ་ 62
གྲངས་མེད་དཔག་ཏུ་ 62
ངེས་པར་བྱ 62
ཆོས་གང་ 62
ཆོས་སྨྲ 62
ཉན་ཐོས་དང་ 62
ཎ 62
ཏི་ 62
ཐད་ 62
ཐུབ་ 62
ན་དུ་བཅ 62
ན་པའི་ཡེ་ཤེས་ 62
ནང་དུ་རྒྱུ་བ 62
ཕམ་པ 62
ཕྱུང་ 62
ཕྲག 62
བས་བ 62
མ་བཞིན་དུ་ 62
མ་རིག་པ 62
མཐོང་ངམ་ 62
མཐོང་ལགས་སོ་་ 62
མཐོན་པོ་ 62
མི་ད 62
མི་བྱའོ་་ 62
མི་འགྱུར་བ 62
མེད་དེ་་ 62
མེད་པ་མ་ཡིན་ 62
ཚངས་པར་སྤྱོད་པ་ 62
ཞིང་ཡང་ 62
ཞེས་བྱ་ 62
འཆི 62
འཇོམས་ 62
འཕྲུ 62
འི་དགའ་བ 62
འོད་ཀྱིས་ 62
འོད་སྲུང་གི་ 62
ཡི་ར 62
ཡིན་ཞིང་ 62
ར་དེ་དག་ 62
རངས་པ 62
རལ་གྲི་ 62
རིང་བསྲེ 62
རྗེས་སུ་ཡི་རང་བ 62
རྩྭ 62
ལ་ཕུལ་ 62
ལ་བྱེད་ 62
ལས་འདས་པ 62
ས་སྦྱ 62
སམ་གཏན་དང་་ 62
སྙམ་དུ་མི་སེམས་ 62
སྙམ་ནས 62
སྟི་སྟང་དུ་བྱ 62
ུ་དང་བ 62
ུ་ཞིང་ 62
ོན་་ 62
ྱིན་གྱི་རླབས་ 62
ྱིན་ཏེ་ 62
ྲིས་ 62
▁གང་གི 62
▁དེ་ནི་ད 62
་ཏིང་འཛིན་ 61
་དག་གིས་བ 61
་དང་་བསྙེན་བཀུ 61
་དང་་སེམས་ 61
་དང་བཀུར་སྟི་ 61
་དང་ལྡན་པའི 61
་དེ་གཞན་ 61
་དེ་ལྟ་ལགས་སོ་ 61
་རེ 61
་རྙེད་ 61
ཀུན་ཤེས་སོ་ 61
ཀྱང་དེ 61
ཁང་པ་བརྩེ 61
གནས་དེ་ 61
གཙུག་ལག་ཁང་དུ་ 61
གཞག་པ་ 61
གཟིགས་པ་ 61
གས་ཤིང་ 61
གསོ་བ 61
གུས་བསྐྱེད་བསྲི 61
གྱེ 61
གྲོལ་བ་ 61
ངན་འགྲོ་ 61
ཅུར་ 61
ཆག་ 61
ཆུ་བོ་ 61
ཐབས་མཉམ་པ 61
དག་གིས་ཐོས་པ 61
དག་པ 61
ན་གང་དག་གིས་ 61
ནང་དུ་བ 61
པོའི་ 61
ཕོངས་པ 61
མ་གཏོགས་པ 61
མ་བཅས་པ་ 61
མ་མ་ 61
མཁན་པ 61
མཁྱེ 61
མང་པོ་བ 61
མངོན་པར་བྱ 61
མཆིས་་ 61
མཆིས་པ་ 61
མཆོད་ཅིང་ 61
མཆོད་སྦྱིན་གྱི་ 61
མདོ་སྡེ་འདི་ 61
མར་པ 61
མི་རྟག་པ 61
མུ་ཏི 61
མུ་ཏིག་ 61
མུ་རུ་ 61
ཚད་མེད་ 61
ཞག་ནས་ 61
ཞོན་པ 61
ཟ་ 61
འགགས་པ 61
འགྱུར་རོ་ 61
འི་ཚུ 61
འོག་ 61
ཡང་མེད་དོ་་ 61
ཡོད་མ་ཡིན་་ 61
ར་རྗེས་སུ་བ 61
རྨོངས་པ 61
ལས་དང་ 61
ལུང་བསྟན་ཏོ་་ 61
ལྟ་བར་ 61
ཤ་ར་དྭ་ཏིའི་བུ་ 61
ཤ་རི 61
སགས་པ་ 61
སིལ་སྙ 61
སུ་བྱ 61
སྐྱེ་བའི་ཆོས་ 61
སྒྲུབས་པ 61
སྦྱར་བར་བྱའོ་་ 61
སྨོན་ལམ་བཏབ་སྟེ་ 61
ེ་བཞིན་དུ 61
ྲང་སྲོང་ད 61
▁དེ་ནས་དེ་དག་ 61
▁བསྐལ་པ་ 61
▁ཟླ་བ་ 61
▁འདི་སྐད་བ 61
▁རི་ 61
▁སྐུ་ 61
▁སྐྱེ་བ 61
▁སྦྱིན་པ 61
▁སྨན་གྱི་ 61
་དེ་དང་་ 60
་དེ་བཞིན་ད 60
་བྱེད་དེ་ 60
་སེ 60
་སྟོན་པ་ 60
ཁྲི་ཉིས་སྟོང་ 60
གདན་ 60
གནས་བཅ 60
གནས་ཤིང་ 60
གླི 60
ང་བས་ 60
ཆགས་བྱ 60
ཆུང་མ་ལ་བུ་ཆགས་ 60
ཆེན་པོ་བྱམས་པ 60
ཇི་ཙམ་དུ་ 60
ཉི་མའི་ 60
ད་དུ 60
དང་ལྡན་པ་ 60
ན་པ་ལ་གནས་ནས་ 60
ནས་དེ་དང་ 60
ནས་སྐྱེ 60
ཕྱེ་མ་དང་་ 60
ཕྱོགས་བ 60
ཕྲ་ 60
བང་བ 60
མངལ་ 60
མདུང་ 60
མན་ད་ 60
མར་པོ 60
མར་པོ་ 60
མི་གཙ 60
མིག་གིས་ 60
མིང་དང་གཟུགས་ 60
ཙུན་ 60
ཚེ་རབས་ 60
ཛ་ 60
ཞབས་འབྲི 60
འ་ཐམས་ཅད་ 60
འཆག་ 60
འཆི་ཀར་ 60
འདུག་བཞིན་དུ་ 60
འཕགས་པའི་ནོར་བ 60
འབྲས་བུ་དང་་ 60
འཛུམ་ 60
འི་ཁམས་དང་ 60
འི་བར་ལ་ 60
འི་བློ་གྲོས་ 60
འི་ཚིག་གིས་ 60
ཡང་དག་པར་དགའ་བ 60
ཡི་ནི་ 60
ཡིད་དུ་འོང་བ་ 60
ཡུལ་གྱི་ 60
ཡོངས་སུ་ད 60
ཡོད་པའི་ 60
ར་ཎ་སི 60
ར་བལྟ་བ 60
ར་བྱེད 60
ར་འདོད་པས་ 60
ར་འོངས་ 60
རྒོལ་བ་ 60
རྗེ་བ 60
རྟེན་ཅིང་ 60
རྣམ་པ་དུ་མ་ 60
རྣམས་ཡི 60
རྩ་ 60
རྩོན་པ་དང་བ 60
ལ་བསླབས་ 60
ལ་སོགས་ 60
ལམ་གྱི་ 60
ལས་ལ 60
ལུང་བསྟན་ 60
ལྟར་མི་བལྟ་སྟེ་ 60
ལྟོ་འཕྱེ་ 60
ཤི་འཕ 60
ས་ནས 60
སྙན་ 60
སྙེན་ 60
སྟེ་བཞི་གང་ཞེ་ན་ 60
སྟོང་དུ་ 60
སླབས་ 60
ུ་པ 60
ེ་བཞི 60
ོང་་་ 60
ོང་དང་ 60
ྩ 60
ྱིས་པ་སོ་ 60
ྲུལ་པ་ 60
▁དབང་པོ 60
▁དེས་དེར་ 60
▁ནམ་ 60
▁བདུད་ཀྱི་ 60
▁རིགས་ཀྱི་བུ་ད 60
་དང་་སྐྱེ་བ 59
་དང་་སྐྱེ་བ་ 59
་དང་་སྙིང་རྗེ་ 59
་དེ་ལ་ནི་ 59
་བཏ 59
་བཞིན་དུ་བ 59
་བསྐྱེད་པ 59
་རྗེས་སུ་ 59
ཁམས་དེ་ 59
ཁྲི་བ 59
ཁྲིད་དེ་ 59
གང་ཡིན་པ་དང་་ 59
གཏེར་ 59
གདོན་མི་ཟ 59
གནང་ངོ་་་ 59
གནང་བ 59
གནོད་པ་དང་ལྡན་ 59
གཟུང་དུ་ 59
གཤ 59
གསེར་ད 59
གི་དབང་པོ་ནི་ 59
གློག་ 59
ང་ཉིད་ 59
ང་དེ 59
ང་བྲལ་བའི་ 59
ང་ཡི 59
ཅུ་ལོན་པ 59
ཉི་ཤ 59
ཎི་ 59
ཏང་བ་ 59
ཐབས་ལ་མཁས་པ་ 59
ད་བྱེད་ 59
ད་མོས་ཚ 59
དག་པོ 59
ན་ཅིག་ 59
ན་བུ་ 59
ནགས་ཁྲོ 59
ནས་སླ 59
ཕུག་ 59
མ་ཐག་ཏུ་བ 59
མཁྱེན་ནས་ 59
མཚུངས་ 59
མཚུངས་པར་ 59
མི་བཟ 59
མི་སྡ 59
ཚེ་དང་ལྡན་པ་ཤ་རི 59
འགྲོ་་ 59
འདས་པ་དང་་ 59
འདུན་པ 59
འམ 59
འཛིན་པའི་ 59
འི་བརྩོན་འགྲུས་ 59
འི་བྱང་ཆུབ་ཀྱི་ 59
འི་ཚེ་དེའི་དུས་ན 59
འོན་ཀྱང་ 59
ཡང་བརྗོད་དུ་ 59
ར་བྱ་སྙམ་ 59
ར་འགྱུར་རམ་ 59
ར་འཚང་རྒྱ 59
རྒྱུ་དང་ 59
རྩོན་འགྲུས་དང་ 59
ལམ་དུ་ 59
ལྟས་ན་ 59
ལྷ་དང་ 59
ཤིང་རྟ་ 59
ས་གསོལ་པ 59
སྒྲེ 59
སྙིང་པོ་ལ་ 59
སླབ 59
ཨུ 59
ུང་དང་་ 59
ུད་མེད 59
ུམ་བ 59
▁དེ་ཕྱིར་ 59
▁བདེ་བར་གཤེགས་པ་ 59
▁བྱམས་པ 59
▁མག 59
▁ཚངས་པའི་ 59
▁རིགས་ཀྱི་བུའམ་ 59
▁རྣམ་པར་ཤེས་པ་ 59
་དགེ་འདུན་ལ་ 58
་དབེན་པ་ 58
་དེང་ 58
་བདག་གི་ 58
་རེ་ 58
ཀའ་སྩལ་ 58
ཀྱི་དེ་བཞིན་ཉིད་ 58
ཀྲ་ཤི 58
གཡོན་ 58
གྱུར་ནས་་ 58
ངས་ད 58
ངོས་གྲུབ་ 58
ཅང་ 58
ཅང་མི་ 58
ཅུའི་ 58
ཏགས་པ་ 58
ཐ་ན་ 58
དག་པོ་ 58
ནས་སྟན་ལས་ལ 58
ནི་གང་ཡིན་ 58
ནུས་སོ་་ 58
ཕྱག་རྒྱ་ 58
ཕྱིར་བྱ 58
མ་བགྱི 58
མངའ་ 58
མངོན་པར་བརྩོན་པ 58
མཆོ 58
མམ་ 58
མཛད་དེ་ 58
མིགས་ 58
མིང་དང་ 58
མེད་ཟས་སྦྱི 58
མོ་དང་་ 58
མོས་པའི་ 58
ཚེ་བ 58
ཞིག་ནས་ 58
ཟད་དོ་་ 58
འགྲོ་བར་ 58
འདུལ་ 58
འདེབ 58
འི་གཟུགས་ 58
འི་ཚོར་བ 58
ཡང་དག 58
ཡངས་ཤིང་ 58
ཡིད་གཉིས་ 58
ཡུམ་ 58
ར་བྱའོ་སྙམ་ནས་ 58
ར་འགྲོ 58
རིམ་གྲ 58
རྩོན་འགྲུས་བ 58
ལོག་པར་ལྟ་བ 58
ལྟུང་བ་ 58
ལྷག་པའི་བསམ་པ་ 58
ཤེས་པའོ་་ 58
ས་སྒྲ་ 58
ས་སྡ 58
སམ་གཏན་དང་ 58
སི 58
སུའི་ 58
སེམས་ཅན་གང་དག་ 58
སེར་སྐྱའི་ 58
སྐུར་བ་ 58
སྲིད་པའི་ 58
ུ་དག 58
ུང་གི་ཚོགས་ 58
ུས་ན་ 58
ེ་བོ་ 58
ེ་སྔགས་འདོན་པ 58
ེབས་པ 58
ོན་ག 58
ོན་དེ་ 58
ོས་བ 58
ྦྱིན་པ 58
▁ཀ་ཤི་ཀ་ 58
▁གཞོན་ནུ་དེ་ 58
▁བཟང་སྐྱོང་ 58
▁སྔོན་ 58
་དང་་སྐྱེ 57
་དང་་སྲི 57
་དེ་དག་ནི་བ 57
་དྲན་ 57
་དྲན་པ་ 57
་རྒ 57
་སྐྱེས་ནས་ 57
་སྟོང་པ 57
་སྟོབས་དང་ 57
ཀུ་མུ་ད་དང་ 57
ཀྱང་དེ་དག་ 57
ཀྱེ་མ་ 57
ག་དང་་བ 57
གང་ལ 57
གཉེན་པོ་ 57
གནོད་ 57
གཙང་མ་བཟང་པོ་ 57
གསུམ་པོ་ 57
ང་ཆུབ་སེམས་དཔའ་བ 57
ངེས་པར་འབྱ 57
ཅིག་དང་་ 57
ཅུ་བ 57
ཆ་དང་་ 57
ཆུང་བ་ 57
ཆེ་གེ་མོ་ 57
ཆོས་གང་ཡང་ 57
ཉལ་བ 57
ཉིད་དུ་བ 57
ཐོབ་པར་འགྱུར་་ 57
དག་ཏུ་ 57
དེ་བར་གཤེ 57
དེ་བར་རེ 57
ན་དང་ད 57
ན་འདུག་པ 57
ནག་པ 57
མ་ནུས་ 57
མ་མཆིས་པ་དང་་ 57
མང་པོའི་ 57
མངའ་བ་ 57
མངོན་པར་ད 57
མངོན་པར་ཞེན་པ་ 57
མི་དམིགས་པ་ 57
མི་འཇིགས་པ 57
མིག་གི་ཁམས་ 57
ཙམ 57
ཚིག་དེ་ 57
ཞིན་དུ་བ 57
ཟང་བ་ 57
ཟིན་པ་ལས་ 57
ཟིལ་ 57
ཟུང་ནས་ 57
ཟེར་བ 57
ཟོང་ 57
འདོད་ཆགས་ཀྱི་ 57
འི་ཚེ་བ 57
འོངས་པ་ 57
འོས་ 57
ཡོངས་སུ་བཟུང་བ 57
ར་གྱུར་ཅིང་ 57
ར་འགྲ 57
རྟེན་པ 57
རྣམས་ཀྱིས་ཀྱང་ 57
ལ་གཟིགས་ 57
ལ་བཀུར་སྟི 57
ལ་བཀོད་དོ་་ 57
ཤ་སྟ 57
ཤད་པའི་ 57
ཤིང་དགེ་སློང་ 57
ཤེས་པ་དག་ 57
ས་དེ་ལྟར་ 57
ས་བསོད་ནམས་ 57
ས་ལ་བ 57
ས་སྟོན་ 57
སེམས་དང་་ 57
སྐྱེ་བོ 57
སྒྱུ་འཕྲུལ་ 57
སྔོན་དུ་ 57
སློབ་དཔོན་ 57
ུམ་པ་ 57
ེ་བ་ཕྲག་ 57
ེ་མ་ 57
ོ་བོ 57
ོངས་པ 57
▁་ 57
▁གཟུགས་ཀྱི་ 57
▁འཁོར་བ 57
▁འདོད་པའི་ 57
▁རིན་པོ་ཆེའི་ 57
▁སྐྱེ་བོ་ 57
▁སྲིད་པ་ 57
་ཏིང་ 56
་དགེ་བ་ 56
་དང་་སྤོས་དང་་ 56
་དང་མི 56
་དེ་ནི་ཚུལ་ལོ་་ 56
་རུ་ 56
ཀོན་ 56
ཁོར་ 56
ག་བརྒྱ་སྟོང་ཕྲག་ 56
གཅེར་བ 56
གཤེགས་པ 56
གྱུར་ན་་ 56
ཅོད་པ 56
ཆེན་པོ་གང་དག་ 56
ཏིལ་ 56
ཐོབ་་ 56
ད་དུ་གསོལ་་ 56
ད་དུ་བཅུག་ 56
དག་གིས་ད 56
དེ་བ་ཡང་ 56
དེ་ལ་ 56
ན་ཆད་ 56
ན་པ་དང་་ཤེས་རབ་ 56
ནི་དཔ 56
ཕུང་པོ་ཆེན་པོ་ 56
ཕྱིར་འ 56
ཕྱུག 56
ཕྲག་དུ་མ་ 56
མ་མཆིས་ཤིང་ 56
མ་ལགས་སོ་་ 56
མ་སྐྱེ 56
མ་ཧ 56
མཉམ་པའི་ 56
མས་ཤིང་ 56
ཙམ་ཞིག་ 56
ཚུལ་ཁྲིམས་ཀྱི་ 56
ཟག་པ་མེད་པའི་ 56
ཟག་པ་ཟད་པ་ 56
ཟིལ་གྱིས་ན 56
འ་ཆོས་བཞི 56
འབྱིན་པ་ 56
འབྱུང་བར་ 56
འབྲེ 56
འི་དུས་ཀྱི་ཚེ་ 56
ཡི་གེ 56
ཡི་གེར་འདྲི 56
ར་འཇུག་ 56
ར་འཛ 56
རིགས་སུ་ 56
རྒྱ་མཚོ 56
རྒྱུ་ཞིང་ 56
རྣམ་པར་དག་པའི་ 56
རྨི་ 56
ལ་ལ་ཞིག་ 56
ལག་མཐིལ་དུ་ 56
ལུང་ཡང་ཕོག་ 56
ལུས་དང་སྲོག་ 56
ལོ་ཞེས་ 56
ལྷའི་བ 56
ཤར་ཕྱོགས་ 56
ཤི་བ 56
ཤིག་དང་ 56
ཤེས་པ་ལ་མི་ 56
སམ་ཡ 56
སེར་སྣ 56
སྐད་བ 56
སྐྱེའོ་་ 56
སྒོ་དང་་ 56
སྒྲ་ཡང་ 56
སྒྲ་སྒྲ 56
སྒྲོན་ 56
སྤུ 56
སྤོབས་པ 56
སྤྱད་པ་སྤ 56
སྦྲ 56
སྲེད་པ 56
ུབ་པ 56
ེ་དང་་ 56
ེ་བ་སྟོང་ 56
ེང་ག 56
ོན་ནོ་་ 56
ོར་ཏེ་ 56
ྒྱུ་མ་ 56
ྲམ་ཟེ་དང་་ 56
▁གང་ལ་ 56
▁མཚན་ 56
་དབུགས་ 55
་དེ་དག་དང་ 55
་བསོད་ནམས་ 55
་བསྒྲ 55
་བྱུང་བ་ 55
་སུམ་ཅུ་རྩ་ 55
ཀའ་སྩལ་པ 55
ཀྱིས་ཟླ་འོད་ 55
ཁྲོ 55
གཉིས་དང་་ 55
གཞུང་ 55
གཟི་བརྗི 55
གྱི་ད 55
གྲོང་ཁྱེར་དང་་ 55
ང་དེ་བཞིན་ 55
ང་ཡིས་ 55
ངོ་མཚ 55
ངོ་ཞེས་ 55
ཅང་མི་གསུང་བས་ 55
ཅི་ལགས་ 55
ཆེན་པོ་ཡང་ 55
ཇི་སྲིད་འཚོ 55
ཉོན་ 55
ཐལ་མོ་ 55
ད་པ་དང་་མཁས་པ་ 55
དག་ཅ 55
ན་ཆེ 55
ན་དེ་དག་ཡང་དག་པ་ 55
ན་ཡང་་ 55
ནས་དེ་ལ་ 55
ནས་སེམས་ 55
ཕྱིར་ཡང་ 55
ཕྲག་ད 55
བང་བསྐུར་བ 55
མ་འག 55
མ་འདྲེས་པ 55
མཛད་དུ་གསོལ་ 55
མར་མེ 55
མས་ཏེ་ 55
མི་འཇིགས་པ་ 55
མི་རི་ 55
མེད་པ་ཡིན་ 55
འ་ཡང་ 55
འཇོམས་པ 55
འདུས་བྱས་ཀྱི་ 55
འབྲལ་བ 55
ཡིན་གྱི་ 55
ར་བགྱིད་་ 55
རས་ 55
རིའི་རྩེ་མོ་ 55
རྟག་པ་དང་་ 55
རྟུལ་ 55
རྣམ་པར་སྤྲ 55
རྣམ་བ 55
རྨི 55
རྩམས་ 55
རྩོད་པ་ 55
རླབ 55
ལ་ལ་ཞིག་གིས་ 55
ལག་ཏུ་ 55
ལས་བརྩམས་ 55
ལེགས་བ 55
ལྔ་དང་ 55
ལྗོངས་ 55
ལྟ་བུའོ་་ 55
ལྟོས་ 55
ལྷ་དང་་ཀླུ་དང་་ 55
ལྷ་རྣམས་ཀྱི་ 55
ལྷོ་ 55
ས་མ་ 55
ས་སྐུ་ 55
ས་སྡི 55
སེན་ 55
སྐར་མའི་རྒྱལ་པོ་ 55
སྐུར་ 55
སྐྱི 55
སྐྱིལ་མོ་ཀྲ 55
སྙམ་ད 55
སྟོབས་དང་བ 55
སྡོམ་པ 55
སྤྱོད་ཡུ 55
སྦྱིན་པ་དེ་ 55
ེ་བས་ 55
▁ཀླུ་ 55
▁ཁོ་བོ་ 55
▁དེ་ལ་ད 55
▁མ་ཕམ་པ་ 55
▁རྒྱལ་པོའི་ 55
▁ལྷ་དང་ 55
་དགོངས་ཏེ་ 54
་དེ་ལྟ་བུ་ནི་ 54
་སྤོང་བ 54
ཀུན་དགའ་ར་བ་ 54
ཀྱི་ཞབས་ 54
ཀྱིས་དགོངས་པ་ 54
ཁ་དོག་བ 54
ཁྲོད་ཀྱི་ 54
ག་ལས་ 54
གདུང་བ་ 54
གཙོ་བོ 54
གསོལ་ནས་ 54
གྲགས་པའི་ 54
ང་དག 54
ཆད་པར་ 54
ཆེ་བར་ 54
ཆེན་པོ་ལ་ 54
ཉེ་བ་ 54
ཉེ་བར་གཞ 54
ཐང་ 54
ཐབས་ཅིག་ 54
ཐི 54
ཐོབ་སྟེ་ 54
དུད་སྡིག་ 54
དེ་གཤེ 54
ན་གྲོང་ 54
ནི་རབ་ཏུ་ 54
ནི་སེམས་ཅན་ 54
བ་མ་ 54
མ་ལུ 54
མཁས་ཤིང་ 54
མཛེས་པ་ཞིག་བཙ 54
མས་ནས་ 54
མི་མང 54
མེད་དེ 54
མོ་དང་ 54
ཞི་གནས་ 54
ཞིག་གུ་ 54
ཟག་ 54
འ་སྤ 54
འཁྲུལ་ 54
འཇོམས་པ་ 54
འཐོབ་པ་ 54
འདི་དག་ལ་ 54
འབར་ 54
འི་སྤྱོད་ཡུལ་ 54
ཡི་ག 54
ར་འོད་ 54
ར་རྫ 54
རྒྱ་བྱིན་གྱིས་ 54
རྣམ་གྲངས་འདི་ལ་ 54
རྣམ་པ་ཐམས་ཅད་དུ་ 54
རྣམ་པར་འབྱ 54
རྩེ་མོ་ 54
ལ་ལ་ནི་ 54
ལུས་དང་་ཡིད་ 54
ལོ་ཉི་ཁྲི་ 54
ལྟ་ག་ལ་ 54
ལྟ་བུར་བ 54
ལྷ་མི 54
ཤི་འཕོས་ནས་ 54
ས་ཤིང་་ 54
སྐྱེད་་ 54
སྒྱུ་མའི་ 54
སྒྲུབ་ 54
སྙིང་པོའི་ 54
སྙིང་རྗེ་བ 54
སྣ་ཚོ 54
སྤྱན་གྱིས་ 54
སྤྱོད་་ 54
སྦྱིན་པ་བ 54
སྦྱིན་པ་ལ་ 54
སྲེག་ 54
ུག་བ 54
ུགས་པ 54
ུད་མེད་བ 54
ུད་འགྲོ་ 54
ྒྲ 54
ྲམ་ཟ 54
ྲི་མེད་ 54
▁ཀུན་ཏུ་ 54
▁ཆོས་ཀྱི་དབྱིངས་ 54
▁ད་ལྟར་བྱ 54
▁མེ་ཏོག 54
▁འཇམ་དཔ 54
▁རབ་འབྱོར་འདི་ལ 54
▁ཤར་ 54
▁སྲོག་ཆགས་ 54
་དག་ད 53
་དང་་སྒྲ 53
་དང་ལྡན་པ་དང་་ 53
་དང་ལྡན་ཞིང་ 53
་དཔའ་བོ་ 53
་རབ 53
་སྨོན་ལམ་ 53
་སླ 53
ཀ་ཤི་ 53
ཀྵ 53
ཁྱིམ 53
གཉི་ག་ 53
གནས་མ་ཡིན་པ་ 53
གཟུགས་ལ་ 53
གཟུངས་ཀྱི་ 53
གཡས་ 53
གཤེགས་ནས་ 53
གེ་སློང་དག་ 53
གོས་དང་ 53
གྲ་བ 53
གྲོང་ཁྱེར་གྱི་ 53
ངེ 53
ཆེན་པོ་དེ་དག་ 53
ཆོས་ཅན་ 53
ཇི་སྐད་ 53
ཉམས་སུ་ 53
ཉེས་དམིགས་སུ་ 53
ཐལ་ 53
ད་དང་་་ 53
དེན་ 53
ན་དང་ལྡན་པ་ 53
ན་དུ 53
ནད་ཀྱིས་ 53
ཕྲེང་བ་དང་་བྱ 53
བས་པ་ 53
མ་ཐག་ 53
མཆིས་པ 53
མཇ 53
མདོ་སྡ 53
མི་དང་་ལྷ་མ་ཡི 53
མི་མཉམ་པ་དང་ 53
མི་འཁྲུ 53
མྱ་ངན་བ 53
མྱ་ངན་ལས་འདས་ནས་ 53
མྱུར་བ 53
ཙམ་པ་ 53
ཙུགས་ 53
ཚད་མེད་པ་ 53
ཞིག་བཙ 53
འང་བ 53
འཇིག་རྟེན་པའི་ 53
འཐབ་ 53
འབབ་པ 53
ཡི་གེར་ 53
ཡིད་གཞུ 53
ཡིན་པ་ 53
ཡུད་ 53
ཡུལ་བ 53
ཡོངས་སུ་མྱ་ངན་ 53
ར་གྱི་བ 53
ར་དེས་ 53
ར་པ་ 53
ར་འགྱུར་ཡང་ 53
ར་འདོ 53
ར་སངས་རྒྱས་ནས་ 53
རབ་གནས་ 53
རྗེས་སུ་དྲན་ 53
རྡེ 53
རྡོ་རྗེས་བ 53
རྣམ་པ་དྲུག་ཏུ་ 53
རྣམ་པར་བྱང་བའི་ 53
རྣམས་ཀྱིས་ནི་ 53
ལོགས་ 53
ལྔ་པོ་ 53
ལྡང་བ 53
སེམས་ད 53
སེར་ 53
སྡིག་པ 53
སྡེ་སྣོད་ 53
སྲིད་དུ་བ 53
སླད་དུ 53
སླབས་པ་ 53
ི་མ 53
ུག 53
ེད་དོ་ 53
ོན་ན 53
ྡུག་བསྔལ་ 53
▁ཁམས་ 53
▁ཅི 53
▁ཕྱི་ 53
▁བྲམ་ཟེའི་ཁྱེའ 53
▁བླ་གོས་ཕྲག་པ་ 53
▁མི་གང་ 53
▁འདྲེན་པ་ 53
▁རང་ 53
་དགེ་བའི་རྩ་བ་བ 52
་དང་འདི་བཞིའོ་་ 52
་དུས་གཅིག་ན་ 52
་དེ་དེ་བཞིན་ནོ་་ 52
་དེའི་དུས་ 52
་པའི་ 52
་བྱུང་་་ 52
་སྐྱེས་སོ་་ 52
་སྐྱོ 52
ཀའ་ཐུབ་ 52
ཁྱིམ་ནས་ཁྱིམ་ 52
ག་ལ་ཉ 52
གང་གིས་ད 52
གཏི་མུག 52
གདུལ་བྱའི་ 52
གཞུག་ 52
གོ་ཆ 52
གྱིའོ་་ 52
ང་ཕྱོགས་ 52
ངོས་པོ་མེད་པར་ 52
ཅན་དག་ 52
ཅུང་ཟད་ཀྱང་ 52
ཆུང་བ 52
ཉིད་ཀྱི་བ 52
ཉེ་བའི་ 52
ཉེ་བར་གནས་པ་ 52
ཐམས་ཅད་བྱ 52
ཐལ་མོ་སྦྱར་ཏེ་ 52
ད་ཀྱི་ 52
དུད་རྩིའི་ 52
དེན་པ་མཐོང་ 52
དྨ 52
ན་པ་ཟབ་མོ་འདི་ལ་ 52
ན་འདུག་ 52
ནི་དྲ 52
པག་ཏུ་མེད་པ 52
ཕུང་པོའི་ 52
ཕྲད་པ 52
མ་བྱས་ 52
མ་འོངས་པ་ 52
མ་རུ 52
མ་སྐྱེས་པ་ 52
མགོན་པ 52
མདུན་ 52
མཚན་དུ་ 52
མི་བྱ་ 52
མོས་པ་སྣ་ཚོགས་ 52
ཙལ་ 52
ཚིག་གི་ 52
ཚུལ་བ 52
ཞིང་བསོད་ནམས་དག 52
ཞུན་མར་དང་ 52
འཁོད་པ་ 52
འཁྲུག་པ་ 52
འདུག་པར་བྱའོ་་ 52
འདོང་ 52
འཕྲོག་ 52
འི་བསྟན་པ་ 52
ཡན་ལ 52
ཡོད་པར་ 52
ར་དུ་བྱ 52
ར་སྣང་ལ་ 52
རབ་ཏུ་དགའ་ 52
རི་མོ་ 52
རིག་པ་ཐོབ་པ་ 52
རྒ་ཤི 52
རྒྱལ་པོ་དེ་ 52
རྒྱལ་པོར་ 52
རྙེད་པར་ད 52
རྣམ་པར་ར 52
རྣམས་ལས་ 52
རྩི་ 52
རྫུན་དུ་ 52
ལ་དམིགས་པ 52
ལ་བརྩོན་ 52
ལུང་དུ་མ་བ 52
ལེགས་པ་ 52
ལྗོངས་རྒྱ 52
ཤེས་ཤིང་ 52
ས་སྟོབས་ 52
སོགས་ 52
སོར་བ 52
སྙམ་འམ་་ 52
སྙིང་རྗེ 52
སྡི 52
སྤྱད་ 52
ུ་བྱུང་སྟེ་ 52
ེས་བ 52
ོག་དང་་ 52
ོན་དུ་གཉེ 52
ོབས་པ་ 52
ོས་ནས་ 52
▁ཆུ 52
▁དེ་ལ 52
▁དྲ 52
▁ཞིང་ 52
▁འདི 52
▁འདི་དག་ནི་ 52
▁སྔགས་ 52
་དང་་སྲ 51
་དེ་བཞིན་ཏེ་ 51
་དེ་བཞིན་དུ་བ 51
་དེ་ལས་བ 51
་དེ་སྙེད་ 51
་བླ་ 51
་སྐྱེས་ཏེ་ 51
ཀྱི་དབང་ཕྱུག་ 51
གང་ཟ 51
གཅོད་པ་ 51
གདུག་པ 51
གཞག་པ 51
གི་དོན་ 51
གི་བར་དུ་ 51
ངག་དང་ 51
ཅི་དགོས་ 51
ཅོམ་ལྡན་ 51
ཆེ་ལ་ 51
ཇི་སྙེད་པ་ 51
ཉོན་ཅིག་ 51
ཌ 51
ཏིང་འཛི 51
ཏོ 51
ཐ་དད་པ 51
ཐུགས་བརྩེ་བ 51
ཐོག་མ་ 51
ནགས་ཚལ་ 51
ནམ་མཁའ་ལྡིང་ 51
ཕྱི་མའི་ 51
བེན་པ 51
བྱར་ 51
མགོ་བ 51
མཆིའོ་་ 51
མཐོ་ 51
མི་བཟད་ 51
མི་རྟག་ 51
མི་རྟག་པ་ 51
མི་རྣམས་ 51
མི་སྐྱེ་བ་ 51
མི་སྡུག་པ 51
ཙས་ 51
ཚིགས་ 51
ཚོན་ 51
ཞེས་བྱ་བ་ཞིག་ 51
འཁོར་དང་བཅ 51
འཁོར་ལོ་བ 51
འཆལ་པ 51
འཇམ་པ 51
འཇུག་ཅིང་ 51
འདུ་ཤེས་པ་ 51
འདུས་མ་བྱས་ 51
འདོད་ཆ 51
འི་བར 51
ཡིད་དུ་ 51
ཡུལ་དུ་ 51
ཡུལ་མ་ག་དྷ 51
ར་བྱ་བའི་ཕྱི 51
ར་བྱས་ན་ 51
ར་མ་གྱུར་ 51
ར་འགྱུར་རོ་ཞེས་ 51
ར་འགྲོ་བའི་ 51
རབས་ 51
རིག་པ་དང་ 51
རིགས་དང་ 51
ལ་དབང་ 51
ལ་དུ་བ 51
ལ་དེ་དག་ 51
ལ་བཀ 51
ལས་བྱས་པ 51
ལྡང་བ་ 51
ཤི་འཕོས་ཏེ་ 51
ཤེས་པ་གང་གིས་ 51
ཤེས་པ་སྟེ་ 51
ས་བཀའ་སྩལ་པ 51
སེམས་ཀྱང་ 51
སྐྱབ་པ 51
སྒྲོགས་པ་ 51
སྔགས་པ་བ 51
སྟན་ནས་ 51
ུགས་ཏེ་ 51
ེ་བའི་ཆོས་ 51
ོལ་བའི་ 51
ྲིས་པ 51
ློན་པ 51
ློན་པོ 51
▁གང་ཡང་ 51
▁གཡོ 51
▁དེ་ནས་དེས་ 51
▁དེ་ཡིས་ 51
▁བྲམ་ཟེའི་ཁྱེའུ་ 51
▁རྒྱུ་ 51
▁ལྷ་མོ་ 51
▁ལྷ་ཡི་ 51
▁སྔ 51
▁སྡིག་པའི་ 51
་དེའི་ཚེ་བ 50
་པད་ 50
་བཞིན་འབྲ 50
་བསམ་གྱིས་མི་ཁྱ 50
་བྱམས་པ་ 50
་འཇིག་རྟེན་ 50
་རྫུ་འཕྲུལ་ 50
་སྡིག་པ་ 50
་སྦ 50
ཀར་པོའི་ 50
ཁང་པ་བརྩེགས་པ 50
ཁྱབ་ 50
ཁྱོད་ཀྱིས་ད 50
ཁྲོ་བ་ 50
ག་པ་ལ་གནས་སམ་ 50
གཏི་མུག་གི་ 50
གྱུར་པས་ 50
གྲངས་སུ་ 50
ང་བར་གྱུར་ཏོ་་ 50
ང་རོ་ 50
ངས་ནི་ 50
ཅི་འདྲ་ 50
ཆར་འབེ 50
ཆུ་སྲིན་ 50
ཆུང་མ 50
ཆེན་པོ་འདི་ 50
ཆོས་འཆ 50
ཇི་སྐད་སྨྲས་པ 50
ཉན་ཐོས་ཀྱི་སའམ་ 50
ཉམས་སུ་མྱོང་བ 50
ཉིན་ཞག་ 50
ཐབས་དང་ 50
ཐུང་ 50
ཐུབ་པ་ 50
ཐོགས་ནས་ 50
དཔག་ 50
དེ་བ་ལ་བཙུ 50
ན་དུ་བཅུག་ 50
ན་བཅ 50
ན་བདག་ཅག་ 50
ཕྱག་རྒྱ 50
བ་ནས་ 50
མ་བུ་ 50
མ་ལགས་་ 50
མ་ལུས་ 50
མཉམ་པ་དང་་ 50
མཐོང་ཞིང་ 50
མདུན་དུ་བ 50
མདུན་ན་ 50
མེད་པར་བ 50
ཙུན་མོའི་འཁོར་ 50
ཚབས་ 50
ཚོང་པ 50
ཚོར་བའི་ 50
ཞལ་ཏ 50
ཞུམ་པ་ 50
འ་ཞིང་ 50
འགྱུ 50
འཆང་བ 50
འཆད་པ 50
འཇིག་རྟེན་གསུམ་ 50
འདུ་བྱེ 50
འདོད་པའི་ཁམས་ 50
ཡང་རུང་ 50
ཡན་ལག་བརྒྱད་པ་ 50
ཡོངས་ས 50
ཡོངས་སུ་སྤ 50
ར་མཛད་དོ་་ 50
ར་མི་འགྱུར་བ་ 50
རབ་ཏུ་ཕྱུང་ 50
རིའི་རྒྱལ་པོ་ 50
རོ་བ 50
རོ་མྱང་བ་མེད་པ 50
རྟོགས་པར་ 50
ལ་དེ 50
ལ་ཚིགས་སུ་བཅད་པ 50
ལ་ར 50
ལེ་ལོ་ 50
ས་བདག་ཅག་ 50
སྐྱེ་མཆེ 50
སྒོམ་ 50
སྡུས་ 50
སྨྲས་པ 50
སྲེད་ 50
ུང་དུ་ 50
ེད་པར་ 50
▁གང་གི་ཚེ 50
▁དམ་པའི་ཆོ 50
▁དེ་དེ་ལྟར་ 50
▁དེ་ནི་བ 50
▁འཁོར་ 50
▁རྒྱ 50
▁སྨྲས་པ་ 50
་དང་་བདག་ 49
་དེ་ཉོན་ཅིག་ 49
་དེས་དེ་ 49
་དེས་བསམས་པ་ 49
་རྔ 49
་སྐྱེ་བ་ 49
་སྟོང་དག་ 49
་སྦྱ 49
་སྦྱིན་པ་ 49
ཀློག་པ 49
ཁ་ཟ 49
ཁམས་གསུམ་པའི་ 49
ཁོ་ན་བཞིན་དུ་ 49
ཁྱོད་ལ་བ 49
གང་གིས་བ 49
གནས་བརྟ 49
གཞན་དག་ལ་ 49
གཞན་འཕྲུལ་དབ 49
གཞི་མེད་དོ་ 49
གཟུགས་དང་་ 49
གྲག་པ 49
ངས་ན་ 49
ངོ་ཚ་ 49
ཅི་ཞིག་བ 49
ཅིའི་ཕྱིར་ཞེ་ན་ 49
ཆེན་པོ་རྣམས་ 49
ཇི་ལྟར་ད 49
ཉེས་དམིགས་ 49
ཊ་ 49
ཎྜི་ 49
ཏུ་བཅུག་ 49
ཐག་རིང་པོ་ 49
ཐབས་ཅིག་ཏུ་བ 49
ཐེ་ཚོ 49
ནང་ད 49
ནམ་མཁའི་སྙིང་པོ་ 49
ཕྱི་མའི་མཐའ་ 49
ཕྱིར་་ 49
ཕྱུ 49
མ་ཡིན་པས་ 49
མཆོད་སྦྱིན་ 49
མཉམ་པ་ནམ་མཁའ་དང་ 49
མཉམ་པར་བཞ 49
མཚོ 49
མི་ཤེས་པ་ 49
ཙམ་ཡང་ 49
ཚར་བཅ 49
ཞིང་གི་ 49
ཞེས་སྨྲས་སོ་་ 49
ཟང་སྐྱོང་ 49
འཐོབ་ཏུ་རུང་ན་ 49
འདི་ཁོ་ན་ཡིན་ཏེ་ 49
འདི་ལ་བ 49
འདི་ལྟ་སྟེ་བ 49
འདིས་ན་བདག་ 49
འདུས་ཏེ་ 49
འདོད་ན་ 49
འཕོ་བ 49
འབྱེད་དོ་་ 49
འབྲུག་ 49
འཚལ་་ 49
འཛིན་ཅིང་ 49
འི་དགེ་བའི་རྩ་བ་ 49
འི་བྱ་བ 49
ཡི་རངས་ཏེ་ 49
ཡུལ་དབ 49
ར་བགྱི་བ་ 49
ར་བརྩ 49
ར་བརྩམས་ 49
རལ་གྲི 49
རིམ་པ་ 49
རོལ་མོའི་སྒྲ 49
རྣམ་པར་དག་པས་ 49
རྣམ་པར་རོ 49
རྨ་ 49
ལ་བྱ་བ 49
ལགས་པ 49
ལན་ག 49
ལན་གསུམ་ 49
ལོ་བཅུ་ 49
ལྔ་གང་ཞེ་ན་ 49
ལྔ་བརྒྱ་པོ་ 49
ལྔ་སྡ 49
ལྷའི་མེ་ཏོག་ 49
ཤིང་ལྗོན་པ་ 49
ས་བཀའ་སྩལ་ནས་ 49
ས་བླ་ན་མེད་པ་ 49
ས་ལ་ང་ཉིད་ 49
ས་སྒོ་ངའི་སྦུ 49
ས་སྒྱ 49
སམ་མི་ཁྱབ་་ 49
སེམས་ཅན་གང་ 49
སེམས་དེ་ 49
སྐད་སྨྲ 49
སྒྱུར་བ་ 49
སྒྲོལ་ 49
སྟོན་པའི་ 49
སྟོན་པར་བྱེད་པ་ 49
སྦྱིན་པ་དང་་ 49
སྨྲ་བའི་གནས་སུ་ 49
སླར་ 49
ུ་དེ་བ 49
ུལ་བའི་ 49
ུས་ཀྱང་ 49
ེམས་པ 49
ྱིས་པའི་ 49
▁ང་ཡི་ 49
▁དེ་གང་གི་ཚེ་ 49
▁དེ་ཡང་འོངས་ཏེ་ 49
▁དེས་ནི་ 49
▁བདག 49
▁བུ་མོས་སྨྲས་པ་ 49
▁མདོ་སྡེ་ 49
▁འདི་ནི་བ 49
▁ལྷ་དང་མི་ 49
▁སྲིད་པའི་ 49
་དགའ་བའི་ 48
་དགོན་པ་ 48
་དང་་སྦྱི 48
་དང་བཅས་པ་དང་་ 48
་དཔེར་ན་ 48
་དེ་ལྟ་བུར་ 48
་སེམས་ཅན་ཐམས་ཅད་ 48
་སྤང་བ 48
ཀ་དང་་ 48
ཀུན་ནས་ད 48
ཀྱི་དྲི་ 48
ཀྱི་བདག་པོ་ཚངས་པ 48
ཀྲོལ་ 48
གཏེ 48
གནང་བར་ 48
གནས་པར་མི་བགྱི་ 48
གཞན་གྱིས་ 48
གླུ་དབྱངས་ 48
ངད་ 48
ཅོད་པན་ 48
ཆ་ལུགས་ 48
ཆད་བ 48
ཆོས་ཡོངས་སུ་ 48
ཉི་ཟླ 48
ཉི་ཤུ་ཡེ་ཤེས་ 48
ཏགས་ 48
ཏབ་པ་ 48
ཐུན་མོང་ 48
དང་་་ 48
ན་དགེ་བའི་རྩ 48
ན་བྱེད་པ་ 48
ནམ་མཁའི་དཀྱིལ་ 48
མ་ཡིན་པ་ལ་ 48
མ་རིག་པའི་ 48
མགོ་བོ་ 48
མདུན་ན་འད 48
མི་བྱེད་པ་ 48
མིག་དང་་ 48
ཙམ་ད 48
ཞུ་བ་ཞུས་པ་ 48
ཞེའམ་ 48
ཞོ་དང་མར་དང་ 48
ཟིན་པའི་ 48
ཟིལ་གྱིས་གན 48
ཟིལ་གྱིས་གནོན་པ 48
འགྲོའོ་ 48
འཆོ 48
འདས་ནས་ 48
འདི་དག་གི་ 48
འདྲེས་པ་ 48
འབྱིན་་ 48
འི་དྲ་བ 48
འི་བར་དུ་ཡང་ 48
འི་བྱེ་མ་སྙེད་ 48
ཡང་དག་པའི་མཐའ་ 48
ཡེ་ 48
ཡོད་་ 48
ཡོད་པ་དང་་ 48
ར་བྱ་བ་དང་ 48
ར་འགྱུར་བ་དེ་ནི་ 48
རྒྱུན་མི་འཆ 48
རྩེད་ 48
ལས་མི་འད 48
ལུས་ནི་ 48
ལོག་པར་ལྟུང་བ 48
ལྷ་ཡི་བ 48
ཤ་ཟ 48
ཤ་སྟག་ 48
ཤང་ 48
ས་ར་ 48
སངས་རྒྱས་བ 48
སོང་་་ 48
སྐོར་བ་ 48
སྐྱོ་བ་ 48
སྒྲུ 48
སྟན་ལས་ལ 48
སྟབས་ 48
སྨྲས་པ་་ 48
སྨྲས་སོ་་ 48
སླད་ 48
ུ་བཅུག་ 48
ེ་བོ་མང་པོ་ 48
ེ་བྱད་བཟང་པོ་བ 48
ོང 48
ོངས་ནས་ 48
ོར་་ 48
ོས་དང་་ 48
ྐྱེ 48
ྲུག་ཏུ་ 48
▁གཞན་དུ་ 48
▁ཐོས་ 48
▁ད་ལྟར་ཡང་ 48
▁དེ་དག་ཐམས་ཅད་ 48
▁དེ་ནས་དེའི་ 48
▁དེའི་བཙ 48
▁བུ་མོ 48
▁མཁས་པ 48
▁འདུ་བྱེད་ཀྱི་ 48
▁ལྷ་དང་མི 48
▁སེམས་ཅན་གང་དག་ 48
▁སྡིག་ཅན་ 48
་དགེ་འདུན་འཚོ་ 47
་དབེ 47
་དམི 47
་པོ་དེ་དག 47
་བྱས་་ 47
་སྒྲུ 47
ཀ་ཤ 47
ཀའོ་་ 47
ཀུན་ཤེས་པ 47
ཀོ 47
ཀོ་ཀ་ལ 47
ཀྱང་མི་གནས་པར་ 47
ཁྱབ་འཇུག་ 47
ཁྱེད་ལ་ 47
གནོད་པ་ཆུང་ངམ་ 47
གཞུག་པར་བྱ་ 47
གཞོན་ནུ་བ 47
གཞོལ་ 47
གཟིམས་ 47
གསེར་གྱི་ཁ་དོག་ 47
གསོད་པ 47
གྱིས་པ་ 47
ང་སྟེ་ 47
ངང་པ 47
ཅུག་ 47
ཆེན་པོ་དེ་ལྟར་ 47
ཆོམ་རྐུ 47
ཆོས་ཅན་ནོ་་ 47
ཆོས་རྣམ་པར་དག་པ་ 47
ཇི་ལྟ་བུར་ 47
ཏབ་པ 47
ཐལ་བ 47
ཐུགས་བ 47
དང་ལྡན་པ 47
དེ་ལེགས་ 47
དེན་པ་བ 47
ན་པ་ལ་སྤྱོད་པ 47
ནས་པུས་མོ་གཡ 47
ནུས་སོ་ 47
པག་ཚད་ 47
ཕ་རོལ་དུ་ 47
ཕུང་ 47
ཕྱག་དར་ 47
ཕྱེ་བ 47
ཕྱོགས་ས 47
མ་ནས་ 47
མ་བྱུང་ 47
མ་ཡིན་ལ་ 47
མེད་པར་གྱུར་ 47
མེད་པར་འགྱུར་་ 47
མྱུ 47
མྱོང་བ་ 47
ཞིག་བྱུང་སྟེ་ 47
ཞིག་སྟེ་ 47
ཞིང་བདག་ཉིད་ 47
ཟེར་རོ་་ 47
འགྲམ་ 47
འཆི་བའི་ 47
འདི་་ 47
འདུག་གོ་ 47
འཕགས་པའི་བདེན་པ 47
འི་དབྱིངས་ 47
འོ་་་ 47
ཡལ་ 47
ཡི་གེར་བ 47
ཡིད་དུ་མི་ 47
ཡོངས་སུ་ཤེས་པ 47
ར་བྱ་ཞིང་ 47
ར་རླ 47
རབ་ཏུ་བྱ 47
རིང་པོར་ 47
རིམ་པ 47
རིས་ཀྱི་ལྷའི་བུ་ 47
རྒོད་ 47
རྒྱགས་པ 47
རྒྱན་གྱིས་བ 47
རྗེད་པ 47
རྟག་ཏུ་ད 47
རྟེན་པ་ 47
རྣམ་པར་རྒྱལ་བ་སྲ 47
རྣམས་ནི་བ 47
རྫི 47
ལག་པ་གཡ 47
ལས་ཆོས་ 47
ལས་དང་པོ 47
ལུས་ལས་ 47
ལྟོ་ 47
ལྷའི་བུ་མོ་ 47
ལྷུང་བཟེད་བ 47
ཤཀྱའི་ 47
ཤད་དུ་གསོལ་ 47
ཤེས་པ་ལ་ 47
ས་དེ་ལ་སྨྲས་པ་ 47
ས་སྐྱོ 47
སའི་ཁམས་ 47
སེང་གེའི་སྒྲ་ 47
སེལ་ 47
སོང་སྟེ 47
སྐྱོད་ 47
སྔགས་པ་བརྗོད་པ 47
སྡོང་ 47
སྨན་པ 47
སྨྲ་བ་དང་་ 47
སྨྲའོ་་ 47
ཨ་མ 47
ུ་མོ་བ 47
ེ་བཞིན་ནོ་་ 47
ེ་བཞིན་བ 47
ོབ་དཔ 47
ོམ་པ་དང་་ 47
ྗ 47
ྨ 47
ྲང་སྲོང་དེ་ 47
ྲངས་ 47
ྲི་བར་བྱའོ་་ 47
▁གལ་ཏེ་མི་རྟག་པ 47
▁ཇི་ཙམ་ 47
▁དཔེར་ 47
▁དེ་ནས་དྲང་སྲོང་ 47
▁དོན་དམ་པར་ན་ 47
▁བདག་ལ་ 47
▁མཁས་པ་ 47
▁མིང་ 47
▁ཙན་དན་ 47
▁རྒྱལ་བ་ 47
▁རྣམ་ 47
▁ཤིང་ 47
་དེ་དག་ལ་ནི་ 46
་བརྒྱ་ 46
་ལྟར་བྱུང་བ་ 46
་སུམ་ 46
ཀར་བ 46
ཁུང་ 46
ཁྱིམ་ཐབ་ 46
ཁྱེད་ཀྱིས་ 46
ག་དག་ 46
གཅན་ 46
གཉིས་སུ་མེད་པ 46
གཏོགས་པ་ 46
གནས་ལ་ 46
གཞལ་མེད་ཁ 46
གཞོན་ནུ་ད 46
གཟིགས་པ 46
གཟེ 46
གོང་མ་བཞིན་དུ་ 46
གྲོང་དང་་ 46
གླེ 46
ཅན་དང་ 46
ཆུ་ཀླུང་ 46
ཉམས་པར་ 46
ཉིད་དོ་ 46
ཉེ་བར་གཞག་པར་བྱ་ 46
ཐམས་ཅད་དང་བྲལ་བ་ 46
ན་དག་ལ་ 46
ན་དང་བ 46
ན་དཔ 46
ན་པ་ཟབ་མོ་འདི་ 46
ནང་དུ་ཡང་དག་ 46
ནང་སྟོང་པ་ 46
ནས་བདག་ 46
ནས་མི་སྣང་བ 46
ནས་སངས་རྒྱ 46
ནི་ངོ་མཚར་ 46
ཕོག་ 46
བྱི 46
མང་དུ་བྱ 46
མངོན་པར་ཤེས་པའི་ 46
མཐོང་མ་ཐག་ཏུ་ 46
མཚུངས་པ 46
མུན་པ་བསལ་ཏེ་ 46
མོད་ལ་ 46
མྱ་ངན་འདས་པ་ 46
ཚངས་པས་བྱིན་ 46
ཞུས་ 46
ཞེ་ན་འདི་ལྟ 46
འ་རྣམས་ནི་ 46
འ་ལ་ 46
འདམ་དུ་བྱི 46
འི་བར་དུ་བ 46
ཡང་ཡིན་ནོ་་ 46
ཡོངས་སུ་འཛིན་པ 46
ར་བྱ་གོར་མ་ཆག་ 46
ར་བྱེད་དེ 46
ར་འཆ 46
ར་འཇུག་པ་ 46
ར་རྡ 46
རབ་ཏུ་འབྱུང་ 46
རབ་ཏུ་ཤེས་སོ་ 46
རྒ་བ་དང་་ 46
རྡུལ་བྲལ་ 46
རྣམ་པར་ཐར་པ་ 46
ལ་དགའ་ 46
ལ་དགའ་བ་ 46
ལ་བ་དང་་ཡིད་མི་བ 46
ལོག་པ་ 46
ལོན་པ་ཆོས་ལྔ 46
ལྡེག་ 46
ལྷ་དང་བཅས་པའི་ 46
ལྷག་མ་མེད་པའི་ 46
ཤིང་དྲ 46
ཤེས་པ་གང་ཞེ་ན་ 46
ས་དུས་ 46
ས་བཀའ་སྩལ་པ་ 46
ས་བུ་ད 46
ས་སོ་ཞེས་ 46
སགས་པ 46
སངས་རྒྱས་བྱ 46
སིལ་བར་གྱུར་པ་ 46
སེམས་ཅན་དམྱ 46
སོ་སོར་རྟོག་པ 46
སྒྲིབ་པ 46
སྟོན་ཏོ་ 46
སྤོབས་པ་ཟད་ 46
སྤྱི 46
སྤྲོ 46
སྨི 46
སྲིད་་ 46
ུག་དང་ 46
ུང་དང་ 46
ུས་དུས་སུ་ 46
ེ་བོ་ཕལ་པོ་ 46
ོན་གྱི 46
▁ཁང་པ་བརྩེ 46
▁དགེ་སྦྱོང་ 46
▁དམ་པའི་ཆོས་ 46
▁དེ་ན 46
▁དེ་ཟླ་བ་དགུའམ་བ 46
▁དེ་ལྟར་བ 46
▁དེའི་ཚེ་ཡང་ 46
▁ཕྱོགས་བཅུའི་ 46
▁བ་ 46
▁བདག་ཀྱང་ 46
▁བྱང་ཆུབ་ནི་ 46
▁རིན་ཆེན་ 46
▁རྡོ་རྗེ་ 46
▁ལོ་ 46
་དང་་སྔ 45
་དཔལ་གྱི་ 45
་དུ་མ 45
་དེ་ཡིས་ 45
་པི་ 45
་བྱས་སོ་་ 45
་རོ་ 45
་རྐང་ 45
་རྡོ་ 45
་སྐྱེ་བ 45
་སྙམ་དུ་ 45
ཀུན་ཀྱང་ 45
ཀུར་ 45
ཀོད་ 45
ཀྱི་དངོས་པོ་ 45
ཀྱིས་དེ་དག་ 45
ཁམས་བདེ་བ་ 45
ཁམས་མི་མཇ 45
ཁེ 45
ཁོ་བོ 45
ཁྱིམ་དེ་ 45
ཁྲག་ཁྲི 45
གཉིས་སུ་དབྱེར་ 45
གཟི་ 45
གཟུགས་ནི་ 45
གསུང་བསལ་བའི་ 45
གྱི་་ 45
གྱི་བར་དུ་ 45
གྱིས་མི་ 45
གྲོང་རྡ 45
ང་དང་བ 45
ང་པོར་ 45
ངེད་ 45
ཆགས་པའི་ 45
ཆུས་ 45
ཇི་སྐད་བ 45
ཉན་ཐོས་ཀྱི་ཐེག་པ 45
ཉིང་མཚམས་ 45
ཉིན་པར་ 45
ཉོན་མོངས་པ་དང་་ 45
ཐོ་ 45
ཐོས་པ་དང་་ 45
ད་དཔོན་ 45
དུད་ད 45
ན་ཁྱོད་ 45
ན་གཙ 45
ན་གླ 45
ན་ནས་ 45
ན་པ་ལ་སྤྱོད་པ་ན་ 45
ན་བཞུགས་ 45
ནགས་ཁྲོད་ 45
ནེ 45
ཕོ་བྲང་ 45
ཕྱི་ཞིག་ 45
ཕྱིན་ཆད་ 45
བས་བཅོམ་པ་ 45
མ་ཡིན་ད 45
མ་ཡིན་ཞིང་ 45
མཆོད་པའི་ 45
མཐར་ཐུ 45
མཚོན་ཆ 45
མི་བྱའོ་ 45
མི་མངའ་བ 45
མི་སྡུག་པ་ 45
མེད་ཅིང་བ 45
མྱ་ངན་འདས་ 45
ཚིག་བླ་དགས་བྱ 45
ཚུལ་ཁྲིམས་བ 45
ཞིང་དེ་དག་ 45
ཞུ་་ 45
ཟན་ 45
འ་དང་ 45
འཁོར་དང་བཅས་པ་ 45
འགྲོ་བའི་ལམ་ 45
འདབ་མ་ 45
འདི་དག་ཐམས་ཅད་ 45
འདི་བཤད་པ་ན་ 45
འདུ་ཤེས་མེད་མིན་ 45
འདོགས་པ་ 45
འི་དབང་ 45
འི་ཚུལ་གྱིས་བ 45
ཡན་ལག་བདུན་ 45
ཡེ་ཤེས་ལ་ 45
ར་བྱང་ཆུབ 45
ར་འཁོར་ 45
རངས་ 45
རབ་བཟང་ 45
རྒྱ་མཚོ་ཆེན་པོ་ 45
རྒྱལ་རིགས་སྤ 45
རྟན་པའི་ 45
རྣམ་པར་འ 45
རྣམས་ཀྱང་བ 45
རྨོངས་པ་ 45
ལི་ 45
ལྷ་མ་ཡི 45
ལྷང་ 45
ཤའི་ 45
ས་བཅ 45
ས་ཤིང་དོན་ 45
སེལ་བ་ 45
སྐྱོད་པ་ཡང་ངམ་ 45
སྙམ་དུ་དག 45
སྙམ་པ 45
སྙུ 45
སྟོང་པ་ཉིད་ཀྱང་ 45
སླུ་བ 45
ུད་འགྲ 45
ེ་བཞིན་དུ་བ 45
ེང་གེ་ 45
ོན་པོ་ 45
ྞ 45
ྱད་ 45
ྲུལ་ 45
ླང་བ 45
▁ཁྱེད་ཅག་ 45
▁ཆོས་ཐམས་ཅད་ནི་ 45
▁དེ་དག་ལ་ 45
▁བདེ་བར་གཤེགས་པ 45
▁མིག་གི་ 45
▁ཟླ་བ 45
▁འོད་ 45
▁སངས་རྒྱས་དང 45
▁སྐ 45
་དམིགས་པ་ 44
་དེ་ནི་དེ་ 44
་དེས་སྨྲས་པ་ 44
་བརྙ 44
་སྦྱིན་ 44
ཁམས་བྱ 44
ཁམས་ལ་ 44
ཁྱོད་ཀྱིས་དེ་ 44
གང་་ 44
གཏུ 44
གཞན་དང་ 44
གཟུང་བ་ 44
གས་སྐྱེ 44
གསུམ་བ 44
གསེར་དང་བོང་བར་ 44
གསོག་ 44
གྱེས་པ 44
གྲང་བ 44
གྲུ་ 44
ཅི་འདྲ་བ་ 44
ཅོམ་པ 44
ཆེན་པོ་རབ་ཏུ་ 44
ཆོས་ཀྱི་བ 44
ཆོས་བཞི 44
ཉིས་ 44
ཉེན་ 44
ཐར་པ་ 44
ད་པ་དང་ 44
དབང་ 44
དུན་དང་་ 44
དེའི་ 44
ན་གཅིག་ 44
ན་ཏ 44
ནས་སྨོན་ལམ་བཏ 44
ནི་བདག་ཅག་ 44
པོས་ 44
ཕྱག་འཚལ་ལོ་་ 44
མ་ཐག་ཏུ་དེ་ 44
མ་སྨ 44
མངོན་པར་འབྱུང་བ 44
མཆོད་པ་བ 44
མཉན་ཡོད་ན་ 44
མི་བྱ་་ 44
མི་བྱེད་དོ་ 44
མི་མངའ་་ 44
མི་ཤེས་པ 44
མིག་བ 44
མེས་ 44
ཞག་པ་ 44
ཞལ་གྱི་ 44
ཞིམ་པ 44
ཞུགས་སོ་ 44
ཟ་མ་ 44
ཟས་གཙང་ 44
ཟླས་པ 44
འ་སྒྲིབ་པ་ 44
འཁོར་དང་བཅས་པ 44
འཁྲུགས་ 44
འཇམ་ཞིང་ 44
འཇིགས་ཤིང་སྐྲག་ 44
འདུ་ཤེས་པ་དང་་ 44
འབྲས་བུ་དང་ 44
འོད་དཔག་ 44
ཡང་དེ་བཞིན་དུ་ 44
ཡི་དགས་ཀྱི་ 44
ཡིད་ཆེ 44
ཡིད་མི་ཆེ 44
ཡོངས་སུ་འཛིན་ 44
ཡོད་ཅེས་བྱ་བ 44
ར་དག་ཏུ་ལན་གས 44
ར་བཅུག་ 44
ར་བྱ་དགེ་ཚུལ་ 44
ར་བྱ་བ་ཡིན་ནོ་་ 44
ར་འཚལ་བ 44
ར་རྩ 44
རང་གི་མཚན་ཉིད་ 44
རབ་ཏུ་དབྱ 44
རིག་པར་བྱ་སྟེ་ 44
རིག་བྱེ 44
རིགས་ཀྱི་བུ 44
རིམས་ 44
རྒྱད་བ 44
རྒྱལ་པོའི་ཕོ་བྲ 44
རྣམ་པ་སྣ་ 44
རྣམ་པར་བསྒྲ 44
རྣམས་ལ་སྨྲས་པ་ 44
རྩེགས་ 44
ལས་ཀྱིས་ 44
ལྟ་བར་གནས་པ་ 44
ལྷར་ 44
ས་པའི་འགོག་པ་ 44
ས་པར་གྱུར་པ 44
ས་བཀའ་སྩལ་ 44
ས་སོ་སོར་ 44
སངས་རྒྱས་དང་ 44
སམས་ཏེ་ 44
སུ་ནི་ 44
སྐྲ་དང་ཁ་སྤ 44
སྙེན་པ 44
སྟེན་པ་ 44
སྤྱོད་དོ་་ 44
སྦྱོར་ 44
སྨན་གྱི་ 44
སྨོན་ལམ་བཏ 44
ིག་རྒྱུ་ 44
ུ་པ་ 44
ུའོ་་ 44
ེ་བྱད་བ 44
ོ་ད 44
ྱིན་གྱིས་བརླབས་ 44
▁གནོད་སྦྱི 44
▁ཆོས་ཐམས་ཅད་ཀྱི་ 44
▁དེ་བས་ 44
▁བློ་ 44
▁མ་ཕམ་པ 44
▁མཚན་མ་ 44
▁ཚོར་བ་དང་་ 44
▁ཞེས་ 44
▁ཡང་ན་ 44
▁རབ་འབྱོར་དེ་ 44
▁རྣམ་པར་ཤེས་པའི་ 44
▁རྫུ་འཕྲུལ་ 44
▁ལ་ལ་ 44
▁ལྷའི་དབང་པོ་བ 44
▁སྣ 44
་དགེ་བ་བ 43
་དང་་སེ 43
་དང་པོ་ 43
་དང་ལྡན་པ་ཡིན་ 43
་དཔག་ཚད་ 43
་དེ་དང་དེ་ 43
་དེ་ལ་ད 43
་དྲན་པ 43
་བུད་མེད་ 43
་རླ 43
་སྐར་ 43
་སྐྱེད་པ 43
་སྩ 43
ཀྱི་དཀྱིལ་འཁོར་ 43
ཀྱི་དབང་ 43
ཁོ 43
ཁྱམས་ 43
ཁྲོད་ 43
གདགས་སོ་ 43
གཟུགས་རྣམས་ 43
གཟུང་བའམ་མི་ 43
གས་སྐ 43
གསུང་བ 43
གེ་བའི་རྩ་བ 43
གོ་བསྐ 43
གྱ་ 43
གྱིས་པ 43
གྱུར་ཅིང་་་ 43
གྲོང་ཁྱེར་དུ་ 43
གྲོང་རྡལ་དང་་ 43
ཅོམ་པ་ 43
ཆོས་ཉིད་ཀྱིས་ 43
ཉམ་ང་བ་ཉུང་ངམ་བ 43
ཉམས་པར་མི་འགྱུར་ 43
ཐ་མའི་ 43
ཐམས་ཅད་རབ་ཏུ་ 43
ཐུན་མོང་དུ་བྱ 43
ན་གཏ 43
ན་ཡང་མེད་ 43
ནི་དེའི་ 43
ཕུན་སུམ་ཚོགས་ 43
ཕྱི་མའི་དུས་ 43
ཕྱིར་ད 43
ཕྱིར་རོ་་ 43
བས་ཏེ་ 43
མ་དག 43
མ་མཐོང་ 43
མ་ཚ 43
མཆུ་ 43
མཐར་ཐུག་པ་གྲུབ་པ 43
མཐིལ་ 43
མི་བགྱི 43
མེད་གྲངས་ 43
མེད་ཅིང་དྲི་མ་ད 43
ཙན་དན་ 43
ཚ་བ 43
ཚད་བ 43
ཚེ་འཕ 43
འ་སྟེ་ 43
འཆི་བའི་དུས་བྱ 43
འཇིག་རྟེན་པ 43
འདི་ཉིད་བ 43
འདི་འདྲ 43
འདུག་པར་ 43
འདུས་ཏེ་རེག་པའི་ 43
འདོར་ 43
འཕེལ་ 43
འི་ཐེག་པ་པའི་ 43
འི་བདག་མོ་ 43
འི་ཚིག 43
ཡིན་ཞིང་་ 43
ཡུན་རིང་པོ་ནས་ 43
ཡོངས་སུ་སྦྱང་བ 43
ཡོངས་སུ་སྨི 43
ར་གྱུར་ཅིང་་ 43
ར་བྱ་གནས་སྦྱིན་པ 43
ར་བྱས་ནས་བ 43
ར་འཚང་ 43
རིགས་པ་ 43
རིན་པོ་ཆེ་སྣ་བདུ 43
རྒལ་ 43
རྒལ་བ 43
རྒྱགས་ 43
རྒྱུག་ 43
རྗེས་སུ་ཡི་ར 43
རྙེད་དོ་་ 43
རྡུལ་ད 43
རྣམ་གྲངས་འདི་བ 43
རྣམ་པར་མི་རྟོག་པ 43
རྣམ་པར་རྟོག་པའི་ 43
རྫས་ 43
རླུང་གི་ 43
ལ་དེའི་ 43
ལྡན་བ 43
ལྷག་མཐོང་ 43
ཤེས་པ་ཞེས་བྱ་སྟེ 43
ཤེས་རབ་ཀྱིས་ 43
ས་དག 43
སིལ་བ 43
སྐྱེ་བོ་ཕལ་པོ་ཆེ 43
སྐྱེ་བོའི་ཚོགས་ 43
སྙིང་པོར་ 43
སྤོང་བ་ 43
སྤོང་བ་དང་་ 43
སྨྲས་ 43
སླབ་པའི་ 43
ེག་ 43
ེད་མེད་ཀྱི་བ 43
ོ་དེ་དག་ 43
ོན་པོ 43
ྱོད་པའི་ 43
ླུ 43
▁ཀྱེ་མ་བ 43
▁གྲོགས་པོ 43
▁ཐེག་པ་ཆེན་པོ་ 43
▁དེ་ལས་ 43
▁དེས་དེ 43
▁ཕྱིན་ 43
▁ཡིད་ 43
▁རང་སངས་རྒྱས་ 43
▁རྐང་ 43
▁ཤེས་ 43
▁སྣང་བ་བྱས་ཤིང་ 43
་ད་ལྟར་འབའ་ཞིག་ 42
་དཔེ་ 42
་དེ་དག་གིས་བ 42
་དེ་དང་དེ་དག་ 42
་དྲེ 42
་བདེ་བ་ 42
་བྱེ་བ་ཕྲག་ 42
་སྔོན་ 42
་སྤྱན་རས་གཟིགས་ 42
ཀའ་་ 42
ཀྱིས་སྟོང་པ 42
ཀླུ་དང་ 42
ཁམས་རྣམས་ 42
ཁྲུ 42
ག་དང་ད 42
གང་དང་གང་ 42
གནས་པ་དང་ 42
གཞག་ 42
གཤེགས་ཏེ་ 42
ང་དེ་དག་ 42
ང་ཡང་ 42
ངག་གི་ལས་ 42
ངང་ 42
ཆོས་ཀྱི་ཚུལ་ 42
ཏ་རེ་ 42
ཏང་ནས་ 42
ཐ་སྙ 42
ཐུག་ 42
ཐེ་ཙོ 42
ད་དུ་བྱུང་བའི་ 42
དག་གི་བ 42
དུད་སྡིག་ཅན་ 42
དེ་བར་གཤེགས་པ 42
ན་ཆེན་ 42
ན་བ་ 42
ན་བ་དང་་ 42
ནང་ན་ཡང་མེད་ 42
ནམས་ཀྱང་ 42
ཕངས་པ 42
བེན་པར་ 42
མ་བསྐྱེད་པ་ 42
མ་ཡིན་ཏེ་་ 42
མ་ཡིན་པ་བཟློག་ལ་ 42
མཁྱེན་པར་ 42
མཆི་་ 42
མཆིས་ཏེ་ 42
མཆོད་་ 42
མཇུག་ 42
མཐའི་ 42
མདོ་རྫོགས་སོ་་ 42
མཚུངས་མེད་ 42
མཛེས་པར་ 42
མིགས་སུ་མེད་པ 42
མུས་ 42
མྱ་ངན་མེད་ 42
ཞེས་བྱ་སྟེ 42
ཟད་པའི་ 42
ཟའ་བ་དང་་བ 42
འབུམ་ཕྲག་ 42
འི་དངོས་པ 42
འི་བསྔགས་པ་ 42
འི་སྐྱོན་ 42
འོད་བ 42
ཡང་དང་ཡང་དུ་ 42
ཡངས་པ 42
ཡན་ལག་དང་་ 42
ཡིག་ 42
ཡུན་རིང་དུ་ 42
ཡུལ་འཁོར་ 42
ཡོལ་བ 42
ར་བ་དང་ 42
ར་བཞ 42
ར་བྱེད་པ་ཡིན་ 42
ར་བྱེད་པའམ་ 42
ར་འགྱུར་ཏེ་་ 42
རེག་བྱ 42
རྐང་གཉིས་ 42
རྒྱས་པར་བ 42
རྗེས་སུ་ཡི་རང་ 42
རྙེས་པ 42
རྣམ་པར་རིག་པ་ 42
ལ་དབང་བྱ 42
ལ་བབ་ 42
ལ་བརྩོན་པ་ 42
ལན་བ 42
ལས་གཞན་ 42
ལས་ཆུང་མ་བླངས་ 42
ལྟ་ཅི་སྨ 42
ལྟ་བས་ན 42
ལྟར་མི་ 42
ལྡན་གྱི་ 42
ལྡོག་པ་ 42
ལྷགས་ནས་ 42
ས་སྒ 42
ས་སྲི 42
སངས་རྒྱས་ད 42
སམ་གྱིས་མི་ཁྱབ་ 42
སེམས་་ 42
སོའི་སྐྱེ་བ 42
སྐྱབ 42
སྟོང་གི་ 42
སྟོང་འདས་པ་ 42
སྡིག་ 42
སྤྱི་བ 42
སྦངས་པ་ལྟ་བུར་བ 42
སྦྱངས་ 42
ཨུད་པ་ལ་དང་ 42
ུང་བཅ 42
ེའུ་ 42
ོགས་བ 42
ོན་ཏོ་་ 42
ོན་ལ་ 42
ོབ་ 42
ོམས་པར་འཇུག་པ་ 42
ྱིན་་ 42
ླངས་པ་ 42
ླངས་སོ་་ 42
▁ཀྱི་ཧ 42
▁གྲོགས་པོ་ 42
▁ཐམས་ཅད་དུ་ 42
▁ཐམས་ཅད་མཁྱེ 42
▁དེ་ལྟ་བས་ན་ 42
▁དེས་ཀྱང་བ 42
▁དྲི་ 42
▁བདག་ཀྱང་བ 42
▁མི་ཡི་ 42
▁མིའམ་ཅི 42
▁རྒྱུ་གང་དང་རྐྱེ 42
▁སྦྱིན་པ་ 42
་ད་ལྟར་ 41
་དགའ་མགུར་ 41
་དབེན་ 41
་དུ་མ་ 41
་དྲང་སྲོང་ད 41
་བདུད་ 41
་བདུན་གྱི་ 41
་སྐྱེ་མཆེ 41
་སྒྲུབ་པ 41
་སྣང་བ 41
ཀའ་ཐུབ་ཀྱི་ 41
ཀུན་གྱིས་བ 41
ཀུན་འབྱུང་བ་ཤེས་ 41
ཀུན་རྫོབ་ཏུ་ 41
ཀྱང་དེའི་ 41
ཀྱང་སྟོན་ 41
ཀྱི་བསམ་པ་ 41
ཀྱི་རྒྱལ་པོ་ 41
ཁྱིམ་བདག་དེ་ 41
ཁྱིམ་བདག་བ 41
ག་བརྒྱ་སྟོང་དུ་ 41
གང 41
གཅིག་གོ་་ 41
གཉིས་པོ་ 41
གཏང་བ 41
གཏོར་བ 41
གཞོན་ནུའི་ 41
གཟིགས་ཏེ་ 41
གོ་བཤ 41
གྱིས་ལགས་ 41
གློ་བ 41
ངས་ཀྱང་ 41
ངེ་ 41
ཅན་དེ་ 41
ཅུ་པ 41
ཅོམ་ནས་རྒྱུན་དུ་ 41
ཆོ་འཕྲུ 41
ཆོས་སུ་བཏགས་པ་ 41
ཇི་སྲིད་ 41
ཐབས་ཅིག་ཏུ་ 41
ཐོང་ 41
ད་དང་བ 41
ད་དཔོ 41
ད་ལ་ 41
དཔག་ཏུ་མེད་པ་དག་ 41
དེ་བའི་ཡོ་བྱད་ 41
ན་གཉི 41
ན་གཞན་ 41
ན་གྱི་དབང་ཕྱུག་ 41
ན་གྱིས་ད 41
ན་དག་གིས་ 41
ན་པར་མི་བྱེད་ 41
ན་བཞིན་དུ་ 41
ན་ལས་བ 41
ནུབ་ཕྱོགས་ 41
ཕ་རོལ་ཕྱིན་་ 41
མ་དྲ 41
མ་པ་བ 41
མཁན་གྱི་ 41
མཆོག་གིས་ 41
མཐའ་ཡས་པ 41
མཐོ་རིས་དང་ཐར་པ 41
མཚང་འདྲ 41
མའ་ 41
མར་བ 41
མི་ཐོགས་ 41
མེ་ཏོག་བ 41
མེད་པ་ལས་ 41
མྱ་ངན་དང་་སྨྲ 41
ཙམ་དུ་ཟད་དོ་ 41
ཞི་བར་ 41
ཞིའི་ 41
ཞུགས་པ་དང་་ 41
ཞོན་པ་དང་་ 41
ཟུང་བ་ 41
འཁོར་ད 41
འགྱུར་ཏེ་་ 41
འགྱུར་བ་དང་་ 41
འགྱེད་པ 41
འཐུན་ 41
འདི་ཉིད་དུ་ 41
འདི་ཡི་ 41
འདི་ལྟར་ད 41
འབྱུང་ཞིང་ 41
འི་དབང་ཕྱུག་ 41
འི་དྲི 41
འི་བདག་ཉིད་ 41
འི་བཟོད་པ་ 41
འི་བྱམས་པ 41
འི་ཤེས་པ་ 41
འོ་སྙམ་དུ་ 41
འོད 41
ཡུན་རིང་པོ་ 41
ཡོངས་སུ་མ་ 41
ཡོད་པས་ 41
ར་ཎ་སི་ 41
ར་བྱེད་ཅེ་ན་ 41
ར་འཇིག་རྟེ 41
རབ་ཏུ་གནས་པ་ 41
རབ་རི 41
རའི་ 41
རིན་ཐང་ 41
རིམ་གྱིས་ 41
རྒུད་ 41
རྒྱན་་ 41
རྗེས་སུ་ཐོབ་པ 41
རྗོད་པའི་ 41
རྟགས་པ 41
རྣམ་པ་དང་་ 41
རྣམ་པར་འཚ 41
རྩྭ་དང་ 41
ལ་གྱིས་ 41
ལ་ན་ 41
ལས་གུད་ 41
ལས་བྱས་པའི་ 41
ལེན་པ་དང་་ 41
ལོང་བ་ 41
ལྟ་བུ་དག་ 41
ལྡེ 41
ཤོས་གསོལ་ 41
ས་དེ་ནི་ 41
ས་ལ་བཙུགས་ཏེ་ 41
སལ་བ 41
སེམས་དགའ་བ 41
སོ་སོ་ 41
སྐྱེད་པའི་ 41
སྒྲ་བྱུང་ངོ་་་ 41
སྙིང་པོས་ 41
སྙིང་བ 41
སྟན་པར་བྱའོ་་ 41
སྟོང་པར་ 41
སྣ་ཚོགས་ཀྱི་ 41
སྦྱར་ཏེ་རྣམ་པ་ 41
སྦྱོང་བ 41
ཧི་ 41
ུང་བར་ 41
ུད་་ 41
ུའི་ནོར་དང་ 41
ེ་བ་དང་་ 41
ེ་བྱ 41
ོན་ཐམས་ཅད་ 41
ྙིང་ 41
ྱི་བོ་ནས་ད 41
ྱོད་པ་ན་ 41
ྲག་ཅ་ 41
ྲག་པ 41
▁ཁྱོད་ཀྱི 41
▁གང་ཚེ་ 41
▁གནོད་སྦྱིན་ 41
▁ཅི་ནས་ཀྱང་ 41
▁ཉོན་མོངས་ 41
▁ད་ལྟར་ 41
▁དགེ་བའི་ 41
▁དེ་དེར་ 41
▁དེ་ཡི 41
▁དྲི 41
▁མཐོང་ 41
▁འགྲོ་བ 41
▁འདི་ནི 41
▁འདིས་ང་ 41
▁འཕགས་པའི་ལམ་ 41
▁ལ་ལ་ནི་ 41
▁ཤེས་ལྡན་དག་ 41
▁སྟོན་པ་ 41
▁སྡ 41
་དག་དེ་ལྟ་བས་ན་ 40
་དང་་དགའ་བ 40
་དང་ཉེ་དབང་དང་བཅ 40
་དང་དཔ 40
་དབང་བ 40
་དབྱི 40
་དེའི་ཚེ་ན་ 40
་དེར་ནི་ 40
་དྲག་པ 40
་བ་ལ 40
་བ་ལ་ 40
་བྱུང་ནས་ 40
་རྐ 40
་རྒོད་ཀྱི་ 40
་སྟོང་དུ་ 40
ཀ་ཏྱ་ 40
ཀོ་ 40
ཀོད་དོ་་ 40
ཀྱིས་འདི་སྐད་ཅེ 40
ཀླུང་ 40
ཁ་ལོ་ 40
ཁམས་གྲངས་མེད་པ 40
ཁུ་ 40
ཁྲི་ཕྲག 40
ཁྲུང་ 40
ག་ཅིང་ 40
གཉིད་ 40
གཉིས་ཀྱི 40
གནས་ངན་ 40
གཞན་ད 40
གཞོན་ནུ་དྲན་པ་ 40
གཟུགས་བཟང་ 40
གཡོག་འཁོར་ 40
ང་པར་ 40
ངོས་པོར་ 40
ཅན་གྱི་བ 40
ཅིའི་སླད་དུ་ 40
ཆེ་དང་་ 40
ཆོས་བཞི་པོ 40
ཇི་བ 40
ཇི་ཙམ་ 40
ཉི་ཤུ་རྩ་ 40
ཉིད་དང་ལྡན་པའི་ 40
ཐོགས་པ་དང་་ 40
ད་དྲུག་ 40
ན་གཞོན་ན 40
ན་དང་ལྡན་པ 40
ནས་དེས་བསམས་པ་ 40
ནས་བཟུང་སྟེ་ 40
ནི་བྱང་ཆུབ་ 40
ནི་སངས་རྒྱས་ 40
ནོར 40
ནོར་བུ་དང་་ 40
ཕུང་པོའི་རི་ 40
ཕྱི་མ 40
ཕྱི་ཞིག་ན་དེའི་ 40
ཕྱིན་པ་དང་་ 40
ཕྱོགས་པ 40
མ་དང་་དགེ་བསྙེ 40
མ་ཞིང་ 40
མཆོད་སྦྱི 40
མཉམ་ཞིང་ 40
མའ་བ 40
མི་དང་ 40
མིར་ 40
མུན་པ 40
ཚིགས་སུ་བཅ 40
ཞལ་ཟས་ 40
ཞིང་དེ 40
ཞོག་ 40
ཟིལ་གྱིས་མན 40
འགྱུར་བའི་ 40
འགྲོ་ལ་ 40
འཇུག་པའི་ 40
འདི་ཁོ་ན་ 40
འདུག་པའི་ 40
འདེབས་སོ་་ 40
འདོད་པ་ལ་ 40
འབུལ་བ 40
འབྲས་བུའི་ 40
འཚོ་བྱེད་ 40
འི་དབང་གིས་ 40
འི་སངས་རྒྱས་ད 40
འོད་ཟེར 40
ཡོངས་སུ་རྫོགས་པ་ 40
ར་གྱུར་ཏེ་་ 40
ར་མི་ནུས་སོ་ 40
རབ་ཏུ་ཕྱུང་སྟེ་བ 40
རྐྱེན་ནི་ 40
རྒ་ཤི་ 40
རྒྱལ་པོའི་ཁབ་ཏུ་ 40
རྒྱས་པའི་ 40
རྙི 40
རྟོགས་་ 40
རྣམ་པར་ཤེས་པ་ནི་ 40
རྣམ་པར་སྨི 40
རྩེ་བ་ 40
རྩེ་མོ 40
རྫུན་ 40
ལ་ཕྱག་འཚལ་ལོ་ 40
ལག་མཐིལ་ 40
ལགས་ལ་ 40
ལོ་མ་ 40
ལྗགས་ 40
ལྟེང་ 40
ལྷག་པའི་ང་རྒྱལ་ 40
ལྷུར་ 40
ས་དང་་་ 40
ས་པ་དེ་ 40
ས་པའི་ལས་དེའི་ 40
ས་བརྒྱན་པ་ 40
ས་སོ་་་་ 40
ས་སྨྲས་པ་་ 40
སེམས་ཅན་གཞ 40
སོའི་ 40
སྐོམ་པ 40
སྐྱེ་དགུ 40
སྐྱེ་དགུ་ 40
སྐྱེ་བོ་ཕལ་པོ་ 40
སྐྱེད་མོས་ཚལ་ 40
སྒྱུར་ཅིང་ 40
སྒྲ་དབྱངས་ 40
སྒྲུབ་པ་དང་་ 40
སྙན་པ་ 40
སྟན་པ་དང་་ 40
སྟན་པ་བ 40
སྟོང་ཕྲག་ 40
སྲིད་དུ་ 40
སྲུང་བ་ 40
ཨ་ག་ 40
ུང་ཞིང་ 40
ུད་པ་ 40
ེ་བཞིན་གཤེ 40
ེད་དེ 40
ེར་ཟུག་ 40
ོ་བོ་ 40
ོ་བོས་ 40
ོན་དམ་པ 40
ྤ 40
ྫ 40
ྱིན་གྱིས་བརླ 40
ྱིན་ནས་ 40
▁ཁྱིམ་ 40
▁བདག་ཅག་གིས་ 40
▁མར་ 40
▁མུ་ 40
▁ཡང་དག་ 40
▁རྒྱ་གར་གྱི་ 40
▁རྒྱུན་དུ་ 40
་དགེ་སློང་མ་ 39
་དན་ 39
་དེ་དེ་བཞིན་ཏེ་ 39
་དེ་ལྟར་བ 39
་དེའི་ཕ་རོལ་གྱི་ 39
་དོན་ཡོད་ 39
་པོ་་ 39
་བདེ་བ 39
་རྨ 39
་སྡུག་བསྔ 39
་སྨྲ་བ 39
ཀུན་ཏུ་ཤེས་ 39
ཀུན་དུ་བ 39
ཀུན་འབྱུང་བ 39
ཀྱང་བླ་ན་མེད་པ་ 39
ཁམ་ 39
ཁམས་སྣ་ཚོགས་ 39
ཁྱེད་ཀྱི་ 39
ཁྱོད་དེ 39
གང་གའི་ 39
གཉི་གའི་བར་ན་ཡང་ 39
གཉེར་ 39
གཏན་ལ་ཕ 39
གདགས་པ་ 39
གི་གན་དུ་ 39
གྲོད་པ་ 39
ང་དང་་་ 39
ངན་འགྲ 39
ངས་ལ་ 39
ཅུའི་སྟོབས་ 39
ཆེན་པོ་བཞི་ 39
ཆོས་ཀྱི་གཏམ་ 39
ཉིད་ནས་ 39
ཉེ་བར་ལེན་པའི་ 39
ཐམས་ཅད་དང་བྲལ་བ 39
ཐུབ་པའི་ 39
ཐོགས་པ་མེད་པའི་ 39
ཐོབ་བོ་ 39
ཐོས་པས་ 39
དུད་བརྗེད་ངས་ 39
དེ་བྱེད་ 39
ན་གཅིག་གམ་ 39
ན་བཅོམ་ལྡན་འདས་ད 39
ནི་བཅོམ་ལྡན་འདས་ 39
ནི་བྱང་ཆུབ་བོ་་ 39
ནི་འདི་ལྟ་སྟེ་ 39
ཕན་ཚུན་དུ་ 39
ཕྱག་འཚལ་བ 39
ཕྱིན་ཅི་ 39
ཕྱེ་མ་ 39
བུལ་ 39
མགུ་ལ་ 39
མངལ་དུ་ 39
མཉན་དུ་ཡོད་པ 39
མཐའ་འཁོ 39
མཚུངས་སོ་་ 39
མཚོན་གྱིས་བ 39
མར་དང་་ 39
མི་གཡོ 39
མི་དགའ་བ་ 39
མི་དབུ 39
མི་བྱེད་དེ་ 39
མི་རྣམས་ལ་ 39
མོས་པ་དུ་མ་ 39
ཚུགས་ 39
ཚུར་ཤོག་ཅེས་བྱ་བ 39
ཚེ་་ 39
ཞུ་ 39
ཞུམ་པ 39
ཞེས་ཟེ 39
ཟླ་བ་དགུའམ་བ 39
འཇིག་པའི་ 39
འཇིགས་པ་དང་་ 39
འདི་སྙེད་ 39
འདིས་བདག་ 39
འདྲི་བ་དང་་ 39
འཕྲོག་པ 39
འབར་ཞིང་ 39
འབྲེལ་བ 39
འམ་་ 39
འི་དུས་ལ་བབ་པ 39
འི་དེ་བཞིན་ཉིད་ 39
ཡང་དག་པར་ཞུགས་པ་ 39
ཡིད་དུ་མི་འོང་བ་ 39
ཡེ་ཤེས་གཟིགས་པ་ 39
ཡོངས་སུ་དག་ 39
ར་བྱ་སྟེ 39
རབ་ཏུ་མཁྱེན་ཏེ 39
རུམ་ 39
རེག་པའི་ 39
རོའི་ 39
རྟེན་ཏེ་ 39
རྣམ་སྤངས་ 39
རྣམས་ཀྱིས་ད 39
རྣམས་ཐམས་ཅད་ 39
ལ་གནས་པའི་ 39
ལ་གནས་ཤིང་ 39
ལ་སོ་སོར་ 39
ལན་གཉིས་ 39
ལམ་དང་་ 39
ལམ་ལ་ 39
ལས་འདས་པ་ 39
ལས་སྒྲ 39
ལེའུ་ཞེས་བྱ་བ 39
ལྟ་བ་དང་ 39
ལྡན་པར་ 39
ལྷུང་བཟེད་དང་ 39
ཤེས་ན་ 39
ཤོག་ཅིག་ 39
ས་བརྗོད་པ 39
ས་བོན་བ 39
ས་སྟོབ 39
ས་སྡུག་བསྔལ་ 39
ས་སྣ་ཚོགས་ 39
སུས་ཀྱང་ 39
སེམས་སུ་ 39
སེར་པོ་ 39
སོད་ 39
སྐྱེ་བ་དང་་ 39
སྐྱེ་མཆེད་བ 39
སྒྲོགས་ 39
སྔགས་པའི་ 39
སྔགས་བ 39
སྟེང་གི་བ 39
སྨོན་ 39
སྩོལ་ 39
སློབ་དཔ 39
ུད་པ 39
ུས་མོ་གཡ 39
ེ་བྲ 39
ེའོ་་ 39
ོང་དང་་ 39
ོངས་་ 39
ྱིན་གྱིས་རླ 39
▁ཀ 39
▁ཀ་ཤི་ཀ 39
▁གང་དུ་ 39
▁དེ་དག་གིས་ད 39
▁དེ་ནས་ཁྱེའུ་ 39
▁དེ་བས་ན་ 39
▁ཕ་རོལ་ 39
▁བསམ་པ་ 39
▁བྱིས་པ་ 39
▁ཚངས་པ 39
▁འདིར་ 39
▁རྐང་གཉིས་ 39
▁རྒྱལ་བའི་ 39
▁སེམས་ཅན་རྣམས་ 39
་དགེ་འདུན་གྱིས་ 38
་དང་་བདུག་པ 38
་དང་་སླ 38
་དང་ལྡན་པས་བྱ 38
་དེ་དག་ཐམས་ཅད་བ 38
་དེ་ལ་སྨྲས་པ་ 38
་དེད་དཔོན་ 38
་བྱེད་པའི་ 38
་རོག་ 38
་རྡ 38
ཀ་ར་ 38
ཀ་ལ་པིང་ 38
ཀྱི་བསྟན་པ་ 38
ཁམས་དང་་མིག་གི་ 38
ཁོ་བོའི་ 38
ཁྱོད་དང་ 38
ཁྲེལ་ 38
ཁྲོ་བའི་ 38
གང་བྱ 38
གང་ཡང་རུང་བ 38
གཅིག་ཏུ་གཟར་ནས་ 38
གཅིག་ནི་ 38
གཅོད་ 38
གཉིས་ཀྱིས་བ 38
གདུགས་དང་ 38
གདོན་ 38
གནས་གཙང་མའི་ 38
གཞན་གང་ 38
གས་སུ་གསོལ་ 38
གསང་བ 38
གེ་སླ 38
གེ་སློང་གི 38
ང་པ་ 38
ང་བཅས་ 38
ཅི་འཚལ་ 38
ཅིག་དེ་ 38
ཆེན་པོ་དེ 38
ཆེན་པོ་སང་སང་པོ 38
ཆོས་ཀྱང་ 38
ཇི་ལྟ་བ་བཞི 38
ཇི་སྙེད་ཅིག་ 38
ཉིན་དུས་གསུམ་ 38
ཉིས་བརྒྱ་ 38
ཉེ་རྒྱལ་ 38
ཏིང་ 38
ཏུང་བ 38
ཐམས་ཅད་ཡང་དག་པར་ 38
ཐོགས་པ་མེད་པ 38
ཐོས་ན་ 38
ད་འཚོང་མ 38
དག་གིས་ཀྱང་ 38
དང་་ར 38
དེན་གྱི་གཞན་ 38
ན་པའོ་་ 38
ནས་བྱུང་སྟེ་ 38
ནི་དེ་དག་ 38
ནི་རྟག་ཏུ་ 38
ནེམ་ནུར་ 38
ཕན་ཚུ 38
ཕའི་ 38
ཕུད་ 38
ཕྱི་རོ 38
མ་གྱུར་ཅིག་ 38
མ་སྐྱེས་ 38
མགོན་པོ 38
མངོན་པར་དགའ་བ་ 38
མངོན་པར་འགྲུབ་པ 38
མཆོག་དང་་ 38
མཐའ་ཡས་མུ་ 38
མཚན་ཉིད་མེད་པའི་ 38
མཚན་མ་མེད་པའི་ 38
མི་དགེ་བའི་ཆོས་ 38
མི་ནུས་སོ་་ 38
མི་སྐྱེ་ 38
མིང་བཏ 38
མེད་ཅིང་ད 38
མེད་པ་དང་་བ 38
ཚེ་ན་ 38
ཞིང་ཡོངས་སུ་དག་པ 38
འ་ཆོས་ 38
འགྲོ་བ་ལྔ 38
འཐོབ་བོ་་ 38
འདོད་པ་ན་ 38
འདོད་པ་རྣམས་ལ་ 38
འདྲ་སྟེ་ 38
འབད་པ 38
འི་ཕྱིར་དང་་ 38
འི་བར་དུ་ད 38
འི་བྱེ་མ་ 38
འོ་མ་དང་ 38
ཡན་ལག་བཞི་ 38
ཡི་དག 38
ཡིད་ལ་བྱེད་པ་ན་ 38
ཡེ་ཤེས་ད 38
ར་འཚང་རྒྱའོ་་ 38
ར་ཡང་མི་ 38
རང་གིས་ 38
རང་བྱ 38
རབ་ཏུ་བྱུང་་་ 38
རབ་ཏུ་འབྱིན་པ 38
རི་བོ་ 38
རིག་པར་བྱའོ་ 38
རིགས་བ 38
རྐང་པ་ལ་ 38
རྐང་པའི་ 38
རྒྱུ་དང་་ 38
རྗེད་པ་དང་ 38
རྟག་ཅེས་བྱ་བ 38
རྣབ་སེམས་ 38
རྣམ་གྲངས་དེས་ན་ 38
རྨ་བྱ 38
རྫིང་བ 38
རྫུ་འཕྲུལ་གྱིས་ 38
ལ་དེ་ལྟར་ 38
ལ་བཀོད་པ 38
ལ་བྱ་ཀ་ལན་ད་ཀ་ 38
ལ་མག 38
ལན་གསུ 38
ལས་ཐར་བ 38
ལས་སྐྱེས་པ་ 38
ལྟ་བར་གནས་པ་དེ་ད 38
ལྟ་བར་གྱུར་པ་ 38
ཤིག་ཅེ 38
ཤེས་རབ་བ 38
ཤེས་སམ་ 38
ས་པ་ལ་ 38
ས་སྲོག་ 38
སད་ 38
སེང་ག 38
སྐྱེ་བར་འགྱུར་བ 38
སྐྱོད་པ 38
སྔོན་གྱི་མཐའ་ 38
སྙམ་དུ 38
སྟི་སྟ 38
སྟོང་པ་ཉིད་ཀྱི་ 38
སྟོན་ཏེ་ 38
སྟོན་པ་དང་་ 38
སྤངས་པ 38
སྤྱོད་པ་ལས་ 38
སྨྲས་པ་བ 38
སྲིན་ 38
ཨུད་པ་ 38
ུག་དང་་ 38
ུང་སྟེ 38
ུས་སྨྲས་པ་ 38
ེང་གེའི་ 38
ོང་ནས་ 38
ོས་ཀྱི་ 38
▁ཁ་ཅིག་གིས་ 38
▁ཏིང་ངེ་འཛིན་ 38
▁ཐམས་ཅད་མཁྱེན་པ་ 38
▁ཐུབ་པ་ 38
▁དགའ་ 38
▁དེ་ནས་དེའི་ཚེ་ 38
▁དེས་བསམས་པ་ 38
▁དེས་སྨྲས་པ 38
▁ནད་ 38
▁པད་མའི་དཔལ་གྱི་ 38
▁བཙུན་པ་བདག་ 38
▁འདི་ལྟ་སྟེ 38
▁འདུ་ཤེས་ 38
▁རྟ 38
▁ཤེས་རབ 38
▁སྡིག་པ་ 38
▁སྲིད་པའི་རྙེད་པ 38
་དང་འབྲས་བུ་ 37
་དབེན་པ 37
་དེ་དག་ནི 37
་དེ་དང་ད 37
་པད་མ་དཀར་པ 37
་པད་མའི་དཔལ་གྱི་ 37
་བརྒྱད་ལ་བསམ་གཏ 37
་བྱད་ 37
་ཚོགས་ 37
་ལྟར་བྱུང་བའི་ 37
་སྦྱོ 37
ཀའ་མཆི 37
ཀྱིས་བཀའ་སྩལ་པ་་ 37
ཁབ་ 37
ཁྱོད 37
ཁྲིད་ 37
གང་དུ་ཡང་ 37
གཉིས་སམ་ 37
གནས་ཏེ 37
གཟུང་ 37
གསུམ་ལ་ 37
གྲུབ་པ་དེ་ད 37
ངོ་མཚར་རྨ 37
ཅི་དག 37
ཅུ་གཉིས་ 37
ཅུ་རྩ་བཞི་ 37
ཆར་པ་ 37
ཆོས་ཉ 37
ཆོས་འདུལ་བ་ 37
ཆོས་རྣམས་བ 37
ཇི་བཞིན་ 37
ཉིན་མཚན་དུས་ད 37
ཐམས་ཅད་ཀྱི་བ 37
ཐེག་པ་རབ་ 37
དུན་བ 37
ན་གཟ 37
ན་དང་་དགེ་བསྙེན་ 37
ན་དང་་དྲི་ཟར་བཅ 37
ན་དེ་ལྟར་ 37
ན་པ་ལ་སྤྱོད་པས་ 37
ནས་སོང་ངོ་་་ 37
ནུབ 37
ནོར་བུ་བ 37
ནྱ་གྲོ 37
པག་ཚད་བ 37
ཕལ་ཆེར་ 37
ཕྱིར་ནི་ 37
ཕྱིར་མི་ལྡོག་པར་ 37
ཕྲག་བདུན་ 37
བེན་ 37
མ་དཀར་པ 37
མཁས་པ་དང་་ 37
མཁྱེན་་ 37
མངོན་སུམ་ 37
མཆོག་ཏུ 37
མཆོད་སྡོང་ 37
མཐོ་བ་ 37
མཐོང་ནས་་ 37
མི་འཇིགས་པ་བཞི 37
མེ་ཏོག་གི་ཆར་ 37
མེད་པ་ཡིན་ནོ་ 37
མེད་པར་གྱུར་ཏོ་་ 37
མྱ་ངན་ལས་འདའ་བ་ 37
ཙི་ 37
ཚིགས་བཅད་ 37
ཚིམ་ཞིང་ 37
ཚོགས་ཀྱིས་ 37
ཚོར་ 37
ཞིག་ད 37
ཞུས་ཏེ་ 37
ཞེ་ན་་ 37
ཞེས་དེ་སྐད་ཅེ 37
ཞེས་སྨྲས་ནས་ 37
ཟ་ཞིང་ 37
ཟིན་པ 37
ཟིན་པ་ 37
ཟིལ་གྱིས་མནན་ནས་ 37
འ་སེམས་ཅན་ 37
འཁོར་དུ་ 37
འཁོར་བཞི་པོ 37
འགའ་ཡང་ 37
འགྱོད་པ་ 37
འཆར་ 37
འཇིག་རྟེན་དག་ 37
འཇུག་པ་དང་་ 37
འདི་ཉིད་ཡིན་ཏེ་ 37
འདི་ལྟར་བྱ 37
འབའ་ 37
འཚོ་བའི་ 37
འཛེར་ 37
འི་དེ་བཞིན་ 37
འི་བསྐལ་པ 37
འི་བྱེ་བྲག་ 37
ཡ་སྭ་ཧ་ 37
ཡིན་པས་ན་ 37
ཡུལ་འཁོར་དང་་ 37
ཡོངས་སུ་དག་པའི་ 37
ར་གྱུར་པའི་ 37
ར་བྱེད་པ་མ་ཡིན་ 37
ར་འགྱུར་གྱིས་ 37
ར་སངས་མ་ 37
རང་བཞིན་ནི་ 37
རྒྱ་ཆེན་ 37
རྒྱ་རྩ 37
རྒྱབ་ཀྱིས་ 37
རྗེས་སུ་དྲན་པ 37
རྗེས་སུ་དྲན་པ་ 37
རྗེས་སུ་འབྲང་བ་ 37
རྣམ་པར་འཇིག་པ་ 37
རྣམས་ཀྱི་ནང་ནས་ 37
རྫུ 37
ལ་ཚེ་དང་ལྡན་པ་ཤ 37
ལ་ཞུས་པ་ 37
ལམ་གྱིས་ 37
ལམ་སྟོན་པ་ 37
ལས་བྱས་ཤིང་བས 37
ལས་རྣམ་པར་གྲོལ་བ 37
ལྔ་སྟོང་ 37
ལྡན་པ་དང་་ 37
ལྷོ་ཕྱོགས་ 37
ཤིང་དང་་ 37
ཤིང་བས 37
ས་བྱང་ཆུབ་ཀྱི་ 37
ས་སྟོང་པ་ཉིད་ 37
སེམས་ཀྱི 37
སེམས་ཅན་དེ་ 37
སྐད་འབྱིན་ 37
སྐྱེད་པར་བྱ་ 37
སྒྲ་སྐད་ 37
སྒྲུབས་པ་ 37
སྟོབས་དང་་ 37
སྟོབས་དང་ལྡན་པ 37
སྣམ་ 37
སྤྱོད་ཡུལ་བ་ 37
སྲེག་པ 37
ཨུད་པ་ལ་ 37
ུ་དེ་ལ་ 37
ུ་པང་ནས་སྐྱེས་ 37
ུང་བ་ནས་བསྐལ་པ་བ 37
ུང་བར་གྱུར་ཏོ་་ 37
ུས་གསུམ་སྟེ་ 37
ེད 37
ོ་བཞིན་དུ་ 37
ོང་དང་་དགེ་སློང་ 37
ོན་པ་ལ་ 37
ོལ་བ་དང་་ 37
ྱོང་བ 37
ླངས་པ 37
▁ཀུན་རྫོབ་ཏུ་ན་ 37
▁ཁ་ 37
▁དཔལ་ 37
▁དེ་ནས་ཁྱིམ་བདག་ 37
▁དྲན་པ་ཉེ་བར་གཞ 37
▁བདག་གིས་ཀྱང་ 37
▁བདག་གིས་བ 37
▁བདག་དང་ 37
▁མུ་སྟེགས་ 37
▁ལྷག་པ 37
▁སངས་རྒྱས་བྱ 37
▁སྒྲིབ་པ་ 37
་དག་བྱིན་ 36
་དག་སྦྱིན་ 36
་དང་་སྡུག་བསྔལ་བ 36
་དང་བདེ་བ་ 36
་དེ་བས་ 36
་དྲུག་ལ་ 36
་བདུད་ཀྱི་ 36
་བཞིན་བ 36
་བྱི་ 36
་བྱེ་ 36
་ར་དྭ་ཏི 36
་རྡུལ་ 36
་རྨི་ 36
་ལྟར་བྱ 36
་སྐྱེ་བོ་ 36
་སྟོང་ད 36
་སྤྱད་ནས་འཆི་ཀར་ 36
ཀུན་ནས་བ 36
ཀྱི་གྲོང་ཁྱེར་ 36
ཀྱི་དབྱི 36
ཀྱི་བྱང་ཆུབ་ 36
ཀྲ་ཤིས་ 36
ཀླག་པ 36
ཁམས་གསུམ་དུ་ 36
ཁོ་ར་ 36
གང་གི་ཚེ་བ 36
གང་དག 36
གང་དག་གིས་ 36
གང་ཞེ་ 36
གང་ལ་ལ་ཞིག་ 36
གདུང་བ 36
གཡུང་དྲུང་གི་ 36
གིས་དེ་ 36
གེ་འདུ 36
གྲ་བཅོ 36
གྲང་བ་ 36
ང་བྲལ་བ་དང་་ 36
ངན་པའི་ 36
ངས་བླ་ན་མེད་པ་ 36
ངོམས་ 36
ཅོམ་ལྡན་འདས་དེ 36
ཅྭ་བརྒྱ 36
ཆང་ 36
ཆུ་དང་ 36
ཉི་མ 36
ཏ་ལ་བ 36
ཏགས་པ 36
ཏེ་གང་ 36
ཏྤ 36
ཐར་པའི་ 36
ཐུགས་བརྩེ་བའི་ 36
ན་གསུམ་ 36
ནད་མེད་པ་ 36
ནས་བསམས་པ་ 36
ནི་བརྫུན་ 36
ནི་བྱང་ཆུབ 36
ནི་མིང་ཙམ་སྟེ་ 36
ཕ་མ་ལ་ 36
ཕྱག་ད 36
ཕྱུང་བ 36
མ་པའི་ཆོས་ཀྱི་ 36
མ་ལུས་པར་ 36
མཁན་པོ་དང་ 36
མགུལ་ 36
མཛད་པའི་ 36
མཛེས་་ 36
མི་གཟ 36
མི་དགའ་ 36
མི་དམིགས་སོ་ 36
མི་མངའ་བ་ 36
མིང་དེ་དག་ཀྱང་ 36
མེ་ཏོག་གིས་ 36
མེ་ལོང་ 36
མེད་ཅེས་བྱ་བར་ 36
མོས་པ་དང་་ 36
ཙ་ལ 36
ཙན་དན་གྱི་ 36
ཙམ་གྱི་ 36
ཚ་ 36
ཚེགས་ 36
ཚེར་ 36
ཚོང་དཔ 36
ཞི་་ 36
ཞིག་གི་ 36
ཞུ་ཆེན་གྱི་ 36
ཞེས་ཟེར་བ་ 36
འ་དེ་དག་ 36
འཁྱི 36
འགྱེད་ 36
འགྲམ་དུ་ 36
འཇིགས་པའི་ 36
འདི་སྐད་ 36
འདྲི་ཞིང་ 36
འཕང་ 36
འཕོ་བ་ 36
འཛམ་བུ་ 36
འཛུམ་པ 36
འི་དབང་པོའི་ 36
འི་བར་དུའོ་་ 36
འི་བྱེ་ 36
འི་རྒྱལ་པོ་བ 36
ཡིད་ཆེས་པ 36
ཡིད་ལ་བ 36
ཡིན་པ་དང་་ 36
ཡུད་ཙམ་ 36
ཡོད་ལ་ 36
ར་གྱུར་ཅིག་ཅེ 36
ར་གྱུར་པས་ 36
ར་བྱའོ་སྙམ་མོ་་ 36
ར་འཇིག་རྟེན་ 36
ར་འཛིན་ 36
རང་བྱང་ཆུབ་ 36
རང་བྱུང་ 36
རེག་པ་དང་་ 36
རྒྱུན་མི་ 36
རྒྱུན་མི་འཆད་པ 36
རྟོག་པ་ནི་ 36
རྡུལ་ཕྲ་རབ་ཀྱི་ 36
རྣམ་པར་བྱ 36
རྣམ་པར་རིག་པ 36
རྣམས་མི་ 36
རྣམས་ལ་མི་ 36
ལ་གནས་ནས་ 36
ལ་དྲ 36
ལ་སྩ 36
ལུ་ 36
ལེའུ་སྟེ་བ 36
ལྟ་་ 36
ལྷག་མ་ 36
ས་པའི་ཕྱིར་ 36
ས་ཡང་ 36
ས་སྒྲུ 36
སུ་དག་ 36
སོ་སོར་བ 36
སོང་བ་ལས་ 36
སྒོ་བ་ 36
སྙམ་དུ་བསམས་ 36
སྟོད་་ 36
སྡོམ་པ་གང 36
སྣང་བའི་ 36
སྤོས་དང་ 36
སྤྱད་པའི་ 36
སྦྱར་ཏེ་རྒ་ཤི 36
སྦྱོར་མི་ 36
སླ་བ་ 36
སླབས་ནས་ 36
ུ་བྲེ 36
ུ་འཕྲུལ་ 36
ེད་བ 36
ོ་དང་་རེག་བྱ 36
ོང་ཞིང་ 36
ོད་ཅིག་ 36
ོབ་པ 36
ོས་པ་དང་་ 36
ྲག་ཅ 36
▁གད 36
▁གཞན་དག་ 36
▁ཉན་ཐོས་དང་་རང་ 36
▁དགྲ་བཅོམ་པ་ཉིད་ 36
▁དེ་ནི 36
▁ཕྱོགས་ 36
▁བག་ 36
▁བདེན་པ 36
▁ཚངས་པ་ 36
▁འདི་ན་ 36
▁འཕགས་པའི་ 36
▁རབ་འབྱོར་འདི་ 36
▁ལུས་དང་ 36
་དང་་བག་ལ་ཉ 35
་དེ་རིང་ 35
་པྲ 35
་བདག་ནི་ 35
་བརྒྱ་བ 35
་བྱམས་པའི་ 35
་བྱེད་པ་དང་་ 35
་རང་གི་ 35
་ལ་ལ་ 35
་སྒྲོན་ 35
་སྤངས་པ་ 35
ཀུག་ 35
ཀུན་ག 35
ཀོད་པའི་ 35
ཀྱི་དབང་པོའི་ 35
ཀྱི་དོན་ 35
ཀྱི་བདག་པོ་ 35
ཀླུ་དང་་ 35
ཁས་བ 35
གཅིག་གམ་ 35
གཏུམ་པ 35
གཏོར་ཏེ་ 35
གདགས་ཞེས་མིང་ 35
གདའ་ 35
གཟུགས་བརྙ 35
གོས་ཀྱི་ 35
གྱ་ན 35
གྱེན་དུ་ 35
གྲག་ 35
གྲོགས་ 35
ང་ནས་སྐྱེས་ 35
ང་བྲལ་ 35
ཅག་བ 35
ཅི་ཡང་མ་ཐོབ་ 35
ཅིག་ཤོས་ 35
ཅུ་དང་་ 35
ཆེ་བའི་ 35
ཆོས་རྣམས་དང་་ 35
ཆོས་རྣམས་སོ་་ 35
ཆོས་སུ་ 35
ཉན་ཐོས་ཆེན་པོ 35
ཉམ་ང་བ 35
ཉིད་དེ 35
ཉེར་ 35
ཉོན་ལ་ཡིད་ལ་ཟུང་ 35
ཏང་་་ 35
ཐབས་ཟླར་བབ་པ་ 35
ཐལ་མོ་སྦྱར་ནས་ 35
དག་ཅག་ལ་ 35
དེ་བར་གཤེགས་པའི་ 35
དེར་ 35
ན་པ་ཟབ་མོ་ 35
ནམ་མཁའ་བ 35
ནམ་མཁའི་ཁམས་ 35
ནའང་ 35
ནི་འཇིག་རྟེན་ 35
ནུས་སམ་ 35
ཕ་མས་ 35
ཕུང་པོ་དང་ལྡན་པ 35
ཕུར་མ་ 35
ཕོངས་ཤིང་ 35
ཕྱུང་བ་ 35
བ་སྟེ 35
བྱེ་བ་ 35
མ་དང་བ 35
མ་ཡིན་ཏེ 35
མངོན་པར་རྟོགས་པ་ 35
མཛད་པ་མཉམ་པ་དང་་ 35
མི་དབང་ 35
མིགས་པའི་ 35
མེར་ 35
ཙཎྜ 35
ཙམ་དུ་བ 35
ཚ་བ་ 35
ཞག་པ 35
ཞིང་དེ་ན་ 35
ཞུགས་ཤིང་ 35
ཞེད་པ 35
ཞེས་སྙ 35
ཟང་པོ་དང་་ 35
ཟབ་ཅིང་ 35
འགྲན་པ་ 35
འགྲོ་ཞིང་ 35
འཇོ 35
འཐུན་པའི་བ 35
འདི་དག་སྨྲས་སོ་་ 35
འདིས་བ 35
འདུ་ཤེས་བསྐྱེད་པ 35
འཕགས་་ 35
འཕེལ་བ་ 35
འབྱུང་བར་འགྱུར་་ 35
འི་ཆོས་ཅན་ 35
འི་ཐེག་པ་ 35
འི་ཚལ་ 35
འི་སྒྲ་ 35
འོ་ན་ 35
འོངས་ཏེ་ 35
ཡོ་བྱད་ཐམས་ཅད་ 35
ཡོངས་སུ་སྐྱོ 35
ར་དེ་ནི་ 35
ར་བྱ་བ་ནི་ 35
ར་མི་བྱ་ 35
ར་མི་བྱའོ་ 35
ར་འཁྲུ 35
ར་འགྱུར་བར་ 35
རབ་ཏུ་གནས་པ 35
རིག་ནས་ 35
རིན་ཆེན་བ 35
རུང་ངོ་ 35
རྒྱན་ཅིང་ 35
རྒྱལ་དང་ 35
རྒྱལ་མོ་ 35
རྒྱལ་ཚ 35
རྟོལ་བ 35
རྣམ་གྲངས་འདི 35
རྣམ་གྲངས་འདིས་ 35
རྣམ་པར་ཐར་པ་དང་་ 35
རྣམ་པར་དག་པའོ་་ 35
རྣམ་ཤེས་ 35
རྣལ་འབྱོར་པ 35
རྨི་ལམ་ལྟ་བུ་ 35
རྩུ 35
རྩྭ་ 35
ལ་ཕྱག་འཚལ་ཞིང་ 35
ལ་མཁས་པ་དང་་ 35
ལ་མགོན་ 35
ལག་ན་རྡོ་རྗེ་ 35
ཤུགས་མཉམ་པ་དང་་ 35
ཤེས་པར་གྱིས་་ 35
ས་གཞི་ 35
ས་ནས་བ 35
ས་བརྒྱན་པའི་ 35
ས་སྤྲུལ་པ་ 35
སད་པ 35
སམ་གཏན་བཞི་དང་་ 35
སེམས་ཅན་དམྱལ་བར་ 35
སོང་བ་དང་་ 35
སྐད་དུ་བ 35
སྐོར་ཏེ་ 35
སྐྱེས་ཏེ 35
སྒོ་ནས་ 35
སྒོམ་་ 35
སྒྲུབ་པའི་ 35
སྔོན་པོ 35
སྔོན་པོ་ 35
སྟན་ལས་ལངས་ཏེ་ 35
སྟབ 35
སྡུད་པ 35
སྡེ་དང་་ 35
སྡོ 35
སྣ་ཚོགས་ཀྱི 35
སྤངས་པ་ 35
སྨིན་པ 35
སྲང་ 35
ུར་བ་ 35
ེ་བཞིན་དུ་ད 35
ོགས་ས 35
ྱས་ 35
ྱིན་པས་ནི་ 35
▁ཁ་དོག་ 35
▁གྲོང་ཁྱེར་ 35
▁ཅེ 35
▁ཆོས་རྣམས་ཀྱི་ 35
▁ཉི་མ་ 35
▁དེ་ལྟར་བྱ 35
▁དྲི་མ་མེད་པའི་ 35
▁བདུ 35
▁བཟོད་པའི་ 35
▁མི་འམ་ཅི 35
▁ཡང་དག་པར་ 35
▁རིག་པ་དང་ 35
▁སྒྱུ་མ་ 35
▁སྟོབས་བ 35
་ཏི་ 34
་དགུ་བཅུ་རྩ 34
་དང་་བཏང་སྙོམས་ 34
་དང་་སྙིང་ 34
་དབྱངས་སྙ 34
་དྲུག་པ 34
་དྲོ་ཤམ་ཐབས་དང་ 34
་བརྩོན་འགྲུས་ 34
་བྱང་ཆུབ་ཐོབ་པ 34
་བྱེ་མ་ 34
་བྱེད་ཅིང་ 34
་བྷ 34
་སྐྱེ་མཆེད་དྲུག་ 34
་སྙིང་པོ་ 34
་སྙིང་པོར་ 34
་སྡིག་པའི་ 34
་སྤྲ 34
་སྨྲས་པ་ 34
ཀུན་ལས་ 34
ཀྱི་དེ་བཞིན་ 34
ཀྱིས་བདག་ལ་ 34
ཁ་ད 34
ཁུ་བ 34
ཁོ་ནས་ 34
ཁོང་དུ་ཆུད་པ་ 34
ཁྱེའུ་དེ 34
ག་བསམ་ 34
གང་སྤྱོད་པ་ 34
གཉིས་ས 34
གནོད་སེམས་ཀྱི་ 34
གཙོ་བ 34
གཟུགས་སྟ 34
གཟུང་བ་དང་་ 34
གསུང་་་ 34
གསོན་པ 34
གསོལ་པ 34
གོང་དུ་ 34
གོས་ངུར་ 34
གྲུལ་བ 34
གྲོལ་བའི་ 34
གླང་པོ་ཆེའི་ 34
གླེགས་བ 34
ང་ཆུབ་སེམས་དཔས་ 34
ང་བ་མེད་པ 34
ང་ཞིང་ 34
ངས་ཤིག་ 34
ངུལ་གྱི་ 34
ངོས་པ 34
ཅང་བ 34
ཅང་མི་གསུང་བ 34
ཅན་དུ་འགྱུར་རོ་་ 34
ཆེན་པ 34
ཆེན་པོས་བ 34
ཆོས་བཞིན་དུ་ 34
ཆོས་སུམ་ཅུ་རྩ 34
ཆོས་སྤ 34
ཉི་ཤུ 34
ཉེ་བར་མི་ 34
ཐམས་ཅད་ལ་མི་ 34
ཐུ་བ 34
ཐུན་ 34
ཐུལ་ 34
ཐོགས་ཤིང་ 34
ཐོབ་པའི་ 34
ད་ཀ 34
ད་དམ་་ 34
ད་བྱང་ཆུབ 34
ད་མའི་ 34
དག་ཉིད་ཀྱིས་ 34
དཔུང་གི་ཚོགས་ 34
དེ་བཞིན་གཤེགས་པ 34
དོག་པ་ཐམས་ཅད་ 34
ན་གསོལ་ 34
ན་དུ་བཅས་པའི་ 34
ན་དྲ 34
ན་པ་འདི་ཉིད་ 34
ན་བདག་གི་ 34
ན་བདག་གིས་ 34
ན་རས་གཟིགས་ 34
ནམ 34
ནས་མཁས་པའི་བར་ 34
ནི་དེ་ལྟ་མ་ 34
པད་མ་ 34
པེ་ 34
ཕན་པ་ 34
ཕོ་བ 34
ཕྱིར་ཞིང་ 34
ཕྱིར་རྒ 34
ཕྱིར་ལྡོག་པ 34
མ་གཏོགས་པ་ 34
མ་གྲོ 34
མ་ཐོས་པའི་ 34
མཆེ་བ་ 34
མཆོག་གི་སྤྱོད་པ་ 34
མཆོད་རྟེན་དེ་ 34
མདུན་དུ་བདར་ 34
མར་མེ་མཛད་ 34
མི་ཟད་པ 34
ཙམ་དང་་ 34
ཙམ་བ 34
ཚ་བ་དང་་ 34
ཚལ་ 34
ཚུན་ 34
ཞིག་གི 34
ཞིང་རྣམས་ 34
ཞུགས་ཏེ 34
ཞུན་མར་དང་་ 34
ཞེས་བགྱི་བར་ 34
འཁོར་བ་འཇིག་ 34
འགྲེ 34
འཐབ་བ 34
འདི་བཤད་པ་ 34
འདུག་པ་དང་་ 34
འདོད་པ་དག་ 34
འདོད་ལ་ 34
འཕང་བ་དང་་ 34
འཕོས་ 34
འཛེ 34
འི་ཆོས་ཀྱི་ 34
འི་དབང་དུ་ 34
འི་བར་ད 34
འི་བུ་དེ་བཞིན་དུ 34
འི་བུའི་ 34
འི་ཚོགས་དང་་ 34
འོ་སྙམ་མོ་་ 34
འོངས་ནས་ 34
ཡ་ན་ 34
ཡིད་ཀྱི་ལས་ 34
ཡོངས་བ 34
ཡོངས་སུ་གཏོང་བ 34
ཡོངས་སུ་གདུང་བ 34
ར་དགེ་སློང་ 34
ར་བགྱིད་པ་དང་་ 34
ར་འགྲོ་བའི་ལམ་ 34
ར་འཇི 34
ར་འཛིན་པ 34
ར་སངས་རྒྱས་པའི་ 34
རབ་ཏུ་བཙུ 34
རབ་སྣ 34
རྒྱ་བ 34
རྡ་སྤྲ 34
རྣམ་གྲངས་དེས་ 34
རྣམ་པ་གསུམ་ 34
རྣམས་ལ་ད 34
རྨི་ལམ་དུ་ 34
རྫི་ 34
ལ་གནོད་པ 34
ལ་མངོན་དུ་ 34
ལ་འཇུག་པ་ 34
ལས་དབེན་པ 34
ལས་མ་ 34
ལུང་བསྟན་པ་་ 34
ལུང་བསྟན་པའི་ 34
ལུས་ཀྱང་ 34
ལེགས་་ 34
ལེན་པ་མེད་པར་ 34
ལྟ་ན་སྡ 34
ལྟ་བུ་བྱ 34
ལྟ་བུ་ཡིན་ནོ་་ 34
ལྡན་པ་་ 34
ལྷ་མ་ཡིན་གྱི་ 34
ལྷགས་པ་ 34
ཤ་དང་ཁྲག་ 34
ཤ་ར་དྭ་ཏིའི་བུ 34
ཤི་བའི་འོག་ཏུ་ 34
ཤིང་རྟའི་ 34
ས་ཏེ་བ 34
ས་དང་་ཆོས་དང་ 34
ས་ལ་བཙུགས་ 34
ས་སུ་དགའ་བ 34
ས་སྐྱེ་བ 34
ས་སྣང་བ་ 34
ས་སྦྱིན་ 34
ས་སྲིད་པ་ 34
སམས་བཞིན་དུ་ 34
སྐར་རྒྱལ་ 34
སྐྱེ་བོ་མང་པོ 34
སྒོམས་པ་ 34
སྙོམས་པར་འཇུག་ 34
སྟན་ཏེ 34
སྟེན་པར་ 34
སྟོང་པ་ཉིད་ལ་ 34
སྤངས་ཏེ་ 34
སྦྱིན་པ་ན་ 34
སྲོག་གཅོད་པ 34
ུད་འགྲོའི་ 34
ུར་བ་དང་་ 34
ུས་གསུམ་ 34
ེའ 34
ེར་ནི་ 34
ོན 34
ོན་གྲུ 34
ོན་དུ་བྱ 34
▁གསེར་གྱི་ 34
▁ཆོས་ལ་ 34
▁ཐེག་པ་ 34
▁དེ་དག་གིས་བ 34
▁དེ་ནས་ཁྱིམ་བདག 34
▁དེ་ནས་བྲམ་ཟེ 34
▁དེ་ཚེ 34
▁དེས་སྨྲས་པ་བ 34
▁དོན་ 34
▁དྲན་པ་ 34
▁ཕྱི 34
▁མ་བ 34
▁མཁན་པོ་ 34
▁རྒྱལ་ 34
▁ལྟ 34
▁ལྷ་དང་་ 34
▁སེམས་ཅན་དམྱལ་བ་ 34
▁སྙམ་ 34
་དགེ་བསྙེ 33
་དང་་སྲོག་ 33
་དང་བྲལ་བའི་ 33
་དེ་དག་གིས་ད 33
་དེ་བཞིན་ཉིད་ 33
་དེ་ཡང་ད 33
་དེ་ཡང་བ 33
་བཟང་པོ་ 33
་སེམས་བ 33
་སྐྱེ་ 33
་སྒུར་ 33
་སྤངས་ 33
ཀ་ནེ་ཡ 33
ཀི་ 33
ཀུན་དགའ་བོ་བ 33
ཁུ་བྱ 33
ཁྲི་བཞི་ 33
ཁྲིམས་ 33
ཁྲོས་ 33
ག་ཏ 33
གཉིས་ཏེ་ 33
གནས་ན་ 33
གཞོལ་བ 33
གས་མ་ 33
གསེར་གྱི 33
གསེར་དང་་ད 33
གོམ་པ 33
གྱི་དབང་ལས་ 33
གྱུ 33
གྱུར་ཅིང་་ 33
ང་དང་བཅ 33
ང་བྱང་ཆུབ་ 33
ངས་ཁྱོད་ལ་ 33
ངེས་པའི་ 33
ངོ་བོ་ཉིད་ཀྱི་ 33
ཅན 33
ཅི་འདོད་པ 33
ཅིག་པ 33
ཆགས་ཤིང་ 33
ཆེན་པོ་སེམས་ཅན་ 33
ཆོས་ཉན་པ 33
ཆོས་དང་ད 33
ཆོས་སྟོན་ཏེ་ 33
ཉམས་པའི་ 33
ཉམས་བ 33
ཉིད་རྗེས་སུ་ 33
ཎྜ 33
ཏགས་སོ་་ 33
ཏོག་གི་ 33
ཐག་རིང་པོ་ཞིག་ 33
ཐབས་མཁས་པ 33
ཐོས་པར་ 33
དུད་བ 33
དེ་ལེགས་སུ་ 33
དྨ་ 33
ན་པ་འདི་ནི་ 33
ན་བླ་ན་མེད་པ་ 33
ན་ར 33
ནམ་བ 33
ནས་སྡ 33
ནི་མ་ཡིན་ནོ་་ 33
ནི་ཤིན་ཏུ་ 33
ནོར་དང་་ 33
ཕ་རོ 33
ཕན་གད 33
ཕུལ་ཏེ་ 33
ཕྱག་བ 33
ཕྱག་བགྱི་བ 33
བས་ནས་ 33
མ་ནོར་བ 33
མ་བཅིངས་མ་གྲོ 33
མ་མཆིས་སོ་་ 33
མ་འགགས་པ་ 33
མ་འཚལ་ 33
མངོན་པར 33
མཉན་དུ་ཡོད་པར་ 33
མཐའ་དང་ 33
མཛའ་སྡ 33
མལ་ཆ་དང་ 33
མས་པ་ཆེན་པོ 33
མི་གནས་པ 33
མིག 33
མེད་པ་ཡང་ 33
མེད་པར་ཡང་ 33
མྱུར་ 33
མྱུར་བ་ 33
ཙམ་གྱི 33
ཚུལ་ཁྲིམས་སྲུང་བ 33
ཞི་པའི་ 33
ཞུགས་བ 33
ཞེས་བརྗོད་པ་དང་ 33
འཁོར་ལོས་སྒྱ 33
འགྲིབ་པ་ 33
འཇིག་རྟེན་གྱིས་ 33
འདུག་སྟེ 33
འདོད་པའི་ཡོན་ཏན་ 33
འདྲི་ 33
འཕྲུལ་ 33
འབུམ་གྱི་ 33
འབུལ་ 33
འབྱོར་ 33
འཛིན་་ 33
འཛིན་པར་ 33
འི་བདེ་བ་ 33
འི་སྐ 33
འོག་ཏུ 33
ཡིད་དུ་འོང་བའི་ 33
ར་ཆ 33
ར་བཅས་པའི་ 33
ར་བྱས་སོ་ 33
ར་འཇིག་རྟེན་ད 33
ར་འཛིན་པ་ 33
ར་རྗེས་སུ་མ་ 33
རབ་ཏུ་ཐོབ་པ 33
རབ་ཏུ་ཤེས་ཏེ་ 33
རིག་པ་དང་་ 33
རིག་བྱེད་ 33
རིམ་ 33
རྐང་པ་ལ་ཕྱག་འཚལ་ 33
རྒྱུ་ད 33
རྗོད་ཅིང་རྗེ 33
རྗོད་དུ་མེད་པ 33
རྙས་པ 33
རྣམ་པ་བཅུ་ 33
རྣམས་ཡིན་བ 33
རྣམས་སམ་ 33
རྫོགས་ས 33
ལ་བཞུགས་ཏེ་ 33
ལ་ལེགས་སོ་ 33
ལངས་ཏེ་ 33
ལན་གསུམ་དུ་བཟླ 33
ལས་བྱས་པ་ 33
ལས་རྣམས་ 33
ལོའི་ 33
ལྟ་བར་གནས་པའི་བར 33
ལྟུང་ 33
ལྷགས་པ 33
ལྷའི་ནང་དུ་ 33
ཤི་བའི་ 33
ཤེལ་ 33
ས་དེ་བ 33
ས་བཟོད་པ 33
ས་སུ་་ 33
ས་སྙིང་ 33
ས་སྟན་དེ་ཉིད་ལ་ 33
ས་སྟོང་པ 33
ས་སྣང་བ 33
སངས་རྒྱས་བྱུང་བ 33
སྐུར་པ་ 33
སྒོམ་པའི་ 33
སྙན་པ 33
སྟན་ཏོ་ 33
སྟན་དུ་གསོལ་ 33
སྟོང་བ 33
སྟོང་བྱ 33
སྤྱོད་པ་ནི་ 33
སླབས་པ 33
ུ་བཅུག་ནས་ 33
ེར་ན་ད 33
ོར་ནས་ 33
ོལ་བར་ 33
ྲང་འཁོར་ 33
ྲི་མ་མེད་པ 33
ྲོག་ 33
▁ཀུན་དུ་ 33
▁གོས་ 33
▁གྲོང་ 33
▁ངས་ནི་ 33
▁ཇ 33
▁དཀོན་མཆོག་ 33
▁དུས་མ་ཡིན་པར་འཆ 33
▁དེ་ནས་དེ་ཐོས་ 33
▁དེ་ནས་འཇམ་དཔལ་ 33
▁དེ་ལས་བཞེངས་ནས་ 33
▁མཚ 33
▁ཚེ་ 33
▁རིན་པོ་ཆེ་ 33
▁རྒྱུ 33
▁སྐད་ 33
་དག་ཡིན་ནོ་ 32
་དག་ལས་ 32
་དགུ་ལ་ 32
་དགེ་བའི་ཆོས་ 32
་དང་་དྲི 32
་དང་་སུམ་ 32
་དང་པོ 32
་དང་བདེ་བ 32
་དང་མ་ 32
་དབང་ཆེན་ 32
་དུས་ལས་འད 32
་དེ་ཙམ་དུ་ 32
་དེ་ཚེ 32
་དེའི་ཚེ་ཡི་གེ 32
་དྲ་བ་ཅན་གྱི་ 32
་པི 32
་བ་བན་དེ་ 32
་བྱས་པས་ 32
་རྗེས་སུ་ད 32
་རྙེད་པ 32
་སེམས་ཅན་རྣམས་ལ་ 32
་སྙིང་རྗེ་ 32
ཀ་ཤི 32
ཀང་སྟེ་ 32
ཀའ་ཐུབ 32
ཀར་བ་ 32
ཀུན་ཏུ་རྒྱུ་ 32
ཀྱང་ཡིན་ 32
ཀྱི་བར་ལ་ཡང་ 32
ཁ་ཏོན་བྱ 32
ཁ་བ 32
ཁོང་ཁྲོ་བ 32
ཁྲུས་བྱ 32
ཁྲོ་གཉེར་ 32
ག་པ་ལ་ 32
ག་ཚ་བ་ 32
གང་གི་ཕྱིར་ 32
གང་བའི་ 32
གང་ཟག 32
གང་ཡང་མེད་དོ་་ 32
གཅིག་པུའི་ 32
གཉིས་ནི་ 32
གཏིང་དཔ 32
གདུག་པ་ 32
གཙྪ 32
གཞན་ཡང་བ 32
གཞལ་གྱིས་མི་ལ 32
གཟི་བརྗིད་ད 32
གཟུགས་ད 32
གསང་བ་ 32
གསུམ 32
གསུམ་གྱི་བར་དུ་ 32
གསེར་མཆོག་ 32
གི་དོན་དུ་ 32
གེ་སློང་དེ་དག་ 32
གྱུར་ཀྱང་་་ 32
གྱུར་པ་ཡིན་ནོ་ 32
གྲིབ་ 32
གྲོགས་པོ་དག་ 32
ང་བཞིན་ 32
ང་ཡི་བ 32
ངག་གིས་ 32
ཅག 32
ཅན་གཞ 32
ཅེས་བྱའོ་ 32
ཅོ་ 32
ཅོམ་ལྡན་འདས་དང་ 32
ཅོམ་ལྡན་འདས་བདག་ 32
ཆར་པ 32
ཆེན་པོ་ད 32
ཆེན་པོ་བྱམས་པ་ 32
ཆེན་པོ་རྣམས་ནི་ 32
ཆེན་པོས་ཁྱབ་པ 32
ཇི་ལྟ་བུའི་ 32
ཉ་ 32
ཉི་མ་དང་ 32
ཉིད་ཀྱི་སླད་དུ་ 32
ཏུད་ 32
ཐག་མི་ 32
ད་བྱེད་པ་ 32
ད་ལྟར་བྱ 32
དག་དང་བ 32
དང་་བཟོད་པ 32
དེན་པའི་ 32
ན་གྱི་དྲིང་ 32
ན་པ་ཁྲི་པ་ 32
ན་ཤེས་རབ་ 32
ནས་ཀྱང་་ 32
ནི་བསོད་ནམས་ 32
ནི་བསྐལ་པ 32
ནི་བྱང་ཆུབ་ཀྱི་ 32
ཕ་རོལ་ཕྱིན་ 32
ཕུང་པོ་བ 32
ཕྱུག་དང་་ 32
ཕྱོ 32
ཕྱོགས་པ་ 32
ཕྲིན་ལས་ 32
བ་དང་་ 32
བས་སུ་འགྲོ་བ 32
མ་ཆོས་ 32
མ་ནིང་ 32
མ་བྱུང་བ 32
མ་མཛད་ 32
མགོ་བོས་ཕྱག་འཚལ་ 32
མཆོག་འདི་འཛིན་པ་ 32
མཉམ་པ་ཉིད་ཀྱིས་ 32
མཉམ་པ་ཉིད་དུ་ 32
མཐོ་རིས་ཀྱི་ 32
མདུན་གྱིས་བ 32
མི་བཟོད་པ 32
མི་འགྱུར་རོ་་ 32
མི་འཇུག་ 32
མིགས་སུ་མེད་པ་ 32
མིང་ནི་ 32
མེད་པ་དང་་འགག་པ་ 32
ཙས་པ 32
ཚེ་འཕོས་ནས་ 32
ཚེ་རབས་ད 32
ཛྙ 32
ཛྲ 32
ཞལ་ཏ་བྱེད་པ 32
ཞི་དང་་ 32
ཞིག་གནས་པ་དེས་ 32
ཞེ་ན་རབ་འབྱོར་ 32
ཞེས་བྱ་བ་རྒྱལ་པོ 32
ཞོ་ཤ 32
ཟང་ཟིང་གི་ 32
ཟེར་ན་ 32
འཁྲ 32
འཇིགས་པ་བཞི 32
འཐབ་བྲ 32
འཐོར་བ 32
འདུ་བ་ 32
འདྲེན་པའི་ 32
འཕགས་པའི་བ 32
འཕྲུལ་དག 32
འམ་ཅི 32
འི་དགེ་བའི་རྩ་བ 32
འི་དུས་ལ་བ 32
འི་བཀོད་པ་ 32
འི་བཙ 32
འི་སངས་རྒྱས་བ 32
འུར་འ 32
ཡང་དག་པར་གཟེངས་བ 32
ཡི་གེའི་ 32
ཡིད་དང་་ 32
ཡིད་བཞིན་གྱི་ 32
ཡིན་ནོ་ཞེས་ 32
ཡིན་ནོ་སྙམ་དུ་ 32
ཡེ་ཤེས་སྡ 32
ཡོ་བྱད་བ 32
ཡོངས་སུ་གཟུང་བ་ 32
ཡོངས་སུ་བཟུང་བ་ 32
ཡོངས་སུ་བསྐྱ 32
ཡོན་ཏན་དག་ 32
ར་བ་ར་ཎ་སི་ 32
ར་བྱེད་དེ་་ 32
ར་མཛད་་ 32
ར་འཇིག་རྟེན་གྱི་ 32
ར་སྣ 32
རིག་བྱེད་དང་་ 32
རྒྱུར་ 32
རྗོད་པར་བྱའོ་་ 32
རྣམ་གྲོལ་ 32
རྣམ་པ་ཐམས་ཅད་ 32
རྣམ་པར་རྒྱལ་བ 32
རྩེ་གཅིག་པ་ 32
ལ་གནས་ཏེ་ 32
ལ་གནས་པར་ 32
ལ་གསོལ་པ་ 32
ལ་དགའ་ཞིང་ 32
ལ་དགོད་པ 32
ལོ་བརྒྱ་ 32
ལོ་ལེགས་པ 32
ལྕགས་ཀྱ 32
ལྟ་བུས་ 32
ལྷ་རྣམས་ཀྱིས་ 32
ལྷས་ 32
ལྷུན་པོའི་ 32
ཤིན་ཏུ་མི་ 32
ཤེས་རབ་དང་་ 32
ས་ཀྱང་ཆེས་ 32
ས་དང་ད 32
ས་པད་མ་དཀར་པོ་ 32
ས་སོ་སྙམ་ནས་ 32
ས་སྤྲས་པ་ 32
སམ་གཏན་བཞི་པ 32
སིལ་སྙན་ 32
སེང་གེ 32
སེམས་ཅན་བ 32
སེམས་བསྐྱེད་དོ་་ 32
སོང་ངོ་་ 32
སྐུ་ལ་ 32
སྒྲ་དེ་ 32
སྒྲགས་ 32
སྔོན་བྱ 32
སྟེགས་བ 32
སྟེན་་ 32
སྟོན་ཅིག་ 32
སྡམས་པ་ 32
སྤངས་་ 32
སྤོང་ 32
སྦྱིན་སྲེག་ 32
སྨོན་ལམ་བ 32
སྨྲ་་ 32
སྨྲིག་ 32
ུན་གསོལ་ 32
ུལ་པོ་ 32
ེར་སྣ 32
ོང་་ 32
ོང་བུ་ 32
ོམས་པར་འཇ 32
ྱི་བ 32
ྱིངས་ 32
ྱིད་ 32
ྱོད་པ་ན་བ 32
ྲང་སྲ 32
ྲིད་པ་ 32
ྷོ་ 32
▁གང་དག་བ 32
▁ཇི་ལྟར་ད 32
▁དགེ་སློང་དག་ད 32
▁དེ་དགྲ་བཅོམ་པ་ 32
▁དེ་བཞིན་དུ་མིག་ 32
▁དྲང་སྲོང་ད 32
▁དྲི་ཟ 32
▁ནོར་ 32
▁བདེ་གཤེགས་ 32
▁བདེ་བ་ 32
▁བཞིན་བཟངས་ 32
▁བཟང་སྐྱོ 32
▁བཟོད་པ 32
▁མྱུར་དུ་བ 32
▁ཚེ 32
▁འོན་ཏེ་ 32
▁ལས་ཀྱི་ 32
▁ལུ 32
▁ལུས་ལ་ 32
▁ཤ་ར་དྭ་ཏིའི་བ 32
▁ས་བ 32
▁སིལ་སྙན་ 32
▁སུ་དག་ 32
▁སྐྱེས་བུ་དམ་པ་ 32
▁སྟོན་པ 32
▁སྟོབས་བཅུ་ 32
་ཏི 31
་དགའ་བ་དང་་ 31
་དགའ་ལྡན་གྱི་ 31
་དང་་སྒྲ་ 31
་དང་ཆགས་པ 31
་དང་བདེ་བའི་ 31
་དང་བསྙེན་བཀུ 31
་དུརྱ་ 31
་དེ་དག་ནི་ད 31
་དེ་ནི་གནས་ 31
་དེ་འདྲ 31
་དོ 31
་པད་མ་དང་་ 31
་བཅུ་ད 31
་བཞི་དང་ 31
་བསྒོམ་པ 31
་བྱེ་བ་སྟོང་ 31
་བྱེ་བྲག་ 31
་སྔོན་གྱི་ 31
་སྣའི་ 31
་སྲིད་པ་ 31
ཀུན་་ 31
ཀྱང་དེ་ལ་ 31
ཀྱིས་བདག་ 31
ཀྲེས་པ 31
ཁམས་ཀྱི་བར་དུ་ 31
ཁམས་དང་་ཡིད་ཀྱི་ 31
ཁམས་ཤེས་པ་དེ་ 31
ཁྲི་ཕྲག་དཔག་ཏུ་ 31
གང་ནས་ཀྱང་ 31
གང་པོ 31
གཅིག་ཀྱང་ 31
གཅིག་ནས་ 31
གདན་བཤམས་པ་ལ་བ 31
གདུལ་བར་བྱ་བའི་ 31
གཞིའོ་་ 31
གཟིགས་ནས་ 31
གཟོད་ 31
གསོས་སྨ 31
གེ་སློང་དེ་ 31
གོས་ཏེ་ 31
གྲོང་དང་ 31
གླུ་ད 31
ང་བ་ལས་ལག་ནས་ད 31
ང་བྱེད་ཀྱི་ 31
ང་རྒྱལ་བ 31
ངས་བྱ 31
ངས་ས 31
ངོ་བོ་ཉིད་ད 31
ཅད་པ 31
ཅི་ཡོད་ 31
ཅིང་མདུན་དུ་བདར་ 31
ཅིངས་ 31
ཅུ་ལོན་པ་དང་ 31
ཅེས་བྱ་བ་ནི་ 31
ཅེས་བྱས་པ 31
ཆགས་པ་དང་་ 31
ཆབ་ 31
ཆར་འབ 31
ཆར་ཡང་ཉེ་བར་མི་ 31
ཆུ་བོའི་ 31
ཆུད་པ 31
ཆེ་བ་དང་་ 31
ཆོས་དང་ལྡན་པ་ 31
ཆོས་སྟོན་ཅིང་་ 31
ཇི་ལྟ་ 31
ཇི་ལྟ་བུ 31
ཉོན་མོངས་པ་རྣམས་ 31
ཐང་ཅིག་ 31
ཐབ་ 31
ཐམས་ཅད་ལ་སེམས་ 31
ཐིགས་པ་ 31
ཐུགས་བརྩ 31
ཐོག་མ་དང་ 31
ད་འཚོང་ 31
དག་ཅག་ནི་ 31
དུ་ 31
ན་གང་ཡིན་པ 31
ན་བཤ 31
ན་བྲམ་ཟེ 31
ནས་སྣ 31
པོར་བ 31
ཕ་རོལ་ཏུ་ས 31
ཕུ་ 31
ཕེག་ 31
ཕོ་ཉ 31
ཕོད་ 31
ཕྲི 31
བ་དང་ 31
བང་པོ 31
མ་ཐག་ཏུ་ཆོས་ཀྱི་ 31
མ་པོ 31
མ་བརླ 31
མ་མཆིས་པ་ལགས་ 31
མ་མོ་་ 31
མཁྱེན་པའི་ 31
མང་དུ་ཐོས་པ་ 31
མང་དུ་བ 31
མངོན་པར་བསྒྲུབ་པ 31
མངོན་པར་ཞེན་པ 31
མངོན་ཤེས་ 31
མཆིའོ་ 31
མཆིས་ནས་ 31
མཆོད་པ་བྱ 31
མཐའ་ནི་ 31
མདའ་བོ་ 31
མདོར་ 31
མཚམས་མེད་པ་ 31
མཛད་ནས་ 31
མཛད་པས་ 31
མཛའ་བཤེ 31
མཛེས་པའི་ 31
མཛེས་པར་བྱས་པ་ 31
མི་གཏོང་བ 31
མི་དམི 31
མི་བཟད་པ 31
མེ་ཏ 31
མེ་བ 31
མེད་ཅིང་་ 31
མེད་པར་ད 31
ཚན་པོ་ཆེ་ཆེན་པོ 31
ཚིག་རྩུབ་པོ་ 31
ཞུམ་ 31
ཞེས་བཀའ་སྩལ་ 31
ཞོ་དང་་ 31
ཟད་དོ་ 31
ཟིང་ 31
ཟུག་རྔ 31
ཟོའི་ 31
འ་གང་ 31
འཁོར་དང་ 31
འཁོར་དེར་ 31
འགལ་ 31
འཇིག་རྟེན་བ 31
འཐོབ་སྟེ་ 31
འདུ་ཤེས་བ 31
འཕགས་པའི་བདེན་པ་ 31
འཕགས་སྐྱེ 31
འི་དགེ་སློང་གི 31
འི་དུས་སུ་ 31
འི་དོན་གྱི་ 31
འོད་དང་ 31
འོད་དེ 31
ཡང་ཆེས་ཕ་རོལ་ན་ད 31
ཡང་དག་པར་བསྟན་ 31
ཡང་དག་པར་སྟོན་པ 31
ཡང་ན་ 31
ཡང་ནི་ 31
ཡངས་པའི་ 31
ཡན་ལག་དང་ཉིང་ལག་ 31
ཡིད་ཆེས་པར་ 31
ཡིད་དང་ 31
ཡིན་པའི་ཕྱིར་རོ་ 31
ཡེ་ཤེས་མཐོང་བ་ 31
ཡོངས་སུ་མི་སྐྱོ 31
ཡོངས་སུ་སྤྱད་པ 31
ཡོད་པ་་ 31
ཡོལ་བ་ 31
ར་བྱ་སྙམ་དུ་ 31
ར་འགྱུར་བ་ཡིན་ 31
ར་འགྱུར་ལགས་ 31
རང་བཞིན་གྱི་ 31
རབ་ཏུ་ཤེས་པ་ 31
རིགས་པ 31
རིམ་པར་ 31
རེ་བ་ 31
རྒྱ་ཆེ་ 31
རྒྱ་ཆེན་པོ་ 31
རྒྱལ་བས་བ 31
རྒྱུ་གང་དང་རྐྱེ 31
རྗོད་ཅིང་ 31
རྙེད་མི་དཀའ་་ 31
རྡ་ 31
རྣམ་གྲ 31
རྣམ་པ་མང་པོ 31
རྣམ་པར་སྨིན་པ་ལ་ 31
རྣམས་ཀྱི་གནས་ 31
རྣམས་ནི་ད 31
རྦ 31
རླུང་གི་ཁམས་ 31
རླུང་དང་ 31
ལ་གཞག་པར་བྱ་ 31
ལ་དང་་བ 31
ལ་བུ་གཡེར་ཀ 31
ལོག་པའི་ 31
ལྔའི་ 31
ལྡ་ལྡ 31
ལྷའི་བུ་མོ 31
ལྷའི་མིག་ 31
ལྷུང་བ 31
ས་པ་གཟ 31
ས་འདི་ 31
ས་ཡི་ 31
སགས་པའི་ 31
སམ་གཏན་བཞི་དང་ 31
སམ་མི་ 31
སམས་ནས་ 31
སྐྱེ་མཆེད་དང་་ 31
སྐྱེད་ཅིག་ 31
སྐྱེས་སོ་ 31
སྔོ་བ 31
སྙམ་དུ་བསམས་ནས་ 31
སྙུན་ 31
སྙེད་དུ་ 31
སྟོད་ནས་ 31
སྡུག་པ་ 31
སྣང་་་ 31
སྣུན་ 31
སྦྱོང་དང་བྲམ་ཟེ་ 31
སྦྲང་ 31
སྩལ་ 31
ཨུ་དུམ་བ་ར 31
ུ་བ་དང་་ 31
ུག་གི་ 31
ུང་གིས་ 31
ུང་ནས་བ 31
ེ་དག 31
ེ་བཞིན་ཏེ་ 31
ེད་པར་འགྱུར་རོ་་ 31
ོ་དང་་ད 31
ྙ 31
ླ་མེད་ 31
▁ཁྱེའུ 31
▁ཆགས་པ་ 31
▁དགེ་སླ 31
▁དེའི་ཚེ་ན་ 31
▁དེས་ཀྱང་ 31
▁དོན་དམ་པར་ 31
▁བསམ་གཏན་གྱི་ 31
▁མིའི་ 31
▁ཚོར་བ་ 31
▁འཁོར་བའི་ 31
▁རྒྱལ་པོ་ཟས་གཙང་ 31
▁རླུང་ 31
▁སེམས་ཅན་རྣམས་ལ་ 31
་གོ 30
་ཆོས་ 30
་དགོན་པར་ 30
་དེ་ཕྱིར་ 30
་དེ་བཞི 30
་དེ་ལ 30
་དེར་བ 30
་དེས་ང་ 30
་དེས་བྱ 30
་དྲི་བ 30
་དྷ་ 30
་བསྟན་པ་ 30
་བྱང་ཆུབ་དམ་པ་ 30
་བྱང་ཆུབ་མཆོག་ 30
་ར་དྷྭ་ 30
་རྒོད་ 30
་སེང་གེའི་ 30
་སྟོབས་བཅུའི་ 30
་སྤུ་ 30
ཀུ་རུ་ 30
ཀུན་རྫོབ་ 30
ཀྲ་ 30
ཀྵ་ 30
ཁེབ 30
ག་ཏ་མ 30
གང་ཅི་ཡང་ 30
གང་ཡི 30
གདམས་ 30
གདོང་ 30
གཙུག་གི་ 30
གཡོས་པ 30
གསུམ་ད 30
གྱུར་ཏེ 30
ང་ནས་སྐྱེ 30
ངག་དང་་ 30
ངན་སོང་དུ་བ 30
ངས་སྟ 30
ངེས་པའི་ཚིག་ 30
ངེས་བ 30
ཅིག་དང་ 30
ཆུང་ངུ 30
ཆེམ་ཆེམ་ 30
ཆོད་པ 30
ཆོས་ཐམས་ཅད་ད 30
ཉན་པ་དང་་ 30
ཉལ་ 30
ཉིད་ནི་ 30
ཉུང་བ 30
ཎྜོ་ལ་བ 30
ཐམས་ཅད་དུ་ཡང་ 30
ཐིག་ 30
ཐོག་མར་ 30
ཐོབ་པས་ 30
དག་ཅག་གཉིས་ 30
དགའ་བ་ 30
དགེ་ 30
དུག་ 30
དེ་བ་དང་་འཁྲུ 30
དེན་པར་ 30
ན་དགའ་བ་ 30
ན་བའི་ 30
ནག་པོ 30
ནའི་ 30
ནས་གལ་ཏེ་ 30
ནས་དེས་བ 30
ནི་བདག་གིས་ 30
ཕོག་པ 30
ཕྱེད་པ 30
བ་སྒ 30
མ་ཐོབ་ 30
མ་མཆིས་ཏེ་ 30
མ་ཡིན་ཞིང་་ 30
མང་པོས་ཚིམ་པ 30
མངོན་པར་འབྱ 30
མཆིས་སོ་་ 30
མཐའ་དང་་ 30
མཐར་ཐུག་པ་ 30
མཐོང་ནས་དེ་ 30
མཚམས་སྦྱོར་བ་ 30
མི་འཕྲ 30
མིག་ཡོར་ 30
མུན་པ་མུན་ན 30
མེ་དང་ 30
མེད་དཔག་ཏུ་ 30
ཙུན་མོ་ 30
ཚང་བར་ 30
ཚིག 30
ཚུལ་ཁྲིམས་དང་ 30
ཚེ་འཕོས་པ་ 30
ཚེ་རབ 30
ཞགས་པ 30
ཞལ་ཟ 30
ཞིང་འདི་ 30
ཞུགས་པར་ 30
ཞུས་པ་བ 30
ཟ་བ་ 30
ཟང་པོའི་ 30
ཟབ་མོ 30
ཟུག་རྔུ་ 30
འ་ཆོས་འདི་བཞི 30
འཁོད་བཞིན་དུ་ 30
འགྲིབ་པ 30
འགྲོ་སྟེ་ 30
འཇམ་དཔ 30
འཐུང་ 30
འདམ་ 30
འདུ་འཛི་ 30
འདུལ་བའོ་་ 30
འདེབས་པ 30
འདོད་་ 30
འདྲ་བ་དག་དང་་ 30
འདྲེན་པ་བ 30
འབེབས་ 30
འི་ཆོས་རྣམས་ 30
འི་བར་དང་་ 30
འི་བར་དུ་བྱ 30
འི་རྗེས་སུ་ 30
འོ་མ་དང་་ 30
འོག་མི 30
འོད་ཀྱི་ 30
ཡི་རངས་ཏེ་བ 30
ཡུམ་བ 30
ཡོང་མི་ 30
ཡོངས་སུ་གང་བ 30
ཡོངས་སུ་བྱ 30
ར་བཅས་ 30
ར་བས་ 30
ར་བྱ་བ་དང་་བ 30
ར་བྱས་ཤིང་ 30
ར་བྱེད་པ་ན་ 30
ར་མ་ད 30
ར་འགྱུར་དུ་ 30
རང་བཞིན་དུ་ 30
རབ་ཏུ་འབར་ 30
རྐྱང་ 30
རྒྱ་ཆེ་བ 30
རྒྱང་གྲགས་ 30
རྒྱལ་པོ་དེའི་ 30
རྟག་ཏུ་བྱ 30
རྟག་པ་བ 30
རྟག་པའི་ 30
རྣམ་པར་འཇི 30
རྣམ་པར་འཇིག་པ 30
རྣམས་བསྐྱེད་ 30
རྣམས་ཡིན་ཏེ་ 30
རྣམས་རབ་ཏུ་ 30
རྨོངས་ 30
རྩུབ་པ 30
རྩེ་མ 30
རྫོགས་བ 30
ལ་ཞུགས་པ་ 30
ལ་ཞུགས་སོ་་ 30
ལ་ལར་ 30
ལག་པ་ལྟ་བུའི་ 30
ལན་ཚ 30
ལས་དང་་ 30
ལས་སྐ 30
ལོ་བཅུ་གཉིས་ 30
ལོ་བདུན་ 30
ལོངས་སྤ 30
ལྕགས་ 30
ལྟ་བར་བྱའོ་་ 30
ལྟས་ཏེ་ 30
ལྷ་རྣམས་དང་ 30
ལྷར་བཅས་ 30
ཤ་རིའི་བུ་དང་ 30
ཤིག་བ 30
ཤིང་ལྗ 30
ཤེས་ལ་ 30
ས་དང་བ 30
ས་དེས་ 30
ས་པ་ནི་ 30
ས་བཅོ 30
ས་མི་འཇིགས་པ་ 30
ས་སྐྱེ་མཆེ 30
སེ་མོ་ད 30
སེར་པ 30
སྐལ་པ་གྲངས་ 30
སྐུམ་པ 30
སྐྱོང་ 30
སྒྲུབས་པའི་ 30
སྟབས་དང་་ 30
སྟེང་དུ་བ 30
སྟོན་ཅིང་ 30
སྡེ་དཔོན་ 30
སྣུ 30
སྤྲུལ་པའི་ 30
སྤྲོ་བ་ 30
སྨོན་ལམ་པ་ 30
སྨྲི 30
སྩལ་བ 30
སྲས་རྣམས་ལ་ 30
སྲིད་པ 30
སླད་དུ་བདག་ 30
སླབས་ཏེ་ 30
ུ་རམ་ 30
ུང་སྟེ་་ 30
ུད་བ 30
ོ་མོ 30
ོད་བ 30
ོན་དམ་པའི་བ 30
ྲ་བ་ 30
ློ་གྲོས་ད 30
▁ཀྱ 30
▁ཀྱེ་ཀྱེ་ 30
▁གང་གི་ཚེ་བ 30
▁གཉིས་ 30
▁ཆོས་སྨྲ་བ 30
▁དེ་ཉིད་ 30
▁དེ་སྟེ་ 30
▁བསམ་གཏན་ 30
▁བྱ་བ་ 30
▁མི་མཆོག་ 30
▁འདིས་ 30
▁རྩ 30
▁ལ་ 30
▁སེམས་ཅན་གྱི་ 30
▁སྐྱོ 30
▁སྲོག་ཆགས་བྱ 30
་བཅུ་ 29
་སྟོབ 29
ཀྱི་ཚ 29
ནྱ་ 29
མ་འདྲ 29
མ་ཡིན་པ་བ 29
ཟླ་བ་དང་་ 29
འབྱུང་བའི་ 29
ཡིད་མི་བདེ་བ་ 29
རབ་ཏུ་མི་ 29
རལ་པ་ 29
རྟག་ཏུ 29
རྩོན་འགྲ 29
ལྟར་མི་བལྟ 29
ལྟོས་་ 29
ལྷག་པའི་ 29
སརྦ 29
སྒྲགས་པ 29
སྙེན་བ 29
ེ་བཞིན་ད 29
ོས་ཀྱང་ 29
་དེ་ལྟ་ 28
་དེར་ད 28
་ར་དྭ་ཏིའི་བུ 28
ཀྱིས་སྟོང་་ 28
ཁྲོ་ 28
གདན་བཤ 28
ཅུ་གང་ཞེ་ན་ 28
ཆ་དང་ 28
ཐེག་པ་པའི་ 28
ད་དུ་གསོལ་ 28
འཇིགས་ཤིང་ 28
འི་སྟོབས་བ 28
འོད་དང་་ 28
སྐད་སྨྲས་པ 28
སྐྱེས་བུ་དམ་པ་ 28
ཨེ་ 28
ེ་བའི་རྩ 28
ོ་བོའི་ 28
ྠ 28
ྦྱི 28
ྱེར་ 28
▁དེ་བཞིན་ད 28
་དགེ་བའི་རྩ 27
་བི 27
་སྭ་ཧ་ 27
ཁང་བ 27
ངུར་ 27
ཆོས་སྟ 27
ན་ལས་ལ 27
མའི་ཚ 27
མས་ཅ 27
མིང་བ 27
ཡོངས་སུ་སྦྱ 27
ར་རྨ 27
རོལ་མོའི་ 27
རྣམ་པར་གྲོ 27
སྐུར་བ 27
ིལ་དུ་ 27
ེད་མེད་ 27
ོམ་སེམས་ 27
ྚ 27
ྱིན་གྱིས་ 27
▁ཀུན་རྫོབ་ཏུ་ 27
་དགེ་ཚུལ་ 26
་བཅུའི་ 26
་སྟོབས་བ 26
ཀྱི་ཧ 26
གསུང་རབ་ 26
ད་དཔ 26
ནོར་དང་ 26
ཕལ་ 26
ཕྲག་པ་ 26
འཚོ་ཞིང་གཞེས་ 26
འི་ཚེ་ན་ 26
ར་ཎ 26
རོ་མྱ 26
ཤེས་པ་འག 26
སྐྱེས་བུ་ད 26
སྨྲ་བའི་ 26
ེ་སྔགས་འད 26
ེ་སླ 26
ེབས་ 26
▁དེ་ལས་བཞེ 26
་དགུ་བ 25
་དྲང་སྲ 25
ཀ་ཏ 25
ཁྱིམ་ནས་ 25
ག་བྱེད་ 25
གཞུ 25
ཅུང་ 25
ཐམས་ཅད་སྤངས་ 25
བ་ཀྱིས་ 25
འཁོར་དང་་ 25
རྗེད་ 25
རྡུལ་བ 25
ལྟ་ན་སྡུག་ 25
ལྡན་དག་ 25
ས་སུམ་ 25
སོང་་ 25
ེ་མོ་ད 25
ོབས་ 25
ྫོགས་པ 25
ྲི་མ་མེད་པའི་ 25
▁རབ་འབྱོ 25
གཉི་ 24
ངས་སྤ 24
ཅོམ་ནས་ 24
ཐུབ 24
ནམ་མཁའ་ལྡི 24
ནམས་ 24
མང་ལ་ 24
ཡི་རང་ 24
ཡོ་བྱ 24
སྔོན 24
ེས་པར་ 24
་དེ་དེ་བཞིན་ 23
་སྤྱད་ནས་ 23
ཁ་ན་མ་ཐ 23
གནས་སམ་ 23
གཟི་བ 23
གེ་མོ་ 23
གྲི་ 23
མིག་ཡོ 23
འབྱེ 23
འབྲི 23
རིན་ 23
རྫོགས་པ་ 23
ལས་ཆུང་མ་བ 23
ལྷུང་བཟེ 23
སྙམ་དུ་བ 23
སྙམ་འམ་ 23
▁དགེ་བའི་རྩ 23
་དགས་ 22
་ཤི་ 22
ངན་ས 22
ཆུབ་པ 22
ཉི་ཁྲི་ 22
མི་བགྱི་ 22
འི་དཀྱིལ་ 22
ཡིད་མི་ 22
ར་བྱ་སྙ 22
ས་སུ 22
སྦྱོང་དང་བ 22
ཪ 22
ྡུག་བསྔ 22
ཀླུ་ད 21
ག་པར་བྱ་ 21
གྱུར་བ 21
ན་ཅིག་ཕྱིར་འ 21
མང་པ 21
མའི་དཔལ་ 21
མར་དང་ 21
ཚོང་ 21
ཞིན་བ 21
ཟང་པོ་བ 21
འདུག་བ 21
འབྲེལ་པ 21
ཤེས་གཉེ 21
ིལ་སྙན་ 21
ྭ་བརྒྱ 21
▁སྣང་བ 21
ཀའ་སྩ 20
ད་བཞིན་དུ་ 20
ཕམ་པ་ 20
མི་སེམས་ 20
མེད་ཟ 20
ར་བཞེད་ 20
རྫོགས་སོ་་ 20
ལ་སོ་ 20
ས་དང 20
ས་སྨོན་ལམ་བཏ 20
སྐྲ་དང་ 20
སྣང་་ 20
སྤྲུ 20
ུས་མོ་ 20
ྲིབ་པ་ 20
▁རྒྱ་ 20
་དང་ལྡ 19
་བྱས་ཤིང་ 19
ཀ་ལ 19
ཁོང་དུ་ 19
ཁྲི་ཉི 19
གཙུག་ལག་ 19
གཞལ་ 19
གཞེས་ 19
གེ་བའི་རྩ 19
གྱི་དབང་ 19
ང་བ་ལས་ 19
མ་ན 19
མད་གལ་གྱི་བ 19
ཟའ་བ་དང་བཅ 19
འབྱོ 19
འོང་བའི་ 19
ཡང་དང་ 19
ར་དང་་ད 19
ར་ས 19
རྐུ 19
ཤ་རིའི་བུ 19
ས་གསོལ་ 19
ོང་དུ་བ 19
ྱིངས་སུ་ 19
ླ་གོས་ 19
▁སྡིག་ 19
ཀུ་མུ་ད 18
ཀྱིས་དགོ 18
ཁ་སྤ 18
གོར་མ་ཆག་ 18
ངས་མ་ 18
ཅེར་བ 18
ཐུན་མོ 18
འོང་་ 18
ཡང་ཆེས་ 18
རྣམ་ཐོས་ 18
ས་སྨོན་ 18
སྨོན་ལ 18
ིད་ཙ་བི 18
ྲུང་གི་ 18
་སྡི 17
ཁྱབ་་ 17
ག་བྱེ 17
བྱེར་ 17
ཟླར་བབ་པ་ 17
འུ 17
ཡུག་ 17
ར་འགྱུར་ར 17
ར་འཇིག་ 17
རྒྱལ་པ 17
ས་སྒོ་ 17
སེར་སྐྱ 17
སྐྱེད་བསྲི 17
ིལ་ 17
ུ་ར 17
ེ་མཆེ 17
ོ་ཉ 17
ོར་མ་ 17
ྱིན་གྱི་ 17
་དྲུག་ཏུ་ 16
ཀྱི་ཚེ་ 16
གཤིན་ 16
ཆར་ཡང་ 16
ཏིག་ 16
ཕུར་ 16
བ་པ་་ 16
མ་ག་དྷ 16
མ་བསྐོར་བ 16
མིང་ཙམ་ 16
མུན་ན 16
ཟང་སྐྱོ 16
འཚོ་ཞིང་ 16
འི་དུས་བྱ 16
འི་བདག་ 16
ར་རེ 16
རྗེས་སུ་ད 16
རྣམ་གྲངས་དེ 16
རྩུབ་པོ་ 16
ལྟ་ཅི་ 16
ཧུ་ཕ 16
ིད་ 16
ྵ 16
▁ཁང་པ 16
་དང་་ར 15
་དང་་ལྕ 15
་དུས་གཅིག་ 15
་ན་མ་ཐ 15
ཁྱིམ་ཐ 15
ཆོས་སུ་བ 15
ཏུ་དགའ་བ 15
དར་ 15
ཕྱུག་ 15
མྱུ་ 15
ཚིག་བླ 15
ཚིག་བླ་དག 15
ལ་བར་གྱུར་པ་ 15
ལས་བཞེ 15
ལྗོ 15
ཤ་དང་ 15
སྐྱོད་པ་ 15
སྙོམས་པར་འཇ 15
སྟན་བཅ 15
སྦུ 15
ུན་ན 15
ུའི་ཁུང་བ 15
ོར་མ་ཆག་ 15
་རྗེ 14
གཏན་ལ་ཕབ་པ་་ 14
གཟར་ 14
ཉིང་ 14
ན་པོའི་ 14
ནས་པ 14
མའི་རྒྱལ་པོ་ 14
འཇིག་ཚོགས་ 14
ལ་མོ་ཀྲ 14
སྡེ་དཔ 14
ིད་ཙ 14
ོང་བར་ 14
ོན་ལམ་ 14
ློ་གྲོ 14
་དྲོ་ཤམ་ཐ 13
ཀུན་དག 13
གཙང་མའི་ 13
ཆུང་མ་བ 13
ཕལ་པོ་ 13
ཕྱིན་་ 13
ཕྱིར་ར 13
ཕྲ་རབ་ 13
མ་ག་ད 13
ཟེད་ 13
ཡང་དང་ཡང་ད 13
ཡོང 13
ར་རྫོགས་པ 13
རྡུལ་ཕྲ་རབ་ 13
ལ་བཙུ 13
ལག་མཐ 13
ལན་གས 13
སེང་ 13
སོད་ནམས་དག 13
སྟི་ 13
་དྲ་བ་ 12
གཟེངས་བ 12
གུད་ 12
ངས་སྙ 12
ཉིང་ལག་ 12
ཉེ་དབང་དང་བཅ 12
ཐུགས་སུ་ 12
ན་ལས་དེའི་ 12
མགུར་ 12
མཉན་དུ་ 12
ཚིགས་བ 12
ཚེ་འཕོས་ 12
འ་སྡ 12
འགྲི 12
འཇམ་ད 12
ཡན་ལག་དང་ 12
རལ་ 12
རྒྱལ་བྱེད་ 12
ལ་འབྱོ 12
ུང་ཕྱུར་ 12
ོ་ལ་བ 12
ྒྲིབ་པ་ 12
་ར་ད 11
་ར་དྭ 11
ཀྱི་དབྱིངས་ 11
ཆོས་བཅུ 11
ཉིས་བ 11
ཕ་ར 11
ཕུན་ 11
མི་བལྟ 11
ཞིག་གནས་པ 11
ར་འགྱུ 11
ལ་བྱ་ 11
ལྟ་མ་ 11
སྙེན་པར་རྫ 11
སྟེགས་ 11
ུ་དུམ་བ 11
ོང་དག་ 11
ོངས་ཤིང་ 11
་ཤི 10
ཀ་ནེ་ 10
ཀུར་སྟ 10
གྲོས་ 10
ཋ 10
དོག་པ་ 10
མངོན་སུ 10
མཐོ་རིས་དང་ 10
ཞོ་དང་ 10
ཡང་དག་པར་འ 10
རོ་་ 10
རྫོ 10
ལ་བུ་ཆགས་ 10
ལྟར་འབ 10
སྐྱེད་བ 10
ུ་དུམ་བ་ར 10
ྕ 10
ྛ 10
▁གྲོགས་པ 10
་དང་འདི་བཞི 9
གཉི་ག 9
ཆེན་བཞི 9
མོ་ད 9
ར་དག་ཏུ་ 9
ར་རྗེ 9
ལ་བསམ་གཏ 9
ཤིང་ས་ལ་ 9
ས་ཤིང་བས 9
ས་སྟན་དེ་ 9
ེ་སྔགས་ 9
ཀའ་ས 8
ཁུང་བ 8
གི་བྱེ་མ་ 8
ང་ས 8
ཆེན་གྱི་ 8
ཆོམ་ 8
ཆོས་མ་འདྲེས་པ 8
ཉེས་ད 8
མ་བཟང་པོ་ 8
མུན་པ་བས 8
ཚན་པོ་ཆེ་ 8
ཞབས་སུ་ 8
ཟིལ་གྱིས་ 8
ཟློག་ལ་ 8
འདབ་ཆགས་ 8
རབ་ཏ 8
རྒྱལ་རི 8
ལྟར་འབའ་ཞིག་ 8
ས་ཤིང་ད 8
སྙོམས་ 8
ྲི་མ་ད 8
་དྲང་ 7
ཀླུའི་བུ་མོ་ 7
ཁྱིམ་བ 7
གཞལ་མེད་ 7
གར་གྱི་ 7
གལ་ 7
ན་དང་་སྨ 7
ནས་བསྐལ་པ་བ 7
ཕྲིན་ 7
མཉེས་པར་ 7
ཞག་བ 7
ཞི་གང་ཞེ་ན་ 7
ཞིང་དགའ་ 7
ལ་མོ་ 7
སམས་བ 7
སལ་བའི་ 7
ྱིན་གྱིས་བ 7
གདགས་ 6
གཞོན་ནུར་ 6
གཡུང་ད 6
གུས་བ 6
ཆོས་སྣང་བའི་ 6
ཇི་སྙ 6
ཉམ་ང་བ་ 6
ཚན་པོ་ 6
ཟུག་ 6
འཐོབ་ཏུ་རུང་ 6
འཚོང་ 6
ར་ལན་གས 6
ལན་གསུམ་དུ་བ 6
ལུང་ཡང་ 6
ུ་འཕྲུ 6
གདན་བཤམས་པ་ 5
གས་སུ་བཅ 5
ངའི་སྦུ 5
ཆོས་ལྔ 5
ཆོས་སྣ 5
ཉམ་ང་བ་ཉུང་ 5
ཏང་་ 5
ཐེ་ 5
དང་་རང་ 5
ཕྱུར་ 5
མ་ཡིན་པར་འཆ 5
མི་མཇ 5
འདི་བཞི 5
འཕྲུལ་དབ 5
འི་དབང་པོ་བ 5
རྫོབ་ 5
ལ་བུ་གཡེར་ 5
སའམ་ 5
ྥ 5
ྱི་བོ་ 5
ྴ 5
གཉིས་སུ་ད 4
གདུལ་བྱ 4
གནོད་པ་ཆུང་ 4
ད་གལ་ 4
དེན་གྱི་ 4
ན་པ་བས 4
མ་ནུར་ 4
མཚང་ 4
མའི་དཔལ་གྱི་ 4
ཞེས་མིང་ 4
འདུ་འཛ 4
རྙེད་མི་ད 4
ལག་ནས་ད 4
ལྟ་སྨ 4
སམ་གཏན་བཞི 4
ྗེ 4
ྜ 4
▁ཀ་ཤི་ 4
་ལྡ 3
་སེམས་དཔ 3
ཀ་ལན་ད་ 3
གཏི 3
ང་དུ་མ་བ 3
ང་དེ་དག་ཀྱང་ 3
ཅིང་ནོར་ 3
ཉོན་ལ་ཡིད་ལ་ 3
དེ་ལེ 3
ན་གྱི་དྲ 3
ཕུན་སུམ་ 3
མ་བཅིངས་ 3
ཚུལ་ལོ་་ 3
ཚོང་ད 3
ཞུན་ 3
འ་ཞིག་ 3
ཡིད་བཞི 3
ར་འབེ 3
རྗེད་ངས་ 3
ལ་བྱ་ཀ་ལན་ད་ 3
ེང་གཞི་ 3
▁སྲིང་ 3
ཀྱང་མིང་ 2
གཉི་གའི་བར་ 2
གནས་སྦྱིན་པ 2
གཞལ་གྱིས་མི་ 2
ང་སང་པོ 2
ཆེན་པོ་ས 2
ཆེམ་ 2
ཆོས་སུམ་ 2
ཉིན་མཚན་ད 2
ཉོན་ལ་ 2
ཐལ་མོ་སྦྱར་བ་བ 2
ནི་བྱང་ཆུབ་བ 2
མ་ཐག་ཏ 2
མྱ་ 2
ཞིན་བཟངས་ 2
ར་བབ་པ་ 2
རབ་ཏུ་བྱུང་་ 2
རིན་པོ་ 2
ལམ་བཏ 2
སྦངས་པ་ 2
ྭ་ཧ་ 2
ྶ 2
་ར་དྷ 1
ཀུ་མ 1
གཡེར་ 1
གསེར་དང་བ 1
གྱིས་མི་ཁྱ 1
ཉེ་དབ 1
ཏུ་རུང་ 1
ན་པ་ཁྲི་ 1
མཁས་པའི་བར་ 1
མངོན་སུམ་ད 1
མོང་ 1
འ་སེམས་དཔ 1
འཕྱེ་ 1
ཡི་གེ་དྲུ 1
ར་ཎ་ས 1
རྣབ 1
ལ་པིང་ 1
ེ་བ་ཁྲག་ 1
ྑ 1
▁བཙུ 1
madeupword0000 0
madeupword0001 0
madeupword0002 0
madeupword0003 0
