<unk>	0
<s>	0
</s>	0
ས་	-0
▁t	-1
་བ	-2
▁th	-3
་ད	-4
▁a	-5
▁the	-6
ི་	-7
ན་	-8
ང་	-9
in	-10
▁o	-11
re	-12
་པ	-13
ར་	-14
▁w	-15
at	-16
▁s	-17
nd	-18
▁b	-19
er	-20
en	-21
is	-22
ེ་	-23
on	-24
ག་	-25
ོ་	-26
ed	-27
▁of	-28
ས་པ	-29
▁h	-30
ུ་	-31
es	-32
ing	-33
མས་	-34
ལ་	-35
ད་	-36
it	-37
▁p	-38
འི་	-39
ou	-40
▁and	-41
▁f	-42
▁m	-43
མ་	-44
འད	-45
ན་པ	-46
ྱི	-47
▁d	-48
་དང་	-49
▁c	-50
or	-51
ll	-52
as	-53
▁in	-54
་བྱ	-55
▁n	-56
ar	-57
an	-58
▁to	-59
ད་པ	-60
ས་ས	-61
་ས	-62
ས་བ	-63
ion	-64
▁be	-65
le	-66
om	-67
▁e	-68
ent	-69
ོ་་	-70
▁wh	-71
▁g	-72
ཀྱ	-73
གྱ	-74
ཞི	-75
ct	-76
ང་བ	-77
ce	-78
ྒྱ	-79
ེ་བ	-80
▁ད	-81
རྣ	-82
al	-83
▁on	-84
རྒྱ	-85
▁re	-86
ག་པ	-87
ow	-88
ས་པ་	-89
se	-90
ེམས་	-91
▁l	-92
ཤེ	-93
ve	-94
ess	-95
་དང་་	-96
གས་	-97
ra	-98
od	-99
▁is	-100
ནས་	-101
ot	-102
ང་ད	-103
▁he	-104
ལྟ	-105
gh	-106
ནི་	-107
ོས་	-108
ན་ད	-109
▁as	-110
▁that	-111
ld	-112
▁u	-113
བ་	-114
▁i	-115
གྱུ	-116
ཀྱི་	-117
ཡི	-118
ལྡ	-119
th	-120
ith	-121
▁they	-122
▁k	-123
ེད་པ	-124
སྐ	-125
གས་པ	-126
ཀྱི	-127
མ་པ	-128
ir	-129
སྟ	-130
ch	-131
ར་བ	-132
་དེ་	-133
ly	-134
▁one	-135
▁with	-136
ངས་	-137
འདི་	-138
▁y	-139
ིག་	-140
ha	-141
ཆུ	-142
ྱོ	-143
མི་	-144
ཏུ་	-145
▁ha	-146
us	-147
ill	-148
ི་བ	-149
རྣམས་	-150
ལ་བ	-151
ta	-152
་དག་	-153
im	-154
▁for	-155
▁བ	-156
ay	-157
ར་བྱ	-158
ght	-159
ོང་	-160
ན་ག	-161
▁are	-162
▁v	-163
ན་པ་	-164
གྲ	-165
▁su	-166
ers	-167
ཏེ་	-168
▁not	-169
་སེམས་	-170
ང་ཆུ	-171
གྱུར་	-172
▁you	-173
ོན་	-174
་དེ	-175
▁it	-176
ཅོ	-177
ིང་	-178
ར་འ	-179
དཔ	-180
▁bod	-181
ings	-182
ཆེ	-183
am	-184
ཉི	-185
id	-186
ྱེ	-187
ut	-188
་སེམས་དཔ	-189
▁this	-190
རྟ	-191
ud	-192
▁དེ་	-193
ལྡན་	-194
ེ་བཞི	-195
ri	-196
▁all	-197
att	-198
▁who	-199
ak	-200
་དག	-201
ས་བྱ	-202
ic	-203
ma	-204
ཆོས་	-205
རབ་	-206
ect	-207
ཡང་	-208
ation	-209
ས་ད	-210
▁an	-211
མེད་པ	-212
འ་	-213
▁will	-214
attv	-215
less	-216
ད་ད	-217
ཕྱི	-218
ble	-219
ཅོམ་	-220
ཅོམ་ལྡན་	-221
▁li	-222
ེད་	-223
ཅོམ་ལྡན་འད	-224
ཡོ	-225
ge	-226
his	-227
ང་ཆུབ	-228
▁con	-229
▁bodhis	-230
▁per	-231
མས་ཅ	-232
ཐམས་ཅ	-233
▁bodhisattv	-234
li	-235
ous	-236
ཞེ	-237
ere	-238
རི	-239
▁at	-240
ལ་པ	-241
ro	-242
ང་ཆུབ་སེམས་དཔ	-243
སེམས་	-244
ུང་	-245
འབ	-246
ས་སུ་	-247
ཡིན་	-248
འཇ	-249
ad	-250
ul	-251
དག་	-252
ུ་བ	-253
གྱི་	-254
སྙ	-255
▁se	-256
now	-257
ཡང་ད	-258
གི	-259
གང་	-260
har	-261
ོད་	-262
▁de	-263
གས	-264
▁do	-265
ཆེན་པ	-266
རྣམ་པ	-267
▁know	-268
ུང་བ	-269
ོ་བ	-270
སྤ	-271
ver	-272
ལྷ	-273
udd	-274
ཐམས་ཅད་	-275
▁beings	-276
▁fr	-277
འི་བ	-278
▁or	-279
▁ex	-280
reat	-281
གྱི	-282
ment	-283
▁have	-284
ངས་རྒྱ	-285
▁un	-286
one	-287
ཅོམ་ལྡན་འདས་	-288
▁no	-289
▁his	-290
ould	-291
qu	-292
ur	-293
▁budd	-294
འི	-295
▁bless	-296
་ར	-297
ན་དུ་	-298
ོན་པ	-299
▁sh	-300
▁blessed	-301
ག་པ་	-302
ོག་	-303
▁perf	-304
and	-305
མཆ	-306
ions	-307
▁there	-308
pt	-309
ུས་	-310
▁by	-311
མི	-312
མཐ	-313
ུན་	-314
▁from	-315
▁com	-316
བ་པ	-317
ོད་པ	-318
ཀྱང་	-319
ལས་	-320
ར་ར	-321
གཞ	-322
ose	-323
▁great	-324
st	-325
ལྟ་བ	-326
་སྟ	-327
གས་པ་	-328
pp	-329
▁man	-330
▁their	-331
མཁ	-332
ེ་བཞིན་ག	-333
གི་	-334
▁wor	-335
ེ་བཞིན་གཤེ	-336
▁perfect	-337
ོལ་	-338
ོགས་པ	-339
ive	-340
▁dhar	-341
ans	-342
ach	-343
ཉིད་	-344
ind	-345
་བ་	-346
ཇི་	-347
ate	-348
▁those	-349
སླ	-350
▁ab	-351
▁dis	-352
ci	-353
▁st	-354
um	-355
red	-356
འོ་་	-357
རྩ	-358
iv	-359
▁so	-360
མ་ད	-361
▁dharma	-362
▁དེ	-363
སངས་རྒྱ	-364
རྟེ	-365
led	-366
▁was	-367
གན	-368
▁bodhisattva	-369
མང	-370
tain	-371
ཡང་དག་པ	-372
དང་	-373
ྲུ	-374
ཅིག་	-375
ལྟར་	-376
ཀྱིས་	-377
་བྱང་ཆུབ་སེམས་དཔ	-378
སྦ	-379
▁sa	-380
▁j	-381
ཤེས་	-382
ence	-383
ure	-384
▁te	-385
སྒ	-386
il	-387
▁thus	-388
▁tr	-389
ཡོང	-390
ཅན་	-391
▁en	-392
ated	-393
ཞེས་བྱ	-394
ག་བ	-395
ྲི	-396
མ་བ	-397
ity	-398
▁them	-399
གཟ	-400
ond	-401
ས་སོ་་	-402
ར་འགྱུར་	-403
▁we	-404
ང་པ	-405
ུགས་	-406
▁when	-407
ine	-408
▁wis	-409
ter	-410
ome	-411
ies	-412
▁me	-413
est	-414
རྗ	-415
ke	-416
▁buddha	-417
▁ar	-418
au	-419
འཇིག་	-420
འི་ཚ	-421
ར་ད	-422
སྨ	-423
ple	-424
▁then	-425
os	-426
▁bec	-427
ྱོད་	-428
སྔ	-429
ff	-430
▁al	-431
འདུ	-432
འཇིག་རྟེ	-433
ོར་	-434
གིས་	-435
out	-436
ore	-437
ཕྱ	-438
ན་བ	-439
སྡ	-440
ཀྱི་བ	-441
རབ་ཏུ་	-442
རྣམ་པར་	-443
ant	-444
འི་ད	-445
སྐྱ	-446
ard	-447
ད་པ་	-448
ེ་བཞིན་གཤེགས་པ	-449
▁teach	-450
able	-451
▁should	-452
ཞིང་	-453
ས་པའི་	-454
ཐོ	-455
ledge	-456
ུལ་	-457
▁ma	-458
▁what	-459
མཚ	-460
▁up	-461
ther	-462
▁knowledge	-463
ath	-464
▁pre	-465
སངས་རྒྱས་	-466
རྒྱལ་པ	-467
ྫོགས་པ	-468
འ་བ	-469
ness	-470
ཤེས་པ་	-471
་དེ་དག་	-472
▁aw	-473
མེད་	-474
འཁ	-475
▁le	-476
▁em	-477
ཁམས་	-478
འདི	-479
▁sp	-480
gone	-481
འི་ཕྱི	-482
ist	-483
old	-484
མོ	-485
▁thusgone	-486
ip	-487
ཅེ	-488
▁him	-489
ར་པ	-490
▁ph	-491
ཆེན་པོ་	-492
ks	-493
མེད་པ་	-494
མ་པ་	-495
ame	-496
ིན་	-497
ར་གྱུར་	-498
has	-499
ood	-500
འགྲ	-501
ire	-502
ms	-503
rou	-504
hag	-505
ast	-506
▁real	-507
▁pra	-508
ཡོངས་སུ་	-509
▁world	-510
ong	-511
▁und	-512
མངོན་པ	-513
སྐྱེ	-514
ཅི	-515
ཚོ	-516
འཛ	-517
སྲ	-518
ར་རྫོགས་པ	-519
▁fe	-520
▁ne	-521
ཏོ་་	-522
▁mind	-523
ener	-524
འཇིག་རྟེན་	-525
ree	-526
▁like	-527
▁bodhisattvas	-528
our	-529
▁ac	-530
ུ་ད	-531
བས་	-532
ust	-533
་དང་ལྡ	-534
ཀུན་	-535
འཕ	-536
te	-537
ful	-538
ass	-539
▁trans	-540
ོང་བ	-541
ight	-542
av	-543
ord	-544
གཏ	-545
ཅིང་	-546
▁has	-547
▁mon	-548
▁tim	-549
▁qu	-550
ཕ་ར	-551
སྟེ་	-552
ue	-553
pl	-554
ེ་སླ	-555
light	-556
ཕ་རོལ་	-557
▁these	-558
ནས་ད	-559
་སྟེ་	-560
གྱིས་	-561
▁app	-562
▁if	-563
▁had	-564
ོའི་	-565
ཁྱོད་	-566
ཡིན་ན	-567
▁pro	-568
dom	-569
ནི	-570
▁how	-571
el	-572
ད་དུ་	-573
▁pr	-574
▁king	-575
ving	-576
▁unders	-577
ེ་བ་	-578
ེར་	-579
ན་གྱི	-580
tand	-581
▁whi	-582
འམ་	-583
སྣ	-584
ང་དུ་	-585
ities	-586
ནས་བ	-587
all	-588
▁inc	-589
ང་ཆུབ་	-590
ཡི་	-591
▁int	-592
▁res	-593
ac	-594
ish	-595
མཛ	-596
ད་དོ་་	-597
cend	-598
གཉི	-599
aken	-600
ana	-601
▁wisdom	-602
▁my	-603
ie	-604
ལ་ད	-605
འབྱ	-606
omen	-607
མཁྱེ	-608
▁were	-609
ུག་	-610
▁any	-611
ཤིང་	-612
ུམ་	-613
▁god	-614
གནས་	-615
▁act	-616
if	-617
me	-618
ས་སྨ	-619
ས་པར་	-620
▁understand	-621
nt	-622
so	-623
འདྲ	-624
▁transcend	-625
ཡིན་པ	-626
འ་སེམས་དཔ	-627
འ་སེམས་དཔའ་	-628
▁noble	-629
▁ro	-630
ད་དེ་	-631
ུ་བྱ	-632
་ན་	-633
▁being	-634
འཚ	-635
ཡང་དག་པར་རྫོགས་པ	-636
▁awaken	-637
རིགས་	-638
མྱ	-639
གྱུར་བ	-640
▁such	-641
cept	-642
ven	-643
ult	-644
མོ་	-645
▁son	-646
ཞིག་	-647
མཉ	-648
ཕ་རོལ་ཏུ་	-649
irt	-650
▁may	-651
▁sub	-652
und	-653
ལེ	-654
ལ་བ་	-655
ཤེས་པ	-656
▁attain	-657
et	-658
ེ་བཞིན་དུ་	-659
ུད་	-660
▁cons	-661
དང་་	-662
▁way	-663
▁said	-664
སྐད་	-665
ering	-666
enomen	-667
སེམས་ཅན་	-668
▁phenomen	-669
འོ་	-670
ice	-671
ཕ་རོལ་ཏུ་ཕྱི	-672
hi	-673
འི་ཕྱིར་	-674
▁time	-675
ance	-676
ེ་ན་	-677
ལམ་	-678
ཞེས་བྱ་བ	-679
ens	-680
འག	-681
▁ask	-682
གས་ས	-683
ake	-684
rough	-685
ཁྱེ	-686
ས་དང་	-687
ཁྱི	-688
▁other	-689
ུང་བ་	-690
▁through	-691
per	-692
་དབ	-693
ause	-694
ས་སྨྲ	-695
མཐོང་	-696
▁བཅོམ་ལྡན་འདས་	-697
▁pract	-698
▁sar	-699
ོག་པ	-700
ound	-701
▁ones	-702
ཁྲ	-703
ered	-704
ations	-705
ེའི་	-706
མ་དུ་	-707
▁transcendent	-708
▁phenomena	-709
pre	-710
▁without	-711
ig	-712
་བཞི	-713
ཀུ	-714
ངས་པ་	-715
་བྱང་ཆུབ་	-716
▁ent	-717
གྱུར་པ	-718
▁ri	-719
▁acc	-720
ag	-721
▁ele	-722
uct	-723
lighten	-724
iness	-725
▁enlighten	-726
▁buddhas	-727
▁perfection	-728
འ་ས	-729
ར་འགྱུར་ར	-730
ide	-731
་དང་་ས	-732
▁im	-733
orn	-734
ངོ་་	-735
ace	-736
▁go	-737
་དང་་བ	-738
སྟོང་	-739
ain	-740
ཆོ	-741
ara	-742
ེད་པ་	-743
▁cor	-744
ོར་བ	-745
་བྱེད་	-746
cious	-747
འདི་ལྟ	-748
rah	-749
ནི་བ	-750
སྤྱོ	-751
▁vener	-752
athag	-753
athagat	-754
▁lord	-755
▁tathagat	-756
ཐོས་	-757
enti	-758
སྦྱི	-759
▁see	-760
ད་བ	-761
ཕྲ	-762
ཏེ	-763
oy	-764
རྒྱལ་པོ་	-765
ག་ཏུ་	-766
▁fl	-767
fore	-768
སྒྲ	-769
sel	-770
ok	-771
ink	-772
▁form	-773
▁off	-774
ise	-775
གེ་སླ	-776
▁brah	-777
ོད་པ་	-778
▁four	-779
ན་པའི་	-780
▁gods	-781
ber	-782
་དང་ལྡན་པ་	-783
ང་པོ་	-784
▁am	-785
▁fo	-786
▁also	-787
▁your	-788
ེ་བའི་	-789
▁བྱ	-790
▁which	-791
ཅི་	-792
▁comple	-793
ཤིན་	-794
ཕྱོ	-795
▁into	-796
utra	-797
རིགས་ཀྱི་བ	-798
་དཔ	-799
rect	-800
གཞན་	-801
▁des	-802
གལ་	-803
▁empt	-804
ap	-805
ཚེ	-806
ུའི་	-807
ང་དག་	-808
མེ	-809
▁some	-810
མཆོག་	-811
iputra	-812
ol	-813
hold	-814
ལ་པ་	-815
▁thou	-816
▁rel	-817
▁r	-818
ངས་པ	-819
ར་མི་	-820
ouse	-821
leas	-822
▁correct	-823
མཆི	-824
rain	-825
▁forth	-826
▁can	-827
སྟོ	-828
ངོ་་་	-829
འི་བུ་	-830
oth	-831
un	-832
ཞེས་	-833
iz	-834
uti	-835
གཟུགས་	-836
▁house	-837
གཅིག་	-838
▁cond	-839
▁pow	-840
ཆོས་ཀྱི་	-841
age	-842
་དང་བ	-843
ཀའ་ས	-844
ཆེན་པོ	-845
▁but	-846
ར་འགྱུར་བ	-847
ེ་དག་	-848
ུར་	-849
▁would	-850
ཀའ་སྩ	-851
ལྷ་	-852
▁non	-853
▁pe	-854
ཞུ	-855
ual	-856
▁pleas	-857
ལུས་	-858
སྐད་ཅེ	-859
▁monks	-860
aught	-861
▁qual	-862
ཀྱིས་བ	-863
ྐྱེ	-864
སྨྲ	-865
ཞེ་ན་	-866
འགྱུར་	-867
▁element	-868
oss	-869
▁body	-870
pass	-871
▁nor	-872
ཇི་ལྟར་	-873
ཡིད་	-874
▁many	-875
end	-876
ཤེས་རབ་	-877
་ཏ	-878
ེ་བཞིན་གཤེགས་པ་	-879
འོད་	-880
ཐུ	-881
▁di	-882
ལགས་	-883
གཉིས་	-884
གས་སོ་་	-885
ature	-886
▁because	-887
undred	-888
▁hundred	-889
ངན་	-890
བ་པ་	-891
ང་བ་	-892
ousand	-893
གད	-894
ious	-895
▁thousand	-896
མེ་	-897
འབྲ	-898
ཞི་	-899
ཡིན་ནོ་་	-900
▁become	-901
མངོན་པར་	-902
▁qualities	-903
▁complete	-904
ེས་པ	-905
ཉོན་	-906
རྒྱ་	-907
འབྱོ	-908
irth	-909
ཁྱ	-910
ss	-911
▁out	-912
▁དེ་ནས་	-913
ng	-914
རྣམས་ཀྱི་	-915
ས་དེ་	-916
▁even	-917
▁her	-918
▁venerable	-919
▁rep	-920
སམ་	-921
ative	-922
▁thought	-923
entient	-924
སྟེ	-925
▁sim	-926
▁ag	-927
▁sentient	-928
▁af	-929
are	-930
མཁྱེན་	-931
མཚན་	-932
རབ་ཏ	-933
▁think	-934
▁nature	-935
ལོ	-936
ཟླ	-937
པོ་	-938
▁ob	-939
་དྲ	-940
འཇིག་རྟེན་གྱི་	-941
▁enlightenment	-942
རྗེ	-943
▁virt	-944
གསོལ་	-945
▁pres	-946
མ་ཡིན་	-947
▁path	-948
llow	-949
ུག་པ	-950
འདི་སྐད་ཅེ	-951
མད	-952
ite	-953
གས་བ	-954
ab	-955
▁poss	-956
འཆ	-957
▁household	-958
ར་དུ་	-959
▁suff	-960
ར་འགྱུར་རོ་་	-961
གྲ་བ	-962
▁awakening	-963
པ་	-964
འཛི	-965
▁just	-966
ys	-967
ory	-968
▁བདག་	-969
ཉོན་མོ	-970
ཅན་ད	-971
ons	-972
▁ad	-973
སྦྱ	-974
ort	-975
ནམ་	-976
རྒྱལ་	-977
ཁྲི	-978
▁med	-979
▁hum	-980
ical	-981
▁tw	-982
ན་པོ་	-983
ཙུ	-984
ེ་བར་	-985
▁after	-986
ལྔ	-987
གྲ་བཅོ	-988
ཡེ་	-989
▁correctly	-990
▁does	-991
▁now	-992
་དེ་ནི་	-993
▁དེ་བཞིན་དུ་	-994
བྱ	-995
ླ་ན་	-996
▁having	-997
འཁོར་	-998
ves	-999
▁bl	-1000
ས་སྟ	-1001
ཀྱི་ཕ་རོལ་ཏུ་ཕྱི	-1002
arly	-1003
▁asked	-1004
▁teaching	-1005
མས་པ	-1006
lied	-1007
ved	-1008
རྣམས་ལ་	-1009
ear	-1010
འདི་ནི་	-1011
▁ord	-1012
▁pl	-1013
ates	-1014
▁conc	-1015
ཇི་ལྟ་བ	-1016
▁lo	-1017
▁ཤ	-1018
vat	-1019
▁well	-1020
▁simil	-1021
min	-1022
འདི་དག་	-1023
ར་བྱེད་	-1024
འདུ་	-1025
▁ten	-1026
▁same	-1027
ུག་བ	-1028
སངས་རྒྱས་ཀྱི་	-1029
▁about	-1030
▁ind	-1031
ull	-1032
མ་ཟ	-1033
སོང་	-1034
ཁྱིམ་བ	-1035
▁end	-1036
ible	-1037
vel	-1038
▁understands	-1039
མག	-1040
་སྤ	-1041
ཤིན་ཏུ་	-1042
ཏིང་	-1043
ཚོགས་	-1044
ུག་བསྔ	-1045
གྱི་བ	-1046
▁bhag	-1047
▁practice	-1048
▁cl	-1049
▁bhagav	-1050
གྲ་བཅོམ་པ་	-1051
ays	-1052
ition	-1053
str	-1054
tin	-1055
▁wish	-1056
▁supre	-1057
▁follow	-1058
lud	-1059
སྙམ་དུ་	-1060
ོན་ན	-1061
་ར་ད	-1062
▁supreme	-1063
མེད་པའི་	-1064
pect	-1065
▁exist	-1066
▁sk	-1067
ds	-1068
▁mer	-1069
▁sha	-1070
▁གང་	-1071
▁emptiness	-1072
སུ་	-1073
▁aff	-1074
▁possess	-1075
ix	-1076
་ཏི	-1077
▁been	-1078
ླ་ན་མེད་པ་	-1079
རྙ	-1080
གསུ	-1081
ནས་བཅོམ་ལྡན་འདས་	-1082
ཡོངས་ས	-1083
fe	-1084
རྡ	-1085
▁br	-1086
▁rema	-1087
▁similarly	-1088
lict	-1089
▁taught	-1090
ཅུ་	-1091
་ར་དྭ	-1092
▁where	-1093
ཡང་དག་པར་	-1094
▁reg	-1095
ན་གྱི་	-1096
རབ་ཏུ་མཁྱེན་	-1097
ཆགས་	-1098
▁abs	-1099
འི་ཚེ་	-1100
urn	-1101
▁liber	-1102
་ར་དྭ་ཏི	-1103
ྲམ་ཟ	-1104
ciousness	-1105
huti	-1106
མྱ་	-1107
ན་པ་བ	-1108
▁sarad	-1109
▁saradvat	-1110
ཚེ་དང་ལྡན་པ་	-1111
▁saradvatiputra	-1112
རབ་འབྱོ	-1113
ཚེ་	-1114
ོས་པ	-1115
▁subhuti	-1116
▁རིགས་ཀྱི་བ	-1117
གླ	-1118
ཕྱོགས་	-1119
▁remain	-1120
▁householder	-1121
▁consciousness	-1122
▁replied	-1123
ཕྱག་	-1124
འཛིན་	-1125
རྫ	-1126
▁related	-1127
cell	-1128
ས་ཏེ་	-1129
▁three	-1130
ཤི	-1131
hat	-1132
▁tathagata	-1133
▁དེ་དག་	-1134
art	-1135
ཞུགས་	-1136
སྤྱ	-1137
སྙམ་	-1138
སྲི	-1139
▁བྱང་ཆུབ་སེམས་དཔ	-1140
འཇི	-1141
ཀླ	-1142
་་	-1143
▁sam	-1144
གས་སུ་	-1145
ན་དག	-1146
ount	-1147
▁suffering	-1148
ཅོམ་ལྡན་འདས་ད	-1149
རྣམ་	-1150
གཞོན་ན	-1151
ཅེས་བྱ	-1152
▁realms	-1153
essation	-1154
རང་	-1155
ར་བྱེ	-1156
▁free	-1157
ཅག་	-1158
ceiv	-1159
▁དགེ་སླ	-1160
ུ་དེ་	-1161
▁medit	-1162
▁ey	-1163
▁cessation	-1164
འཚལ་	-1165
▁att	-1166
གནས་པ	-1167
ཞེས་བྱ་བ་	-1168
་དེས་	-1169
ས་སྤ	-1170
་དང་་་	-1171
▁afflict	-1172
▁come	-1173
ར་བྱའོ་་	-1174
▁long	-1175
▁five	-1176
ince	-1177
ཁ་	-1178
▁why	-1179
▁arhat	-1180
ཚུལ་	-1181
འགྲོ་བ	-1182
▁its	-1183
གྲངས་	-1184
▁ill	-1185
ར་བྱ་བ	-1186
འི་བྱང་ཆུབ་	-1187
▁uns	-1188
ས་ནས་	-1189
▁eight	-1190
ན་་	-1191
thers	-1192
ར་བྱེད་པ	-1193
▁others	-1194
ན་གྱིས་	-1195
ied	-1196
ade	-1197
སོད་	-1198
▁fa	-1199
མྱ་ངན་	-1200
▁flow	-1201
cl	-1202
▁things	-1203
གས་པའི་	-1204
སྙིང་	-1205
ew	-1206
མེ་ཏ	-1207
ེ་བཞིན་གཤེགས་པས་	-1208
ལ་ཡང་	-1209
▁ins	-1210
ཇི་ལྟ་བ་བཞི	-1211
▁bhagavan	-1212
ཡང་དག་པ་	-1213
▁ver	-1214
▁known	-1215
ater	-1216
དེ་	-1217
ངེ་	-1218
སྙེ	-1219
▁young	-1220
▁nam	-1221
▁pers	-1222
▁brahmin	-1223
ཚི	-1224
མས་པ་	-1225
འི་སངས་རྒྱས་	-1226
ces	-1227
ཡེ་ཤེས་	-1228
▁conduct	-1229
སྐྱེ་བ	-1230
owed	-1231
་དགྲ་བཅོམ་པ་	-1232
མིག་	-1233
མ་མཆི	-1234
ན་པ་ལ་	-1235
རིན་པོ་	-1236
དག	-1237
▁present	-1238
གྲོ	-1239
ཐོབ་པ	-1240
འདོད་པ	-1241
▁ve	-1242
འོ	-1243
▁includ	-1244
ས་སྨྲས་པ་	-1245
ལོ་	-1246
▁spe	-1247
ས་བུ་	-1248
ོག་པ་	-1249
▁manif	-1250
འི་དུས་	-1251
ཆོས་ཐམས་ཅད་	-1252
▁sen	-1253
▁words	-1254
▁gener	-1255
་དགའ་བ	-1256
གཙ	-1257
ཏིང་ངེ་	-1258
▁root	-1259
gn	-1260
gin	-1261
▁she	-1262
ign	-1263
▁el	-1264
▁light	-1265
▁did	-1266
▁co	-1267
ཤིག་	-1268
sh	-1269
▁manifest	-1270
▁ra	-1271
igh	-1272
ོགས་	-1273
མི་བ	-1274
ཡོན་	-1275
▁ལྷ	-1276
ནས་ས	-1277
་སྟེ	-1278
ase	-1279
ished	-1280
thing	-1281
ཡིན་ནོ་	-1282
wn	-1283
ད་དོ་	-1284
ན་དང་་	-1285
▁past	-1286
་དགེ་སླ	-1287
own	-1288
▁gu	-1289
▁po	-1290
self	-1291
ither	-1292
་བརྒྱ	-1293
ས་་	-1294
umer	-1295
▁བཙུ	-1296
ོག	-1297
ry	-1298
མའི་	-1299
▁ment	-1300
ments	-1301
སུ	-1302
སྡུག་བསྔ	-1303
▁therefore	-1304
ཡུལ་	-1305
▁whe	-1306
གསུམ་	-1307
▁call	-1308
མཐོང་བ	-1309
སྤྱོད་པ	-1310
ང་དང་	-1311
དེ	-1312
གཤེ	-1313
▁ref	-1314
▁away	-1315
ཉན་	-1316
tab	-1317
ཆེ་	-1318
▁mo	-1319
▁div	-1320
▁realm	-1321
པལ་	-1322
ཁྱེའ	-1323
▁made	-1324
ྐྱ	-1325
▁lead	-1326
▁six	-1327
ལས་འད	-1328
anda	-1329
མཐའ་	-1330
ati	-1331
▁gr	-1332
ally	-1333
▁merit	-1334
ཉེ	-1335
མི་བྱ	-1336
▁desire	-1337
▁om	-1338
ph	-1339
ནམས་	-1340
▁say	-1341
▁equ	-1342
▁heard	-1343
ནམ་མཁ	-1344
aus	-1345
int	-1346
ཉི་	-1347
ared	-1348
ན་བྱ	-1349
སེམས་ཅན་ད	-1350
ང་པོ	-1351
▁power	-1352
we	-1353
རྣམ་པ་	-1354
▁including	-1355
▁pure	-1356
ཀའ་སྩལ་པ་	-1357
ors	-1358
▁dev	-1359
▁disci	-1360
▁joy	-1361
rib	-1362
ན་ལ	-1363
▁completely	-1364
ཏུ་བ	-1365
ayana	-1366
▁ever	-1367
སེ	-1368
ར་གྱུར་ཏོ་་	-1369
འབྱུང་བ	-1370
▁ཤ་ར་དྭ་ཏི	-1371
▁sens	-1372
ར་བ་	-1373
▁upon	-1374
▁birth	-1375
▁two	-1376
illed	-1377
▁make	-1378
ྲུལ་	-1379
རྣམས་དང་་	-1380
ེ་བཞིན་	-1381
▁virtue	-1382
rav	-1383
སྟན་	-1384
▁means	-1385
▁phys	-1386
urpass	-1387
སྒྲུ	-1388
▁unsurpass	-1389
་དགེ་	-1390
▁disc	-1391
▁life	-1392
▁more	-1393
འདི་ལྟ་སྟེ་	-1394
ty	-1395
སྦྱོ	-1396
སྙམ་དུ་སེམས་	-1397
ས་སོ་	-1398
སྨི	-1399
verse	-1400
tra	-1401
ངོས་པ	-1402
▁rec	-1403
ོང་ད	-1404
▁went	-1405
སོད་ནམས་	-1406
ior	-1407
▁high	-1408
་དང་་ད	-1409
▁discipl	-1410
ས་དང་་	-1411
▁before	-1412
▁རབ་འབྱོ	-1413
ང་བཞི	-1414
▁དེ་ནས་ད	-1415
ef	-1416
▁over	-1417
ary	-1418
ཕྱག་འཚལ་	-1419
་མ་	-1420
▁happ	-1421
ས་བཅོམ་ལྡན་འདས་	-1422
lf	-1423
pen	-1424
སྐྱོ	-1425
▁train	-1426
འདོད་	-1427
▁jew	-1428
▁manj	-1429
ར་འཇ	-1430
▁never	-1431
གསོ	-1432
▁called	-1433
གྱུར་པ་	-1434
སྟོང་པ་	-1435
གང་ཡིན་པ	-1436
འདུག་	-1437
འཇམ་ད	-1438
▁hand	-1439
ཕུང་	-1440
▁reb	-1441
reh	-1442
རྒྱལ་པོ	-1443
hood	-1444
གནས་པ་	-1445
▁manjus	-1446
ུ་བཅ	-1447
་དེའི་	-1448
ན་པར་	-1449
རླ	-1450
ཁྱིམ་བདག་	-1451
ལ་འདི་སྐད་ཅེ	-1452
ern	-1453
oun	-1454
▁shall	-1455
yond	-1456
ཕྱི་	-1457
▁kind	-1458
ཀུན་དག	-1459
▁among	-1460
▁beyond	-1461
▁ག	-1462
ཐེ	-1463
▁manjusri	-1464
▁pass	-1465
▁uni	-1466
ད་དང་་	-1467
ལ་ས	-1468
▁san	-1469
ཉན་ཐོས་	-1470
ྱིན་	-1471
ག་པའི་	-1472
སྟོན་	-1473
▁jewel	-1474
ཆོས་བ	-1475
▁neither	-1476
ཁྲིམས་	-1477
ward	-1478
སུམ་	-1479
ལ་བའི་	-1480
▁within	-1481
སྙོ	-1482
ཏེ་་	-1483
ན་དང་	-1484
པོ	-1485
les	-1486
སྤྱོད་པ་	-1487
ཡོན་ཏ	-1488
ject	-1489
བ་བ	-1490
▁forms	-1491
mb	-1492
ོ་བོ་	-1493
རྨ	-1494
ants	-1495
རྗེས་སུ་	-1496
utes	-1497
▁ear	-1498
གང་ཞེ་ན་	-1499
ཇི་ལྟ་བ་བཞིན་	-1500
iding	-1501
མ་ཡི	-1502
▁chi	-1503
ges	-1504
ལྟ་བུ་	-1505
▁excell	-1506
ople	-1507
▁fac	-1508
སྦྱར་	-1509
སྒོ	-1510
གལ་ཏེ་	-1511
ཡང་བ	-1512
ན་དེ་	-1513
▁while	-1514
▁humans	-1515
ཕྱིར་	-1516
▁char	-1517
▁child	-1518
ལུ	-1519
ever	-1520
གོ་་	-1521
▁stre	-1522
rif	-1523
རྩོན་	-1524
▁full	-1525
▁མ	-1526
འདི་ལྟར་	-1527
vana	-1528
ནི་ད	-1529
སྒྱ	-1530
ག་ད	-1531
▁mental	-1532
▁existence	-1533
་སྟོང་	-1534
མེ་ཏོག་	-1535
▁respect	-1536
▁pal	-1537
ོན་པ་	-1538
▁actions	-1539
ེ་བའི་རྩ	-1540
་དང་ལྡན་པ	-1541
ས་ན་	-1542
སྐལ་པ	-1543
▁hear	-1544
ched	-1545
རང་བཞི	-1546
▁physical	-1547
རྒ	-1548
▁born	-1549
འབྱུང་	-1550
ways	-1551
སམ་གཏ	-1552
▁accom	-1553
▁offer	-1554
act	-1555
▁good	-1556
རྣམས་ཀྱིས་	-1557
མ་ཡིན་པ	-1558
▁excellent	-1559
▁person	-1560
▁every	-1561
▁people	-1562
▁universe	-1563
ཉོན་མོངས་པ་	-1564
གོས་	-1565
▁caus	-1566
མངོན་	-1567
▁dire	-1568
med	-1569
aks	-1570
other	-1571
▁sak	-1572
▁direct	-1573
▁flowers	-1574
▁named	-1575
ས་ཀྱི་	-1576
གཟུ	-1577
uous	-1578
▁mahas	-1579
ack	-1580
ira	-1581
▁absor	-1582
▁roots	-1583
▁tathagatas	-1584
དག་ཅག་	-1585
ཏེ་བ	-1586
ར་འགྱུར་་	-1587
ེས་	-1588
མ་ཐ	-1589
▁doct	-1590
aj	-1591
▁give	-1592
མིང་	-1593
འི་དབ	-1594
ship	-1595
aly	-1596
▁pur	-1597
ating	-1598
▁meditative	-1599
སོ་	-1600
▁divine	-1601
མ་པའི་	-1602
ts	-1603
iew	-1604
གཟི	-1605
fin	-1606
ུལ་བ	-1607
ར་རོ་་	-1608
སྤྱོད་	-1609
ya	-1610
ལགས་སོ་་	-1611
▁feel	-1612
▁view	-1613
གས་སོ་	-1614
ཉེ་བར་	-1615
ང་ཆུབ་སེམས་དཔའ་	-1616
▁times	-1617
ཆེན་པོའི་	-1618
ཀུན་དགའ་བ	-1619
▁could	-1620
▁ananda	-1621
▁comp	-1622
མེད་པར་	-1623
▁eng	-1624
ep	-1625
illion	-1626
▁buddhahood	-1627
▁སེམས་ཅན་	-1628
དུད་	-1629
མ་བྱ	-1630
་བའི་	-1631
་དེ་ལ་	-1632
་དམི	-1633
ཅིང་་	-1634
ེ་བཞིན་ད	-1635
རྐ	-1636
འབྱུང་བ་	-1637
op	-1638
ཙམ་	-1639
ུ་བྱུང་	-1640
itt	-1641
ཏང་	-1642
▁nir	-1643
ར་བགྱི	-1644
▁right	-1645
▁lot	-1646
ཏོ་	-1647
▁tre	-1648
▁very	-1649
རིག་པ	-1650
▁es	-1651
▁diff	-1652
▁practic	-1653
osity	-1654
▁doctr	-1655
▁facult	-1656
་དེ་དག	-1657
འདི་ལ་	-1658
དག་གིས་	-1659
ཀྱང་བ	-1660
▁delight	-1661
ཆེན་	-1662
ཚུལ་ཁྲིམས་	-1663
ནང་	-1664
▁ori	-1665
itions	-1666
▁order	-1667
ངས་པའི་	-1668
ick	-1669
▁giv	-1670
ང་བྱ	-1671
ར་བྱ་	-1672
▁དེ་ལ་	-1673
udg	-1674
འཁོ	-1675
▁dr	-1676
▁fru	-1677
▁sangh	-1678
ངོས་པོ་	-1679
▁origin	-1680
ནུ	-1681
app	-1682
struct	-1683
▁lotus	-1684
▁tru	-1685
▁here	-1686
ུར་བ	-1687
▁take	-1688
ལེགས་པ	-1689
རྩོན་འགྲ	-1690
▁ben	-1691
▁ཆོས་	-1692
▁death	-1693
གེ་	-1694
isci	-1695
ཤེས་པ་འག	-1696
▁precious	-1697
gre	-1698
་དེར་	-1699
▁eons	-1700
ས་སེམས་	-1701
ཡོངས་སུ་བ	-1702
འ་བ་	-1703
▁toward	-1704
entr	-1705
passion	-1706
ློ་	-1707
▁self	-1708
selves	-1709
▁mahasattv	-1710
▁saw	-1711
ཀུན་ཏུ་	-1712
སྡུག་བསྔལ་	-1713
གྲོང་	-1714
▁unsurpassed	-1715
enu	-1716
▁mar	-1717
་དགེ་སློང་	-1718
ེ་མ	-1719
▁seat	-1720
སྟན་པ་	-1721
▁omn	-1722
▁wond	-1723
ield	-1724
ན་དག་	-1725
གིས་བ	-1726
ave	-1727
▁monk	-1728
ྲུག་	-1729
▁down	-1730
▁omnisci	-1731
ན་པ་དང་་	-1732
སྟོན་པ	-1733
asy	-1734
▁brahma	-1735
ཀ་	-1736
▁generosity	-1737
here	-1738
▁regard	-1739
ྲང་	-1740
▁དེའི་	-1741
▁har	-1742
▁attained	-1743
ལོ་་	-1744
▁state	-1745
ག་བྱ	-1746
▁day	-1747
▁us	-1748
▁percept	-1749
ex	-1750
▁exper	-1751
▁var	-1752
མྱ་ངན་ལས་འད	-1753
ེར་ན་	-1754
རི་	-1755
udgaly	-1756
▁please	-1757
ཐབས་	-1758
་དང་ད	-1759
▁compassion	-1760
ཡོད་	-1761
▁dre	-1762
ཡིན་ཏེ་	-1763
ལ་བྱ	-1764
▁sound	-1765
་ཚོགས་	-1766
▁head	-1767
ention	-1768
ཁོ་	-1769
udgalyayana	-1770
ཐམས་ཅད་མཁྱེ	-1771
lig	-1772
alth	-1773
round	-1774
ཀྱང་ད	-1775
▁genu	-1776
▁absorpt	-1777
▁accompl	-1778
ད་གལ་	-1779
▁genuine	-1780
▁must	-1781
རྗེ་	-1782
▁own	-1783
དེ་བ	-1784
་རི	-1785
ད་གལ་གྱི་བ	-1786
▁རིགས་ཀྱི་བུ་	-1787
ོབ	-1788
▁lim	-1789
རྣམ་གྲངས་	-1790
▁atta	-1791
▁concentr	-1792
▁doctrine	-1793
ided	-1794
མཆོད་	-1795
ced	-1796
ོང་དག་	-1797
▁benef	-1798
ཚིག་	-1799
▁asp	-1800
▁powers	-1801
▁sensory	-1802
▁bea	-1803
aster	-1804
▁perfectly	-1805
its	-1806
▁ext	-1807
སྟོབ	-1808
▁par	-1809
▁ripen	-1810
▁themselves	-1811
▁eyes	-1812
▁dist	-1813
▁water	-1814
ོན་ད	-1815
འཇམ་དཔལ་	-1816
▁sand	-1817
▁vi	-1818
ཞིན་དུ་	-1819
ཅིའི་ཕྱིར་	-1820
མངོན་སུ	-1821
གཡ	-1822
ily	-1823
ད་པའི་	-1824
ize	-1825
ནི་་	-1826
cul	-1827
man	-1828
ྲི་	-1829
ཡན་ལ	-1830
▁nirvana	-1831
▁fam	-1832
▁set	-1833
▁mira	-1834
▁vis	-1835
ributes	-1836
▁list	-1837
ial	-1838
▁sc	-1839
▁since	-1840
▁ཇི་ལྟར་	-1841
ས་གསོལ་	-1842
གཅིག་ཏུ་	-1843
ལྟ་	-1844
▁yet	-1845
▁བཙུན་པ་བ	-1846
▁nag	-1847
གཅི	-1848
▁too	-1849
འི་ཚེ	-1850
ལྟ་བུ	-1851
མངོན་པར་རྫོགས་པ	-1852
wise	-1853
▁feet	-1854
vers	-1855
འདུ་བྱེད་	-1856
▁awakened	-1857
▁ser	-1858
▁reve	-1859
▁count	-1860
འཕྲུལ་	-1861
▁seven	-1862
སྨིན་པ	-1863
འདི་ལྟ་སྟེ	-1864
གི་བ	-1865
ཆུང་	-1866
འདུ་ཤེ	-1867
▁srav	-1868
སྐྱེད་པ	-1869
ལག་	-1870
▁prot	-1871
▁attributes	-1872
མཁས་པ	-1873
སྣང་བ	-1874
▁listen	-1875
▁abiding	-1876
གང་དག་	-1877
རྒྱུ	-1878
ར་འཚ	-1879
ར་བྱའོ་	-1880
▁whether	-1881
ལས་བ	-1882
རྒྱུ་	-1883
ཁ་ཅིག་	-1884
▁entire	-1885
▁food	-1886
apa	-1887
འི་བུ	-1888
▁consid	-1889
ཐོབ་	-1890
ོགས་པ་	-1891
▁imp	-1892
▁sat	-1893
་དྲི་	-1894
མཆོད་པ	-1895
▁rest	-1896
ཀྱིས་ད	-1897
▁always	-1898
tabl	-1899
ཀྱི་དབ	-1900
རྟེན་	-1901
ཆོས་རྣམས་	-1902
ཏིང་ངེ་འཛིན་	-1903
▁sangha	-1904
་སྐྱེ	-1905
ག་ལ་བ	-1906
▁establ	-1907
་སངས་རྒྱ	-1908
ཞེས་བྱ་བ་བ	-1909
ths	-1910
མི་དམི	-1911
adhi	-1912
ner	-1913
གྲུ	-1914
joy	-1915
ད་པར་	-1916
འཁོར་བ	-1917
▁accord	-1918
▁ut	-1919
▁discipline	-1920
རྒྱལ་པོའི་	-1921
དུ	-1922
▁hell	-1923
▁maha	-1924
▁appro	-1925
▁dest	-1926
ོང་དུ་	-1927
▁dilig	-1928
ད་དང་	-1929
ངས་སྤ	-1930
་དེ་ལྟར་	-1931
▁protect	-1932
hic	-1933
ངས་ཏེ་	-1934
རིན་པོ་ཆེ	-1935
▁fri	-1936
illions	-1937
ག་བརྒྱ	-1938
▁maudgalyayana	-1939
▁བཅོམ་ལྡན་འདས་ད	-1940
འགྱུར་བ	-1941
ཁྲག་	-1942
སྒྲ་	-1943
ཅུ	-1944
གཡོ	-1945
ained	-1946
aking	-1947
ོམ་	-1948
ལ་དུ་	-1949
འཐུ	-1950
semb	-1951
རྒྱལ་བ	-1952
ཤེས་པའི་	-1953
ྗེ	-1954
▁ཁྱིམ་བདག་	-1955
▁vehic	-1956
ountain	-1957
▁gar	-1958
▁མི་	-1959
▁disp	-1960
མཁས་པ་	-1961
་སྣ	-1962
▁fore	-1963
▁mountain	-1964
ྦྱི	-1965
ents	-1966
irst	-1967
ather	-1968
ལས་བྱ	-1969
ལོངས་སྤ	-1970
up	-1971
ras	-1972
ཟང་	-1973
asyapa	-1974
▁omniscience	-1975
མར་	-1976
▁sing	-1977
arn	-1978
▁sy	-1979
ན་ཅིག་	-1980
▁aspir	-1981
▁than	-1982
▁wealth	-1983
ཞིང་་	-1984
རྒྱ་བ	-1985
སྟན་པ	-1986
▁enlightened	-1987
bha	-1988
lly	-1989
ཆུ་	-1990
ིལ་	-1991
ར་འབྱ	-1992
▁bring	-1993
lt	-1994
▁minds	-1995
well	-1996
རེ་	-1997
▁came	-1998
lessness	-1999
མཛད་	-2000
ས་ལ་	-2001
ཕྱིན་	-2002
སྲུང་	-2003
▁ཤ་ར་དྭ་ཏིའི་བུ་	-2004
▁ang	-2005
ized	-2006
ར་བྱེད་པ་	-2007
▁sariputra	-2008
ཞི་བ	-2009
གྱིས་མི་	-2010
ik	-2011
▁aband	-2012
▁empty	-2013
▁incon	-2014
▁sense	-2015
umerous	-2016
་དང་ལྡན་	-2017
ཀྱེ་	-2018
▁numerous	-2019
ཐམས་ཅད་མཁྱེན་པ་	-2020
over	-2021
ོང་བ་	-2022
▁genuinely	-2023
རྐྱེ	-2024
གེ་སློང་	-2025
▁following	-2026
ཐམས་ཅད་ཀྱི་	-2027
▁sons	-2028
▁place	-2029
▁ess	-2030
▁let	-2031
ཇི་སྙ	-2032
▁hold	-2033
▁appreh	-2034
▁gold	-2035
ute	-2036
▁each	-2037
▁འདི་	-2038
ངས་པར་	-2039
▁inconceiv	-2040
▁obs	-2041
▁fear	-2042
རྟག་ཏུ་	-2043
མཉམ་པ	-2044
གས་སུ་བཅ	-2045
not	-2046
་དགའ་	-2047
ལ་ནི་	-2048
▁sign	-2049
▁དེས་	-2050
▁insight	-2051
སྐྱེད་	-2052
ཉིད་ཀྱི་	-2053
iss	-2054
▁liberation	-2055
▁name	-2056
ར་བྱེད་དོ་་	-2057
▁dep	-2058
ོན་དུ་	-2059
ང་བྲ	-2060
འདྲེ	-2061
▁samadhi	-2062
དག་གི་	-2063
▁abandon	-2064
ཤི་	-2065
ས་པ་དང་་	-2066
▁ce	-2067
ོ་བ་	-2068
▁hom	-2069
ངེས་པ	-2070
ཞེས་བ	-2071
གོ་	-2072
ssed	-2073
ala	-2074
▁tra	-2075
མངོན་སུམ་ད	-2076
▁unt	-2077
▁creat	-2078
སྨྲས་པ་	-2079
▁endowed	-2080
▁rebirth	-2081
▁offerings	-2082
▁sage	-2083
ང་དང་་	-2084
▁wonder	-2085
རབ་ཏུ་བྱུང་	-2086
▁enjoy	-2087
eds	-2088
ility	-2089
▁dwell	-2090
འི་ཚི	-2091
▁const	-2092
ར་འགྱུར་རོ་	-2093
ཚད་	-2094
▁དེ་ནི་	-2095
ངོ་	-2096
ceive	-2097
ft	-2098
མཐའ་ཡ	-2099
འདུན་	-2100
འདོད་པ་	-2101
ics	-2102
ears	-2103
ck	-2104
▁དག	-2105
▁inv	-2106
ུག་པ་	-2107
མེད་་	-2108
སྦྱིན་པ	-2109
ོན་གྱི་	-2110
▁absorption	-2111
amb	-2112
ཐེག་པ་	-2113
▁concentration	-2114
འདི་བ	-2115
ུ་འཕྲུལ་	-2116
▁arm	-2117
ertain	-2118
མེད་པ་དང་་	-2119
ལ་་	-2120
▁sac	-2121
▁assemb	-2122
▁became	-2123
▁peace	-2124
ར་འགྱུར་བའི་	-2125
▁anything	-2126
▁likewise	-2127
ang	-2128
ནམ་མཁའ་	-2129
ྒྲ	-2130
སྟོབས་	-2131
ཅེས་བྱ་བ	-2132
ཞུགས་ཏེ་	-2133
gether	-2134
▁kasyapa	-2135
ཞབས་	-2136
▁only	-2137
▁level	-2138
འབྲས་བུ་	-2139
ུ་བ་	-2140
གནོད་	-2141
▁expl	-2142
▁ཁྱོད་	-2143
ལྕ	-2144
▁ter	-2145
▁turn	-2146
ནང་དུ་	-2147
རྒྱ་མཚ	-2148
▁once	-2149
སྦྱར་ཏེ་	-2150
ཞེས་བྱའོ་་	-2151
▁remaining	-2152
ising	-2153
འདིར་	-2154
▁happiness	-2155
▁དེ་བཞིན་གཤེགས་པ	-2156
▁cause	-2157
ཡོད་དེ་	-2158
▁thousands	-2159
mon	-2160
རིང་	-2161
▁contin	-2162
▁དེ་ཅིའི་ཕྱིར་	-2163
རྗོད་པ	-2164
ura	-2165
▁sta	-2166
▁skill	-2167
རྣམས་དང་	-2168
▁teacher	-2169
▁moreover	-2170
རབ་ཏུ་མཁྱེན་ཏོ་་	-2171
thy	-2172
▁low	-2173
erses	-2174
utiful	-2175
▁together	-2176
▁beautiful	-2177
▁ch	-2178
▁mere	-2179
་དག་བ	-2180
▁took	-2181
▁མད་གལ་གྱི་བ	-2182
▁bas	-2183
ཟེ	-2184
དེ་བ་	-2185
▁equal	-2186
ས་གསོལ་ཏོ་་	-2187
་སྙ	-2188
▁fire	-2189
▁space	-2190
▁experi	-2191
▁living	-2192
▁vehicle	-2193
གྱིས་མི་ཁྱ	-2194
སམ་གྱིས་མི་ཁྱ	-2195
ཏུ	-2196
ཟོད་པ	-2197
ར་མི་འགྱུར་	-2198
ག་པར་	-2199
ཇི་ལྟ	-2200
ནས་བྱ	-2201
▁going	-2202
ཕུང་པོ་	-2203
རྣམ་པར་ད	-2204
▁mean	-2205
མང་པོ་	-2206
▁རབ་འབྱོར་	-2207
▁pu	-2208
ར་རྗེ	-2209
▁concern	-2210
ང་བཅ	-2211
སྐྱེ་བ་	-2212
▁family	-2213
cc	-2214
སྔོ	-2215
ས་སྟོང་	-2216
ired	-2217
▁sol	-2218
ག་དང་	-2219
▁gate	-2220
ཞེ་	-2221
▁fut	-2222
▁cannot	-2223
▁prince	-2224
འདི་ལྟ་སྟེ་དཔ	-2225
ste	-2226
▁eye	-2227
ཚོར་བ	-2228
▁vo	-2229
ཞིང་ད	-2230
▁future	-2231
▁instruct	-2232
▁ev	-2233
ལ་ཕྱག་འཚལ་	-2234
ཀྱི་ད	-2235
ཁྱེད་	-2236
ྲང་སྲ	-2237
ཆེན་པོ་བ	-2238
་དགེ་བའི་རྩ	-2239
རབ	-2240
ile	-2241
ནས་་	-2242
ལྷའི་	-2243
▁av	-2244
▁conv	-2245
་དང་བཅ	-2246
རེ	-2247
ures	-2248
▁arri	-2249
▁aggre	-2250
འོད་སྲུང་	-2251
སྟོང་པ་ཉིད་	-2252
ལུང་བ	-2253
▁vict	-2254
▁བཅོམ་ལྡན་འད	-2255
▁ign	-2256
▁our	-2257
ཡོད་པ	-2258
▁concept	-2259
▁ho	-2260
ནོར་བ	-2261
ུང་སྟེ་	-2262
འདོད་ཆགས་	-2263
▁ret	-2264
ོ་ཞིང་	-2265
▁adorn	-2266
ཇི་སྙམ་དུ་སེམས་	-2267
imal	-2268
ལན་ག	-2269
▁bodies	-2270
▁streng	-2271
ཚིགས་སུ་བཅ	-2272
རྩོན་འགྲུས་	-2273
མངོན་སུམ་དུ་བྱ	-2274
སྒོ་	-2275
▁ordin	-2276
▁eman	-2277
▁none	-2278
ཉིད་དུ་	-2279
▁single	-2280
ཅུ་རྩ	-2281
▁cast	-2282
▁kinds	-2283
▁apprehend	-2284
འང་	-2285
▁wr	-2286
▁heav	-2287
▁senior	-2288
▁diligence	-2289
▁དགེ་སློང་དག་	-2290
▁cle	-2291
▁wom	-2292
▁accept	-2293
ལ་མི་	-2294
་མ	-2295
མདོ་	-2296
རང་གི་	-2297
▁teachings	-2298
ན་ཡང་	-2299
▁friend	-2300
གྲོང་ཁྱེ	-2301
▁engage	-2302
ཀྱིས་བཀའ་སྩལ་པ་	-2303
akas	-2304
▁str	-2305
▁faith	-2306
▁might	-2307
རྡོ་	-2308
ུ་མ་	-2309
▁prof	-2310
ཀའ་སྩལ་	-2311
ཡིས་	-2312
▁feelings	-2313
ying	-2314
གཟིགས་	-2315
row	-2316
▁charact	-2317
▁first	-2318
▁character	-2319
hiks	-2320
▁purif	-2321
▁attach	-2322
pan	-2323
▁bhiks	-2324
▁accomplish	-2325
yed	-2326
ང་བའི་	-2327
▁super	-2328
▁homage	-2329
▁jewels	-2330
ར་གྱིས་	-2331
▁object	-2332
▁ach	-2333
ཀུན་ནས་	-2334
འདུ་ཤེས་	-2335
eared	-2336
སྔགས་	-2337
རང་བཞིན་	-2338
▁master	-2339
▁mindful	-2340
མངོན་པར་བ	-2341
ཀྲ	-2342
སྲོག་	-2343
ངོ་བོ་	-2344
▁achie	-2345
ཅན་ག	-2346
ཡོངས་སུ་ད	-2347
ཕུན་	-2348
▁kar	-2349
tern	-2350
ཀུན་འབྱུང་བ་	-2351
ག་དང་་	-2352
རྣམས་ནི་	-2353
▁འཇམ་དཔལ་	-2354
▁worthy	-2355
ised	-2356
ཁྲི་	-2357
▁ignor	-2358
▁aggreg	-2359
erent	-2360
ཕྱུག་	-2361
འདས་པ	-2362
▁limit	-2363
▁various	-2364
ལ་ཆོས་	-2365
tally	-2366
hing	-2367
ཁྱིམ་	-2368
▁totally	-2369
གོ	-2370
ནས་ཀྱང་	-2371
ཕུན་སུམ་	-2372
ྲམ་ཟེའི་	-2373
reed	-2374
ས་སམ་	-2375
▁appear	-2376
འོག་	-2377
▁car	-2378
མེད་དོ་་	-2379
▁sec	-2380
གཞོན་ནུ་	-2381
ར་རྗེས་སུ་	-2382
▁spir	-2383
ili	-2384
ལྷན་ཅིག་	-2385
▁due	-2386
▁dream	-2387
ita	-2388
tend	-2389
▁oce	-2390
གང་གི་	-2391
▁leads	-2392
▁reach	-2393
རྣམ་པར་ཤེས་པའི་	-2394
▁beg	-2395
▁human	-2396
འགྱུར་་	-2397
ུང་བའི་	-2398
་དགེ་བ	-2399
▁understanding	-2400
▁mis	-2401
▁virtuous	-2402
va	-2403
▁conf	-2404
རྟོག་པ	-2405
ར་བྱ་བ་	-2406
ཁྱིམ་བདག	-2407
▁rob	-2408
▁comm	-2409
ྲམ་ཟེ་	-2410
▁again	-2411
▁another	-2412
▁thoughts	-2413
འི་བྱང་ཆུབ་ཏུ་	-2414
▁worlds	-2415
▁tree	-2416
ན་གྱིས་བ	-2417
ཕྱིར་མི་	-2418
▁someone	-2419
སྤྱན་	-2420
རྣམས་བ	-2421
རྣམ་པར་ཤེས་པ་	-2422
དུན་	-2423
ད་དེ	-2424
▁exam	-2425
▁part	-2426
་དང་མི་	-2427
འགྲོ་བ་	-2428
ཏིང་ངེ་འཛི	-2429
ime	-2430
ཁྱེའུ་	-2431
▁inn	-2432
▁directions	-2433
▁gave	-2434
▁inde	-2435
▁filled	-2436
མོ་་	-2437
་པོ	-2438
ense	-2439
ལྡན་པ་	-2440
▁learn	-2441
རྫོགས་པ	-2442
▁sw	-2443
▁look	-2444
▁trees	-2445
ཐར་པ	-2446
འདབ་	-2447
ultiv	-2448
ེ་མཆེ	-2449
oc	-2450
itual	-2451
ལ་བར་	-2452
ication	-2453
▁meaning	-2454
ནད་	-2455
pos	-2456
མུ་	-2457
སྐྲ	-2458
▁num	-2459
▁benefit	-2460
▁དེ་ལྟར་	-2461
▁ir	-2462
imate	-2463
▁prev	-2464
▁consider	-2465
ined	-2466
ཞིང་བ	-2467
▁kings	-2468
▁himself	-2469
་སེམས་ཅན་	-2470
ཀུན་དགའ་བོ་	-2471
llect	-2472
མ་དང་	-2473
རབ་ཏུ་མཁྱེན་ཏེ་	-2474
finite	-2475
ཀྱི་བར་	-2476
རབ་ཏུ་བ	-2477
ང་ག	-2478
ནོ་་	-2479
སྤངས་	-2480
▁moon	-2481
fold	-2482
ང་ལ་	-2483
རིན་	-2484
▁lower	-2485
ཕན་	-2486
velop	-2487
▁heaven	-2488
རྫུ་འཕྲུལ་	-2489
▁mahasattva	-2490
འགྲོ་	-2491
▁wise	-2492
ཡོན་ཏན་	-2493
ཉིད་དང་་	-2494
གཉེ	-2495
རྟག་	-2496
ོངས་	-2497
ས་པ་བ	-2498
ཆོས་སྟ	-2499
འི་ཚུལ་	-2500
▁sit	-2501
▁gone	-2502
དེ་བར་	-2503
བ་པའི་	-2504
ཡོད་པ་	-2505
ལྟ་བུའི་	-2506
▁དེའི་ཚེ་	-2507
ata	-2508
སྡེ་	-2509
མཉམ་པ་	-2510
▁སངས་རྒྱ	-2511
▁city	-2512
ར་དང་་	-2513
▁innumer	-2514
ལས་ད	-2515
▁emot	-2516
▁different	-2517
ཚེ་དང་ལྡན་པ་ཤ	-2518
ech	-2519
ད་བྱ	-2520
▁vaj	-2521
▁until	-2522
་བརྒྱད་	-2523
▁indeed	-2524
འི་བར་དུ་	-2525
▁perceptions	-2526
མཚན་མ་	-2527
ཡང་མི་	-2528
▁live	-2529
▁hundreds	-2530
ted	-2531
་བཅ	-2532
▁guide	-2533
▁knowing	-2534
itud	-2535
▁love	-2536
▁hands	-2537
▁nothing	-2538
▁unc	-2539
ུད་མེད་	-2540
▁fall	-2541
▁whom	-2542
og	-2543
oub	-2544
▁eon	-2545
▁fin	-2546
ceived	-2547
▁develop	-2548
རིན་པོ་ཆེ་	-2549
▁mindfulness	-2550
▁characterist	-2551
▁bow	-2552
mo	-2553
atta	-2554
འདིས་	-2555
▁proph	-2556
een	-2557
མཚུ	-2558
གྲོས་	-2559
འདྲ་བ	-2560
▁point	-2561
ark	-2562
ད་དུ་བ	-2563
▁pred	-2564
▁supp	-2565
ར་གྱུར་ཅིག་	-2566
▁ass	-2567
ཀྱང་་	-2568
▁cultiv	-2569
mas	-2570
ནས་དེ་	-2571
▁sur	-2572
་དགེ་འདུན་	-2573
▁ཀྱེ་	-2574
▁speech	-2575
▁absence	-2576
vara	-2577
▁certain	-2578
▁emotions	-2579
ཡིན་་	-2580
▁main	-2581
▁years	-2582
ློ་གྲོས་	-2583
▁ignorance	-2584
མྱོ	-2585
orious	-2586
▁earth	-2587
▁miracul	-2588
མྱུ	-2589
▁sacred	-2590
▁miraculous	-2591
usion	-2592
གིས་ད	-2593
ཚངས་པ	-2594
▁unex	-2595
▁vein	-2596
གཞན་ཡང་	-2597
ཟད་	-2598
▁attachment	-2599
rap	-2600
གཞེས་	-2601
གསེར་	-2602
▁causes	-2603
xt	-2604
▁home	-2605
▁condition	-2606
▁faculties	-2607
འི་ཕྱིར་རོ་་	-2608
asp	-2609
▁cloth	-2610
▁field	-2611
སླད་དུ་	-2612
▁manifested	-2613
arer	-2614
▁sky	-2615
འཚོ་ཞིང་	-2616
ན་འཇིག་རྟེན་གྱི་	-2617
atur	-2618
▁ult	-2619
▁ultimate	-2620
ཤེས་པ་དང་་	-2621
ues	-2622
ུ་མོ་	-2623
▁arise	-2624
▁saying	-2625
ཀྱང་སྟོན་	-2626
ར་འགྱུར་བ་	-2627
་དེ་དག་ཐམས་ཅད་	-2628
orm	-2629
▁སེམས་	-2630
▁ground	-2631
འི་ཚིག་བ	-2632
▁highest	-2633
ྱོད་པ	-2634
▁soon	-2635
celled	-2636
▁དེ་ན་ད	-2637
▁unexcelled	-2638
རྨི་	-2639
▁resp	-2640
རྟོགས་པ	-2641
▁passed	-2642
ར་གྱུར་ཏེ་	-2643
ren	-2644
ably	-2645
ནུས་	-2646
འཆི་བ	-2647
འཇུག་པ	-2648
▁concerning	-2649
ཁ་ད	-2650
རོ་	-2651
སྲིད་	-2652
▁fully	-2653
མི་བྱེད་	-2654
▁arhatship	-2655
aled	-2656
▁bowed	-2657
▁verses	-2658
ཡུ	-2659
aim	-2660
ར་འགྲ	-2661
▁adorned	-2662
umul	-2663
འཛིན་པ་	-2664
odu	-2665
ites	-2666
ང་གི་	-2667
ོ་བོས་	-2668
▁accumul	-2669
▁assembly	-2670
▁purity	-2671
▁formative	-2672
wood	-2673
▁activ	-2674
▁bliss	-2675
▁anyone	-2676
▁states	-2677
མས་པར་འཇ	-2678
ེ་བ་ཁྲག་	-2679
འཕགས་པའི་	-2680
▁daught	-2681
▁aggregates	-2682
ཟངས་	-2683
▁inf	-2684
▁tri	-2685
བས་སུ་	-2686
▁number	-2687
▁result	-2688
སྐྱེ་བོ་	-2689
▁strength	-2690
▁afflictions	-2691
▁abide	-2692
ར་གྱུར་པ	-2693
འཚོ་ཞིང་གཞེས་	-2694
▁བཅོམ་ལྡན་འདས་དེ	-2695
ུང་་	-2696
▁acqu	-2697
ལ་སོགས་པ	-2698
མཐོང་ངོ་་་	-2699
ཤཀྱ	-2700
▁def	-2701
▁aspect	-2702
སོང་སྟེ་	-2703
མཆོག	-2704
▁white	-2705
ཤེས་པ་ཡང་དག་པ་	-2706
གཞི་	-2707
ོ་དང་་	-2708
▁offering	-2709
▁according	-2710
འདུ་ཤེས་དང་་	-2711
རྟག་པ	-2712
ལ་དང་	-2713
ས་ཤིང་	-2714
ུང་ངོ་་་	-2715
▁liberated	-2716
▁དགེ་སློང་ད	-2717
▁grasp	-2718
ཞེས་བྱ་བའི་	-2719
ough	-2720
ament	-2721
སེམས་བ	-2722
▁freed	-2723
▁under	-2724
ྲན་པ་	-2725
▁doub	-2726
▁plac	-2727
སྙིང་པོ་	-2728
▁སངས་རྒྱས་	-2729
▁རིགས་ཀྱི་བུ	-2730
imin	-2731
▁elements	-2732
▁able	-2733
▁pati	-2734
་དང་བྲ	-2735
▁སུ་	-2736
སྨོན་	-2737
▁gath	-2738
་སྟེ་་	-2739
མཉེས་པ	-2740
ispos	-2741
▁resided	-2742
་བྱང་ཆུབ་ཀྱི་	-2743
ཤེས་པ་འགོག་པ་	-2744
▁else	-2745
་དེ་དག་ནི་	-2746
▁ded	-2747
▁don	-2748
▁harm	-2749
▁utter	-2750
▁whose	-2751
མཐོང་ནས་	-2752
▁infinite	-2753
▁presence	-2754
▁predispos	-2755
ential	-2756
ཐམས་ཅད་ལ་	-2757
ལ་མོ་	-2758
ན་གྱི་བ	-2759
འི་ཁམས་	-2760
▁forest	-2761
oke	-2762
་དགས་	-2763
ཁྱོད་ཀྱིས་	-2764
asura	-2765
▁lives	-2766
་དེའི་དུས་	-2767
arent	-2768
▁both	-2769
▁thirt	-2770
གཞན་དག་	-2771
་དཔག་ཏུ་	-2772
umin	-2773
▁emer	-2774
▁fruit	-2775
མ་ཡིན་པ་	-2776
▁previous	-2777
▁predispositions	-2778
▁མ་	-2779
▁gand	-2780
ཉིད་ལ་	-2781
་དེ་ཡང་	-2782
ides	-2783
སམས་པ་	-2784
▁ocean	-2785
▁stain	-2786
▁wheel	-2787
▁maintain	-2788
ls	-2789
ཕྱོགས་བ	-2790
▁manner	-2791
▁obtain	-2792
ged	-2793
▁cr	-2794
ན་ནི་	-2795
མེད་ཅིང་	-2796
ྲང་སྲོང་	-2797
▁approach	-2798
ཞག་	-2799
▁yaks	-2800
▁truth	-2801
▁million	-2802
press	-2803
▁འཚོ་ཞིང་གཞེས་	-2804
འཐ	-2805
▁precept	-2806
ལ་ཆོས་ཀྱང་སྟོན་	-2807
་དེ་བཞིན་གཤེགས་པ	-2808
སྐོར་བ	-2809
▁conte	-2810
སྒྲུབ་པ	-2811
▁entered	-2812
▁brahmins	-2813
་སྤྱ	-2814
▁hon	-2815
▁imme	-2816
▁innumerable	-2817
ལུས་ཀྱི་	-2818
ལེགས་པར་	-2819
▁occ	-2820
▁seen	-2821
▁notion	-2822
ི་མ	-2823
ཕྲག་	-2824
▁sake	-2825
སྙོམས་	-2826
▁sandal	-2827
▁thirty	-2828
▁profound	-2829
ནས	-2830
▁men	-2831
▁evil	-2832
▁prov	-2833
ཞུས་པ་	-2834
▁དེ་བཞིན་ད	-2835
ར་འགྱུར་བའི་ལམ་	-2836
yp	-2837
ནོར་	-2838
▁sun	-2839
▁retin	-2840
▁faculty	-2841
རྣམས་ཡིན་	-2842
འདི་སྙམ་དུ་སེམས་	-2843
bh	-2844
ན་གན	-2845
▁cha	-2846
་དག་གིས་	-2847
▁immeasura	-2848
་སྨ	-2849
itude	-2850
▁univ	-2851
ཞུགས་པ	-2852
ུ་དང་་	-2853
▁father	-2854
▁mantra	-2855
་དེ་བཞིན་དུ་	-2856
▁ཁ་ཅིག་	-2857
རྐང་པ	-2858
▁still	-2859
ས་སྨྲས་སོ་་	-2860
རྗོ	-2861
▁tem	-2862
▁sandalwood	-2863
འདུས་	-2864
དེ་བར་གཤེ	-2865
wing	-2866
▁sug	-2867
ཚོགས་པ་	-2868
གནོད་སྦྱི	-2869
མ་ཡིན་ནོ་་	-2870
ས་བཀའ་སྩལ་	-2871
ས་སེམས་ཅན་	-2872
ises	-2873
འི་བྱ	-2874
ར་དང་	-2875
རྩོན་པ	-2876
ས་སུ་བ	-2877
ལས་ཀྱི་	-2878
་ལ་	-2879
སློ	-2880
ཙན་ད	-2881
▁cour	-2882
▁stri	-2883
▁anger	-2884
▁བསྐལ་པ	-2885
▁convention	-2886
ited	-2887
རྩེ་	-2888
ཉེ་བར་གཞ	-2889
ars	-2890
ག་དེ་	-2891
▁mara	-2892
▁sravakas	-2893
▁essential	-2894
▁throughout	-2895
ཟས་	-2896
འི་བར་	-2897
▁views	-2898
▁thinking	-2899
མངོན་པར་འདུ	-2900
▁add	-2901
▁col	-2902
ཆེན་པོས་	-2903
▁inconceivable	-2904
jo	-2905
བང་	-2906
iate	-2907
འཁྲུ	-2908
ལས་ས	-2909
ལོག་པ	-2910
▁seek	-2911
▁hearer	-2912
གི་ད	-2913
haust	-2914
ེས་པར་	-2915
ར་བགྱི་	-2916
མཚན་ཉིད་	-2917
སྟན་པ་ལ་	-2918
he	-2919
▁ལྷ་	-2920
▁requ	-2921
མ་དང་་	-2922
▁syste	-2923
▁respond	-2924
aty	-2925
anas	-2926
ྡུག་བསྔ	-2927
▁seeing	-2928
▁countless	-2929
aya	-2930
སྣང་	-2931
མང་པོ	-2932
arents	-2933
ར་མི་བྱ	-2934
read	-2935
སྐུ་	-2936
▁sil	-2937
ལྟར་བྱ	-2938
▁eleph	-2939
▁lived	-2940
▁sutra	-2941
གནས་པར་	-2942
ང་བ་དང་་	-2943
ཤེས་པ་འགོག་པ	-2944
ika	-2945
ines	-2946
ར་མ་	-2947
▁cir	-2948
རྒྱ་མཚོ་	-2949
ands	-2950
རོ་་	-2951
tinct	-2952
ཞུ་བ་	-2953
▁found	-2954
ངོ་བོ་ཉིད་	-2955
ཇི་སྙེད་པ་	-2956
་སྐ	-2957
▁unb	-2958
▁imper	-2959
▁sounds	-2960
ར་འགྱུར་ཏེ་	-2961
▁established	-2962
lic	-2963
ག་ལ་	-2964
atever	-2965
ང་པོ་བ	-2966
▁appeared	-2967
▁kn	-2968
ཀུར་	-2969
ས་པས་	-2970
རྙེད་པ	-2971
▁sakra	-2972
▁training	-2973
▁whatever	-2974
▁དཔ	-2975
▁fur	-2976
ཅུ་རྩ་	-2977
ཚངས་པར་	-2978
▁སེམས་ཅན་ད	-2979
ཀའ་	-2980
ཐོགས་	-2981
ེས་པ་	-2982
གཅིག་པ	-2983
མ་དུ་བ	-2984
ཡིད་ཀྱི་	-2985
རྣམས་ཀྱང་	-2986
▁perceive	-2987
སྲུ	-2988
ཡང	-2989
རོལ་	-2990
དག་ལ་	-2991
་དེ་བཞིན་	-2992
ོན་པོ་	-2993
▁spoke	-2994
ཐོས་ནས་	-2995
ལ་བ་དང་་	-2996
ཞེ་སྡ	-2997
▁cand	-2998
ཟོད་པ་	-2999
▁contem	-3000
vas	-3001
མ་པར་	-3002
ྲམ་ཟེ	-3003
རྣམས་ཀྱི	-3004
▁སྲ	-3005
ances	-3006
སམ་པ་	-3007
▁cont	-3008
▁གལ་ཏེ་	-3009
འི་ཚོགས་	-3010
་དེའི་ཚེ་	-3011
ས་སངས་རྒྱ	-3012
སོར་	-3013
ཐུགས་	-3014
ཕྲག་ད	-3015
▁vast	-3016
▁displ	-3017
▁night	-3018
▁distinct	-3019
ane	-3020
སྤྲ	-3021
གཙང་	-3022
མཐུ་	-3023
ཟུང་	-3024
▁alms	-3025
▁naga	-3026
ཟང་པོ་	-3027
▁parents	-3028
ued	-3029
སྐྱེ་	-3030
ར་འཚང་	-3031
སྙམ་མོ་་	-3032
འི་ཚེ་དེའི་དུས་	-3033
ek	-3034
▁typ	-3035
ཟག་པ་	-3036
རྒྱད་	-3037
▁rain	-3038
▁owing	-3039
▁palms	-3040
ཡང་དག་པའི་	-3041
ins	-3042
ལོ་བ	-3043
ལ་དང་་	-3044
▁action	-3045
▁reborn	-3046
▁afflicted	-3047
སྙོམས་པར་འཇ	-3048
ཧ་	-3049
▁ke	-3050
ུས་བ	-3051
▁vajra	-3052
ཕ་རོལ་ཏུ་ཕྱིན་པ	-3053
སམ་གྱིས་མི་ཁྱབ་པ	-3054
▁enc	-3055
ཤིང་ད	-3056
atched	-3057
▁design	-3058
▁immeasurable	-3059
མདུ	-3060
ཞིན་	-3061
འོན་	-3062
▁gif	-3063
་དབང་	-3064
▁irre	-3065
སྐྱེས་བ	-3066
▁discern	-3067
▁འཇིག་རྟེན་	-3068
uch	-3069
ུ་མོ	-3070
འདུག་པ	-3071
▁nonapp	-3072
ཐམས་ཅད་བ	-3073
▁aspects	-3074
plend	-3075
uring	-3076
ཡེ་ཤེ	-3077
ན་དུ་བ	-3078
▁giving	-3079
མ་ཐག་ཏུ་	-3080
aka	-3081
enty	-3082
ored	-3083
ནགས་	-3084
སྤྱད་པ	-3085
ཡི་ག	-3086
▁situ	-3087
ལྡོག་པ	-3088
སྙེན་པ	-3089
རྨི་ལམ་	-3090
▁further	-3091
▁limitless	-3092
གང་ཡིན་པ་དེ་ནི་	-3093
az	-3094
ངས་བ	-3095
ལམ་བ	-3096
▁true	-3097
▁given	-3098
ཏང་ངོ་་་	-3099
འཇིགས་པ་	-3100
▁follows	-3101
ད་་	-3102
ར་འཛ	-3103
▁anal	-3104
▁lack	-3105
་སྣ་ཚོགས་	-3106
gr	-3107
itary	-3108
▁days	-3109
ར་བྱ་་	-3110
▁retinue	-3111
▁དེ་ནས་བ	-3112
་སྐྱ	-3113
ེ་མ་	-3114
ོ་དང་	-3115
ངས་ནས་	-3116
▁need	-3117
▁experience	-3118
སྡི	-3119
ག་པོ་	-3120
གཏི་མ	-3121
རིག་པ་	-3122
▁defin	-3123
▁woman	-3124
འཇིགས་པ	-3125
ཀའ་སྩལ་པ	-3126
སྣ་ཚོགས་	-3127
ཡང་དག་པར་བ	-3128
ods	-3129
▁left	-3130
ཡང་དག་	-3131
ོང་བའི་	-3132
▁contempl	-3133
རྔ	-3134
འམ་བ	-3135
▁cra	-3136
▁destro	-3137
འདས་པའི་དུས་	-3138
ཡོངས་སུ་སྨིན་པ	-3139
ret	-3140
ཐེ་	-3141
ལ་ལ་	-3142
rehens	-3143
པག་ཏུ་	-3144
སྦྱར་བ	-3145
▁devas	-3146
▁indiv	-3147
sw	-3148
lect	-3149
▁ban	-3150
▁sum	-3151
ternal	-3152
▁obser	-3153
▁quest	-3154
བ་བོ་་	-3155
་བྱེད་པ	-3156
▁ང་	-3157
ཆགས་པ	-3158
ས་ནི་	-3159
▁produ	-3160
ཞུགས་པ་	-3161
རྟོག་པ་	-3162
▁disapp	-3163
ཡོངས་སུ་རྫོགས་པ	-3164
▁answ	-3165
ཐལ་མོ་	-3166
▁nagas	-3167
ལགས་སོ་	-3168
▁bhiksus	-3169
▁request	-3170
ག་ལ་བ་དེར་	-3171
pri	-3172
ིད་	-3173
ཀར་པ	-3174
▁kim	-3175
ཀྱིལ་	-3176
ཐོབ་པ་	-3177
ླ་	-3178
རྩི	-3179
▁gl	-3180
ཆེས་	-3181
▁jin	-3182
ནས་དེ	-3183
ཚོར་བ་དང་་	-3184
གང་ད	-3185
ཤོག་	-3186
མི་དག	-3187
▁arrived	-3188
▁hearers	-3189
འི་རྒྱལ་པོ་	-3190
▁nonapprehens	-3191
ལྗ	-3192
སྲེ	-3193
ཟླ་བ	-3194
▁cal	-3195
eness	-3196
▁perfections	-3197
▁merely	-3198
▁རྒྱལ་པོ་	-3199
ར་བྱེད་དེ་	-3200
way	-3201
▁knows	-3202
▁offered	-3203
ཤེས་པ་དེ་	-3204
ife	-3205
▁put	-3206
ནི་དེ་	-3207
ས་ཀྱང་	-3208
ཁོང་དུ་	-3209
ོད་ཀྱི་	-3210
▁actual	-3211
▁return	-3212
▁gandhar	-3213
ཀྱི་བར་དུ་	-3214
རྣམ་གྲངས་འདི་	-3215
▁cy	-3216
མཚམས་	-3217
ར་དེ་	-3218
▁reco	-3219
▁constit	-3220
གཞོན་ནུར་	-3221
▁millions	-3222
▁solitary	-3223
▁སངས་རྒྱས་ཀྱི་	-3224
བེ	-3225
ཟབ་	-3226
ུ་མ	-3227
འཇུག་	-3228
སྟེ་་	-3229
ེད་དོ་་	-3230
▁འདི་ནི་	-3231
་རིའི་བུ་	-3232
▁dispatched	-3233
རྣམ་པར་སྨིན་པ	-3234
ཆ་	-3235
ྭ་	-3236
ches	-3237
ཡང་་	-3238
▁gir	-3239
སྐྱེས་པ	-3240
སྙམ་ནས་	-3241
ps	-3242
▁hair	-3243
▁rejo	-3244
གཟུང་བ	-3245
ར་བྱེད་་	-3246
ཐམས་ཅད་དུ་	-3247
་དེ་བ	-3248
མཛོད་	-3249
▁next	-3250
ཀུར་སྟ	-3251
གཤེགས་	-3252
▁speak	-3253
གཟུགས་བ	-3254
གསུམ་གྱི་	-3255
▁mahasattvas	-3256
▁characteristics	-3257
▁dark	-3258
▁kimn	-3259
▁saky	-3260
▁side	-3261
ྦྱིན་པ	-3262
▁becom	-3263
ows	-3264
▁women	-3265
ལྟ་བུར་	-3266
▁hearing	-3267
▁afflictive	-3268
གཙུག་	-3269
▁patience	-3270
▁situated	-3271
▁དགེ་སློང་	-3272
ཇི་སྙེད་པ་ཉིད་	-3273
had	-3274
▁eff	-3275
གཟི་བ	-3276
▁circ	-3277
སྟོན་པ་	-3278
འདི་དག་ནི་	-3279
ལ་ཕྱག་འཚལ་ལོ་་	-3280
ཕྲེ	-3281
གང་དུ་	-3282
འཕགས་པ	-3283
གྲོང་ཁྱེར་	-3284
▁aspiration	-3285
ཉེ་བ	-3286
abudd	-3287
་དག་ལ་	-3288
རྒྱལ་ཚ	-3289
ཀྱིས་དེ་	-3290
ལོངས་སྤྱོད་	-3291
bs	-3292
par	-3293
ཆེར་	-3294
མོས་	-3295
ལུང་	-3296
▁ren	-3297
▁case	-3298
▁refu	-3299
▁ways	-3300
་དྲུག་	-3301
▁signs	-3302
དག་ཉིད་	-3303
འདབ་ཆགས་	-3304
ར་འཕ	-3305
ས་སྔ	-3306
གྲོགས་པ	-3307
འུ་	-3308
ully	-3309
ལ་མག	-3310
མོའི་	-3311
▁wind	-3312
ས་སུ་ད	-3313
སྙེན་བ	-3314
▁regent	-3315
▁གཟུགས་	-3316
▁friends	-3317
འི་ཚིག་བླ	-3318
ཕ་རོལ་ཏུ་ཕྱིན་པ་	-3319
em	-3320
▁pa	-3321
▁die	-3322
itage	-3323
ively	-3324
ཆེ་བ་	-3325
▁sight	-3326
▁reality	-3327
▁min	-3328
མཛད་པ་	-3329
འབྲས་བ	-3330
ལ་གྱི་	-3331
▁quick	-3332
སྟོབས་བ	-3333
▁reflect	-3334
བྱངས་	-3335
ལྟ་བ་	-3336
▁lion	-3337
ལྟ་བར་	-3338
▁alone	-3339
▁aspirations	-3340
akes	-3341
ཟེར་	-3342
▁cut	-3343
ར་བྱས་	-3344
▁praty	-3345
▁praised	-3346
ས་དེ	-3347
རྒྱན་	-3348
▁dedic	-3349
ཁོང་དུ་ཆུ	-3350
▁imperman	-3351
ངེས་པར་འབྱ	-3352
▁establish	-3353
ཞེས་བྱ་བ་ཡོད་དེ་	-3354
oid	-3355
aras	-3356
virt	-3357
▁dem	-3358
▁mag	-3359
ences	-3360
▁inex	-3361
▁pratyek	-3362
▁prophes	-3363
▁ཤེས་རབ་	-3364
གྱུར་ཅིག་	-3365
ཡང་འདབ་ཆགས་	-3366
གསོལ་པ	-3367
▁robes	-3368
འཁོར་ལོ	-3369
ད་པ་དང་་	-3370
ལ་དེ་	-3371
▁stab	-3372
▁though	-3373
▁skillful	-3374
རྣམ་པར་ཤེས་པ	-3375
ཕུན་སུམ་ཚོགས་པ་	-3376
ཁྱོ	-3377
▁བཙུན་པ་	-3378
ཉོན་མོངས་པ	-3379
རྣམ་པར་ཐར་པ	-3380
ཉམས་	-3381
ཅེ་ན་	-3382
▁wife	-3383
འདིའི་	-3384
གང་གིས་	-3385
རིན་ཆེན་	-3386
▁pratyekabudd	-3387
ཆོ་	-3388
icult	-3389
གང་ཡང་	-3390
▁difficult	-3391
གང་བ	-3392
anges	-3393
ually	-3394
རྟོག་	-3395
གང་དང་	-3396
▁karma	-3397
སྐྱེ་མཆེ	-3398
འདུག་གོ་་	-3399
རིན་པོ་ཆེའི་	-3400
རས་	-3401
ison	-3402
vered	-3403
▁subl	-3404
་དང་་སྤ	-3405
▁however	-3406
▁practiced	-3407
day	-3408
claim	-3409
▁gain	-3410
▁prostr	-3411
▁sublime	-3412
als	-3413
མ་གྲོ	-3414
▁back	-3415
▁marks	-3416
ཡིད་ལ་བྱ	-3417
▁མད་གལ་གྱི་བུ་	-3418
oken	-3419
ུ་དང་	-3420
གནོད་པ	-3421
▁teaches	-3422
་དགེ་བའི་རྩ་བ་	-3423
oura	-3424
ཏུ་ད	-3425
མོས་པ	-3426
ཡོ་བྱ	-3427
▁tong	-3428
གཟི་བརྗ	-3429
▁arhats	-3430
▁ripened	-3431
▁children	-3432
▁ཆོས་ཀྱི་	-3433
where	-3434
▁depend	-3435
▁twenty	-3436
་དབང་པོ་	-3437
▁worship	-3438
ོ་བོས་ཕྱག་འཚལ་	-3439
་པ་	-3440
ོག་བ	-3441
ུང་གི་	-3442
▁eighteen	-3443
ར་བཅ	-3444
ཟླ་བ་	-3445
ཁང་བ	-3446
སྒྲི	-3447
རྗོད་	-3448
▁fact	-3449
མས་པར་	-3450
མཇ	-3451
▁boy	-3452
▁burn	-3453
▁drink	-3454
▁guard	-3455
▁splend	-3456
ལྷའི་བུ་	-3457
▁everything	-3458
ja	-3459
ཡ་	-3460
ཆེ་བ	-3461
▁bound	-3462
་དང་ལྡན་པའི་	-3463
ཁོ་ན	-3464
▁purs	-3465
ང་་	-3466
▁lif	-3467
ཆགས་པ་	-3468
ནོར་བུ་	-3469
་དག་ཀྱང་	-3470
སྔོན་གྱི་	-3471
▁irrevers	-3472
་དེ་དག་གིས་	-3473
ཐམས་ཅད་སྤངས་	-3474
▁far	-3475
ལྡན་པ	-3476
མེད་དེ་	-3477
▁nonent	-3478
▁individ	-3479
ར་བྱས་ཏེ་	-3480
alok	-3481
▁disple	-3482
▁perception	-3483
ཤཀྱ་	-3484
field	-3485
མ་འདྲ	-3486
སྐལ་པ་	-3487
སྙེན་བཀུ	-3488
▁explained	-3489
ཅོམ་ལྡན་འདས་ཀྱི་	-3490
གུ	-3491
ལྟ་བས་	-3492
་བཞིན་དུ་	-3493
▁ཁྱིམ་བདག	-3494
▁ཀུན་དགའ་བོ་	-3495
ས་སྐྱ	-3496
▁pain	-3497
▁engag	-3498
སྐྱེས་བུ་	-3499
རྣམ་པར་གྲོ	-3500
ཟག་	-3501
▁tam	-3502
འམ་ཅི	-3503
ཤིང་་	-3504
གདུགས་	-3505
གསོལ་པ་	-3506
ལྔ་བརྒྱ	-3507
སྔོན་བྱ	-3508
▁attend	-3509
▁refuge	-3510
▁illumin	-3511
atn	-3512
male	-3513
tood	-3514
▁cro	-3515
་བཞི་	-3516
ལན་གས	-3517
▁voice	-3518
verance	-3519
▁animal	-3520
▁female	-3521
▁yaksas	-3522
ལ་ཕ	-3523
་དྲུ	-3524
ར་ཡང་	-3525
ལྟ་ན་	-3526
▁conditions	-3527
▁buddhafield	-3528
གཅོ	-3529
སམ་པ	-3530
▁opp	-3531
་དུས་	-3532
▁addre	-3533
འི་ཆོས་	-3534
▁བྱང་ཆུབ་	-3535
▁stainless	-3536
▁understood	-3537
urb	-3538
▁mus	-3539
ཞིག་བ	-3540
▁deeds	-3541
▁incense	-3542
▁nine	-3543
▁tongue	-3544
▁heritage	-3545
འི་སངས་རྒྱ	-3546
▁jo	-3547
སྤོབ	-3548
▁old	-3549
▁holy	-3550
▁keep	-3551
མེད་དོ་	-3552
སྦྱིན་པ་	-3553
▁learned	-3554
རྣམ་པར་དག་པ	-3555
ཆད་	-3556
▁bet	-3557
▁reas	-3558
▁temple	-3559
་དེ་དག་གི་	-3560
ཞུ་བ་ཞུས་པ་	-3561
ཡོངས་སུ་དག་པ	-3562
ས་སྐ	-3563
▁imm	-3564
ently	-3565
ད་དམ་	-3566
▁find	-3567
▁tast	-3568
འི་ཚིག་	-3569
▁gateway	-3570
▁quickly	-3571
▁mountains	-3572
▁bel	-3573
མཆིས་	-3574
▁armor	-3575
▁extre	-3576
ལ་མཁས་པ་	-3577
འདི་ལྟ་བུ་	-3578
cip	-3579
ས་སྣ	-3580
ནས་སུ་	-3581
mediate	-3582
མིག་གི་	-3583
འི་ཕྱིར་བ	-3584
▁ཨ	-3585
▁pay	-3586
ར་གྱུར་་	-3587
▁display	-3588
▁དེ་ནས་དེ་	-3589
ib	-3590
▁neg	-3591
ioned	-3592
▁decl	-3593
འ་ཞིག་	-3594
ར་དུ་བ	-3595
▁occur	-3596
▁praise	-3597
▁individual	-3598
ols	-3599
ོམ་པ	-3600
སེང་ག	-3601
▁hard	-3602
དེ་དག་	-3603
ཞིག་བྱ	-3604
ྱོད་པ་	-3605
▁example	-3606
ུ་དེ་ལྟར་	-3607
ཟི	-3608
cif	-3609
ན་དེ	-3610
ality	-3611
ན་གང་	-3612
འདས་པ་	-3613
སྲུང་བ	-3614
▁གང་གི་	-3615
ྲམ་ཟེའི་ཁྱེའ	-3616
ངམ་	-3617
ཟླ་	-3618
ྲག་	-3619
ning	-3620
རིག་	-3621
itted	-3622
ormed	-3623
▁grain	-3624
▁vision	-3625
ལེགས་སོ་	-3626
▁created	-3627
▁objects	-3628
oqu	-3629
ངག་	-3630
སམས་	-3631
སྣང་བ་	-3632
▁types	-3633
▁higher	-3634
སྐུ	-3635
ོལ་བ	-3636
ཅིང་་་	-3637
▁eloqu	-3638
ཁང་བཟངས་	-3639
▁skilled	-3640
སེམས་ཅན་དམྱ	-3641
arch	-3642
▁maj	-3643
▁tou	-3644
སྟེ་བ	-3645
▁nose	-3646
▁stream	-3647
xist	-3648
▁mid	-3649
▁sour	-3650
▁stup	-3651
rought	-3652
ཁ་དོག་	-3653
▁names	-3654
▁river	-3655
ཡིད་དུ་	-3656
▁ganges	-3657
▁realiz	-3658
▁pleasure	-3659
རབ་ཏུ་བྱུང་ནས་	-3660
ཚུ	-3661
▁abod	-3662
▁medic	-3663
ཐམས་ཅད་ད	-3664
ེ་བ་ཁྲག་ཁྲི	-3665
ལྔ་	-3666
སྙེད་	-3667
▁done	-3668
▁spoken	-3669
▁wishes	-3670
▁བདག་ཅག་	-3671
ར་གྱུར་ནས་	-3672
ར་བྱ་བའི་ཕྱིར་	-3673
ིང་བ	-3674
ས་སྒྱ	-3675
ས་བདག་	-3676
འཕགས་པ་	-3677
▁flower	-3678
་པད་	-3679
ུའམ་	-3680
fully	-3681
ཁོ་ན་	-3682
ཐོས་པ	-3683
གྲུབ་པ	-3684
▁began	-3685
ཕྱི་ཞིག་	-3686
▁attainment	-3687
ote	-3688
སྨྲ་བ	-3689
▁inqu	-3690
འི་བུ་ད	-3691
▁proper	-3692
▁brought	-3693
འབྱི	-3694
རྡུལ་	-3695
གནས་སུ་	-3696
▁avalok	-3697
▁second	-3698
▁practicing	-3699
ild	-3700
རྩེ	-3701
ured	-3702
▁much	-3703
གས་པས་	-3704
▁along	-3705
▁illus	-3706
ལ་མཁས་པ	-3707
མདོ་སྡེ་	-3708
རྡོ་རྗེ་	-3709
སྐྱེས་པ་	-3710
མ་འདྲེས་པ	-3711
▁nonexist	-3712
▁avalokites	-3713
སྣ་	-3714
ocos	-3715
ཅིང་བ	-3716
▁whoever	-3717
the	-3718
tras	-3719
rabha	-3720
ར་འཛི	-3721
་དེ་བཞིན་ད	-3722
asti	-3723
་བ་བ	-3724
ལྔ་བ	-3725
་སྒྲ	-3726
▁thr	-3727
itting	-3728
ཕུང་པོ	-3729
མཐོང་བ་	-3730
རྣམ་པར་བ	-3731
▁possessed	-3732
▁pratyekabuddhas	-3733
yal	-3734
མཐར་	-3735
ཞི་བ་	-3736
▁stud	-3737
ཚངས་པ་	-3738
▁chari	-3739
▁inter	-3740
་དག་དང་་	-3741
▁achieve	-3742
ཚིགས་སུ་བཅད་པ་	-3743
▁མི	-3744
ases	-3745
preh	-3746
ract	-3747
ersal	-3748
སྒོམ་པ	-3749
སྔོན་བྱུང་བ་	-3750
ཇི་ལྟ་བ་བཞིན་དུ་	-3751
ler	-3752
ling	-3753
▁dec	-3754
▁garl	-3755
ཀུན་དུ་	-3756
འདི་ལ་ད	-3757
▁travel	-3758
▁persons	-3759
ཉིད་ཀྱིས་	-3760
alk	-3761
ཅང་	-3762
མང་པ	-3763
ཟད་པ	-3764
▁ste	-3765
མེ་ཏོག	-3766
▁compreh	-3767
ེབ	-3768
iled	-3769
ཟིལ་	-3770
ན་དེ་དག་	-3771
▁དེ་ནས་བྱ	-3772
ཇི་ལྟར་ན་ད	-3773
ird	-3774
▁eth	-3775
་བདག་	-3776
▁cogn	-3777
▁inte	-3778
▁analog	-3779
རས་གཟིགས་	-3780
▁sravasti	-3781
སྤྱོད་ཡུལ་	-3782
cet	-3783
རུང་	-3784
ister	-3785
གསུང་	-3786
ངོ་མཚ	-3787
ཅུའི་	-3788
▁royal	-3789
ན་པའི་བ	-3790
་པོ་	-3791
གང་ག	-3792
▁best	-3793
▁told	-3794
ཚངས་པའི་	-3795
སྦྱིན་པའི་	-3796
tw	-3797
ེང་	-3798
chili	-3799
ལྟར་བ	-3800
soci	-3801
་དགུ	-3802
ཚུལ་བ	-3803
▁tell	-3804
ཐམས་ཅད	-3805
▁perse	-3806
▁wrong	-3807
chiliocos	-3808
་སངས་རྒྱས་	-3809
ལ་བཀའ་སྩལ་པ་	-3810
▁འདི་ལྟ་སྟེ་དཔ	-3811
གས་་	-3812
ར་འབ	-3813
▁red	-3814
▁verse	-3815
▁defile	-3816
ཞབས་ལ་མག	-3817
ལ་སོགས་པ་	-3818
▁splendor	-3819
ེ་བའི་ཆོས་	-3820
▁ཁ	-3821
ལ་དབ	-3822
▁eat	-3823
ང་བར་	-3824
འདྲ་བ་	-3825
▁happy	-3826
ཡོ་བྱད་	-3827
▁associ	-3828
▁strong	-3829
▁བདག་གིས་	-3830
▁victorious	-3831
▁irreversible	-3832
མངོན་པར་ཤེས་པ་	-3833
ru	-3834
▁sm	-3835
འགྲོ	-3836
▁rise	-3837
འཛིན་པ	-3838
▁fault	-3839
▁discour	-3840
ཁྱོད་ཀྱི་	-3841
▁conceptual	-3842
ened	-3843
isen	-3844
know	-3845
▁sal	-3846
▁ascet	-3847
▁toler	-3848
aterial	-3849
འོག་ཏུ་	-3850
▁exhaust	-3851
ཚངས་པར་སྤྱོད་པ	-3852
ones	-3853
▁mom	-3854
ཁྱམས་	-3855
སྤོས་	-3856
▁carry	-3857
▁doubt	-3858
ཡུན་	-3859
ཅིང་ད	-3860
▁reme	-3861
▁mother	-3862
▁sugata	-3863
ཁམས་དང་་	-3864
▁delighted	-3865
▁spiritual	-3866
ཐམས་ཅད་ཀྱིས་	-3867
▁trichiliocos	-3868
de	-3869
▁mil	-3870
▁prop	-3871
བ་སྟེ་	-3872
རྒྱ་བྱི	-3873
▁worldly	-3874
སྙིང་རྗེ་	-3875
▁practices	-3876
▁དབ	-3877
སྐོར་	-3878
་བཞིན་	-3879
ཆོས་སྨྲ	-3880
ཤིན་ཏུ་བ	-3881
ཅེས་བྱ་བ་	-3882
▁nonentities	-3883
ཕྱིར་མི་ལྡོག་པ	-3884
ནོ	-3885
འཆི་	-3886
རྒྱུད་	-3887
▁color	-3888
▁demon	-3889
མཐའ་ཡས་	-3890
གཉིས་སུ་	-3891
▁darkness	-3892
▁wherever	-3893
མན	-3894
ཞལ་	-3895
ased	-3896
▁emb	-3897
▁sou	-3898
▁pray	-3899
▁conta	-3900
▁nonar	-3901
▁myself	-3902
▁གང་དག་	-3903
▁kingdom	-3904
སྙོམས་པར་འཇུག་པ	-3905
ert	-3906
ཐར་བ	-3907
ནི་བྱ	-3908
▁hero	-3909
རྒྱས་པ	-3910
▁matur	-3911
གླང་པོ་	-3912
▁palace	-3913
▁nonvirt	-3914
▁trained	-3915
ལེགས་པར་བ	-3916
▁avalokitesvara	-3917
ceed	-3918
ging	-3919
ངས་་	-3920
དེན་པ་	-3921
སྐྱེས་	-3922
▁today	-3923
ཁྱོད་ལ་	-3924
▁making	-3925
▁unborn	-3926
ཙན་དན་གྱི་	-3927
རྫོ	-3928
ཡི་་	-3929
ཐེག་པ	-3930
ད་པས་	-3931
▁ratn	-3932
་དག་ནི་	-3933
▁suffer	-3934
▁transf	-3935
▁utterly	-3936
ཤ་	-3937
two	-3938
uni	-3939
tyard	-3940
སྒྱུ་	-3941
ོས་པ་	-3942
▁clear	-3943
▁stand	-3944
ལོགས་སུ་	-3945
▁support	-3946
མ་མཆིས་པ་	-3947
ར་བྱ་སྟེ་	-3948
▁courtyard	-3949
ཕྱོགས་གཅིག་ཏུ་	-3950
ཉིད	-3951
ཉི་ཤ	-3952
འགོག་པ	-3953
▁applic	-3954
གསེར་གྱི་	-3955
▁ripening	-3956
ལ་ཡང་ཞུ་བ་ཞུས་པ་	-3957
ཐ་ད	-3958
ྱེད་	-3959
ཅི་ཡང་	-3960
ཡིན་པ་	-3961
▁leave	-3962
▁moment	-3963
རྣམ་པར་བྱ	-3964
▁eloquence	-3965
ཁབ་	-3966
པད་	-3967
asure	-3968
འཕོས་	-3969
▁meth	-3970
▁ordination	-3971
ངའི་	-3972
▁sme	-3973
ཀླུང་	-3974
▁most	-3975
ར་ལན་གས	-3976
▁revere	-3977
མི་སྣང་བ	-3978
▁arising	-3979
▁appropri	-3980
▁surround	-3981
གཟུགས་ཀྱི་	-3982
▁daughters	-3983
མུ	-3984
▁va	-3985
▁mod	-3986
ྱིངས་	-3987
▁insp	-3988
▁youth	-3989
ལོག་པར་	-3990
འི་ཚིག་བླ་དག	-3991
ery	-3992
ཀའ་བ	-3993
མ་འོ	-3994
▁led	-3995
antly	-3996
ཐད་དུ་	-3997
ངས་སོ་་	-3998
མ་མཆིས་	-3999
▁eighty	-4000
ཤེས་སོ་་	-4001
▁universal	-4002
གསུམ་གྱི་སྟོང་	-4003
མཉེས་པར་བྱེད་པ	-4004
མ་ལ	-4005
འདོ	-4006
hind	-4007
▁beli	-4008
▁rose	-4009
གྱིས་ཤིག་	-4010
▁ཚེ་དང་ལྡན་པ་	-4011
འཕྱ	-4012
དག་བ	-4013
▁gra	-4014
▁sees	-4015
འཇམ་དཔ	-4016
རྒྱུན་	-4017
གཏི་མུག་	-4018
རྣམ་པར་སྨི	-4019
▁tolerance	-4020
ལོངས་སྤྱོད་པ	-4021
▁ཆོས་ཐམས་ཅད་	-4022
▁inconceivably	-4023
▁trichiliocosm	-4024
ཤར་	-4025
▁mah	-4026
▁serv	-4027
ལ་འབྱོ	-4028
ྭ་བརྒྱད་	-4029
▁accomplished	-4030
་དུ	-4031
གསེ	-4032
འཕྲ	-4033
▁fort	-4034
▁effort	-4035
▁ethical	-4036
▁explain	-4037
▁meditation	-4038
▁applications	-4039
ཆེན་པོ་ཤེས་རབ་	-4040
ས་བཀའ་སྩལ་ཏོ་་	-4041
▁བསྐལ་པར་ལན་གས	-4042
ont	-4043
uta	-4044
ག་ཏ	-4045
གལ་ཏེ	-4046
ར་རོ་	-4047
ཤད་པ་	-4048
ུང་་་	-4049
▁milk	-4050
▁play	-4051
▁sams	-4052
ཀྱང་་་	-4053
གཞན་ཡང	-4054
▁paras	-4055
རབ་ཏུ་ད	-4056
▁truths	-4057
▁reached	-4058
ཞུགས་སོ་་	-4059
▁གཞོན་ནུ་	-4060
▁something	-4061
ར་འཚང་རྒྱ་བ	-4062
amp	-4063
ici	-4064
anqu	-4065
་དབྱ	-4066
▁ima	-4067
▁nar	-4068
▁comes	-4069
་དྲི་མ་	-4070
▁སུ་ནི་	-4071
རྣམས་ཀྱིས་བ	-4072
▁conditioned	-4073
ཁང་	-4074
འཕྲུ	-4075
སྤྲུ	-4076
▁mend	-4077
ཙམ་དུ་	-4078
▁grant	-4079
རྒྱལ་བ་	-4080
▁collect	-4081
▁fruition	-4082
▁unsurpassable	-4083
འགྱ	-4084
ཕུལ་	-4085
▁mait	-4086
་དགེ་འདུ	-4087
་སྟོང་པ་	-4088
གསོལ་པ་བ	-4089
མྱུར་དུ་	-4090
▁craving	-4091
▁prophesied	-4092
་དང་ལྷན་ཅིག་	-4093
cle	-4094
ell	-4095
ken	-4096
རབ་བ	-4097
▁placed	-4098
ཇི་ལྟར་བ	-4099
ར་བྱས་ནས་	-4100
ར་བགྱིའོ་་	-4101
dha	-4102
▁cap	-4103
▁pride	-4104
▁quint	-4105
རིང་པོ་	-4106
▁illness	-4107
ཏིང་འཛིན་	-4108
ར་གྱུར་ཏོ་	-4109
▁addressed	-4110
ྷ་	-4111
igr	-4112
་སྲ	-4113
དང་་ར	-4114
ང་དུ་བ	-4115
མཐོང་་	-4116
ལྟ་ན་སྡ	-4117
▁mendic	-4118
འཁོར་ལོས་སྒྱ	-4119
རབ་ཏུ་འབྱུང་བ	-4120
ཤིང་བ	-4121
▁sick	-4122
་དང་་སྨ	-4123
▁realized	-4124
ipa	-4125
མི་མང	-4126
ཐོས་པ་	-4127
སྦྱོང་	-4128
▁enter	-4129
འདུལ་བ་	-4130
མཆོག་ཏུ་	-4131
འདི་ཉིད་	-4132
རྗོད་དུ་	-4133
གཟི་བརྗིད་	-4134
ཡན་ལག་བརྒྱ	-4135
▁manifestly	-4136
སེམས་ཅན་རྣམས་	-4137
ama	-4138
ned	-4139
འབུམ་	-4140
▁acts	-4141
▁nond	-4142
མྱོང་བ	-4143
གཞན་དུ་	-4144
མས་པའི་	-4145
གནས་སོ་་	-4146
སོད་ནམས་ཀྱི་	-4147
སྦྱིན་	-4148
ལྷ་མ་ཡི	-4149
རྣལ་འབྱོ	-4150
དེ་བར་གཤེགས་པ་	-4151
uc	-4152
▁sl	-4153
ཕ་མ་	-4154
iting	-4155
གནས་བ	-4156
ད་ནས་	-4157
▁care	-4158
▁དེ་བ	-4159
▁vimal	-4160
སྒྱུར་བ	-4161
སྐྱེད་པ་	-4162
▁freedom	-4163
▁pleased	-4164
cles	-4165
ས་བྱི	-4166
▁merch	-4167
་དེ་ཡི་	-4168
▁longer	-4169
▁acquire	-4170
ཞུགས་པའི་	-4171
མངོན་པར་ཞེ	-4172
▁stability	-4173
▁nonarising	-4174
་སྡ	-4175
anim	-4176
སྔོན་	-4177
▁begin	-4178
▁mount	-4179
མ་ཡིན་ཏེ་	-4180
སྙེན་པར་རྫོགས་པ	-4181
ail	-4182
ཡི་བ	-4183
▁nov	-4184
▁orn	-4185
ཀོད་པ	-4186
ཐེ་ཚོ	-4187
ན་པས་	-4188
ལ་པོ་	-4189
ལམ་བཏ	-4190
▁show	-4191
གསོལ་་	-4192
ང་བྲལ་བ	-4193
ར་དགའ་བ	-4194
▁during	-4195
▁majest	-4196
སེམས་ཀྱི་	-4197
▁pleasant	-4198
ྲན་པ་ཉེ་བར་གཞ	-4199
་སྒ	-4200
ried	-4201
ween	-4202
་བྱེ	-4203
ཐོག་	-4204
གས་སམ་	-4205
་བ་དང་་	-4206
འི་དཔལ་	-4207
སྦྱོར་བ	-4208
དུད་ཀྱི་	-4209
མི་དམིགས་	-4210
སྟོབས་དང་	-4211
ར་རྗེས་སུ་མི་	-4212
ས་སྙ	-4213
སེར་	-4214
འཐོབ་པ	-4215
▁cease	-4216
་དགའ་བ་	-4217
▁desires	-4218
ཆོས་མ་འདྲེས་པ	-4219
སྡུ	-4220
ting	-4221
འཇིགས་	-4222
▁recite	-4223
▁between	-4224
▁samsara	-4225
འདུས་མ་བྱ	-4226
▁gathered	-4227
▁material	-4228
▁superior	-4229
▁approached	-4230
འཇིག་རྟེན་དུ་	-4231
cus	-4232
like	-4233
tama	-4234
ཡི་ར	-4235
▁age	-4236
དག་གི	-4237
▁maitre	-4238
་བྱེད་པ་	-4239
▁subject	-4240
འདོད་པའི་	-4241
སུམ་ཅུ་རྩ་	-4242
ཉན་ཐོས་ཀྱི་	-4243
གཞི	-4244
རུ་	-4245
ེལ་བ	-4246
▁fet	-4247
རྙེད་	-4248
མཉན་དུ་	-4249
ཡིན་པར་	-4250
་དེ་དང་ད	-4251
རབ་ཏུ་བྱ	-4252
སེང་གེའི་	-4253
di	-4254
usp	-4255
▁unf	-4256
འཛམ་བ	-4257
ར་དག་	-4258
▁gard	-4259
▁prin	-4260
ledges	-4261
ཀོད་པ་	-4262
འདུས་བྱ	-4263
▁འདི་ལྟ	-4264
▁disturb	-4265
ཆོས་སྟོན་	-4266
ས་བསམས་པ་	-4267
▁maitreya	-4268
▁dependent	-4269
མི་མཇ	-4270
ལགས་་	-4271
ོ་དག་	-4272
▁face	-4273
▁intr	-4274
ཀྱིས་བྱ	-4275
་དང་་སྐྱ	-4276
▁answered	-4277
mall	-4278
mber	-4279
ཅི་བ	-4280
arbha	-4281
ལག་པ་	-4282
ཅན་དུ་	-4283
ལུས་ལ་	-4284
itation	-4285
ཐོགས་པ་	-4286
▁devoid	-4287
▁golden	-4288
རྒྱལ་ཚབ་	-4289
▁billion	-4290
མེད་པ་དག་	-4291
ལྷ་དང་མི་	-4292
གཉིས་ཀྱིས་	-4293
gend	-4294
་དགོ	-4295
མ་གཏ	-4296
▁lay	-4297
▁sud	-4298
▁use	-4299
▁girl	-4300
▁vill	-4301
ཟབ་མོ་	-4302
▁heart	-4303
ཅན་གྱི་	-4304
▁itself	-4305
▁analogy	-4306
ཙན་དན་གྱི་ཁྱམས་	-4307
ུབ་པ	-4308
▁dom	-4309
amuni	-4310
ཁྲིག་	-4311
ཐུབ་པ	-4312
▁deli	-4313
་དེ་ལ་ད	-4314
གིས་ནི་	-4315
▁essence	-4316
ཡིན་ཞེ་ན་	-4317
རྒྱུན་དུ་	-4318
ོན་དམ་པར་	-4319
▁ordinary	-4320
མ་པའི་ཆོས་	-4321
▁acceptance	-4322
▁gandharvas	-4323
ung	-4324
གམ་	-4325
pper	-4326
ལྷག་པ	-4327
▁kill	-4328
ཚོགས་པ	-4329
▁small	-4330
སྦྱོར་བ་	-4331
་དང་ལྡན་ན	-4332
▁activity	-4333
▁defining	-4334
▁garlands	-4335
ཆོས་མ་འདྲེས་པ་བཅ	-4336
arge	-4337
ུམ་པ	-4338
▁gro	-4339
▁inst	-4340
▁pros	-4341
ོ་བའི་	-4342
▁taken	-4343
▁circum	-4344
▁depart	-4345
▁grains	-4346
▁partic	-4347
གནས་པའི་	-4348
རིག་པ་དང་	-4349
▁proclaim	-4350
▁དགེ་སློང་དག་དེ་	-4351
ཐ་	-4352
▁ད་	-4353
mati	-4354
▁fix	-4355
▁pri	-4356
▁died	-4357
▁འཇམ་དཔ	-4358
▁notions	-4359
་དེ་དག་ལ་	-4360
ཟིལ་གྱིས་	-4361
▁blissful	-4362
▁sameness	-4363
▁དེ་ནས་དེ	-4364
▁cultivate	-4365
སྡེ	-4366
སོ་་	-4367
▁tor	-4368
▁yes	-4369
ounded	-4370
ལྷུང་བ	-4371
ལུས་དང་	-4372
་དེ་དག་བ	-4373
▁perform	-4374
ན་པ་དང་་བ	-4375
སེམས་ཅན་ག	-4376
▁eightfold	-4377
▁comprehend	-4378
རྣམས་ཡིན་ནོ་	-4379
agr	-4380
ali	-4381
▁blue	-4382
isters	-4383
གསུམ་པ	-4384
ནི་མི་	-4385
འོང་བ་	-4386
▁chapt	-4387
སེམས་དང་	-4388
▁elephant	-4389
རྒྱལ་པོའི་ཁབ་	-4390
▁perseverance	-4391
crib	-4392
dess	-4393
ཟད་པ་	-4394
འོང་བ	-4395
▁ears	-4396
་དེ་ནི	-4397
ཤིང་རྟ	-4398
སྒྲུབས་	-4399
▁engend	-4400
▁poison	-4401
ཟོད་པའི་	-4402
སོད་སྙོམས་	-4403
▁འདི་ལྟ་སྟེ་	-4404
ript	-4405
▁raj	-4406
ོམ་པ་	-4407
▁rays	-4408
རྗེའི་	-4409
སོ་སོར་	-4410
སྤྱན་སྔ	-4411
▁compos	-4412
ྲན་	-4413
ཕོ་བ	-4414
ཟའ་བ	-4415
འདྲ་	-4416
ittle	-4417
undane	-4418
སྐྱོན་	-4419
རབ་འབྱོར་	-4420
▁restrain	-4421
ཐམས་ཅད་ཀྱང་	-4422
▁activities	-4423
gress	-4424
འདི་ལ	-4425
▁jamb	-4426
སོང་ནས་	-4427
གཙུག་ལག་	-4428
ཚེ་དང་ལྡན་པ	-4429
ར་མི་འགྱུར་བ	-4430
་དགྲ་བཅོམ་པ་ཉིད་	-4431
cho	-4432
གདུ	-4433
མང་	-4434
ices	-4435
གྱིས་་	-4436
མཛེས་པ	-4437
ཞིང་་་	-4438
▁དེ་ཡང་	-4439
▁equanim	-4440
ཀུན་དགའ་བོ	-4441
འི་སླད་དུ་	-4442
▁nonexistent	-4443
▁householders	-4444
ཅོམ་ལྡན་འདས་ལ་	-4445
ages	-4446
eren	-4447
གྲོལ་	-4448
སྐད་བ	-4449
▁fine	-4450
▁sarv	-4451
▁elimin	-4452
▁reason	-4453
▁purified	-4454
ཀྱིལ་འཁོར་	-4455
ཀར་	-4456
▁སྨ	-4457
ལས་ལ	-4458
འཐོབ་	-4459
though	-4460
དག་པོ་	-4461
ཡན་ལག་	-4462
▁gifts	-4463
▁serve	-4464
་དང་་བྱ	-4465
ཀུར་སྟི	-4466
ང་དུ་བྱ	-4467
མིགས་སུ་	-4468
འདྲེན་པ་	-4469
▁chapter	-4470
▁realize	-4471
མི་དམིགས་པ	-4472
ས་བཅོམ་ལྡན་འདས་ད	-4473
pr	-4474
isf	-4475
ང་་་	-4476
▁land	-4477
▁prep	-4478
▁syll	-4479
▁heads	-4480
▁causal	-4481
▁goddess	-4482
▁although	-4483
▁grasping	-4484
འཇིག་རྟེན་ད	-4485
▁equanimity	-4486
ངས་རྒྱས་ཀྱི་	-4487
མྱ་ངན་ལས་འདས་པ་	-4488
རྐང་	-4489
▁twel	-4490
ཀྱང་མི་	-4491
རྗོད་པ་	-4492
སྙམ་འམ་	-4493
▁perfum	-4494
▁dharmas	-4495
▁protector	-4496
ཆེན་པོ་དང་་	-4497
ove	-4498
ཙམ་ད	-4499
སླབ་པ	-4500
▁calm	-4501
▁focus	-4502
གང་གའི་	-4503
དེ་བའི་	-4504
▁rajagr	-4505
འཁོར་ལོས་སྒྱུར་བ	-4506
unci	-4507
ྲི་མ་	-4508
ནས་སེམས་	-4509
ོམ་སེམས་	-4510
▁sakyamuni	-4511
ub	-4512
oint	-4513
▁ཅི་	-4514
atter	-4515
ང་དེ་	-4516
འ་བོ་	-4517
▁void	-4518
▁work	-4519
▁later	-4520
▁rajagrha	-4521
▁previously	-4522
ཀྱི་བར་འདི་ལ་	-4523
ཐམས་ཅད་སྤངས་ཏེ	-4524
ulf	-4525
▁spr	-4526
ན་བཞི	-4527
▁bran	-4528
ན་བདག་	-4529
སྤོང་བ	-4530
▁seats	-4531
▁དེ་ཡི་	-4532
སྟན་ཏོ་་	-4533
▁negative	-4534
▁disciples	-4535
▁pleasures	-4536
་བར་	-4537
▁bad	-4538
གླིང་	-4539
▁leav	-4540
lusion	-4541
་དང་མི	-4542
སྟོང་པ	-4543
▁above	-4544
▁third	-4545
▁prosper	-4546
▁དེ་ནས་ཕྱི་ཞིག་	-4547
ཏིང་ངེ་འཛིན་དང་་	-4548
aces	-4549
ters	-4550
▁felt	-4551
▁open	-4552
རྟོགས་	-4553
▁smell	-4554
▁around	-4555
▁compan	-4556
▁system	-4557
▁renunci	-4558
གང་ཡིན་པ་	-4559
ཉོན་མོངས་	-4560
▁preceptor	-4561
དང་ཁང་བཟངས་	-4562
ྲེ	-4563
པོར་	-4564
སྟོད་	-4565
▁clou	-4566
▁obsc	-4567
▁rely	-4568
ཀྱང་དེ་	-4569
ལ་གནས་པ	-4570
▁fields	-4571
▁revealed	-4572
▁venerate	-4573
ངེས་པར་འབྱུང་བ	-4574
ives	-4575
ཁ་ལོ་	-4576
མདོག་	-4577
▁aware	-4578
▁honor	-4579
ན་པ་དང་	-4580
▁little	-4581
འོད་ཟེར་	-4582
ར་བགྱི་བ	-4583
▁express	-4584
གྱུར་ཏོ་་	-4585
▁narayana	-4586
▁pleasing	-4587
▁purification	-4588
esh	-4589
ཅུང་	-4590
ླངས་	-4591
▁prom	-4592
གས་ཏེ་	-4593
▁གཞོན་ན	-4594
རིས་ཀྱི་	-4595
▁abandoned	-4596
འཕགས་པའི་ལམ་	-4597
རུ	-4598
araja	-4599
datta	-4600
igods	-4601
▁bowl	-4602
▁radi	-4603
ངས་སུ་	-4604
ལེན་པ་	-4605
▁assum	-4606
ཆོས་བཅུ	-4607
ལ་བྱེད་	-4608
▁months	-4609
▁satisf	-4610
▁produced	-4611
▁discourse	-4612
སེམས་ཅན་དེ་དག་	-4613
མ་་	-4614
ཀླུ་	-4615
ྲིན་	-4616
▁ves	-4617
ལ་གནས་	-4618
གནོད་པ་	-4619
▁brings	-4620
▁emancip	-4621
ཕྱོགས་སུ་	-4622
ལྟ་བར་གནས་པ	-4623
ར་འགྱུར་བ་དང་་	-4624
སྤྱན་རས་གཟིགས་	-4625
སྩ	-4626
འོང་	-4627
ortun	-4628
ོན་བྱ	-4629
▁gent	-4630
▁pacif	-4631
▁sages	-4632
▁twelve	-4633
▁vessel	-4634
▁extreme	-4635
▁dwelling	-4636
་སྐྱེས་བུ་	-4637
ལུང་བསྟན་པ་	-4638
▁ultimately	-4639
སོ་ཡང་དག་པར་	-4640
་སྔ	-4641
inaya	-4642
ིལ་སྙ	-4643
▁fortun	-4644
▁intent	-4645
▁terrif	-4646
▁uphold	-4647
མོད་ཀྱི་	-4648
མེད་པའོ་་	-4649
འི་དབང་པོ་	-4650
སམ་གཏན་གྱི་	-4651
ཀྱིས་བཀའ་སྩལ་པ	-4652
come	-4653
more	-4654
▁ago	-4655
ན་མི་	-4656
▁town	-4657
ཀླུའི་	-4658
གང་ཟག་	-4659
▁blood	-4660
▁loving	-4661
▁seated	-4662
འཁོར་ལོ་	-4663
སྤྱད་པ་སྤ	-4664
▁achieved	-4665
ོན་བ	-4666
▁gau	-4667
ables	-4668
ཉི་མ་	-4669
▁vais	-4670
ུས་སུ་	-4671
ལ་གནས་པ་	-4672
▁illusory	-4673
▁inexpress	-4674
་བླ་ན་མེད་པ་	-4675
ར་མི་འགྱུར་རོ་་	-4676
aw	-4677
▁er	-4678
མཐོ་	-4679
▁ཀུན་	-4680
གྱིས་བ	-4681
ང་བྲལ་བ་	-4682
▁direction	-4683
འི་དབང་པོ་བ	-4684
opt	-4685
འཇོ	-4686
▁སྲི	-4687
▁adopt	-4688
་བྱེ་མ་	-4689
ཀྱི་བུ་	-4690
ཆོས་དང་	-4691
མིང་ཙམ་	-4692
ེད་མེད་	-4693
▁knower	-4694
མི་འགྱུར་	-4695
▁attached	-4696
▁questions	-4697
ཉམ་	-4698
ཅེས་	-4699
▁fra	-4700
▁pad	-4701
་བྱས་	-4702
འབར་བ	-4703
ུད་མེ	-4704
ོབ་དཔ	-4705
▁fund	-4706
ourage	-4707
སྨྲ་བ་	-4708
▁based	-4709
་ལྟར་བྱ	-4710
ས་དེ་ལ་	-4711
ས་དེའི་	-4712
inations	-4713
ཆེན་པོར་	-4714
ཇི་སྙེད་	-4715
འཛམ་བུའི་	-4716
ར་གྱུར་པ་	-4717
རྗེས་སུ་ད	-4718
མད་གལ་གྱི་བ	-4719
ང་ཆུབ་སེམས་དཔའ	-4720
lies	-4721
▁swe	-4722
ining	-4723
པོའི་	-4724
amental	-4725
▁lotuses	-4726
▁superknow	-4727
▁accordingly	-4728
▁emancipation	-4729
▁hel	-4730
ented	-4731
▁invol	-4732
itioned	-4733
འཇུག་པ་	-4734
▁taking	-4735
ཕྱི་རོལ་	-4736
མངོན་དུ་	-4737
▁reverend	-4738
▁affliction	-4739
་ར་དྭ་ཏིའི་བུ་	-4740
equ	-4741
ཉིན་	-4742
▁བརྟ	-4743
tered	-4744
མོས་ཚ	-4745
སྡིག་	-4746
▁wand	-4747
གས་ནས་	-4748
▁drdha	-4749
▁short	-4750
ང་པོའི་	-4751
▁daughter	-4752
▁འདི་ལྟར་	-4753
ར་བྱེད་དོ་	-4754
▁thirtytwo	-4755
cy	-4756
ྱ་	-4757
ཆར་	-4758
ལྷུ	-4759
▁གླ	-4760
ཆུད་	-4761
ལྷག་	-4762
▁fulf	-4763
ནམ་ཡང་	-4764
ར་འཚལ་	-4765
▁behold	-4766
▁sutras	-4767
ཕ་རོལ་གྱི་	-4768
▁displease	-4769
▁attainments	-4770
pra	-4771
val	-4772
ཙུན་	-4773
ཚུར་	-4774
ཤད་པ	-4775
▁ངས་	-4776
asing	-4777
རྩེ་བ	-4778
▁army	-4779
▁ལུས་	-4780
ུད་འགྲ	-4781
ངེས་པར་	-4782
▁systems	-4783
གང་གི་ཚེ་	-4784
མི་འགྱུར་་	-4785
▁immediate	-4786
▁fundamental	-4787
ཤེས་པ་འདི་ལྟར་	-4788
ush	-4789
▁je	-4790
iced	-4791
རྣ་བ	-4792
stead	-4793
ཞེས་ཟེ	-4794
▁exert	-4795
▁maras	-4796
ནས་སུ་་	-4797
སྤོབས་པ་	-4798
▁regarding	-4799
▁surrounded	-4800
་ལ	-4801
cing	-4802
ར་པ་	-4803
སྒྲུབ	-4804
སྣོད་	-4805
▁perm	-4806
མིགས་པ	-4807
ཐེ་ཚོམ་	-4808
རིམ་གྲོ	-4809
ལགས་ཏེ་	-4810
་དང་་མི་	-4811
སྙམ་དུ་བ	-4812
▁consist	-4813
▁descend	-4814
ཡེ་ཤེས་ཀྱི་	-4815
ཅིག	-4816
སྣོ	-4817
▁oh	-4818
llig	-4819
vipa	-4820
ླ་མ་	-4821
▁fif	-4822
▁get	-4823
གས་བྱ	-4824
བ་ཏུ་	-4825
འ་དང་	-4826
ཡི་གེ	-4827
▁walk	-4828
ད་དེ་་	-4829
ཚོར་བ་	-4830
ཡི་གེ་	-4831
▁arises	-4832
▁butter	-4833
▁script	-4834
▁vinaya	-4835
▁instead	-4836
འདོད་ཆགས་ད	-4837
▁impermanent	-4838
སོང་སྟེ་ཕྱིན་	-4839
རང་སངས་རྒྱས་ཀྱི་	-4840
ཁྱུ་	-4841
ready	-4842
མཛད་པ	-4843
ཡང་་་	-4844
ལེའུ་	-4845
ནི་གང་	-4846
▁resol	-4847
ན་བྱེད་	-4848
མཁྱེན་པ	-4849
ཡན་ལག་བ	-4850
སྙིང་པོ	-4851
ཕྲག་བརྒྱ	-4852
▁already	-4853
▁becomes	-4854
ཏང་སྙོམས་	-4855
རྒྱལ་བའི་	-4856
▁ལྷའི་བུ་	-4857
ཞི་གང་ཞེ་ན་	-4858
▁constitute	-4859
▁ཚུལ་ཁྲིམས་	-4860
ལས་ཡང་དག་པར་	-4861
སེམས་ཅན་ཐམས་ཅད་	-4862
▁ལ	-4863
མོ་བ	-4864
ར་འཁ	-4865
▁bed	-4866
▁ens	-4867
▁pos	-4868
▁ཇི་	-4869
▁poor	-4870
icious	-4871
་དྲི་ཟ	-4872
་དག་གི་	-4873
སྐད་དུ་	-4874
▁turned	-4875
▁རྣམ་པ་	-4876
ས་དེ་དག་	-4877
སྟན་པའི་	-4878
མེད་པ་རྣམས་	-4879
་དགེ་སློང་གི	-4880
གྲ་བཅོམ་པ་ཉིད་	-4881
ped	-4882
sol	-4883
ངོས་	-4884
་དོན་	-4885
▁east	-4886
▁renow	-4887
ception	-4888
འི་དོན་	-4889
▁incant	-4890
འདི་ནི་བ	-4891
སྒྲིབ་པ་	-4892
▁intellig	-4893
རློམ་སེམས་	-4894
▁recollect	-4895
▁furthermore	-4896
▁ཁྱིམ་བདག་དེ་ལ་ད	-4897
གུ་	-4898
▁bu	-4899
ི་བ་	-4900
▁dra	-4901
ལ་བུ་	-4902
▁magn	-4903
▁flesh	-4904
ཤེས་གཉེ	-4905
སྐད་སྨྲ	-4906
▁sister	-4907
▁monarch	-4908
འམ་གལ་ཏེ་	-4909
སྒྱུ་མའི་	-4910
ཆོས་རྣམས་ལ་	-4911
ཐེག་པ་ཆེན་པོ་	-4912
རྣམ་པར་སྨིན་པ་	-4913
་བཏ	-4914
ྲལ་	-4915
▁entr	-4916
▁powd	-4917
ཆོས་ལ་	-4918
ཐུབ་པ་	-4919
སྤྲུལ་	-4920
▁beaut	-4921
▁final	-4922
▁truly	-4923
▁gentle	-4924
མཆོད་རྟེ	-4925
ལ་བརྟེན་	-4926
▁internal	-4927
▁remember	-4928
▁designation	-4929
སེམས་བསྐྱེད་པ	-4930
pe	-4931
ange	-4932
་བོ་	-4933
▁sho	-4934
ction	-4935
ཟང་པོ	-4936
སྔོ་བ	-4937
▁mult	-4938
▁apply	-4939
ceiving	-4940
་དང་་སྙ	-4941
ངས་ཤིང་	-4942
▁fruits	-4943
ཇི་ལྟར་ན	-4944
བང་ཕྱུག་	-4945
རབ་ཏུ་ཕྱ	-4946
ཤི་འཕོས་	-4947
▁attract	-4948
ཞེས་བྱ་བར་	-4949
ཡོངས་སུ་གཏ	-4950
▁fruitional	-4951
རིགས་ཀྱི་བུའམ་	-4952
be	-4953
upon	-4954
ད་དུ	-4955
lfare	-4956
ཁྱེར་	-4957
གང་ལ་	-4958
▁jina	-4959
ཡིན་ཏེ	-4960
མཆོད་པ་	-4961
ྲུང་དུ་	-4962
▁gained	-4963
མི་མཇེད་	-4964
▁welfare	-4965
ནི་མིང་ཙམ་	-4966
ལས་ཡོངས་སུ་	-4967
▁accomplishment	-4968
་ཤི	-4969
most	-4970
ར་བཞ	-4971
▁eld	-4972
▁mast	-4973
གས་པ་བ	-4974
ར་རིག་	-4975
རྣམས་་	-4976
སྟེགས་	-4977
▁class	-4978
▁separ	-4979
ཅུང་ཟད་	-4980
▁prayed	-4981
▁teachers	-4982
ག་བརྒྱ་སྟོང་	-4983
པག་	-4984
▁aj	-4985
▁sva	-4986
འཚོ་བ	-4987
culate	-4988
གྱི་བ་	-4989
ལྟ་བའི་	-4990
▁transm	-4991
རྟག་ཏུ་བ	-4992
▁animals	-4993
▁describ	-4994
▁receive	-4995
▁attitude	-4996
▁disappear	-4997
ཀྱི་དབྱིངས་	-4998
▁རབ་འབྱོར་ད	-4999
▁realization	-5000
▁འཇིག་རྟེན་གྱི་	-5001
gs	-5002
bed	-5003
་དྲང་	-5004
མ་དེ་	-5005
རབ་ཏུ	-5006
སོའི་	-5007
▁bear	-5008
▁grou	-5009
གཟུངས་	-5010
རྐང་པ་	-5011
▁devot	-5012
▁lifes	-5013
་དེ་དང་	-5014
ནི་འདི་	-5015
ོད་དོ་་	-5016
མ་མཆིས་པ	-5017
འཐུན་པའི་	-5018
▁branches	-5019
▁gathering	-5020
་དེ་བཞིན་དུ་ད	-5021
leep	-5022
གཏན་	-5023
འགའ་	-5024
ཁྲི་བ	-5025
ཉམས་པ	-5026
▁saha	-5027
▁svaha	-5028
▁whole	-5029
་བྱེ་བ་	-5030
▁domain	-5031
ར་བྱས་པ་	-5032
ར་འདོད་པ	-5033
▁proceed	-5034
▁rejoice	-5035
ལེགས་སོ་་	-5036
▁experien	-5037
onditioned	-5038
▁drdhamati	-5039
▁intention	-5040
མད་གལ་གྱི་བུ་	-5041
▁inexpressible	-5042
ཨ་	-5043
ོབས་	-5044
▁bri	-5045
ཚིམ་པ	-5046
ེ་བོ་	-5047
▁bhad	-5048
▁incl	-5049
herent	-5050
ན་གནས་	-5051
སྒྱུ་མ་	-5052
▁caused	-5053
▁extens	-5054
▁sphere	-5055
ཐུགས་སུ་	-5056
རྣམས་སུ་	-5057
▁touched	-5058
▁possible	-5059
སྐྱེད་དོ་་	-5060
▁unconditioned	-5061
གཏོར་	-5062
ཡིས་་	-5063
▁sudd	-5064
ངན་སོང་	-5065
ུ་བཅུག་	-5066
▁constantly	-5067
ཉོན་མོངས་པའི་	-5068
mic	-5069
ific	-5070
ཁང་པ	-5071
མཉམ་	-5072
▁mot	-5073
སླབས་	-5074
▁defe	-5075
▁read	-5076
▁womb	-5077
ཐོགས་པ	-5078
གལ་ཏེ་བ	-5079
འདུག་པ་	-5080
སྔགས་པ་	-5081
ཀྱི་ཞབས་ལ་མག	-5082
གང་གའི་ཀླུང་	-5083
sy	-5084
གའ་	-5085
▁ap	-5086
ུས་ད	-5087
▁wear	-5088
ལ་བདག་	-5089
ལྟ་བས་ན	-5090
སམ་གཏན་	-5091
གས་པ་དང་་	-5092
ཕྱོགས་ཀྱི་	-5093
▁elephants	-5094
▁དགེ་བའི་རྩ	-5095
▁apprehending	-5096
གཞོན་ནུར་གྱུར་པ	-5097
▁ཤ་ར་དྭ་ཏིའི་བུ	-5098
con	-5099
བ་་	-5100
སྔ་	-5101
གསལ་	-5102
athom	-5103
མ་ཐག་	-5104
མ་དག་	-5105
ས་པད་	-5106
▁seed	-5107
་བྱེ་བ	-5108
མང་དུ་	-5109
ཤེས་རབ	-5110
མ་དཀར་པ	-5111
འི་ཚེ་བ	-5112
ོང་ངོ་་་	-5113
མ་ཡིན་ནོ་	-5114
▁kimnaras	-5115
▁peaceful	-5116
་དེ་ལྟ་བུ་	-5117
ཁམས་ཤེས་པ་	-5118
སྨོན་ལམ་བཏ	-5119
་དབེ	-5120
ཀོན་	-5121
insic	-5122
itive	-5123
ཁྱད་པ	-5124
ཕྲག་བ	-5125
ས་སྒྲ	-5126
ར་གྱི་	-5127
་དྲང་སྲ	-5128
རི་དགས་	-5129
▁jambud	-5130
▁silver	-5131
འདུལ་བའི་	-5132
འི་སྟོབས་བ	-5133
▁boundless	-5134
▁destroyed	-5135
▁ཁ་ཅིག་ནི་	-5136
གཞོན་ནུར་གྱུར་པ་	-5137
▁superknowledges	-5138
འི་དཔ	-5139
ཤུགས་	-5140
▁fell	-5141
▁last	-5142
▁reli	-5143
uished	-5144
རྣམས་ད	-5145
▁basis	-5146
▁crown	-5147
▁source	-5148
གྱུར་ཏེ་	-5149
ཆོས་གོས་	-5150
▁ascetic	-5151
▁holding	-5152
འི་དབྱངས་	-5153
མ་བཞིན་དུ་	-5154
▁intrinsic	-5155
ཚིགས་སུ་བཅད་པ	-5156
tle	-5157
ཅད་	-5158
ནུབ་	-5159
མར་པ	-5160
▁ཡང་	-5161
▁roar	-5162
idence	-5163
ཉི་ཤུ་	-5164
འཁོར་ད	-5165
▁conqu	-5166
▁subst	-5167
ཡིན་ནམ་	-5168
▁sights	-5169
མཆོག་གི་	-5170
▁covered	-5171
▁remains	-5172
▁entities	-5173
▁powerful	-5174
་དེ་དག་ཀྱང་	-5175
▁delightful	-5176
▁absorptions	-5177
eng	-5178
་ད་	-5179
་སྦ	-5180
cess	-5181
ners	-5182
འབྲེ	-5183
དེན་པ	-5184
མཛེས་	-5185
རླུང་	-5186
སྡོང་	-5187
▁midd	-5188
erence	-5189
ས་བརྒྱ	-5190
མཛེས་པ་	-5191
སྐལ་པ་བ	-5192
ས་སྨྲས་པ་བ	-5193
ཀྱི་དབང་པོ་	-5194
▁jambudvipa	-5195
rew	-5196
abor	-5197
sequ	-5198
གཏམ་	-5199
མཆི་	-5200
ལྟོ་	-5201
veled	-5202
རུང་བ	-5203
ོངས་པ	-5204
▁drum	-5205
▁དེར་	-5206
▁stupa	-5207
་དང་་སྣ	-5208
གྲགས་པ་	-5209
ཤེས་སོ་	-5210
ོང་སྟེ་	-5211
▁karmic	-5212
ཀྱང་མིང་	-5213
▁conclud	-5214
ཆོས་སྟོན་པ	-5215
▁performed	-5216
▁restraint	-5217
་དགེ་སློང་ད	-5218
གཞལ་	-5219
ཉིང་	-5220
ུ་དེ	-5221
ྭ་ཧ་	-5222
རླབས་	-5223
འདུལ་བ	-5224
▁belie	-5225
▁sakya	-5226
ལ་དགའ་བ	-5227
▁doubts	-5228
▁garden	-5229
▁kimnara	-5230
ས་སྟོང་པ་	-5231
སྐྱབས་སུ་	-5232
ེད་པ་དང་་	-5233
▁appearance	-5234
་དེ་ལོགས་སུ་	-5235
ཁ་ལོ་སྒྱུར་བ	-5236
ཨུ	-5237
ats	-5238
ཐག་	-5239
ནོ་	-5240
yana	-5241
ང་དེ	-5242
ན་ད་	-5243
▁mou	-5244
▁help	-5245
གསུང་བ	-5246
རྒྱུ་བ	-5247
▁allow	-5248
▁coming	-5249
▁looked	-5250
ལྟ་བས་ན་	-5251
▁account	-5252
▁རྒྱལ་པོ	-5253
▁delusion	-5254
▁kindness	-5255
▁ministers	-5256
ཀྱང་མིང་ཙམ་ད	-5257
ཐལ་མོ་སྦྱར་བ	-5258
▁accumulation	-5259
ka	-5260
na	-5261
com	-5262
ift	-5263
འཛུ	-5264
enth	-5265
araks	-5266
མཉན་པ	-5267
ྱིས་པ	-5268
▁foot	-5269
▁blind	-5270
▁upper	-5271
་དག་དང་	-5272
▁leader	-5273
ནམ་མཁའི་	-5274
མདུན་དུ་	-5275
▁དེའི་ཚེ	-5276
གནོད་སྦྱིན་	-5277
མངོན་པར་ཤེས་པ	-5278
by	-5279
alf	-5280
ani	-5281
uck	-5282
གའ་བ	-5283
ཟིན་	-5284
▁དགེ་	-5285
མེད་ལ་	-5286
▁fragr	-5287
ནི་བདག་	-5288
ཀུན་གྱི་	-5289
ག་པ་དང་་	-5290
གི་བྱེ་མ་	-5291
འཁོར་ལོ་བ	-5292
▁lifespan	-5293
▁developed	-5294
འི་བཤེས་གཉེ	-5295
▁བཀའ་སྩལ་པ་	-5296
▁appropriate	-5297
rt	-5298
hin	-5299
རྙེ	-5300
ཧུ་	-5301
▁cry	-5302
ཉིད་བ	-5303
མང་ལ་	-5304
ས་མི་	-5305
▁cycl	-5306
ཕྱིར་བ	-5307
ཕྲག་པ་	-5308
▁grove	-5309
▁indra	-5310
▁swift	-5311
▁terms	-5312
གནས་ནས་	-5313
ང་རྒྱལ་	-5314
མ་བྱེད་	-5315
▁senses	-5316
▁sitting	-5317
ལ་བཟོད་པ་	-5318
ལྟ་བ་དང་་	-5319
▁ordained	-5320
ན་རྒྱལ་པོ་	-5321
རྣམ་པར་དག་པ་	-5322
ན་པ་ལ་སྤྱོད་པ་	-5323
ari	-5324
རྟུལ་	-5325
▁alas	-5326
▁want	-5327
isions	-5328
་དམ་པ་	-5329
ཕྲེང་བ	-5330
ཡང་དེ་	-5331
ལགས་ན་	-5332
▁hells	-5333
▁སྲིང་	-5334
ལས་སྐྱེ	-5335
▁cyclic	-5336
་སྦྱིན་པ	-5337
རྒྱ་ཆེར་	-5338
▁magical	-5339
་དགེ་བསྙེ	-5340
མཆོད་སྦྱི	-5341
སོང་ངོ་་་	-5342
▁benefits	-5343
རྒྱལ་སྲིད་	-5344
སེམས་ཀྱིས་	-5345
▁possesses	-5346
▁ཇི་ལྟར་ན་	-5347
ེ་བཞིན་ཉིད་	-5348
ངོས་པོ་མེད་པའི་	-5349
སེམས་ཅན་རྣམས་ལ་	-5350
▁ཡ	-5351
གསང་	-5352
ན་པོ	-5353
མཉན་	-5354
ོས་་	-5355
alted	-5356
▁dont	-5357
▁knew	-5358
▁belong	-5359
▁expert	-5360
▁faults	-5361
གསུངས་པ་	-5362
ཏུ་དགའ་བ	-5363
ཞེས་བྱའོ་	-5364
▁anywhere	-5365
▁དེ་དག་གི	-5366
ཅེས་བྱས་སོ་་	-5367
▁ས	-5368
འཚོ	-5369
ཞི་པ	-5370
ཀྱི་ཚ	-5371
གནས་་	-5372
▁goes	-5373
▁move	-5374
ointed	-5375
soever	-5376
་བྱུང་	-5377
རྟག་པ་	-5378
▁equip	-5379
▁reject	-5380
▁secret	-5381
རྣམས་ལ་བ	-5382
▁contact	-5383
▁liberate	-5384
▁shoulder	-5385
་དང་བྲལ་བ་	-5386
ཅེས་བྱ་བ་བ	-5387
འི་དོན་དུ་	-5388
▁conceived	-5389
▁requested	-5390
ར་སངས་རྒྱས་	-5391
▁nonvirtuous	-5392
རྫུ་འཕྲུལ་གྱི་	-5393
▁ཚེ་དང་ལྡན་པ་ཤ	-5394
་རྩ	-5395
ress	-5396
གོ་བ	-5397
▁mal	-5398
▁cent	-5399
▁stay	-5400
མི་བལྟ	-5401
འདི་ན་	-5402
▁limbs	-5403
མ་ཡིན་་	-5404
▁elabor	-5405
▁equipo	-5406
▁inside	-5407
▁sacrif	-5408
འགྱུར་བ་	-5409
་དང་བྲལ་བ	-5410
▁becoming	-5411
▁illusion	-5412
རྐྱེན་གྱིས་	-5413
མི་དམིགས་སོ་་	-5414
ོ་ཤ	-5415
uments	-5416
▁recogn	-5417
▁spread	-5418
་བྱང་ཆུབ	-5419
འདི་དག་བ	-5420
▁carrying	-5421
▁clothing	-5422
▁prepared	-5423
▁received	-5424
རྣམ་པར་མི་	-5425
ལ་མངོན་པར་བ	-5426
▁instructed	-5427
ཡང་དག་པར་འཛི	-5428
རིགས་ཀྱི་བུ་	-5429
ཆོས་ཐམས་ཅད་ཀྱི་	-5430
air	-5431
འཐོ	-5432
▁yo	-5433
inks	-5434
▁air	-5435
three	-5436
ཆུང་ང	-5437
ཡང་བྱ	-5438
▁gift	-5439
▁song	-5440
▁འོན་	-5441
atural	-5442
ishing	-5443
ལ་པའི་	-5444
▁incre	-5445
▁instr	-5446
▁music	-5447
▁sixty	-5448
▁story	-5449
ཉིད་དེ་	-5450
ཤེས་པར་	-5451
▁imposs	-5452
་དེ་གཞན་	-5453
▁country	-5454
▁གང་གིས་	-5455
▁བདག་གི་	-5456
▁entering	-5457
▁everyone	-5458
▁traveled	-5459
▁ཇི་ལྟར་ན	-5460
སྐྱེས་བུ་ད	-5461
ཕུན་སུམ་ཚོགས་པ	-5462
men	-5463
hara	-5464
ལེགས་	-5465
ོན་པོ	-5466
▁meet	-5467
ཕྱིར་འ	-5468
ླ་གོས་	-5469
▁large	-5470
ལྡན་པ་བ	-5471
ས་སྨོན་	-5472
འི་བུ་དེ་	-5473
ྡུག་བསྔལ་	-5474
▁gateways	-5475
▁returned	-5476
▁committed	-5477
▁merchants	-5478
▁འདུ་བྱེད་	-5479
▁impossible	-5480
ཞེས་བྱ་བ་ནི་	-5481
སྐྱེ་བའི་ཆོས་	-5482
ེ་བ་ཁྲག་ཁྲིག་	-5483
ན་པའི་བློ་གྲོས་	-5484
ror	-5485
tal	-5486
mand	-5487
མ་བཅ	-5488
མེད་ད	-5489
སློབ་	-5490
▁deep	-5491
▁jinas	-5492
གཅིག་པ་	-5493
ཞེ་སྡང་	-5494
འི་བུས་	-5495
▁obscur	-5496
བ་པ་དང་་	-5497
▁maturity	-5498
▁speaking	-5499
སྐྱེས་པའི་	-5500
སྤྱོད་པའི་	-5501
▁emanations	-5502
▁whatsoever	-5503
▁fearlessness	-5504
hum	-5505
ier	-5506
ལན་	-5507
anta	-5508
ལོན་པ	-5509
▁dise	-5510
▁pond	-5511
aments	-5512
ཐུགས་བ	-5513
ར་མཛད་	-5514
སྟེན་པ	-5515
ེ་དང་་	-5516
ྱིས་པ་	-5517
▁aging	-5518
▁force	-5519
རྟག་པར་	-5520
▁former	-5521
ར་བྱས་སོ་་	-5522
ས་བྱང་ཆུབ་	-5523
ཕྱོགས་བཅུའི་	-5524
ནས་དེ་བཞིན་དུ་	-5525
སྟོང་པ་ཉིད་དང་་	-5526
irm	-5527
atch	-5528
itab	-5529
▁top	-5530
ོལ་བ་	-5531
▁lamp	-5532
ལ་དགའ་	-5533
▁group	-5534
▁སྲོག་	-5535
མཁན་པོ་	-5536
▁joined	-5537
▁throne	-5538
▁exalted	-5539
▁གྲོགས་པ	-5540
རྟེན་ཅིང་	-5541
▁formless	-5542
▁obtained	-5543
འགྱུར་རོ་་	-5544
སྐྱེ་མཆེད་	-5545
▁generated	-5546
▁transmigr	-5547
▁དེས་སྨྲས་པ་	-5548
ྲམ་ཟེའི་ཁྱེའུ་	-5549
ངོ	-5550
inqu	-5551
ག་པོ	-5552
མིན་	-5553
འཁོར	-5554
ཤོས་	-5555
ས་སྦ	-5556
ཁམས་ད	-5557
ནང་ན་	-5558
ཤེས་་	-5559
་བྱ་བ་	-5560
▁cross	-5561
▁infer	-5562
▁lions	-5563
▁perman	-5564
▁places	-5565
ནུས་སོ་་	-5566
▁monaster	-5567
▁precepts	-5568
ཆེན་པོ་དེ་	-5569
ཡོངས་སུ་མི་	-5570
ཡོན་ཏན་གྱི་	-5571
▁ཤ་རིའི་བུ་	-5572
▁immediately	-5573
ཀྱི་བསྟན་པ་ལ་	-5574
ཐབ	-5575
rog	-5576
atas	-5577
མྱ་ང	-5578
འདྲི	-5579
ྲི་བ	-5580
གྱིད་	-5581
ལྟར་ད	-5582
ུ་དག་	-5583
▁unim	-5584
་སྙིང་	-5585
ལྟུང་བ	-5586
གས་ཀྱི་	-5587
ནས་སྐྱེ	-5588
▁abodes	-5589
ར་སངས་རྒྱ	-5590
▁bhagavat	-5591
▁inherent	-5592
▁miracles	-5593
▁parasols	-5594
▁remained	-5595
གྲངས་མེད་པ	-5596
ར་བྱ་བ་དང་་	-5597
ར་བྱེད་པ་དང་་	-5598
ཡོངས་སུ་འཛིན་པ་	-5599
རྣམ་པར་སྨིན་པས་	-5600
▁བཅོམ་ལྡན་འདས་བ	-5601
གཅ	-5602
ུག	-5603
ཉེ་	-5604
ruct	-5605
▁cur	-5606
རིང་བ	-5607
▁boys	-5608
▁kaus	-5609
མོས་པ་	-5610
ོས་ཏེ་	-5611
▁paths	-5612
▁དེ་དག	-5613
ཁྱད་པར་	-5614
ཡི་དགས་	-5615
སློབ་དཔ	-5616
▁behind	-5617
▁spirits	-5618
ཞེས་བགྱི་བ	-5619
▁universes	-5620
འི་ཚུལ་གྱིས་	-5621
རང་སངས་རྒྱས་	-5622
▁accumulated	-5623
▁disappeared	-5624
མཉན་དུ་ཡོད་པ་	-5625
ཡོངས་སུ་དག་པ་	-5626
ལྷའི་དབང་པོ་བ	-5627
▁དེ་ནས་རྒྱལ་པོ་	-5628
ཕ་	-5629
ར་ཎ	-5630
imes	-5631
ksas	-5632
གེ་བ	-5633
ན་གཞ	-5634
▁rul	-5635
་དེ་ད	-5636
་བྱ་བ	-5637
ཆུབ་པ	-5638
▁jeta	-5639
གཉིས་པ	-5640
▁arrog	-5641
▁conce	-5642
ན་དེའི་	-5643
ཞབས་སུ་	-5644
སྟན་ཏེ་	-5645
▁center	-5646
▁rather	-5647
ནས་དེའི་	-5648
མེད་པ་ལ་	-5649
ཞིག་གིས་	-5650
ཡོད་དོ་་	-5651
རིགས་སུ་	-5652
སྨོན་ལམ་	-5653
▁majesty	-5654
▁relinqu	-5655
▁ཉན་ཐོས་	-5656
ུག་པ་དང་་	-5657
ཐམས་ཅད་དང་	-5658
ྱིན་གྱིས་བ	-5659
▁perfected	-5660
གྲི	-5661
གཟར་	-5662
རི་བ	-5663
▁fal	-5664
uster	-5665
རྩམས་	-5666
ཆུང་མ་	-5667
དཔག་ཏུ་	-5668
ར་འཇིག་	-5669
▁ritual	-5670
▁visual	-5671
ལྔ་བརྒྱ་	-5672
▁banners	-5673
▁virtues	-5674
གཉིས་ཀྱི་	-5675
ལྟར་མི་བལྟ	-5676
▁thereupon	-5677
ཡིད་ལ་བྱེད་པ	-5678
ash	-5679
ཀླུ	-5680
ེལ་	-5681
▁ge	-5682
cial	-5683
ries	-5684
མགོ་	-5685
ྲན་པ	-5686
▁exp	-5687
panse	-5688
ཁམས་བ	-5689
ཁྱབ་པ	-5690
▁pear	-5691
▁wood	-5692
གས་པར་	-5693
གསོལ་བ	-5694
▁sword	-5695
▁either	-5696
ཁྱིམ་དུ་	-5697
ཅིང་ནོར་	-5698
▁expanse	-5699
▁demigods	-5700
ུད་འགྲོའི་	-5701
▁contemplates	-5702
ཀུ་	-5703
rose	-5704
་མི་	-5705
སྐར་	-5706
་བརྩེ	-5707
▁sent	-5708
བང་པོ་	-5709
རེ་རེ་	-5710
▁arose	-5711
▁trust	-5712
ཀྱིས་དེ	-5713
ཞེས་སྨྲ	-5714
▁retain	-5715
▁torment	-5716
་དེ་དག་གི	-5717
་སྟོང་དུ་	-5718
གཟུགས་ཅན་	-5719
མི་བྱའོ་་	-5720
སྡིག་པའི་	-5721
▁relative	-5722
གཟུགས་བཟང་	-5723
ས་སེམས་ཅན་ད	-5724
སྐྱེས་བུའི་	-5725
་དང་བཅས་པའི་	-5726
ཅིའི་སླད་དུ་	-5727
ནི་མིང་ཙམ་སྟེ	-5728
ར་མ་གྱུར་ཅིག་	-5729
ཏིང་ངེ་འཛིན་ལ་	-5730
asm	-5731
་རྙ	-5732
ཞག་བ	-5733
ོ་བོ	-5734
▁kne	-5735
▁hung	-5736
adatta	-5737
▁དེས་བ	-5738
རྩོན་པ་	-5739
ཤེས་ཏེ་	-5740
ortioned	-5741
རྒྱལ་བུ་	-5742
▁gautama	-5743
སྙོམས་པར་	-5744
སྐྱེས་སོ་་	-5745
མི་དགེ་བའི་	-5746
ཤེས་པར་བྱ་བ	-5747
▁omniscient	-5748
འི་སྤྱད་པ་སྤ	-5749
▁བླ་ན་མེད་པ་	-5750
▁impermanence	-5751
▁དེ་བཞིན་དུ་ད	-5752
མྱ་ངན་ལས་འདས་པ	-5753
མངོན་པར་འདུས་བྱ	-5754
▁bo	-5755
cies	-5756
ཐུབ་	-5757
▁ama	-5758
▁bre	-5759
▁unw	-5760
orrow	-5761
་སྦྱི	-5762
མི་སྡ	-5763
ཡིད་བ	-5764
▁arra	-5765
▁apart	-5766
▁garud	-5767
ཟང་སྐྱོ	-5768
་བྱས་ནས་	-5769
ཁྱོད་ནི་	-5770
མྱ་ངན་འད	-5771
རྟོགས་པ་	-5772
▁victory	-5773
མྱུར་དུ་བ	-5774
▁departed	-5775
▁medicine	-5776
ས་གསོལ་ཏོ་	-5777
ཕྱུག་ཅིང་ནོར་	-5778
རྣམ་པ་སྣ་ཚོགས་	-5779
urt	-5780
ར་རྫ	-5781
▁cre	-5782
་དགུ་	-5783
ཀ་ཤི་	-5784
▁amaz	-5785
▁remo	-5786
ulated	-5787
དག་ནི་	-5788
▁makes	-5789
ཁམས་དང་	-5790
མཐོང་་་	-5791
མིགས་པ་	-5792
▁raksas	-5793
མཉེས་པར་	-5794
▁brother	-5795
▁honored	-5796
▁learning	-5797
རྒྱལ་བྱེད་	-5798
▁dedicated	-5799
ར་བྱེད་ཅིང་	-5800
ྲ་བ	-5801
▁dh	-5802
take	-5803
་སོ་	-5804
གནང་	-5805
གཡོ་	-5806
ཉུང་	-5807
མི་ཟ	-5808
འམ་ད	-5809
ད་དག་	-5810
སོང་བ	-5811
▁wild	-5812
་སྟེ་བ	-5813
འཁོར་བ་	-5814
ཡང་ཆེས་	-5815
རྒྱལ་མཚ	-5816
▁priest	-5817
འི་བསམ་པ	-5818
འོང་བའི་	-5819
སླད་དུ་བ	-5820
▁bhadrap	-5821
▁distant	-5822
▁observe	-5823
ཡང་མ་ཡིན་	-5824
སྤྱན་སྔར་	-5825
▁question	-5826
▁whenever	-5827
རྒྱལ་པོའི་ཕོ་བ	-5828
རྣམས་ཀྱི་སྟོན་པ	-5829
འི་ཚིག་བླ་དགས་བྱ	-5830
ots	-5831
ཕྲག	-5832
uras	-5833
གང་ལ	-5834
ified	-5835
ཞི་པོ	-5836
▁kles	-5837
ས་སྐྱེ	-5838
▁black	-5839
▁grass	-5840
▁pursu	-5841
▁taste	-5842
▁formed	-5843
▁guardi	-5844
▁engaged	-5845
▁feeling	-5846
གེ་སློང་ད	-5847
▁dedicate	-5848
མཆོད་རྟེན་	-5849
▁defilement	-5850
▁ཀུན་དགའ་བོ	-5851
རིགས་ཀྱི་བུ་མོ	-5852
སེམས་ཅན་དམྱལ་བ་	-5853
རིག་པ་དང་ཞབས་སུ་	-5854
▁ང	-5855
ཤད་	-5856
རྟན་	-5857
▁adv	-5858
▁few	-5859
ཀའ་བ་	-5860
བ་བོ་	-5861
འོངས་	-5862
▁hors	-5863
གཅོད་པ	-5864
ཏེ་དེ་	-5865
འཐུན་པ	-5866
▁stood	-5867
རྡོ་རྗེ	-5868
▁tastes	-5869
ར་འགྲོ་བ	-5870
▁གཞན་ཡང་	-5871
རྗེས་སུ་བ	-5872
▁inferior	-5873
ཡིན་སྙམ་འམ་	-5874
▁bhadrapala	-5875
▁collection	-5876
▁possessing	-5877
▁instruments	-5878
ཆོས་ཐམས་ཅད་ནི་	-5879
ལ་ལ	-5880
▁sn	-5881
▁ye	-5882
aniv	-5883
irti	-5884
kara	-5885
ལོག་	-5886
མགོན་	-5887
མདུན་	-5888
▁imma	-5889
▁mans	-5890
▁གང་ད	-5891
others	-5892
ཁོ་བོ་	-5893
གཉིས་ལ་	-5894
མིའམ་ཅི	-5895
ལྷག་པར་	-5896
▁དེ་ཚེ་	-5897
་རིའི་བུ	-5898
་པོ་དེ་དག	-5899
▁inspired	-5900
▁composite	-5901
▁construct	-5902
ཅོམ་ལྡན་འདས་དེ་	-5903
མང་ལ་ལོངས་སྤྱོད་	-5904
uk	-5905
avor	-5906
rupt	-5907
ཅིག་བ	-5908
ཙུན་པ་	-5909
▁doing	-5910
▁elder	-5911
▁scatt	-5912
འབྱུང་་	-5913
▁asuras	-5914
▁commit	-5915
ང་བཅས་པ་	-5916
འདྲ་བའི་	-5917
སླབ་པའི་	-5918
▁garment	-5919
རྒྱ་བྱིན་	-5920
རྨི་ལམ་ན་	-5921
▁external	-5922
ལྟ་ན་སྡུག་	-5923
▁existences	-5924
་བྱེ་བ་ཁྲག་ཁྲི	-5925
to	-5926
སྲས་	-5927
▁bro	-5928
ནགས་ཚ	-5929
ཚོལ་བ	-5930
▁door	-5931
▁fing	-5932
གཞན་ལ་	-5933
ཟློག་པ	-5934
འམ་མི་	-5935
▁inner	-5936
▁sleep	-5937
▁thing	-5938
▁leaves	-5939
▁prophe	-5940
▁yellow	-5941
མ་འོངས་པ	-5942
ལ་མཆོད་པ	-5943
ལྷ་རྣམས་	-5944
ོན་དུ་བྱ	-5945
ནས་དེ་དག་	-5946
མཉམ་པ་དང་	-5947
▁particul	-5948
▁yourself	-5949
མ་ཡིན་པའི་	-5950
▁immaculate	-5951
ླ་གོས་ཕྲག་པ་	-5952
མྱ་ངན་ལས་འདའ་བ	-5953
ཎྜ	-5954
ཏ་	-5955
སི	-5956
ང་དཔ	-5957
ངན་ས	-5958
ཚོལ་	-5959
ལག་པ	-5960
སེང་	-5961
▁ant	-5962
icked	-5963
མེའི་	-5964
ལ་ཏེ་	-5965
▁host	-5966
▁དུས་	-5967
གཏོང་བ	-5968
ཅང་མི་	-5969
ཡིན་ལ་	-5970
ཤིང་ལྗ	-5971
▁cycle	-5972
▁false	-5973
▁suddh	-5974
ལགས་སམ་	-5975
▁extend	-5976
▁klesas	-5977
ཡིད་མི་བ	-5978
ཤིན་ཏུ་ད	-5979
▁destroy	-5980
▁དཔེར་ན་	-5981
▁chariote	-5982
▁treasure	-5983
མེ་ཏོག་གི་	-5984
▁extremely	-5985
མི་མཉེས་པར་	-5986
▁འཇམ་དཔལ་གྱི	-5987
རྣམ་པར་རྟོག་པ	-5988
▁signlessness	-5989
▁concentrations	-5990
རྡུ	-5991
atis	-5992
་བདུ	-5993
སྟན་་	-5994
▁sure	-5995
▁tend	-5996
འགག་པ་	-5997
ལན་གསུ	-5998
ལས་མི་	-5999
▁abode	-6000
▁dread	-6001
▁front	-6002
དང་་རང་	-6003
མེད་པས་	-6004
ཟས་གཙང་	-6005
ལས་དེའི་	-6006
▁clothes	-6007
▁mundane	-6008
ཚུལ་བཞིན་	-6009
▁overcome	-6010
ཆེན་པོ་ནི་	-6011
▁perceived	-6012
▁resultant	-6013
ལ་ཡང་དག་པར་	-6014
སྐྱེད་མོས་ཚ	-6015
ཀྱང	-6016
སླབ	-6017
▁ས་	-6018
aran	-6019
ན་བཅ	-6020
ས་སྒ	-6021
ས་སྡ	-6022
▁bha	-6023
གོ་ཆ་	-6024
ཅིངས་	-6025
ལས་ནི་	-6026
ྲིས་པ་	-6027
▁exact	-6028
▁bhiksu	-6029
▁horses	-6030
གཞན་གྱི་	-6031
ན་གང་དག་	-6032
འབའ་ཞིག་	-6033
ར་བགྱིད་	-6034
སྒྲུབ་པ་	-6035
▁suddhod	-6036
▁swiftly	-6037
གཅིག་གིས་	-6038
ནམ་མཁའ་ལྡ	-6039
རབ་ཏུ་དབྱ	-6040
▁directly	-6041
▁exhausted	-6042
ར་བྱེད་པའི་	-6043
གང་ཡིན་པ་དེ་	-6044
གཅིག་ཏུ་གཟར་	-6045
ཐོས་མ་ཐག་ཏུ་	-6046
▁instructions	-6047
bhan	-6048
pped	-6049
་རི་	-6050
འགག་	-6051
ལ་དག	-6052
སྟེང་	-6053
solute	-6054
uality	-6055
འི་ཚད་	-6056
འོད་ཟེ	-6057
▁ajita	-6058
འི་སྒོ་	-6059
▁middle	-6060
▁rivers	-6061
ཐབས་ཅིག་	-6062
ར་བགྱིས་	-6063
▁greater	-6064
▁ལྷའི་བུ	-6065
▁accompan	-6066
▁fearless	-6067
▁གསོལ་པ་བ	-6068
ོན་དམ་པར་ན་	-6069
འི་བསྟན་པ་ལ་	-6070
▁constitutes	-6071
▁origination	-6072
gu	-6073
མཛེ	-6074
ཐུན་	-6075
སྨན་	-6076
▁nun	-6077
མཆི་བ	-6078
ཚིག་བ	-6079
ཟུང་བ	-6080
▁arms	-6081
▁male	-6082
▁palm	-6083
▁tame	-6084
་དེས་བ	-6085
དག་དང་	-6086
▁ལྷའི་	-6087
་བྱུང་བ	-6088
ལྷ་དང་་	-6089
ློན་པོ་	-6090
▁applied	-6091
མ་གཏོགས་པ	-6092
▁distance	-6093
འ་རྣམས་ཀྱི་	-6094
ུ་དེ་ལྟ་བས་ན	-6095
▁intelligence	-6096
ྲ་	-6097
bal	-6098
ses	-6099
ཤིག	-6100
nect	-6101
▁བུ་	-6102
་སྟོབ	-6103
▁held	-6104
▁prim	-6105
▁གནས་	-6106
ཕལ་པོ་	-6107
འབྱིན་	-6108
▁total	-6109
▁bright	-6110
▁fourth	-6111
▁guides	-6112
▁fixated	-6113
མུ་སྟེགས་	-6114
འི་ཕྱིར་ད	-6115
▁absolute	-6116
▁concludes	-6117
▁monastery	-6118
▁ornaments	-6119
▁proportioned	-6120
ེར་ན་སྒྱུ་མའི་	-6121
རྒྱལ་བྱེད་ཀྱི་ཚ	-6122
ྲམ་ཟེའི་ཁྱེའུ་བ	-6123
▁characteristic	-6124
་དང	-6125
rows	-6126
ཟིང་	-6127
▁yog	-6128
anasi	-6129
ཉིད་ད	-6130
ས་དག་	-6131
▁enem	-6132
▁heap	-6133
་དེར་ད	-6134
▁hence	-6135
▁unequ	-6136
ilities	-6137
་སྤྱད་པ	-6138
ང་བ་དང་	-6139
འདི་ནས་	-6140
འོད་སྲུ	-6141
▁fright	-6142
▁ཤིན་ཏུ་	-6143
ས་པའི་ལྷ་	-6144
སྐྱེས་ཏེ་	-6145
▁varanasi	-6146
▁སེམས་ཅན་ག	-6147
ཚེ་གཅིག་ཏུ་	-6148
▁transcendence	-6149
རྒྱལ་པོ་ཆེན་པོ་	-6150
ས་སངས་རྒྱས་ཀྱི་	-6151
ཆག་	-6152
མཚོན་	-6153
ལེན་པ	-6154
་དུ་མ་	-6155
ལྟ་ཅི་	-6156
▁སྟོང་	-6157
ཆེ་བའི་	-6158
མར་གྱི་	-6159
འོ་ཞེས་	-6160
▁demons	-6161
▁joyful	-6162
▁matter	-6163
མཛད་དོ་་	-6164
ར་བགྱི་་	-6165
ལུས་དང་་	-6166
▁contain	-6167
▁prayers	-6168
མཆོག་འདི་	-6169
འཁོད་དོ་་	-6170
ྲང་སྲོང་ད	-6171
▁concepts	-6172
དག་ཅག་གིས་	-6173
▁charioteer	-6174
▁prosperity	-6175
ཞེས་བྱ་བ་དང་་	-6176
ལ་ཚེ་དང་ལྡན་པ་	-6177
tes	-6178
ན་ཏ	-6179
▁bh	-6180
▁id	-6181
▁wa	-6182
cked	-6183
ན་གས	-6184
མགུར་	-6185
མེད་བ	-6186
▁fail	-6187
▁robe	-6188
▁word	-6189
▁དེ་ད	-6190
སྒྱུར་	-6191
ination	-6192
ད་དྲུག་	-6193
ན་དང་་བ	-6194
མང་པོས་	-6195
འགོག་པ་	-6196
ས་བྱིན་	-6197
▁levels	-6198
▁method	-6199
▁command	-6200
▁factors	-6201
▁vaisrav	-6202
འཁོར་བའི་	-6203
▁foremost	-6204
▁སྲེད་མེད་	-6205
▁veneration	-6206
རྩོན་འགྲུས་བ	-6207
ཐམས་ཅད་ཀྱིས་བ	-6208
་དང་ལྷན་ཅིག་ཏུ་	-6209
▁ed	-6210
ཁོར་	-6211
▁exc	-6212
▁war	-6213
གས་སྤ	-6214
མིའི་	-6215
ལག་ན་	-6216
སྙམ་ད	-6217
ོར་བ་	-6218
▁fors	-6219
itness	-6220
་བདུན་	-6221
▁sands	-6222
▁sweet	-6223
འདུས་པ་	-6224
འི་བར་ད	-6225
ཡང་མེད་	-6226
རྒྱན་པ་	-6227
རྒྱས་པ་	-6228
སྡོམ་པ་	-6229
▁pursue	-6230
ུང་བ་ནས་	-6231
▁བདག་ནི་	-6232
ཀུན་ཆུབ་པ	-6233
ནམ་མཁའ་ལ་	-6234
ས་སྦྱིན་པ	-6235
▁དེ་ལྟར་ན	-6236
མཉམ་པ་ཉིད་	-6237
▁phenomenon	-6238
▁buddhafields	-6239
▁inclinations	-6240
▁compassionate	-6241
▁དེ་ནས་དགེ་སློང་	-6242
pow	-6243
མཐའ	-6244
པོ་བ	-6245
ཞེས་ད	-6246
རིའི་	-6247
▁deta	-6248
▁near	-6249
ཡིད་ལ་	-6250
ར་བའི་	-6251
▁lifet	-6252
སྦྱར་ཏེ	-6253
▁consum	-6254
▁emerge	-6255
▁tranqu	-6256
▁unable	-6257
་དེས་ནི་	-6258
▁burning	-6259
▁emerged	-6260
▁village	-6261
▁witness	-6262
གེ་བའི་རྩ	-6263
འི་བུ་མོ་	-6264
▁demonstr	-6265
▁circumamb	-6266
▁དེ་བཞིན་དུ	-6267
ཞེས་བྱས་སོ་་	-6268
hee	-6269
་དམ	-6270
ཀང་	-6271
ར་་	-6272
orag	-6273
vere	-6274
་དུ་	-6275
ཅན་བ	-6276
ལེན་	-6277
ས་ཏེ	-6278
anged	-6279
་དཔག་	-6280
འཕགས་	-6281
འབྲུ་	-6282
▁flaw	-6283
▁ghee	-6284
གྱུར་་	-6285
▁bases	-6286
་དྲན་པ་	-6287
ངོ་མཚར་	-6288
ེད་པའི་	-6289
ལྡན་པའི་	-6290
▁candrap	-6291
▁complex	-6292
▁palaces	-6293
▁billions	-6294
▁declared	-6295
▁glorious	-6296
▁magnific	-6297
▁creatures	-6298
▁inexhaust	-6299
▁strengths	-6300
གཟུགས་ཀྱིས་	-6301
གང་དང་གང་དུ་	-6302
ཀླུའི་རྒྱལ་པོ་	-6303
side	-6304
tara	-6305
གོ་ཆ	-6306
ན་གྲ	-6307
▁van	-6308
ཟློག་	-6309
▁gems	-6310
▁succ	-6311
ས་སྦྱི	-6312
▁stead	-6313
▁contro	-6314
▁sorrow	-6315
ཁམས་འདི་	-6316
ཡོན་ཏན་བ	-6317
ཤིང་ས་ལ་	-6318
སྟེང་དུ་	-6319
▁connect	-6320
ཁ་ཅིག་ནི་	-6321
ཁྱེའུ་དེ་	-6322
གསུམ་པའི་	-6323
ོན་པ་དང་་	-6324
▁meditate	-6325
▁sickness	-6326
ར་གྱིས་ཤིག་	-6327
▁dharmabhan	-6328
ཡང་ཆེས་ཕ་རོལ་	-6329
ཟོ	-6330
▁ན	-6331
hav	-6332
raid	-6333
ཚོང་	-6334
ས་སྲ	-6335
ར་ཎ་ས	-6336
སྤང་བ	-6337
▁mine	-6338
lesome	-6339
ངག་གི་	-6340
▁lords	-6341
གཅིག་ལ་	-6342
གསུངས་་	-6343
མི་ནུས་	-6344
སེང་གེ་	-6345
▁sakyas	-6346
▁inquire	-6347
▁mahorag	-6348
ར་འབྱུང་བ	-6349
▁formation	-6350
▁scattered	-6351
▁perceiving	-6352
ཡན་ལག་བརྒྱད་པ	-6353
ར་འགྱུར་བ་དེ་	-6354
གླི	-6355
▁ru	-6356
ེ་བྱ	-6357
▁den	-6358
erred	-6359
འཕྱེ་	-6360
▁mand	-6361
▁weap	-6362
སླད་དུ	-6363
▁auster	-6364
▁dreams	-6365
ར་འཇུག་པ	-6366
▁mastery	-6367
▁methods	-6368
▁recited	-6369
▁resolve	-6370
▁engaging	-6371
▁rejoiced	-6372
ན་པ་ཟབ་མོ་	-6373
ན་དྲང་སྲོང་	-6374
▁defilements	-6375
་དཔག་ཏུ་མེད་པ	-6376
ར་གྱུར་ཅིག་མི་	-6377
རིགས་ཀྱི་བུ་མོ་	-6378
four	-6379
ས་སླ	-6380
ུང་ད	-6381
hadra	-6382
ནས་སྟ	-6383
ས་ལ་བ	-6384
▁blaz	-6385
vering	-6386
གྲགས་པ	-6387
ད་དེ་བ	-6388
མྱལ་བ་	-6389
▁treat	-6390
གནས་ཏེ་	-6391
▁served	-6392
▁thirst	-6393
ཀུར་སྟི་	-6394
ན་གནས་པ་	-6395
▁passing	-6396
▁princes	-6397
ཇི་ལྟ་བུ་	-6398
མཐོང་སྟེ་	-6399
ཡིན་གྱིས་	-6400
རྩོན་འགྲུ	-6401
ལ་སྨྲས་པ་	-6402
ལྟོ་འཕྱེ་	-6403
ཀྱིས་སྟོང་	-6404
ཆེན་པོ་དང་	-6405
▁unequaled	-6406
▁wholesome	-6407
་དགེ་སྦྱོང་	-6408
▁cultivated	-6409
ཡིན་པར་སེམས་	-6410
▁བཞི་གང་ཞེ་ན་	-6411
་རྫ	-6412
ླ་མ	-6413
་སྣ་	-6414
ཀའི་	-6415
ཐེ་ཙ	-6416
ེབས་	-6417
ང་ཡི་	-6418
ར་འཇི	-6419
རི་མོ	-6420
དུད་རྩི	-6421
ན་ཁྱོད་	-6422
ཞེས་དེ་	-6423
ཟླ་འོད་	-6424
ཁམས་ཀྱི་	-6425
▁exactly	-6426
▁instant	-6427
▁similar	-6428
མེད་པ་དང་	-6429
འགྲོ་བའི་	-6430
རྣམས་ལགས་	-6431
རྣམས་ཀྱི་བ	-6432
▁transgress	-6433
ཁོང་དུ་ཆུད་པ	-6434
མེད་ཅེས་བྱ་བ	-6435
▁ཉོན་མོངས་པ་	-6436
མེད་པའི་ཕྱིར་	-6437
རྩི་	-6438
peded	-6439
རྐྱེན་	-6440
▁queen	-6441
▁ཁྱེད་	-6442
་བཅུའི་	-6443
་བྱམས་པ	-6444
་བྱས་པ་	-6445
འི་བུ་བ	-6446
▁ceases	-6447
▁killed	-6448
ཁྲི་བཞི་	-6449
▁grasped	-6450
▁passion	-6451
▁childish	-6452
▁dreadful	-6453
གནོད་སེམས་	-6454
ད་དུ་གསོལ་	-6455
▁followers	-6456
▁gandharva	-6457
▁unimpeded	-6458
འདི་སྐད་དུ་	-6459
ཐམས་ཅད་རྣམ་པར་	-6460
wor	-6461
རྟ་	-6462
ན་བཟ	-6463
རིམ་	-6464
ལྟས་	-6465
གྲུབ་	-6466
རྟགས་	-6467
སྐབས་	-6468
▁dust	-6469
མཆོག་བ	-6470
▁outer	-6471
གཟུགས་ས	-6472
ང་བཅས་པ	-6473
འི་ཕྱིར	-6474
ོན་པའི་	-6475
མ་པའི་ཆོ	-6476
ནས་སྨྲས་པ་	-6477
▁attaining	-6478
▁syllables	-6479
▁གང་གི་ཚེ་	-6480
འི་ཕྱིར་རོ་	-6481
▁disturbing	-6482
▁formations	-6483
▁candraprabha	-6484
▁ཁ་ཅིག་གིས་ནི་	-6485
རྣམས་ཀྱི་ནང་དུ་	-6486
འི་སངས་རྒྱས་ཀྱི་	-6487
ཏི	-6488
happ	-6489
མཁའ་	-6490
འདེབ	-6491
▁bir	-6492
▁hor	-6493
▁loc	-6494
▁pet	-6495
གྲགས་	-6496
ཙུགས་	-6497
རྒྱང་	-6498
illing	-6499
་བ་དང་	-6500
ནང་གི་	-6501
ོག་དང་	-6502
▁gives	-6503
▁towns	-6504
▁དེས་ད	-6505
ཉིད་དང་	-6506
ར་བྱས་པ	-6507
ལྡོག་པ་	-6508
མཚུངས་པར་	-6509
རྒྱལ་པོ་བ	-6510
ལ་བརྩོན་པ	-6511
▁དེ་བཞིན་	-6512
་སེམས་ཅན་ད	-6513
མ་ཡིན་གྱི་	-6514
ལུང་སྟོན་པ	-6515
▁considers	-6516
མ་མཆིས་པའི་	-6517
▁continuous	-6518
ཁམས་མི་མཇེད་	-6519
་དཔག་ཏུ་མེད་པ་	-6520
▁inexhaustible	-6521
▁ཕ	-6522
pro	-6523
་རྒ	-6524
གཉི་	-6525
ལོང་	-6526
▁bur	-6527
▁env	-6528
▁new	-6529
སྡུ་བ	-6530
▁unre	-6531
akirti	-6532
གཞུག་པ	-6533
མཐོ་རི	-6534
སེམས་པ	-6535
▁abund	-6536
ན་གྱི་ད	-6537
སྡིག་པ་	-6538
▁adhere	-6539
▁unhapp	-6540
ཙམ་གྱིས་	-6541
▁believe	-6542
▁seeking	-6543
ཀོན་མཆོག་	-6544
གཙུག་ལག་ཁ	-6545
▁inquired	-6546
▁servants	-6547
▁ཁྱོད་ཀྱིས་	-6548
མངོན་སུམ་དུ་	-6549
ཞེས་ཟེར་རོ་་	-6550
▁thirtythree	-6551
▁quintillions	-6552
་དགེ་བའི་རྩ་བ་བ	-6553
res	-6554
ཐང་	-6555
ames	-6556
atha	-6557
teen	-6558
མོད་	-6559
ཚུན་	-6560
▁kum	-6561
erest	-6562
icial	-6563
ously	-6564
taken	-6565
uddha	-6566
འོད་ད	-6567
སེལ་བ	-6568
▁says	-6569
སྒོམས་	-6570
▁flour	-6571
▁seeds	-6572
འི་དབང་	-6573
ལས་ཀྱང་	-6574
ཤེས་པ་བ	-6575
ན་བཞུགས་	-6576
ས་སྨྲས་པ	-6577
▁provide	-6578
▁refrain	-6579
ལུང་བསྟན་	-6580
▁renowned	-6581
གསུངས་པའི་	-6582
▁actualize	-6583
▁དེ་དག་ནི་	-6584
ཆོས་འདུལ་བ་	-6585
ཞེས་བརྗོད་པ	-6586
▁suddhodana	-6587
་དག་ཡིན་ནོ་་	-6588
▁quintillion	-6589
རིག་པར་བྱའོ་་	-6590
ཅོམ་ལྡན་འདས་བྱ	-6591
རབ་འབྱོར་གྱིས་	-6592
ཆོས་ཀྱི་དབྱིངས་	-6593
ཤིང་ས་ལ་ཆེན་པོ་	-6594
br	-6595
bit	-6596
vati	-6597
མ་ལ་	-6598
ེང་ག	-6599
ཕྱེ་མ	-6600
▁wide	-6601
atives	-6602
ད་ཅིང་	-6603
▁embra	-6604
ལྟ་ག་ལ་	-6605
གཞལ་མེད་	-6606
མགོན་པོ་	-6607
རིག་པའི་	-6608
ེ་དག་གི་	-6609
▁རབ་འབྱོར	-6610
མངོན་པར་འཕ	-6611
▁continued	-6612
་དེའི་ཕྱིར་	-6613
▁mendicants	-6614
▁apprehended	-6615
▁vimalakirti	-6616
་དགེ་སློང་དག་	-6617
ཅོམ་ལྡན་འདས་བ	-6618
vi	-6619
རོ	-6620
ini	-6621
lod	-6622
uma	-6623
རླབ	-6624
cise	-6625
གོང་	-6626
ཚེ་བ	-6627
ཡོང་	-6628
ྲི་ཟ	-6629
འི་དུ	-6630
▁bath	-6631
▁grew	-6632
▁leag	-6633
▁road	-6634
ically	-6635
orning	-6636
ལ་བབ་པ	-6637
▁mouth	-6638
་དང་་ལྕ	-6639
འབྲེལ་པ	-6640
ས་སྟོན་	-6641
སྟན་དུ་	-6642
▁extent	-6643
ཀུན་དགའ་	-6644
ཆོས་ཉིད་	-6645
ལྟ་ཅི་སྨ	-6646
▁hardship	-6647
▁unfathom	-6648
་དང་ལྡན་ན་	-6649
ཐམས་ཅད་ནི་	-6650
འཛིན་པ་དང་་	-6651
རབ་ཏུ་བྱུང་བ	-6652
ལྟ་ན་སྡུག་ལ་	-6653
▁brahmadatta	-6654
་དགེ་བའི་རྩ་བ	-6655
རྣམ་པར་གྲོལ་བ་	-6656
འཁོར་ལོ་བསྐོར་བ	-6657
ུད་འགྲོའི་སྐྱེ་	-6658
af	-6659
གཡེ	-6660
ཕྲ་	-6661
མལ་	-6662
རལ་	-6663
རྐྱ	-6664
▁ak	-6665
lled	-6666
འབར་	-6667
ཤི་བ	-6668
▁lad	-6669
being	-6670
་པའི་	-6671
▁grow	-6672
▁thor	-6673
ission	-6674
ཆོས་སྣ	-6675
ཉམས་པ་	-6676
འཆི་བ་	-6677
གྲུབ་པ་	-6678
ཅན་དང་་	-6679
མཉམ་པར་	-6680
ལྷའི་བུ	-6681
ོས་པའི་	-6682
ླངས་ཏེ་	-6683
▁attent	-6684
▁health	-6685
ན་དེ་ནི་	-6686
▁garudas	-6687
▁lacking	-6688
▁morning	-6689
▁success	-6690
འི་བསམ་པ་	-6691
▁thorough	-6692
▁mahoragas	-6693
▁permanent	-6694
་དེ་དང་དེར་	-6695
▁attendants	-6696
▁practition	-6697
་དང་་ལྷ་མ་ཡི	-6698
་དང་་སྡུག་བསྔ	-6699
ཏིང་ངེ་འཛིན་འདི་	-6700
go	-6701
lls	-6702
oms	-6703
ནེ་	-6704
▁lic	-6705
itute	-6706
གསལ་བ	-6707
འཚལ་བ	-6708
གཡོ་བ་	-6709
གྲོལ་བ	-6710
མ་ལགས་	-6711
་དག་དེ་	-6712
་དང་ནི་	-6713
རྣ་བའི་	-6714
▁points	-6715
་བྱས་ཏེ་	-6716
གནས་ཀྱི་	-6717
▁རྟག་ཏུ་	-6718
ཆོས་སྨྲ་བ	-6719
མཐར་གྱིས་	-6720
ར་གྱུར་ན་	-6721
རིག་སྔགས་	-6722
▁solitude	-6723
ནམ་མཁའ་དང་	-6724
རང་སངས་རྒྱ	-6725
▁cognition	-6726
▁དྲང་སྲོང་	-6727
▁associated	-6728
atr	-6729
་བི	-6730
ལེ་	-6731
ཉན་པ	-6732
ཟོད་	-6733
འཚོ་	-6734
▁hes	-6735
▁sad	-6736
izing	-6737
▁cool	-6738
▁excl	-6739
▁stop	-6740
garbha	-6741
istine	-6742
ནང་ནས་	-6743
མ་ཞིང་	-6744
མར་དང་	-6745
སྒྲོན་	-6746
▁དགའ་བ	-6747
མཐོང་ན་	-6748
▁mighty	-6749
▁reveal	-6750
ལ་རབ་ཏུ་	-6751
▁wealthy	-6752
ལས་བྱུང་བ	-6753
▁interest	-6754
▁pristine	-6755
གི་དབང་པོ་	-6756
་བྱུང་ངོ་་་	-6757
རྗེས་སུ་འབྲ	-6758
མངོན་པར་འདུ་	-6759
elf	-6760
མེད	-6761
ཞུ་	-6762
འ་་	-6763
ེག་	-6764
་སུ་	-6765
ཏོག་	-6766
ལའང་	-6767
▁vow	-6768
▁deer	-6769
▁deva	-6770
▁firm	-6771
▁send	-6772
ension	-6773
འཁོད་པ	-6774
▁melod	-6775
▁sever	-6776
▁solid	-6777
▁ཇི་ལྟ	-6778
་དེའི་བ	-6779
▁kausika	-6780
རྒྱུན་མི་	-6781
▁prophecy	-6782
མཉམ་པ་དང་་	-6783
ཤ་རིའི་བུ་	-6784
▁beginning	-6785
ན་དང་་དྲི་ཟ	-6786
མཐོང་བ་དང་་	-6787
རིན་པོ་ཆེ་སྣ	-6788
▁དེ་བཞིན་དུ་བ	-6789
་རྡ	-6790
asen	-6791
ཞུ་བ	-6792
ལ་དཔ	-6793
ersed	-6794
ཆུའི་	-6795
▁bond	-6796
▁mass	-6797
▁meal	-6798
གན་དུ་	-6799
གཙོ་བོ་	-6800
གསུམ་པ་	-6801
འགའ་ཞིག་	-6802
▁oneself	-6803
ཁྱུ་མཆོག་	-6804
མེད་པའི་བ	-6805
འཁོར་གྱི་	-6806
▁terrified	-6807
▁sangharaks	-6808
མི་བྱེད་དོ་་	-6809
ros	-6810
inal	-6811
ན་གཟ	-6812
▁cel	-6813
▁gaz	-6814
གཡོག་	-6815
ས་པོ་	-6816
ྱིན་པ	-6817
▁ང་དེ	-6818
estial	-6819
མཐར་ཐུ	-6820
ེད་དེ་	-6821
▁smile	-6822
▁tamed	-6823
ངས་ཏེ་བ	-6824
ཉེ་བར་བ	-6825
མིང་དང་	-6826
འ་རྣམས་	-6827
འདྲེན་པ	-6828
▁wished	-6829
་དེ་ཉིད་	-6830
རྟུལ་ཞུགས་	-6831
རང་བཞིན་གྱི	-6832
ཆོས་སྣང་བའི་	-6833
▁accompanied	-6834
རྣམ་པར་བྱང་བ་	-6835
་དྲི	-6836
ཆུ་བ	-6837
་ཏིང་	-6838
ཆོས་ད	-6839
སྐྲག་	-6840
ཕྱིར་ར	-6841
ཡོད་ན་	-6842
རྒྱ་ཆེ	-6843
ས་ཏེ་་	-6844
ཨུད་པ་	-6845
ུས་ཏེ་	-6846
▁ident	-6847
▁miser	-6848
གསུངས་པ	-6849
ས་པ་དང་	-6850
▁བདག་གི	-6851
གཞན་ཡང་ད	-6852
ཚུར་ཤོག་	-6853
ལྷ་དང་མི	-6854
▁destruct	-6855
▁fourfold	-6856
་དྲང་སྲོང་	-6857
ཡང་དག་པར་འ	-6858
ར་མི་བྱེད་	-6859
▁celestial	-6860
ཞེས་བགྱི་བ་	-6861
▁རབ་འབྱོར་བྱ	-6862
གཟུགས་བཟང་ཞིང་བ	-6863
▁དེ་ཅིའི་སླད་དུ་	-6864
ངེ	-6865
ton	-6866
▁ah	-6867
chav	-6868
illi	-6869
ཆོག་	-6870
མས་བ	-6871
▁ཨོ་	-6872
adhar	-6873
་དམ་པ	-6874
atures	-6875
ངོས་པོ	-6876
▁indic	-6877
▁lumin	-6878
▁touch	-6879
▁མཐོང་	-6880
ནས་དེས་	-6881
སེམས་ལ་	-6882
▁brilli	-6883
▁guided	-6884
་དེའི་ཚེ	-6885
▁licchav	-6886
▁special	-6887
▁གལ་ཏེ་བ	-6888
རྒྱལ་མཚན་	-6889
▁accepted	-6890
▁relatives	-6891
ཉིད་ཀྱི་ཕྱི	-6892
▁དེ་དག་གིས་	-6893
རྣམ་པར་གྲོལ་	-6894
▁intermediate	-6895
ug	-6896
ཊ་	-6897
ism	-6898
adha	-6899
བང་བ	-6900
▁ide	-6901
▁uno	-6902
▁ལས་	-6903
asant	-6904
མཚན་ད	-6905
མཛད་་	-6906
▁bery	-6907
ptions	-6908
▁caste	-6909
ཞི་བའི་	-6910
རྙེད་པ་	-6911
གཅིག་གི་	-6912
▁thereby	-6913
་དགེ་བའི་	-6914
་དེ་ལྟ་བུ	-6915
མདུན་དུ་བ	-6916
▁fettered	-6917
▁youthful	-6918
་དང་བཅས་པ་	-6919
་དབང་ཕྱུག་	-6920
ར་འཚལ་ལོ་་	-6921
▁venerated	-6922
▁ཆོས་རྣམས་	-6923
▁complexion	-6924
▁prostrations	-6925
▁sangharaksita	-6926
▁སེམས་ཅན་དཔག་ཏུ་	-6927
ags	-6928
jay	-6929
ཁ་ཏ	-6930
ཁྲོ	-6931
araj	-6932
ངམ་བ	-6933
ཕྱེ་	-6934
ལ་གཞ	-6935
▁deg	-6936
masri	-6937
ཅེས་བ	-6938
འ་ནི་	-6939
རྗེ་བ	-6940
ལུགས་	-6941
▁heed	-6942
རིན་ཆེ	-6943
ོངས་པ་	-6944
▁dimin	-6945
▁girls	-6946
▁mahak	-6947
▁unple	-6948
སེམས་པ་	-6949
སྨོན་པ་	-6950
▁search	-6951
▁spirit	-6952
གཅིག་པུ་	-6953
ཐོས་སོ་་	-6954
མ་བཅིངས་	-6955
▁དེ་ནས་ས	-6956
▁རྣམ་པར་	-6957
རྒྱལ་པོས་	-6958
▁regarded	-6959
མངོན་དུ་བྱ	-6960
▁destitute	-6961
་དེ་དག་དང་་	-6962
་དེ་དེ་བཞིན་	-6963
▁illuminated	-6964
མངོན་པར་སྤྲུལ་	-6965
འཇིག་རྟེན་ལས་འད	-6966
འབྱུང་བར་འགྱུར་	-6967
ཡང་དག་པར་རབ་ཏུ་བ	-6968
ཏམ་	-6969
asam	-6970
་དགའ	-6971
ངུལ་	-6972
ཆད་པ	-6973
སྟི་	-6974
▁imb	-6975
itory	-6976
་དཔལ་	-6977
ཏུ་བྱ	-6978
དགའ་བ	-6979
ལྡན་་	-6980
ས་སྤྲ	-6981
▁band	-6982
▁summ	-6983
ཞིག་ན་	-6984
སོང་བ་	-6985
▁indul	-6986
▁union	-6987
་དག་ཏུ་	-6988
གནས་དང་	-6989
འབྱིན་པ	-6990
རིང་དུ་	-6991
▁afraid	-6992
▁amount	-6993
▁carried	-6994
གྲ་བཅོམ་པ	-6995
ཙུན་མོའི་	-6996
ཡིད་ཀྱིས་	-6997
▁features	-6998
ས་ཡོངས་སུ་	-6999
▁mendicant	-7000
▁wellbeing	-7001
ག་ལ་བ་དེར་ད	-7002
▁instruction	-7003
འི་ཚུལ་ཁྲིམས་	-7004
▁བྱང་ཆུབ་ཀྱི་	-7005
་དང་་དེ་བཞིན་དུ་	-7006
elt	-7007
inir	-7008
ཁོང་	-7009
ཕན་པ	-7010
▁esc	-7011
▁mem	-7012
ཁྱེའུ	-7013
ནི་མ་	-7014
སྭ་ཧ་	-7015
▁fool	-7016
▁neck	-7017
isible	-7018
ཀློག་པ	-7019
ལྷ་ཡི་	-7020
སྙིང་བ	-7021
▁north	-7022
▁thund	-7023
▁བདུད་	-7024
ར་བྱ་སྙ	-7025
▁arisen	-7026
▁colors	-7027
▁exclus	-7028
ཀུན་ཏུ་བ	-7029
གནས་དང་་	-7030
ཇི་སྐད་བ	-7031
▁བྱང་ཆུབ	-7032
▁འཇིག་རྟེ	-7033
གང་དག་ཡིན་པ	-7034
རྣ་བ་དང་་སྣ	-7035
འདུ་ཤེས་མེད་	-7036
▁experienced	-7037
ཆོས་སྣང་བའི་སྒོ་	-7038
ནི་དགེ་བའི་རྩ་བ་	-7039
▁circumambulated	-7040
ne	-7041
for	-7042
tak	-7043
ཀ་ལ	-7044
▁od	-7045
angu	-7046
ator	-7047
་དབུ	-7048
རབས་	-7049
ུམ་བ	-7050
antra	-7051
ལྷགས་	-7052
▁ausp	-7053
▁iron	-7054
▁tied	-7055
ཕྱག་བྱ	-7056
ཚོལ་བ་	-7057
འདྲི་བ	-7058
ཡིད་ཆེ	-7059
ར་སྣང་	-7060
ལོན་པ་	-7061
ས་བོན་	-7062
ོན་པར་	-7063
▁south	-7064
pressed	-7065
་དབྱངས་	-7066
་སྟོབས་	-7067
▁holder	-7068
▁རང་གི་	-7069
ཕྱིན་ཅི་	-7070
▁company	-7071
་དེ་ལྟར་ན	-7072
ཁང་པ་བརྩེ	-7073
▁fortunate	-7074
▁བསོད་ནམས་	-7075
འི་ཁམས་དང་་	-7076
ན་ཅིག་ཕྱིར་འ	-7077
འདི་སྙམ་དུ་བ	-7078
མ་བཅིངས་མ་གྲོ	-7079
▁renunciation	-7080
ཞིག་བྱུང་ངོ་་་	-7081
of	-7082
ada	-7083
ajy	-7084
hij	-7085
ief	-7086
iti	-7087
འཕེ	-7088
fast	-7089
itra	-7090
orts	-7091
སྐྱི	-7092
ོང་་	-7093
isajy	-7094
rence	-7095
ཉེས་ད	-7096
མ་ནས་	-7097
མགུ་བ	-7098
ས་སྤྱ	-7099
▁less	-7100
▁line	-7101
▁ཐབས་	-7102
encies	-7103
ཤིང་་་	-7104
▁harsh	-7105
▁oppos	-7106
ཆེ་ཞིང་	-7107
ན་པ་ནི་	-7108
ཟང་ཟིང་	-7109
རྩེ་མོ་	-7110
▁clouds	-7111
▁harmed	-7112
▁releas	-7113
▁renoun	-7114
ཁྱོད་ཀྱི	-7115
▁appears	-7116
▁forests	-7117
▁precise	-7118
▁བྲམ་ཟེ་	-7119
▁bhaisajy	-7120
▁mahayana	-7121
▁mastered	-7122
▁opportun	-7123
ཐམས་ཅད་ལས་	-7124
འཕགས་པའི་བ	-7125
སྒྲུབས་ཏེ་	-7126
འདོད་པ་དང་་	-7127
ས་པད་མ་དཀར་པ	-7128
▁assumptions	-7129
▁disciplined	-7130
ལས་ཡང་དག་པར་འད	-7131
vaj	-7132
▁ཀྱ	-7133
used	-7134
་བརྙ	-7135
གང་་	-7136
ད་དཔ	-7137
ཟེད་	-7138
ོད་་	-7139
▁arr	-7140
orted	-7141
་སྐད་	-7142
ལག་མཐ	-7143
▁post	-7144
▁avoid	-7145
▁cloud	-7146
▁deter	-7147
▁incom	-7148
གང་ཞིག་	-7149
ཡི་གེར་	-7150
སྲིད་པ་	-7151
▁abides	-7152
▁gather	-7153
▁nonhum	-7154
▁subtle	-7155
▁རྒྱལ་བ	-7156
གང་གི་ཚེ	-7157
འཐུན་པར་	-7158
འདུག་ནས་	-7159
ལྷུང་བཟེ	-7160
ུས་གསུམ་	-7161
▁enjoyed	-7162
▁ཀུན་ནས་	-7163
དེ་བ་དང་་	-7164
སྦྱར་རོ་་	-7165
འདི་ཉིད་ལ་	-7166
▁steadfast	-7167
སྡུག་བསྔལ་བ	-7168
▁actualized	-7169
▁substances	-7170
མངོན་པར་དགའ་བ	-7171
els	-7172
oud	-7173
ric	-7174
▁གཞ	-7175
iety	-7176
་དུར	-7177
་སྲི	-7178
ད་མ་	-7179
ན་དྲ	-7180
ཙལ་བ	-7181
ལ་བཀ	-7182
སྔོན	-7183
ིད་ཙ	-7184
▁cow	-7185
▁laz	-7186
▁tas	-7187
▁པད་	-7188
ཁྲོ་བ	-7189
ཆགས་བ	-7190
སྨིན་	-7191
▁མིག་	-7192
return	-7193
ང་ཉིད་	-7194
▁convi	-7195
▁takes	-7196
▁yaksa	-7197
▁དགེ་བ	-7198
agarbha	-7199
་དེ་ལ་བ	-7200
གྱིད་པ་	-7201
▁create	-7202
▁pearls	-7203
▁strife	-7204
▁strive	-7205
▁uttara	-7206
inirvana	-7207
མི་རྟག་པ	-7208
སྐྱེ་བར་	-7209
སྤྲུལ་པ་	-7210
▁wishing	-7211
ཐམས་ཅད་སྤ	-7212
ར་བྱ་བའི་	-7213
རྒྱ་སྟོང་	-7214
ཤེས་པ་དང་	-7215
▁fragrant	-7216
▁standing	-7217
▁reference	-7218
▁ཁྱོད་ཀྱི་	-7219
ལ་སོགས་པའི་	-7220
▁compounded	-7221
▁unpleasant	-7222
▁discernment	-7223
▁magnificent	-7224
▁parinirvana	-7225
་དང་་ལྕེ་དང་་	-7226
སོའི་སྐྱེ་བོ་	-7227
▁designations	-7228
་དྲི་མ་མེད་པར་	-7229
་སངས་རྒྱས་ཀྱི་	-7230
འཇིག་རྟེན་སྐྱོ	-7231
སྡུག་བསྔལ་གྱི་	-7232
ཏིང་ངེ་འཛིན་གྱི་	-7233
ངུ	-7234
isk	-7235
ding	-7236
་སྨྲ	-7237
བས་བ	-7238
མགུ་	-7239
ཟུག་	-7240
▁sev	-7241
▁suk	-7242
དང་་བ	-7243
མིགས་	-7244
རྒྱས་	-7245
▁appl	-7246
▁pill	-7247
▁step	-7248
མར་མེ་	-7249
ཞིག་བཙ	-7250
སྐྱབས་	-7251
▁birds	-7252
▁motiv	-7253
▁shook	-7254
▁start	-7255
▁using	-7256
ན་དང་་་	-7257
འགྲུབ་པ	-7258
ཡང་ཡིན་	-7259
ླངས་ནས་	-7260
▁answer	-7261
▁relics	-7262
གས་པ་དང་	-7263
མཚུངས་པ་	-7264
ཟུང་སྟེ་	-7265
་དགེ་སྦྱོ	-7266
དག་ཅག་གི་	-7267
ཟང་སྐྱོང་	-7268
སྐྱེད་ནས་	-7269
▁absorbed	-7270
▁bodhisat	-7271
▁emanated	-7272
▁licchavi	-7273
རྒྱལ་རིགས་	-7274
རྣལ་འབྱོར་	-7275
ཤཀྱ་ཐུབ་པ་	-7276
▁anguished	-7277
▁prostrate	-7278
ཅུ་གང་ཞེ་ན་	-7279
མ་བྱེད་ཅིག་	-7280
▁accordance	-7281
ངོས་པོ་མེད་པ	-7282
▁exclusively	-7283
▁liberations	-7284
རིན་པོ་ཆེ་དང་་	-7285
ར་གྱུར་པ་དེ་གཞན་	-7286
ཤེས་པ་ཡང་དག་པར་འ	-7287
གེ	-7288
ཙྪ	-7289
ava	-7290
leg	-7291
mble	-7292
ustr	-7293
ཉེར་	-7294
ཕམ་པ	-7295
▁mor	-7296
▁rem	-7297
luded	-7298
གང་གི	-7299
གཤིན་	-7300
ཅོད་པ	-7301
▁lost	-7302
▁mess	-7303
▁stra	-7304
འཚོ་བ་	-7305
ལྕེའི་	-7306
ལྷ་མོ་	-7307
ུང་ནས་	-7308
ུས་མོ་	-7309
ོན་ཏེ་	-7310
ཆོས་དེ་	-7311
འདོགས་པ	-7312
ོས་ཀྱང་	-7313
▁extrem	-7314
▁imbued	-7315
▁mahama	-7316
▁unhind	-7317
གསུམ་དུ་	-7318
སྙམ་སྟེ་	-7319
▁degener	-7320
▁devoted	-7321
ར་གྱུར་ཏེ	-7322
▁continue	-7323
▁padmasri	-7324
▁དེ་གཉིས་	-7325
ར་འཇིག་རྟེ	-7326
▁otherwise	-7327
▁དེ་སྐད་ཅེ	-7328
ཅེས་བྱ་བའི་	-7329
▁auspicious	-7330
▁confidence	-7331
▁tendencies	-7332
▁unhindered	-7333
ཞེས་བྱ་བ་ནས་	-7334
སླབ་པའི་གཞི་	-7335
འོད་སྲུང་གིས་བ	-7336
མི་སྐྱེ་བའི་ཆོས་	-7337
▁པ	-7338
ury	-7339
་དྷ	-7340
་རྗེ	-7341
ཐ་སྙ	-7342
ཤ་སྟ	-7343
སུས་	-7344
▁oil	-7345
▁ལམ་	-7346
attle	-7347
ནུབ་པ	-7348
ལུས་བ	-7349
▁imag	-7350
▁join	-7351
▁maid	-7352
▁tens	-7353
གདུལ་བ	-7354
ཉེས་པ་	-7355
འདུས་པ	-7356
▁treas	-7357
ཅི་ཞིག་	-7358
ད་དུ་བྱ	-7359
འོན་ཏེ་	-7360
ལྟ་ཞིང་	-7361
སྤྱད་པ་	-7362
རྣམ་ཐོས་	-7363
རྫོབ་ཏུ་	-7364
སྐྱེ་དགུ	-7365
▁ability	-7366
▁focused	-7367
འི་ཕྱིར་་	-7368
▁garments	-7369
▁provided	-7370
ཉན་ཐོས་ཀྱི	-7371
▁elaborate	-7372
▁equipoise	-7373
་དང་ལྡན་པས་	-7374
▁maturation	-7375
རྗེས་སུ་ཡི་ར	-7376
ཉན་ཐོས་དང་་རང་	-7377
ཆེ་བའི་རིགས་སུ་	-7378
ཕུ	-7379
ཡིད	-7380
▁fil	-7381
▁sir	-7382
iring	-7383
tract	-7384
འགག་པ	-7385
རྩ་བ་	-7386
▁echo	-7387
▁repe	-7388
གཏུམ་པ	-7389
གསེར་ད	-7390
རྒྱན་པ	-7391
སླབ་པ་	-7392
ceasing	-7393
་དབང་པོ	-7394
ཕན་ཡོན་	-7395
ཕྱིར་རྒ	-7396
ོས་དང་་	-7397
སམ་གཏན་བ	-7398
▁service	-7399
འི་དབང་པོ	-7400
རྣམ་པར་འཕ	-7401
▁austerities	-7402
་བཅུའི་ལས་ཀྱི་	-7403
འཛམ་བུའི་གླིང་	-7404
སོང་སྟེ་ཕྱིན་ནས་	-7405
yas	-7406
གར་	-7407
རྩྭ	-7408
▁ur	-7409
རེག་	-7410
ུ་དག	-7411
▁dry	-7412
▁ved	-7413
ང་ནི་	-7414
arisen	-7415
་ན་མ་ཐ	-7416
འཇིག་པ	-7417
འོ་་་་	-7418
▁cling	-7419
▁event	-7420
▁vanqu	-7421
concept	-7422
ཉམས་སུ་	-7423
སྤྲུལ་པ	-7424
▁verbal	-7425
▁ཀྱེ་མ་	-7426
ལ་འཇུག་པ	-7427
▁endless	-7428
▁imagine	-7429
▁measure	-7430
▁powders	-7431
▁ཡེ་ཤེས་	-7432
་དང་བཅས་པ	-7433
་བཞི་དང་་	-7434
ཀྱིས་ཀྱང་	-7435
འདུག་སྟེ་	-7436
འབྱུང་པོ་	-7437
▁ascetics	-7438
▁contamin	-7439
འི་རྒྱལ་པོ	-7440
▁attentive	-7441
ཁྱོད་ཀྱིས་བ	-7442
ལྷན་ཅིག་ཏུ་	-7443
▁possessions	-7444
རློམ་སེམས་སུ་	-7445
ཆོས་བཅུ་པོ་དེ་དག	-7446
ནོར་བུ་རིན་པོ་ཆེ	-7447
རྟེན་ཅིང་འབྲེལ་པ	-7448
ket	-7449
ཐོབ	-7450
mend	-7451
oked	-7452
ཕོག་	-7453
▁cou	-7454
▁hab	-7455
▁hat	-7456
▁mix	-7457
ution	-7458
མང་བ་	-7459
མཛའ་བ	-7460
མའི་ཚ	-7461
ལ་ནས་	-7462
ེ་དང་	-7463
▁desp	-7464
▁quar	-7465
ངས་སོ་	-7466
ར་བདག་	-7467
རི་རབ་	-7468
ེ་བྲག་	-7469
▁crush	-7470
▁glory	-7471
▁occas	-7472
▁tirth	-7473
ཞིང་དེ་	-7474
▁stable	-7475
▁wander	-7476
ternally	-7477
་དེ་ནི་བ	-7478
ཆོས་འདི་	-7479
ཚད་མེད་པ	-7480
ལེན་པའི་	-7481
▁འཕགས་པ་	-7482
གཟུགས་བརྙ	-7483
གླང་པོ་ཆེ	-7484
ང་ནས་སྐྱེ	-7485
མངོན་པར་འ	-7486
ཆོས་དེ་དག་	-7487
ཐུགས་སུ་ཆུ	-7488
▁described	-7489
མཚན་མ་མེད་པ	-7490
ཤེས་རབ་ཀྱི་	-7491
▁exhaustion	-7492
▁དགེ་སློང་དག	-7493
ང་ཆུབ་སེམས་དཔའི་	-7494
ཆོས་བཅུ་དང་ལྡན་ན	-7495
འི་བསོད་ནམས་ཀྱི་	-7496
▁སེམས་ཅན་ཐམས་ཅད་	-7497
oka	-7498
ital	-7499
་བས་	-7500
་བྱ་	-7501
་རེ་	-7502
་སྡི	-7503
▁sus	-7504
་སུམ་	-7505
དུག་པ	-7506
མཚུངས་	-7507
མུན་པ་	-7508
▁ཀ་ཤི་	-7509
འཐུན་པ་	-7510
ཡིན་པས་	-7511
ར་བཞེད་	-7512
▁oceans	-7513
མ་བགྱིས་	-7514
རྣམ་པར་ར	-7515
▁several	-7516
འདི་དག་ནི	-7517
▁bringing	-7518
▁equality	-7519
▁vehicles	-7520
▁wondered	-7521
▁assembled	-7522
▁sacrifice	-7523
▁traveling	-7524
▁wonderful	-7525
ས་སངས་རྒྱས་	-7526
▁dedication	-7527
འི་དགེ་སློང་	-7528
▁destruction	-7529
རབ་ཏུ་དབྱུང་བ	-7530
རྣམ་པར་གྲོལ་བ	-7531
▁bhaisajyaraja	-7532
ློ	-7533
ila	-7534
རྩ་	-7535
▁au	-7536
▁jn	-7537
ikas	-7538
inte	-7539
ཅན་་	-7540
ཚངས་	-7541
འབྲུ	-7542
ལ་མ་	-7543
སྤྲི	-7544
▁mir	-7545
▁ses	-7546
bhuta	-7547
གཉེན་	-7548
ཡིས་བ	-7549
▁dece	-7550
▁seal	-7551
ཀུན་ལ་	-7552
རྟན་པ་	-7553
སྟི་སྟ	-7554
▁array	-7555
▁beryl	-7556
▁chief	-7557
▁tamer	-7558
གཉིས་པ་	-7559
ཆོས་ཅན་	-7560
ཆོས་བཞི	-7561
ཉེས་པར་	-7562
ཐ་དད་པ་	-7563
ཞིག་ཏུ་	-7564
ས་སྔོན་	-7565
སྐྱེ་བོ	-7566
▁hatred	-7567
▁invest	-7568
གཟིགས་པ་	-7569
གྱུར་པ་་	-7570
ཉོན་ཅིག་	-7571
ཕྱི་མའི་	-7572
མའི་དཔལ་	-7573
ཡེ་ཤེས་བ	-7574
▁disting	-7575
▁produce	-7576
▁shining	-7577
▁མེ་ཏོག་	-7578
ཁམས་གསུམ་	-7579
▁residing	-7580
ལ་སྤྱོད་པ་	-7581
སྙེན་པར་རྫ	-7582
་དགེ་བསྙེན་	-7583
འི་དྲུང་དུ་	-7584
▁vaisravana	-7585
གི་བྱེ་མ་སྙེ	-7586
ལས་བྱུང་བའི་	-7587
▁recollection	-7588
ཕྱིར་མི་འོང་བའི་	-7589
aps	-7590
imb	-7591
མདའ་	-7592
ཡུག་	-7593
▁tee	-7594
རེག་པ	-7595
▁ease	-7596
▁half	-7597
▁legs	-7598
▁shar	-7599
▁west	-7600
ཀྱིས་་	-7601
ཏགས་པ་	-7602
ཞི་པོ་	-7603
ཡངས་པ་	-7604
སྤྲིན་	-7605
སློབ་པ	-7606
▁cryst	-7607
▁forty	-7608
▁horse	-7609
▁shine	-7610
ཤེས་ནས་	-7611
▁commun	-7612
▁novice	-7613
▁results	-7614
▁subsequ	-7615
▁thunder	-7616
▁weapons	-7617
དེ་གཤེགས་	-7618
▁engender	-7619
▁followed	-7620
▁generate	-7621
▁investig	-7622
▁attention	-7623
▁fulfilled	-7624
▁lightning	-7625
▁སྐྱེས་བུ་	-7626
ཞེས་བྱ་སྟེ་	-7627
འདི་སྙམ་དུ་	-7628
▁expression	-7629
འཇིག་རྟེན་ལ་	-7630
▁extensively	-7631
ཀུན་ཏུ་རབ་ཏུ་	-7632
རང་བཞིན་གྱིས་	-7633
▁nonapprehension	-7634
▁བཅོམ་ལྡན་འདས་ལ་	-7635
ཟ་	-7636
ron	-7637
ཞིག	-7638
ails	-7639
lebr	-7640
pose	-7641
pres	-7642
ན་གད	-7643
ཚོད་	-7644
ལྕེ་	-7645
▁kap	-7646
▁pie	-7647
▁sin	-7648
avisk	-7649
▁knee	-7650
▁phat	-7651
ང་དང་བ	-7652
འཆི་འཕ	-7653
ོན་དང་	-7654
▁entry	-7655
་དེ་ནས་	-7656
་དེ་ལས་	-7657
གནས་སོ་	-7658
ང་བྱེད་	-7659
མདུན་ན་	-7660
ོན་དུ་བ	-7661
▁analys	-7662
▁celebr	-7663
▁sesame	-7664
anivaran	-7665
aviskamb	-7666
ག་པར་བྱ་	-7667
ཉིད་ཀྱང་	-7668
ཐོས་པའི་	-7669
མིང་འདི་	-7670
འགྲོའོ་་	-7671
འདི་ནི་ད	-7672
སྔགས་པ་བ	-7673
▁finally	-7674
▁leading	-7675
▁letters	-7676
▁longing	-7677
▁outside	-7678
ར་འགྲོ་བ་	-7679
▁increase	-7680
▁syllable	-7681
རྒྱ་མཚོའི་	-7682
ཐལ་མོ་སྦྱར་	-7683
ཀུན་དགའ་བོས་	-7684
▁application	-7685
▁opportunity	-7686
རྩོན་འགྲུས་རྩ	-7687
▁sarvanivaran	-7688
▁unfathomable	-7689
ཐེག་པ་ཆེན་པོའི་	-7690
གང་ཡིན་པ་འདི་ནི་	-7691
ia	-7692
མཐུ	-7693
ུ་པ	-7694
aked	-7695
ibly	-7696
ཁྱབ་	-7697
ཐ་མ་	-7698
མི་ད	-7699
▁blo	-7700
ouses	-7701
གདོན་	-7702
མཁན་པ	-7703
ཡོངས་	-7704
ལྔ་པོ	-7705
སྟེན་	-7706
▁draw	-7707
▁nect	-7708
▁vows	-7709
ེད་དོ་	-7710
ོང་དང་	-7711
▁foods	-7712
▁བུ་མོ	-7713
claimed	-7714
parable	-7715
ཁོ་བོས་	-7716
ཙུན་པ་བ	-7717
ཤིང་གི་	-7718
ེང་གཞི་	-7719
▁famili	-7720
གསོལ་ཏེ་	-7721
འི་ཚེ་ན་	-7722
▁arrival	-7723
▁entrust	-7724
▁fortune	-7725
▁purpose	-7726
▁དེ་ཁོ་ན	-7727
གྲུབ་པའི་	-7728
ར་འཚང་རྒྱ	-7729
▁diligent	-7730
▁entirely	-7731
▁ornament	-7732
▁བུད་མེད་	-7733
ཆོས་སྨྲ་བ་	-7734
ན་ལས་དེའི་	-7735
རྣམ་པར་འཇི	-7736
ས་སྐྱེ་མཆེ	-7737
▁guardians	-7738
▁proceeded	-7739
▁unceasing	-7740
aviskambhin	-7741
▁frightened	-7742
▁proclaimed	-7743
རྒྱད་ཁྲི་བཞི་	-7744
སྐྱེ་བོ་མང་པོ་	-7745
ེ་བཞིན་གཤེགས་པ་བ	-7746
▁རིགས་ཀྱི་བུ་དག་	-7747
ope	-7748
que	-7749
གྱེ	-7750
ཡབ་	-7751
▁རྒ	-7752
pani	-7753
ཅུག་	-7754
▁ann	-7755
▁exe	-7756
སམས་པ	-7757
ོར་མ་	-7758
▁onto	-7759
▁seas	-7760
▁size	-7761
ensory	-7762
integr	-7763
itable	-7764
ounter	-7765
ཁྱོད་བ	-7766
ཅན་གྱི	-7767
འདི་དག	-7768
▁dying	-7769
▁གལ་ཏེ	-7770
ན་དུ་བཅ	-7771
ཕྲེང་བ་	-7772
འཆི་ཀར་	-7773
འདི་བཞི	-7774
ལ་ལ་ནི་	-7775
▁circle	-7776
▁extras	-7777
▁nectar	-7778
་དང་་དྲི	-7779
་དང་་སོ་	-7780
ཀྱི་དབང་	-7781
ཇི་སྲིད་	-7782
ར་གྱིས་་	-7783
ལྟ་བུར་བ	-7784
▁content	-7785
▁looking	-7786
▁mantras	-7787
▁pressed	-7788
དུད་སྡིག་	-7789
མ་ཡིན་པར་	-7790
མཆོག་ཏུ་བ	-7791
མི་འབྱུང་	-7792
▁enduring	-7793
▁ལུས་ཀྱི་	-7794
ལྷུང་བཟེད་	-7795
ཟིལ་གྱིས་གན	-7796
▁everywhere	-7797
▁particular	-7798
▁extrasensory	-7799
གཟུགས་མེད་པའི་	-7800
འི་རྒྱལ་པོ་སྡོང་	-7801
ank	-7802
yan	-7803
ཀྲུ	-7804
ན་བཤ	-7805
ནན་ཏ	-7806
▁amb	-7807
▁bra	-7808
▁kal	-7809
ཉེས་པ	-7810
▁enth	-7811
▁paid	-7812
lihood	-7813
་དག་གི	-7814
ཡིན་ན་	-7815
སྟན་བཅ	-7816
ྲུལ་པ་	-7817
▁supra	-7818
གསོལ་བ་	-7819
▁cities	-7820
▁merits	-7821
གང་ལགས་པ	-7822
ཞུགས་ནས་	-7823
▁བྱམས་པ་	-7824
གཟུགས་དང་	-7825
ཆོས་མཉན་པ	-7826
ཤཀྱ་ཐུབ་པ	-7827
ེ་བཞིན་དུ	-7828
▁abundant	-7829
ངན་སོང་དུ་	-7830
རྣམས་ཀྱི་ད	-7831
ལྟ་བུ་དང་་	-7832
▁arrogance	-7833
▁goddesses	-7834
▁དེ་དག་གི་	-7835
▁འདོད་ཆགས་	-7836
▁displeased	-7837
▁foundation	-7838
▁livelihood	-7839
▁recitation	-7840
▁sufferings	-7841
ཀྱིས་སྨྲས་པ་	-7842
ར་བྱེད་ཅིང་་	-7843
ལ་མངོན་པར་ཞེ	-7844
▁maintaining	-7845
▁obscurations	-7846
འི་བྱང་ཆུབ་ལས་	-7847
ླ་མ་ལུང་བསྟན་པ་	-7848
གནས་པར་མི་བྱའོ་་	-7849
▁རྒྱལ་པོ་ཆེན་པོ་	-7850
ོད	-7851
uru	-7852
ཚར་	-7853
སར་	-7854
ྲལ་བ	-7855
artin	-7856
haros	-7857
idity	-7858
ཀྲ་ཤི	-7859
གང་བ་	-7860
གཟོད་	-7861
ཞི་པ་	-7862
▁crow	-7863
▁lift	-7864
▁rice	-7865
esvara	-7866
པེར་ན་	-7867
ཟིན་པ་	-7868
འདྲེན་	-7869
▁dharm	-7870
▁druma	-7871
▁flags	-7872
▁songs	-7873
་དང་་སྐ	-7874
ིད་ཙ་བི	-7875
ོས་ཤིག་	-7876
▁compar	-7877
▁donned	-7878
▁ensure	-7879
▁fallen	-7880
▁repres	-7881
▁བཙུན་པ	-7882
ན་པ་འདི་	-7883
▁illustr	-7884
▁therein	-7885
▁སྲིང་མོ	-7886
ར་གྱུར་ལ་	-7887
སྐྱེ་བའི་	-7888
▁habitual	-7889
▁མཐོང་ནས་	-7890
་དང་་སྙིང་	-7891
ནམ་མཁའ་ལྡི	-7892
མི་འཇིགས་པ	-7893
▁transform	-7894
▁trillions	-7895
▁གླེང་གཞི་	-7896
ཞེས་བྱས་ནས་	-7897
ར་བགྱི་བའི་	-7898
▁engagement	-7899
་བྱང་ཆུབ་ཏུ་	-7900
སྤྱོད་པ་དང་་	-7901
ཀྱིས་དེའི་ཚེ་	-7902
▁continuously	-7903
ནས་བླ་ན་མེད་པ་	-7904
འཐུན་པའི་ཆོས་བ	-7905
ze	-7906
▁ཟ	-7907
མ་ན	-7908
མན་	-7909
ards	-7910
bhas	-7911
ཏང་བ	-7912
ལས་་	-7913
ོན་ག	-7914
▁kin	-7915
▁kol	-7916
amati	-7917
rimin	-7918
ག་བྱེ	-7919
ཙུན་པ	-7920
ཤེས་བ	-7921
ས་ན་་	-7922
▁oint	-7923
▁tang	-7924
▁year	-7925
་དེ་ལྟ	-7926
ག་ཏ་མ་	-7927
གཉིས་ད	-7928
གི་བུ་	-7929
གོས་པ་	-7930
ལམ་དུ་	-7931
སིལ་སྙ	-7932
▁sumer	-7933
▁རྒྱུ་	-7934
ཀའ་ཐུབ་	-7935
ང་དང་་བ	-7936
ན་དུ་བྱ	-7937
རྣམས་ཡི	-7938
ེ་སྔགས་	-7939
▁aspire	-7940
▁eating	-7941
▁enough	-7942
▁flames	-7943
▁lament	-7944
▁victor	-7945
amaharos	-7946
མ་པ་དང་་	-7947
ལ་ཡང་མི་	-7948
▁fetters	-7949
▁leagues	-7950
▁natural	-7951
▁radiant	-7952
▁reasons	-7953
▁staying	-7954
▁འཇམ་དཔལ	-7955
ར་རིག་ནས་	-7956
སྐྱེད་དེ་	-7957
▁villages	-7958
ཕྲག་བརྒྱད་	-7959
འཇིག་ཚོགས་	-7960
རབ་ཏུ་ཞི་བ	-7961
▁bhagavans	-7962
▁descended	-7963
▁melodious	-7964
ཐམས་ཅད་དང་་	-7965
ན་དགེ་སློང་	-7966
▁prostrated	-7967
་དང་་སྨོན་པ་	-7968
ཆེན་པོའི་མཚན་	-7969
▁candamaharos	-7970
▁respectfully	-7971
ནང་སྟོང་པ་ཉིད་	-7972
་ར་དྭ་ཏིའི་བུས་	-7973
ཁམས་ཤེས་པ་འགོག་པ	-7974
pet	-7975
umb	-7976
ངུ་	-7977
འབུ	-7978
phys	-7979
འགྲུ	-7980
ལྷོ་	-7981
▁run	-7982
▁sex	-7983
ག་གི་	-7984
ཆད་པ་	-7985
ཕྱེད་	-7986
མ་པོ་	-7987
མངའ་བ	-7988
འ་དེ་	-7989
▁soft	-7990
་བྱས་པ	-7991
འདྲའི་	-7992
ལས་དེ་	-7993
་སྐྱེས་	-7994
གཞལ་དུ་	-7995
གུས་པར་	-7996
ཆེན་མོ་	-7997
ཕན་ཚུན་	-7998
ལ་སེམས་	-7999
ུག་པའི་	-8000
ེ་བྱད་བ	-8001
▁burned	-8002
physical	-8003
གསུང་རབ་	-8004
གེ་འདུན་	-8005
འདུས་ཏེ་	-8006
སྤྱོད་ཡུ	-8007
▁begging	-8008
▁brahmas	-8009
▁continu	-8010
▁turning	-8011
ག་པ་རྣམས་	-8012
གྱུར་པའི་	-8013
ཕུང་པོའི་	-8014
ར་བྱེད་ན་	-8015
སྐྱེས་ནས་	-8016
ོད་པ་དང་་	-8017
རྣམས་ལ་ནི་	-8018
▁encourage	-8019
▁lifetimes	-8020
མེད་དཔག་ཏུ་	-8021
ུང་གི་ཚོགས་	-8022
▁individuals	-8023
▁tranquility	-8024
ེད་པར་གྱུར་ཅིག་	-8025
▁ར	-8026
གྲ་	-8027
ཏབ་	-8028
roud	-8029
མཁས་	-8030
ར་དག	-8031
▁psy	-8032
▁rev	-8033
ories	-8034
་ལྟར་	-8035
ནུས་པ	-8036
▁fill	-8037
▁lake	-8038
▁subd	-8039
athers	-8040
ཤི་ནས་	-8041
སྟོན་་	-8042
▁feast	-8043
▁odors	-8044
▁teeth	-8045
ouraged	-8046
་བཞིན་་	-8047
▁purify	-8048
▁wicked	-8049
ཡུན་རིང་	-8050
ལ་བསླབ་པ	-8051
ལ་ལ་ཞིག་	-8052
▁against	-8053
▁perfume	-8054
▁གང་ཞིག་	-8055
ཆོ་འཕྲུལ་	-8056
འདི་གཉིས་	-8057
▁perfumes	-8058
ར་བགྱིད་པ་	-8059
▁discrimin	-8060
▁disintegr	-8061
▁illusions	-8062
▁statement	-8063
▁སྔོན་གྱི་	-8064
ལ་བསྙེན་བཀུ	-8065
▁meaningful	-8066
▁provisions	-8067
▁reflecting	-8068
འཇིག་རྟེན་ན་	-8069
འི་བསོད་ནམས་	-8070
ཤར་ཕྱོགས་སུ་	-8071
་དང་་སེམས་ཅན་	-8072
ཡིད་ལ་བྱེད་པ་	-8073
འི་ཚིག་བླ་དགས་	-8074
རྣམ་པར་རྟོག་པ་	-8075
ཚིགས་སུ་བཅད་དེ་	-8076
སྙིང་རྗེ་ཆེན་པོ་	-8077
▁candamaharosana	-8078
གཟེ	-8079
▁རི	-8080
fort	-8081
izes	-8082
ྱེར་	-8083
▁fle	-8084
▁vig	-8085
ཚོང་ད	-8086
འཁོད་	-8087
ར་རམ་	-8088
ཧ་ཅང་	-8089
▁drew	-8090
▁pore	-8091
ཆགས་བྱ	-8092
ཙན་དན་	-8093
▁bowls	-8094
▁shore	-8095
comings	-8096
ཕྱོགས་ད	-8097
ར་འགྲོ་	-8098
སྒོམ་པ་	-8099
▁belief	-8100
▁psycho	-8101
▁ཁྱེའུ་	-8102
structed	-8103
ཀླུ་དང་་	-8104
ཅུ་ལོན་པ	-8105
▁bedding	-8106
▁deities	-8107
▁writing	-8108
མང་པོ་དག་	-8109
མི་བྱེད་པ	-8110
སྟོན་ཏོ་་	-8111
▁analysis	-8112
▁occasion	-8113
▁prophesy	-8114
ན་བཞིན་དུ་	-8115
རབ་ཏུ་ཤེས་	-8116
▁འཇམ་དཔལ་ད	-8117
་དགེ་འདུན་ད	-8118
གཤིན་རྗེའི་	-8119
རབ་ཏུ་ཕྱུང་	-8120
▁reflection	-8121
ཚུལ་བཞིན་དུ་	-8122
▁deliverance	-8123
▁transcended	-8124
▁ཚེ་དང་ལྡན་པ	-8125
ཉིད་ཀྱི་ཕྱིར་	-8126
ལན་ཅིག་ཕྱིར་འ	-8127
སེང་གེའི་ཁྲི་	-8128
▁shortcomings	-8129
▁དགེ་བའི་རྩ་བ	-8130
ཡོངས་སུ་བསྐོར་	-8131
▁psychophysical	-8132
▁རིགས་ཀྱི་བུ་དེ་	-8133
རྫུ	-8134
▁ca	-8135
mony	-8136
མཁན་	-8137
ཞུན་	-8138
ཡུད་	-8139
ལྔ་པ	-8140
སྤུ་	-8141
སྨྲ་	-8142
▁pen	-8143
avati	-8144
གུས་པ	-8145
▁akas	-8146
▁fast	-8147
▁skin	-8148
▁type	-8149
གཅིག་བ	-8150
ནས་ནི་	-8151
ེད་དུ་	-8152
▁coral	-8153
▁yogin	-8154
▁འདི་ལ	-8155
་དེ་ལྟ་	-8156
ཉམས་པར་	-8157
ཐེ་ཙོམ་	-8158
འདི་ཡང་	-8159
འདྲ་བར་	-8160
འོག་གི་	-8161
རྣམས་བྱ	-8162
སུ་ཞིག་	-8163
▁banner	-8164
▁ད་ལྟར་	-8165
▁འདི་ལ་	-8166
▁འཕགས་པ	-8167
གཉིས་དང་	-8168
འཁོར་དེ་	-8169
▁chariot	-8170
▁sixteen	-8171
དབང་ཕྱུག་	-8172
འདི་ཁོ་ན་	-8173
▁ཁྱོད་ནི་	-8174
འི་བར་གྱི་	-8175
▁protected	-8176
▁sensation	-8177
ར་མི་བྱའོ་་	-8178
▁continents	-8179
▁nonconcept	-8180
ཅང་མི་གསུང་བ	-8181
ནས་དགེ་སློང་	-8182
ར་འགྱུར་ཞིང་	-8183
་དང་་ད་ལྟར་བྱ	-8184
ཆོས་འདུལ་བ་ལ་	-8185
རྒྱ་བྱིན་དང་་	-8186
སྙེན་པར་རྫོགས་	-8187
སོ་སོ་ཡང་དག་པར་	-8188
rad	-8189
sec	-8190
་བས	-8191
ཀོ་	-8192
མཚོ	-8193
གྱུར	-8194
མ་འག	-8195
མ་ལུ	-8196
མྱུ་	-8197
སྤྱི	-8198
་སྒྲུ	-8199
ཁྲོད་	-8200
ཅི་དག	-8201
འདྲ་་	-8202
རྒ་ཤི	-8203
སོར་བ	-8204
སྲིན་	-8205
▁corp	-8206
▁fame	-8207
▁park	-8208
rupted	-8209
ཅོམ་པ་	-8210
ཕྱིན་པ	-8211
བས་དང་	-8212
ཚོགས་བ	-8213
▁compr	-8214
▁escap	-8215
▁fifty	-8216
་དེ་ཚེ་	-8217
་བྱེད་་	-8218
ཁ་ན་མ་ཐ	-8219
གྲོང་རྡ	-8220
ཆེན་བཞི	-8221
ནས་ནི་་	-8222
སྐྱེད་བ	-8223
▁ambros	-8224
▁common	-8225
▁forces	-8226
▁malice	-8227
▁marvel	-8228
▁profit	-8229
▁rememb	-8230
▁sprout	-8231
▁བསམ་གཏ	-8232
ཐོབ་བོ་་	-8233
མ་ལགས་པ་	-8234
ཞིང་དགའ་	-8235
སྐད་ཅིག་	-8236
▁adopted	-8237
▁crossed	-8238
▁deluded	-8239
▁maidens	-8240
▁mothers	-8241
▁novices	-8242
ཕྱུང་སྟེ་	-8243
མཐའ་ཡས་པ་	-8244
འདི་ལྟ་བུ	-8245
སྲོག་ཆགས་	-8246
▁involved	-8247
ཁྱད་པར་དུ་	-8248
ན་སེམས་ཅན་	-8249
ར་འགྱུར་ལ་	-8250
ར་འབྱུང་བ་	-8251
▁expressed	-8252
▁satisfied	-8253
མི་ཤེས་སོ་་	-8254
རྣམ་གྲངས་དེ	-8255
▁abandoning	-8256
▁conviction	-8257
▁relinquish	-8258
▁incomparable	-8259
ཀྱིས་དགེ་སློང་	-8260
མེད་པ་ཡིན་ནོ་་	-8261
མངོན་པར་རྟོགས་པ	-8262
yu	-8263
ཐ་མ	-8264
ས་ལ	-8265
anth	-8266
་བི་	-8267
སའི་	-8268
▁art	-8269
▁dro	-8270
▁pot	-8271
ierce	-8272
ག་ལ་ཉ	-8273
▁auth	-8274
semble	-8275
རྫོགས་	-8276
སྐྱོ་བ	-8277
སྦྲུལ་	-8278
▁angry	-8279
▁langu	-8280
ནུས་སོ་	-8281
ཚོང་དཔོ	-8282
རྒྱལ་ཚབ	-8283
▁tantra	-8284
གཟི་བརྗི	-8285
མ་མཆིས་་	-8286
མ་རིག་པ་	-8287
འདོད་པས་	-8288
▁foolish	-8289
▁intense	-8290
▁physici	-8291
▁priests	-8292
▁pursuit	-8293
ཀུན་གྱིས་	-8294
ར་མི་ནུས་	-8295
རང་རང་གི་	-8296
▁displays	-8297
▁trillion	-8298
གདུགས་དང་་	-8299
འི་བདག་པོ་	-8300
▁extensive	-8301
▁precisely	-8302
▁སྲིད་པའི་	-8303
ཞེ་སྡང་དང་་	-8304
འི་དངོས་པོ་	-8305
དེ་བར་གཤེགས་པ	-8306
འི་ཚིགས་སུ་བཅ	-8307
རྣམ་ཐོས་ཀྱི་བ	-8308
ཐལ་མོ་སྦྱར་བ་བ	-8309
▁accumulations	-8310
▁སེམས་ཅན་དེ་དག་	-8311
ཐམས་ཅད་སྤངས་ནས་ད	-8312
ཐི	-8313
དྨ	-8314
ཚ་	-8315
ring	-8316
rium	-8317
▁fre	-8318
▁org	-8319
▁vir	-8320
ཁུང་བ	-8321
འཆད་པ	-8322
སྲེག་	-8323
▁comb	-8324
▁pret	-8325
▁weak	-8326
▁ཤ་རི	-8327
atisya	-8328
ottama	-8329
་སྲོག་	-8330
ཀྱང་བྱ	-8331
ཁོ་ནར་	-8332
འདི་ནི	-8333
▁store	-8334
▁དེ་ན་	-8335
mundane	-8336
་དང་་སྦ	-8337
གང་ལགས་	-8338
ན་གསུམ་	-8339
ཡང་དག་བ	-8340
▁preach	-8341
ཀྱིས་ནི་	-8342
ཉིད་དོ་་	-8343
ུས་མོ་གཡ	-8344
▁quality	-8345
གཞོན་ནུ་ད	-8346
ངས་པ་དང་་	-8347
ཇི་ལྟར་ན་	-8348
མཛོད་ཅིག་	-8349
འི་བྱེ་མ་	-8350
ར་བྱེད་ལ་	-8351
ལ་སྤྱོད་པ	-8352
སྟོད་དོ་་	-8353
སྤྱོད་ལམ་	-8354
▁conflict	-8355
▁modality	-8356
▁progress	-8357
▁rebirths	-8358
་བཞིན་ནོ་་	-8359
ང་ཆུབ་ཀྱི་	-8360
མ་མཆིས་པར་	-8361
འི་ཚུལ་གྱི	-8362
འི་ཡེ་ཤེས་	-8363
ཡིད་དུ་མི་	-8364
▁wondering	-8365
་དང་ལྷ་མ་ཡི	-8366
ནས་སེམས་ཅན་	-8367
ལ་དགའ་མགུར་	-8368
▁companions	-8369
▁permission	-8370
▁སྡུག་བསྔལ་	-8371
ཤིན་ཏུ་དགའ་བ	-8372
▁supramundane	-8373
ན་ཁྱོད་ཀྱིས་དེ་	-8374
ས་པའི་འཇིག་རྟེན་	-8375
pa	-8376
ཎ་	-8377
སོ	-8378
་རྐ	-8379
▁da	-8380
rent	-8381
གྲི་	-8382
པོས་	-8383
ཁ་དོག	-8384
གཡོས་	-8385
བེན་པ	-8386
ུ་བོ་	-8387
▁གཞན་	-8388
ན་ལས་ལ	-8389
རྗེད་པ	-8390
ས་དང་བ	-8391
ློ་གྲོ	-8392
▁mahab	-8393
▁study	-8394
▁throw	-8395
་དང་་སྲ	-8396
་དེས་ན་	-8397
ག་པ་དང་	-8398
གང་ཡིན་	-8399
ང་དང་བཅ	-8400
ཡོད་པར་	-8401
▁ceased	-8402
▁དེ་ལ་བ	-8403
་དགུའམ་བ	-8404
ངེས་པར་བ	-8405
མཁྱེན་པ་	-8406
ྱིངས་སུ་	-8407
▁blazing	-8408
▁enemies	-8409
▁magadha	-8410
▁patient	-8411
▁praises	-8412
▁variety	-8413
▁གསོལ་པ་	-8414
ཁྱིམ་གྱི་	-8415
གཟུགས་སུ་	-8416
གྲོགས་པོ་	-8417
ན་ཡང་མེད་	-8418
མ་བསྐོར་བ	-8419
འདུས་བྱས་	-8420
▁entrance	-8421
▁majestic	-8422
▁raksasas	-8423
ཞེས་བྱ་སྟེ	-8424
འི་ཕྱིར་བྱ	-8425
ས་སྨོན་ལམ་	-8426
▁expertise	-8427
▁vajrapani	-8428
གཙུག་ལག་ཁང་	-8429
ར་བྱའོ་ཞེས་	-8430
ར་འགྲོ་བའི་	-8431
▁absolutely	-8432
▁eventually	-8433
▁terrifying	-8434
ཟླ་བ་དགུའམ་བ	-8435
འབྱུང་བ་དང་་	-8436
▁akasagarbha	-8437
ཡོངས་སུ་སྔོ་བ	-8438
གྱིས་ན་ལས་དེའི་	-8439
ཕྱིར་མི་ལྡོག་པ་	-8440
ལས་ཡོངས་སུ་ཐར་བ	-8441
ཐལ་མོ་སྦྱར་བ་བཏུ	-8442
རྗོད་དུ་མེད་པའི་	-8443
lu	-8444
ལམ	-8445
ཤུ	-8446
get	-8447
ify	-8448
olt	-8449
ཕྱུ	-8450
ghos	-8451
ilib	-8452
ocks	-8453
oney	-8454
གྲང་	-8455
ན་དབ	-8456
མོར་	-8457
འབབ་	-8458
ར་འཆ	-8459
ར་སྣ	-8460
ལོན་	-8461
▁aim	-8462
▁pun	-8463
iling	-8464
istic	-8465
joyed	-8466
གཏོང་	-8467
འི་བར	-8468
སྒོ་བ	-8469
ུར་བ་	-8470
▁bimb	-8471
▁nuns	-8472
▁sole	-8473
▁ཤེས་	-8474
་པད་མ་	-8475
ཀར་པོ་	-8476
ཞུགས་་	-8477
འཕེལ་བ	-8478
འཚལ་བ་	-8479
▁hears	-8480
▁proud	-8481
▁write	-8482
་སྟོན་པ	-8483
ཏང་སྟེ་	-8484
མ་ཡིན་བ	-8485
ཟླ་བའི་	-8486
ར་དཀའ་བ	-8487
ཤེས་པས་	-8488
▁acquis	-8489
ilibrium	-8490
་དང་་སྒྲ	-8491
མཁས་པའི་	-8492
འདས་པའི་	-8493
འོངས་ཏེ་	-8494
▁fulfill	-8495
▁primord	-8496
▁revered	-8497
▁sources	-8498
▁སྐྱེ་བ་	-8499
ང་བ་མེད་པ	-8500
རྐྱེན་གྱི	-8501
ེ་སྔགས་འད	-8502
▁upatisya	-8503
་དམིགས་སུ་	-8504
ཆེན་པོ་གང་	-8505
ཟའ་བ་དང་བཅ	-8506
འདིའི་མིང་	-8507
▁awareness	-8508
▁eliminate	-8509
▁overjoyed	-8510
▁retention	-8511
▁separated	-8512
ཞེས་བྱ་བའམ་	-8513
ཡུན་རིང་པོ་	-8514
ལ་དགེ་སློང་	-8515
ུད་མེད་ཀྱི་	-8516
ཕྱི་རོལ་གྱི་	-8517
ས་འདི་སྐད་ཅེ	-8518
ན་པ་ལ་སྤྱོད་པ	-8519
འོད་སྲུང་གི་བ	-8520
འི་དོན་དུ་སྔོན	-8521
རབ་ཏུ་ཤེས་སོ་་	-8522
ཡང་བཅོམ་ལྡན་འདས་	-8523
ཀྵ	-8524
ནེ	-8525
anam	-8526
uish	-8527
གང་ཟ	-8528
ཉིས་	-8529
འབྲི	-8530
ལ་གཏ	-8531
athap	-8532
ཅན་བྱ	-8533
ཕྱག་ད	-8534
ཕྱི་མ	-8535
ྲུལ་པ	-8536
▁subs	-8537
▁wash	-8538
གཉིས་བ	-8539
གོ་ཆ་བ	-8540
དེ་ནི་	-8541
ན་དུ་ད	-8542
མས་པས་	-8543
འཐོབ་་	-8544
ཤིང་བས	-8545
ིལ་དུ་	-8546
▁reign	-8547
▁sharp	-8548
ཆོས་ནི་	-8549
ཐོབ་ནས་	-8550
ད་དཔོན་	-8551
ན་གཅིག་	-8552
ན་གནས་པ	-8553
ན་དེ་ལ་	-8554
ཕྲག་དུ་	-8555
▁entity	-8556
▁kolita	-8557
▁sumeru	-8558
arabhuta	-8559
་བྱམས་པ་	-8560
གྱུར་ནས་	-8561
སྟན་ལས་ལ	-8562
▁amazing	-8563
▁killing	-8564
▁sugatas	-8565
་དགའ་ཞིང་	-8566
་དྲི་མེད་	-8567
ར་བགྱིད་པ	-8568
རྣམ་པར་སྤ	-8569
སྨྲས་སོ་་	-8570
▁acquired	-8571
▁included	-8572
▁luminous	-8573
▁mentally	-8574
▁entertain	-8575
▁materials	-8576
▁འདི་ལྟར་བ	-8577
ཀྱི་བདག་པོ་	-8578
ཆོས་བསྟན་པ་	-8579
▁protectors	-8580
ནས་སེམས་ཅན་ད	-8581
▁equilibrium	-8582
སྐྱེ་བོ་ཕལ་པོ་	-8583
མི་མཉེས་པར་མ་བྱ	-8584
ར་བྱ་བའི་ཕྱིར་བ	-8585
▁padmasrigarbha	-8586
ཆེན་པོ་རྣམས་ཀྱི་	-8587
ཕོ	-8588
use	-8589
་ཏ་	-8590
ཀྲི	-8591
ཟ་བ	-8592
▁la	-8593
astu	-8594
ilav	-8595
ཞལ་ཏ	-8596
ར་རྙ	-8597
སུ་བ	-8598
▁ash	-8599
ibles	-8600
གནས་ད	-8601
ན་ནས་	-8602
▁dear	-8603
▁dull	-8604
▁indi	-8605
▁upas	-8606
▁རྐང་	-8607
asenaj	-8608
liness	-8609
olored	-8610
་དེས་ད	-8611
ག་པ་ལ་	-8612
གསལ་བ་	-8613
ལྷག་མ་	-8614
སྐུར་བ	-8615
▁agree	-8616
▁drums	-8617
▁peaks	-8618
དག་ཀྱང་	-8619
རེ་ཞིག་	-8620
▁transl	-8621
▁yogurt	-8622
ཁོར་ཡུག་	-8623
མི་སེམས་	-8624
ར་བ་དང་་	-8625
རེག་པའི་	-8626
▁bondage	-8627
▁grounds	-8628
ཕྱོགས་དང་	-8629
▁constant	-8630
▁devotion	-8631
▁prasenaj	-8632
ཐག་རིང་པོ་	-8633
ན་གནས་པའི་	-8634
ཕྱོགས་བཅུ་	-8635
ཚངས་པས་བྱི	-8636
ེ་བདག་གིས་	-8637
▁tangibles	-8638
གིས་སྨྲས་པ་	-8639
མ་གཏོགས་པར་	-8640
འདུ་ཤེས་དང་	-8641
ལྟ་ཅི་སྨོས་	-8642
མ་སྐྱེས་པའི་	-8643
འི་སྟོབས་བཅུ་	-8644
སྐྱེས་བུ་དམ་པ	-8645
ཡང་དག་པར་རབ་ཏུ་	-8646
rak	-8647
set	-8648
གླེ	-8649
ཅས་	-8650
aded	-8651
མནར་	-8652
རེ་ར	-8653
ལྷན་	-8654
ཧུ་ཕ	-8655
▁ཉི་	-8656
▁སྒྲ	-8657
ཕྱིས་	-8658
ཡང་མ་	-8659
ལྟ་སྨ	-8660
▁beat	-8661
▁easy	-8662
▁heat	-8663
▁inha	-8664
ང་པོས་	-8665
ངས་པས་	-8666
ན་ཡང་་	-8667
མེད་ན་	-8668
འདུག་བ	-8669
ར་དུ་ད	-8670
སྟོད་པ	-8671
སྲུངས་	-8672
▁filth	-8673
▁obsta	-8674
▁relig	-8675
theless	-8676
ཞིང་དུ་	-8677
འཛུམ་པ་	-8678
▁joyous	-8679
▁quarre	-8680
▁regret	-8681
ང་དེ་དག་	-8682
ན་གཟུགས་	-8683
ལྡན་ཞིང་	-8684
སེམས་ནི་	-8685
▁crystal	-8686
▁masters	-8687
▁regress	-8688
▁འདི་དག་	-8689
ཕྱོགས་བཞི	-8690
མི་བགྱིད་	-8691
མེད་ཅིང་ད	-8692
འདི་རྣམས་	-8693
ུང་བ་དང་་	-8694
▁diseases	-8695
ན་བཞུགས་ཏེ	-8696
▁devadatta	-8697
▁nonvirtue	-8698
གི་དངོས་པོ་	-8699
ཞེས་ཡང་དག་པ་	-8700
ར་བཞེད་ན་ནི་	-8701
རྩེ་ཞིང་དགའ་	-8702
རབ་ཏུ་འབྱུང་བ་	-8703
▁practitioners	-8704
མཉེས་པར་བྱས་ཏེ་	-8705
▁སེམས་ཅན་འདི་དག་	-8706
ah	-8707
དར་	-8708
འཁྱ	-8709
▁སླ	-8710
eled	-8711
ཕ་རོ	-8712
ཚད་བ	-8713
hijna	-8714
གང་ན་	-8715
ཆོ་ག་	-8716
མ་ག་ད	-8717
མཐུས་	-8718
མྱལ་བ	-8719
འི་བཙ	-8720
ུའོ་་	-8721
▁cure	-8722
▁drap	-8723
▁heal	-8724
▁neut	-8725
་སྟོན་	-8726
ཁྲི་ཉི	-8727
ག་གོ་་	-8728
གེ་མོ་	-8729
ང་དུ་ད	-8730
ཟས་དང་	-8731
འབར་བ་	-8732
ར་ཤོག་	-8733
རེག་པ་	-8734
རེག་བྱ	-8735
སམ་མི་	-8736
▁fools	-8737
▁minor	-8738
ཁམས་སུ་	-8739
▁consec	-8740
▁occurs	-8741
athapind	-8742
ilavastu	-8743
གོས་དང་་	-8744
ཅི་འདྲ་བ	-8745
མཐོང་བས་	-8746
▁cleared	-8747
▁conquer	-8748
▁suppose	-8749
གྱུར་ཏེ་་	-8750
མས་པ་དང་་	-8751
འདི་ལྟར་བ	-8752
སྟན་བཅོས་	-8753
▁diminish	-8754
▁emerging	-8755
ལས་བྱུང་བ་	-8756
སླད་དུའོ་་	-8757
ཐབས་ལ་མཁས་པ	-8758
▁anathapind	-8759
▁engendered	-8760
ཡོངས་སུ་ཤེས་	-8761
▁demonstrate	-8762
▁kapilavastu	-8763
▁transformed	-8764
རྩོན་འགྲུས་བརྩ	-8765
ངེས་པར་འབྱུང་བ་	-8766
ཏེ་བཅོམ་ལྡན་འདས་	-8767
▁རབ་འབྱོར་གཞན་ཡང	-8768
སྐབ	-8769
fulf	-8770
inda	-8771
pled	-8772
▁val	-8773
atura	-8774
power	-8775
གླུ་ད	-8776
མཐོ་བ	-8777
འདུ་བ	-8778
རྟན་པ	-8779
ལྟར་་	-8780
སྐུལ་	-8781
སྐོམ་	-8782
▁ende	-8783
▁meru	-8784
▁peak	-8785
▁talk	-8786
ctions	-8787
havior	-8788
་དང་་ར	-8789
ས་ནས་་	-8790
▁close	-8791
▁memor	-8792
▁ཀྱེ་མ	-8793
iveness	-8794
རྒྱུ་བ་	-8795
ལོ་བཅུ་	-8796
ས་ཤིང་་	-8797
▁affect	-8798
▁riches	-8799
▁shines	-8800
▁འདོད་པ	-8801
ཞག་བདུན་	-8802
འབྱུང་་་	-8803
ཡིན་ཏེ་་	-8804
རྒྱ་ཕྲག་	-8805
སྣོད་དུ་	-8806
ོར་མ་ཆག་	-8807
ྱིན་གྱི་	-8808
▁consequ	-8809
▁fingers	-8810
▁holders	-8811
▁miracle	-8812
▁parasol	-8813
▁playing	-8814
▁victors	-8815
▁ཐམས་ཅད་	-8816
▁ནམ་མཁའ་	-8817
▁ཕུང་པོ་	-8818
itabhijna	-8819
མཐོང་བའི་	-8820
ཡིད་བདེ་བ	-8821
གསལ་བ་དང་་	-8822
ཆེན་བཞིའི་	-8823
འདི་བཤད་པ་	-8824
ར་འགྱུར་ཏེ	-8825
▁aggregate	-8826
▁associate	-8827
▁medicines	-8828
▁tormented	-8829
སངས་རྒྱས་བྱ	-8830
▁delighting	-8831
▁possession	-8832
མཚན་མ་མེད་པ་	-8833
མའི་དཔལ་གྱི་	-8834
འཇིག་ཚོགས་ལ་	-8835
ཡིད་དུ་འོང་བ	-8836
རྣམ་པར་རྒྱལ་བ	-8837
▁བཅུ་གང་ཞེ་ན་	-8838
འདུ་བྱེད་རྣམས་	-8839
སེམས་ཅན་དམྱལ་བ	-8840
སྨོན་ལམ་བཏབ་པ་	-8841
▁dharmabhanaka	-8842
་དྲན་པ་ཉེ་བར་གཞ	-8843
ཞེས་བྱ་བ་དེ་ནི་	-8844
རྒྱལ་ཆེན་བཞིའི་	-8845
▁དེ་ལ་ཤེས་པ་དང་་	-8846
ils	-8847
གཞུ	-8848
གྱ་	-8849
ཟོ་	-8850
ross	-8851
ཀུ་མ	-8852
ྲག་ཅ	-8853
▁yoj	-8854
གཡོ་བ	-8855
མེད་ཟ	-8856
ོང་་་	-8857
▁dang	-8858
▁migr	-8859
འགོད་པ	-8860
འདོང་བ	-8861
འདོར་བ	-8862
འི་སྒྲ	-8863
རིང་བ་	-8864
སྐལ་བ་	-8865
ུས་ནས་	-8866
▁deity	-8867
▁outsh	-8868
▁weary	-8869
pointed	-8870
གཏོགས་པ	-8871
ཆུང་མ་བ	-8872
མང་པོར་	-8873
འདུན་པ་	-8874
འབད་པས་	-8875
འི་སྐུ་	-8876
ཡོད་དོ་	-8877
ུག་ཅིང་	-8878
▁asking	-8879
▁བྲམ་ཟེ	-8880
དུད་རྩི་	-8881
ཕྱིན་ནས་	-8882
འབྱོར་པ་	-8883
སེམས་མི་	-8884
▁control	-8885
▁silence	-8886
ཕ་མ་གཉིས་	-8887
མཐོང་ངོ་་	-8888
ུའི་ཁུང་བ	-8889
▁circumst	-8890
▁occurred	-8891
▁བདག་ཉིད་	-8892
▁ཡིད་ཀྱི་	-8893
ཆོས་བསྟན་པ	-8894
ཚངས་པ་དང་་	-8895
སྐད་སྨྲས་པ	-8896
སྐྱེད་བསྲི	-8897
▁completed	-8898
▁divisions	-8899
ཆེར་སྐྱེས་པ	-8900
ན་རས་གཟིགས་	-8901
▁eightyfour	-8902
ླ་ན་མེད་པའི་	-8903
དག་བླ་ན་མེད་པ་	-8904
ཡོངས་སུ་བསྔོ་བ	-8905
ར་མི་འགྱུར་རོ་	-8906
ཅེས་བྱ་བ་ཡོད་དེ་	-8907
མ་བཅིངས་མ་གྲོལ་བ	-8908
རྣམ་པར་གྲོལ་བའི་	-8909
ས་པད་མ་དཀར་པོའི་	-8910
གང	-8911
ལང་	-8912
adas	-8913
alls	-8914
amps	-8915
ཁྱི་	-8916
ཇི་བ	-8917
ཏིག་	-8918
མང་བ	-8919
ཟོས་	-8920
ར་མཛ	-8921
ུའང་	-8922
▁deb	-8923
▁gri	-8924
▁མུ་	-8925
་དུརྱ	-8926
ཀློག་	-8927
ཕན་ཚུ	-8928
རྗེས་	-8929
རྫུན་	-8930
ུལ་བ་	-8931
▁clan	-8932
▁eyeb	-8933
▁rare	-8934
▁ཡུལ་	-8935
་དཔའ་བ	-8936
་དཔུང་	-8937
ཁྱོད་ད	-8938
ནུས་པ་	-8939
འབྲིང་	-8940
རྩུབ་པ	-8941
ུང་དང་	-8942
▁extra	-8943
▁steps	-8944
▁sukha	-8945
ization	-8946
་བསྐལ་པ	-8947
ཀུ་མུ་ད	-8948
འདྲའོ་་	-8949
སློབ་པ་	-8950
▁arrive	-8951
▁draped	-8952
▁solids	-8953
▁stones	-8954
▁struck	-8955
▁stupas	-8956
ཁྱིམ་ནས་	-8957
མི་དགའ་བ	-8958
སྟེང་གི་	-8959
▁causing	-8960
▁consecr	-8961
▁disease	-8962
▁harming	-8963
▁mandala	-8964
▁mention	-8965
▁དབང་པོ་	-8966
ཇི་སྙེད་པ	-8967
ལྕགས་ཀྱི་	-8968
▁wishfulf	-8969
▁རྒྱ་མཚོ་	-8970
གཤེགས་སོ་་	-8971
གྱི་བར་དུ་	-8972
ནི་བྱང་ཆུབ	-8973
ས་སྨྲས་སོ་	-8974
▁ointments	-8975
▁religious	-8976
▁དེའི་ཚེ་བ	-8977
ཟིལ་གྱིས་མན	-8978
འདི་དག་གིས་	-8979
ས་པའི་ལྷ་ང་	-8980
▁motivation	-8981
▁prosperous	-8982
ལྟ་སྨོས་ཀྱང་	-8983
▁attachments	-8984
ཆོས་སྟོན་ཏོ་་	-8985
འི་དཀྱིལ་འཁོར་	-8986
འདས་པའི་དུས་ན་བ	-8987
▁wishfulfilling	-8988
་བྱེ་བ་ཁྲག་ཁྲིག་	-8989
ཁམས་གང་གའི་ཀླུང་	-8990
ནྡ	-8991
gar	-8992
hil	-8993
ula	-8994
་རྨ	-8995
▁གྲ	-8996
་ན་་	-8997
དང་ད	-8998
▁fit	-8999
▁fun	-9000
▁gem	-9001
▁མེ་	-9002
akrav	-9003
inter	-9004
གོས་བ	-9005
ནས་སྤ	-9006
མཚན་མ	-9007
མྱོང་	-9008
འཇོག་	-9009
ར་ནི་	-9010
རོ་མྱ	-9011
ས་སྲི	-9012
▁ཚིག་	-9013
ཕྱི་མ་	-9014
མཛོད་་	-9015
ལྷགས་་	-9016
ྲིབ་པ་	-9017
▁aside	-9018
▁neutr	-9019
entions	-9020
ibility	-9021
གཟུང་བ་	-9022
ཉི་ཁྲི་	-9023
མི་མངའ་	-9024
འི་བློ་	-9025
འི་ཚེ་་	-9026
རིག་བྱེ	-9027
▁bimbis	-9028
▁defeat	-9029
▁invari	-9030
▁summon	-9031
འདིར་ནི་	-9032
ལིད་ཙ་བི	-9033
གནས་བརྟན་	-9034
གསང་སྔགས་	-9035
གསལ་རྒྱལ་	-9036
གསོལ་ཏོ་་	-9037
རོལ་མོའི་	-9038
▁སྲིང་མོ་	-9039
འབྱུང་གནས་	-9040
▁presented	-9041
▁realizing	-9042
ཀྱི་བར་གྱི་	-9043
གྲངས་མེད་པ་	-9044
ཆོས་སྟོན་པ་	-9045
མར་གྱི་ཉིང་	-9046
▁designated	-9047
▁hesitation	-9048
▁prasenajit	-9049
▁སངས་རྒྱས་བ	-9050
རྒྱ་སྟོང་དུ་	-9051
སེམས་བསྐྱེད་	-9052
འདོད་ཆགས་དང་་	-9053
འི་བཤེས་གཉེན་	-9054
ྲན་པ་ཉེ་བར་གཞག་པ	-9055
མཉེ	-9056
སྙི	-9057
half	-9058
ists	-9059
ples	-9060
yuha	-9061
གསོ་	-9062
འགྲི	-9063
ེ་བོ	-9064
▁rid	-9065
▁ཡབ་	-9066
ially	-9067
གོས་པ	-9068
ཉན་ཐོ	-9069
ཕམ་པ་	-9070
མིན་་	-9071
ཞིན་་	-9072
ཟབ་པ་	-9073
འཚོང་	-9074
▁envy	-9075
teenth	-9076
usadhi	-9077
་དེ་ན་	-9078
ཚིག་བླ	-9079
འདེབས་	-9080
ལ་དད་པ	-9081
ལ་ཞིང་	-9082
ལ་ཡང་བ	-9083
སྔགས་པ	-9084
སྟན་ལ་	-9085
▁mahav	-9086
natural	-9087
གཞོན་ནུ	-9088
གས་སྐྱེ	-9089
མཆོག་ལ་	-9090
སེར་སྐྱ	-9091
▁across	-9092
▁letter	-9093
▁prayer	-9094
▁refine	-9095
▁resemb	-9096
▁smells	-9097
▁ཡི་གེ་	-9098
ཁྱེར་ཏེ་	-9099
ངས་རྒྱས་	-9100
ཐོགས་ཏེ་	-9101
རུང་སྟེ་	-9102
རྒྱལ་སྲི	-9103
ཤིག་དང་་	-9104
སྨྲ་བའི་	-9105
▁decline	-9106
▁lineage	-9107
▁partake	-9108
▁vessels	-9109
་སྐྱེ་མཆེ	-9110
ཐུགས་རྗེ་	-9111
འོད་མའི་ཚ	-9112
རྟག་པ་དང་	-9113
ལྟུང་བའི་	-9114
ོམས་པར་འཇ	-9115
▁behavior	-9116
▁listened	-9117
▁merchant	-9118
▁observed	-9119
▁students	-9120
གསུངས་སོ་་	-9121
ཅེས་བྱའོ་་	-9122
ས་ལ་བཙུགས་	-9123
་སྡུག་བསྔལ་	-9124
ཀའ་སྩལ་ཏོ་་	-9125
▁mahausadhi	-9126
▁nonduality	-9127
▁transitory	-9128
▁སྦྱིན་པའི་	-9129
་དེ་ལྟ་བུའི་	-9130
གེ་བའི་རྩ་བ་	-9131
ཞེས་བྱ་བ་དང་	-9132
ལྟ་ན་སྡུག་པ་	-9133
▁celebrating	-9134
མངོན་སུམ་དུ་བ	-9135
▁homelessness	-9136
▁མཐོང་ནས་ཀྱང་	-9137
སེམས་དང་ལྡན་པ་	-9138
ལ་དགེ་བའི་རྩ་བ་བ	-9139
▁ཐ	-9140
hak	-9141
ཁྲུ	-9142
སྐོ	-9143
སྟབ	-9144
▁ks	-9145
laim	-9146
uted	-9147
གླང་	-9148
ཡི་ད	-9149
ivity	-9150
seven	-9151
ཅེར་བ	-9152
འགུལ་	-9153
འི་དྲ	-9154
རང་བྱ	-9155
རུང་་	-9156
▁bhut	-9157
▁pull	-9158
astern	-9159
itudes	-9160
onents	-9161
་བཏུད་	-9162
གསུངས་	-9163
གིས་བྱ	-9164
བེན་པ་	-9165
མཁན་པོ	-9166
ཡང་དང་	-9167
ལས་བཞེ	-9168
ོད་དེ་	-9169
ོམ་ཉི་	-9170
ོས་དང་	-9171
▁clean	-9172
གཏོང་བ་	-9173
ད་པ་ནི་	-9174
མདོ་སྡེ	-9175
མཚན་མོ་	-9176
འཇིག་པ་	-9177
ལ་བལྟ་བ	-9178
ལས་ཅི་བ	-9179
ེ་དག་ལ་	-9180
▁endure	-9181
▁forget	-9182
▁monast	-9183
▁ratnak	-9184
▁stayed	-9185
▁unvirt	-9186
གཞན་ཞིག་	-9187
དག་གིས་བ	-9188
འགགས་པས་	-9189
རླུང་གི་	-9190
▁acclaim	-9191
▁classes	-9192
ཁམས་དང་་ར	-9193
མ་ཡིན་ནམ་	-9194
ར་འདོད་པ་	-9195
ལོངས་སྤྱོ	-9196
▁clinging	-9197
▁families	-9198
གནས་པ་དང་་	-9199
རྣམ་པར་དག་	-9200
ལུང་བསྟན་པ	-9201
▁ཏིང་འཛིན་	-9202
འབྱུང་ངོ་་་	-9203
འོ་་འདི་ནི་	-9204
▁assemblies	-9205
▁thoroughly	-9206
ཐུགས་སུ་ཆུད་	-9207
རབ་ཏུ་བྱུང་བ་	-9208
རྣམས་ཡོངས་སུ་	-9209
ས་བཀའ་སྩལ་ཏོ་	-9210
སྔ་མ་བཞིན་དུ་	-9211
ཉིད་ཀྱི་བར་དུ་	-9212
མེ་ཏོག་ཀུན་ཏུ་	-9213
ཐམས་ཅད་ཡོངས་སུ་	-9214
ལ་བཅོམ་ལྡན་འདས་	-9215
ནས་སངས་རྒྱས་ཀྱི་	-9216
ལ་འདི་སྐད་ཅེས་བྱ	-9217
སྙོམས་པར་འཇུག་པ་	-9218
oo	-9219
གདོ	-9220
ཨོ་	-9221
asri	-9222
born	-9223
lier	-9224
usum	-9225
ཀའ་་	-9226
ར་རེ	-9227
▁mat	-9228
▁que	-9229
▁wel	-9230
ident	-9231
བ་པར་	-9232
ཚེ་འཕ	-9233
རྣ་བ་	-9234
སོང་་	-9235
▁leng	-9236
▁perv	-9237
▁purn	-9238
itabha	-9239
ཅི་ནས་	-9240
ཟུང་བ་	-9241
འོངས་པ	-9242
རྩོད་པ	-9243
ུ་འཕྲུ	-9244
▁share	-9245
version	-9246
་དང་་སྡ	-9247
གནས་སམ་	-9248
མཛད་པ་་	-9249
མར་དང་་	-9250
མྱུ་གུ་	-9251
ར་ཎ་སི་	-9252
རྣམ་དག་	-9253
སྤྱན་དྲ	-9254
▁lesser	-9255
▁unatta	-9256
གླིང་དུ་	-9257
ཕྲག་དུ་མ	-9258
ལྡན་གྱི་	-9259
▁coupled	-9260
▁diverse	-9261
▁leaving	-9262
▁message	-9263
་དེས་ཀྱང་	-9264
ཁྲག་ཁྲིག་	-9265
རྣམ་པར་གན	-9266
▁radiance	-9267
▁signless	-9268
▁ཡོངས་སུ་	-9269
གང་དང་རྐྱེ	-9270
ནི་བདག་གི་	-9271
མཐར་ཐུག་པ་	-9272
ུ་བྱུང་སྟེ	-9273
▁connected	-9274
▁emanation	-9275
▁exception	-9276
་དེ་ལྟར་ན་ད	-9277
ར་བགྱིས་ཏེ་	-9278
▁invariably	-9279
▁maintained	-9280
▁unattached	-9281
▁unvirtuous	-9282
མ་ཡིན་པ་དང་་	-9283
འདི་སྐད་ཅེས་	-9284
འི་སྟོབས་བཅུ	-9285
▁nonexistence	-9286
ནི་བླ་ན་མེད་པ་	-9287
སྐྱབས་སུ་འགྲོ་བ	-9288
སྟོབས་དང་ལྡན་པ་	-9289
ཥ་	-9290
nda	-9291
pit	-9292
unk	-9293
ྲོ་	-9294
▁dw	-9295
etra	-9296
mind	-9297
འབྱེ	-9298
▁ཆུ་	-9299
isite	-9300
་སྒྲ་	-9301
གླགས་	-9302
ང་རྒྱ	-9303
དུད་བ	-9304
འབྲས་	-9305
ུང་ན་	-9306
▁text	-9307
ག་ཆགས་	-9308
ཟད་དོ་	-9309
ཟད་པར་	-9310
འ་དང་་	-9311
རྒྱུས་	-9312
རྡུལ་བ	-9313
རྣམས་ལ	-9314
ལམ་ཡང་	-9315
སྐུལ་བ	-9316
ྱིན་པ་	-9317
▁bones	-9318
▁build	-9319
▁homes	-9320
▁influ	-9321
▁parts	-9322
▁uncom	-9323
ཀྱི་ཚེ་	-9324
མ་ཐག་ཏུ	-9325
ལ་བྱིན་	-9326
སྙམ་མོ་	-9327
སྲེད་པ་	-9328
▁bhutas	-9329
▁change	-9330
▁pacify	-9331
▁pieces	-9332
▁reared	-9333
▁surely	-9334
▁དེས་ན་	-9335
ཀྱིས་དགོ	-9336
▁allowed	-9337
▁demonic	-9338
▁earlier	-9339
▁granted	-9340
▁འགྲོ་བ་	-9341
ཉིད་དང་་ད	-9342
ཕྲག་དྲུག་	-9343
འི་དུས་ན་	-9344
▁definite	-9345
▁འོན་ཀྱང་	-9346
འཇིགས་ཤིང་	-9347
རྡོ་རྗེའི་	-9348
▁completes	-9349
▁discerned	-9350
▁poisonous	-9351
་དེ་དང་རྐྱེ	-9352
གཞན་དག་ཀྱང་	-9353
ང་ནས་སྐྱེས་	-9354
འི་སྤྱོད་པ་	-9355
ཡང་དག་པར་བླ	-9356
▁protection	-9357
ཕྱིན་ཅི་ལོག་	-9358
ཆོས་ཐམས་ཅད་ལ་	-9359
མཆོད་སྦྱིན་བྱ	-9360
ལྷག་པའི་བསམ་པ	-9361
ྭ་བརྒྱད་ཀྱི་བ	-9362
་དང་་ལྟོ་འཕྱེ་	-9363
▁དགེ་བའི་རྩ་བ་	-9364
རབ་ཏུ་བྱུང་སྟེ་	-9365
རྒྱུ་དེ་དང་རྐྱེ	-9366
wh	-9367
ཕྱེ	-9368
abha	-9369
bles	-9370
rest	-9371
ught	-9372
རྟ་བ	-9373
▁sav	-9374
haraj	-9375
iment	-9376
ག་པས་	-9377
གཉེར་	-9378
ན་རེ་	-9379
▁lust	-9380
▁nonc	-9381
▁task	-9382
llable	-9383
tained	-9384
ན་དེས་	-9385
འདིར་བ	-9386
ཡོད་དེ	-9387
རྒྱད་པ	-9388
ེད་པ་་	-9389
▁acala	-9390
▁lamps	-9391
▁neckl	-9392
▁ང་ནི་	-9393
▁འདིས་	-9394
iration	-9395
ཁྲི་ཕྲག	-9396
མངོན་པར	-9397
འདི་ལས་	-9398
སྒོའོ་་	-9399
ོད་ཅིང་	-9400
▁behalf	-9401
▁fierce	-9402
▁natura	-9403
▁queens	-9404
▁renown	-9405
▁unreal	-9406
▁བུ་མོ་	-9407
ཚེའི་ཚད་	-9408
སྤྲོས་པ་	-9409
ན་བྲམ་ཟེ་	-9410
མ་ཡིན་པ་བ	-9411
མཐུ་ཆེ་བ་	-9412
མི་བྱེད་་	-9413
རྗོད་དོ་་	-9414
ློ་གྲོས་བ	-9415
▁finality	-9416
▁ordinand	-9417
ཐམས་ཅད་ཀྱི	-9418
ཐེག་པ་པའི་	-9419
ས་སྡུག་བསྔ	-9420
▁bimbisara	-9421
▁community	-9422
▁intellect	-9423
▁listeners	-9424
▁naturally	-9425
▁nonreturn	-9426
་དང་ལྡན་པར་	-9427
སྙིང་བརྩེ་བ	-9428
སྟོབས་ཀྱིས་	-9429
▁respectful	-9430
▁དེའི་ཕྱིར་	-9431
ལྟ་ག་ལ་མཆིས་	-9432
▁cultivation	-9433
▁innumerably	-9434
▁stabilities	-9435
མཆོག་ཏུ་དགའ་བ	-9436
▁contaminants	-9437
▁discernments	-9438
▁དེའི་འོག་ཏུ་	-9439
འདས་པའི་དུས་ན་	-9440
གང་ཡིན་པ་དེ་དག་	-9441
འདུས་མ་བྱས་ཀྱི་	-9442
རྒྱལ་པོ་ཟས་གཙང་	-9443
hol	-9444
▁gh	-9445
▁ug	-9446
ཟག་པ	-9447
▁ali	-9448
▁འོ་	-9449
▁ཤཀྱ	-9450
alcul	-9451
reath	-9452
བུགས་	-9453
▁cold	-9454
▁lies	-9455
་སྤྱད་	-9456
གདུང་བ	-9457
གྱིད་པ	-9458
ཞག་བདུ	-9459
ཞོན་པ་	-9460
རྗོད་་	-9461
སྤྲོ་བ	-9462
▁bodhi	-9463
▁excre	-9464
▁stars	-9465
གང་དག་བ	-9466
མཁས་པས་	-9467
མི་ཤེས་	-9468
ོན་དང་་	-9469
ོན་དམ་པ	-9470
▁battle	-9471
▁height	-9472
▁heroes	-9473
▁misery	-9474
▁specif	-9475
▁thinks	-9476
▁unique	-9477
་པོ་དང་་	-9478
གཤེགས་པ་	-9479
མི་བགྱི་	-9480
མི་འམ་ཅི	-9481
ས་ཕྱོགས་	-9482
▁declare	-9483
▁fathers	-9484
▁greatly	-9485
▁harmful	-9486
▁musical	-9487
▁visible	-9488
▁དཔའ་བོ་	-9489
▁ཡོན་ཏན་	-9490
་དགེ་ཚུལ་	-9491
་དངོས་པོ་	-9492
་དེ་གཉིས་	-9493
ན་དང་་བ་ད	-9494
ན་རྒྱལ་པོ	-9495
འི་དཀྱིལ་	-9496
ལ་བུ་ཆགས་	-9497
སྣང་ངོ་་་	-9498
▁amitabha	-9499
▁arranged	-9500
▁defeated	-9501
གླང་པོ་ཆེ་	-9502
རྣམས་ལ་ཡང་	-9503
སམ་གཏན་བཞི	-9504
▁certainly	-9505
▁certainty	-9506
▁conferred	-9507
▁observing	-9508
▁reverence	-9509
▁བཀའ་སྩལ་པ	-9510
ཕྱིར་རྒོལ་བ	-9511
མེ་ཏོག་དང་་	-9512
ཡོངས་སུ་སྦྱ	-9513
་སྟོང་པ་ཉིད་	-9514
འདི་ལྟ་བུའི་	-9515
སེམས་ཅན་གྱི་	-9516
▁supernatural	-9517
་དགེ་འདུན་གྱི་	-9518
་བཅོམ་ལྡན་འདས་	-9519
ལྟར་མི་བལྟ་སྟེ	-9520
▁contemplation	-9521
སྦྱིན་པ་སྦྱིན་པ	-9522
ནམ་མཁའ་ལྡིང་དང་་	-9523
རྒྱལ་མཚན་དང་་བ་ད	-9524
bor	-9525
བྱང	-9526
རྔ་	-9527
སྦུ	-9528
ི་ཀ	-9529
bear	-9530
མཚོ་	-9531
འདས་	-9532
སྔར་	-9533
ྲང་བ	-9534
aters	-9535
ཀུན་བ	-9536
ཁ་ཟས་	-9537
ནི་དབ	-9538
འདྲི་	-9539
སེར་པ	-9540
▁arom	-9541
▁unob	-9542
གླིང་བ	-9543
ན་དགེ་	-9544
མི་ཡི་	-9545
ཤེས་བྱ	-9546
སུ་ཡང་	-9547
ོན་ནས་	-9548
▁arrow	-9549
▁misde	-9550
▁recip	-9551
▁round	-9552
ད་འཚོང་	-9553
ནི་ཆོས་	-9554
ཟང་པོ་བ	-9555
འཇིགས་བ	-9556
ཡོད་དམ་	-9557
ལ་མོ་ཀྲ	-9558
▁beauty	-9559
▁devote	-9560
▁limits	-9561
▁moving	-9562
▁petals	-9563
▁powder	-9564
▁swords	-9565
གཏུམ་པོ་	-9566
ཅན་གྱིས་	-9567
འི་སེམས་	-9568
རྒྱས་པར་	-9569
ལྷག་པའི་	-9570
ེང་གེའི་	-9571
▁invited	-9572
▁removed	-9573
▁studied	-9574
་དྲུག་ཏུ་	-9575
ོང་བ་དང་་	-9576
▁ambrosia	-9577
▁aversion	-9578
▁eyebrows	-9579
▁incalcul	-9580
▁minister	-9581
▁resemble	-9582
▁separate	-9583
▁suitable	-9584
ང་བྱང་ཆུབ་	-9585
སྟོབས་ཀྱི་	-9586
ུ་དེ་ལྟར་ན	-9587
▁doctrines	-9588
▁exclaimed	-9589
▁residence	-9590
▁visualize	-9591
་སངས་རྒྱས་བ	-9592
མི་གནས་སོ་་	-9593
འདི་སྐད་སྨྲ	-9594
ར་མི་སྤྱོད་	-9595
རབ་ཏུ་དགའ་བ	-9596
ས་སྔོན་གྱི་	-9597
མའི་རྒྱལ་པོ་	-9598
ར་བྱེད་པའོ་་	-9599
ཡང་མ་ཡིན་ནོ་་	-9600
ྱིན་གྱིས་བརླབ	-9601
▁གྲོགས་པོ་དག་	-9602
ར་མི་བྱེད་དོ་་	-9603
སེམས་བསྐྱེད་པ་	-9604
▁transmigrated	-9605
ཚངས་པ་མཚུངས་པར་	-9606
ལན་གསུམ་བསྐོར་བ	-9607
▁དགེ་སློང་དག་ང་	-9608
ཡོན་ཏན་གྱི་ཚོགས་	-9609
den	-9610
ཤས་	-9611
▁eg	-9612
ihil	-9613
osed	-9614
oved	-9615
tled	-9616
་སྤྲ	-9617
ངན་པ	-9618
དང་བ	-9619
རིས་	-9620
ཤད་་	-9621
▁suv	-9622
asamk	-9623
ཀྱི་ཧ	-9624
ཡང་དེ	-9625
ལུས་ད	-9626
ལྡོག་	-9627
ྲལ་བ་	-9628
▁clar	-9629
▁peri	-9630
▁used	-9631
▁སྒྲ་	-9632
legged	-9633
བ་ཅིང་	-9634
འ་ཆོས་	-9635
སུ་དག་	-9636
ོན་ལམ་	-9637
▁decor	-9638
▁phant	-9639
་སྤྱོད་	-9640
ན་དགའ་བ	-9641
འི་དྲི་	-9642
ཤད་དོ་་	-9643
▁impart	-9644
▁needed	-9645
▁princi	-9646
་དེ་ནི་ད	-9647
ཁྱེད་ཅག་	-9648
ཐོས་ནས་་	-9649
ཟུང་ཤིག་	-9650
▁conceit	-9651
▁healthy	-9652
ར་བགྱིའོ་	-9653
▁actually	-9654
▁attended	-9655
▁misdeeds	-9656
▁ཇི་ལྟར་བ	-9657
▁དངོས་པོ་	-9658
ཀྱི་དབང་པོ	-9659
མེད་པ་ཉིད་	-9660
རྣམས་དང་་་	-9661
ཤིང་ལྗོན་པ	-9662
▁medicinal	-9663
▁sukhavati	-9664
▁འོད་སྲུང་	-9665
གཞལ་མེད་ཁང་	-9666
གྱུར་པ་དང་་	-9667
ཏིང་ངེ་འཛིན	-9668
རིན་པོ་ཆེ་བ	-9669
▁ཡང་དག་པའི་	-9670
གཅིག་ལ་གཅིག་	-9671
འོད་སྲུང་དང་	-9672
རྣམས་ཀྱི་ནི་	-9673
▁continually	-9674
▁རྣམ་པར་ཐར་པ	-9675
ཇི་སྙེད་ཡོད་པ	-9676
ལ་ཕྱག་འཚལ་ཏེ་	-9677
སྐལ་པ་བཟང་པོ་	-9678
་དང་་ཡང་དག་པར་	-9679
གང་ཡིན་པ་དེ་ནི	-9680
འི་དབྱངས་ཀྱིས་	-9681
ར་མི་འགྱུར་ཏེ་	-9682
▁nonconceptual	-9683
ན་བཅོམ་ལྡན་འདས་	-9684
▁ཕྱོགས་གཅིག་ཏུ་	-9685
ལྗོ	-9686
▁གས	-9687
aves	-9688
head	-9689
riad	-9690
ucid	-9691
ཏེ་ད	-9692
ཚ་བ་	-9693
ཚང་བ	-9694
རྩ་བ	-9695
ེ་ལ་	-9696
ེགས་	-9697
ོམས་	-9698
▁dip	-9699
▁pan	-9700
▁pis	-9701
inary	-9702
གཅད་པ	-9703
གུས་བ	-9704
ངན་པ་	-9705
རྗེད་	-9706
ས་པ་་	-9707
aksatr	-9708
prabha	-9709
་སྤོས་	-9710
མ་ག་དྷ	-9711
མི་དེ་	-9712
འཇོག་པ	-9713
ལ་ཕན་པ	-9714
སྡུག་པ	-9715
▁bloom	-9716
▁gates	-9717
▁herbs	-9718
▁reply	-9719
▁དེ་ལྟ	-9720
▁སྡིག་	-9721
quisite	-9722
tracted	-9723
ནོར་དང་	-9724
ཚུལ་དང་	-9725
ཞག་སྟེ་	-9726
འབྲས་བུ	-9727
ཡིད་མི་	-9728
ཤི་བའི་	-9729
▁candra	-9730
▁impure	-9731
▁myriad	-9732
▁stains	-9733
ཆེད་དུ་བ	-9734
ཐུགས་བརྩ	-9735
དེ་བ་དང་	-9736
ཕྲག་དོག་	-9737
མཐུ་ཆེན་	-9738
མི་ནུས་་	-9739
རྫུ་འཕྲུ	-9740
▁address	-9741
▁beloved	-9742
▁eastern	-9743
▁thrones	-9744
▁སྟོབས་བ	-9745
ཅི་ཞིག་བྱ	-9746
མི་དགེ་བ་	-9747
རྒྱ་ཆེ་བ་	-9748
▁describe	-9749
▁vimalate	-9750
་དུས་གཅིག་	-9751
་བྱེད་དོ་་	-9752
འབྱུང་སྟེ་	-9753
འཛིན་བྱེད་	-9754
▁listening	-9755
▁marvelous	-9756
ཁོང་དུ་ཆུད་	-9757
གཟུགས་བརྙན་	-9758
རི་དགས་ཀྱི་	-9759
ལ་བརྟེན་ནས་	-9760
སེམས་ཅན་དག་	-9761
སྙམ་དུ་བསམས་	-9762
ཇི་སྐད་བསྟན་པ	-9763
ར་མི་ནུས་སོ་་	-9764
ར་འགྱུར་ཞིང་་	-9765
ས་སྟོན་རྒྱས་པ	-9766
▁primordially	-9767
▁unobstructed	-9768
ཀྱིས་དེ་སྐད་ཅེ	-9769
གི་བྱེ་མ་སྙེད་	-9770
སྦྱར་ཏེ་དེ་ནི་	-9771
▁དེ་ནས་རྒྱལ་པོ	-9772
མཐའ་ཡས་སྐྱེ་མཆེ	-9773
ས་སེམས་ཅན་རྣམས་	-9774
་སྟོང་པ་ཉིད་དང་་	-9775
mp	-9776
rid	-9777
yam	-9778
་བླ	-9779
ཐར་	-9780
ནྱ་	-9781
རྐུ	-9782
held	-9783
ཅུ་ད	-9784
ཆེ་་	-9785
འཆང་	-9786
རུས་	-9787
ལའི་	-9788
སྒྲེ	-9789
▁bar	-9790
▁dog	-9791
▁jal	-9792
▁mur	-9793
▁wet	-9794
andra	-9795
inent	-9796
inies	-9797
table	-9798
་དུང་	-9799
ཁྱབ་་	-9800
ཆད་བྱ	-9801
ན་གསུ	-9802
ཕྱག་བ	-9803
འཐབ་བ	-9804
▁peac	-9805
་དེ་ཡི	-9806
ཡི་རང་	-9807
ལག་པ་བ	-9808
ས་སྒོ་	-9809
སྐྲག་པ	-9810
▁avici	-9811
▁bloss	-9812
▁impro	-9813
▁needs	-9814
itively	-9815
ཆེད་དུ་	-9816
ན་གསོལ་	-9817
ལྟ་བུ་བ	-9818
ལྡན་དག་	-9819
སྟོད་པ་	-9820
ོ་བོའི་	-9821
▁enters	-9822
▁observ	-9823
▁silent	-9824
▁རབ་ཏུ་	-9825
འོག་ཏུ་བ	-9826
▁casting	-9827
▁clearly	-9828
▁examine	-9829
▁mahavid	-9830
▁supplic	-9831
▁undergo	-9832
▁uttered	-9833
asamkusum	-9834
mentioned	-9835
ཆོས་ཀྱིས་	-9836
འདུ་ཤེས་བ	-9837
ས་སྐྱེ་བ་	-9838
སྐྱེད་དོ་	-9839
ྱིན་གྱིས་	-9840
▁extraord	-9841
▁suchness	-9842
▁supports	-9843
གསུང་རབ་ལ་	-9844
ལས་སྐྱེས་པ	-9845
ལྔ་བརྒྱ་པོ	-9846
▁nonhumans	-9847
▁permitted	-9848
▁དེ་ལྟར་ན་	-9849
▁ལྷའི་བུ་ད	-9850
ཕྱོགས་མཚམས་	-9851
འི་ཕྱིར་ཏེ་	-9852
རང་བཞིན་ཅན་	-9853
ས་སེམས་ཅན་ག	-9854
རྣམ་པར་བྱང་བ	-9855
ལུང་བསྟན་ཏོ་	-9856
▁meritorious	-9857
▁unhappiness	-9858
▁སྟོང་པ་ཉིད་	-9859
ཀྱིས་གསུངས་པ་	-9860
གཏན་མི་དམིགས་	-9861
ཆོས་རྣམས་ཀྱི་	-9862
འི་དབྱིངས་སུ་	-9863
▁experiencing	-9864
▁circumstances	-9865
་དྲི་མ་མེད་པའི་	-9866
ཐོབ་པར་གྱུར་ཏོ་་	-9867
ཕྱིར་མི་ལྡོག་པའི	-9868
ཁུ	-9869
▁ཚ	-9870
ody	-9871
ply	-9872
ཀ་ཏ	-9873
རྣ་	-9874
▁གཡ	-9875
acks	-9876
ཏུལ་	-9877
ལ་པོ	-9878
ས་དང	-9879
སིལ་	-9880
▁fig	-9881
▁hus	-9882
▁kse	-9883
▁sea	-9884
▁vas	-9885
acity	-9886
adars	-9887
ffron	-9888
harma	-9889
takes	-9890
མིང་བ	-9891
ཞེས་་	-9892
▁rend	-9893
▁tall	-9894
antial	-9895
erness	-9896
་དང་བྱ	-9897
གང་ནས་	-9898
ངེས་པ་	-9899
ད་དུ་ད	-9900
ཕྱག་འཚ	-9901
མ་ཐོབ་	-9902
འམ་ཅི་	-9903
ཧུ་ཕཊ་	-9904
▁afore	-9905
▁bells	-9906
▁fifth	-9907
▁meant	-9908
▁somet	-9909
▁རིགས་	-9910
གནས་པས་	-9911
ཅོམ་ནས་	-9912
ཕྱིན་པ་	-9913
འགྱོད་པ	-9914
འདི་དང་	-9915
འབྱོར་པ	-9916
ཡང་ཡོད་	-9917
སྐྱེའོ་	-9918
སྟན་པར་	-9919
▁diseng	-9920
▁escape	-9921
▁mirror	-9922
▁season	-9923
་དག་གོ་་	-9924
་བརྙེས་པ	-9925
ར་དཀའ་བ་	-9926
ལྷུན་པོ་	-9927
སྒྲོན་མ་	-9928
སློབ་དཔོ	-9929
ོགས་སོ་་	-9930
▁consumm	-9931
▁falling	-9932
▁mustard	-9933
▁saffron	-9934
▁vaisali	-9935
▁yojanas	-9936
▁དེ་དག་བ	-9937
ཀྱི་བར་ལ་	-9938
གཅིག་ཏུ་བ	-9939
ཉེ་བར་མི་	-9940
ན་གྱི་བུ་	-9941
མ་བཟང་པོ་	-9942
འཇུག་གོ་་	-9943
ཡི་གེ་དྲུ	-9944
ར་ཡང་དག་པ	-9945
སྤོས་ཀྱི་	-9946
▁determin	-9947
▁flourish	-9948
▁ignorant	-9949
▁monastic	-9950
aksatraraj	-9951
་བྱུང་སྟེ་	-9952
ཆེན་པོ་དག་	-9953
ཉེ་བར་ཞི་བ	-9954
ཐབས་མཁས་པ་	-9955
འཆང་བ་དང་་	-9956
འི་བྱང་ཆུབ	-9957
ལས་ཆུང་མ་བ	-9958
སོད་ནམས་དག	-9959
▁conquered	-9960
▁excrement	-9961
▁multitude	-9962
▁obstacles	-9963
ཁ་ན་མ་ཐོ་བ་	-9964
ཕུང་པོ་དང་་	-9965
འགོག་པ་དང་་	-9966
རིས་ཀྱི་ལྷ་	-9967
▁equipoised	-9968
▁vimalateja	-9969
གཞན་དག་ལ་ཡང་	-9970
མདུན་དུ་བདར་	-9971
ར་འགྱུར་གྱི་	-9972
སོ་སོར་རྟོག་	-9973
སོད་སྙོམས་ལ་	-9974
སྡུག་བསྔལ་བ་	-9975
ུ་བྱུང་ངོ་་་	-9976
▁definitively	-9977
▁བརྩོན་འགྲུས་	-9978
ཟའ་བ་དང་བཅའ་བ་	-9979
སྐྱེ་དགུའི་ཚེ་	-9980
ཏིང་ངེ་འཛིན་དེ་	-9981
ར་བཅོམ་ལྡན་འདས་	-9982
སུམ་ཅུ་རྩ་གཉིས་	-9983
སྐྱེ་མཆེད་དྲུག་	-9984
▁aforementioned	-9985
རབ་ཏུ་བྱུང་ངོ་་་	-9986
ese	-9987
ilt	-9988
irs	-9989
unt	-9990
འ་ད	-9991
བས་པ	-9992
མོ་ད	-9993
ར་རྨ	-9994
རྩལ་	-9995
ལྡང་	-9996
སྐྲ་	-9997
▁bew	-9998
▁met	-9999
▁smo	-10000
▁sri	-10001
lling	-10002
ཡུངས་	-10003
ལ་དག་	-10004
▁fond	-10005
▁safe	-10006
▁vult	-10007
▁yama	-10008
་སྭ་ཧ་	-10009
གདན་བཤ	-10010
ཇི་སྲི	-10011
ནས་སྐྱ	-10012
རུང་བ་	-10013
རྒྱའི་	-10014
▁analy	-10015
▁below	-10016
▁brahm	-10017
▁crowd	-10018
▁imped	-10019
▁links	-10020
▁scent	-10021
▁རིག་པ	-10022
▁སྣང་བ	-10023
གང་དུ་བ	-10024
ཅིངས་པ་	-10025
མ་གྱུར་	-10026
མེད་པ་་	-10027
མེད་པ་བ	-10028
རྙོག་པ་	-10029
སེར་སྣ་	-10030
སྐྲ་དང་	-10031
▁happen	-10032
▁intend	-10033
▁length	-10034
▁recipi	-10035
་པད་མའི་	-10036
་བདག་ཅག་	-10037
ཕུལ་ལོ་་	-10038
མཆོག་དང་	-10039
མི་དགེ་བ	-10040
ཞབས་ཀྱི་	-10041
ཞེས་ཟེར་	-10042
ས་སྤྱོད་	-10043
སོང་ཤིག་	-10044
▁capable	-10045
▁captain	-10046
▁encount	-10047
▁experts	-10048
▁leaders	-10049
▁གཞོན་ནུ	-10050
▁དེས་དེ་	-10051
▁འདོད་པ་	-10052
གོར་མ་ཆག་	-10053
མེད་པ་ནི་	-10054
རྗོད་ཅིང་	-10055
▁arrogant	-10056
▁mistaken	-10057
▁reciting	-10058
▁repeated	-10059
ངོ་མཚར་དུ་	-10060
རྗེས་སུ་དྲ	-10061
ལ་བདག་གིས་	-10062
▁physician	-10063
་དེ་དག་གི་བ	-10064
སམ་གཏན་དང་་	-10065
སྒྲུབ་པ་དང་	-10066
▁instructor	-10067
ན་གྱི་བར་དུ་	-10068
མུ་སྟེགས་ཅན་	-10069
ས་སྨོན་ལམ་བཏ	-10070
▁examination	-10071
▁incantation	-10072
▁ཀུན་རྫོབ་ཏུ་	-10073
་དང་་དྲི་དང་་ར	-10074
ཡི་གེ་དྲུག་པའི་	-10075
▁conceptualized	-10076
▁manifestations	-10077
▁སྲེད་མེད་ཀྱི་བ	-10078
མངོན་པར་ཤེས་པ་ལྔ	-10079
འདི་ལྟ་སྟེ་དཔེར་	-10080
རྒྱལ་པོ་ཆེན་པོ་བ	-10081
ཙ་	-10082
cks	-10083
nel	-10084
oks	-10085
urs	-10086
ཕ་མ	-10087
ཕལ་	-10088
icks	-10089
king	-10090
ploy	-10091
་རང་	-10092
གུང་	-10093
ངེས་	-10094
ར་འོ	-10095
རྒན་	-10096
▁aud	-10097
▁bit	-10098
▁སོ་	-10099
ighth	-10100
གདུང་	-10101
གཡུལ་	-10102
ནས་སྐ	-10103
ལ་བཙུ	-10104
▁area	-10105
▁bird	-10106
▁bull	-10107
▁གང་བ	-10108
གྱིས་ད	-10109
ཐ་སྙད་	-10110
ནག་པོ་	-10111
ཚོང་པ་	-10112
འཇོམས་	-10113
ལྔ་བཅུ	-10114
ལྟའོ་་	-10115
སོང་ལ་	-10116
▁conch	-10117
▁drawn	-10118
▁lines	-10119
▁month	-10120
▁shone	-10121
▁sorts	-10122
▁targe	-10123
ཆུང་ངུ་	-10124
མི་གཡོ་	-10125
ཞག་གོ་་	-10126
འགྲོགས་	-10127
ཡང་གཞན་	-10128
ར་བྱས་་	-10129
རྙེས་པ་	-10130
སློབ་མ་	-10131
▁acting	-10132
▁armies	-10133
▁caught	-10134
▁discom	-10135
▁employ	-10136
▁enthra	-10137
▁organs	-10138
▁temper	-10139
▁threat	-10140
▁གང་ཟག་	-10141
གིས་ཀྱང་	-10142
ཐུབ་པ་ན་	-10143
ཞིང་དེར་	-10144
ཡིད་འོང་	-10145
རྫོགས་པ་	-10146
སྔོན་གྱི	-10147
ྱིན་ནོ་་	-10148
▁crushed	-10149
▁dispell	-10150
▁ཀྱེ་མི་	-10151
་བདག་གིས་	-10152
་སྤྱོད་པ་	-10153
ཕྱོགས་བཅུ	-10154
འགྱུར་ཏེ་	-10155
ལུས་ཀྱིས་	-10156
་དང་་སེམས་	-10157
གཟོད་མ་ནས་	-10158
མེད་པ་སྟེ་	-10159
སྟན་པ་འདི་	-10160
སྟོབས་སོ་་	-10161
་དང་ལྡན་པ་བ	-10162
་བརྒྱ་སྟོང་	-10163
ཀློག་པ་དང་་	-10164
ཐམས་ཅད་བསྡུ	-10165
ན་ཁྱིམ་བདག་	-10166
ཡོངས་སུ་བསྔ	-10167
▁actualizes	-10168
▁discourses	-10169
▁eliminated	-10170
་སྤུའི་ཁུང་བ	-10171
ཆོས་ཀྱི་མིག་	-10172
ས་དེའི་ཕྱིར་	-10173
▁mahakasyapa	-10174
ན་པའི་ཡེ་ཤེས་	-10175
རྣམས་ཡིན་ནོ་་	-10176
▁illumination	-10177
ཡོངས་སུ་གཟུང་བ	-10178
ཆེན་པོ་དང་ལྡན་པ་	-10179
ཆོས་ཀྱི་འཁོར་ལོ་	-10180
▁བཅོམ་ལྡན་འདས་བྱ	-10181
ཛ་	-10182
lib	-10183
ony	-10184
ཏི་	-10185
ཐད་	-10186
འཆི	-10187
་ཤི་	-10188
ཁ་སྤ	-10189
ག་ཏ་	-10190
ཆེམ་	-10191
ོན་་	-10192
ྲིས་	-10193
▁ble	-10194
▁rub	-10195
▁sto	-10196
amboo	-10197
anced	-10198
avors	-10199
izens	-10200
་དེ་་	-10201
་བཅུ་	-10202
གས་སྟ	-10203
གློག་	-10204
ཕྱུང་	-10205
བྱེར་	-10206
ཚེ་རབ	-10207
ཞོན་པ	-10208
རངས་པ	-10209
ལྕགས་	-10210
ས་སྦྱ	-10211
▁dish	-10212
▁lose	-10213
▁ཁང་པ	-10214
ananda	-10215
minded	-10216
ulates	-10217
ཕྲ་རབ་	-10218
ལ་ཕུལ་	-10219
སྙམ་ནས	-10220
ུ་དང་བ	-10221
ུ་ཞིང་	-10222
▁asoka	-10223
▁canop	-10224
▁celib	-10225
▁cried	-10226
▁pisac	-10227
▁repro	-10228
▁sixsy	-10229
▁wives	-10230
▁གང་གི	-10231
ཁྲོ་བོ་	-10232
ཆོས་གང་	-10233
བ་ཀྱིས་	-10234
མ་རིག་པ	-10235
ཞིང་ཡང་	-10236
ཞེས་བྱ་	-10237
རལ་གྲི་	-10238
ལུང་ཡང་	-10239
ྱིན་ཏེ་	-10240
▁bamboo	-10241
▁necess	-10242
▁nonper	-10243
▁preced	-10244
▁simply	-10245
▁sought	-10246
▁sprink	-10247
▁strike	-10248
་སྤྱོད་པ	-10249
ངན་འགྲོ་	-10250
མཐོང་ངམ་	-10251
མཐོན་པོ་	-10252
མེད་དེ་་	-10253
འི་དགའ་བ	-10254
ཡིན་ཞིང་	-10255
ར་དེ་དག་	-10256
རིང་བསྲེ	-10257
ལས་འདས་པ	-10258
▁attains	-10259
▁gardens	-10260
▁resting	-10261
▁retreat	-10262
▁surpass	-10263
▁walking	-10264
▁དེ་ནི་ད	-10265
་བྱས་ཤིང་	-10266
གསོལ་བ་བཏ	-10267
ངེས་པར་བྱ	-10268
འཁོར་དང་་	-10269
འོད་ཀྱིས་	-10270
▁chariots	-10271
▁greatest	-10272
▁incanted	-10273
▁jetavana	-10274
▁positive	-10275
▁properly	-10276
་དང་དེ་དག་	-10277
ཀྱི་དོན་བྱ	-10278
ཉན་ཐོས་དང་	-10279
མི་འགྱུར་བ	-10280
རྫོགས་སོ་་	-10281
▁invisible	-10282
▁intentions	-10283
▁preceptors	-10284
▁wilderness	-10285
ནང་དུ་རྒྱུ་བ	-10286
མེད་པ་མ་ཡིན་	-10287
འོད་སྲུང་གི་	-10288
▁obscuration	-10289
▁sixsyllable	-10290
་ར་དྭ་ཏིའི་བུ	-10291
མཐོང་ལགས་སོ་་	-10292
སྟི་སྟང་དུ་བྱ	-10293
ྱིན་གྱི་རླབས་	-10294
ཚངས་པར་སྤྱོད་པ་	-10295
རྗེས་སུ་ཡི་རང་བ	-10296
སྙམ་དུ་མི་སེམས་	-10297
གྲངས་མེད་དཔག་ཏུ་	-10298
rs	-10299
རྦ	-10300
iny	-10301
spr	-10302
་རེ	-10303
ངུར་	-10304
ཅུར་	-10305
དག་པ	-10306
ནས་པ	-10307
མ་མ་	-10308
མངལ་	-10309
ཤ་རི	-10310
ུན་ན	-10311
▁spl	-10312
▁རི་	-10313
ision	-10314
ourne	-10315
thern	-10316
གསོ་བ	-10317
ཆ་དང་	-10318
མུ་ཏི	-10319
འཛུམ་	-10320
འི་ཚུ	-10321
སུ་བྱ	-10322
▁amid	-10323
▁anir	-10324
▁kept	-10325
▁misf	-10326
▁nonb	-10327
▁numb	-10328
▁rich	-10329
▁term	-10330
▁unwa	-10331
▁སྐུ་	-10332
་རྙེད་	-10333
ཀྱང་དེ	-10334
ཁྱིམ་ཐ	-10335
གཞག་པ་	-10336
ཆུ་བོ་	-10337
ཐུན་མོ	-10338
ཕོངས་པ	-10339
མཆིས་་	-10340
མུ་རུ་	-10341
ཞག་ནས་	-10342
ཟུག་རྔ	-10343
འགགས་པ	-10344
ལས་དང་	-10345
ས་སུམ་	-10346
སགས་པ་	-10347
▁assur	-10348
▁impur	-10349
▁incor	-10350
▁major	-10351
▁negat	-10352
▁vijay	-10353
▁ཟླ་བ་	-10354
གནས་དེ་	-10355
གས་ཤིང་	-10356
གྲོལ་བ་	-10357
ནང་དུ་བ	-10358
མང་པོ་བ	-10359
མཆིས་པ་	-10360
མུ་ཏིག་	-10361
ཚད་མེད་	-10362
རྨོངས་པ	-10363
ལ་སོགས་	-10364
▁bewild	-10365
▁corpse	-10366
▁indian	-10367
▁journe	-10368
▁perpet	-10369
▁snakes	-10370
▁སྐྱེ་བ	-10371
མ་བཅས་པ་	-10372
སྒྲུབས་པ	-10373
▁relying	-10374
▁strings	-10375
▁བསྐལ་པ་	-10376
▁སྦྱིན་པ	-10377
་དག་གིས་བ	-10378
ཐབས་མཉམ་པ	-10379
མཆོད་ཅིང་	-10380
འགྱུར་རོ་	-10381
▁benefact	-10382
▁conceive	-10383
▁delights	-10384
▁position	-10385
▁སྨན་གྱི་	-10386
་ཏིང་འཛིན་	-10387
མངོན་པར་བྱ	-10388
ཡེ་ཤེས་དང་	-10389
▁destinies	-10390
▁gentlemen	-10391
▁misfortun	-10392
▁འདི་སྐད་བ	-10393
་དང་འདི་བཞི	-10394
་དང་ལྡན་པའི	-10395
ཀུན་ཤེས་སོ་	-10396
ཡང་མེད་དོ་་	-10397
ཡོད་མ་ཡིན་་	-10398
ར་རྗེས་སུ་བ	-10399
▁beautified	-10400
▁opposition	-10401
▁unwavering	-10402
དག་གིས་ཐོས་པ	-10403
ན་གང་དག་གིས་	-10404
མདོ་སྡེ་འདི་	-10405
འབྲས་བུ་དང་་	-10406
ལ་བར་གྱུར་པ་	-10407
▁encountered	-10408
་དང་བཀུར་སྟི་	-10409
ཁྲི་ཉིས་སྟོང་	-10410
ཆེན་པོ་བྱམས་པ	-10411
ལུང་བསྟན་ཏོ་་	-10412
▁དེ་ནས་དེ་དག་	-10413
་དང་་བསྙེན་བཀུ	-10414
་དེ་ལྟ་ལགས་སོ་	-10415
གཙུག་ལག་ཁང་དུ་	-10416
སྦྱར་བར་བྱའོ་་	-10417
གུས་བསྐྱེད་བསྲི	-10418
མཆོད་སྦྱིན་གྱི་	-10419
ཤ་ར་དྭ་ཏིའི་བུ་	-10420
སྨོན་ལམ་བཏབ་སྟེ་	-10421
ked	-10422
་སེ	-10423
arth	-10424
ucch	-10425
ཁྲོ་	-10426
གདན་	-10427
འཆག་	-10428
ས་ནས	-10429
སྙན་	-10430
▁bal	-10431
▁kas	-10432
▁ནམ་	-10433
esome	-10434
oduct	-10435
rible	-10436
ང་བས་	-10437
མདུང་	-10438
མར་པོ	-10439
མི་གཙ	-10440
ལ་སོ་	-10441
ཤི་འཕ	-10442
སྙེན་	-10443
▁clay	-10444
▁exec	-10445
▁krak	-10446
▁trav	-10447
▁རྒྱ་	-10448
spring	-10449
གནས་བཅ	-10450
མར་པོ་	-10451
ཡི་ནི་	-10452
ར་ཎ་སི	-10453
ར་བཅས་	-10454
ར་བྱེད	-10455
ལྟར་འབ	-10456
▁alive	-10457
▁match	-10458
▁parks	-10459
▁spine	-10460
▁vajri	-10461
▁visit	-10462
earable	-10463
ཉི་མའི་	-10464
ཚེ་རབས་	-10465
ར་བལྟ་བ	-10466
ར་འོངས་	-10467
རྒོལ་བ་	-10468
ལམ་གྱི་	-10469
ུང་དང་་	-10470
▁chanda	-10471
▁deaths	-10472
▁eighth	-10473
▁encaps	-10474
▁fathom	-10475
▁reside	-10476
▁sovere	-10477
▁voices	-10478
▁དབང་པོ	-10479
aneously	-10480
་དེ་དང་་	-10481
་སྟོན་པ་	-10482
གནས་ཤིང་	-10483
མིག་གིས་	-10484
ཞབས་འབྲི	-10485
འི་བར་ལ་	-10486
ཡུལ་གྱི་	-10487
ཡོད་པའི་	-10488
ལ་བསླབས་	-10489
སྐྱོད་པ་	-10490
སྟོང་དུ་	-10491
▁forsake	-10492
་བྱེད་དེ་	-10493
ཇི་ཙམ་དུ་	-10494
དང་ལྡན་པ་	-10495
ནས་དེ་དང་	-10496
ཚིག་བླ་དག	-10497
འ་ཐམས་ཅད་	-10498
ྱིས་པ་སོ་	-10499
▁krakucch	-10500
▁mansions	-10501
▁subhadra	-10502
▁thunderb	-10503
▁དེས་དེར་	-10504
ཕྱེ་མ་དང་་	-10505
འི་ཁམས་དང་	-10506
ར་འདོད་པས་	-10507
▁aniruddha	-10508
▁mahesvara	-10509
▁offspring	-10510
▁བདུད་ཀྱི་	-10511
འི་ཚིག་གིས་	-10512
རྣམ་པ་དུ་མ་	-10513
རྩོན་པ་དང་བ	-10514
▁adornments	-10515
▁bodhisatva	-10516
▁considered	-10517
▁diligently	-10518
▁selfarisen	-10519
▁unbearable	-10520
འི་བློ་གྲོས་	-10521
ན་པ་ལ་གནས་ནས་	-10522
མིང་དང་གཟུགས་	-10523
འདུག་བཞིན་དུ་	-10524
ཡིད་དུ་འོང་བ་	-10525
ྲི་མ་མེད་པའི་	-10526
▁incalculable	-10527
་དང་་སྙིང་རྗེ་	-10528
འཕགས་པའི་ནོར་བ	-10529
ཡང་དག་པར་དགའ་བ	-10530
སྐྱེས་བུ་དམ་པ་	-10531
▁appropriation	-10532
▁རིགས་ཀྱི་བུ་ད	-10533
ཆུང་མ་ལ་བུ་ཆགས་	-10534
ལྟར་མི་བལྟ་སྟེ་	-10535
སྟེ་བཞི་གང་ཞེ་ན་	-10536
hy	-10537
གཤ	-10538
འམ	-10539
acy	-10540
cil	-10541
him	-10542
mer	-10543
pad	-10544
yot	-10545
ཎི་	-10546
▁མག	-10547
asso	-10548
osis	-10549
vaja	-10550
ང་ཡི	-10551
ན་ཆེ	-10552
ཕུག་	-10553
▁aks	-10554
▁inj	-10555
▁kan	-10556
ropri	-10557
གང་་་	-10558
གཏེར་	-10559
གནང་བ	-10560
ཏང་བ་	-10561
དག་པོ	-10562
ན་བུ་	-10563
ནས་སླ	-10564
མན་ད་	-10565
མི་བཟ	-10566
▁dead	-10567
▁spot	-10568
▁ugly	-10569
amkara	-10570
oduced	-10571
་དགུ་བ	-10572
འགྲོ་་	-10573
འདུན་པ	-10574
ལྟས་ན་	-10575
ལྷ་དང་	-10576
ུད་མེད	-10577
▁claim	-10578
▁moved	-10579
▁uncon	-10580
pounded	-10581
raction	-10582
ཁམས་དེ་	-10583
ད་བྱེད་	-10584
ད་མོས་ཚ	-10585
ནགས་ཁྲོ	-10586
མོ་དང་་	-10587
འི་བདག་	-10588
ལྟུང་བ་	-10589
ཤིང་རྟ་	-10590
ས་དང་་་	-10591
▁better	-10592
▁births	-10593
▁detail	-10594
▁hungry	-10595
▁images	-10596
▁motion	-10597
▁remove	-10598
▁sooner	-10599
▁unwhol	-10600
▁བྱམས་པ	-10601
ཁྲིད་དེ་	-10602
གཟུང་དུ་	-10603
ཕྱག་རྒྱ་	-10604
ཚུལ་ལོ་་	-10605
འོན་ཀྱང་	-10606
ཡངས་ཤིང་	-10607
རྒྱུ་དང་	-10608
ས་གསོལ་པ	-10609
▁cognize	-10610
▁embrace	-10611
▁equally	-10612
▁keeping	-10613
▁serving	-10614
་དེ་ལ་ནི་	-10615
་བསྐྱེད་པ	-10616
་རྗེས་སུ་	-10617
་སྤྱད་ནས་	-10618
གདོན་མི་ཟ	-10619
གནང་ངོ་་་	-10620
མ་ཐག་ཏུ་བ	-10621
མཁྱེན་ནས་	-10622
འཛིན་པའི་	-10623
འི་དུས་བྱ	-10624
ར་བྱ་སྙམ་	-10625
▁language	-10626
▁monarchs	-10627
▁resplend	-10628
▁དེ་ཕྱིར་	-10629
▁ཚངས་པའི་	-10630
་བཞིན་དུ་བ	-10631
ང་བྲལ་བའི་	-10632
འདས་པ་དང་་	-10633
སྙིང་པོ་ལ་	-10634
▁brilliant	-10635
▁particles	-10636
▁reflected	-10637
▁sometimes	-10638
▁དེ་ལས་བཞེ	-10639
་དང་་སྐྱེ་བ	-10640
ར་འགྱུར་རམ་	-10641
▁conception	-10642
་དང་་སྐྱེ་བ་	-10643
ཐབས་ལ་མཁས་པ་	-10644
ཡང་བརྗོད་དུ་	-10645
▁thunderbolt	-10646
གང་ཡིན་པ་དང་་	-10647
གི་དབང་པོ་ནི་	-10648
▁krakucchanda	-10649
▁uncompounded	-10650
གནོད་པ་དང་ལྡན་	-10651
རྩོན་འགྲུས་དང་	-10652
▁རྣམ་པར་ཤེས་པ་	-10653
འི་བརྩོན་འགྲུས་	-10654
འི་བྱང་ཆུབ་ཀྱི་	-10655
▁རིགས་ཀྱི་བུའམ་	-10656
ཚེ་དང་ལྡན་པ་ཤ་རི	-10657
འི་ཚེ་དེའི་དུས་ན	-10658
▁བདེ་བར་གཤེགས་པ་	-10659
iri	-10660
rim	-10661
una	-10662
མཆོ	-10663
མམ་	-10664
atri	-10665
ངས་ད	-10666
ཐ་ན་	-10667
མངའ་	-10668
ཡུམ་	-10669
ོས་བ	-10670
▁nob	-10671
▁pit	-10672
▁sch	-10673
▁scr	-10674
ander	-10675
inder	-10676
itten	-10677
plete	-10678
rapta	-10679
་དེང་	-10680
གཡོན་	-10681
འདུལ་	-10682
ཡང་དག	-10683
སུའི་	-10684
ུས་ན་	-10685
ེབས་པ	-10686
▁sequ	-10687
ceives	-10688
overed	-10689
ressed	-10690
ན་པ་བས	-10691
མ་བགྱི	-10692
ཞོ་དང་	-10693
ར་འགྲོ	-10694
ས་སྒྲ་	-10695
ོང་བར་	-10696
ོན་དེ་	-10697
▁built	-10698
▁faces	-10699
▁fears	-10700
▁lands	-10701
▁ponds	-10702
▁remed	-10703
▁shows	-10704
▁སྔོན་	-10705
andsuch	-10706
colored	-10707
ག་བྱེད་	-10708
ཕྱིར་བྱ	-10709
མཛད་དེ་	-10710
ཞིག་ནས་	-10711
ཟད་དོ་་	-10712
སྐུར་བ་	-10713
▁amazed	-10714
▁dispel	-10715
▁effect	-10716
▁waters	-10717
་དབེན་པ་	-10718
་བདག་གི་	-10719
མོས་པའི་	-10720
འགྲོ་བར་	-10721
འི་ཚོར་བ	-10722
▁consent	-10723
▁discard	-10724
▁neutral	-10725
▁release	-10726
▁unhappy	-10727
▁ཀ་ཤི་ཀ་	-10728
གྱུར་ནས་་	-10729
ངོས་གྲུབ་	-10730
འི་གཟུགས་	-10731
ཡིད་གཉིས་	-10732
ཤེས་པའོ་་	-10733
སྲིད་པའི་	-10734
▁antigods	-10735
▁finished	-10736
▁handsome	-10737
▁happened	-10738
▁improper	-10739
ནི་གང་ཡིན་	-10740
སམ་གཏན་དང་	-10741
སེར་སྐྱའི་	-10742
▁abilities	-10743
▁delivered	-10744
▁necklaces	-10745
▁undertake	-10746
ནས་སྟན་ལས་ལ	-10747
མེད་ཟས་སྦྱི	-10748
ལོག་པར་ལྟ་བ	-10749
▁attractive	-10750
▁comparison	-10751
▁discomfort	-10752
▁བཟང་སྐྱོང་	-10753
་དགེ་འདུན་ལ་	-10754
▁considering	-10755
▁crosslegged	-10756
▁miserliness	-10757
▁renunciants	-10758
▁suchandsuch	-10759
▁གཞོན་ནུ་དེ་	-10760
ེ་སྔགས་འདོན་པ	-10761
▁nevertheless	-10762
ར་བྱའོ་སྙམ་ནས་	-10763
ལྷག་པའི་བསམ་པ་	-10764
སེམས་ཅན་གང་དག་	-10765
▁extraordinary	-10766
མངོན་པར་བརྩོན་པ	-10767
ཀྱི་དེ་བཞིན་ཉིད་	-10768
ཙམ	-10769
▁་	-10770
ams	-10771
gara	-10772
kets	-10773
that	-10774
unis	-10775
ཅུ་བ	-10776
ཉལ་བ	-10777
ནག་པ	-10778
ཟོང་	-10779
འོས་	-10780
▁dig	-10781
▁egg	-10782
▁gun	-10783
equal	-10784
ingly	-10785
pense	-10786
་དྲན་	-10787
ཟང་བ་	-10788
ཟེར་བ	-10789
ུམ་པ་	-10790
▁capt	-10791
▁crit	-10792
▁dirt	-10793
▁dual	-10794
▁jasm	-10795
▁kinn	-10796
ཀྱེ་མ་	-10797
ཆ་དང་་	-10798
ཆུང་བ་	-10799
དག་ཏུ་	-10800
ན་དང་ད	-10801
མ་ནུས་	-10802
མངའ་བ་	-10803
རྟེན་པ	-10804
ྭ་བརྒྱ	-10805
▁break	-10806
▁decay	-10807
▁flaws	-10808
▁mixed	-10809
▁nanda	-10810
▁purna	-10811
་སྟོང་པ	-10812
ག་དང་་བ	-10813
ཚིག་དེ་	-10814
ཟུང་ནས་	-10815
འོངས་པ་	-10816
ཤད་པའི་	-10817
▁course	-10818
▁immort	-10819
▁refers	-10820
▁འཁོར་བ	-10821
་དང་་སྲི	-10822
གཉེན་པོ་	-10823
གསུམ་པོ་	-10824
ཅིག་དང་་	-10825
ཉིད་དུ་བ	-10826
དེ་བར་རེ	-10827
ན་འདུག་པ	-10828
མང་པོའི་	-10829
ཞིན་དུ་བ	-10830
འབྱིན་པ་	-10831
ལ་གཟིགས་	-10832
སྔོན་དུ་	-10833
ེ་བ་ཕྲག་	-10834
▁commend	-10835
▁desired	-10836
▁garland	-10837
▁jasmine	-10838
▁resides	-10839
▁resound	-10840
▁སྲིད་པ་	-10841
་དང་་སྐྱེ	-10842
ཆེ་གེ་མོ་	-10843
མངོན་པར་ད	-10844
ཟིན་པ་ལས་	-10845
ཤེས་པ་དག་	-10846
ས་དེ་ལྟར་	-10847
སེམས་དང་་	-10848
▁generous	-10849
▁immersed	-10850
▁relation	-10851
▁སྐྱེ་བོ་	-10852
་སྐྱེས་ནས་	-10853
་སྟོབས་དང་	-10854
ཀྱང་དེ་དག་	-10855
ཆོས་གང་ཡང་	-10856
ཟག་པ་ཟད་པ་	-10857
ལ་བཀུར་སྟི	-10858
སློབ་དཔོན་	-10859
▁disturbed	-10860
▁responded	-10861
▁འདོད་པའི་	-10862
་དེ་དག་ནི་བ	-10863
ཀུ་མུ་ད་དང་	-10864
མི་དམིགས་པ་	-10865
མིག་གི་ཁམས་	-10866
ར་གྱུར་ཅིང་	-10867
ལ་བཀོད་དོ་་	-10868
ས་བསོད་ནམས་	-10869
སྒྱུ་འཕྲུལ་	-10870
▁degenerate	-10871
▁performing	-10872
▁venerating	-10873
▁གཟུགས་ཀྱི་	-10874
▁lamentation	-10875
▁surrounding	-10876
གཙང་མ་བཟང་པོ་	-10877
མ་མཆིས་པ་དང་་	-10878
འདོད་ཆགས་ཀྱི་	-10879
ཤིང་དགེ་སློང་	-10880
▁encapsulates	-10881
▁རིན་པོ་ཆེའི་	-10882
ཐོབ་པར་འགྱུར་་	-10883
མངོན་པར་ཞེན་པ་	-10884
ཡོངས་སུ་བཟུང་བ	-10885
རྣམས་ཀྱིས་ཀྱང་	-10886
ང་ཆུབ་སེམས་དཔའ་བ	-10887
inc	-10888
oph	-10889
ott	-10890
ཐུབ	-10891
མ་ཧ	-10892
ར་ས	-10893
སྤུ	-10894
སྦྲ	-10895
་རུ་	-10896
ཏིལ་	-10897
ཕྱུག	-10898
ས་སུ	-10899
སམ་ཡ	-10900
སེན་	-10901
▁suc	-10902
arked	-10903
endra	-10904
onent	-10905
ཐོབ་་	-10906
དེ་ལ་	-10907
ན་ཆད་	-10908
ནི་དཔ	-10909
ེ་བས་	-10910
▁forg	-10911
▁husb	-10912
▁meas	-10913
▁མཚན་	-10914
reated	-10915
གཅེར་བ	-10916
མ་སྐྱེ	-10917
ལྷའི་བ	-10918
སེར་སྣ	-10919
སྲེད་པ	-10920
ོར་ཏེ་	-10921
ྒྱུ་མ་	-10922
▁aston	-10923
▁topic	-10924
▁གང་ལ་	-10925
་དགེ་བ་	-10926
གདུལ་བྱ	-10927
གཤེགས་པ	-10928
ཏུ་རུང་	-10929
མས་ཤིང་	-10930
ཙམ་ཞིག་	-10931
འཇོམས་པ	-10932
ར་འཇུག་	-10933
རྒྱ་མཚོ	-10934
ལོ་ཞེས་	-10935
ཤིག་དང་	-10936
སྒྲ་ཡང་	-10937
སྒྲ་སྒྲ	-10938
སྤོབས་པ	-10939
ོན་ནོ་་	-10940
ྒྲིབ་པ་	-10941
▁assume	-10942
▁cakrav	-10943
▁houses	-10944
▁slight	-10945
atyayana	-10946
་སྟོབས་བ	-10947
གྱུར་ན་་	-10948
ཆོས་སུ་བ	-10949
དག་གིས་ད	-10950
དེ་བ་ཡང་	-10951
མཉམ་པའི་	-10952
སྐྱེའོ་་	-10953
སྒོ་དང་་	-10954
▁defiled	-10955
▁mansion	-10956
▁nonbudd	-10957
▁prepare	-10958
ཕྲག་དུ་མ་	-10959
འ་ཆོས་བཞི	-10960
འབྱུང་བར་	-10961
རྒྱུ་ཞིང་	-10962
ཤར་ཕྱོགས་	-10963
ེ་བ་སྟོང་	-10964
▁joyfully	-10965
ད་དུ་བཅུག་	-10966
མ་ལགས་སོ་་	-10967
ཟིལ་གྱིས་ན	-10968
ྲམ་ཟེ་དང་་	-10969
▁exquisite	-10970
ད་དུ་གསོལ་་	-10971
ཡི་གེར་འདྲི	-10972
ལག་མཐིལ་དུ་	-10973
ལུང་ཡང་ཕོག་	-10974
ཤེས་པ་ལ་མི་	-10975
རིའི་རྩེ་མོ་	-10976
ལུས་དང་སྲོག་	-10977
▁investigate	-10978
▁resplendent	-10979
ཆེན་པོ་གང་དག་	-10980
ཟག་པ་མེད་པའི་	-10981
་དང་་སྤོས་དང་་	-10982
ཕུང་པོ་ཆེན་པོ་	-10983
ཚུལ་ཁྲིམས་ཀྱི་	-10984
འི་དུས་ཀྱི་ཚེ་	-10985
རྣམ་པར་དག་པའི་	-10986
་དེ་ནི་ཚུལ་ལོ་་	-10987
ན་པ་དང་་ཤེས་རབ་	-10988
▁dharmabhanakas	-10989
ག་བརྒྱ་སྟོང་ཕྲག་	-10990
▁x	-10991
hip	-10992
རྨི	-10993
land	-10994
ཆོམ་	-10995
དག་ཅ	-10996
ས་མ་	-10997
སའམ་	-10998
▁eas	-10999
▁hot	-11000
▁opt	-11001
▁rip	-11002
aling	-11003
apati	-11004
olent	-11005
ouble	-11006
་བསྒྲ	-11007
གཞུང་	-11008
གྱི་ད	-11009
ངས་མ་	-11010
ཉེ་བ་	-11011
བ་པ་་	-11012
མར་མེ	-11013
ཞིན་བ	-11014
འ་ཡང་	-11015
རྣམ་བ	-11016
ས་སྡི	-11017
སྐུར་	-11018
▁base	-11019
▁hord	-11020
▁peer	-11021
▁ཀླུ་	-11022
anging	-11023
irable	-11024
ང་ཡིས་	-11025
ཕྱིན་་	-11026
མས་ཏེ་	-11027
མི་རི་	-11028
འབྲལ་བ	-11029
རིམ་གྲ	-11030
ལག་ཏུ་	-11031
ལེགས་བ	-11032
ལྔ་དང་	-11033
ལྗོངས་	-11034
ས་སྐུ་	-11035
སྡོམ་པ	-11036
ེ་མོ་ད	-11037
▁carri	-11038
▁chant	-11039
▁holds	-11040
▁marry	-11041
▁plant	-11042
▁tremb	-11043
acandra	-11044
aprabha	-11045
་དབུགས་	-11046
་སྤོང་བ	-11047
ངོ་ཞེས་	-11048
ཅི་ལགས་	-11049
ཞི་གནས་	-11050
རྩོད་པ་	-11051
▁breath	-11052
▁broken	-11053
▁deeply	-11054
▁really	-11055
▁undist	-11056
▁ཁོ་བོ་	-11057
▁དེ་ལ་ད	-11058
▁ལྷ་དང་	-11059
་བྱུང་བ་	-11060
ང་དུ་མ་བ	-11061
ནས་དེ་ལ་	-11062
ཕྱིར་ཡང་	-11063
ཡིན་གྱི་	-11064
▁convers	-11065
▁mahasth	-11066
▁satisfy	-11067
▁མ་ཕམ་པ་	-11068
གཉིས་དང་་	-11069
ར་བགྱིད་་	-11070
ལས་བརྩམས་	-11071
ལྟ་བུའོ་་	-11072
▁denizens	-11073
▁distress	-11074
▁guardian	-11075
▁insights	-11076
▁pacified	-11077
་དེ་དག་དང་	-11078
་བསོད་ནམས་	-11079
ང་དེ་བཞིན་	-11080
ཆེན་པོ་ཡང་	-11081
བང་བསྐུར་བ	-11082
མེད་པ་ཡིན་	-11083
ཡང་དང་ཡང་ད	-11084
རྟག་པ་དང་་	-11085
རྣམ་པར་སྤྲ	-11086
སྟོབས་དང་བ	-11087
▁exertions	-11088
▁wandering	-11089
་སུམ་ཅུ་རྩ་	-11090
ཇི་སྲིད་འཚོ	-11091
མི་འཇིགས་པ་	-11092
སྐྱིལ་མོ་ཀྲ	-11093
སྦྱིན་པ་དེ་	-11094
▁beneficial	-11095
▁brilliance	-11096
▁nonbuddhis	-11097
▁རྒྱལ་པོའི་	-11098
ཀྱིས་ཟླ་འོད་	-11099
མཛད་དུ་གསོལ་	-11100
འཐོབ་ཏུ་རུང་	-11101
ལྷ་རྣམས་ཀྱི་	-11102
▁instructors	-11103
▁kumarabhuta	-11104
▁unwholesome	-11105
འདུས་བྱས་ཀྱི་	-11106
འི་སྤྱོད་ཡུལ་	-11107
▁apprehension	-11108
གྲོང་ཁྱེར་དང་་	-11109
ཅང་མི་གསུང་བས་	-11110
ད་པ་དང་་མཁས་པ་	-11111
▁nonperception	-11112
ལྷ་དང་་ཀླུ་དང་་	-11113
ན་དེ་དག་ཡང་དག་པ་	-11114
སྐར་མའི་རྒྱལ་པོ་	-11115
alo	-11116
ager	-11117
uber	-11118
ང་དག	-11119
བ་མ་	-11120
འ་སྤ	-11121
▁alt	-11122
▁dri	-11123
▁est	-11124
▁squ	-11125
▁ཤར་	-11126
ghosa	-11127
ག་ལས་	-11128
ལྟོས་	-11129
ལྷ་མི	-11130
སྣ་ཚོ	-11131
ུགས་པ	-11132
▁cart	-11133
▁cere	-11134
▁dawn	-11135
▁pron	-11136
▁trad	-11137
atters	-11138
entral	-11139
granth	-11140
icated	-11141
གཙོ་བོ	-11142
ཆད་པར་	-11143
ཆེ་བར་	-11144
དེ་གཤེ	-11145
མ་བྱས་	-11146
མས་ནས་	-11147
མེད་དེ	-11148
མོ་དང་	-11149
འཁྲུལ་	-11150
ར་འོད་	-11151
སྒྲུབ་	-11152
▁aloud	-11153
▁decre	-11154
▁favor	-11155
▁fight	-11156
▁lying	-11157
▁rival	-11158
▁waste	-11159
ཁ་དོག་བ	-11160
གདུང་བ་	-11161
ངའི་སྦུ	-11162
ཉམ་ང་བ་	-11163
ན་གྲོང་	-11164
ཞིག་གུ་	-11165
འཐོབ་པ་	-11166
ར་བབ་པ་	-11167
སྐྱེད་་	-11168
སྤྱོད་་	-11169
ོག་དང་་	-11170
ྲི་མེད་	-11171
ྲུང་གི་	-11172
▁danger	-11173
▁imagin	-11174
▁target	-11175
▁མེ་ཏོག	-11176
ཀྱི་ཞབས་	-11177
གསོལ་ནས་	-11178
ཐོབ་སྟེ་	-11179
ནས་ཀྱང་་	-11180
མུན་པ་བས	-11181
འཇོམས་པ་	-11182
འཕྲུལ་དབ	-11183
ུད་མེད་བ	-11184
ུད་འགྲོ་	-11185
▁applies	-11186
▁central	-11187
▁efforts	-11188
▁jewelry	-11189
▁sravaka	-11190
▁ཀུན་ཏུ་	-11191
ཁྲོད་ཀྱི་	-11192
གྲགས་པའི་	-11193
ཆེན་པོ་ལ་	-11194
ནི་རབ་ཏུ་	-11195
འདི་དག་ལ་	-11196
སྦྱིན་པ་བ	-11197
▁endeavor	-11198
▁entirety	-11199
▁extended	-11200
▁location	-11201
▁partakes	-11202
▁respects	-11203
▁striving	-11204
▁upananda	-11205
▁ད་ལྟར་བྱ	-11206
་དགོངས་ཏེ་	-11207
རྣམ་པར་འབྱ	-11208
ལོ་ཉི་ཁྲི་	-11209
སྙིང་པོའི་	-11210
སྙིང་རྗེ་བ	-11211
སྤྱན་གྱིས་	-11212
སྦྱིན་པ་ལ་	-11213
▁nirgranth	-11214
▁recognize	-11215
▁སྲོག་ཆགས་	-11216
ནི་སེམས་ཅན་	-11217
ཤི་འཕོས་ནས་	-11218
▁enjoyments	-11219
▁interested	-11220
▁onepointed	-11221
ཀུན་དགའ་ར་བ་	-11222
ལ་ལ་ཞིག་གིས་	-11223
ལུས་དང་་ཡིད་	-11224
▁cultivating	-11225
▁experiences	-11226
་དེ་ལྟ་བུ་ནི་	-11227
ཀྱིས་དགོངས་པ་	-11228
མཛེས་པ་ཞིག་བཙ	-11229
རྒྱ་བྱིན་གྱིས་	-11230
▁knowledgeable	-11231
▁transgression	-11232
རྣམ་གྲངས་འདི་ལ་	-11233
▁རབ་འབྱོར་འདི་ལ	-11234
རྣམ་པ་ཐམས་ཅད་དུ་	-11235
▁ཆོས་ཀྱི་དབྱིངས་	-11236
dra	-11237
rti	-11238
var	-11239
་རབ	-11240
་སླ	-11241
ཐལ་	-11242
རྡེ	-11243
▁ox	-11244
▁ཅི	-11245
ilos	-11246
ཁྱིམ	-11247
གཡས་	-11248
གུད་	-11249
དེན་	-11250
ན་དུ	-11251
འང་བ	-11252
འཐབ་	-11253
▁big	-11254
▁gre	-11255
▁unm	-11256
▁vol	-11257
▁རང་	-11258
abric	-11259
owing	-11260
་དག་ད	-11261
ཉེ་དབ	-11262
ཕྲད་པ	-11263
བས་པ་	-11264
ཙམ་པ་	-11265
འབབ་པ	-11266
ཡུལ་བ	-11267
ར་འདོ	-11268
ར་འབེ	-11269
ལོགས་	-11270
ལྡང་བ	-11271
▁asks	-11272
▁conj	-11273
▁dhrt	-11274
▁erad	-11275
▁fled	-11276
▁lazy	-11277
▁ཁམས་	-11278
▁ཕྱི་	-11279
araksa	-11280
ounced	-11281
proach	-11282
གཉི་ག་	-11283
མཆིས་པ	-11284
མདོ་སྡ	-11285
མིག་ཡོ	-11286
མྱུར་བ	-11287
ར་དེས་	-11288
ལྔ་པོ་	-11289
སེམས་ད	-11290
སྡིག་པ	-11291
ོབས་པ་	-11292
▁knelt	-11293
▁quart	-11294
▁revel	-11295
▁saman	-11296
▁scrut	-11297
▁yours	-11298
ilosoph	-11299
གཏན་ལ་ཕ	-11300
གོས་དང་	-11301
ཇི་སྐད་	-11302
ཉེ་བའི་	-11303
ད་དང་་་	-11304
མི་འཁྲུ	-11305
མྱ་ངན་བ	-11306
ཡིད་གཞུ	-11307
ར་གྱི་བ	-11308
རབ་གནས་	-11309
རྒྱལ་རི	-11310
ས་ཤིང་ད	-11311
སླབས་པ་	-11312
ིལ་སྙན་	-11313
▁critic	-11314
▁ksatri	-11315
▁mouths	-11316
▁played	-11317
▁sarvas	-11318
▁terror	-11319
▁མི་གང་	-11320
་དཔའ་བོ་	-11321
གཟུགས་ལ་	-11322
ནད་ཀྱིས་	-11323
མཁས་ཤིང་	-11324
ར་དག་ཏུ་	-11325
▁curving	-11326
▁nondual	-11327
▁scented	-11328
▁stories	-11329
▁welcome	-11330
་སྨོན་ལམ་	-11331
གཤེགས་ནས་	-11332
ཚད་མེད་པ་	-11333
སྡེ་སྣོད་	-11334
སྲིད་དུ་བ	-11335
▁dispense	-11336
▁movement	-11337
▁འདྲེན་པ་	-11338
གཟུངས་ཀྱི་	-11339
རྡོ་རྗེས་བ	-11340
སྦྱོང་དང་བ	-11341
▁contented	-11342
▁decorated	-11343
▁nonentity	-11344
▁philosoph	-11345
▁refrained	-11346
▁substance	-11347
▁treasures	-11348
▁worshiped	-11349
གེ་སློང་དག་	-11350
ན་དང་ལྡན་པ་	-11351
ར་འགྱུར་ཡང་	-11352
▁definitely	-11353
▁scriptures	-11354
་དང་ལྡན་ཞིང་	-11355
གནས་མ་ཡིན་པ་	-11356
མི་མཉམ་པ་དང་	-11357
རྗེས་སུ་དྲན་	-11358
▁conventions	-11359
▁elaboration	-11360
▁vijayaraksa	-11361
ཆེན་པོ་དེ་དག་	-11362
ཉེས་དམིགས་སུ་	-11363
ཕྲེང་བ་དང་་བྱ	-11364
རྣམས་ཀྱིས་ནི་	-11365
▁conditioning	-11366
▁establishing	-11367
▁selflessness	-11368
▁subsequently	-11369
་དང་ལྡན་པ་དང་་	-11370
གྲོང་ཁྱེར་གྱི་	-11371
མི་དང་་ལྷ་མ་ཡི	-11372
འཇིག་རྟེན་པའི་	-11373
ཡོངས་སུ་མྱ་ངན་	-11374
ར་སངས་རྒྱས་ནས་	-11375
རྣམ་པ་དྲུག་ཏུ་	-11376
▁manifestation	-11377
▁བྲམ་ཟེའི་ཁྱེའ	-11378
▁བླ་གོས་ཕྲག་པ་	-11379
རྣམ་པར་བྱང་བའི་	-11380
མྱ་ངན་ལས་འདས་ནས་	-11381
ཏོ	-11382
ཙལ་	-11383
▁ཆུ	-11384
▁དྲ	-11385
ench	-11386
མ་རུ	-11387
ེས་བ	-11388
▁cot	-11389
▁tip	-11390
▁utp	-11391
▁འདི	-11392
imely	-11393
་སྐྱོ	-11394
གཞུག་	-11395
ཆུང་བ	-11396
ནི་དྲ	-11397
འདོང་	-11398
ལ་བྱ་	-11399
སོགས་	-11400
སྤྱད་	-11401
▁chas	-11402
▁cust	-11403
▁disk	-11404
▁kins	-11405
▁sect	-11406
▁silk	-11407
▁veda	-11408
▁དེ་ལ	-11409
▁ཞིང་	-11410
chment	-11411
ribute	-11412
ཅན་དག་	-11413
ད་ཀྱི་	-11414
མགོན་པ	-11415
མི་བྱ་	-11416
འཕྲོག་	-11417
རི་མོ་	-11418
ོས་ནས་	-11419
▁dwelt	-11420
▁སྔགས་	-11421
ishment	-11422
གཏི་མུག	-11423
གྱིའོ་་	-11424
ན་འདུག་	-11425
མཚན་དུ་	-11426
ཚིག་གི་	-11427
འཁོད་པ་	-11428
ར་དང་་ད	-11429
ར་དུ་བྱ	-11430
ལེགས་པ་	-11431
སལ་བའི་	-11432
ུ་དུམ་བ	-11433
▁charge	-11434
▁elated	-11435
▁elucid	-11436
▁period	-11437
▁sexual	-11438
▁walked	-11439
་བྱུང་་་	-11440
གང་གིས་ད	-11441
གྱི་དབང་	-11442
ང་ཕྱོགས་	-11443
འཁྲུག་པ་	-11444
ར་སྣང་ལ་	-11445
རྣམས་ལས་	-11446
རྫུན་དུ་	-11447
ལ་བརྩོན་	-11448
ཤེས་ཤིང་	-11449
ས་སྟོབས་	-11450
སྙམ་འམ་་	-11451
སྙིང་རྗེ	-11452
▁bandits	-11453
▁beautif	-11454
▁ceasing	-11455
▁courage	-11456
▁entails	-11457
▁involve	-11458
▁noticed	-11459
▁regions	-11460
▁singing	-11461
ཉིད་ཀྱི་བ	-11462
ཐམས་ཅད་བྱ	-11463
མ་འོངས་པ་	-11464
ཟླར་བབ་པ་	-11465
རྒྱལ་པོར་	-11466
རྙེད་པར་ད	-11467
ལ་དམིགས་པ	-11468
ལྗོངས་རྒྱ	-11469
ོན་དུ་གཉེ	-11470
▁consists	-11471
▁creating	-11472
▁pursuing	-11473
▁tirthika	-11474
▁untimely	-11475
གདུལ་བྱའི་	-11476
དུད་རྩིའི་	-11477
མི་སྐྱེ་བ་	-11478
ཞུན་མར་དང་	-11479
འི་བསྟན་པ་	-11480
རབ་ཏུ་དགའ་	-11481
ལུང་དུ་མ་བ	-11482
▁attracted	-11483
▁dipamkara	-11484
▁principle	-11485
་འཇིག་རྟེན་	-11486
་སྐྱེས་སོ་་	-11487
ཅུང་ཟད་ཀྱང་	-11488
དེན་པ་མཐོང་	-11489
པག་ཏུ་མེད་པ	-11490
མ་མཆིས་ཤིང་	-11491
རྒྱལ་པོ་དེ་	-11492
ུ་བྱུང་སྟེ་	-11493
▁irreproach	-11494
▁transcends	-11495
▁འདི་དག་ནི་	-11496
་དུས་གཅིག་ན་	-11497
ཉེ་དབང་དང་བཅ	-11498
ཉེ་བར་གནས་པ་	-11499
རིག་པ་ཐོབ་པ་	-11500
▁indications	-11501
ཁྱིམ་ནས་ཁྱིམ་	-11502
▁comprehended	-11503
▁kasyapaequal	-11504
ངོས་པོ་མེད་པར་	-11505
ཐལ་མོ་སྦྱར་ཏེ་	-11506
མོས་པ་སྣ་ཚོགས་	-11507
འདུག་པར་བྱའོ་་	-11508
▁comprehension	-11509
་དང་འདི་བཞིའོ་་	-11510
ཞིང་བསོད་ནམས་དག	-11511
▁pratyekabuddha	-11512
་དེ་དེ་བཞིན་ནོ་་	-11513
ན་པ་ཟབ་མོ་འདི་ལ་	-11514
ཙས་	-11515
▁སྔ	-11516
anis	-11517
haps	-11518
ints	-11519
་བླ་	-11520
ཕུར་	-11521
བྱར་	-11522
ཚོན་	-11523
▁cho	-11524
▁vid	-11525
▁གཡོ	-11526
epend	-11527
verty	-11528
གཞག་པ	-11529
ང་རོ་	-11530
ཆེ་ལ་	-11531
མགོ་བ	-11532
ཚིགས་	-11533
འཆལ་པ	-11534
འཇམ་པ	-11535
སྣང་་	-11536
ྲིས་པ	-11537
ློན་པ	-11538
▁bene	-11539
▁cuck	-11540
▁fash	-11541
▁hare	-11542
▁mode	-11543
▁rule	-11544
▁samy	-11545
▁sway	-11546
▁warm	-11547
གདུག་པ	-11548
ངག་དང་	-11549
ཆོས་ལྔ	-11550
ཐ་དད་པ	-11551
ཐོག་མ་	-11552
མ་ལུས་	-11553
འདོད་ཆ	-11554
ལ་དབང་	-11555
ལ་དུ་བ	-11556
ལྡང་བ་	-11557
སྐྱབ་པ	-11558
ྲི་མ་ད	-11559
ློན་པོ	-11560
▁enemy	-11561
▁honey	-11562
གཅོད་པ་	-11563
གི་དོན་	-11564
ཏིང་འཛི	-11565
ནགས་ཚལ་	-11566
མཆིའོ་་	-11567
མི་བཟད་	-11568
མི་རྟག་	-11569
ཡུལ་དུ་	-11570
སྟན་ནས་	-11571
ུགས་ཏེ་	-11572
ོལ་བའི་	-11573
▁ananta	-11574
▁copper	-11575
▁easily	-11576
▁explan	-11577
▁fabric	-11578
▁finest	-11579
▁mirage	-11580
▁preser	-11581
▁speaks	-11582
▁sticks	-11583
▁unshak	-11584
▁གང་ཡང་	-11585
▁ལྷ་མོ་	-11586
▁ལྷ་ཡི་	-11587
་དེ་ལས་བ	-11588
གཙང་མའི་	-11589
ཅི་དགོས་	-11590
ར་བྱས་ན་	-11591
རིགས་དང་	-11592
ལ་དེ་དག་	-11593
ལས་བྱས་པ	-11594
▁confess	-11595
▁duality	-11596
▁hostile	-11597
▁inspire	-11598
▁optical	-11599
▁poverty	-11600
▁written	-11601
▁དེ་ཡིས་	-11602
་དེ་སྙེད་	-11603
གི་བར་དུ་	-11604
མི་རྟག་པ་	-11605
མི་སྡུག་པ	-11606
འཇུག་ཅིང་	-11607
ར་མ་གྱུར་	-11608
སེམས་ཀྱང་	-11609
སྒྲོགས་པ་	-11610
▁flawless	-11611
▁reaching	-11612
▁samantab	-11613
་སྐྱེས་ཏེ་	-11614
མ་སྐྱེས་པ་	-11615
འཁོར་དང་བཅ	-11616
འདུ་ཤེས་པ་	-11617
ཡུལ་མ་ག་དྷ	-11618
ཤེས་པ་སྟེ་	-11619
▁bhiksunis	-11620
▁hundredth	-11621
▁incorrect	-11622
▁opponents	-11623
▁སྡིག་པའི་	-11624
ཁྱོད་ཀྱིས་ད	-11625
གནོད་པ་ཆུང་	-11626
ཐུགས་བརྩེ་བ	-11627
མཐོ་རིས་དང་	-11628
འདུས་མ་བྱས་	-11629
ཤི་འཕོས་ཏེ་	-11630
ས་བཀའ་སྩལ་པ	-11631
▁definitive	-11632
▁negativity	-11633
▁དེ་ནས་དེས་	-11634
་དེ་བཞིན་ཏེ་	-11635
ནམ་མཁའ་ལྡིང་	-11636
ར་བྱ་བའི་ཕྱི	-11637
▁approaching	-11638
▁differently	-11639
་དེ་བཞིན་དུ་བ	-11640
ཀྱི་དབང་ཕྱུག་	-11641
ཞེས་བྱ་བ་ཞིག་	-11642
ཤེས་པ་གང་གིས་	-11643
ར་འགྱུར་རོ་ཞེས་	-11644
▁བྲམ་ཟེའི་ཁྱེའུ་	-11645
bb	-11646
fts	-11647
ཁ་ཟ	-11648
ལ་ར	-11649
▁gn	-11650
eing	-11651
ཐུང་	-11652
དཔག་	-11653
ཚབས་	-11654
འགྱུ	-11655
རོ་བ	-11656
ལ་དེ	-11657
▁hur	-11658
▁rah	-11659
▁tus	-11660
▁རྒྱ	-11661
akaya	-11662
andak	-11663
gence	-11664
གཉི་ག	-11665
ངོ་ཚ་	-11666
ཆུང་མ	-11667
བ་ནས་	-11668
མ་བུ་	-11669
ཚོང་པ	-11670
འཆང་བ	-11671
སྒོམ་	-11672
སྡུས་	-11673
སྲེད་	-11674
▁buff	-11675
▁plan	-11676
▁shel	-11677
▁unch	-11678
▁vira	-11679
incarn	-11680
ཁྲོ་བ་	-11681
ངས་ནི་	-11682
ཆར་འབེ	-11683
ཆོས་འཆ	-11684
ཞུམ་པ་	-11685
འ་ཞིང་	-11686
ལེ་ལོ་	-11687
སྨྲས་པ	-11688
ུང་དུ་	-11689
ེད་པར་	-11690
▁agony	-11691
▁fresh	-11692
▁insip	-11693
▁modes	-11694
▁repay	-11695
▁tried	-11696
▁undef	-11697
▁འཁོར་	-11698
ང་བ་ལས་	-11699
ཅི་འདྲ་	-11700
ཉིན་ཞག་	-11701
ཐབས་དང་	-11702
ཕྱག་རྒྱ	-11703
མ་ལགས་་	-11704
ཟློག་ལ་	-11705
འདུ་བྱེ	-11706
▁conver	-11707
▁kumbha	-11708
▁recall	-11709
▁region	-11710
▁showed	-11711
་སྡིག་པ་	-11712
ཀར་པོའི་	-11713
གང་གིས་བ	-11714
གྱུར་པས་	-11715
གྲངས་སུ་	-11716
ཆུ་སྲིན་	-11717
ཐོགས་ནས་	-11718
མི་རྣམས་	-11719
མེད་པར་བ	-11720
ཚོར་བའི་	-11721
སྨྲས་པ་་	-11722
▁expound	-11723
▁perhaps	-11724
▁pisacas	-11725
▁process	-11726
▁དེ་ནི་བ	-11727
▁སྨྲས་པ་	-11728
་དང་་བདག་	-11729
་བཞིན་འབྲ	-11730
གཞལ་མེད་ཁ	-11731
ན་བདག་ཅག་	-11732
མཐོང་ཞིང་	-11733
རྟོགས་པར་	-11734
ས་བདག་ཅག་	-11735
▁beginner	-11736
▁dullness	-11737
▁laziness	-11738
▁reincarn	-11739
▁vanished	-11740
▁གང་གི་ཚེ	-11741
་དེའི་ཚེ་བ	-11742
ད་བཞིན་དུ་	-11743
དེ་བ་ལ་བཙུ	-11744
ན་དུ་བཅུག་	-11745
ཡོངས་སུ་སྤ	-11746
ར་མཛད་དོ་་	-11747
▁blessings	-11748
▁manifests	-11749
▁supremely	-11750
▁tirthikas	-11751
▁weariness	-11752
▁whichever	-11753
▁witnessed	-11754
▁དམ་པའི་ཆོ	-11755
་རྫུ་འཕྲུལ་	-11756
གཏི་མུག་གི་	-11757
ཆེན་པོ་འདི་	-11758
▁externally	-11759
▁insipidity	-11760
▁physically	-11761
▁recognized	-11762
▁དེ་དེ་ལྟར་	-11763
ལྟར་འབའ་ཞིག་	-11764
▁expressions	-11765
▁thirtyseven	-11766
ཁང་པ་བརྩེགས་པ	-11767
ག་པ་ལ་གནས་སམ་	-11768
ཇི་སྐད་སྨྲས་པ	-11769
ཉམས་སུ་མྱོང་བ	-11770
འདོད་པའི་ཁམས་	-11771
ར་མི་འགྱུར་བ་	-11772
རིའི་རྒྱལ་པོ་	-11773
ང་བར་གྱུར་ཏོ་་	-11774
ཙུན་མོའི་འཁོར་	-11775
ཡན་ལག་བརྒྱད་པ་	-11776
རོ་མྱང་བ་མེད་པ	-11777
་བསམ་གྱིས་མི་ཁྱ	-11778
ཉན་ཐོས་ཀྱི་སའམ་	-11779
འཇིག་རྟེན་གསུམ་	-11780
ལ་ཚིགས་སུ་བཅད་པ	-11781
འི་དགེ་བའི་རྩ་བ་	-11782
jn	-11783
འུ	-11784
tam	-11785
་རྔ	-11786
རྨ་	-11787
atic	-11788
esty	-11789
rtil	-11790
with	-11791
་སྦྱ	-11792
ཎྜི་	-11793
ནང་ད	-11794
མོང་	-11795
སླར་	-11796
▁བདག	-11797
atory	-11798
borne	-11799
shell	-11800
གྲག་པ	-11801
ངས་ན་	-11802
ཉིས་བ	-11803
ཚར་བཅ	-11804
འཕོ་བ	-11805
འཚལ་་	-11806
ར་བརྩ	-11807
ལགས་པ	-11808
ལྔ་སྡ	-11809
ཤ་དང་	-11810
ེམས་པ	-11811
▁arch	-11812
▁laid	-11813
▁ship	-11814
▁wail	-11815
ཅན་དང་	-11816
ཕྱིར་་	-11817
ཙམ་ཡང་	-11818
ཚིགས་བ	-11819
འབྲུག་	-11820
ཡུལ་དབ	-11821
རལ་གྲི	-11822
རིམ་པ་	-11823
ལ་བྱ་བ	-11824
སྒྲོལ་	-11825
ུ་དེ་བ	-11826
▁cover	-11827
▁grown	-11828
▁sixth	-11829
▁soles	-11830
▁sting	-11831
▁watch	-11832
▁ང་ཡི་	-11833
ability	-11834
གནས་བརྟ	-11835
ཞིང་གི་	-11836
འདི་ལ་བ	-11837
འདོད་ན་	-11838
འི་བྱ་བ	-11839
ུལ་བའི་	-11840
ུས་ཀྱང་	-11841
ོང་དུ་བ	-11842
▁cotton	-11843
▁sinful	-11844
▁smrtil	-11845
▁spears	-11846
▁summit	-11847
་དེས་དེ་	-11848
་སྐྱེ་བ་	-11849
ཁྱོད་ལ་བ	-11850
ཅི་ཞིག་བ	-11851
ཇི་ལྟར་ད	-11852
ཏུ་བཅུག་	-11853
འདྲེས་པ་	-11854
ར་བརྩམས་	-11855
ལན་གསུམ་	-11856
སེམས་དེ་	-11857
སྒྱུར་བ་	-11858
ྱིས་པའི་	-11859
▁annihil	-11860
▁buffalo	-11861
▁counter	-11862
▁dharmad	-11863
▁harmony	-11864
▁prevent	-11865
▁vulture	-11866
▁wearing	-11867
▁དེས་ནི་	-11868
་སྟོང་དག་	-11869
་སྦྱིན་པ་	-11870
གཉིས་སུ་ད	-11871
གཞན་དག་ལ་	-11872
མ་ཡིན་པས་	-11873
མཉམ་པར་བཞ	-11874
མི་ཤེས་པ་	-11875
འཛིན་ཅིང་	-11876
ར་བགྱི་བ་	-11877
རྣམ་པར་རོ	-11878
ཤ་རིའི་བུ	-11879
སྟོན་པའི་	-11880
▁addition	-11881
▁deceased	-11882
▁disciple	-11883
▁eggshell	-11884
▁obstruct	-11885
▁peacocks	-11886
▁responds	-11887
▁specific	-11888
▁vanquish	-11889
▁མདོ་སྡེ་	-11890
▁འདི་ནི་བ	-11891
གཟུགས་དང་་	-11892
ཉེས་དམིགས་	-11893
འབྱེད་དོ་་	-11894
ཡི་རངས་ཏེ་	-11895
ས་ལ་ང་ཉིད་	-11896
▁greatness	-11897
▁treatises	-11898
▁uncertain	-11899
▁undefiled	-11900
▁ལྷ་དང་མི་	-11901
གཞི་མེད་དོ་	-11902
མཆོད་སྦྱིན་	-11903
འདིས་ན་བདག་	-11904
རྡུལ་ཕྲ་རབ་	-11905
ལྔ་གང་ཞེ་ན་	-11906
ལྔ་བརྒྱ་པོ་	-11907
ཤིང་ལྗོན་པ་	-11908
སམ་མི་ཁྱབ་་	-11909
སེམས་ཅན་གང་	-11910
▁internally	-11911
▁represents	-11912
▁smrtilabha	-11913
▁unshakable	-11914
་དེ་ཉོན་ཅིག་	-11915
་དེས་བསམས་པ་	-11916
གཞན་འཕྲུལ་དབ	-11917
ཆེན་པོ་རྣམས་	-11918
ཐབས་ཅིག་ཏུ་བ	-11919
ཕྱི་མའི་མཐའ་	-11920
འདི་ལྟ་སྟེ་བ	-11921
རོལ་མོའི་སྒྲ	-11922
ལྷའི་མེ་ཏོག་	-11923
སྦྱིན་པ་དང་་	-11924
▁contemplate	-11925
▁indivisible	-11926
ཁམས་གསུམ་པའི་	-11927
ཁོ་ན་བཞིན་དུ་	-11928
ཞེས་སྨྲས་སོ་་	-11929
རྣམ་པར་དག་པས་	-11930
ས་བཀའ་སྩལ་ནས་	-11931
ས་བླ་ན་མེད་པ་	-11932
ས་སྒོ་ངའི་སྦུ	-11933
▁illuminating	-11934
▁དེ་གང་གི་ཚེ་	-11935
འཐོབ་ཏུ་རུང་ན་	-11936
▁accomplishing	-11937
▁anathapindada	-11938
▁samantabhadra	-11939
ཅིའི་ཕྱིར་ཞེ་ན་	-11940
སྟོན་པར་བྱེད་པ་	-11941
སྨྲ་བའི་གནས་སུ་	-11942
▁irreproachable	-11943
▁དེ་ཡང་འོངས་ཏེ་	-11944
▁བུ་མོས་སྨྲས་པ་	-11945
ནམ་མཁའི་སྙིང་པོ་	-11946
མཉམ་པ་ནམ་མཁའ་དང་	-11947
འདི་ཁོ་ན་ཡིན་ཏེ་	-11948
wl	-11949
ོང	-11950
ale	-11951
her	-11952
voy	-11953
གཏེ	-11954
ང་ས	-11955
ངད་	-11956
འཆོ	-11957
ཤ་ཟ	-11958
ཤང་	-11959
ོ་ཉ	-11960
▁ec	-11961
▁ka	-11962
akay	-11963
atap	-11964
utar	-11965
ཀར་བ	-11966
ཆད་བ	-11967
ཏགས་	-11968
ན་དཔ	-11969
ས་ར་	-11970
སླད་	-11971
ོར་་	-11972
▁che	-11973
▁kos	-11974
▁lok	-11975
alika	-11976
arava	-11977
aring	-11978
ately	-11979
icing	-11980
ཀྲོལ་	-11981
ཉི་ཟླ	-11982
ཏབ་པ་	-11983
དང་་་	-11984
ཞེའམ་	-11985
ཡོད་་	-11986
རྩེད་	-11987
སྟབས་	-11988
▁accr	-11989
▁cord	-11990
▁dogs	-11991
▁jack	-11992
▁port	-11993
▁site	-11994
▁ungu	-11995
▁ཐོས་	-11996
airvoy	-11997
ersman	-11998
itiate	-11999
lessly	-12000
་སྤང་བ	-12001
ཀ་དང་་	-12002
ཤ་སྟག་	-12003
སོང་་་	-12004
སྨོན་ལ	-12005
▁midst	-12006
▁pearl	-12007
▁shown	-12008
▁sooth	-12009
▁stage	-12010
▁མཁས་པ	-12011
གནང་བར་	-12012
ཅོད་པན་	-12013
ཆ་ལུགས་	-12014
མགོ་བོ་	-12015
འགྲོའོ་	-12016
འདས་ནས་	-12017
འབྱིན་་	-12018
འི་དྲ་བ	-12019
ལུས་ནི་	-12020
ལྷ་ཡི་བ	-12021
སྐོར་བ་	-12022
སྐྱོ་བ་	-12023
ོངས་ནས་	-12024
ྲུག་ཏུ་	-12025
▁import	-12026
▁postul	-12027
▁pretas	-12028
▁suvarn	-12029
oduction	-12030
་དགོན་པ་	-12031
་དཔེར་ན་	-12032
ཀུན་ནས་ད	-12033
ཀྱི་དྲི་	-12034
ཐུན་མོང་	-12035
ན་དང་་སྨ	-12036
མིག་དང་་	-12037
ཟིན་པའི་	-12038
ལས་མི་འད	-12039
▁blossom	-12040
▁dharani	-12041
▁fitting	-12042
▁primary	-12043
▁གཞན་དུ་	-12044
▁དེའི་བཙ	-12045
andakaniv	-12046
་དགའ་བའི་	-12047
་དང་་སྦྱི	-12048
གཞན་གྱིས་	-12049
ན་བྱེད་པ་	-12050
མདུན་ན་འད	-12051
▁airborne	-12052
▁clairvoy	-12053
▁fraction	-12054
▁praising	-12055
▁retinues	-12056
▁ལྷ་དང་མི	-12057
▁སྡིག་ཅན་	-12058
གླུ་དབྱངས་	-12059
མ་ཡིན་པ་ལ་	-12060
མ་རིག་པའི་	-12061
མི་བྱེད་པ་	-12062
འདི་དག་གི་	-12063
ཡོད་པ་དང་་	-12064
ར་བྱ་བ་དང་	-12065
སངས་རྒྱས་བ	-12066
▁apprehens	-12067
▁illnesses	-12068
▁remainder	-12069
▁steersman	-12070
▁ད་ལྟར་ཡང་	-12071
་དེ་ལྟ་བུར་	-12072
ཉམ་ང་བ་ཉུང་	-12073
རྒྱུན་མི་འཆ	-12074
ེ་བོ་མང་པོ་	-12075
▁assurances	-12076
▁encouraged	-12077
▁thousandth	-12078
ཆོས་ཡོངས་སུ་	-12079
ན་དགེ་བའི་རྩ	-12080
ཞོ་དང་མར་དང་	-12081
འི་བར་དུ་ཡང་	-12082
▁དེ་ནས་དེའི་	-12083
ཉི་ཤུ་ཡེ་ཤེས་	-12084
ལོག་པར་ལྟུང་བ	-12085
▁conventional	-12086
▁kalandakaniv	-12087
་དང་བཅས་པ་དང་་	-12088
ནམ་མཁའི་དཀྱིལ་	-12089
འི་བྱེ་མ་སྙེད་	-12090
ཡང་དག་པའི་མཐའ་	-12091
ེ་བྱད་བཟང་པོ་བ	-12092
▁དེ་དག་ཐམས་ཅད་	-12093
▁འདུ་བྱེད་ཀྱི་	-12094
གནས་པར་མི་བགྱི་	-12095
ཟིལ་གྱིས་གནོན་པ	-12096
▁སེམས་ཅན་གང་དག་	-12097
་སེམས་ཅན་ཐམས་ཅད་	-12098
ཀྱི་བདག་པོ་ཚངས་པ	-12099
ར་འགྱུར་བ་དེ་ནི་	-12100
ཀོ	-12101
isy	-12102
jug	-12103
ost	-12104
ཀ་ཤ	-12105
ཡལ་	-12106
རྫི	-12107
ཨ་མ	-12108
ུ་ར	-12109
▁ud	-12110
ངང་པ	-12111
ཏབ་པ	-12112
ཐལ་བ	-12113
ར་རླ	-12114
སེལ་	-12115
ྲངས་	-12116
▁ade	-12117
▁ast	-12118
▁err	-12119
rious	-12120
ཀའོ་་	-12121
གཞོལ་	-12122
ཕྱེ་བ	-12123
འགྲམ་	-12124
འདི་་	-12125
འོ་་་	-12126
རིམ་པ	-12127
རྒོད་	-12128
སྨན་པ	-12129
▁bind	-12130
▁cymb	-12131
▁earn	-12132
▁jnan	-12133
▁stat	-12134
▁མིང་	-12135
▁རྣམ་	-12136
▁ཤིང་	-12137
action	-12138
worthy	-12139
་དྲོ་ཤ	-12140
་བྱས་་	-12141
ཀོ་ཀ་ལ	-12142
གཟིམས་	-12143
གསོད་པ	-12144
ང་སྟེ་	-12145
ཆར་ཡང་	-12146
པག་ཚད་	-12147
འདབ་མ་	-12148
ཤཀྱའི་	-12149
ས་སྐྱོ	-12150
སྐྱོད་	-12151
ུ་མོ་བ	-12152
▁ashes	-12153
▁broad	-12154
▁hairs	-12155
▁incur	-12156
▁range	-12157
▁seeks	-12158
▁shape	-12159
▁དཔེར་	-12160
iprabha	-12161
ཁྱེད་ལ་	-12162
གར་གྱི་	-12163
གྱིས་པ་	-12164
ཆོམ་རྐུ	-12165
དེན་པ་བ	-12166
ཕྱག་དར་	-12167
ཕྱོགས་ས	-12168
མ་བྱུང་	-12169
མྱོང་བ་	-12170
རྒྱགས་པ	-12171
རྟེན་པ་	-12172
ལག་པ་གཡ	-12173
ལས་ཆོས་	-12174
ལུས་ལས་	-12175
སོང་སྟེ	-12176
སྨྲའོ་་	-12177
▁altern	-12178
▁assist	-12179
▁deceit	-12180
▁seized	-12181
▁sumati	-12182
▁vanish	-12183
▁washed	-12184
▁wholly	-12185
▁ཇི་ཙམ་	-12186
▁བདག་ལ་	-12187
▁མཁས་པ་	-12188
▁ཙན་དན་	-12189
དང་ལྡན་པ	-12190
དེ་ལེགས་	-12191
མ་ཡིན་ལ་	-12192
ཞིག་སྟེ་	-12193
ཟེར་རོ་་	-12194
འཆི་བའི་	-12195
འདུག་གོ་	-12196
ཡི་གེར་བ	-12197
རིང་པོར་	-12198
རྟག་ཏུ་ད	-12199
རྩུབ་པོ་	-12200
ལ་དགའ་བ་	-12201
ལས་དང་པོ	-12202
ཤེས་པ་ལ་	-12203
སའི་ཁམས་	-12204
ེ་བཞིན་བ	-12205
▁harshly	-12206
▁painful	-12207
▁replete	-12208
▁roaring	-12209
▁seventy	-12210
▁succeed	-12211
▁upendra	-12212
▁རྒྱལ་བ་	-12213
་དྲོ་ཤམ་ཐ	-12214
ཀུན་ཤེས་པ	-12215
ཁྱབ་འཇུག་	-12216
གཞོན་ནུ་བ	-12217
ཕ་རོལ་དུ་	-12218
ར་བྱ་ཞིང་	-12219
རྡུལ་བྲལ་	-12220
རྣམས་ནི་བ	-12221
ོམ་པ་དང་་	-12222
▁arriving	-12223
▁blessing	-12224
▁capacity	-12225
▁confused	-12226
▁quarters	-12227
▁renounce	-12228
▁straight	-12229
ཇི་ལྟ་བུར་	-12230
འི་དབྱིངས་	-12231
སྨྲ་བ་དང་་	-12232
▁afterward	-12233
▁donations	-12234
▁encounter	-12235
▁forsaking	-12236
▁impartial	-12237
▁intensely	-12238
▁malicious	-12239
▁providing	-12240
གཞུག་པར་བྱ་	-12241
ཆོས་ཅན་ནོ་་	-12242
རྒྱན་གྱིས་བ	-12243
ལྷའི་བུ་མོ་	-12244
ལྷུང་བཟེད་བ	-12245
ཤད་དུ་གསོལ་	-12246
ེ་བཞིན་ནོ་་	-12247
ྲང་སྲོང་དེ་	-12248
▁associates	-12249
ནས་པུས་མོ་གཡ	-12250
མེད་པར་གྱུར་	-12251
ཞིང་བདག་ཉིད་	-12252
ྲི་བར་བྱའོ་་	-12253
▁alternative	-12254
▁bodhisatvas	-12255
▁illustrates	-12256
▁intelligent	-12257
ཞིག་བྱུང་སྟེ་	-12258
ཡོངས་སུ་ཤེས་པ	-12259
སེང་གེའི་སྒྲ་	-12260
▁destinations	-12261
▁དོན་དམ་པར་ན་	-12262
་དགེ་འདུན་འཚོ་	-12263
ཀྱང་མི་གནས་པར་	-12264
གནོད་པ་ཆུང་ངམ་	-12265
ཆེན་པོ་དེ་ལྟར་	-12266
མེད་པར་འགྱུར་་	-12267
ས་དེ་ལ་སྨྲས་པ་	-12268
སྔགས་པ་བརྗོད་པ	-12269
▁distinguished	-12270
གསེར་གྱི་ཁ་དོག་	-12271
འཕགས་པའི་བདེན་པ	-12272
▁གལ་ཏེ་མི་རྟག་པ	-12273
ཆོས་རྣམ་པར་དག་པ་	-12274
མངོན་པར་ཤེས་པའི་	-12275
རིས་ཀྱི་ལྷའི་བུ་	-12276
རྣམ་པར་རྒྱལ་བ་སྲ	-12277
▁དེ་ནས་དྲང་སྲོང་	-12278
ax	-12279
bl	-12280
ict	-12281
ode	-12282
uls	-12283
བྱི	-12284
ལི་	-12285
▁བ་	-12286
ming	-12287
ubst	-12288
ཁུང་	-12289
གཅན་	-12290
གཟི་	-12291
ན་གཙ	-12292
ཞུས་	-12293
འ་ལ་	-12294
ར་རྡ	-12295
ལ་ན་	-12296
སྤྲོ	-12297
▁adm	-12298
▁enh	-12299
▁flo	-12300
▁kok	-12301
▁ལོ་	-12302
ading	-12303
aprad	-12304
ག་དག་	-12305
ངས་སྙ	-12306
མུན་ན	-12307
ལྡེག་	-12308
སགས་པ	-12309
▁cost	-12310
▁herm	-12311
▁save	-12312
▁thie	-12313
▁vase	-12314
▁དེ་ན	-12315
aksamb	-12316
་དྲ་བ་	-12317
་བརྒྱ་	-12318
གནས་ལ་	-12319
ན་དང་བ	-12320
མ་ཐག་ཏ	-12321
རྩེགས་	-12322
ལོག་པ་	-12323
ཤིང་དྲ	-12324
ས་དུས་	-12325
ས་བུ་ད	-12326
སྲིད་་	-12327
ུག་དང་	-12328
ོན་གྱི	-12329
ྱི་བོ་	-12330
▁adept	-12331
▁altru	-12332
▁crest	-12333
▁inapp	-12334
▁resid	-12335
▁shoot	-12336
▁urine	-12337
▁warri	-12338
ousness	-12339
prabhas	-12340
་དང་་སྔ	-12341
ཉིད་དོ་	-12342
ན་དག་ལ་	-12343
ན་པོའི་	-12344
ནས་བདག་	-12345
མཚུངས་པ	-12346
སྒྲིབ་པ	-12347
▁bearer	-12348
▁exists	-12349
▁gandha	-12350
▁heroic	-12351
▁smiled	-12352
entially	-12353
ཁྱིམ་ཐབ་	-12354
གཏོགས་པ་	-12355
ཆུ་ཀླུང་	-12356
མ་དུ་བྱི	-12357
མང་དུ་བྱ	-12358
མི་མངའ་བ	-12359
ལ་བསམ་གཏ	-12360
ས་ཤིང་བས	-12361
སྟོན་ཏོ་	-12362
ོངས་ཤིང་	-12363
▁apprent	-12364
▁charnel	-12365
▁heavens	-12366
▁immense	-12367
▁reading	-12368
གྲོང་དང་་	-12369
ར་བྱེད་དེ	-12370
ར་འཇུག་པ་	-12371
རྒ་བ་དང་་	-12372
ས་སོ་ཞེས་	-12373
▁embraced	-12374
▁enjoying	-12375
▁faithful	-12376
▁possibly	-12377
▁terrible	-12378
▁དེ་ལྟར་བ	-12379
▁བདག་ཀྱང་	-12380
▁རིན་ཆེན་	-12381
▁རྡོ་རྗེ་	-12382
ubstantial	-12383
ཁྱེད་ཀྱིས་	-12384
ནང་སྟོང་པ་	-12385
ནས་སངས་རྒྱ	-12386
ནི་ངོ་མཚར་	-12387
འ་རྣམས་ནི་	-12388
འདམ་དུ་བྱི	-12389
འི་བར་དུ་བ	-12390
ུས་དུས་སུ་	-12391
▁collected	-12392
▁commended	-12393
▁contained	-12394
▁influence	-12395
▁traversed	-12396
▁ཁང་པ་བརྩེ	-12397
ནས་མི་སྣང་བ	-12398
ཞེ་ན་འདི་ལྟ	-12399
ཡང་ཡིན་ནོ་་	-12400
སྤོབས་པ་ཟད་	-12401
ེ་བོ་ཕལ་པོ་	-12402
▁inappropri	-12403
▁samyaksamb	-12404
▁subsequent	-12405
▁དགེ་སྦྱོང་	-12406
་དེ་དག་ལ་ནི་	-12407
་ལྟར་བྱུང་བ་	-12408
ནང་དུ་ཡང་དག་	-12409
མྱ་ངན་འདས་པ་	-12410
ཚངས་པས་བྱིན་	-12411
རབ་ཏུ་འབྱུང་	-12412
རྣམ་པར་ཐར་པ་	-12413
ལོན་པ་ཆོས་ལྔ	-12414
ས་བཀའ་སྩལ་པ་	-12415
▁reflections	-12416
▁དམ་པའི་ཆོས་	-12417
▁དེའི་ཚེ་ཡང་	-12418
▁བྱང་ཆུབ་ནི་	-12419
གཉིས་སུ་མེད་པ	-12420
མཐོང་མ་ཐག་ཏུ་	-12421
མུན་པ་བསལ་ཏེ་	-12422
རབ་ཏུ་ཤེས་སོ་	-12423
སོ་སོར་རྟོག་པ	-12424
▁construction	-12425
▁particularly	-12426
▁ཕྱོགས་བཅུའི་	-12427
གོང་མ་བཞིན་དུ་	-12428
ན་པ་ཟབ་མོ་འདི་	-12429
ཡོངས་སུ་འཛིན་པ	-12430
ར་བྱ་གོར་མ་ཆག་	-12431
ལྷ་དང་བཅས་པའི་	-12432
ལྷག་མ་མེད་པའི་	-12433
ཤེས་པ་གང་ཞེ་ན་	-12434
སིལ་བར་གྱུར་པ་	-12435
▁alternatively	-12436
ཉོན་མོངས་པ་དང་་	-12437
རྒྱ་མཚོ་ཆེན་པོ་	-12438
ཉེ་བར་གཞག་པར་བྱ་	-12439
ཐམས་ཅད་དང་བྲལ་བ་	-12440
ལ་བ་དང་་ཡིད་མི་བ	-12441
▁discriminations	-12442
▁དེ་ཟླ་བ་དགུའམ་བ	-12443
fr	-12444
ཁེ	-12445
adg	-12446
irc	-12447
ཐོ་	-12448
ཟན་	-12449
སྙུ	-12450
ྱད་	-12451
▁སྐ	-12452
alas	-12453
anab	-12454
asts	-12455
aund	-12456
་པི་	-12457
་རོ་	-12458
ཀོད་	-12459
ངེད་	-12460
ཆུས་	-12461
དབང་	-12462
ན་གླ	-12463
མཚང་	-12464
ཞུ་་	-12465
འ་སྡ	-12466
རངས་	-12467
ལྷང་	-12468
ཤའི་	-12469
ས་བཅ	-12470
ླང་བ	-12471
▁arg	-12472
▁bef	-12473
▁fat	-12474
▁pus	-12475
vinda	-12476
་དུ་མ	-12477
་རྐང་	-12478
་རྡོ་	-12479
ཁོ་བོ	-12480
གྱི་་	-12481
དུད་ད	-12482
ལྟ་མ་	-12483
སྙམ་པ	-12484
སླུ་བ	-12485
▁avar	-12486
▁cove	-12487
▁gopa	-12488
▁loud	-12489
▁unpr	-12490
▁ཟླ་བ	-12491
▁འོད་	-12492
asmrti	-12493
pitaka	-12494
ང་པོར་	-12495
མཚོན་ཆ	-12496
མོད་ལ་	-12497
ཚན་པོ་	-12498
ཡང་ངམ་	-12499
སེལ་བ་	-12500
ེང་གེ་	-12501
▁banks	-12502
▁bears	-12503
▁disre	-12504
▁error	-12505
▁flame	-12506
▁image	-12507
▁noose	-12508
▁padma	-12509
▁sugar	-12510
utation	-12511
་སྐྱེ་བ	-12512
ཁྲག་ཁྲི	-12513
གཟིགས་པ	-12514
ཉིན་པར་	-12515
ཕོ་བྲང་	-12516
མ་ཡིན་ད	-12517
ཡང་རུང་	-12518
ར་འཁོར་	-12519
རབ་བཟང་	-12520
▁bodhim	-12521
▁exting	-12522
▁rising	-12523
་དེ་ཡིས་	-12524
་སྙམ་དུ་	-12525
ཀུན་ཀྱང་	-12526
ཁྱིམ་དེ་	-12527
ཆགས་པའི་	-12528
ཕྱིན་ཆད་	-12529
མི་བྱའོ་	-12530
འདོགས་པ་	-12531
རྟན་པའི་	-12532
རྣམ་པར་འ	-12533
རྨོངས་པ་	-12534
▁aggress	-12535
▁cymbals	-12536
▁emitted	-12537
▁husband	-12538
▁phantom	-12539
▁settled	-12540
▁མིག་གི་	-12541
་དཔལ་གྱི་	-12542
་བྱས་སོ་་	-12543
ཁམས་མི་མཇ	-12544
གཟུགས་ནི་	-12545
གསེར་དང་བ	-12546
ཉིང་མཚམས་	-12547
ནགས་ཁྲོད་	-12548
མཆོད་པའི་	-12549
མེད་ཅིང་བ	-12550
ཡེ་ཤེས་ལ་	-12551
ར་བྱང་ཆུབ	-12552
སྙམ་དུ་དག	-12553
▁celibacy	-12554
▁comprise	-12555
▁lifetime	-12556
▁personal	-12557
▁released	-12558
▁strongly	-12559
▁ཁྱེད་ཅག་	-12560
▁དེ་དག་ལ་	-12561
ཁམས་བདེ་བ་	-12562
ཐོས་པ་དང་་	-12563
བས་བཅོམ་པ་	-12564
མ་ཡིན་ཞིང་	-12565
མི་སྡུག་པ་	-12566
མྱ་ངན་འདས་	-12567
ཞིང་དེ་དག་	-12568
རྣམས་ཀྱང་བ	-12569
ས་ཤིང་དོན་	-12570
▁desirable	-12571
▁elsewhere	-12572
▁entourage	-12573
▁katyayana	-12574
▁slightest	-12575
ཀྱིས་དེ་དག་	-12576
གནས་སྦྱིན་པ	-12577
ཚུལ་ཁྲིམས་བ	-12578
ཡན་ལག་བདུན་	-12579
ེ་བཞིན་དུ་བ	-12580
▁discovered	-12581
ཀྱི་དངོས་པོ་	-12582
འགྲོ་བའི་ལམ་	-12583
འདི་བཤད་པ་ན་	-12584
རྒྱལ་རིགས་སྤ	-12585
སངས་རྒྱས་དང་	-12586
▁engendering	-12587
▁immortality	-12588
▁inspiration	-12589
▁sacrificial	-12590
▁སངས་རྒྱས་དང	-12591
གསུང་བསལ་བའི་	-12592
ཚིག་བླ་དགས་བྱ	-12593
འི་ཚུལ་གྱིས་བ	-12594
གཉིས་སུ་དབྱེར་	-12595
འཁོར་དང་བཅས་པ་	-12596
འདི་དག་ཐམས་ཅད་	-12597
སྐྱོད་པ་ཡང་ངམ་	-12598
སྟོང་པ་ཉིད་ཀྱང་	-12599
▁ཆོས་ཐམས་ཅད་ནི་	-12600
▁བདེ་བར་གཤེགས་པ	-12601
ཉན་ཐོས་ཀྱི་ཐེག་པ	-12602
ན་པ་ལ་སྤྱོད་པ་ན་	-12603
འདུ་ཤེས་མེད་མིན་	-12604
bsc	-12605
etr	-12606
ets	-12607
rys	-12608
གཏུ	-12609
ོ་ད	-12610
▁སྣ	-12611
anga	-12612
atna	-12613
from	-12614
ival	-12615
orms	-12616
udra	-12617
གྲུ་	-12618
ཉེན་	-12619
མ་སྨ	-12620
མེས་	-12621
ཟ་མ་	-12622
ར་རྩ	-12623
ལྷར་	-12624
ུ་པ་	-12625
▁dut	-12626
▁tis	-12627
▁ven	-12628
entic	-12629
ested	-12630
གསོག་	-12631
གྲང་བ	-12632
ཅོམ་པ	-12633
ཐར་པ་	-12634
དེའི་	-12635
མིག་བ	-12636
ཞག་པ་	-12637
ཞིམ་པ	-12638
ཟླས་པ	-12639
རིམས་	-12640
▁cate	-12641
▁drop	-12642
▁emul	-12643
▁thro	-12644
▁བློ་	-12645
▁ཞེས་	-12646
▁ལ་ལ་	-12647
seeing	-12648
ཁམས་བྱ	-12649
ཁམས་ལ་	-12650
གསུམ་བ	-12651
གྱེས་པ	-12652
དོག་པ་	-12653
ན་ཆེན་	-12654
རྒྱད་བ	-12655
སུ་ནི་	-12656
སྡེ་དཔ	-12657
སྦྱོར་	-12658
▁acted	-12659
▁ahead	-12660
▁domin	-12661
▁early	-12662
▁green	-12663
▁intox	-12664
▁musit	-12665
▁shake	-12666
▁snake	-12667
▁stick	-12668
▁thats	-12669
▁worth	-12670
▁ཡང་ན་	-12671
estruct	-12672
་སྦྱིན་	-12673
ཀ་ལན་ད་	-12674
གཞན་དང་	-12675
གཟེངས་བ	-12676
ད་པ་དང་	-12677
མི་བྱ་་	-12678
ཞལ་གྱི་	-12679
འཁྲུགས་	-12680
ར་བཅུག་	-12681
ར་འཚལ་བ	-12682
སམས་ཏེ་	-12683
སྟེན་པ་	-12684
སྦངས་པ་	-12685
▁advers	-12686
▁arrows	-12687
▁ensues	-12688
▁passes	-12689
▁penetr	-12690
▁raised	-12691
▁taming	-12692
▁དེ་བས་	-12693
▁མ་ཕམ་པ	-12694
▁མཚན་མ་	-12695
ཆེན་གྱི་	-12696
དུན་དང་་	-12697
མཆོད་པ་བ	-12698
མི་མངའ་་	-12699
མི་ཤེས་པ	-12700
ཚེ་འཕོས་	-12701
ཞུགས་སོ་	-12702
འཇམ་ཞིང་	-12703
འོད་དཔག་	-12704
ལས་ཀྱིས་	-12705
སྨན་གྱི་	-12706
ིག་རྒྱུ་	-12707
▁empower	-12708
▁engages	-12709
▁limited	-12710
▁sisters	-12711
་དམིགས་པ་	-12712
ཅི་འདྲ་བ་	-12713
ཆོས་ཀྱི་བ	-12714
འདི་ཉིད་བ	-12715
ཡིད་མི་ཆེ	-12716
ཡིན་ཞིང་་	-12717
རྣམ་པ་སྣ་	-12718
ལྷག་མཐོང་	-12719
ས་སོ་སོར་	-12720
▁anointed	-12721
▁applying	-12722
▁bewilder	-12723
▁brothers	-12724
▁countrys	-12725
▁mahabrah	-12726
▁produces	-12727
▁tranquil	-12728
་དེ་ནི་དེ་	-12729
ནི་བདག་ཅག་	-12730
མཉན་ཡོད་ན་	-12731
འ་སྒྲིབ་པ་	-12732
སྤྱོད་དོ་་	-12733
▁belonging	-12734
▁carefully	-12735
▁concealed	-12736
▁destroyer	-12737
▁disengage	-12738
▁enjoyment	-12739
▁perceives	-12740
▁sovereign	-12741
▁tripitaka	-12742
▁གནོད་སྦྱི	-12743
གཟུགས་རྣམས་	-12744
ནས་བསྐལ་པ་བ	-12745
མ་ཐག་ཏུ་དེ་	-12746
མི་བྱེད་དོ་	-12747
འབྲས་བུ་དང་	-12748
ཡི་དགས་ཀྱི་	-12749
རིགས་ཀྱི་བུ	-12750
རྣམ་པར་བསྒྲ	-12751
ས་པར་གྱུར་པ	-12752
སྐྲ་དང་ཁ་སྤ	-12753
▁bodhimanda	-12754
▁conclusion	-12755
▁distracted	-12756
▁illuminate	-12757
▁knowledges	-12758
▁sensations	-12759
▁ཚོར་བ་དང་་	-12760
▁རྫུ་འཕྲུལ་	-12761
་དེས་སྨྲས་པ་	-12762
ཕྱག་འཚལ་ལོ་་	-12763
ཡོད་ཅེས་བྱ་བ	-12764
ལྟ་བར་གནས་པ་	-12765
▁temperament	-12766
ཁྱོད་ཀྱིས་དེ་	-12767
ཆེན་པོ་རབ་ཏུ་	-12768
ནས་སྨོན་ལམ་བཏ	-12769
འཁོར་དང་བཅས་པ	-12770
ཡོངས་སུ་འཛིན་	-12771
ར་དག་ཏུ་ལན་གས	-12772
ར་བྱ་དགེ་ཚུལ་	-12773
ས་པའི་འགོག་པ་	-12774
▁miraculously	-12775
▁རབ་འབྱོར་དེ་	-12776
འདུ་ཤེས་པ་དང་་	-12777
ཡང་དེ་བཞིན་དུ་	-12778
རང་གི་མཚན་ཉིད་	-12779
རིག་པར་བྱ་སྟེ་	-12780
རྣམས་ལ་སྨྲས་པ་	-12781
▁ལྷའི་དབང་པོ་བ	-12782
གསེར་དང་བོང་བར་	-12783
མངོན་པར་འབྱུང་བ	-12784
འཇིགས་ཤིང་སྐྲག་	-12785
ར་བྱ་བ་ཡིན་ནོ་་	-12786
རྒྱལ་པོའི་ཕོ་བྲ	-12787
ྱིན་གྱིས་བརླབས་	-12788
▁ཆོས་ཐམས་ཅད་ཀྱི་	-12789
▁རྣམ་པར་ཤེས་པའི་	-12790
fl	-12791
ཁོ	-12792
ླུ	-12793
api	-12794
cts	-12795
obh	-12796
oos	-12797
uel	-12798
་རླ	-12799
་སྩ	-12800
མ་ཚ	-12801
ཚ་བ	-12802
cons	-12803
gard	-12804
rets	-12805
tion	-12806
whel	-12807
ན་གཏ	-12808
ན་བ་	-12809
མ་དག	-12810
མཆུ་	-12811
རྒལ་	-12812
རྫས་	-12813
ས་དག	-12814
▁ath	-12815
▁exh	-12816
▁hun	-12817
after	-12818
alous	-12819
ators	-12820
ciate	-12821
eight	-12822
་སྐར་	-12823
ཀ་ནེ་	-12824
གས་སྐ	-12825
མཐིལ་	-12826
འདོར་	-12827
འཕེལ་	-12828
འོད་བ	-12829
རྒལ་བ	-12830
ལྡན་བ	-12831
སིལ་བ	-12832
སྨྲས་	-12833
ོན་ལ་	-12834
▁este	-12835
▁grat	-12836
▁hurt	-12837
▁lady	-12838
▁lily	-12839
▁pand	-12840
▁tact	-12841
▁tara	-12842
▁unsk	-12843
▁ཡིད་	-12844
arthas	-12845
enance	-12846
་དྲན་པ	-12847
གོ་བསྐ	-12848
གྱིས་པ	-12849
ཐ་མའི་	-12850
ཕྱིར་ད	-12851
བས་ཏེ་	-12852
འ་སྟེ་	-12853
འི་ཚིག	-12854
རྒྱགས་	-12855
རྒྱུག་	-12856
རྡུལ་ད	-12857
སྦྱངས་	-12858
▁blade	-12859
▁prabh	-12860
▁rains	-12861
▁rites	-12862
▁surge	-12863
▁tames	-12864
▁tears	-12865
▁thorn	-12866
▁virup	-12867
▁ཕྱིན་	-12868
minated	-12869
་དང་་སེ	-12870
་དང་པོ་	-12871
ཉིང་ལག་	-12872
མི་བགྱི	-12873
འདི་འདྲ	-12874
རིགས་པ་	-12875
ལ་དེའི་	-12876
སྤོང་བ་	-12877
▁hunger	-12878
▁pillar	-12879
▁subjug	-12880
▁དེ་ལས་	-12881
▁དེས་དེ	-12882
་དགེ་བ་བ	-12883
་དཔག་ཚད་	-12884
་སྐྱེད་པ	-12885
གདགས་སོ་	-12886
དེན་གྱི་	-12887
ནི་དེའི་	-12888
མཛེས་པར་	-12889
འདུག་པར་	-12890
ོ་དེ་དག་	-12891
ྱོད་པའི་	-12892
▁capital	-12893
▁deliver	-12894
▁inhabit	-12895
▁journey	-12896
▁mounted	-12897
▁recount	-12898
▁spheres	-12899
▁subdued	-12900
▁sustain	-12901
▁ཀྱེ་མ་བ	-12902
་བུད་མེད་	-12903
ཕྱིར་རོ་་	-12904
མེད་གྲངས་	-12905
ཞིག་གནས་པ	-12906
ཡན་ལག་དང་	-12907
ཡུལ་འཁོར་	-12908
རྙེད་དོ་་	-12909
སྙིང་པོར་	-12910
▁extremes	-12911
▁kokalika	-12912
▁nonhuman	-12913
▁overwhel	-12914
▁perfumed	-12915
▁unarisen	-12916
▁གྲོགས་པོ	-12917
་དེ་དང་དེ་	-12918
འི་བདག་མོ་	-12919
ར་བྱས་ནས་བ	-12920
▁analogies	-12921
▁mahavidya	-12922
▁represent	-12923
▁threefold	-12924
གེ་བའི་རྩ་བ	-12925
འཇིག་རྟེན་པ	-12926
ཡོངས་སུ་སྨི	-12927
སྤོང་བ་དང་་	-12928
▁constructs	-12929
▁renunciant	-12930
▁vanquished	-12931
གཟུང་བའམ་མི་	-12932
ཕྱི་མའི་དུས་	-12933
ར་གྱུར་ཅིང་་	-12934
ཤེས་རབ་ཀྱིས་	-12935
ེད་མེད་ཀྱི་བ	-12936
▁abandonment	-12937
▁musitasmrti	-12938
གྲོང་ཁྱེར་དུ་	-12939
གྲོང་རྡལ་དང་་	-12940
ཆོས་ཉིད་ཀྱིས་	-12941
ཐམས་ཅད་རབ་ཏུ་	-12942
ཐུན་མོང་དུ་བྱ	-12943
ཕུན་སུམ་ཚོགས་	-12944
འི་ཐེག་པ་པའི་	-12945
▁formlessness	-12946
▁རང་སངས་རྒྱས་	-12947
་དང་ལྡན་པ་ཡིན་	-12948
འཆི་བའི་དུས་བྱ	-12949
ཡུན་རིང་པོ་ནས་	-12950
ཡོངས་སུ་སྦྱང་བ	-12951
རྣམ་གྲངས་འདི་བ	-12952
ོམས་པར་འཇུག་པ་	-12953
▁insubstantial	-12954
▁ཐེག་པ་ཆེན་པོ་	-12955
ཀྱི་དཀྱིལ་འཁོར་	-12956
ཉམ་ང་བ་ཉུང་ངམ་བ	-12957
མེད་ཅིང་དྲི་མ་ད	-12958
སྐྱེ་བོའི་ཚོགས་	-12959
▁contemplations	-12960
▁transgressions	-12961
▁སྣང་བ་བྱས་ཤིང་	-12962
ཉམས་པར་མི་འགྱུར་	-12963
མཐར་ཐུག་པ་གྲུབ་པ	-12964
འདུས་ཏེ་རེག་པའི་	-12965
ར་བྱ་གནས་སྦྱིན་པ	-12966
རིན་པོ་ཆེ་སྣ་བདུ	-12967
རྣམ་པར་མི་རྟོག་པ	-12968
རྣམ་པར་རྟོག་པའི་	-12969
ཤེས་པ་ཞེས་བྱ་སྟེ	-12970
སྐྱེ་བོ་ཕལ་པོ་ཆེ	-12971
lo	-12972
ads	-12973
ena	-12974
umn	-12975
ངང་	-12976
འོད	-12977
ཧི་	-12978
ོབ་	-12979
aged	-12980
iles	-12981
inya	-12982
isha	-12983
lets	-12984
་དྲེ	-12985
གཞག་	-12986
ཐུག་	-12987
མ་དྲ	-12988
མུས་	-12989
ཡིག་	-12990
སྐྱབ	-12991
ེའུ་	-12992
▁asc	-12993
▁avo	-12994
▁mad	-12995
▁shr	-12996
adhis	-12997
ended	-12998
pping	-12999
rings	-13000
་དཔེ་	-13001
ང་ཡང་	-13002
ཏ་རེ་	-13003
ཐེ་ཙོ	-13004
ཕངས་པ	-13005
མཆི་་	-13006
མཇུག་	-13007
མཐའི་	-13008
ཡངས་པ	-13009
ཡོལ་བ	-13010
རབ་རི	-13011
ལ་བབ་	-13012
ུང་བཅ	-13013
ོ་ལ་བ	-13014
ོགས་བ	-13015
ྱིན་་	-13016
ྲག་ཅ་	-13017
▁chak	-13018
▁educ	-13019
▁gadg	-13020
▁idea	-13021
▁lute	-13022
▁nand	-13023
▁དྲི་	-13024
anetra	-13025
་སྔོན་	-13026
ག་དང་ད	-13027
གཡུང་ད	-13028
ཏང་ནས་	-13029
མ་ནུར་	-13030
མཆོད་་	-13031
རྙེས་པ	-13032
སེམས་་	-13033
སྤྱི་བ	-13034
ླངས་པ་	-13035
▁delic	-13036
▁fixed	-13037
▁moral	-13038
▁proff	-13039
▁shawl	-13040
▁stret	-13041
▁ཀྱི་ཧ	-13042
akayika	-13043
aprapta	-13044
་བདེ་བ་	-13045
ཀླུ་དང་	-13046
དག་གི་བ	-13047
བེན་པར་	-13048
མ་མཐོང་	-13049
ཟད་པའི་	-13050
ར་བ་དང་	-13051
ལས་གཞན་	-13052
ལྟར་མི་	-13053
ོན་ཏོ་་	-13054
▁absent	-13055
▁author	-13056
▁bestow	-13057
▁dispos	-13058
▁except	-13059
▁highly	-13060
▁humble	-13061
▁ninety	-13062
▁revers	-13063
▁timely	-13064
▁མི་ཡི་	-13065
ན་བ་དང་་	-13066
ནམས་ཀྱང་	-13067
མཆིས་ཏེ་	-13068
མཐའ་ཡས་པ	-13069
རྗེད་ངས་	-13070
ལ་དབང་བྱ	-13071
ལྷགས་ནས་	-13072
སྟོང་གི་	-13073
ླངས་སོ་་	-13074
▁belongs	-13075
▁discurs	-13076
▁happily	-13077
▁herself	-13078
▁meeting	-13079
▁pertain	-13080
▁reigned	-13081
▁seventh	-13082
▁thieves	-13083
▁wailing	-13084
▁མིའམ་ཅི	-13085
ཁམས་རྣམས་	-13086
གང་དང་གང་	-13087
གནས་པ་དང་	-13088
གཤེགས་ཏེ་	-13089
ངག་གི་ལས་	-13090
མཁྱེན་པར་	-13091
འབུམ་ཕྲག་	-13092
འི་དངོས་པ	-13093
འི་སྐྱོན་	-13094
རྐང་གཉིས་	-13095
རྒྱས་པར་བ	-13096
ས་སྟན་དེ་	-13097
▁assented	-13098
▁creation	-13099
▁earrings	-13100
▁examined	-13101
▁gadgadas	-13102
▁inclined	-13103
▁independ	-13104
▁reliable	-13105
▁starting	-13106
▁སྦྱིན་པ་	-13107
མ་ཡིན་ཏེ་་	-13108
མཚུངས་མེད་	-13109
མྱ་ངན་མེད་	-13110
ཟའ་བ་དང་་བ	-13111
འི་བཟོད་པ་	-13112
ཡན་ལག་དང་་	-13113
ལ་བརྩོན་པ་	-13114
སངས་རྒྱས་ད	-13115
▁disregard	-13116
▁examining	-13117
▁novitiate	-13118
▁ourselves	-13119
▁prominent	-13120
▁གྲོགས་པོ་	-13121
▁དེས་ཀྱང་བ	-13122
▁བདག་ཀྱང་བ	-13123
estructible	-13124
་བྱེ་བ་ཕྲག་	-13125
ཀྱིས་སྟོང་པ	-13126
གྱུར་ཅིང་་་	-13127
མ་བསྐྱེད་པ་	-13128
འི་བསྔགས་པ་	-13129
ཡུན་རིང་དུ་	-13130
ར་བྱེད་པའམ་	-13131
སོའི་སྐྱེ་བ	-13132
སྟོང་འདས་པ་	-13133
ཨུད་པ་ལ་དང་	-13134
▁respective	-13135
▁ཐམས་ཅད་དུ་	-13136
་དེ་དག་གིས་བ	-13137
ཆོས་ཀྱི་ཚུལ་	-13138
དུད་སྡིག་ཅན་	-13139
ནང་ན་ཡང་མེད་	-13140
ཡང་དང་ཡང་དུ་	-13141
ར་འགྱུར་ཏེ་་	-13142
▁development	-13143
▁discouraged	-13144
▁ཐམས་ཅད་མཁྱེ	-13145
▁དེ་ལྟ་བས་ན་	-13146
་དེ་དང་དེ་དག་	-13147
མིགས་སུ་མེད་པ	-13148
ར་བྱེད་པ་ཡིན་	-13149
རྣམ་པར་རིག་པ་	-13150
▁nonbuddhists	-13151
▁practitioner	-13152
▁relinquished	-13153
ད་དུ་བྱུང་བའི་	-13154
མདོ་རྫོགས་སོ་་	-13155
རྗེས་སུ་ཡི་རང་	-13156
ལས་ཆུང་མ་བླངས་	-13157
་ད་ལྟར་འབའ་ཞིག་	-13158
་སྤྱན་རས་གཟིགས་	-13159
སམ་གྱིས་མི་ཁྱབ་	-13160
སྦངས་པ་ལྟ་བུར་བ	-13161
▁indestructible	-13162
མ་ཡིན་པ་བཟློག་ལ་	-13163
▁kalandakanivapa	-13164
▁རྒྱུ་གང་དང་རྐྱེ	-13165
sa	-13166
aff	-13167
erv	-13168
མའ་	-13169
ལྡེ	-13170
▁gi	-13171
▁སྡ	-13172
acch	-13173
ades	-13174
rasp	-13175
ཅུ་པ	-13176
ཐོང་	-13177
ད་ལ་	-13178
མར་བ	-13179
རའི་	-13180
ལན་བ	-13181
སལ་བ	-13182
ུད་་	-13183
ྙིང་	-13184
ྲག་པ	-13185
▁log	-13186
▁ran	-13187
▁sci	-13188
▁sli	-13189
▁vip	-13190
▁དྲི	-13191
forth	-13192
harad	-13193
inity	-13194
itled	-13195
right	-13196
ulter	-13197
urbed	-13198
གཏང་བ	-13199
གདགས་	-13200
གོ་བཤ	-13201
གློ་བ	-13202
ད་དཔོ	-13203
ན་གཉི	-13204
མ་པ་བ	-13205
ཞིའི་	-13206
འཐུན་	-13207
རྒུད་	-13208
སམས་བ	-13209
▁cher	-13210
▁fold	-13211
▁guru	-13212
▁hall	-13213
▁medi	-13214
▁nour	-13215
▁papi	-13216
▁roof	-13217
▁salt	-13218
▁yana	-13219
people	-13220
་དབེན་	-13221
་བདུད་	-13222
་སྣང་བ	-13223
གཏོར་བ	-13224
ཅན་དེ་	-13225
ད་དང་བ	-13226
ན་གཞན་	-13227
ན་ལས་བ	-13228
ཞི་བར་	-13229
འི་དྲི	-13230
ར་འགྱུ	-13231
རྒྱན་་	-13232
རྟགས་པ	-13233
ལོང་བ་	-13234
སོ་སོ་	-13235
ུང་བར་	-13236
▁atoms	-13237
▁covet	-13238
▁feels	-13239
▁harem	-13240
▁newly	-13241
▁quant	-13242
▁sides	-13243
▁upset	-13244
▁wrath	-13245
▁དེ་ཡི	-13246
fferent	-13247
་ད་ལྟར་	-13248
ངས་ཀྱང་	-13249
ཆོ་འཕྲུ	-13250
མཚང་འདྲ	-13251
འགྱེད་པ	-13252
འདི་ཡི་	-13253
ཡོད་པས་	-13254
རིན་ཐང་	-13255
རྩྭ་དང་	-13256
ལ་གྱིས་	-13257
ལས་གུད་	-13258
སྦྱོང་བ	-13259
▁aksobh	-13260
▁asleep	-13261
▁bathed	-13262
▁bowing	-13263
▁dissol	-13264
▁doctor	-13265
▁exceed	-13266
▁finger	-13267
▁groves	-13268
▁hordes	-13269
▁summer	-13270
▁tusita	-13271
▁widely	-13272
▁youths	-13273
▁གང་ཚེ་	-13274
▁འགྲོ་བ	-13275
▁འདི་ནི	-13276
aundinya	-13277
utaratna	-13278
་སྒྲུབ་པ	-13279
གཉིས་པོ་	-13280
ན་གྱིས་ད	-13281
མཁན་གྱི་	-13282
མཉམ་ཞིང་	-13283
མི་ཐོགས་	-13284
མེ་ཏོག་བ	-13285
ས་དེ་ནི་	-13286
སྟོང་པར་	-13287
ེ་བ་དང་་	-13288
ྱོད་པ་ན་	-13289
▁eternal	-13290
▁flavors	-13291
▁forbear	-13292
▁jealous	-13293
▁jeweled	-13294
▁matters	-13295
▁natures	-13296
▁student	-13297
▁དེ་དེར་	-13298
▁འདིས་ང་	-13299
▁ལ་ལ་ནི་	-13300
▁སྟོན་པ་	-13301
ཀྱང་དེའི་	-13302
གཅིག་གོ་་	-13303
གཟིགས་ཏེ་	-13304
གྱིས་ལགས་	-13305
ན་དག་གིས་	-13306
ན་དང་་སྨྲ	-13307
མཆོག་གིས་	-13308
མེད་པ་ལས་	-13309
འདི་ལྟར་ད	-13310
འི་བྱམས་པ	-13311
འི་ཤེས་པ་	-13312
རིམ་གྱིས་	-13313
རྗོད་པའི་	-13314
རྣམ་པར་འཚ	-13315
ལྟ་བུ་དག་	-13316
ཤོས་གསོལ་	-13317
སྙིང་པོས་	-13318
ུ་དུམ་བ་ར	-13319
▁composed	-13320
▁entitled	-13321
▁formerly	-13322
▁sleeping	-13323
▁ཁྱོད་ཀྱི	-13324
▁དགེ་བའི་	-13325
uspacandra	-13326
་དགའ་མགུར་	-13327
་བདུན་གྱི་	-13328
ཀུན་གྱིས་བ	-13329
ཀྱི་བསམ་པ་	-13330
ཁྱིམ་བདག་བ	-13331
གཞོན་ནུའི་	-13332
ནུབ་ཕྱོགས་	-13333
ཞོན་པ་དང་་	-13334
འགྱུར་ཏེ་་	-13335
འབྱུང་ཞིང་	-13336
འོ་སྙམ་དུ་	-13337
ཡོངས་སུ་མ་	-13338
རྣམ་པ་དང་་	-13339
ལེན་པ་དང་་	-13340
ས་སྨྲས་པ་་	-13341
སེམས་དགའ་བ	-13342
སྐྱེད་པའི་	-13343
ོན་ཐམས་ཅད་	-13344
ྱི་བོ་ནས་ད	-13345
▁appointed	-13346
▁renounced	-13347
▁ཉོན་མོངས་	-13348
་དྲང་སྲོང་ད	-13349
ཀའ་ཐུབ་ཀྱི་	-13350
གཉི་གའི་བར་	-13351
ཐབས་ཅིག་ཏུ་	-13352
ཞུགས་པ་དང་་	-13353
འདི་ཉིད་དུ་	-13354
འི་བདག་ཉིད་	-13355
ལས་བྱས་པའི་	-13356
ུའི་ནོར་དང་	-13357
▁benefactor	-13358
▁contention	-13359
▁descending	-13360
▁discursive	-13361
▁henceforth	-13362
▁relatively	-13363
▁ཅི་ནས་ཀྱང་	-13364
ཀུན་རྫོབ་ཏུ་	-13365
ཀྱི་རྒྱལ་པོ་	-13366
ཁྱིམ་བདག་དེ་	-13367
ནི་བྱང་ཆུབ་བ	-13368
ཕ་རོལ་ཕྱིན་་	-13369
ཙམ་དུ་ཟད་དོ་	-13370
འགྱུར་བ་དང་་	-13371
འི་དབང་ཕྱུག་	-13372
ར་བྱེད་ཅེ་ན་	-13373
རབ་ཏུ་གནས་པ་	-13374
ལ་བྱ་ཀ་ལན་ད་	-13375
སྣ་ཚོགས་ཀྱི་	-13376
▁གནོད་སྦྱིན་	-13377
▁ཤེས་ལྡན་དག་	-13378
ན་པར་མི་བྱེད་	-13379
མྱ་ངན་དང་་སྨྲ	-13380
རྗེས་སུ་ཐོབ་པ	-13381
ས་ལ་བཙུགས་ཏེ་	-13382
སྟན་པར་བྱའོ་་	-13383
▁འཕགས་པའི་ལམ་	-13384
ཆོས་སུ་བཏགས་པ་	-13385
དེ་བའི་ཡོ་བྱད་	-13386
སྒྲ་བྱུང་ངོ་་་	-13387
སྦྱར་ཏེ་རྣམ་པ་	-13388
▁disengagement	-13389
▁prabhutaratna	-13390
ག་བརྒྱ་སྟོང་དུ་	-13391
ན་གྱི་དབང་ཕྱུག་	-13392
མཐོ་རིས་དང་ཐར་པ	-13393
▁fearlessnesses	-13394
ཀུན་འབྱུང་བ་ཤེས་	-13395
ཅོམ་ནས་རྒྱུན་དུ་	-13396
དཔག་ཏུ་མེད་པ་དག་	-13397
etu	-13398
kes	-13399
mad	-13400
ཁུ་	-13401
ནོར	-13402
རྙི	-13403
▁na	-13404
apas	-13405
avan	-13406
clam	-13407
ndas	-13408
onse	-13409
་བ་ལ	-13410
ཏང་་	-13411
མའ་བ	-13412
མིར་	-13413
ཞོག་	-13414
འམ་་	-13415
ཨ་ག་	-13416
▁ate	-13417
▁got	-13418
▁tig	-13419
▁tun	-13420
▁yas	-13421
▁མར་	-13422
aming	-13423
estro	-13424
ineya	-13425
isive	-13426
night	-13427
world	-13428
་དབྱི	-13429
་བ་ལ་	-13430
ཀ་ཏྱ་	-13431
ཀླུ་ད	-13432
ཁྲུང་	-13433
གཉིད་	-13434
གཞན་ད	-13435
ང་པར་	-13436
མུན་པ	-13437
ཚུགས་	-13438
རོའི་	-13439
ལོ་མ་	-13440
ལྗགས་	-13441
ལྟེང་	-13442
ལྷུར་	-13443
ུད་པ་	-13444
ེད་དེ	-13445
▁cave	-13446
▁diss	-13447
▁impl	-13448
▁para	-13449
ciated	-13450
endras	-13451
olence	-13452
utable	-13453
་དང་དཔ	-13454
་དབང་བ	-13455
་དྲག་པ	-13456
ག་ཅིང་	-13457
ཇི་ཙམ་	-13458
ཉོན་ལ་	-13459
མི་དང་	-13460
ཞལ་ཟས་	-13461
ཞིང་དེ	-13462
འབུལ་བ	-13463
རྒ་ཤི་	-13464
རྩེ་བ་	-13465
རྩེ་མོ	-13466
ལ་པིང་	-13467
ལགས་ལ་	-13468
སྐོམ་པ	-13469
སྙན་པ་	-13470
▁agent	-13471
▁antid	-13472
▁burst	-13473
▁falls	-13474
▁grief	-13475
▁neigh	-13476
▁relie	-13477
▁simha	-13478
▁spend	-13479
▁tisya	-13480
▁unmis	-13481
▁venom	-13482
▁ཁྱིམ་	-13483
bscured	-13484
གནས་ངན་	-13485
ང་སང་པོ	-13486
ཆེ་དང་་	-13487
ཕྱོགས་པ	-13488
འགྲོ་ལ་	-13489
འབྲེལ་བ	-13490
འོད་ཟེར	-13491
རྟོགས་་	-13492
ས་པ་དེ་	-13493
སྟན་པ་བ	-13494
སྲུང་བ་	-13495
ུང་ཞིང་	-13496
ེར་ཟུག་	-13497
ྱིན་ནས་	-13498
▁bodily	-13499
▁captiv	-13500
▁dhyana	-13501
▁excess	-13502
▁gazing	-13503
▁honest	-13504
▁propag	-13505
▁relief	-13506
▁sagara	-13507
▁smooth	-13508
▁stride	-13509
▁utpala	-13510
▁ཡང་དག་	-13511
་དེར་ནི་	-13512
ཀོད་དོ་་	-13513
གཉིས་ཀྱི	-13514
ངོས་པོར་	-13515
ཅན་གྱི་བ	-13516
ཆེན་པོ་ས	-13517
དེ་བྱེད་	-13518
ན་གཞོན་ན	-13519
ལག་མཐིལ་	-13520
ས་སོ་་་་	-13521
སྲིད་དུ་	-13522
▁cuckoos	-13523
▁disasso	-13524
▁guarded	-13525
▁papiyan	-13526
▁proclam	-13527
▁recites	-13528
▁serious	-13529
▁shelter	-13530
▁showing	-13531
▁wellpro	-13532
་བྱུང་ནས་	-13533
ཉི་ཤུ་རྩ་	-13534
འཇུག་པའི་	-13535
འདུག་པའི་	-13536
འདོད་པ་ལ་	-13537
འཚོ་བྱེད་	-13538
རྐྱེན་ནི་	-13539
རྒྱས་པའི་	-13540
ལ་སོ་སོར་	-13541
སྐྱེ་དགུ་	-13542
སྟོང་ཕྲག་	-13543
▁achieves	-13544
▁concerns	-13545
▁kingdoms	-13546
▁peerless	-13547
▁response	-13548
▁samadhis	-13549
▁treasury	-13550
▁trembled	-13551
་དང་་དགའ་བ	-13552
་རྒོད་ཀྱི་	-13553
གཡོག་འཁོར་	-13554
ཆོས་བཞི་པོ	-13555
ན་དང་ལྡན་པ	-13556
འགྱུར་བའི་	-13557
འདེབས་སོ་་	-13558
འབྲས་བུའི་	-13559
ས་བརྒྱན་པ་	-13560
སེམས་ཅན་གཞ	-13561
སྒྱུར་ཅིང་	-13562
སྒྲ་དབྱངས་	-13563
སྟན་པ་དང་་	-13564
▁allseeing	-13565
▁attendant	-13566
▁authentic	-13567
▁blissgone	-13568
▁calculate	-13569
▁execution	-13570
▁sprinkled	-13571
▁upholding	-13572
▁རྒྱུན་དུ་	-13573
་དེའི་ཚེ་ན་	-13574
ཐོགས་པ་དང་་	-13575
ནི་བྱང་ཆུབ་	-13576
ནོར་བུ་དང་་	-13577
ཕྱིན་པ་དང་་	-13578
འི་དབང་གིས་	-13579
ར་གྱུར་ཏེ་་	-13580
▁controlled	-13581
▁extremists	-13582
▁misfortune	-13583
▁multitudes	-13584
▁repeatedly	-13585
▁translated	-13586
ནས་བཟུང་སྟེ་	-13587
ནི་སངས་རྒྱས་	-13588
ཕུང་པོའི་རི་	-13589
ར་མི་ནུས་སོ་	-13590
རབ་ཏུ་བྱུང་་	-13591
སྒྲུབ་པ་དང་་	-13592
ྱིན་གྱིས་བརླ	-13593
▁beautifully	-13594
▁consecrated	-13595
▁excellently	-13596
▁བདག་ཅག་གིས་	-13597
▁རྒྱ་གར་གྱི་	-13598
འི་སངས་རྒྱས་ད	-13599
ལ་ཕྱག་འཚལ་ལོ་	-13600
སྐྱེད་མོས་ཚལ་	-13601
▁accomplishes	-13602
▁gadgadasvara	-13603
ཁམས་གྲངས་མེད་པ	-13604
གཞོན་ནུ་དྲན་པ་	-13605
ནས་དེས་བསམས་པ་	-13606
མ་དང་་དགེ་བསྙེ	-13607
ས་པའི་ལས་དེའི་	-13608
་དག་དེ་ལྟ་བས་ན་	-13609
ཀྱིས་འདི་སྐད་ཅེ	-13610
ཉིད་དང་ལྡན་པའི་	-13611
ཕྱི་ཞིག་ན་དེའི་	-13612
ལྷག་པའི་ང་རྒྱལ་	-13613
་དང་ཉེ་དབང་དང་བཅ	-13614
ཡོངས་སུ་རྫོགས་པ་	-13615
རབ་ཏུ་ཕྱུང་སྟེ་བ	-13616
རྒྱལ་པོའི་ཁབ་ཏུ་	-13617
རྣམ་པར་ཤེས་པ་ནི་	-13618
▁ཀ	-13619
idd	-13620
rol	-13621
tha	-13622
uce	-13623
whi	-13624
zed	-13625
ཁམ་	-13626
རྣབ	-13627
keys	-13628
ular	-13629
ural	-13630
་དན་	-13631
བུལ་	-13632
ཚེ་་	-13633
རུམ་	-13634
ུད་པ	-13635
ེ་བྲ	-13636
▁alo	-13637
▁ive	-13638
alled	-13639
mbers	-13640
་པོ་་	-13641
ཁྲེལ་	-13642
ངས་ལ་	-13643
ཕྲིན་	-13644
ཞུམ་པ	-13645
ལམ་ལ་	-13646
སྩོལ་	-13647
ེའོ་་	-13648
ོངས་་	-13649
▁beds	-13650
▁dies	-13651
▁fest	-13652
andhas	-13653
boring	-13654
estern	-13655
་བདེ་བ	-13656
་སྨྲ་བ	-13657
ངན་འགྲ	-13658
ཕྱི་རོ	-13659
ཕྱེ་མ་	-13660
མགུ་ལ་	-13661
མི་དབུ	-13662
ལས་སྒྲ	-13663
ཤེས་ན་	-13664
ས་སྟོབ	-13665
སྔགས་བ	-13666
▁brave	-13667
▁categ	-13668
▁eaten	-13669
▁gemst	-13670
▁jalin	-13671
▁mired	-13672
▁vital	-13673
▁walls	-13674
▁ཚངས་པ	-13675
▁འདིར་	-13676
asyapas	-13677
ཁྱོད་དེ	-13678
གདགས་པ་	-13679
གྲོད་པ་	-13680
ང་དང་་་	-13681
ཉིད་ནས་	-13682
ཐོབ་བོ་	-13683
ཐོས་པས་	-13684
མངལ་དུ་	-13685
མཐའ་འཁོ	-13686
འཕྲོག་པ	-13687
ལམ་དང་་	-13688
ལྡན་པར་	-13689
ས་བོན་བ	-13690
སེར་པོ་	-13691
སྒྲོགས་	-13692
ུག་དང་་	-13693
ོང་དང་་	-13694
ོས་ཀྱི་	-13695
▁facing	-13696
▁gnosis	-13697
▁hollow	-13698
▁island	-13699
▁prabha	-13700
▁proced	-13701
▁thread	-13702
▁ཀ་ཤི་ཀ	-13703
▁གང་དུ་	-13704
▁ཕ་རོལ་	-13705
▁བསམ་པ་	-13706
ཀ་ལ་པིང་	-13707
ཀུན་དུ་བ	-13708
ཐུབ་པའི་	-13709
ཞེས་མིང་	-13710
འབར་ཞིང་	-13711
ར་བྱ་སྟེ	-13712
རྟེན་ཏེ་	-13713
ལན་གཉིས་	-13714
ལྟ་བ་དང་	-13715
ཤེས་རབ་བ	-13716
ཤོག་ཅིག་	-13717
སུས་ཀྱང་	-13718
སེམས་སུ་	-13719
▁avarice	-13720
▁profund	-13721
▁setting	-13722
▁started	-13723
▁བྱིས་པ་	-13724
་དེ་ལྟར་བ	-13725
་དོན་ཡོད་	-13726
་སྡུག་བསྔ	-13727
ཁྱེད་ཀྱི་	-13728
གི་གན་དུ་	-13729
ཉིན་མཚན་ད	-13730
ཕྱག་འཚལ་བ	-13731
མཆོག་དང་་	-13732
མི་དགའ་བ་	-13733
ཚན་པོ་ཆེ་	-13734
འཇིག་པའི་	-13735
འདི་སྙེད་	-13736
འདིས་བདག་	-13737
རྒྱུ་དང་་	-13738
རྣམ་སྤངས་	-13739
ལས་འདས་པ་	-13740
ས་བརྗོད་པ	-13741
སྔགས་པའི་	-13742
སྟེང་གི་བ	-13743
▁compared	-13744
▁drinking	-13745
▁embarked	-13746
▁outshine	-13747
▁preacher	-13748
▁scrutiny	-13749
▁splendid	-13750
▁summoned	-13751
▁unguents	-13752
▁དེ་བས་ན་	-13753
ན་གཅིག་གམ་	-13754
ཕན་ཚུན་དུ་	-13755
མཚུངས་སོ་་	-13756
མི་རྣམས་ལ་	-13757
ལ་གནས་པའི་	-13758
ལ་གནས་ཤིང་	-13759
ས་སྣ་ཚོགས་	-13760
▁concerned	-13761
▁entrusted	-13762
▁fragrance	-13763
▁mandarava	-13764
▁persevere	-13765
▁uncreated	-13766
▁unstained	-13767
▁རྐང་གཉིས་	-13768
▁རྒྱལ་བའི་	-13769
ཀུན་ཏུ་ཤེས་	-13770
ཀུན་འབྱུང་བ	-13771
ཅུའི་སྟོབས་	-13772
ཆེན་པོ་བཞི་	-13773
མཚོན་གྱིས་བ	-13774
མི་བྱེད་དེ་	-13775
མོས་པ་དུ་མ་	-13776
འདྲི་བ་དང་་	-13777
ཡོངས་སུ་དག་	-13778
རྣམས་ཀྱིས་ད	-13779
སྐྱེ་བ་དང་་	-13780
སྐྱེ་མཆེད་བ	-13781
ྱིན་གྱིས་རླ	-13782
▁commitment	-13783
▁nirgrantha	-13784
▁recipients	-13785
▁sarvarthas	-13786
▁successive	-13787
▁unmistaken	-13788
▁unobscured	-13789
་དགེ་སློང་མ་	-13790
ཁམས་སྣ་ཚོགས་	-13791
གཏན་ལ་ཕབ་པ་་	-13792
ང་དེ་དག་ཀྱང་	-13793
ཆོས་ཀྱི་གཏམ་	-13794
དེན་གྱི་གཞན་	-13795
མཉན་དུ་ཡོད་པ	-13796
འཇིགས་པ་དང་་	-13797
རྣམས་ཐམས་ཅད་	-13798
ལན་གསུམ་དུ་བ	-13799
ས་སྡུག་བསྔལ་	-13800
▁countryside	-13801
▁illusionist	-13802
▁manifesting	-13803
▁transferred	-13804
▁དེ་དག་གིས་ད	-13805
དུད་བརྗེད་ངས་	-13806
འི་དུས་ལ་བབ་པ	-13807
ལེའུ་ཞེས་བྱ་བ	-13808
ལྷུང་བཟེད་དང་	-13809
▁disintegrate	-13810
▁དེ་ནས་ཁྱེའུ་	-13811
ཉེ་བར་ལེན་པའི་	-13812
ནི་འདི་ལྟ་སྟེ་	-13813
རབ་ཏུ་མཁྱེན་ཏེ	-13814
▁conceptualize	-13815
▁སེམས་ཅན་རྣམས་	-13816
་དེ་དེ་བཞིན་ཏེ་	-13817
ཀྱང་བླ་ན་མེད་པ་	-13818
ཐམས་ཅད་དང་བྲལ་བ	-13819
ཐོགས་པ་མེད་པའི་	-13820
ནི་བྱང་ཆུབ་བོ་་	-13821
འི་དེ་བཞིན་ཉིད་	-13822
ཡེ་ཤེས་གཟིགས་པ་	-13823
་དེའི་ཕ་རོལ་གྱི་	-13824
གཉི་གའི་བར་ན་ཡང་	-13825
ན་བཅོམ་ལྡན་འདས་ད	-13826
ནི་བཅོམ་ལྡན་འདས་	-13827
ཚུར་ཤོག་ཅེས་བྱ་བ	-13828
ཡང་དག་པར་ཞུགས་པ་	-13829
ཡིད་དུ་མི་འོང་བ་	-13830
hu	-13831
iet	-13832
ocr	-13833
ump	-13834
སད་	-13835
▁རྟ	-13836
ambi	-13837
atim	-13838
haka	-13839
peci	-13840
ཀ་ར་	-13841
ང་པ་	-13842
ཕའི་	-13843
ཕུད་	-13844
འཆར་	-13845
▁lat	-13846
▁lit	-13847
▁nur	-13848
▁obl	-13849
▁soc	-13850
▁tur	-13851
▁web	-13852
▁ནད་	-13853
iddha	-13854
rived	-13855
་རོག་	-13856
གང་བྱ	-13857
གཅོད་	-13858
གསང་བ	-13859
ཉིན་ད	-13860
ཏུང་བ	-13861
ཚེ་ན་	-13862
འབད་པ	-13863
ཡི་དག	-13864
རྨ་བྱ	-13865
▁camp	-13866
▁cant	-13867
▁exhi	-13868
▁ghos	-13869
▁grad	-13870
▁guid	-13871
▁immo	-13872
▁kasi	-13873
▁latt	-13874
▁meat	-13875
▁quad	-13876
▁ride	-13877
▁soul	-13878
▁susp	-13879
▁wait	-13880
▁དགའ་	-13881
ateful	-13882
avored	-13883
japati	-13884
yadars	-13885
ང་བཅས་	-13886
ཐོས་ན་	-13887
མིང་བཏ	-13888
རི་བོ་	-13889
རིགས་བ	-13890
རྫིང་བ	-13891
ཤིག་ཅེ	-13892
ས་པ་ལ་	-13893
སྙམ་དུ	-13894
སྤངས་པ	-13895
ུང་སྟེ	-13896
ོང་ནས་	-13897
▁coins	-13898
▁cries	-13899
▁heaps	-13900
▁ruler	-13901
▁untou	-13902
▁vedas	-13903
་དང་་སླ	-13904
གཞན་གང་	-13905
ཅི་འཚལ་	-13906
ཅིག་དེ་	-13907
ན་པའོ་་	-13908
མགོན་པོ	-13909
རང་གིས་	-13910
ལས་ཐར་བ	-13911
ཤེས་སམ་	-13912
ས་སྲོག་	-13913
སྐྱོད་པ	-13914
▁debate	-13915
▁especi	-13916
▁handed	-13917
▁righte	-13918
▁scents	-13919
▁stages	-13920
▁ཐུབ་པ་	-13921
▁ཤེས་རབ	-13922
ཁོ་བོའི་	-13923
ཁྱོད་དང་	-13924
ཁྲོ་བའི་	-13925
གཅིག་ནི་	-13926
ཆོས་ཀྱང་	-13927
ཉེ་རྒྱལ་	-13928
ད་འཚོང་མ	-13929
ནེམ་ནུར་	-13930
མ་སྐྱེས་	-13931
མི་སྐྱེ་	-13932
འདྲ་སྟེ་	-13933
འོ་མ་དང་	-13934
ཡེ་ཤེས་ད	-13935
ར་ཡང་མི་	-13936
རྐང་པ་ལ་	-13937
རྐང་པའི་	-13938
ལ་བཀོད་པ	-13939
ཤིང་དང་་	-13940
སྟོན་ཏེ་	-13941
སྨྲས་པ་བ	-13942
▁anguish	-13943
▁baskets	-13944
▁beliefs	-13945
▁despair	-13946
▁indulge	-13947
▁nowhere	-13948
▁scatter	-13949
▁tremend	-13950
▁སྡིག་པ་	-13951
amaprapta	-13952
གདུགས་དང་	-13953
ཆེན་པོ་དེ	-13954
ཉིས་བརྒྱ་	-13955
ནི་དེ་དག་	-13956
འགྲོ་བ་ལྔ	-13957
འཐོབ་བོ་་	-13958
འདོད་པ་ན་	-13959
རྣབ་སེམས་	-13960
ལ་དེ་ལྟར་	-13961
▁exertion	-13962
▁fixation	-13963
▁ideation	-13964
▁kausambi	-13965
▁obscured	-13966
▁voidness	-13967
▁འདུ་ཤེས་	-13968
་དེད་དཔོན་	-13969
་བྱེད་པའི་	-13970
གེ་སློང་གི	-13971
ནི་རྟག་ཏུ་	-13972
མཐའ་ཡས་མུ་	-13973
འི་བར་དུ་ད	-13974
ཡན་ལག་བཞི་	-13975
རྗེད་པ་དང་	-13976
ུས་སྨྲས་པ་	-13977
▁affection	-13978
▁countries	-13979
▁deception	-13980
▁faultless	-13981
▁mahendras	-13982
▁rejoicing	-13983
▁respected	-13984
▁searching	-13985
▁therefrom	-13986
་དང་་བདུག་པ	-13987
ཀྱི་བསྟན་པ་	-13988
གང་ཡང་རུང་བ	-13989
གཉིས་ཀྱིས་བ	-13990
གས་སུ་གསོལ་	-13991
དག་གིས་ཀྱང་	-13992
མ་གྱུར་ཅིག་	-13993
མ་ཡིན་པར་འཆ	-13994
མི་ནུས་སོ་་	-13995
མེད་པ་དང་་བ	-13996
ལས་སྐྱེས་པ་	-13997
སྟོན་པ་དང་་	-13998
སྤྱོད་པ་ལས་	-13999
▁astonished	-14000
▁discerning	-14001
▁especially	-14002
▁kumbhandas	-14003
▁stinginess	-14004
▁ཁ་ཅིག་གིས་	-14005
▁དེས་སྨྲས་པ	-14006
▁འདི་ལྟ་སྟེ	-14007
གནས་གཙང་མའི་	-14008
ཇི་སྙེད་ཅིག་	-14009
ཉོན་ལ་ཡིད་ལ་	-14010
ཐོགས་པ་མེད་པ	-14011
ནས་བྱུང་སྟེ་	-14012
འི་ཕྱིར་དང་་	-14013
རིག་པར་བྱའོ་	-14014
རྟག་ཅེས་བྱ་བ	-14015
▁conceptions	-14016
▁distinctive	-14017
▁དེས་བསམས་པ་	-14018
▁བཙུན་པ་བདག་	-14019
་དང་ལྡན་པས་བྱ	-14020
་དེ་ལ་སྨྲས་པ་	-14021
ཉིན་དུས་གསུམ་	-14022
ར་འཚང་རྒྱའོ་་	-14023
རབ་ཏུ་འབྱིན་པ	-14024
ལྟ་བར་གྱུར་པ་	-14025
སྔོན་གྱི་མཐའ་	-14026
▁jaliniprabha	-14027
▁ཏིང་ངེ་འཛིན་	-14028
མངོན་པར་དགའ་བ་	-14029
མཚན་མ་མེད་པའི་	-14030
འདོད་པ་རྣམས་ལ་	-14031
རྗེས་སུ་དྲན་པ་	-14032
ལ་བྱ་ཀ་ལན་ད་ཀ་	-14033
▁inappropriate	-14034
་དགེ་འདུན་གྱིས་	-14035
་དེ་དག་ཐམས་ཅད་བ	-14036
ཁམས་དང་་མིག་གི་	-14037
གཅིག་ཏུ་གཟར་ནས་	-14038
ཆེན་པོ་སང་སང་པོ	-14039
མངོན་པར་འགྲུབ་པ	-14040
མི་དགེ་བའི་ཆོས་	-14041
ཡིད་ལ་བྱེད་པ་ན་	-14042
རྣམ་གྲངས་དེས་ན་	-14043
རྫུ་འཕྲུལ་གྱིས་	-14044
སྐྱེ་བར་འགྱུར་བ	-14045
སྟོང་པ་ཉིད་ཀྱི་	-14046
▁དེ་ནས་དེའི་ཚེ་	-14047
ཐམས་ཅད་ཡང་དག་པར་	-14048
མཚན་ཉིད་མེད་པའི་	-14049
ཞིང་ཡོངས་སུ་དག་པ	-14050
ལྟ་བར་གནས་པ་དེ་ད	-14051
▁ཐམས་ཅད་མཁྱེན་པ་	-14052
▁པད་མའི་དཔལ་གྱི་	-14053
▁སྲིད་པའི་རྙེད་པ	-14054
ེད	-14055
▁z	-14056
ram	-14057
ནུབ	-14058
ཙི་	-14059
▁ཁ་	-14060
eper	-14061
[...]
