<unk>	0
<s>	0
</s>	0
ས་	-0
▁t	-1
་བ	-2
▁th	-3
་ད	-4
▁a	-5
▁the	-6
ི་	-7
་པ	-8
ང་	-9
in	-10
▁o	-11
ན་	-12
re	-13
ར་	-14
at	-15
▁w	-16
▁s	-17
en	-18
▁b	-19
er	-20
nd	-21
is	-22
ེ་	-23
on	-24
ོ་	-25
▁of	-26
ག་	-27
ed	-28
ས་པ	-29
▁h	-30
ུ་	-31
es	-32
ing	-33
མས་	-34
ད་	-35
ལ་	-36
it	-37
▁p	-38
འི་	-39
▁and	-40
ou	-41
▁f	-42
▁m	-43
་པ་	-44
མ་	-45
ྱི	-46
▁c	-47
འད	-48
▁d	-49
་དང་	-50
or	-51
ll	-52
as	-53
▁in	-54
an	-55
་བྱ	-56
ar	-57
▁n	-58
▁to	-59
ན་པ	-60
ས་ས	-61
ion	-62
▁be	-63
ས་བ	-64
om	-65
le	-66
་ས	-67
ent	-68
▁wh	-69
▁e	-70
ོ་་	-71
▁g	-72
ct	-73
ཀྱ	-74
གྱ	-75
ཞི	-76
ང་བ	-77
ྒྱ	-78
ེ་བ	-79
རྣ	-80
al	-81
▁ད	-82
རྒྱ	-83
▁on	-84
▁re	-85
se	-86
ce	-87
་དག	-88
ow	-89
ེམས་	-90
ས་པ་	-91
ཤེ	-92
ེད	-93
▁l	-94
ve	-95
་དང་་	-96
od	-97
ess	-98
ra	-99
▁is	-100
ནས་	-101
གས་	-102
ot	-103
་པར་	-104
ལྟ	-105
ནི་	-106
gh	-107
▁he	-108
་དུ་	-109
▁that	-110
ld	-111
ོས་	-112
▁as	-113
གྱུ	-114
ཀྱི་	-115
བ་	-116
▁i	-117
་དེ་	-118
▁they	-119
▁u	-120
ith	-121
སྟ	-122
སྐ	-123
ཡི	-124
་དག་	-125
th	-126
▁k	-127
ir	-128
ཀྱི	-129
ལྡ	-130
གས་པ	-131
ly	-132
ch	-133
ར་བ	-134
▁with	-135
ངས་	-136
ill	-137
འདི་	-138
ཏུ་	-139
ཆུ	-140
འི	-141
མི་	-142
ha	-143
▁one	-144
རྣམས་	-145
་དེ	-146
▁ha	-147
ྱོ	-148
ta	-149
▁y	-150
us	-151
ིག་	-152
ལ་བ	-153
ན་པ་	-154
im	-155
ོང	-156
▁for	-157
ay	-158
▁are	-159
ght	-160
▁བ	-161
▁su	-162
▁v	-163
ར་བྱ	-164
ers	-165
་སེམས་	-166
ོན་	-167
ང་ཆུ	-168
གྱུར་	-169
▁not	-170
▁it	-171
ings	-172
དཔ	-173
ཏེ་	-174
▁bod	-175
ན་ག	-176
am	-177
▁you	-178
ཉི	-179
མེད	-180
ut	-181
་སེམས་དཔ	-182
ཆེ	-183
ཅོ	-184
ud	-185
ri	-186
▁this	-187
གྲ	-188
ེད་	-189
རྟ	-190
▁དེ་	-191
att	-192
▁all	-193
ེ་བཞི	-194
ིང་	-195
ོང་	-196
▁who	-197
ལྡན་	-198
ོད	-199
ic	-200
ation	-201
id	-202
ect	-203
རབ་	-204
▁will	-205
ak	-206
ཕྱི	-207
attv	-208
ཡང་	-209
་སེམས་དཔའ	-210
ཆོས་	-211
▁an	-212
ble	-213
འབ	-214
▁con	-215
ma	-216
▁li	-217
ས་བྱ	-218
ge	-219
his	-220
མས་ཅ	-221
ཐམས་ཅ	-222
རི	-223
ང་ཆུབ	-224
ས་ད	-225
▁per	-226
less	-227
▁bodhis	-228
ous	-229
ཅོམ་	-230
li	-231
▁bodhisattv	-232
ྱེ	-233
འཇ	-234
་པའི་	-235
ཅོམ་ལྡན་	-236
སེམས་	-237
ཡང	-238
ཅོམ་ལྡན་འད	-239
▁at	-240
ere	-241
་དུ	-242
ོད་	-243
ul	-244
ས་སུ་	-245
གི	-246
ad	-247
ro	-248
ཡིན་	-249
དག་	-250
སྤ	-251
end	-252
་བ་	-253
སྙ	-254
▁de	-255
now	-256
རྣམ	-257
གང་	-258
གྱི་	-259
ཆེན་པ	-260
▁se	-261
ཐམས་ཅད་	-262
▁beings	-263
▁do	-264
མི	-265
udd	-266
ཞེ	-267
གས	-268
འི་བ	-269
གྱི	-270
har	-271
▁know	-272
ལྷ	-273
▁ex	-274
reat	-275
ment	-276
▁fr	-277
ོག	-278
་པོ་	-279
ུང་བ	-280
ུག	-281
ུང་	-282
ver	-283
མང	-284
ངས་རྒྱ	-285
▁or	-286
qu	-287
ང་ཆུབ་སེམས་དཔའ	-288
▁have	-289
▁budd	-290
ཡང་དག	-291
▁sh	-292
མཆ	-293
ཅོམ་ལྡན་འདས་	-294
ould	-295
ions	-296
འགྱུར་	-297
ོག་	-298
ose	-299
▁perf	-300
་ར	-301
ur	-302
ན་དུ་	-303
one	-304
ོན་པ	-305
▁by	-306
pt	-307
▁com	-308
and	-309
▁his	-310
▁no	-311
ལས་	-312
▁un	-313
▁great	-314
ans	-315
▁from	-316
ུན་	-317
མཐ	-318
་པོ	-319
གཞ	-320
pp	-321
་བས	-322
ོལ་	-323
▁their	-324
མཁ	-325
▁perfect	-326
ive	-327
▁bless	-328
▁wor	-329
st	-330
▁man	-331
▁there	-332
ཀྱང་	-333
▁blessed	-334
ate	-335
ind	-336
▁those	-337
གི་	-338
་དེ་བཞི	-339
ོགས་པ	-340
ཇི་	-341
ཉིད་	-342
ci	-343
ལྟ་བ	-344
ach	-345
ལྟར་	-346
um	-347
ན་གཤེ	-348
སངས་རྒྱ	-349
red	-350
led	-351
རྩ	-352
▁st	-353
▁dhar	-354
tain	-355
▁dis	-356
iv	-357
▁so	-358
▁ab	-359
འོ་་	-360
སྦ	-361
ོ་བ	-362
སྐྱ	-363
ྲི	-364
རྫ	-365
ence	-366
་སྟ	-367
དང་	-368
▁tr	-369
▁bodhisattva	-370
ནི	-371
▁dharma	-372
ure	-373
il	-374
ཤེས་	-375
▁en	-376
ཡོང	-377
གན	-378
▁was	-379
ཀྱིས་	-380
ཅིག་	-381
▁j	-382
སླ	-383
རྟེ	-384
རྗ	-385
ity	-386
▁sa	-387
▁te	-388
ུལ་	-389
ཕྱིར་	-390
ated	-391
གཟ	-392
་དེ་དག་	-393
ཅན་	-394
▁them	-395
ine	-396
་དབ	-397
▁དེ	-398
▁wis	-399
ུས་	-400
▁when	-401
ས་སོ་་	-402
རྣམ་པར་	-403
▁thus	-404
ས་པར་	-405
est	-406
ies	-407
▁we	-408
་དཔ	-409
ome	-410
ུགས་	-411
ke	-412
ond	-413
ུ་བ	-414
་དྲ	-415
os	-416
ff	-417
▁bec	-418
མ་བ	-419
ཡང་དག་པར་	-420
▁buddha	-421
ter	-422
ིག	-423
འདི	-424
སྨ	-425
ས་པའི་	-426
▁al	-427
au	-428
འགྲ	-429
▁ar	-430
ཕྱ	-431
ད་པ་	-432
ledge	-433
ུག་	-434
▁then	-435
▁me	-436
ple	-437
ོབ	-438
▁knowledge	-439
out	-440
ཞེས་བྱ	-441
སྒ	-442
ོར་	-443
ཀྱི་བ	-444
ore	-445
རབ་ཏུ་	-446
ྱོད་	-447
འཇིག་	-448
▁should	-449
▁ma	-450
རྒྱལ	-451
གིས་	-452
▁teach	-453
སྡ	-454
ཤེས་པ་	-455
ard	-456
ant	-457
མཚ	-458
འཁ	-459
ན་གཤེགས་པ	-460
སངས་རྒྱས་	-461
ther	-462
འཇིག་རྟེ	-463
▁sp	-464
འཛ	-465
ath	-466
ness	-467
▁em	-468
མེད་	-469
▁up	-470
▁what	-471
able	-472
འ་	-473
ist	-474
old	-475
▁ph	-476
ན་བ	-477
ིན་	-478
has	-479
རྫོགས་པ	-480
མ་པ་	-481
ཆེན་པོ་	-482
ip	-483
▁le	-484
ཞིང་	-485
▁aw	-486
མེད་པ་	-487
འ་བ	-488
▁und	-489
hag	-490
ms	-491
སྟེ་	-492
▁pra	-493
་པ་དང་་	-494
ཡོངས་སུ་	-495
▁real	-496
rou	-497
སྲ	-498
ood	-499
གས་པ་	-500
ame	-501
▁world	-502
འི་ཚ	-503
ire	-504
་པར་བྱ	-505
▁bodhisattvas	-506
▁pre	-507
མངོན་པ	-508
ast	-509
ཁམས་	-510
gone	-511
ཅེ	-512
ks	-513
▁him	-514
▁trans	-515
▁thusgone	-516
▁mind	-517
འཕ	-518
▁like	-519
ord	-520
ཏོ་་	-521
▁fe	-522
ong	-523
ener	-524
our	-525
ཕ་ར	-526
ful	-527
ཀུན་	-528
av	-529
ree	-530
▁ac	-531
ight	-532
འབྱ	-533
ཕ་རོལ་	-534
གཏ	-535
light	-536
ass	-537
ust	-538
ོང་བ	-539
ཅིང་	-540
▁ne	-541
▁qu	-542
pl	-543
▁དེ་བཞི	-544
▁these	-545
ue	-546
གྱིས་	-547
་དང་ལྡ	-548
▁tim	-549
dom	-550
▁has	-551
▁int	-552
▁how	-553
ུང	-554
▁unders	-555
ནས་ད	-556
་དང་བ	-557
▁app	-558
འཇིག་རྟེན་	-559
tand	-560
སྣ	-561
ེར་	-562
cend	-563
ཡི་	-564
▁had	-565
་པ་དང་	-566
▁inc	-567
ེ་བ་	-568
▁king	-569
el	-570
ities	-571
ོགས་	-572
▁pro	-573
all	-574
ེ་སླ	-575
འཚ	-576
ish	-577
ཡིན་ན	-578
▁wisdom	-579
ving	-580
▁if	-581
omen	-582
འམ་	-583
ཁྱོད་	-584
ོར་བ	-585
མཁྱེ	-586
so	-587
ང་ཆུབ་	-588
ac	-589
▁whi	-590
མཛ	-591
ནས་བ	-592
ana	-593
ན་པའི་	-594
་དེ་བཞིན་གཤེགས་པ	-595
▁mon	-596
▁understand	-597
▁transcend	-598
ie	-599
ང་ཆུབ་སེམས་དཔའ་	-600
་དོ་་	-601
▁pr	-602
རོ་་	-603
མངོན་པར་	-604
ོད་པ་	-605
▁god	-606
▁my	-607
▁were	-608
if	-609
་བཞི	-610
་སེམས་དཔའ་	-611
ཤིང་	-612
aken	-613
▁any	-614
ུམ་	-615
ཆེན་པོ	-616
ཕ་རོལ་ཏུ་	-617
me	-618
གཉི	-619
སྐྱེ	-620
ན་བྱ	-621
འདུ	-622
te	-623
་བརྒྱ	-624
▁act	-625
་དང	-626
▁sub	-627
རིགས་	-628
འགྱུ	-629
ult	-630
གནས་	-631
སྔ	-632
བས་	-633
ཕ་རོལ་ཏུ་ཕྱི	-634
སྒྲ	-635
nt	-636
▁being	-637
མོ་	-638
▁attain	-639
▁noble	-640
ར་འགྱུར་	-641
ན་གྱི	-642
མྱ	-643
und	-644
་སྟེ་	-645
ག་པ་	-646
enomen	-647
▁phenomen	-648
hi	-649
འདྲ	-650
ཡང་དག་པར་རྫོགས་པ	-651
irt	-652
མཉ	-653
ཅི	-654
ering	-655
སེམས་ཅན་	-656
འགྱུར་བ	-657
▁cons	-658
ven	-659
▁ro	-660
▁son	-661
▁such	-662
▁may	-663
ens	-664
་བད	-665
▁transcendent	-666
▁way	-667
▁awaken	-668
ླ་	-669
ཤེས་པ	-670
ake	-671
ུར་	-672
ལམ་	-673
ས་སྨ	-674
དང་་	-675
ance	-676
rough	-677
lighten	-678
▁enlighten	-679
ས་དང་	-680
▁other	-681
▁pract	-682
▁through	-683
▁phenomena	-684
ice	-685
ལེ	-686
ཞེ་	-687
▁sar	-688
▁ri	-689
▁perfection	-690
ause	-691
ཁྱི	-692
ུང་བ་	-693
ལ་བ་	-694
ations	-695
སྐད་	-696
འག	-697
སྦྱི	-698
ཞིག་	-699
ེད་པ་	-700
རྗེ	-701
iness	-702
འོ་	-703
ound	-704
ུད་	-705
སྤྱོ	-706
▁cor	-707
▁res	-708
et	-709
▁ele	-710
pre	-711
cept	-712
per	-713
ད་དུ་	-714
ུབ	-715
▁ent	-716
▁said	-717
གྱུར	-718
▁time	-719
▁buddhas	-720
▁lord	-721
མཐོང་	-722
མོ	-723
gn	-724
ara	-725
▁acc	-726
▁without	-727
ཁྱ	-728
མ་དུ་	-729
▁ones	-730
▁ask	-731
་བྱང་ཆུབ་	-732
ཆོ	-733
ཏུ	-734
▁im	-735
cious	-736
▁བཅོམ་ལྡན་འདས་	-737
ད་པ	-738
ered	-739
ཁྲ	-740
གང	-741
ང་པོ་	-742
ace	-743
orn	-744
་བའི་	-745
athag	-746
athagat	-747
ཐོས་	-748
▁tathagat	-749
rect	-750
ཕྲ	-751
uct	-752
ag	-753
ེ་བའི་	-754
oy	-755
▁comple	-756
enti	-757
▁form	-758
▁four	-759
འདི་ལྟ	-760
▁vener	-761
ise	-762
ས་སྨྲ	-763
རྒྱལ་པོ་	-764
ber	-765
ན་དུ	-766
sel	-767
ink	-768
utra	-769
▁correct	-770
་དགའ་བ	-771
རིགས་ཀྱི་བ	-772
ཤིན་	-773
fore	-774
▁rel	-775
ཏེ	-776
▁བྱ	-777
rah	-778
▁gods	-779
▁fo	-780
▁empt	-781
▁also	-782
iputra	-783
ain	-784
་བྱེད་	-785
▁fl	-786
▁see	-787
ལ་པ་	-788
་དང་ལྡན་པ་	-789
uti	-790
ཇི་ལྟར་	-791
▁off	-792
▁des	-793
ok	-794
hold	-795
▁which	-796
ཀའ	-797
ངོ་་	-798
ouse	-799
གཞན་	-800
ག་ཏུ་	-801
་བདག་	-802
མཆོག་	-803
▁into	-804
འི་བུ་	-805
▁brah	-806
ུའི་	-807
ap	-808
▁some	-809
ཅི་	-810
▁cond	-811
rain	-812
▁go	-813
ལག	-814
མཆི	-815
ཡིན་པ	-816
ར་གྱུར་	-817
▁pow	-818
གཟུགས་	-819
age	-820
གལ་	-821
▁house	-822
leas	-823
▁your	-824
འཛི	-825
▁element	-826
ཚེ	-827
▁can	-828
▁thou	-829
▁am	-830
ཤེས་རབ་	-831
oss	-832
ལྷ་	-833
ual	-834
ཕྱོ	-835
འབྲ	-836
▁body	-837
▁di	-838
▁དག	-839
▁pe	-840
ལུས་	-841
▁non	-842
ide	-843
ཡིད་	-844
་ཏ	-845
iz	-846
ng	-847
ཞེ་ན་	-848
ཆོས་ཀྱི་	-849
▁many	-850
ature	-851
▁qual	-852
འབྱོ	-853
ེ་བར་	-854
pass	-855
་སྩ	-856
oth	-857
▁but	-858
▁complete	-859
གཅིག་	-860
▁pleas	-861
▁because	-862
ོད་པ	-863
undred	-864
ཀྱིས་བ	-865
▁hundred	-866
ངན་	-867
ཀའ་སྩ	-868
ཐོབ	-869
ན་ད	-870
་བསྔ	-871
མེད་པའི་	-872
སྐད་ཅེ	-873
▁become	-874
་དང་་ས	-875
▁r	-876
ཞི་	-877
ious	-878
ོམ	-879
ཉོན་	-880
ཀུ	-881
ousand	-882
མེ་	-883
ས་སོ་	-884
ative	-885
▁thousand	-886
་བྱེད	-887
▁དེ་ནས་	-888
འོད་	-889
▁qualities	-890
▁sim	-891
ལགས་	-892
▁nor	-893
མཁྱེན་	-894
▁enlightenment	-895
▁her	-896
རྒྱལ་པོ	-897
་དེ་ནི་	-898
སྨྲ	-899
▁si	-900
ol	-901
འཆ	-902
་པར་འགྱུར་	-903
ངོ་་་	-904
ང་པོ	-905
irth	-906
▁nature	-907
གད	-908
ཁྲི	-909
ཡིན་ནོ་་	-910
▁forth	-911
གཉིས་	-912
▁even	-913
ཁྱེ	-914
ེའི་	-915
ང་བ་	-916
▁path	-917
ory	-918
▁poss	-919
▁virt	-920
ss	-921
▁would	-922
སྟེ	-923
▁correctly	-924
▁monks	-925
ical	-926
aught	-927
▁thought	-928
▁venerable	-929
▁med	-930
མད	-931
entient	-932
ང་ཆུབ་སེམས་དཔ	-933
un	-934
▁think	-935
▁hum	-936
▁out	-937
ཀྱི་ཕ་རོལ་ཏུ་ཕྱི	-938
མཚན་	-939
▁suff	-940
▁sentient	-941
▁ag	-942
ར་བྱེད	-943
▁household	-944
ཞུ	-945
▁དེ་བཞིན་དུ་	-946
llow	-947
ཐོ	-948
གཡ	-949
ys	-950
ས་སྟ	-951
་དུས་	-952
་བྱུང་	-953
▁ob	-954
▁att	-955
ab	-956
ilar	-957
▁af	-958
▁just	-959
▁ad	-960
རྣམས་ཀྱི་	-961
ons	-962
▁conc	-963
ite	-964
▁similar	-965
ུན་པ	-966
▁rep	-967
ན་གཤེགས་པ་	-968
འཁོར་	-969
གསོལ་	-970
འདི་སྐད་ཅེ	-971
▁teaching	-972
སྦྱ	-973
are	-974
▁understands	-975
vat	-976
ས་སུ་བ	-977
འི་ཕྱིར་	-978
ཞེས་	-979
ཡེ་	-980
▁having	-981
ཚེ་	-982
ནམ་	-983
▁bl	-984
ates	-985
དག	-986
ུམ	-987
▁ཤ	-988
ves	-989
མེད་པ	-990
སྤྱ	-991
▁བདག་	-992
་དེ་ལ་	-993
སེམས་ཅ	-994
འདི་ནི་	-995
་བཅོ	-996
རྣམས་ལ་	-997
▁ten	-998
ར་དུ་	-999
▁same	-1000
ort	-1001
ཇི་ལྟ་བ	-1002
རྙ	-1003
སངས་རྒྱས་ཀྱི་	-1004
▁awakening	-1005
ླ་ན་	-1006
ཏིང་	-1007
ible	-1008
ཁྱིམ་བ	-1009
ེ་སློང་	-1010
▁bhag	-1011
མ་ཡིན་	-1012
རྐ	-1013
འདི་དག་	-1014
▁bhagav	-1015
ull	-1016
ཞེས་བྱ་བ	-1017
ས་དེ་	-1018
ོང་པ་	-1019
ལྔ	-1020
▁well	-1021
འདུ་	-1022
▁does	-1023
vel	-1024
▁after	-1025
lud	-1026
▁practice	-1027
▁lo	-1028
ཤིན་ཏུ་	-1029
▁about	-1030
སྡུག	-1031
མོང	-1032
ལ་ལ	-1033
▁tw	-1034
ོན་པ་	-1035
▁emptiness	-1036
▁similarly	-1037
རབ་ཏུ་མཁྱེན་	-1038
ཉིད	-1039
་བྱས་	-1040
ear	-1041
huti	-1042
་ར་ད	-1043
▁pl	-1044
▁exist	-1045
▁supre	-1046
▁possess	-1047
▁aff	-1048
རབ་འབྱོ	-1049
▁supreme	-1050
▁subhuti	-1051
tin	-1052
་ཏི	-1053
ved	-1054
་བཟ	-1055
lied	-1056
▁asked	-1057
ds	-1058
lict	-1059
ཚོགས་	-1060
▁sk	-1061
་དགྲ	-1062
སུ་	-1063
རྒྱ་	-1064
ོན་ན	-1065
་དེས་	-1066
འཛིན་	-1067
ཉོན་མོང	-1068
་ར་དྭ	-1069
▁follow	-1070
▁related	-1071
▁liber	-1072
▁ind	-1073
pect	-1074
▁end	-1075
་ར་དྭ་ཏི	-1076
རྡ	-1077
▁sarad	-1078
ays	-1079
སྙམ་དུ་	-1080
▁mer	-1081
▁wish	-1082
▁saradvat	-1083
▁cl	-1084
▁saradvatiputra	-1085
▁conscious	-1086
▁abs	-1087
ནས་བཅོམ་ལྡན་འདས་	-1088
▁རིགས་ཀྱི་བ	-1089
ition	-1090
▁consciousness	-1091
་བཞིན་	-1092
་བཅོམ་པ་	-1093
མག	-1094
སོང་	-1095
▁གང་	-1096
ླ་ན་མེད་པ་	-1097
min	-1098
▁householder	-1099
ས་སྤ	-1100
རྗེས་སུ་	-1101
ཚུལ་	-1102
ས་སུ	-1103
ཅུ་	-1104
▁pres	-1105
ེ་སློང	-1106
ན་པོ་	-1107
cell	-1108
མྱ་	-1109
▁been	-1110
▁br	-1111
▁medit	-1112
ཁ་	-1113
གླ	-1114
urn	-1115
ཚེ་དང་ལྡན་པ་	-1116
▁three	-1117
▁sam	-1118
▁suffering	-1119
▁where	-1120
essation	-1121
རང་	-1122
▁afflict	-1123
▁cessation	-1124
▁realms	-1125
art	-1126
རྣམ་	-1127
སྟོབ	-1128
▁lif	-1129
རྒྱལ་	-1130
གཞོན་ན	-1131
སྤྱོད་པ་	-1132
མ་ཟ	-1133
ན་གྱི་	-1134
str	-1135
ོག་པ་	-1136
ལ་པ	-1137
ེས་པ	-1138
ཚང	-1139
ཕྱོགས་	-1140
ཕྱག་	-1141
▁ey	-1142
རིག	-1143
རྣམ་པ་	-1144
hat	-1145
▁now	-1146
▁eight	-1147
▁bhagavan	-1148
▁ord	-1149
་དེའི་	-1150
▁tathagata	-1151
འབྱུང་བ	-1152
ོས་པ	-1153
▁ill	-1154
ོགས་པ་	-1155
གྱི་བ	-1156
སྙམ་	-1157
ince	-1158
ceiv	-1159
ཏུ་བ	-1160
་དམི	-1161
ན་་	-1162
▁replied	-1163
▁five	-1164
ངེ་	-1165
▁sha	-1166
▁long	-1167
ང་དུ་	-1168
▁free	-1169
ཡང་དག་པ་	-1170
ount	-1171
thers	-1172
མྱ་ངན་	-1173
▁its	-1174
▁things	-1175
ཀླ	-1176
▁others	-1177
རྣམ་པ	-1178
འཇིག་རྟེན་གྱི་	-1179
▁fa	-1180
▁arhat	-1181
gin	-1182
▁includ	-1183
འི་ཚེ་	-1184
གས་པའི་	-1185
ས་སྐ	-1186
རོ་	-1187
▁conduct	-1188
▁nam	-1189
འི་བྱང་ཆུབ་	-1190
▁ins	-1191
▁ve	-1192
▁uns	-1193
▁དེ་དག་	-1194
▁manif	-1195
ཏིང་ངེ་	-1196
ཐམས་ཅད	-1197
སྟན་པ་	-1198
མེད་པར་	-1199
སྲི	-1200
▁why	-1201
ade	-1202
འཐ	-1203
▁reg	-1204
▁gener	-1205
ོ་བ་	-1206
ན་དང་་	-1207
་་	-1208
▁sen	-1209
མེ་ཏ	-1210
▁manifest	-1211
མིག་	-1212
་དགྲ་བཅོམ་པ་	-1213
འཇུག	-1214
ཆགས་	-1215
འི་དུས་	-1216
ཆོས་ཐམས་ཅད་	-1217
ces	-1218
ied	-1219
▁ver	-1220
▁she	-1221
▁words	-1222
ater	-1223
ས་བུ་	-1224
ཟླ	-1225
▁come	-1226
འཕྲ	-1227
ཅེས་བྱ	-1228
▁el	-1229
ན་པར་	-1230
་དོ་	-1231
▁pers	-1232
ཡེ་ཤེས་	-1233
cl	-1234
ྲམ་ཟ	-1235
གྲངས་	-1236
ཅག་	-1237
་སྐ	-1238
གཙ	-1239
▁flow	-1240
▁བཙ	-1241
▁taught	-1242
མ་གཏ	-1243
▁spe	-1244
ཚིག	-1245
ished	-1246
▁ལྷ	-1247
འི་བུ	-1248
▁root	-1249
sh	-1250
སྡུག་བསྔ	-1251
་དང་་བ	-1252
འི་སངས་རྒྱས་	-1253
igh	-1254
▁past	-1255
་དེ་ལྟར་	-1256
མ་ཡི	-1257
སྟོང་པ་	-1258
ོལ་བ	-1259
གྱུར་པ་	-1260
སྐྱེད	-1261
ན་གྱིས་	-1262
ཅིག	-1263
▁young	-1264
ew	-1265
thing	-1266
རིན་པོ་	-1267
ཤི	-1268
ཡང་དག་པ་ཇི་ལྟ་བ	-1269
▁om	-1270
རབ་ཏུ	-1271
▁therefore	-1272
tab	-1273
་དུ་བ	-1274
owed	-1275
ments	-1276
མའི་	-1277
ྒྲ	-1278
་དྲི་	-1279
▁call	-1280
▁including	-1281
▁ow	-1282
▁did	-1283
▁div	-1284
▁num	-1285
▁gu	-1286
ལས་འད	-1287
ell	-1288
མ་མཆི	-1289
ental	-1290
▁co	-1291
▁away	-1292
ig	-1293
▁completely	-1294
own	-1295
▁light	-1296
ཡིན་ནོ་	-1297
ས་་	-1298
དེ	-1299
ally	-1300
གསུམ་	-1301
ཏེ་་	-1302
self	-1303
ུལ	-1304
▁joy	-1305
ཉན་	-1306
ཆེ་	-1307
གཤེ	-1308
ས་པ་དང་་	-1309
ོད་ན	-1310
▁merit	-1311
▁realm	-1312
ase	-1313
ནི་བ	-1314
▁equ	-1315
▁pure	-1316
ཤིག་	-1317
་དེར་	-1318
aus	-1319
▁six	-1320
▁phys	-1321
མཐོང་བ	-1322
▁lead	-1323
▁ཤ་ར་དྭ་ཏི	-1324
སེ	-1325
་དཔལ་	-1326
▁རབ་འབྱོ	-1327
anda	-1328
▁whe	-1329
ཀའ་སྩལ་པ་	-1330
▁rema	-1331
▁sens	-1332
▁means	-1333
ཡོན་	-1334
▁dev	-1335
འི་དབ	-1336
▁brahmin	-1337
ry	-1338
སྟོང་	-1339
སྐྱེ་བ	-1340
▁made	-1341
rib	-1342
ati	-1343
▁power	-1344
▁make	-1345
ayana	-1346
▁mo	-1347
▁ref	-1348
▁ever	-1349
གཟི	-1350
illed	-1351
▁desire	-1352
tra	-1353
▁ra	-1354
ared	-1355
▁more	-1356
ཕྱག་འཚ	-1357
▁disci	-1358
་སྟེ	-1359
ras	-1360
་དཀ	-1361
▁birth	-1362
▁virtue	-1363
སྦྱར་	-1364
▁eng	-1365
▁heard	-1366
ནམ་མཁ	-1367
རྣམས་དང་་	-1368
▁po	-1369
ཞུགས་	-1370
ty	-1371
ཉེ	-1372
ern	-1373
ither	-1374
ior	-1375
▁remain	-1376
འདི་ལྟ་སྟེ་	-1377
▁disc	-1378
ར་བྱེད་	-1379
▁དེ་ནས་ད	-1380
སྙམ་དུ་སེམས་	-1381
ef	-1382
ཞེས་བྱ་བ་	-1383
▁high	-1384
རྨ	-1385
་བར་	-1386
ོད་ནམས་	-1387
ts	-1388
▁over	-1389
reh	-1390
ད་པར་	-1391
མས་པ་	-1392
rif	-1393
▁ཁྱིམ་བ	-1394
ཉི་	-1395
▁say	-1396
ད་པའི་	-1397
▁called	-1398
མི་འགྱུར་	-1399
ཕྱི་	-1400
འབྱུང་བ་	-1401
ཡོད	-1402
▁tow	-1403
ང་བཞི	-1404
སྨི	-1405
མཐའ་	-1406
ary	-1407
rav	-1408
ོའི་	-1409
▁kind	-1410
སྟན་	-1411
▁happ	-1412
ས་སེམས་	-1413
ཡུལ་	-1414
་དགེ་བའི་	-1415
urpass	-1416
▁never	-1417
▁discipl	-1418
▁upon	-1419
ས་དང་་	-1420
▁unsurpass	-1421
lf	-1422
ས་ནས་	-1423
ཀུན	-1424
བ་པ་	-1425
▁train	-1426
དེ་	-1427
ལ་ས	-1428
འདོད་	-1429
ས་སྨྲས་པ་	-1430
རླ	-1431
▁def	-1432
pen	-1433
ཐེ	-1434
▁forms	-1435
ས་དེ	-1436
ག་པ	-1437
་དང་བཅ	-1438
ph	-1439
ལོ་	-1440
ལ་བྱ	-1441
utes	-1442
▁reb	-1443
ལྟ་	-1444
ཆོས་བ	-1445
གནས་པ	-1446
▁two	-1447
འགྲོ་བ	-1448
སུམ་	-1449
ཉན་ཐོས་	-1450
mb	-1451
ོག་པར་	-1452
་དོ	-1453
▁fac	-1454
▁physical	-1455
་སྤ	-1456
▁chi	-1457
སྦྱོ	-1458
ས་ཏེ་	-1459
ཁྲིམས་	-1460
▁humans	-1461
▁rec	-1462
▁life	-1463
▁excell	-1464
▁before	-1465
ང་ཆུབ་སེམས་དཔའི་	-1466
ors	-1467
སྐྱོ	-1468
་དེ་ལྟ་བ	-1469
་དགེ་	-1470
ས་ཀྱི་	-1471
▁pass	-1472
ཉེ་བར་	-1473
▁child	-1474
གང་ཞེ་ན་	-1475
ུར་བ	-1476
གནས་པ་	-1477
▁existence	-1478
▁ear	-1479
འདི་ལྟར་	-1480
ལ་ཡང་	-1481
ས་བཅོམ་ལྡན་འདས་	-1482
་བཅོམ་ལྡན་འདས་	-1483
ཀྱང	-1484
རྩོན་	-1485
▁mahas	-1486
ges	-1487
ted	-1488
རྒ	-1489
མ་པ	-1490
ject	-1491
oun	-1492
▁stre	-1493
▁went	-1494
ཕུང	-1495
ྱིན་	-1496
རང་བཞི	-1497
མངོན་	-1498
▁full	-1499
་དེ་དག	-1500
ways	-1501
▁doct	-1502
ོམ་	-1503
ཁྱེའ	-1504
ན་དང་	-1505
་བཅ	-1506
▁excellent	-1507
▁tathagatas	-1508
ཡང་བ	-1509
▁named	-1510
▁དགེ་སློང	-1511
▁མ	-1512
▁meditative	-1513
འདུག་	-1514
ever	-1515
▁jew	-1516
▁accom	-1517
གང་དག་	-1518
▁mental	-1519
ople	-1520
uous	-1521
▁hand	-1522
hood	-1523
ants	-1524
▁absor	-1525
ལ་འདི་སྐད་ཅེ	-1526
irv	-1527
ཉོན་མོངས་པ་	-1528
ན་དག་	-1529
▁offer	-1530
▁present	-1531
ུལ་བ	-1532
ཡོན་ཏ	-1533
▁respect	-1534
▁divine	-1535
▁pal	-1536
▁caus	-1537
འཇམ	-1538
▁good	-1539
les	-1540
▁every	-1541
མེ་ཏོག་	-1542
ོ་བོ་	-1543
act	-1544
▁char	-1545
གལ་ཏེ་	-1546
▁actions	-1547
▁person	-1548
▁neither	-1549
སྙི	-1550
ོངས་	-1551
▁dire	-1552
ཚུལ་ཁྲིམས་	-1553
aj	-1554
▁hear	-1555
ར་བགྱི	-1556
མཁྱེན་པ་	-1557
སྤྱོད་	-1558
▁doctr	-1559
▁direct	-1560
་དེ་བཞིན་	-1561
སོ་	-1562
ུངས་	-1563
ེས་པར་	-1564
▁times	-1565
ating	-1566
▁jewel	-1567
▁people	-1568
ལག་	-1569
གོ་་	-1570
ཕྲག	-1571
▁roots	-1572
osity	-1573
་དགེ་སློང་	-1574
ས་ན་	-1575
▁shall	-1576
རབ	-1577
སྣ་	-1578
▁ext	-1579
▁flowers	-1580
aly	-1581
▁ori	-1582
▁born	-1583
illion	-1584
་དང་་་	-1585
ship	-1586
▁among	-1587
ack	-1588
▁ananda	-1589
སྒྱ	-1590
▁practic	-1591
▁while	-1592
ira	-1593
▁facult	-1594
▁origin	-1595
རྒྱལ་བ	-1596
ention	-1597
གས་པར་	-1598
ཤེས་པ་འག	-1599
▁སེམས་ཅན་	-1600
med	-1601
irvana	-1602
▁mahasattv	-1603
▁within	-1604
▁give	-1605
▁manj	-1606
གོས་	-1607
རྣམས་ཀྱིས་	-1608
ཀུན་དགའ་བ	-1609
isci	-1610
▁es	-1611
▁feel	-1612
tach	-1613
▁diff	-1614
entr	-1615
ཡོངས་སུ	-1616
op	-1617
▁delight	-1618
iew	-1619
་དོན་	-1620
འི་བྱ	-1621
▁omn	-1622
ོས་པོ་	-1623
ཏེ་བ	-1624
▁could	-1625
▁manjus	-1626
རི་	-1627
ཆེན་པོའི་	-1628
▁ben	-1629
▁pur	-1630
▁comp	-1631
▁view	-1632
▁order	-1633
▁omnisci	-1634
▁sak	-1635
itions	-1636
passion	-1637
ོད་པའི་	-1638
▁generosity	-1639
▁eons	-1640
▁very	-1641
ཅིང་་	-1642
ick	-1643
ན་པར་བྱ	-1644
ཆེན་	-1645
enu	-1646
▁wond	-1647
▁unsurpassed	-1648
▁བཅོམ་ལྡན་འད	-1649
ལུ	-1650
་དགའ་	-1651
་པར་གྱུར་	-1652
▁death	-1653
▁manjusri	-1654
ield	-1655
རྩོན་འགྲ	-1656
ep	-1657
▁tre	-1658
▁tru	-1659
རྫོགས་པར་	-1660
འཇིག	-1661
རྒྱུ	-1662
▁precious	-1663
སྙེ	-1664
▁mar	-1665
app	-1666
▁toward	-1667
gre	-1668
མ་ཐ	-1669
▁ཆོས་	-1670
▁right	-1671
▁regard	-1672
ན་པ་དང་་	-1673
selves	-1674
▁known	-1675
ར་འགྱུར་རོ་་	-1676
སྡུག་བསྔལ་	-1677
▁དེ་ལ་	-1678
གང་ཡིན་པ	-1679
udg	-1680
▁genu	-1681
ནང་	-1682
ཚིག་	-1683
▁genuine	-1684
▁buddhahood	-1685
▁བཙུན་པ	-1686
aks	-1687
▁doctrine	-1688
མྱ་ངན་ལས་འད	-1689
▁dre	-1690
▁take	-1691
▁compassion	-1692
▁brahma	-1693
▁sensory	-1694
▁ཇི་ལྟར་	-1695
་བླ	-1696
▁dr	-1697
▁lot	-1698
▁var	-1699
ཀྱང་བ	-1700
་རི	-1701
མ་གྱིས་	-1702
▁concentr	-1703
ཐབས་	-1704
མིང་	-1705
▁har	-1706
▁down	-1707
ཏོ་	-1708
རྗེ་	-1709
ex	-1710
▁fru	-1711
▁inf	-1712
▁absorpt	-1713
▁percept	-1714
▁attained	-1715
other	-1716
▁giv	-1717
▁self	-1718
ལགས་སོ་་	-1719
་དེ་བཞིན་དུ་	-1720
ཀ་	-1721
▁exper	-1722
གྱུར་པ	-1723
▁accompl	-1724
ཀུན་ཏུ་	-1725
▁bea	-1726
ན་པ་ལ་	-1727
་དཔག་ཏུ་	-1728
▁day	-1729
▁lim	-1730
ས་དེ་བཞི	-1731
གྲོང་	-1732
▁benef	-1733
▁lotus	-1734
▁state	-1735
མངོན་ས	-1736
asy	-1737
here	-1738
མཆོད་	-1739
▁རིགས་ཀྱི་བུ་	-1740
▁eyes	-1741
ོར	-1742
lig	-1743
udgaly	-1744
ཡན་	-1745
▁asp	-1746
གིས་བ	-1747
ེར་ན་	-1748
▁sound	-1749
▁attrib	-1750
ོང་དུ་	-1751
འབྱུང་	-1752
▁powers	-1753
alth	-1754
ད་གལ་	-1755
▁here	-1756
udgalyayana	-1757
མར་	-1758
རྣམ་གྲངས་	-1759
ད་གལ་གྱི་བ	-1760
ནི་་	-1761
▁themselves	-1762
ཡིན་ཏེ་	-1763
▁nirvana	-1764
▁attributes	-1765
་དང་བྲ	-1766
▁saw	-1767
▁seat	-1768
སྤྲ	-1769
ཚོར་བ	-1770
ya	-1771
ར་དག	-1772
ave	-1773
ང་སྲ	-1774
round	-1775
▁ripen	-1776
▁since	-1777
man	-1778
་བརྗ	-1779
གས་བ	-1780
ial	-1781
▁par	-1782
ict	-1783
▁water	-1784
▁own	-1785
▁us	-1786
འདུ་བྱེད་	-1787
▁sc	-1788
ུན་པ་	-1789
འཁོར་བ	-1790
▁sand	-1791
▁please	-1792
འདུ་ཤེ	-1793
འི་ཚེ	-1794
་དྲུག་	-1795
ily	-1796
adhi	-1797
wise	-1798
▁san	-1799
▁prot	-1800
ཏིང་ངེ་འཛིན་	-1801
cul	-1802
ཀྱི་དབ	-1803
▁fam	-1804
▁list	-1805
ནི་བྱ	-1806
སྟོན་	-1807
ced	-1808
ཞིག	-1809
ལ་མཁ	-1810
▁འདི་	-1811
མི་དམི	-1812
▁consid	-1813
ཅིའི་ཕྱིར་	-1814
་པར་འགྱུར་རོ་་	-1815
ཀྱེ་	-1816
▁head	-1817
ize	-1818
་བརྒྱད་	-1819
གསོ	-1820
▁attach	-1821
སྣང་བ	-1822
▁dist	-1823
ང་ག	-1824
ས་པས་	-1825
▁always	-1826
▁mira	-1827
▁entire	-1828
་པར་བྱེད	-1829
tabl	-1830
vers	-1831
▁set	-1832
་དམ	-1833
ས་གསོལ་	-1834
ཤེས་པའི་	-1835
▁awakened	-1836
its	-1837
་མ་	-1838
▁establ	-1839
▁listen	-1840
een	-1841
ner	-1842
ཐོབ་	-1843
illions	-1844
ཁོ་	-1845
སྐྱེ་	-1846
▁food	-1847
joy	-1848
འདོད་པ་	-1849
ཆོས་རྣམས་	-1850
▁ཁྱིམ་བདག་	-1851
▁discipline	-1852
▁rest	-1853
▁omniscience	-1854
int	-1855
ཡོད་	-1856
▁srav	-1857
▁accord	-1858
ལ་་	-1859
▁protect	-1860
▁perfectly	-1861
hic	-1862
▁enlightened	-1863
འོང་བ	-1864
ལྟ་བུ་	-1865
འདི་ལྟ་སྟེ	-1866
▁vis	-1867
འཕྲུལ་	-1868
སྟོང་པ་ཉིད་	-1869
གཅིག	-1870
struct	-1871
ths	-1872
ཁྲག་	-1873
འ་བ་	-1874
ར་བ་	-1875
ལས་བ	-1876
▁must	-1877
་དང་ལྡན་པ	-1878
▁seven	-1879
semb	-1880
▁count	-1881
འགྱུར་བའི་	-1882
ིལ་	-1883
▁yet	-1884
▁fri	-1885
▁vehic	-1886
▁sy	-1887
ཁ་ཅིག་	-1888
ཐམས་ཅད་མཁྱེན་པ་	-1889
▁nag	-1890
ས་སམ་	-1891
▁dest	-1892
▁dilig	-1893
གཅིག་ཏུ་	-1894
▁genuinely	-1895
▁maudgalyayana	-1896
ེས་	-1897
aster	-1898
▁wealth	-1899
▁dw	-1900
up	-1901
▁minds	-1902
འཇམ་དཔལ་	-1903
erous	-1904
་བཞིན་དུ་	-1905
yond	-1906
▁beyond	-1907
ོམས་	-1908
▁feet	-1909
▁than	-1910
འོད་སྲ	-1911
lt	-1912
ཆུང་	-1913
asyap	-1914
ད་དེ་	-1915
▁aspir	-1916
▁whether	-1917
over	-1918
▁hell	-1919
རྟེན་	-1920
▁bring	-1921
lly	-1922
row	-1923
ལ་ནི་	-1924
ཙམ་	-1925
▁ut	-1926
▁gar	-1927
སྟོན་པ	-1928
▁sense	-1929
▁དེ་བཞིན་གཤེགས་པ	-1930
སྒྲ་	-1931
མི་ཁྱ	-1932
▁maha	-1933
ོངས་སྤ	-1934
ུབ་	-1935
▁sw	-1936
▁imp	-1937
▁ཤ་ར་དྭ་ཏིའི་བུ་	-1938
ཆུ་	-1939
▁numerous	-1940
▁sariputra	-1941
ཅུ	-1942
▁incon	-1943
ཐམས་ཅད་ཀྱི་	-1944
ཞུག	-1945
འཇི	-1946
▁ess	-1947
▁samadhi	-1948
ན་དེ་	-1949
▁sat	-1950
▁too	-1951
aking	-1952
ountain	-1953
▁appreh	-1954
མངོན་སུམ	-1955
▁མི་	-1956
ཇི་སྙ	-1957
རྒྱུ་	-1958
རྟག་ཏུ་	-1959
▁mountain	-1960
lessness	-1961
ལས་བྱ	-1962
▁creat	-1963
▁inconceiv	-1964
▁fore	-1965
▁hold	-1966
ོམས་པར་	-1967
▁came	-1968
ཞིང	-1969
asyapa	-1970
arn	-1971
འདིར་	-1972
ཐེག་པ་	-1973
རྒྱལ་པོའི་	-1974
་དེ་བ	-1975
▁fear	-1976
▁wonder	-1977
▁offerings	-1978
▁རིགས་ཀྱི་བུ	-1979
amb	-1980
▁hom	-1981
▁rebirth	-1982
▁gold	-1983
▁insight	-1984
▁liberation	-1985
ents	-1986
མ་ཡིན་པ	-1987
མེད་་	-1988
ཞིང་་	-1989
་དངོས་པོ་	-1990
་དགེ་བའི་རྩ	-1991
▁aband	-1992
▁concentration	-1993
རྐྱེ	-1994
རིན་པོ་ཆེ	-1995
▁dep	-1996
▁appro	-1997
▁following	-1998
རེ་	-1999
▁ser	-2000
▁reve	-2001
▁sage	-2002
རྣམས་ཀྱི	-2003
ute	-2004
ཏང་	-2005
འདུག	-2006
ility	-2007
་བཞི་	-2008
▁endowed	-2009
ཚད་	-2010
▁enjoy	-2011
འགྲོ་བ་	-2012
ས་སུ་བཅ	-2013
མཛད་	-2014
▁sac	-2015
▁ang	-2016
▁unt	-2017
ན་གས	-2018
ན་དེ་དག་	-2019
ློ་	-2020
▁absorption	-2021
ས་དག	-2022
ར་གྱུར་ཏོ་་	-2023
ག་ལ་བ	-2024
▁dwell	-2025
▁དེ་ནི་	-2026
irst	-2027
གཟུག	-2028
ས་བདག་	-2029
▁empty	-2030
▁རབ་འབྱོར་	-2031
eds	-2032
མི་བ	-2033
▁level	-2034
་དཔེར་ན་	-2035
སྦྱར་ཏེ་	-2036
de	-2037
iding	-2038
ather	-2039
▁sign	-2040
སྐྱེད་	-2041
▁assemb	-2042
རབ་ཏུ་མཁྱེན་ཏོ་་	-2043
▁obs	-2044
▁const	-2045
▁sangh	-2046
ནས་ས	-2047
▁appear	-2048
▁comm	-2049
▁each	-2050
་དུ་བྱ	-2051
▁thousands	-2052
▁ce	-2053
▁sons	-2054
སོད་ནམས་	-2055
▁abandon	-2056
ཞེས་བྱའོ་་	-2057
ura	-2058
་སྟོང་	-2059
▁peace	-2060
ized	-2061
ནས་་	-2062
འདྲེ	-2063
▁let	-2064
▁mere	-2065
འགྱུར་བ་	-2066
▁anything	-2067
་དང་ལྡན་	-2068
▁happiness	-2069
▁sing	-2070
utiful	-2071
▁moreover	-2072
▁beautiful	-2073
ceive	-2074
▁skill	-2075
▁likewise	-2076
གནོད་	-2077
རྣམས་བ	-2078
▁place	-2079
ར་བྱའོ་་	-2080
མང་པོ་	-2081
ལ་ཕྱག་འཚ	-2082
ertain	-2083
མང་པོ	-2084
▁sangha	-2085
▁concern	-2086
མེད་པ་དང་་	-2087
bha	-2088
ྱོད	-2089
སྒྲུབ	-2090
སྔོན་	-2091
▁contin	-2092
་སེམས་དཔའ་ཆེན་པོ	-2093
iss	-2094
not	-2095
▁became	-2096
ower	-2097
འབྲས་བུ་	-2098
▁མད་གལ་གྱི་བ	-2099
མས་པ	-2100
▁vehicle	-2101
ཡོངས་སུ་བ	-2102
མ་གྱིས་མི་ཁྱ	-2103
▁ter	-2104
འགྲོ་	-2105
ལྕ	-2106
ics	-2107
ཤི་	-2108
རབ་ཏུ་བྱུང་	-2109
▁inv	-2110
སྐལ་པ	-2111
ངོ་	-2112
་དབང་	-2113
ལ་བར་	-2114
མི་བྱ	-2115
ste	-2116
སྐྱེ་བ་	-2117
▁dem	-2118
▁kinds	-2119
▁kasyapa	-2120
▁དེ་ཅིའི་ཕྱིར་	-2121
རེ	-2122
ssed	-2123
མ་དུ	-2124
▁tra	-2125
ན་ཡང་	-2126
ཕྱིན་	-2127
ུ་འཕྲུལ་	-2128
ཀྱིས་བཀའ་སྩལ་པ་	-2129
ising	-2130
▁conv	-2131
▁family	-2132
▁av	-2133
▁sol	-2134
་བ་དང་་	-2135
འཆི	-2136
ན་ཅིག་	-2137
ནམ་མཁའ་	-2138
oc	-2139
▁ev	-2140
▁cause	-2141
▁sta	-2142
▁fire	-2143
gether	-2144
སྤངས་	-2145
རྒྱ་མཚ	-2146
▁ign	-2147
▁དེའི་	-2148
ཞིན་དུ་	-2149
ས་བུ	-2150
ཁྱེར་	-2151
▁equal	-2152
རྡོ་	-2153
ལྷའི་	-2154
▁gate	-2155
▁monk	-2156
hiks	-2157
▁fut	-2158
ལ་མི་	-2159
▁eman	-2160
▁experi	-2161
▁streng	-2162
▁bas	-2163
▁bhiks	-2164
▁senior	-2165
རྩོན་འགྲུས་	-2166
▁ch	-2167
ained	-2168
▁adorn	-2169
ang	-2170
རྟག	-2171
▁aggre	-2172
▁prof	-2173
▁future	-2174
འདོད་ཆགས་	-2175
▁apprehend	-2176
ཇི་སྙམ་དུ་སེམས་	-2177
ile	-2178
akas	-2179
དུད་	-2180
ནས་བྱ	-2181
▁expl	-2182
ཕུང་པོ་	-2183
མཐའ་ཡ	-2184
▁heav	-2185
▁turn	-2186
ཀྱི་བར་	-2187
▁སེམས་ཅ	-2188
ཉིད་ཀྱི་	-2189
རྣམས་དང་	-2190
▁together	-2191
ཀྲ	-2192
ཡིས་	-2193
▁took	-2194
ik	-2195
སྔོ	-2196
་དེ་ལ	-2197
ཞབས་	-2198
་དགེ་བ	-2199
▁bodies	-2200
▁diligence	-2201
imal	-2202
རྣམ་པར་སྨི	-2203
▁pu	-2204
ཡི་ག	-2205
རང་གི་	-2206
སྒོ་	-2207
▁none	-2208
གཟིགས་	-2209
▁space	-2210
▁once	-2211
▁only	-2212
རང་བཞིན་	-2213
pos	-2214
▁vict	-2215
▁eye	-2216
▁cast	-2217
▁དེས་	-2218
▁friend	-2219
▁prince	-2220
ས་གསོལ་ཏོ་་	-2221
ཀུན་འབྱུང་བ་	-2222
ign	-2223
ངེས་པར་	-2224
་སངས་རྒྱ	-2225
ures	-2226
▁concept	-2227
▁teacher	-2228
མདོ་	-2229
tally	-2230
སྟེ་་	-2231
▁homage	-2232
ired	-2233
མཆོག	-2234
▁wom	-2235
▁mindful	-2236
▁totally	-2237
་པར་བ	-2238
▁feelings	-2239
ཚིགས་སུ་བཅ	-2240
འང་	-2241
ངོ་བོ་	-2242
▁various	-2243
▁engage	-2244
འཁྲ	-2245
ང་བར་	-2246
▁faith	-2247
▁ཁྱོད་	-2248
▁living	-2249
▁accomplish	-2250
ཕྱུག་	-2251
ད་དོ་་	-2252
▁wr	-2253
oid	-2254
ཅུ་རྩ	-2255
ནང་དུ་	-2256
ལ་ལོ་་	-2257
ཁྱེད་	-2258
▁ach	-2259
ན་པས་	-2260
སྟོབས་	-2261
མངོན་པར་བ	-2262
འོད་སྲུང་	-2263
yed	-2264
▁ignor	-2265
་སྙ	-2266
སྲོག་	-2267
▁cannot	-2268
སྣ་ཚོགས་	-2269
་དབྱ	-2270
▁achie	-2271
▁dream	-2272
སྙོམས་པར་	-2273
ala	-2274
མ་པར་	-2275
ཡན་ལག	-2276
ཉིད་དུ་	-2277
pan	-2278
སྨྲས་པ་	-2279
ying	-2280
ནོར་བ	-2281
ང་བའི་	-2282
▁ཀྱེ་	-2283
▁limit	-2284
རྣམ་པར་ཤེས་པའི་	-2285
acter	-2286
eared	-2287
▁leads	-2288
▁object	-2289
▁character	-2290
རྙེད	-2291
▁might	-2292
ཕྱིར་མི་	-2293
▁cle	-2294
རྣམ་པར་དག	-2295
▁aggreg	-2296
ཏིང་ངེ་འཛི	-2297
va	-2298
thy	-2299
▁ho	-2300
་བྱི	-2301
▁kar	-2302
མ་དང་	-2303
ཀུན་ནས་	-2304
གས་སོ་་	-2305
▁name	-2306
རྣམས་ནི་	-2307
་པས་	-2308
ལ་དུ་	-2309
ལ་བའི་	-2310
▁super	-2311
ཀའ་སྩལ་	-2312
ང་སྲོང་	-2313
▁jewels	-2314
སྙིང་	-2315
▁arri	-2316
ནས་ཀྱང་	-2317
▁thoughts	-2318
▁exam	-2319
འདོད་པ	-2320
▁purif	-2321
▁benefit	-2322
▁mean	-2323
འདུ་ཤེས་	-2324
ting	-2325
ultiv	-2326
སྟོན་པ་	-2327
གཞོན་ནུ་	-2328
▁differe	-2329
▁དེ་ལྟར་	-2330
▁virtuous	-2331
སྔགས་	-2332
▁worlds	-2333
▁understanding	-2334
▁single	-2335
▁དགེ་སློང་དག་	-2336
རབ་ཏུ་མཁྱེན་ཏེ་	-2337
གོ་	-2338
འཁོར	-2339
ས་ལ་	-2340
▁human	-2341
ime	-2342
erses	-2343
ཕུན་	-2344
▁mahasattva	-2345
ཐར	-2346
གཉེ	-2347
▁car	-2348
འདས་པ	-2349
གས་སུ་	-2350
་ད་	-2351
▁ret	-2352
གང་གི་	-2353
ན་པ་དང་	-2354
imate	-2355
གནས་པར་	-2356
ལྟ་བུ	-2357
▁teachings	-2358
ised	-2359
སམ་གཏ	-2360
འཛིན་པ་	-2361
ft	-2362
ནད་	-2363
▁inter	-2364
hing	-2365
▁tree	-2366
▁mis	-2367
▁filled	-2368
་དག་གིས་	-2369
ཁྲི་	-2370
▁accept	-2371
ཡོངས་སུ་དག	-2372
▁perceptions	-2373
རྣམ་པར་ཤེས་པ་	-2374
tw	-2375
ech	-2376
▁arm	-2377
ཕུན་སུམ་	-2378
▁sec	-2379
▁heaven	-2380
fold	-2381
▁ir	-2382
▁prev	-2383
ck	-2384
▁oce	-2385
སྤྱན་	-2386
▁conf	-2387
▁first	-2388
མེད་དོ་་	-2389
ཐུག	-2390
▁vaj	-2391
ལུང་བ	-2392
▁consider	-2393
ཀུན་དགའ་བོ་	-2394
▁fre	-2395
ལྟར་བ	-2396
▁spir	-2397
▁lower	-2398
ili	-2399
▁due	-2400
གྲོ	-2401
གསུང	-2402
ལྡན་པ་	-2403
ined	-2404
ཁྱིམ་	-2405
འཁོར་ལ	-2406
སྐྲ	-2407
▁moon	-2408
ཉིད་དང་་	-2409
▁hundreds	-2410
རྟག་	-2411
▁our	-2412
velop	-2413
▁pred	-2414
ཡོད་པ་	-2415
▁mindfulness	-2416
མོ་་	-2417
▁reach	-2418
▁cultiv	-2419
itud	-2420
▁eon	-2421
ངས་པ་	-2422
ཆོས་སྟ	-2423
▁someone	-2424
ཕྱིར	-2425
itual	-2426
▁kings	-2427
ཆེན་པོ་བ	-2428
ཟེར་	-2429
▁city	-2430
▁master	-2431
▁unc	-2432
verse	-2433
▁gave	-2434
▁trees	-2435
▁until	-2436
རྫུ་འཕྲུལ་	-2437
vara	-2438
་བསྒྲ	-2439
▁main	-2440
རྨི་	-2441
འདུན་	-2442
▁vein	-2443
▁learn	-2444
ས་སེམས་ཅན་	-2445
ནོ་་	-2446
▁year	-2447
ལྟར་བྱ	-2448
ས་དེའི་	-2449
▁emot	-2450
▁sacred	-2451
ར་འགྱུར་་	-2452
▁directions	-2453
རིག་	-2454
ུད་མེད་	-2455
▁different	-2456
ཚེ་དང་ལྡན་པ་ཤ	-2457
་བྱེ་བ་	-2458
▁develop	-2459
▁ignorance	-2460
▁manifested	-2461
གསེར་	-2462
▁fin	-2463
་བཙ	-2464
མུ་	-2465
མྱོ	-2466
ense	-2467
▁look	-2468
▁part	-2469
▁again	-2470
་དྲི	-2471
ཀྱང་་	-2472
mo	-2473
▁gr	-2474
འདི་ལ་	-2475
ཤིང	-2476
▁དྲ	-2477
སྦྱིན་པ	-2478
ུང་བའི་	-2479
▁speech	-2480
འཕགས་པའི་	-2481
མི་ན	-2482
▁guide	-2483
ད་པ་དང་་	-2484
▁concerning	-2485
ས་སྐྱ	-2486
་དང་མི་	-2487
ཡོན་ཏན་	-2488
▁knowing	-2489
lic	-2490
▁harm	-2491
་པར་བྱའོ་་	-2492
གསུམ	-2493
ྲམ་ཟེ་	-2494
▁ult	-2495
▁ultimate	-2496
ཕན་	-2497
ཟང་	-2498
རྗོད	-2499
▁wise	-2500
▁field	-2501
▁worthy	-2502
▁highest	-2503
▁formative	-2504
xt	-2505
ark	-2506
ོག་པ	-2507
▁str	-2508
སྒྱུ་	-2509
་བསམ་གཏ	-2510
ནི་བདག་	-2511
▁absence	-2512
▁instruct	-2513
ཤེས་པ་འགོག་པ་	-2514
ྦྱི	-2515
ཡིན་་	-2516
▁love	-2517
▁nothing	-2518
positions	-2519
འོག་	-2520
▁emotions	-2521
རིན་པོ་ཆེ་	-2522
og	-2523
ably	-2524
འདིས་	-2525
ུ་མོ་	-2526
ཕུན་སུམ་ཚ	-2527
▁characterist	-2528
འདོད	-2529
སྡེ་	-2530
ན་དམྱ	-2531
aled	-2532
ites	-2533
▁ass	-2534
ཞེས་བ	-2535
▁sur	-2536
མཉམ་པ་	-2537
▁hands	-2538
▁certain	-2539
▁causes	-2540
▁condition	-2541
་དེ་དག་ཐམས་ཅད་	-2542
ཐུབ	-2543
ཞི་བ	-2544
སྣང་	-2545
མཚན་མ་	-2546
▁cloth	-2547
མི་བྱེད	-2548
▁verses	-2549
▁himself	-2550
▁assembly	-2551
ཤེས་པ་དང་་	-2552
▁faculties	-2553
དག་གིས་	-2554
oub	-2555
▁daught	-2556
▁སངས་རྒྱ	-2557
ided	-2558
རབ་ཏུ་བ	-2559
་སེམས་ཅན་	-2560
ues	-2561
སྨོན་	-2562
▁acqu	-2563
▁inde	-2564
▁དེའི་ཚེ་	-2565
▁arhatship	-2566
▁afflictions	-2567
རིན་	-2568
▁pri	-2569
▁gone	-2570
་དེ་ཡང་	-2571
▁predis	-2572
▁adorned	-2573
▁offering	-2574
་བསམ་གྱིས་མི་ཁྱ	-2575
imin	-2576
▁སུ་	-2577
▁whom	-2578
▁meaning	-2579
▁strength	-2580
▁liberated	-2581
inite	-2582
▁pati	-2583
ཕྱིར་བ	-2584
▁fully	-2585
▁illus	-2586
orm	-2587
་སྣ	-2588
▁supp	-2589
▁unex	-2590
་དྲན་པ་	-2591
wood	-2592
ཡང་བྱ	-2593
▁soon	-2594
མཉེས་པ	-2595
▁arise	-2596
▁white	-2597
སྦྱིན་པ་	-2598
▁aggregates	-2599
གཞན་དག་	-2600
▁anyone	-2601
སྐྱེ་བོ་	-2602
▁essenti	-2603
སྐྱེས་བུ་	-2604
▁འཇམ་དཔལ་	-2605
oice	-2606
ནོར་	-2607
རུང་	-2608
▁predispositions	-2609
asura	-2610
གྲོལ་བ	-2611
▁aspect	-2612
ལ་སོགས་པ	-2613
▁another	-2614
▁according	-2615
▁attachment	-2616
་བླ་ན་མེད་པ་	-2617
▁inn	-2618
▁abide	-2619
འཚང་	-2620
▁uni	-2621
གྲོས་	-2622
▁miracul	-2623
མང་	-2624
atur	-2625
rasp	-2626
celled	-2627
གཞན་ཡང་	-2628
འགྱུར་་	-2629
ལྔ་བརྒྱ	-2630
▁states	-2631
མ་ཡིན་པ་	-2632
▁maintain	-2633
▁miraculous	-2634
▁unexcelled	-2635
cc	-2636
ceived	-2637
orious	-2638
ས་པ་དང་	-2639
ཞེས་བྱ་བའི་	-2640
umer	-2641
ཟུང་	-2642
ཞིང་བ	-2643
▁sky	-2644
▁home	-2645
▁elements	-2646
▁ground	-2647
མེད་ཅིང་	-2648
འི་བྱང་ཆུབ་ཏུ་	-2649
ནས་དེ་	-2650
▁manner	-2651
▁result	-2652
ལེགས་པར་	-2653
ས་པར་གྱུར་	-2654
▁fall	-2655
▁conte	-2656
▁earth	-2657
▁purity	-2658
▁tri	-2659
ata	-2660
edic	-2661
མ་པའི་	-2662
སེམས་བ	-2663
་པར་བྱེད་	-2664
འདུ་ཤེས་དང་་	-2665
▁imme	-2666
འི་བར་	-2667
▁indeed	-2668
་དབང་པོ་	-2669
་བྱང་ཆུབ་ཀྱི་	-2670
འགྱུར་བའི་ལམ་	-2671
▁going	-2672
▁passed	-2673
▁abiding	-2674
▁faculty	-2675
་དེའི་ཚེ་	-2676
རྣམས་ཡིན་	-2677
་བསོད་ནམས་	-2678
་བསྒ	-2679
སེང་ག	-2680
་དག་ལ་	-2681
▁million	-2682
མཐོང་ངོ་་་	-2683
འོང	-2684
ོང་བ་	-2685
▁else	-2686
▁number	-2687
ལྷན་ཅིག་	-2688
ར་བྱེད་པ་	-2689
▁profound	-2690
་དེའི་དུས་	-2691
▁dedic	-2692
རྟོགས་པ	-2693
▁previous	-2694
ren	-2695
ཁ་ད	-2696
རྩེ་	-2697
▁saying	-2698
▁སངས་རྒྱས་	-2699
▁able	-2700
་པའོ་་	-2701
▁activ	-2702
▁immeasura	-2703
▁evil	-2704
▁yaks	-2705
་བླ་དག	-2706
▁bliss	-2707
ད་བ	-2708
མྱུ	-2709
མཐར་	-2710
མི་བྱེད་	-2711
▁emer	-2712
་སྐྱེ	-2713
འཇུག་	-2714
▁gand	-2715
ས་སངས་རྒྱ	-2716
ོབ་	-2717
▁lives	-2718
▁innumer	-2719
▁tem	-2720
ལ་པར་	-2721
▁freed	-2722
སྔོན་བྱ	-2723
▁notion	-2724
ལུས་ཀྱི་	-2725
་དགེ་འདུན་	-2726
umul	-2727
▁both	-2728
▁doub	-2729
▁truth	-2730
▁accumul	-2731
▁དེ་བཞིན་དུ	-2732
རྐང	-2733
ནས་དེ	-2734
▁wheel	-2735
▁sravakas	-2736
མ་ཡིན་ནོ་་	-2737
སྦྱིན་	-2738
▁mantra	-2739
▁essential	-2740
itude	-2741
་པོས་	-2742
▁mara	-2743
▁fruit	-2744
▁proph	-2745
མཐོང་ནས་	-2746
▁དཔ	-2747
གཞི་	-2748
▁gath	-2749
▁forest	-2750
སྙིང་པོ་	-2751
▁presence	-2752
་དེ་དག་ནི་	-2753
་སྐྱ	-2754
▁hon	-2755
ining	-2756
ལ་མོ་	-2757
▁grasp	-2758
▁retin	-2759
▁syste	-2760
▁under	-2761
▁entered	-2762
ཐམས་ཅད་ལ་	-2763
་བའི་ཕྱིར་	-2764
bh	-2765
▁bow	-2766
ཞུས་པ་	-2767
▁utter	-2768
▁ཤ་ར་དྭ་ཏིའི་བུ	-2769
ines	-2770
ཕྲག་	-2771
▁convention	-2772
ched	-2773
press	-2774
ཞུ་བ་	-2775
ངས་ཏེ་	-2776
▁sandal	-2777
འཐོབ	-2778
སྐུ་	-2779
སྲིད་	-2780
ན་པའི་ཕྱིར་	-2781
ནས	-2782
ལྟ་བར་	-2783
འི་བར་དུ་	-2784
ཇི་སྙེད་པ་	-2785
▁countless	-2786
ཡོངས་སུ་སྨི	-2787
ར་བྱེད་དོ་་	-2788
mas	-2789
▁beg	-2790
▁don	-2791
ན་གྱིས་བ	-2792
་དེ་བཞིན་དུ	-2793
ཧ་	-2794
ན་ནི་	-2795
▁resp	-2796
གས་སོ་	-2797
ཟས་	-2798
ཀུར་	-2799
ན་གན	-2800
▁live	-2801
▁plac	-2802
▁stain	-2803
ངོ་བོ་ཉིད་	-2804
ls	-2805
yp	-2806
ད་མ	-2807
ི་མ	-2808
▁sandalwood	-2809
▁cr	-2810
ོ་དང་་	-2811
odu	-2812
arer	-2813
ཆེར་	-2814
▁cha	-2815
ཁྱེའུ་	-2816
▁anger	-2817
▁bowed	-2818
▁ocean	-2819
▁views	-2820
ས་སྨྲས་སོ་་	-2821
▁sake	-2822
▁sutra	-2823
▁cour	-2824
གཞོན་ནུ	-2825
འཇུག་པ་	-2826
སླད་དུ་	-2827
▁established	-2828
pra	-2829
ough	-2830
སྤྱོད་པ	-2831
▁contem	-2832
ises	-2833
▁col	-2834
ཕྱོགས་བ	-2835
ལས་ཀྱི་	-2836
▁obtain	-2837
ེ་བར་གཤེ	-2838
▁rob	-2839
haust	-2840
ོད་དོ་་	-2841
ཡིད་ཀྱི་	-2842
ཕྱེ་	-2843
མཆོད་པ	-2844
▁years	-2845
ས་བཀའ་སྩལ་	-2846
བས་སུ་	-2847
▁ཁ་ཅིག་	-2848
རྣམས་ཀྱང་	-2849
ཙན་ད	-2850
ར་པོ	-2851
▁sit	-2852
འདུས་	-2853
▁disp	-2854
▁owing	-2855
ཤེས་པ་འགོག་པར་	-2856
umin	-2857
▁sug	-2858
ཉིད་ལ་	-2859
རྨི་ལམ་	-2860
oke	-2861
arent	-2862
atever	-2863
▁ordin	-2864
iate	-2865
▁unb	-2866
tinct	-2867
▁sounds	-2868
▁whatever	-2869
གི་བ	-2870
▁throughout	-2871
ides	-2872
▁sun	-2873
ལན་གས	-2874
མཚན་ཉིད་	-2875
འི་ཚེ་དེའི་དུས་	-2876
ars	-2877
གཙང་	-2878
ཟངས་	-2879
ལ་ཏེ་	-2880
རྩོན་པ	-2881
ལ་ལོངས་སྤ	-2882
▁སྲ	-2883
▁thirt	-2884
▁whose	-2885
ཁྱོད་ཀྱིས་	-2886
▁immeasurable	-2887
▁inconceivable	-2888
འདི་སྙམ་དུ་སེམས་	-2889
aty	-2890
vas	-2891
གྲུབ	-2892
▁fur	-2893
▁sakra	-2894
▁nonapp	-2895
▁aspects	-2896
▁appeared	-2897
aim	-2898
སྟན་པ	-2899
▁irre	-2900
སྙོམས་	-2901
▁imper	-2902
▁vajra	-2903
nal	-2904
རོལ་	-2905
▁ལྷ་	-2906
llect	-2907
▁afflicted	-2908
རྔ	-2909
ged	-2910
ང་དང་	-2911
རིག་པ་	-2912
▁seeing	-2913
སྟན་པ་ལ་	-2914
ཤཀྱ	-2915
ལ་ལ་	-2916
quest	-2917
▁cand	-2918
sol	-2919
ཟད་	-2920
atta	-2921
land	-2922
ཐུགས་	-2923
▁thinking	-2924
ན་གང་	-2925
ཕུང་པོ	-2926
▁still	-2927
འདུས་བྱ	-2928
ཆེན་པོས་	-2929
ས་སྐྱེ	-2930
▁night	-2931
ང་བ་དང་་	-2932
▁distinct	-2933
▁ལ	-2934
ཞག་	-2935
anas	-2936
ས་བས	-2937
▁cir	-2938
▁men	-2939
སྐོར་བ	-2940
▁eleph	-2941
▁design	-2942
▁contempl	-2943
མ་བྱ	-2944
དེ་བ་	-2945
ཟག་པ་	-2946
ཤིང་་	-2947
▁devas	-2948
རྟོག་པ་	-2949
▁thirty	-2950
ited	-2951
▁sil	-2952
rehens	-2953
རྫོགས་པར་འཚང་	-2954
གང་ཡི	-2955
▁seen	-2956
▁displ	-2957
▁infinite	-2958
ཕྱིར་མི་ལྡ	-2959
ane	-2960
ཞི་པ	-2961
ཞེ་སྡ	-2962
ཅུ་རྩ་	-2963
དག་ཅག་	-2964
ོན་པོ་	-2965
འདས་པའི་དུས་	-2966
he	-2967
ཡང་མི་	-2968
ཚངས་པར་	-2969
སྟོབས་བ	-2970
▁hearer	-2971
▁bhiksus	-2972
ཡང་དག་པའི་	-2973
ek	-2974
ཁྱེའུ	-2975
གང་དུ་	-2976
ཐོས་ནས་	-2977
འཇིགས་པ་	-2978
▁discern	-2979
▁training	-2980
ུ་མོ	-2981
▁vast	-2982
▁gif	-2983
▁jin	-2984
▁found	-2985
▁indiv	-2986
▁add	-2987
itary	-2988
▁perceive	-2989
གྲོང་ཁྱེར་	-2990
ཚོར་བ་དང་་	-2991
▁nonapprehens	-2992
་སྨ	-2993
▁དབ	-2994
འི་བར	-2995
▁action	-2996
འབྱུང་བར་	-2997
▁limitless	-2998
ཡོ	-2999
aka	-3000
▁ke	-3001
▁typ	-3002
མ་དང་་	-3003
▁palms	-3004
▁further	-3005
▁retinue	-3006
རྣམ་གྲངས་འདི་	-3007
མདུ	-3008
▁prov	-3009
▁perfections	-3010
ods	-3011
་དམ་པ་	-3012
ུང་དུ་	-3013
▁merely	-3014
་བྱེད་པ་	-3015
ཁམས་དང་་	-3016
ཉེ་བར་གཞ	-3017
▁universe	-3018
ored	-3019
read	-3020
་པ་བ	-3021
ནགས་	-3022
ེ་ན་	-3023
་བོ་་	-3024
ཡེ་ཤེ	-3025
མཐུ་	-3026
སོར་	-3027
རྒྱ་མཚོ་	-3028
སོང་སྟེ་	-3029
uch	-3030
གསུང་	-3031
▁rain	-3032
▁lived	-3033
སྙམ་མོ་་	-3034
▁ང་	-3035
་བོ་	-3036
མོས་	-3037
ཟོད་པ་	-3038
ོ་བོས་	-3039
་དང་་བྱ	-3040
ས་སྟོང་	-3041
▁follows	-3042
▁mahasattvas	-3043
ྭ་	-3044
ག་ལ་	-3045
ances	-3046
ལེགས་པ	-3047
ུ་དང་་	-3048
▁woman	-3049
▁father	-3050
ཀྱི་བར་དུ་	-3051
gr	-3052
ིད་	-3053
▁cy	-3054
ཆེས་	-3055
ས་སྔ	-3056
▁kim	-3057
arents	-3058
ཤིན་ཏུ	-3059
མ་གྱུར་	-3060
▁destro	-3061
▁approach	-3062
▁afflictive	-3063
em	-3064
ཡ་	-3065
aya	-3066
ཟབ་	-3067
ེས་པ་	-3068
སྐལ་པ་	-3069
▁giving	-3070
གྱིས་ཤིག་	-3071
▁millions	-3072
▁འཇིག་རྟེན་	-3073
ཇི་སྙེད་པ་ཉིད་	-3074
az	-3075
ued	-3076
▁kn	-3077
▁cal	-3078
མཁས་པ་	-3079
ལྟ་བུར་	-3080
▁respond	-3081
གང་བ	-3082
▁cra	-3083
▁rej	-3084
▁days	-3085
▁lack	-3086
་དྲི་མ་	-3087
རབ་འབྱོར་	-3088
▁patience	-3089
ཕ་རོལ་ཏུ་ཕྱིན་པ་	-3090
▁ང	-3091
ins	-3092
ྡུག	-3093
ཡང་་	-3094
▁true	-3095
གཞོན་ནུར་	-3096
▁solitary	-3097
་པའི་ཕྱིར་	-3098
▁དགེ་སློང་དག	-3099
pri	-3100
▁alms	-3101
▁naga	-3102
▁constit	-3103
▁gandhar	-3104
▁brahmins	-3105
▁རབ་འབྱོར	-3106
ཐམས་ཅད་སྤངས་	-3107
སྡིག	-3108
མཚམས་	-3109
ྲམ་ཟེའི་	-3110
་དགེ་བའི་རྩ་བ་	-3111
▁སངས་རྒྱས་ཀྱི་	-3112
ret	-3113
▁enc	-3114
itage	-3115
ོས་པ་	-3116
▁spoke	-3117
ཡང་དག་པར་བ	-3118
གཏི་མ	-3119
▁anal	-3120
▁offered	-3121
▁aspiration	-3122
ལ་ཕྱག་འཚལ་ལོ་་	-3123
way	-3124
▁kimn	-3125
▁knows	-3126
ཁོང་དུ་	-3127
མ་ཐག་ཏུ་	-3128
▁རྒྱལ་པོ་	-3129
ཀུར་སྟ	-3130
▁reality	-3131
་རིའི་བུ་	-3132
ཕ་རོལ་ཏུ་ཕྱིན་པ	-3133
དེ་བ	-3134
ོམ་པ་	-3135
ྲམ་ཟེ	-3136
གང་དང་	-3137
གཟུང་བ	-3138
▁innumerable	-3139
ུད	-3140
ོ་དང་	-3141
▁འདི་ནི་	-3142
tle	-3143
ཁྲིག	-3144
▁ban	-3145
▁eff	-3146
སྦྱར་བ	-3147
ཁྲག་ཁྲིག	-3148
▁experience	-3149
ཐ་	-3150
▁stab	-3151
▁produ	-3152
▁applic	-3153
▁parents	-3154
ཉིད་མངོན་སུམ	-3155
ཐེ་	-3156
་དམ་	-3157
▁sum	-3158
ང་གི་	-3159
ཐོགས་	-3160
▁seek	-3161
ཐལ་མོ་	-3162
དག་གི་	-3163
གྲོགས་པ	-3164
་བསམ་གྱིས་མི་ཁྱབ	-3165
▁quest	-3166
▁request	-3167
▁skillful	-3168
ར་འགྱུར་རོ་	-3169
ད་་	-3170
ཕྲེ	-3171
lect	-3172
འོན་	-3173
ively	-3174
ལྟ་བ་	-3175
▁dark	-3176
▁signs	-3177
▁women	-3178
རྣམ་པར་ཐར	-3179
གང་ཡིན་པ་དེ་ནི་	-3180
རྫོགས་པར་འཚང་རྒྱ	-3181
ལྟར	-3182
ག་པར་	-3183
▁བཙུན་པ་	-3184
ika	-3185
ཆར་	-3186
ཤོག་	-3187
ལྡན་པ	-3188
▁cont	-3189
▁inex	-3190
▁left	-3191
མ་བྱས་	-3192
མཛད་པ་	-3193
▁hearers	-3194
ཞེས་བྱ་བར་	-3195
▁characteristics	-3196
འོད	-3197
virt	-3198
ences	-3199
▁hair	-3200
▁གལ་ཏེ་	-3201
▁friends	-3202
▁ཤེས་རབ་	-3203
འདི་དག་ནི་	-3204
ཅིང	-3205
▁subl	-3206
ཡང་དག་	-3207
▁གཟུགས་	-3208
་དག་ཀྱང་	-3209
ཀྱིས་དེ་	-3210
་ལ	-3211
་བཤ	-3212
▁མ་	-3213
ཅེ་ན་	-3214
▁next	-3215
ང་དང་་	-3216
▁sublime	-3217
par	-3218
▁gir	-3219
མ་འདྲ	-3220
▁given	-3221
▁reborn	-3222
་པར་འགྱུར་་	-3223
abudd	-3224
▁quick	-3225
ཞུགས་པ་	-3226
▁spl	-3227
▁sight	-3228
▁actual	-3229
▁disapp	-3230
ལ་མཁས་པ་	-3231
མངོ	-3232
▁gl	-3233
icult	-3234
ྡུག་བསྔ	-3235
▁hearing	-3236
▁difficult	-3237
་བཅོམ་ལྡན་འད	-3238
སླབ	-3239
ully	-3240
ན་གང	-3241
▁lion	-3242
▁stri	-3243
ཞུགས་པ	-3244
འི་ཚིག	-3245
ཐམས་ཅད་དུ་	-3246
▁practiced	-3247
་བྱུང་ངོ་་་	-3248
ས་བཅོམ་ལྡན་འད	-3249
ix	-3250
རས་	-3251
eness	-3252
ཁོང་དུ་ཆུ	-3253
མེད་པ་དང་	-3254
▁ཁྱིམ་བདག	-3255
bs	-3256
ps	-3257
▁circ	-3258
གཤེགས་	-3259
ས་སྣ	-3260
▁put	-3261
ually	-3262
ཅིའི་	-3263
མཛོད་	-3264
འདི་ལ	-3265
རྒྱན་	-3266
ློ་གྲོས་	-3267
▁imperman	-3268
enty	-3269
ཚངས་པ	-3270
འགྲུབ	-3271
▁ways	-3272
▁alone	-3273
▁praty	-3274
▁praised	-3275
▁children	-3276
▁eighteen	-3277
als	-3278
འུ་	-3279
▁མི	-3280
དང་བ	-3281
▁case	-3282
▁tong	-3283
▁nagas	-3284
་དེ་དག་གི་	-3285
ཕུན་སུམ་ཚོགས་པ་	-3286
ཡོངས་སུ་རྫོགས་པ	-3287
་བྱིན་	-3288
▁obser	-3289
ོད་ཀྱི་	-3290
▁pratyek	-3291
ག་ལ་བ་དེར་	-3292
▁aspirations	-3293
ཆོ་	-3294
▁pa	-3295
ison	-3296
ལམ་བ	-3297
▁nonent	-3298
▁irrevers	-3299
་དང་ལྡན་པའི་	-3300
▁མད་གལ་གྱི་བུ་	-3301
ife	-3302
oura	-3303
མཚུང	-3304
སྟོང	-3305
▁depend	-3306
▁worship	-3307
ཆེ་བ་	-3308
▁burn	-3309
འཇིགས་པ	-3310
▁establish	-3311
ལ་ཕ	-3312
aras	-3313
▁gain	-3314
གང་ཡང་	-3315
འདོད་པའི་	-3316
▁pratyekabudd	-3317
རྩི	-3318
alok	-3319
འམ་བ	-3320
▁min	-3321
ཀྱིལ་	-3322
▁need	-3323
▁drink	-3324
▁guard	-3325
▁marks	-3326
གང་གིས་	-3327
▁return	-3328
་དགེ་སློང	-3329
གསུམ་གྱི་	-3330
ཤིག	-3331
རྟོག་	-3332
▁speak	-3333
▁arhats	-3334
▁individ	-3335
▁teaches	-3336
▁དེ་ནས་བ	-3337
akes	-3338
oken	-3339
་དབེ	-3340
ཉམས་	-3341
ེ་མ་	-3342
anges	-3343
▁refu	-3344
གྱིས་་	-3345
འདིའི་	-3346
verance	-3347
གཟི་བརྗ	-3348
གཟུགས་བ	-3349
▁disple	-3350
རྣམ་པར་ཤེས་པ	-3351
▁ཀུན་དགའ་བོ་	-3352
▁mag	-3353
མོའི་	-3354
▁wind	-3355
▁becom	-3356
ད་དུ	-3357
ག་པའི་	-3358
འཐུན་པ	-3359
▁bound	-3360
ཡོད་དེ་	-3361
ལགས་སོ་	-3362
▁reflect	-3363
▁heritage	-3364
▁everything	-3365
སྤོབ	-3366
འོངས་	-3367
ར་བྱ་བ	-3368
སྙེན་བ	-3369
▁karma	-3370
▁arrived	-3371
where	-3372
་བདུད་	-3373
ཅེས་བྱ་བ	-3374
ཞུ་བ་ཞུས་པ་	-3375
day	-3376
མཆོད	-3377
field	-3378
སྐྱེས་	-3379
་དེ་དག་གིས་	-3380
ཁང་བ	-3381
vered	-3382
་དཔོན་	-3383
་བདེ་བ	-3384
▁temple	-3385
▁ripened	-3386
▁reco	-3387
▁side	-3388
་དེ་ཡི་	-3389
ར་བྱའོ་	-3390
▁however	-3391
ches	-3392
tood	-3393
ར་བཅ	-3394
▁lam	-3395
གཙུག་	-3396
མཆིས་	-3397
ཐོབ་པ་	-3398
▁deeds	-3399
་པར་བྱ་	-3400
སྐྱེས་པ	-3401
ལྷའི་བུ་	-3402
▁ཆོས་ཀྱི་	-3403
ja	-3404
ows	-3405
་སྒྲ	-3406
▁commit	-3407
ས་སེམས་ཅ	-3408
མ་ལ	-3409
▁univ	-3410
་དེ་ནི	-3411
མེ་ཏོག	-3412
འཁོར་ལོ	-3413
▁understood	-3414
▁འདི་ལྟ་སྟེ	-3415
▁buddhafield	-3416
ཁང	-3417
▁mus	-3418
་དཔག་	-3419
ར་བྱ་	-3420
སྙམ་དུ	-3421
▁tongue	-3422
▁yaksas	-3423
ཞུགས་ཏེ་	-3424
་དེ་ལ་ཡང་	-3425
▁དེ་ནས་དེ་	-3426
རིན་པོ་ཆེའི་	-3427
ཚི	-3428
male	-3429
ས་དྲ	-3430
▁female	-3431
▁stream	-3432
འི་དབང་པོ	-3433
cip	-3434
མཉམ	-3435
▁fact	-3436
▁tast	-3437
▁example	-3438
ཟླ་	-3439
▁far	-3440
▁ren	-3441
▁tam	-3442
འི་བས	-3443
▁created	-3444
སྔོན་གྱི་	-3445
▁individual	-3446
▁wife	-3447
quence	-3448
སྙམ་ནས་	-3449
uring	-3450
▁nine	-3451
་དེ་དང་	-3452
མེད་དེ་	-3453
ལ་བ་དང་་	-3454
་དྲང་སྲོང་	-3455
▁cut	-3456
ality	-3457
▁back	-3458
འཕགས་པ	-3459
རྡོ་རྗེ་	-3460
ཨ་	-3461
སློབ	-3462
▁occ	-3463
ཡོད་པ	-3464
སྙིང་པོ	-3465
▁quickly	-3466
ར་ད	-3467
▁die	-3468
འི་ཚོགས་	-3469
ཆེ་བ	-3470
ལ་མག	-3471
▁elo	-3472
▁stup	-3473
▁engag	-3474
མིག་གི་	-3475
སྤྱད་པ་	-3476
ཕྱི་ཞིག་	-3477
▁དགེ་སློང་	-3478
ioned	-3479
▁keep	-3480
▁reas	-3481
་བདུན་	-3482
སྐལ་པར་	-3483
ོག་པའི་	-3484
▁though	-3485
▁gateway	-3486
ེབ	-3487
ནས་སུ་	-3488
▁avalok	-3489
▁refuge	-3490
▁illumin	-3491
▁skilled	-3492
▁mountains	-3493
▁remaining	-3494
་བྱད་	-3495
▁nose	-3496
ཡིད་དུ་	-3497
ོགས་སུ་	-3498
རིན་ཆེན་	-3499
ལྟ་བུའི་	-3500
ས་པར་འགྱུར་	-3501
▁avalokites	-3502
ལྗ	-3503
▁saky	-3504
ལ་གྱི་	-3505
mediate	-3506
་དག་གི་	-3507
▁prostr	-3508
▁display	-3509
ཁྱིམ་བདག་	-3510
གྱུར་ཏོ་་	-3511
རིགས་ཀྱི་བུ	-3512
sw	-3513
▁cro	-3514
▁imm	-3515
ཅིང་་་	-3516
▁spoken	-3517
▁objects	-3518
འགྱུར་བ་དང་་	-3519
་དཔག་ཏུ་མེད་པ་	-3520
ning	-3521
▁opp	-3522
▁answ	-3523
མ་འདྲེས་པ	-3524
▁neg	-3525
སྟེ་བ	-3526
ཆགས་པ་	-3527
ར་བྱས་	-3528
འི་ཚུལ་	-3529
ཉིད་ཀྱིས་	-3530
ཡིད	-3531
སྒྲི	-3532
གདུགས་	-3533
འཇུག་པ	-3534
▁attend	-3535
▁stainless	-3536
▁practicing	-3537
གུ	-3538
ལྟ་ན་	-3539
མེད་དོ་	-3540
སྔོན་བྱུང་བ་	-3541
དབ	-3542
ར་དང་	-3543
▁realiz	-3544
འདུག་གོ་་	-3545
▁བྱང་ཆུབ་	-3546
▁explained	-3547
atn	-3548
fully	-3549
འི་དོ	-3550
▁nonex	-3551
▁point	-3552
ཁང་བཟངས་	-3553
ཇི་ལྟར་ན	-3554
▁possessed	-3555
ཟི	-3556
ཞིན་	-3557
rought	-3558
▁clear	-3559
▁praise	-3560
▁vision	-3561
▁learned	-3562
▁nonexist	-3563
སྦྱིན་པའི་	-3564
▁attainment	-3565
ler	-3566
▁bel	-3567
▁pay	-3568
ད་པས་	-3569
ུང་བར་	-3570
▁higher	-3571
རས་གཟིགས་	-3572
▁conditions	-3573
ols	-3574
▁purs	-3575
་སྟེ་་	-3576
ར་བགྱི་	-3577
རྗེས་སུ	-3578
▁twenty	-3579
▁incense	-3580
ལྔ་	-3581
་དྲུག	-3582
མོས་པ	-3583
ication	-3584
▁wishes	-3585
་པར་གྱུར་ཅིག་	-3586
ཚིགས་སུ་བཅད་པ་	-3587
▁pratyekabuddhas	-3588
གཅོ	-3589
ངས་པ	-3590
ུས་བ	-3591
▁pain	-3592
འདི་དག	-3593
▁types	-3594
▁ganges	-3595
རབ་ཏུ་བྱུང་ནས་	-3596
ཁོ་ན	-3597
ཟླ་བ	-3598
ཟླ་བ་	-3599
མདོ་སྡེ་	-3600
▁brought	-3601
ཁོ་ན་	-3602
སྐོར་	-3603
ུམ་པ་	-3604
མ་མཆིས་	-3605
▁perception	-3606
་དྷ	-3607
ཅིང་བ	-3608
འདྲ་བ	-3609
རྙེད་	-3610
ུང་གི་	-3611
▁addre	-3612
▁perse	-3613
མཐོང་བ་	-3614
▁achieve	-3615
ང་ཆུབ་སེམས་དཔས་	-3616
ང་་	-3617
མི་སྣང་བ	-3618
▁garland	-3619
▁whoever	-3620
▁irreversible	-3621
iot	-3622
ases	-3623
soci	-3624
་བསྡ	-3625
འདྲི	-3626
▁tou	-3627
ུ་དང་	-3628
▁extre	-3629
▁names	-3630
▁river	-3631
▁toler	-3632
cif	-3633
ract	-3634
ཁྱམས་	-3635
མཁས་པ	-3636
་དང་མི	-3637
གནས་སུ་	-3638
▁animal	-3639
▁splend	-3640
སྙེན་བཀུ	-3641
ེ་བའི་རྩ	-3642
▁chariot	-3643
▁discour	-3644
ལ་སོགས་པ་	-3645
འདི་ལྟ་བུ་	-3646
་བརྒྱ་སྟོང་	-3647
ཟག་	-3648
preh	-3649
་བསླ	-3650
ཟིལ་	-3651
ཞི་བ་	-3652
ས་སྒྱ	-3653
སྙེད་	-3654
▁grain	-3655
▁associ	-3656
ཚིག་བླ་དག	-3657
་དགེ་བའི་རྩ་བ	-3658
▁མད་གལ་གྱི་བུ	-3659
oic	-3660
རྡུལ་	-3661
▁find	-3662
་དང་་སྐ	-3663
ལེགས་སོ་	-3664
ནས་དེ་བཞི	-3665
▁conceptual	-3666
མངོན་པར་ཤེས་པ་	-3667
ོལ་བ་	-3668
▁decl	-3669
▁compreh	-3670
▁pleasure	-3671
རྩེ	-3672
▁jo	-3673
▁thr	-3674
ངོ་མཚ	-3675
▁medic	-3676
་དཀྱིལ་	-3677
གསོལ་པ་	-3678
ད་པར་བྱ	-3679
ནོར་བུ་	-3680
▁དེ་ནས་དེ	-3681
▁nonentities	-3682
▁reme	-3683
་བདག་གིས་	-3684
་སྲ	-3685
▁old	-3686
▁best	-3687
▁much	-3688
ཁ་དོག་	-3689
་དག་ནི་	-3690
ཁམས་དང་	-3691
▁prophes	-3692
སྙིང་རྗེ་	-3693
▁avalokitesvara	-3694
tras	-3695
ཕྱུང་	-3696
ངས་ནས་	-3697
▁demon	-3698
འཕགས་པ་	-3699
་དམ་པའི་	-3700
ib	-3701
alk	-3702
arch	-3703
ones	-3704
ཤཀྱ་	-3705
གས་པས་	-3706
ཆོས་སྨྲ	-3707
ཚངས་པའི་	-3708
ོ་བོས་ཕྱག་འཚ	-3709
འཕེ	-3710
ཐར་བ	-3711
འཆི་	-3712
aterial	-3713
་དགའ་བ་	-3714
ru	-3715
ཆ་	-3716
ྲག་	-3717
▁ste	-3718
claim	-3719
ently	-3720
ersal	-3721
ས་སྒྲ	-3722
▁prop	-3723
ཚངས་པ་	-3724
▁defile	-3725
the	-3726
ས་དབ	-3727
▁mil	-3728
ister	-3729
ormed	-3730
རྒྱུད་	-3731
▁robes	-3732
▁བདག་ཅག་	-3733
▁delighted	-3734
་བཏ	-3735
▁holy	-3736
འ་ཞིག་	-3737
ར་དང་་	-3738
ཙན་དན་གྱི་	-3739
སྤྱོད་ཡུལ་	-3740
་དགེ་སློང་གི	-3741
ild	-3742
་དགུ	-3743
▁sal	-3744
tyard	-3745
▁sour	-3746
ུམ་དུ་	-3747
▁nonvirt	-3748
་དེ་དག་ལ་	-3749
▁courtyard	-3750
▁eloquence	-3751
▁practices	-3752
སེམས་ཅན་དམྱ	-3753
ཐམས་ཅད་ཀྱིས་	-3754
སྐལ་པར་ལན་གས	-3755
▁ཁྱིམ་བདག་འདི་ལ	-3756
iled	-3757
གས་་	-3758
ཡི་་	-3759
▁along	-3760
▁fault	-3761
▁myself	-3762
▁exhaust	-3763
▁kingdom	-3764
་དང་བྲལ་བ་	-3765
▁victorious	-3766
ཞུ་བ་ཞུས་པ་ན་	-3767
ཏ་	-3768
yal	-3769
གང་ག	-3770
ལས་ལ	-3771
usion	-3772
▁tell	-3773
▁color	-3774
▁trained	-3775
▁darkness	-3776
▁wherever	-3777
མཉེས་པར་བྱེད	-3778
འམ་རིགས་ཀྱི་བ	-3779
ཤེས་པ་དེ་ལ་ཡང་	-3780
ལ་མགོ་བོས་ཕྱག་འཚ	-3781
མཇ	-3782
མན	-3783
ཁྱོད	-3784
▁red	-3785
སྤོས་	-3786
སྣང་བ་	-3787
▁carry	-3788
▁sugata	-3789
▁unborn	-3790
གཞན་ཡང་བྱ	-3791
ཡུན་	-3792
▁eat	-3793
་དད་པ་	-3794
གསོལ་པ	-3795
་བྱེད་པ	-3796
▁second	-3797
་བྱས་ཏེ་	-3798
སྐྱེད་པ་	-3799
▁tolerance	-3800
▁inconceivably	-3801
know	-3802
འདབ་	-3803
རིམ་	-3804
ག་དང་	-3805
▁abod	-3806
ས་པ་ལ་	-3807
▁analog	-3808
▁transf	-3809
ཤ་	-3810
two	-3811
ocos	-3812
་སྣ་	-3813
ཅུའི་	-3814
ས་བྱི	-3815
▁cogn	-3816
▁meth	-3817
▁told	-3818
་དེ་དང	-3819
▁voice	-3820
་དེ་དག་གི	-3821
ར་གྱུར་ཏེ་	-3822
▁daughters	-3823
ཆེན་པོ་ཤེས་རབ་	-3824
▁བསྐལ་པར་ལན་གས	-3825
urb	-3826
རིང་	-3827
▁matur	-3828
▁གང་གི་	-3829
▁གང་དག་	-3830
▁persons	-3831
▁support	-3832
▁worldly	-3833
་སངས་རྒྱས་	-3834
སུམ་ཅུ་རྩ་	-3835
ita	-3836
ased	-3837
ཆེད་	-3838
ུབས་	-3839
▁eth	-3840
ྱིངས་	-3841
▁royal	-3842
▁making	-3843
▁སུ་ནི་	-3844
ྭ་བརྒྱད་	-3845
ལེགས་པར་བ	-3846
ཟེ	-3847
dra	-3848
▁sm	-3849
▁emb	-3850
ཚུལ་བ	-3851
▁done	-3852
ལ་འབྱོ	-3853
▁began	-3854
▁vimal	-3855
▁suffer	-3856
མི་འགྱུར་རོ་་	-3857
▁applications	-3858
ken	-3859
ངག་	-3860
ཆད་	-3861
རུ་	-3862
▁va	-3863
▁གླ	-3864
མཆེད	-3865
▁rise	-3866
གཉིས་སུ་	-3867
▁ripening	-3868
▁maj	-3869
antly	-3870
ར་པོ་	-3871
་དྲི་ཟ	-3872
▁doubt	-3873
་བསྐྱེད	-3874
▁eighty	-3875
▁ཨ	-3876
ཞལ་	-3877
འབྱི	-3878
▁sme	-3879
་བཏང་	-3880
་དག་གི	-3881
ནི་དེ་	-3882
གསེར་གྱི་	-3883
▁spiritual	-3884
▁accomplished	-3885
ྱངས་	-3886
▁boy	-3887
▁mah	-3888
▁mait	-3889
▁happy	-3890
▁travel	-3891
▁conditioned	-3892
▁ཆོས་ཐམས་ཅད་	-3893
igr	-3894
ird	-3895
སྲེ	-3896
ling	-3897
ured	-3898
▁mod	-3899
▁mom	-3900
▁nar	-3901
▁ཇི་	-3902
▁milk	-3903
ཐད་དུ་	-3904
འདྲ་བ་	-3905
ས་ཀྱང་	-3906
ར་བྱེད་་	-3907
▁བདག་གིས་	-3908
ཁམས་ཤེས་པ་	-3909
ཅང་	-3910
གཏོང་བ	-3911
▁effort	-3912
▁ethical	-3913
▁appropri	-3914
▁དེ་ནས་བྱ	-3915
▁manifestly	-3916
▁meditation	-3917
་དཔག་ཏུ་མེད་པ	-3918
▁དེ་ན	-3919
ཅི་ཡང་	-3920
ན་བདག་	-3921
ཡིན་པར་	-3922
▁palace	-3923
▁utterly	-3924
▁surround	-3925
▁གཞོན་ནུ་	-3926
aw	-3927
ནུ	-3928
ཀླུང་	-3929
▁insp	-3930
ཀྱང་་་	-3931
▁conta	-3932
▁truths	-3933
ཏིང་འཛིན་	-3934
ཟིལ་གྱིས་	-3935
གཟུགས་ཀྱི་	-3936
uta	-3937
ངས་བ	-3938
ལོ་་	-3939
▁bha	-3940
chili	-3941
▁rose	-3942
▁today	-3943
་བྱུང་བ	-3944
ཁྱོད་ལ་	-3945
ལོངས་སྤ	-3946
སྐྱེ་བའི་	-3947
ཚངས་པར་སྤྱོད་པ་	-3948
ད་དོ་	-3949
▁sick	-3950
རྒྱུན་	-3951
▁youth	-3952
་དེ་ནས་	-3953
ད་པ་དང་	-3954
▁arising	-3955
chiliocos	-3956
སེམས་ཀྱི་	-3957
▁stability	-3958
རྗེས་སུ་མི་	-3959
ont	-3960
ོ་བྲ	-3961
▁dec	-3962
▁dra	-3963
ཆགས་པ	-3964
ུལ་པ་	-3965
▁sams	-3966
▁pride	-3967
་བྱང་ཆུབ	-3968
གཏི་མུག་	-3969
རྣམ་པར་བྱ	-3970
ལ་བཀའ་སྩལ་པ་	-3971
cet	-3972
isen	-3973
▁cap	-3974
▁unf	-3975
སྤོང་བ	-3976
▁quint	-3977
▁wrong	-3978
འབྲས་བུ	-3979
▁proper	-3980
རྣལ་འབྱོ	-3981
ཤེས་སོ་་	-3982
▁illness	-3983
རིག་པ་དང་	-3984
▁universal	-3985
ཅོམ་ལྡན་འདས་ཀྱི་	-3986
འགྱ	-3987
མཆེད་	-3988
སྐྱེས་པ་	-3989
ལ་སྙོམས་པར་	-3990
ened	-3991
ཉི་ཤ	-3992
འགྲོ	-3993
འི་དྲ	-3994
རྣམས་ལ	-3995
མངོན་པར་ཞེ	-3996
ཆོས་མ་འདྲེས་པ	-3997
ས་སྙ	-3998
▁sou	-3999
asure	-4000
ནས་དག	-4001
མཐོང་་	-4002
▁enter	-4003
ལྷ་མ་ཡི	-4004
▁acquire	-4005
ཁྱོད་ཀྱི་	-4006
▁sees	-4007
▁moment	-4008
གནོད་སྦྱི	-4009
་དང་བཅས་པའི་	-4010
▁trichiliocos	-4011
cus	-4012
▁most	-4013
ལ་དང་་	-4014
▁mount	-4015
མྱུར་དུ་	-4016
འདི་ཉིད་	-4017
རྣམས་ཀྱིས་བ	-4018
འཇིག་རྟེན་དུ་	-4019
བ་པ	-4020
སྦྲ	-4021
anim	-4022
▁mid	-4023
▁mend	-4024
▁ratn	-4025
འོང་བ་	-4026
▁verse	-4027
མཉན་དུ་	-4028
ཞུགས་པའི་	-4029
མོ་བ	-4030
སྒོམ	-4031
ལམ་བཏ	-4032
ཙམ་དུ་	-4033
▁ascet	-4034
▁intell	-4035
▁maitre	-4036
་དགེ་འདུ	-4037
་བྱས་ནས་	-4038
ན་དམ་པར་	-4039
མི་དམིགས་	-4040
ར་བྱེད་དེ་	-4041
་དྲན་པ་ཉེ་བར་གཞ	-4042
▁ས	-4043
hind	-4044
་བསྲ	-4045
▁fort	-4046
གནས་པའི་	-4047
གནས་སོ་་	-4048
འདྲེན་པ་	-4049
▁pleased	-4050
གཟི་བརྗིད་	-4051
ས་བཀའ་སྩལ་ཏོ་་	-4052
cle	-4053
སྔར་	-4054
▁gra	-4055
ར་མི་	-4056
▁gard	-4057
▁pray	-4058
ཆོས་ལ་	-4059
▁maitreya	-4060
ཙན་དན་གྱི་ཁྱམས་	-4061
anqu	-4062
ceed	-4063
ཡི་ར	-4064
འཛམ་བ	-4065
ལ་དང་	-4066
▁begin	-4067
་དང་་སྤ	-4068
▁longer	-4069
▁mendic	-4070
གང་ཡིན་པ་	-4071
ཆོས་སྟོན་	-4072
▁material	-4073
▁splendor	-4074
འཁོར་ལོས་སྒྱ	-4075
tama	-4076
▁stud	-4077
ཟབ་མོ་	-4078
འཇིགས་	-4079
ཡོ་བྱད་	-4080
▁defining	-4081
ཆོས་མ་འདྲེས་པ་བཅ	-4082
ped	-4083
asti	-4084
ented	-4085
▁play	-4086
▁serv	-4087
གསོལ་་	-4088
ར་བྱ་བ་	-4089
▁flower	-4090
ཆེན་པོར་	-4091
▁craving	-4092
ཡིན་ཞེ་ན་	-4093
སེང་གེའི་	-4094
ཡན་ལག་བརྒྱ	-4095
tween	-4096
་བསྒོམ	-4097
་བྱ་བ་	-4098
སྒྱུར་བ	-4099
▁mother	-4100
▁strong	-4101
ཁྱིམ་བདག	-4102
▁between	-4103
མ་ཡིན་ཏེ་	-4104
ར་བྱས་ཏེ་	-4105
་དེ་ལྟ་བུ་	-4106
ery	-4107
ནུས་	-4108
ounded	-4109
▁nonar	-4110
▁placed	-4111
་བདག་ཅག་	-4112
ཀའ་སྩལ་པ	-4113
མཆོག་ཏུ་	-4114
▁explain	-4115
▁samsara	-4116
▁fruition	-4117
▁cultivate	-4118
▁dependent	-4119
▁something	-4120
རྣམས་ཡིན་ནོ་	-4121
མེད་པའི་ཕྱིར་	-4122
uc	-4123
་དབང	-4124
འོང་	-4125
▁aus	-4126
▁led	-4127
ledges	-4128
▁eightfold	-4129
འདི་ལ་ལོངས་སྤ	-4130
ེ་བར་གཤེགས་པ་	-4131
▁perseverance	-4132
▁trichiliocosm	-4133
ཏིང་ངེ་འཛིན་དང་་	-4134
ert	-4135
cles	-4136
འཕོས་	-4137
ལགས་་	-4138
▁hard	-4139
གིས་ནི་	-4140
▁notions	-4141
ཞུགས་སོ་་	-4142
ལྷན་ཅིག་ཏུ་	-4143
▁ཚེ་དང་ལྡན་པ་	-4144
ད་ནས་	-4145
འཐོབ་	-4146
འབུམ་	-4147
▁ears	-4148
འཛིན་པ	-4149
▁comes	-4150
་རིའི་བུ	-4151
▁sravasti	-4152
ཉན་ཐོས་ཀྱི་	-4153
ail	-4154
ned	-4155
ལུང་	-4156
▁fet	-4157
འཆི་བ	-4158
སྡུག་	-4159
དེན་པ་	-4160
ས་བརྒྱ	-4161
▁paras	-4162
གཞན་དུ་	-4163
རྒྱལ་བ་	-4164
▁compos	-4165
་དང་བྲལ་བ	-4166
རྒྱུན་དུ་	-4167
▁garlands	-4168
▁pleasant	-4169
་དང་ལྡན་ན་བྱ	-4170
གསུམ་གྱི་སྟོང་	-4171
ཕུལ་	-4172
ཐེག་པ	-4173
▁acts	-4174
▁pros	-4175
ལུས་དང་	-4176
སྦྱོར་བ	-4177
▁golden	-4178
▁itself	-4179
▁poison	-4180
▁precept	-4181
སེམས་བསྐྱེད	-4182
ཕྱག	-4183
འོག་ཏུ་	-4184
ུན་པའི་	-4185
▁subject	-4186
▁restrain	-4187
▁acceptance	-4188
▁nonarising	-4189
ཐོག་	-4190
འདྲ་	-4191
▁orn	-4192
▁blue	-4193
ཀོད་པ་	-4194
ོ་ཞིང་	-4195
▁stand	-4196
itation	-4197
ཀུར་སྟི	-4198
མངོན་པར་འདུ	-4199
འཁོར་ལོས་སྒྱུར་བ	-4200
crib	-4201
arbha	-4202
མི་གཡ	-4203
རྗོད་	-4204
▁care	-4205
▁sarv	-4206
་བྱེ་བ	-4207
འདི་ནི	-4208
སྐྱོན་	-4209
▁heart	-4210
▁merch	-4211
རྟག་པར་	-4212
▁freedom	-4213
▁ལྷའི་བུ	-4214
▁gathered	-4215
ར་འགྱུར་ཏེ་	-4216
འདི་ལ་ལོངས་སྤྱོད	-4217
དང	-4218
ipa	-4219
ript	-4220
ཕ་མ་	-4221
▁use	-4222
▁died	-4223
▁prin	-4224
▁དེ་བ	-4225
རྐང་པ་	-4226
▁billion	-4227
▁addressed	-4228
▁gandharvas	-4229
སྡེ	-4230
▁ད་	-4231
▁བད	-4232
ངའི་	-4233
མི་ཟ	-4234
▁ima	-4235
ུག་པ་	-4236
གཅིག་པ	-4237
ཐོས་པ་	-4238
▁causal	-4239
▁depart	-4240
སྦྱོར་བ་	-4241
▁comprehend	-4242
mber	-4243
ried	-4244
▁sud	-4245
▁girl	-4246
གསུངས་	-4247
ཤེས་རབ	-4248
འི་དོན་	-4249
སྙམ་འམ་	-4250
▁elimin	-4251
འོང་བའི་	-4252
རྣམ་པར་བ	-4253
▁equanim	-4254
འམ་གལ་ཏེ་	-4255
ལྷ་དང་མི་	-4256
▁superior	-4257
འི་རྒྱལ་པོ་	-4258
འཕགས་པའི་ལམ་	-4259
cho	-4260
dess	-4261
ཐེ་ཚ	-4262
▁ལུས་	-4263
རྒྱས་པ	-4264
▁chapt	-4265
▁perform	-4266
གཉིས་ཀྱིས་	-4267
ཉོན་མོངས་པ	-4268
▁nonexistent	-4269
་པར་གྱུར་ཏོ་་	-4270
ངམ་	-4271
་བྱ་	-4272
▁age	-4273
▁fix	-4274
▁beli	-4275
ཁྲག་ཁྲ	-4276
སོ་སོར་	-4277
▁perfum	-4278
▁reached	-4279
་དགེ་སྦྱོ	-4280
རྗེས་སུ་ལྟ་བར་	-4281
ཁང་བཟངས་ཀྱི་བར་	-4282
ama	-4283
uni	-4284
ེང་	-4285
རྟན་པ	-4286
▁face	-4287
undane	-4288
ཤིང་རྟ	-4289
▁devot	-4290
▁focus	-4291
▁ornam	-4292
▁devoid	-4293
སྐྱེ་བར་	-4294
་པར་བྱའོ་	-4295
་བརྒྱ་བྱི	-4296
▁activity	-4297
་དེ་ལྟ་བས་	-4298
▁equanimity	-4299
▁previously	-4300
ཀུ་	-4301
pper	-4302
རྐང་	-4303
་དཀའ་	-4304
མི་ནུ	-4305
ཤིང་བ	-4306
▁hero	-4307
ལོག་པར་	-4308
▁circum	-4309
▁during	-4310
སྐྱེས་བུ	-4311
▁chapter	-4312
▁prosper	-4313
ཁྲག་ཁྲིག་	-4314
▁realized	-4315
▁དེ་ནས་ཕྱི་ཞིག་	-4316
གམ་	-4317
སྐུ	-4318
ན་གཞ	-4319
མོངས་	-4320
▁twel	-4321
▁gifts	-4322
▁སེམས་	-4323
▁system	-4324
▁essence	-4325
▁realize	-4326
▁blissful	-4327
▁purified	-4328
ཀུན་དགའ་བོ	-4329
འམ	-4330
འབྲེ	-4331
▁calm	-4332
ོགས་པར་	-4333
ལ་གནས་པ་	-4334
མ་མཆིས་པ་	-4335
མི་བྱའོ་་	-4336
ཕྱོགས་གཅིག་ཏུ་	-4337
་སྡ	-4338
▁སྨ	-4339
▁dom	-4340
མི་བཟ	-4341
▁intr	-4342
▁jamb	-4343
▁kill	-4344
་དབྱངས་	-4345
སོང་ནས་	-4346
▁recite	-4347
▁དེ་ཡི་	-4348
་དེ་ཉིད་	-4349
ཉོན་མོངས་	-4350
▁ordinary	-4351
ཉན་ཐོས་དང་	-4352
སྤྱོད་པའི་	-4353
སྤྱན་རས་གཟིགས་	-4354
གོ	-4355
ages	-4356
arge	-4357
མ་འོང	-4358
མཐའ་ཡས་	-4359
མི་ནུས་	-4360
▁analogy	-4361
▁goddess	-4362
འགྲོ་བའི་	-4363
ོག་པ་དང་་	-4364
▁revealed	-4365
མི་དམིགས་པ	-4366
ཐམས་ཅད་སྤངས་ཏེ	-4367
dha	-4368
▁land	-4369
▁vill	-4370
▁void	-4371
ལ་ཆོས་	-4372
ས་སྦྱི	-4373
ཆོས་བཅུ	-4374
རྡོ་རྗེ	-4375
llection	-4376
ོད་པ་དང་	-4377
▁narayana	-4378
གཞི	-4379
ར་དུ	-4380
མ་ཐག་	-4381
ཐུབ་པ་	-4382
ཞིང་་་	-4383
ཟང་པོ་	-4384
▁leave	-4385
་བདེ་བ་	-4386
ཀྱིས་བྱ	-4387
▁brings	-4388
▁reason	-4389
གསེ	-4390
▁bad	-4391
▁tor	-4392
though	-4393
▁cease	-4394
▁fields	-4395
▁grains	-4396
སྟོབས་དང་	-4397
▁discourse	-4398
▁protector	-4399
▁householders	-4400
▁bu	-4401
mall	-4402
་བདེ	-4403
ན་དང	-4404
▁bri	-4405
▁rad	-4406
▁ves	-4407
datta	-4408
ཕོ་བྲ	-4409
རློམ་	-4410
▁show	-4411
▁heads	-4412
གྱུར་ཏེ་	-4413
▁emancip	-4414
▁although	-4415
▁pleasing	-4416
ཆེན་པོ་དང་་	-4417
▁ultimately	-4418
ali	-4419
་རང་	-4420
▁spr	-4421
iting	-4422
ིལ་སྙ	-4423
▁syll	-4424
རྟོགས་	-4425
▁assum	-4426
▁honor	-4427
▁vessel	-4428
་དང་བཅས་པ་	-4429
ར་པ་	-4430
gress	-4431
དག་གི	-4432
▁obsc	-4433
▁smell	-4434
▁taken	-4435
གང་གའི་	-4436
འཁོར་བ་	-4437
འི་ཚིག་	-4438
རིང་པོ་	-4439
འི་སངས་རྒྱ	-4440
ལུང་བསྟན་པ་	-4441
▁activities	-4442
▁approached	-4443
▁འདི་ལྟ་སྟེ་	-4444
ཁང་	-4445
ཁབ་	-4446
ging	-4447
like	-4448
སོ་་	-4449
འི་དུ	-4450
▁felt	-4451
▁prep	-4452
▁vais	-4453
isters	-4454
▁small	-4455
ང་ཕྱུག་	-4456
ར་དགའ་བ	-4457
▁engend	-4458
ར་བྱེད་པ	-4459
ས་དེ་དག་	-4460
▁elephant	-4461
ར་བགྱིའོ་་	-4462
ཐམས་ཅད་ཀྱང་	-4463
ulf	-4464
▁sl	-4465
▁lay	-4466
ལ་མཁས་པ	-4467
▁compan	-4468
▁partic	-4469
འདི་ལ་བྱ	-4470
▁illusory	-4471
ung	-4472
▁lit	-4473
གལ་ཏེ	-4474
གྲོལ་	-4475
ན་བཞི	-4476
འ་བོ་	-4477
▁inst	-4478
▁rely	-4479
གྱིས་བ	-4480
ཡན་ལག་	-4481
ར་དུ་བ	-4482
ུད་མེད	-4483
ོད་དུ་	-4484
▁knower	-4485
▁terrif	-4486
▁twelve	-4487
▁negative	-4488
ས་པའི་ཆོས་	-4489
▁པ	-4490
more	-4491
འཚལ་	-4492
ན་མི་	-4493
འཕྲུལ	-4494
འབར་བ	-4495
རྒྱད་	-4496
▁fine	-4497
▁loving	-4498
ཀྱི་ཞབས་	-4499
འཁོར་ལོ་	-4500
མི་འགྱུར་་	-4501
▁pleasures	-4502
་དེ་དག་ཀྱང་	-4503
isf	-4504
▁er	-4505
ང་ལ་	-4506
undam	-4507
སྡིག་	-4508
▁nond	-4509
lusion	-4510
་བ་དང་	-4511
ཁྱད་པར་	-4512
མིང་ཙམ་	-4513
ེད་མེད་	-4514
▁around	-4515
▁fundam	-4516
ནམ་མཁའི་	-4517
མྱ་ངན་འད	-4518
▁proclaim	-4519
▁produced	-4520
▁sameness	-4521
འི་དབང་པོ་	-4522
་བདུ	-4523
igods	-4524
གང་དག	-4525
ཐོགས་པ་	-4526
འཛམ་བུའི་	-4527
▁direction	-4528
▁inexpress	-4529
ེད་མེད་ཀྱི་བ	-4530
▁accordingly	-4531
▁emancipation	-4532
སྟོང་པ་ཉིད་དང་་	-4533
ཆག	-4534
equ	-4535
ici	-4536
araja	-4537
tered	-4538
་དམ་པ	-4539
དང་བྲ	-4540
བ་པར་	-4541
མདོག་	-4542
མོས་ཚ	-4543
ས་སྤྲ	-4544
▁deli	-4545
▁armor	-4546
▁uphold	-4547
ས་སྨྲས་པ	-4548
▁dwelling	-4549
▁displease	-4550
་པར་འགྱུར་རོ་	-4551
aces	-4552
▁gau	-4553
གནས་བ	-4554
མཚོན་	-4555
ཙམ་དུ	-4556
ནི་མི་	-4557
▁blood	-4558
▁sages	-4559
ན་གྱི་བ	-4560
ཕྲག་དུ་	-4561
མཆོད་པ་	-4562
ལས་དེའི་	-4563
▁systems	-4564
▁attached	-4565
རློམ་སེམས་	-4566
འི་བསོད་ནམས་	-4567
▁fundamental	-4568
ཤེས་པ་འདི་ལྟར་	-4569
opt	-4570
ྲིན་	-4571
ཁ་ལོ་	-4572
འམ་ཅི	-4573
ཡི་གེ	-4574
སྟོད་	-4575
▁town	-4576
▁adopt	-4577
▁དེ་དག	-4578
ondition	-4579
▁disturb	-4580
ཅེས་བྱ་བ་	-4581
▁superknow	-4582
སོ་ཡང་དག་པར་	-4583
མངོན་སུམ་དུ་བྱ	-4584
ཕ་	-4585
ང་་་	-4586
འ་དང་	-4587
གླང་པོ་	-4588
འི་དཔལ་	-4589
▁majest	-4590
▁grasping	-4591
▁venerate	-4592
▁abandoned	-4593
▁attainments	-4594
་པར་བྱེད་དོ་་	-4595
▁ཅི་	-4596
ortun	-4597
་བཅུ་	-4598
་བདེ་	-4599
ཐོས་པ	-4600
མཉམ་པ	-4601
འ་བར་	-4602
གས་ཏེ་	-4603
ནམ་ཡང་	-4604
ལེན་པ་	-4605
▁based	-4606
་དག་ཏུ་	-4607
ོད་སྙོམས་	-4608
▁thirtytwo	-4609
སེམས་ཅན་དེ་དག་	-4610
oud	-4611
▁hel	-4612
་སྟོབ	-4613
▁ཀུན་	-4614
་དཀར་པོ	-4615
འདུལ་བ་	-4616
▁fortun	-4617
རྒྱ་ཆེར་	-4618
སྟན་ཏོ་་	-4619
▁desires	-4620
▁daughter	-4621
གྲ་བཅོམ་པ་	-4622
་ར་དྭ་ཏིའི་བུ་	-4623
ན་མ་	-4624
▁ago	-4625
▁fles	-4626
▁maras	-4627
▁འདི་ལྟ	-4628
རིས་ཀྱི་	-4629
ཕ་རོལ་གྱི་	-4630
ove	-4631
pic	-4632
གླི	-4633
མཐོ་	-4634
▁ངས་	-4635
ལ་ནས་	-4636
མང་དུ་	-4637
▁exter	-4638
▁incant	-4639
▁intent	-4640
▁script	-4641
▁རྣམ་པ་	-4642
inations	-4643
སྤོབས་པ་	-4644
་དང་བཅས་པ	-4645
▁achieved	-4646
▁ལྷའི་བུ་	-4647
▁ཁྱིམ་བདག་དེ་ལ	-4648
cy	-4649
ives	-4650
ters	-4651
ན་དེ	-4652
སྙེད	-4653
འཚོ་བ	-4654
▁fulf	-4655
ourage	-4656
་བརྒྱ་	-4657
རྣམས་་	-4658
ོན་པར་	-4659
་དབང་པོ	-4660
གནས་ནས་	-4661
ནས་སུ་་	-4662
▁months	-4663
▁satisf	-4664
ཞེས་ཟེར་	-4665
འོད་ཟེར་	-4666
རྒྱལ་བའི་	-4667
▁questions	-4668
་བྲ	-4669
ཚོག	-4670
ུམ་བ	-4671
▁fra	-4672
▁gro	-4673
ཡང་་་	-4674
ལེའུ་	-4675
▁inqu	-4676
▁open	-4677
▁powd	-4678
▁occur	-4679
▁resol	-4680
ས་བུའི་	-4681
མོད་ཀྱི་	-4682
▁express	-4683
▁extreme	-4684
གང་གི་ཚེ་	-4685
མ་ཡིན་ནོ་	-4686
▁internal	-4687
མ་གྱུར་ཅིག་	-4688
འཇིག་རྟེན་དུ	-4689
▁impermanent	-4690
གཞོན་ནུར་གྱུར་པ་	-4691
རང	-4692
mit	-4693
ཀར་	-4694
ན་དག	-4695
ལྷག་	-4696
ས་དང	-4697
རིག་པ	-4698
▁pacif	-4699
་བྱེ་མ་	-4700
མས་པའི་	-4701
▁candra	-4702
གྲོང་ཁྱེ	-4703
ཞི་གང་ཞེ་ན་	-4704
▁constitute	-4705
▁fruitional	-4706
ཐེག་པ་ཆེན་པོ་	-4707
རྣམ་པར་གྲོལ་བ	-4708
རྣམ་པར་སྨིན་པ་	-4709
ཤར་	-4710
་སྤྱ	-4711
གླིང་	-4712
སླད་དུ	-4713
▁above	-4714
ཆོས་དང་	-4715
ཤེས་གཉེ	-4716
ོན་གྱི་	-4717
་དང་་སྐྱ	-4718
་སྣ་ཚོགས་	-4719
ར་བྱ་བའི་	-4720
སྒྱུ་མའི་	-4721
ནི་མིང་ཙམ་	-4722
▁regarding	-4723
མེ	-4724
རོ	-4725
aves	-4726
ners	-4727
ད་མ་	-4728
ས་སྲ	-4729
▁swe	-4730
▁སྲི	-4731
་དེ་་	-4732
▁jina	-4733
▁magn	-4734
ཀླུའི་	-4735
▁flesh	-4736
▁seated	-4737
ལ་རབ་ཏུ་	-4738
་དགེ་བསྙེ	-4739
▁remember	-4740
▁furthermore	-4741
རང་སངས་རྒྱས་ཀྱི་	-4742
pe	-4743
སྩ	-4744
ush	-4745
val	-4746
ཀླུ་	-4747
▁sva	-4748
atter	-4749
lfare	-4750
ངེས་པ	-4751
▁mult	-4752
▁work	-4753
སྐད་དུ་	-4754
མངོན་དུ་	-4755
▁consist	-4756
▁descend	-4757
▁welfare	-4758
▁attitude	-4759
▁དེ་ནས་དག	-4760
▁immediate	-4761
ཇི་ལྟར་ན་བྱ	-4762
ལས་ཡོངས་སུ་	-4763
▁ཚུལ་ཁྲིམས་	-4764
མྱ་ངན་ལས་འདས་པ་	-4765
དུ	-4766
unci	-4767
upon	-4768
ལ་བུ་	-4769
ས་ནི་	-4770
▁army	-4771
▁walk	-4772
▁དེར་	-4773
ོད་པར་	-4774
ན་བྱེད་	-4775
ཤེས་པར་	-4776
▁arises	-4777
▁butter	-4778
▁prayed	-4779
གཙུག་ལག་	-4780
སེམས་དང་	-4781
▁attract	-4782
▁surrounded	-4783
ྱ་	-4784
གནས་་	-4785
ུད་པ་	-4786
▁radi	-4787
▁rays	-4788
prabha	-4789
གཟུངས་	-4790
▁svaha	-4791
ལྟ་བའི་	-4792
▁sutras	-4793
ཕྱི་རོལ་	-4794
སྒྲིབ་པ་	-4795
སྟན་པའི་	-4796
▁designation	-4797
སེམས་ཅན་ཐམས་ཅད་	-4798
be	-4799
ལམ	-4800
་ཤི	-4801
ཉིན་	-4802
ླ་མ་	-4803
▁pad	-4804
▁separ	-4805
མཆོད་རྟེ	-4806
▁monarch	-4807
་དམིགས་སུ་	-4808
▁affliction	-4809
འི་བློ་གྲོས་	-4810
་སྦ	-4811
amuni	-4812
culate	-4813
▁beaut	-4814
▁invol	-4815
▁བདུད་	-4816
ཉིད་དང་	-4817
▁extens	-4818
▁renunci	-4819
ཁ་ལོ་སྒྱུར་བ	-4820
ཡུལ	-4821
come	-4822
རི་དག	-4823
དག་པོ་	-4824
ཡིན་ཏེ	-4825
▁third	-4826
་བསམ་པ་	-4827
▁describ	-4828
▁གཞོན་ནུ	-4829
onditioned	-4830
གྱུར་པ་དེ་	-4831
ཉོན་མོངས་པའི་	-4832
སེམས་ཅན་རྣམས་	-4833
▁inexpressible	-4834
གུ་	-4835
most	-4836
་བརྙ	-4837
ེད་པ	-4838
▁fif	-4839
མི་མང	-4840
▁saha	-4841
herent	-4842
སྤྲུལ་	-4843
རིམ་གྲོ	-4844
▁taking	-4845
ཇི་ལྟར་བ	-4846
ལ་བརྟེན་	-4847
▁rejoice	-4848
▁disciples	-4849
▁unconditioned	-4850
sy	-4851
mati	-4852
ཆུད་	-4853
དུན་	-4854
ན་གྲ	-4855
ར་བཞ	-4856
ན་དུ་བ	-4857
་སེམས་ཅ	-4858
སྐད་སྨྲ	-4859
འབའ་ཞིག་	-4860
རྣམས་སུ་	-4861
▁becomes	-4862
འཐུན་པའི་	-4863
ས་སྟོང་པ་	-4864
ཀྱི་དབྱིངས་	-4865
▁prophesied	-4866
▁purification	-4867
ཉིད་མངོན་སུམ་དུ	-4868
མ་་	-4869
stead	-4870
ང་སྲོང	-4871
མཛེས་པ	-4872
ལུས་ལ་	-4873
▁final	-4874
▁transm	-4875
་བདག་གི་	-4876
ས་བསམས་པ་	-4877
▁experien	-4878
▁possible	-4879
་དབང་ཕྱུག་	-4880
ས་འདི་ལྟར་	-4881
▁ordination	-4882
▁unsurpassable	-4883
ific	-4884
ready	-4885
མཛེས་	-4886
ཡིས་་	-4887
▁bran	-4888
▁prom	-4889
ཅན་གྱི་	-4890
▁already	-4891
▁lotuses	-4892
་ད་ལྟར་བྱ	-4893
ub	-4894
ནག	-4895
con	-4896
cing	-4897
ular	-4898
vipa	-4899
ལ་བཙ	-4900
▁bed	-4901
ཡིད་ལ	-4902
ཤུགས་	-4903
▁seed	-4904
▁sudd	-4905
▁later	-4906
གནོད་པ་	-4907
གྲོལ་བ་	-4908
▁behold	-4909
▁instead	-4910
ལ་བཟོད་པ་	-4911
འི་སྟོབས་བ	-4912
▁realization	-4913
ན་པ་ལ་སྤྱོད་པ་	-4914
jn	-4915
ནོ་	-4916
▁ap	-4917
▁oh	-4918
གཏན་	-4919
ྭ་ཧ་	-4920
▁get	-4921
་སྦྱི	-4922
ལྷག་པ	-4923
སྲུང་བ	-4924
▁apply	-4925
▁sister	-4926
ར་གྱུར་་	-4927
▁receive	-4928
▁answered	-4929
སེམས་ཀྱིས་	-4930
སྨོན་ལམ་བཏ	-4931
་དེ་ལྟར་ན་བྱ	-4932
རྣམ་པར་སྨིན་པས་	-4933
▁accomplishment	-4934
▁gre	-4935
uished	-4936
་བསམས་	-4937
ར་བྱ་་	-4938
ངན་སོང་	-4939
ངོ་མཚར་	-4940
ཐེ་ཚོམ་	-4941
▁sights	-4942
ཀྱང་མིང་	-4943
▁touched	-4944
འདུལ་བའི་	-4945
ར་བྱས་ནས་	-4946
▁entities	-4947
▁teachers	-4948
▁constantly	-4949
རྣམ་པར་དག་པ་	-4950
སུ	-4951
mic	-4952
རྣ་བ	-4953
asing	-4954
མི་མཇ	-4955
▁entr	-4956
གང་ཟག་	-4957
མྱོང་བ	-4958
ceiving	-4959
འདུག་པ་	-4960
རྗོད་པ་	-4961
▁rejoic	-4962
ཤིན་ཏུ་བ	-4963
▁kimnara	-4964
▁disappear	-4965
▁intention	-4966
▁restraint	-4967
▁absorptions	-4968
▁superknowledges	-4969
་སྔ	-4970
ཚོང	-4971
ཧུ་	-4972
གཏོར་	-4973
▁poor	-4974
ཡི་གེ་	-4975
▁stupa	-4976
▁truly	-4977
ception	-4978
ན་དེའི་	-4979
འི་ཚེ་བ	-4980
▁garden	-4981
ཐུགས་སུ་	-4982
▁intellig	-4983
▁elephants	-4984
་པར་བྱེད་པ་	-4985
ཀྱི་དབང་པོ་	-4986
ཆོས་རྣམས་ལ་	-4987
མད་གལ་གྱི་བ	-4988
ཡེ་ཤེས་ཀྱི་	-4989
མི་བྱེད་དོ་་	-4990
ཀྱང་མིང་ཙམ་དུ	-4991
གར་	-4992
རླུང་	-4993
སློབ་	-4994
▁wand	-4995
▁seats	-4996
▁དགེ་བའི་རྩ	-4997
yana	-4998
གཞལ་	-4999
ཅེས་	-5000
རྟུལ་	-5001
རླབས་	-5002
ུང་བཟ	-5003
་དཀའ་བ	-5004
ཚོར་བ་	-5005
▁class	-5006
▁grant	-5007
ཇི་སྙེད་	-5008
འི་རྒྱལ་པོ	-5009
▁boundless	-5010
▁delightful	-5011
རྒྱལ་པོའི་ཁབ་	-5012
▁apprehending	-5013
སེམས་ཅན་རྣམས་ལ་	-5014
agr	-5015
lies	-5016
སེར་	-5017
▁ens	-5018
aring	-5019
athom	-5020
ཁམས་བ	-5021
ཡི་དག	-5022
སོའི་	-5023
▁cycl	-5024
་དང་་སྙ	-5025
སྡུག་པ་	-5026
▁little	-5027
་པ་དང་་་	-5028
▁covered	-5029
▁ཇི་ལྟར་ན་	-5030
▁བཀའ་སྩལ་པ་	-5031
གང་གའི་ཀླུང་	-5032
་བྱེ་བ་ཁྲག་ཁྲིག	-5033
ཅད་	-5034
་དཔེ	-5035
་བཟླ	-5036
ནུབ་	-5037
ས་སྦ	-5038
འབྱུང	-5039
ེ་བོ་	-5040
བ་པའི་	-5041
སྨྲ་བ་	-5042
▁blind	-5043
▁exert	-5044
་ད་ལྟར་	-5045
་བྱས་པ་	-5046
ཐོབ་པར་	-5047
▁cyclic	-5048
▁domain	-5049
▁དེ་ཡང་	-5050
▁magical	-5051
་དེ་ནི་བྱ	-5052
མེད་པའོ་་	-5053
▁developed	-5054
▁sakyamuni	-5055
འི་བཤེས་གཉེ	-5056
ངས་རྒྱས་ཀྱི་	-5057
▁ཇི་ལྟར་ན་བྱ	-5058
ཞག	-5059
hin	-5060
leep	-5061
ཅུང་	-5062
▁raj	-5063
དག་ལ་	-5064
དེན་པ	-5065
སྣོད་	-5066
▁lifes	-5067
▁karmic	-5068
▁conclud	-5069
ཞེས་བྱའོ་	-5070
▁kimnaras	-5071
ར་གྱུར་ནས་	-5072
གནོད་སྦྱིན་	-5073
ཅེས་བྱས་སོ་་	-5074
rt	-5075
་དཔལ	-5076
▁sho	-5077
▁ཡང་	-5078
alted	-5079
inted	-5080
▁mast	-5081
▁womb	-5082
▁སྲིང་	-5083
▁secret	-5084
▁silver	-5085
▁holding	-5086
▁དེའི་ཚེ	-5087
གྱུར་ཅིག་	-5088
འི་དབྱངས་	-5089
▁anywhere	-5090
▁kindness	-5091
▁destroyed	-5092
▁appearance	-5093
ལས་ཡང་དག་པར་	-5094
མངོན་པར་ཤེས་པ	-5095
་དེ་ལྟ་བས་ན་བྱ	-5096
gs	-5097
ani	-5098
cess	-5099
ints	-5100
གསལ་	-5101
ཟའ་བ	-5102
▁mou	-5103
ables	-5104
སྨྲ་བ	-5105
▁help	-5106
▁read	-5107
གས་ནས་	-5108
མི་བལྟ	-5109
རྟོག་པ	-5110
▁account	-5111
▁gathering	-5112
་དཀྱིལ་འཁོར་	-5113
་བདེ་བར་གཤེགས་པ་	-5114
ift	-5115
apra	-5116
enth	-5117
ཉི་མ་	-5118
▁incl	-5119
་དེ་ན་	-5120
འདི་ན་	-5121
▁equip	-5122
▁serve	-5123
▁short	-5124
▁subst	-5125
གཅིག་པ་	-5126
མཛེས་པ་	-5127
▁caused	-5128
▁expert	-5129
▁jambud	-5130
▁turned	-5131
མཆོག་གི་	-5132
▁clothing	-5133
▁liberate	-5134
ཕྱོགས་ཀྱི་	-5135
མི་དམིགས་སོ་་	-5136
▁yo	-5137
rows	-5138
ལྟོ་	-5139
▁mot	-5140
veled	-5141
གང་ལ་	-5142
▁alas	-5143
▁goes	-5144
རྒྱུ་བ	-5145
▁aware	-5146
་དང་་སྣ	-5147
གྲགས་པ་	-5148
▁equipo	-5149
▁gained	-5150
▁རྒྱལ་པོ	-5151
སྤྱན་སྔར་	-5152
▁འདི་ལྟར་	-5153
མ་ཡིན་པའི་	-5154
་དེ་ལོགས་སུ་	-5155
ཡོངས་སུ་དག་པ་	-5156
▁ཚེ་དང་ལྡན་པ་ཤ	-5157
pr	-5158
ལ་ལོ་	-5159
▁bowl	-5160
▁drum	-5161
ས་ཤིང་	-5162
▁swift	-5163
ང་རྒྱལ་	-5164
འགྲོའི་	-5165
▁fruits	-5166
ཁྱོད་ཀྱི	-5167
ན་གང་དག་	-5168
▁peaceful	-5169
འི་དོན་དུ་	-5170
▁possesses	-5171
རྫུ་འཕྲུལ་གྱི་	-5172
ཆོས་ཐམས་ཅད་ཀྱི་	-5173
nce	-5174
ror	-5175
ཀླུ	-5176
ange	-5177
stru	-5178
་དགའ	-5179
itive	-5180
ོ་དག་	-5181
▁draw	-5182
ོངས་པ་	-5183
▁conqu	-5184
▁jinas	-5185
▁looked	-5186
སྙེན་པར་	-5187
ལེགས་སོ་་	-5188
ོན་པ་དང་་	-5189
▁powerful	-5190
་བྱུང་སྟེ་	-5191
▁jambudvipa	-5192
ཐལ་མོ་སྦྱར་བ	-5193
་དེ་བཞིན་ཉིད་	-5194
འདོད་ཆགས་དང་བྲ	-5195
ཉམ	-5196
ཉམ་	-5197
ང་དུ	-5198
སྐར་	-5199
▁air	-5200
ended	-5201
idence	-5202
ཅན་དུ་	-5203
ཕྲེང་བ	-5204
▁story	-5205
་དངོས་པ	-5206
མ་ཡིན་་	-5207
▁coming	-5208
▁faults	-5209
▁instru	-5210
ཀུན་གྱི་	-5211
སྨོན་ལམ་	-5212
རྗེས་སུ་བ	-5213
སྐྱེ་མཆེད	-5214
▁འདུ་བྱེད་	-5215
▁nonvirtuous	-5216
ནས་དེ་བཞིན་དུ་	-5217
ཡབ་	-5218
▁གཡ	-5219
མཉམ་	-5220
ླངས་	-5221
▁mal	-5222
ཤད་པ་	-5223
▁cent	-5224
▁song	-5225
▁fragr	-5226
▁hells	-5227
▁indra	-5228
▁rajagr	-5229
མདུན་དུ་	-5230
རྣམས་ལ་བ	-5231
གས་པ་དང་་	-5232
▁benefits	-5233
▁transmigr	-5234
ari	-5235
tal	-5236
་བདག	-5237
ཚུར་	-5238
ཟིན་	-5239
རྟོག	-5240
▁pos	-5241
གང་གི	-5242
དེ་དག་	-5243
མ་སྐྱེ	-5244
▁limbs	-5245
▁music	-5246
▁renow	-5247
་བཟང་པོ	-5248
་བསྒྲུབ	-5249
ཞེ་སྡང་	-5250
▁revere	-5251
▁བསམ་གཏ	-5252
་བཟང་པོ་	-5253
▁exalted	-5254
▁གང་གིས་	-5255
▁everyone	-5256
▁maturity	-5257
▁rajagrha	-5258
འགྱུར་རོ་་	-5259
རྒྱལ་སྲིད་	-5260
རྗེས་སུ་དྲ	-5261
སྐྱེ་མཆེད་	-5262
▁generated	-5263
མི་དགེ་བའི་	-5264
ཡོངས་སུ་འཛིན་པ་	-5265
▁ཁ	-5266
bed	-5267
▁དང	-5268
ཅུག་	-5269
ན་དྲ	-5270
insic	-5271
་བློ་	-5272
ཟད་པ་	-5273
ལ་པོ་	-5274
ས་མི་	-5275
▁fell	-5276
▁foot	-5277
▁འོན་	-5278
ཉི་ཤུ་	-5279
ཕྲག་པ་	-5280
རྟག་པ་	-5281
ནི་འདི་	-5282
་དེ་ལྟ་བུ	-5283
མཆོད་སྦྱི	-5284
སྐྱབས་སུ་	-5285
▁carrying	-5286
▁delusion	-5287
▁inherent	-5288
▁lifespan	-5289
ན་རྒྱལ་པོ་	-5290
ས་དགེ་སློང་	-5291
མད་གལ་གྱི་བུ་	-5292
▁འཇིག་རྟེན་གྱི་	-5293
གཅ	-5294
▁bh	-5295
▁je	-5296
inks	-5297
itab	-5298
ཤེས་་	-5299
▁dise	-5300
▁want	-5301
soever	-5302
འཆི་བ་	-5303
སམས་པ་	-5304
▁crown	-5305
ཤེས་སོ་	-5306
ས་སྨོན་	-5307
སྒྱུ་མ་	-5308
▁inside	-5309
▁obscur	-5310
▁sacrif	-5311
གི་བྱེ་མ་	-5312
▁entering	-5313
▁gateways	-5314
ས་བྱང་ཆུབ་	-5315
▁conceived	-5316
▁intrinsic	-5317
▁requested	-5318
▁emanations	-5319
▁instructed	-5320
མཉན་དུ་ཡོད་པ་	-5321
▁བཅོམ་ལྡན་འདས་དེ	-5322
ཐ་ད	-5323
ཚུལ	-5324
སྒོ	-5325
ress	-5326
འབར་	-5327
inaya	-5328
ཆུའི་	-5329
རྫོགས་	-5330
▁drdha	-5331
▁upper	-5332
་དེ་ལས་	-5333
ལ་གནས་པ	-5334
▁doubts	-5335
▁imposs	-5336
▁བདག་གི	-5337
▁proceed	-5338
▁sitting	-5339
▁བདག་གི་	-5340
གྱུར་པའི་	-5341
▁shoulder	-5342
རྐྱེན་གྱིས་	-5343
▁ཤ་རིའི་བུ་	-5344
ཡང་དག་པར་འཛི	-5345
▁appropriate	-5346
ཀྱི་བསྟན་པ་ལ་	-5347
rog	-5348
ནོར	-5349
རེག	-5350
ward	-5351
ུག་པ	-5352
▁kaus	-5353
མེད་ལ་	-5354
མི་བགྱི	-5355
འབྱུང་་	-5356
འི་བུས་	-5357
སྟན་ཏེ་	-5358
▁abodes	-5359
རིགས་སུ་	-5360
་དེ་གཉིས་	-5361
▁prepared	-5362
▁committed	-5363
▁thereupon	-5364
▁impossible	-5365
རང་སངས་རྒྱས་	-5366
རིགས་ཀྱི་བུ་	-5367
▁accumulation	-5368
ཀའ་	-5369
རམ་	-5370
mand	-5371
ོས་་	-5372
གཞེས་	-5373
ངས་མ་	-5374
▁defe	-5375
▁dont	-5376
ishing	-5377
▁belie	-5378
▁whole	-5379
ཀྱང་མི་	-5380
གནས་ཏེ་	-5381
▁visual	-5382
▁virtues	-5383
▁གྲོགས་པ	-5384
ཡོངས་སུ་མི་	-5385
ཞེས་བྱ་བ་ནི་	-5386
▁contemplates	-5387
abor	-5388
panse	-5389
ཁ་དོག	-5390
▁deep	-5391
▁last	-5392
ག་དང་་	-5393
ལ་བདག་	-5394
▁arrog	-5395
▁conse	-5396
▁cross	-5397
▁incre	-5398
ནོར་མང་	-5399
▁perman	-5400
ས་བྱེ་བ་	-5401
▁banners	-5402
▁expanse	-5403
ཕྱུག་ཅིང་	-5404
ོད་པ་དང་་	-5405
▁illusion	-5406
▁relative	-5407
▁speaking	-5408
▁traveled	-5409
གཟུགས་བཟང་	-5410
▁perfected	-5411
▁ཁ་ཅིག་ནི་	-5412
ལྷའི་དབང་པོ	-5413
▁whatsoever	-5414
ནི་མིང་ཙམ་སྟེ	-5415
སོང་སྟེ་ཕྱིན་	-5416
ཀྱིས་བཀའ་སྩལ་པ	-5417
ཅོམ་ལྡན་འདས་ལ་	-5418
▁དེ་ནས་རྒྱལ་པོ་	-5419
by	-5420
asm	-5421
གོ་བ	-5422
ས་སྡ	-5423
ཆུང་ང	-5424
མགོན་	-5425
▁gift	-5426
▁grou	-5427
▁raks	-5428
isions	-5429
ངས་སུ་	-5430
ད་དུ་བ	-5431
ད་མའི་	-5432
བ་སྟེ་	-5433
ས་དེར་	-5434
ླ་གོས་	-5435
▁force	-5436
▁lions	-5437
▁paths	-5438
མ་བྱེད་	-5439
ལགས་སམ་	-5440
▁reject	-5441
་བྱུང་བ་	-5442
ནས་དེའི་	-5443
མཉེས་པར་	-5444
མེད་པ་ལ་	-5445
ཤི་འཕོས་	-5446
མ་ཡིན་པར་	-5447
མཉམ་པ་དང་	-5448
▁formless	-5449
ལ་ལོངས་སྤྱོད་	-5450
མངོན་པར་འདུས་བྱ	-5451
ཕྱུག	-5452
▁yes	-5453
▁stay	-5454
་བཞི་པ	-5455
ན་གནས་	-5456
▁sixty	-5457
ཁྱེའུ་བ	-5458
ལ་བ་དང་	-5459
རྒྱལ་བུ་	-5460
▁dharmas	-5461
▁parasols	-5462
ས་གསོལ་ཏོ་	-5463
▁བླ་ན་མེད་པ་	-5464
སྐྱེ་བའི་ཆོས་	-5465
▁fearlessness	-5466
རྣམས་ཀྱི་སྟོན་པ་	-5467
ats	-5468
སྔ་	-5469
ཉེ་བ	-5470
མ་བཅ	-5471
མཆི་	-5472
འགའ་	-5473
ཡི་བ	-5474
▁cry	-5475
▁cur	-5476
ས་དག་	-5477
སོང་བ	-5478
ས་དེ་བ	-5479
▁terms	-5480
▁སྲོག་	-5481
་དག་དང་	-5482
ངས་པའི་	-5483
ཅུང་ཟད་	-5484
ལྷའི་བུ	-5485
▁center	-5486
▁raksas	-5487
▁animals	-5488
▁ascetic	-5489
རྟེན་ཅིང་	-5490
རྩོན་འགྲུ	-5491
སོང་ངོ་་་	-5492
▁returned	-5493
སྐྱེས་བུའི་	-5494
ར་བྱ་བའི་ཕྱིར་	-5495
ཆད	-5496
▁dh	-5497
▁vi	-5498
cies	-5499
imes	-5500
inqu	-5501
ེང་ག	-5502
▁rul	-5503
འབྲུ་	-5504
▁lamp	-5505
▁meet	-5506
▁pear	-5507
ointed	-5508
འདས་པ་	-5509
རེ་རེ་	-5510
ལ་པའི་	-5511
▁sword	-5512
གལ་ཏེ་བ	-5513
ortioned	-5514
་དག་དང་་	-5515
འཚོ་ཞིང་	-5516
▁remains	-5517
▁རྣམ་པར་	-5518
སྟན་པར་བྱ	-5519
▁branches	-5520
▁ministers	-5521
་དོན་དམ་པར་	-5522
ཡོངས་སུ་བསྔ	-5523
སངས་རྒྱས་ཀྱི་ཞིང	-5524
ནུབ	-5525
uras	-5526
གཟར་	-5527
ཕན་ཚ	-5528
སྡོང	-5529
ོན་བ	-5530
རིང་བ	-5531
ལེགས་	-5532
▁kles	-5533
adatta	-5534
་བརྒྱད	-5535
ཁང་པ་བ	-5536
ཡིད་མི	-5537
སྡིག་པ་	-5538
▁elabor	-5539
▁joined	-5540
སྟོན་ཏེ་	-5541
་པོ་དེ་དག	-5542
ཁང་པ་བརྩེ	-5543
འཁོད་དོ་་	-5544
ར་གྱུར་ཅིག་	-5545
ལོངས་སྤྱོད་	-5546
ier	-5547
གྲི	-5548
རྫོག	-5549
▁nov	-5550
▁gent	-5551
▁knew	-5552
ྱོད་པ་	-5553
▁aging	-5554
ོས་པའི་	-5555
▁sphere	-5556
་སྟོང་པ་	-5557
ཡོད་དོ་་	-5558
འདུས་མ་བྱས་	-5559
ཡིན་སྙམ་འམ་	-5560
▁possessing	-5561
▁immediately	-5562
ཞེས་བྱ་བ་དང་་	-5563
ྷ་	-5564
com	-5565
mon	-5566
ཚིམ	-5567
irti	-5568
ries	-5569
rose	-5570
▁unw	-5571
་བགྱི	-5572
ཀ་ཤི་	-5573
▁hors	-5574
གྱུར་་	-5575
▁arose	-5576
▁taste	-5577
རྩོན་པ་	-5578
ོན་པའི་	-5579
▁formed	-5580
▁rather	-5581
▁spread	-5582
▁throne	-5583
འགྲོ་བར་	-5584
རྗོད་དུ་	-5585
རྟག་ཏུ་བ	-5586
▁relinqu	-5587
སྡིག་པའི་	-5588
མཁྱེན་པའི་	-5589
▁composite	-5590
▁disappeared	-5591
▁དགེ་སློང་དག་དེ་	-5592
གང་ལ	-5593
མིན་	-5594
▁fal	-5595
▁remo	-5596
ོས་ཏེ་	-5597
▁basis	-5598
▁conce	-5599
ཀྱིས་དེ	-5600
དཔག་ཏུ་	-5601
མཐོང་་་	-5602
ཡང་ཆེས་	-5603
ལགས་ཏེ་	-5604
▁asuras	-5605
▁belong	-5606
▁tastes	-5607
ཁྱོད་ནི་	-5608
▁gautama	-5609
རྨི་ལམ་ན་	-5610
▁miracles	-5611
ཅེས་བྱ་བར་	-5612
▁existences	-5613
འི་ཕྱིར་རོ་་	-5614
ན་འཇིག་རྟེན་གྱི་	-5615
ཕྱུག་ཅིང་ནོར་མང་	-5616
eer	-5617
ར་ཎ	-5618
གཟིག	-5619
▁ant	-5620
▁move	-5621
་པོའི་	-5622
ཐུགས་བ	-5623
ས་དང་བ	-5624
ུང་དང་	-5625
▁infer	-5626
▁large	-5627
▁behind	-5628
མི་མཇེད་	-5629
མཆོད་རྟེན་	-5630
ལྟ་ན་སྡུག་	-5631
སྦྱིན་པར་བྱ	-5632
ཕྱོགས་བཅུའི་	-5633
འི་ཚིག་བླ་དག	-5634
▁instruments	-5635
ཆོས་ཐམས་ཅད་ནི་	-5636
▁bo	-5637
ངན་ས	-5638
མས་བ	-5639
ཤོས་	-5640
▁ama	-5641
ཚོལ་བ	-5642
▁imma	-5643
་སྟེ་བ	-5644
གཉིས་པ	-5645
ཆུང་མ་	-5646
འམ་མི་	-5647
▁sakya	-5648
ཞབས་སུ་	-5649
ལྷུང་བཟ	-5650
ཤེས་ཏེ་	-5651
▁guardi	-5652
▁klesas	-5653
▁retain	-5654
▁vinaya	-5655
འདོད་པས་	-5656
་སྟོང་དུ་	-5657
ས་བདག་ཅག་	-5658
▁demigods	-5659
▁precepts	-5660
▁remained	-5661
སྐྱེས་སོ་་	-5662
▁merchants	-5663
མི་མཉེས་པར་	-5664
སྐྱེད་མོས་ཚ	-5665
▁འཇམ་དཔལ་གྱི	-5666
ཐབ	-5667
་བི	-5668
▁ye	-5669
ན་ད་	-5670
སྨན་	-5671
▁འཇམ	-5672
གཏོང་	-5673
ོན་པོ	-5674
▁amaz	-5675
▁unim	-5676
མཚུངས་	-5677
རྙེད་པ	-5678
ལྷག་པར་	-5679
▁source	-5680
ར་བྱས་པ་	-5681
རྟོགས་པ་	-5682
▁contact	-5683
▁སེམས་ཅན	-5684
▁departed	-5685
▁medicine	-5686
▁dedicated	-5687
▁performed	-5688
▁resultant	-5689
མ་མཆིས་པའི་	-5690
▁ཀུན་དགའ་བོ	-5691
▁accumulated	-5692
ཚིག་བླ་དགས་བྱ	-5693
འབྱུང་བར་འགྱུར་	-5694
▁concentrations	-5695
ངེ	-5696
take	-5697
མགོ་	-5698
ུ་མ་	-5699
▁mans	-5700
atched	-5701
ulated	-5702
ཐོགས་པ	-5703
ལ་དགའ་	-5704
▁apart	-5705
▁black	-5706
▁scatt	-5707
▁trust	-5708
▁bhiksu	-5709
▁former	-5710
▁གསོལ་པ	-5711
གྱུར་ནས་	-5712
ཡིད་ལ་བྱ	-5713
▁garment	-5714
ཡང་མ་ཡིན་	-5715
▁learning	-5716
▁whenever	-5717
▁immaculate	-5718
ཐོས་མ་ཐག་ཏུ་	-5719
ཐམས་ཅད་རྣམ་པར་	-5720
རྒྱལ་པོའི་ཕོ་བྲ	-5721
དྲ	-5722
▁ག	-5723
aran	-5724
ན་ལ་	-5725
tract	-5726
ཟང་པོ	-5727
atural	-5728
རྗེའི་	-5729
རྟག་ཏུ	-5730
་དང་་སྨ	-5731
མཉམ་པར་	-5732
རྒྱལ་མཚ	-5733
ལ་དགའ་བ	-5734
▁horses	-5735
▁ritual	-5736
▁yellow	-5737
འི་བར་དུ	-5738
▁distant	-5739
▁external	-5740
འཛིན་པ་དང་་	-5741
▁omniscient	-5742
ཚིགས་སུ་བཅད་པ	-5743
ka	-5744
irm	-5745
་རྩ	-5746
bhan	-5747
kara	-5748
་སོ་	-5749
འཇོམ	-5750
ེབས་	-5751
་སྟོང	-5752
ནགས་ཚ	-5753
ུལ་བ་	-5754
▁tame	-5755
ང་དུ་བ	-5756
ཟས་གཙང་	-5757
འགོག་པ་	-5758
ུང་སྟེ་	-5759
▁བསྐལ་པ	-5760
འདྲ་བའི་	-5761
▁swiftly	-5762
▁torment	-5763
▁victory	-5764
▁དཔེར་ན་	-5765
▁dedicate	-5766
▁directly	-5767
▁inspired	-5768
▁obtained	-5769
ལ་ཡང་དག་པར་	-5770
▁defilement	-5771
▁origination	-5772
རྣམ་པ་སྣ་ཚོགས་	-5773
ཎྜ	-5774
eng	-5775
urt	-5776
་སྒ	-5777
ཐག་	-5778
cial	-5779
ཐུབ་	-5780
ཚོལ་	-5781
ནང་ན་	-5782
solute	-5783
གསོལ་བ	-5784
འབྱིན་	-5785
▁cycle	-5786
▁suddh	-5787
ན་དུ་བཅ	-5788
ལས་སྐྱེ	-5789
ལྷ་དང་་	-5790
སྡོམ་པ་	-5791
▁priest	-5792
▁rivers	-5793
▁senses	-5794
་དེས་ནི་	-5795
ཁྱིམ་དུ་	-5796
▁clothes	-5797
▁destroy	-5798
▁fixated	-5799
ཏང་སྙོམས་	-5800
མྱུར་དུ་བ	-5801
་བྱེད་ཀྱི་	-5802
ཆེན་པོ་ནི་	-5803
ཐམས་ཅད་དང་	-5804
▁drdhamati	-5805
གང་དང་གང་དུ་	-5806
་བསམ་གཏན་གྱི་	-5807
ན་ཏ	-5808
ལ་ད	-5809
nect	-5810
་བཅུ	-5811
ས་སླ	-5812
ོད་་	-5813
three	-5814
་བསམ་	-5815
ཀའ་བ་	-5816
ཁྲོ་བ	-5817
རྫོབ་	-5818
▁hung	-5819
གཞན་ལ་	-5820
རྣམ་པར	-5821
▁dread	-5822
▁front	-5823
▁makes	-5824
▁thing	-5825
་དགེ་བ་	-5826
ཆེ་བའི་	-5827
སྦྱར་ཏེ	-5828
ལྔ་བརྒྱ་	-5829
▁honored	-5830
འཁོར་བའི་	-5831
ལྟ་བ་དང་་	-5832
▁absolute	-5833
▁becoming	-5834
▁treasure	-5835
ླ་གོས་ཕྲག་པ་	-5836
▁impermanence	-5837
་པར་མ་གྱུར་ཅིག་	-5838
རྫོགས་པར་སངས་རྒྱ	-5839
bal	-5840
ལྕེ	-5841
▁ས་	-5842
ུང་་	-5843
orrow	-5844
་པད་མ	-5845
འཕགས་	-5846
ལག་པ་	-5847
▁host	-5848
▁sent	-5849
▁sure	-5850
་དུ་མ་	-5851
འདུལ་བ	-5852
▁grove	-5853
▁inner	-5854
▁total	-5855
▁unequ	-5856
▁bright	-5857
▁guides	-5858
▁prophe	-5859
ལྷ་རྣམས་	-5860
▁resided	-5861
▁suddhod	-5862
▁ornaments	-5863
▁prosperity	-5864
▁constitutes	-5865
རྒྱལ་པོ་ཆེན་པོ་	-5866
རིག་པ་དང་ཞབས་སུ་	-5867
pa	-5868
uck	-5869
rupt	-5870
▁adv	-5871
▁kne	-5872
གྲུབ་	-5873
མཛད་་	-5874
སྟན་་	-5875
▁grass	-5876
▁stood	-5877
ཀུན་དུ་	-5878
མ་ཐག་ཏུ	-5879
▁demons	-5880
▁levels	-5881
▁དེ་ཚེ་	-5882
▁engaged	-5883
▁bhagavat	-5884
▁overcome	-5885
མེ་ཏོག་གི་	-5886
ཚེ་གཅིག་ཏུ་	-5887
▁particular	-5888
་དེ་ལྟ་བུའི་	-5889
ན་གཤེགས་པ་ལ་	-5890
འཚོ་ཞིང་གཞེས་	-5891
▁proportioned	-5892
▁སྲེད་མེད་ཀྱི་བ	-5893
ངེས་པར་འབྱུང་བར་	-5894
to	-5895
▁sn	-5896
་བྱད	-5897
ལོག་	-5898
ེགས་	-5899
▁yog	-5900
▁reli	-5901
ཀུན་ཆུ	-5902
▁garud	-5903
▁sands	-5904
་བགྱིས་	-5905
ས་བྱིན་	-5906
▁joyful	-5907
▁places	-5908
▁vaisrav	-5909
ཤེས་པ་དང་	-5910
▁དེ་ལྟར་ན་བྱ	-5911
ལ་ཚེ་དང་ལྡན་པ་	-5912
alf	-5913
ses	-5914
tes	-5915
ཕྲ་	-5916
མཛད	-5917
མཛེ	-5918
ཁྱིམ	-5919
ཙུན་	-5920
▁exp	-5921
ified	-5922
▁arms	-5923
▁arra	-5924
བ་བོ་་	-5925
འི་ཚད་	-5926
ཡིད་ལ་	-5927
ལགས་ན་	-5928
▁false	-5929
་བཅུའི་	-5930
རྙེད་པ་	-5931
▁fourth	-5932
▁mundane	-5933
་པར་བྱ་བ་	-5934
མཆོག་འདི་	-5935
▁inferior	-5936
▁དེ་དག་གི	-5937
ལྷག་པའི་བས	-5938
▁exhausted	-5939
་པར་འགྱུར་བ	-5940
ཞེས་བྱས་སོ་་	-5941
ཉན་ཐོས་དང་་རང་	-5942
ས་སངས་རྒྱས་ཀྱི་	-5943
སྤྱད་པ་སྤྱོད་པ་	-5944
རུ	-5945
▁eld	-5946
མདུན་	-5947
ལག་ན་	-5948
▁prim	-5949
ལས་ནི་	-5950
▁defin	-5951
▁sweet	-5952
འོ་ཞེས་	-5953
ཡང་མེད་	-5954
རྒྱན་པ་	-5955
་དམིགས་པ	-5956
ུང་བ་ནས་	-5957
▁greater	-5958
▁ཤིན་ཏུ་	-5959
འཁོར་ལོ་བ	-5960
ར་གྱུར་པ་	-5961
ལ་སྨྲས་པ་	-5962
▁demonstr	-5963
▁foremost	-5964
▁question	-5965
་དེའི་ཕྱིར་	-5966
▁compassionate	-5967
ྲམ་ཟེའི་ཁྱེའུ་བ	-5968
▁ge	-5969
vere	-5970
ན་བཅ	-5971
▁bro	-5972
ལྕགས་	-5973
སྐད་བ	-5974
ཕལ་པོ་	-5975
ལ་ཞིང་	-5976
ཞེས་སྨྲ	-5977
ར་བགྱིད་	-5978
ལུས་དང་་	-5979
ཤིང་ས་ལ་	-5980
▁burning	-5981
▁spirits	-5982
▁meditate	-5983
རྣལ་འབྱོར་	-5984
ལ་ཆོས་ཀྱང་	-5985
▁concludes	-5986
▁dharmabhan	-5987
་དམ་པའི་ཆོས་	-5988
གཅིག་ཏུ་གཟར་	-5989
▁transcendence	-5990
▁རིགས་ཀྱི་བུ་བྱ	-5991
hum	-5992
▁id	-5993
anta	-5994
▁lords	-5995
ilities	-5996
ཕྱིར་བྱ	-5997
མཆོག་ཏུ	-5998
མེད་པས་	-5999
▁emerge	-6000
▁method	-6001
ལ་ལ་ཞིག་	-6002
▁command	-6003
▁connect	-6004
▁observe	-6005
གཉིས་ཀྱི་	-6006
འི་བུ་མོ་	-6007
▁fearless	-6008
་དང་ལྡན་ན་	-6009
འདི་སྙམ་དུ	-6010
▁inexhaust	-6011
འདོད་པ་དང་་	-6012
gu	-6013
ash	-6014
ཆེད	-6015
ི་བ	-6016
ཟིང་	-6017
རྟན་	-6018
སྲས་	-6019
icked	-6020
ོར་བ་	-6021
ྱིས་པ	-6022
▁mand	-6023
▁wild	-6024
▁wood	-6025
▁དྲི་	-6026
་དཔུང་	-6027
▁bases	-6028
▁lifet	-6029
་དང་ནི་	-6030
་དེ་ལ་བ	-6031
▁gentle	-6032
▁tranqu	-6033
ར་བགྱིས་	-6034
▁applied	-6035
▁brother	-6036
་བསྒྲུབས་	-6037
ུག་པ་དང་་	-6038
▁magnific	-6039
▁sickness	-6040
▁yourself	-6041
ན་པ་ཟབ་མོ་	-6042
▁perceived	-6043
གཟུགས་ཀྱིས་	-6044
་དག་ཡིན་ནོ་་	-6045
སྙོམས་པར་འཇུག་པ	-6046
ruct	-6047
་བས་	-6048
་མི་	-6049
ཁོར་	-6050
གསང་	-6051
ལྟས་	-6052
ུན་མ	-6053
་དུད་	-6054
རྟགས་	-6055
▁held	-6056
▁situ	-6057
▁tend	-6058
ོན་དུ་	-6059
▁sleep	-6060
▁ལྷའི་	-6061
རྒྱས་པ་	-6062
▁consum	-6063
ཐབས་ཅིག་	-6064
▁country	-6065
▁billions	-6066
ཀྱི་དབང་པོ	-6067
▁creatures	-6068
ཚེ་དང་ལྡན་པ	-6069
ཅིའི་སླད་དུ་	-6070
ཡིན་པར་སེམས་	-6071
རྣམ་པར་ཐར་པའི་	-6072
སེམས་ཅན་དམྱལ་བ་	-6073
uk	-6074
vy	-6075
res	-6076
ཀང་	-6077
ཆག་	-6078
འཕྱ	-6079
▁ed	-6080
raid	-6081
ཁྱུ་	-6082
ུལ་པ	-6083
anasi	-6084
▁enem	-6085
▁palm	-6086
others	-6087
uality	-6088
འགག་པ་	-6089
ཡིན་ལ་	-6090
▁doing	-6091
གསུངས་་	-6092
ངས་ཤིང་	-6093
མར་གྱི་	-6094
ཟླ་འོད་	-6095
▁recogn	-6096
ཆོས་གོས་	-6097
▁methods	-6098
ནམ་མཁའ་ལྡ	-6099
ཕྱོགས་སུ་	-6100
▁rejoiced	-6101
▁varanasi	-6102
▁དེ་བཞིན་	-6103
་བཞུགས་ཏེ་	-6104
རྣམ་པར་མི་	-6105
▁strengths	-6106
▁unequaled	-6107
▁charioteer	-6108
▁veneration	-6109
འི་བསྟན་པ་ལ་	-6110
ཐམས་ཅད་ཀྱིས་བ	-6111
ཡང་ཆེས་ཕ་རོལ་	-6112
▁buddhafields	-6113
གྱུར་པ་དེ་གཞན་	-6114
aps	-6115
རླབ	-6116
avor	-6117
hara	-6118
གཏམ་	-6119
ལོ་བ	-6120
སྟེང་	-6121
ུགས་པ	-6122
▁door	-6123
▁pond	-6124
ཤིང་་་	-6125
▁group	-6126
▁pursu	-6127
▁stead	-6128
་བདག་གི	-6129
་བྱེད་་	-6130
སེང་གེ་	-6131
▁dreams	-6132
▁fright	-6133
▁unable	-6134
གྱུར་པས་	-6135
ན་དེ་ནི་	-6136
ལྡན་པའི་	-6137
སྟེང་དུ་	-6138
▁resolve	-6139
རྣམས་ལགས་	-6140
▁accompan	-6141
▁gandharva	-6142
▁scattered	-6143
▁cultivated	-6144
▁instructions	-6145
མི་མཉེས་པར་བྱེད	-6146
▁དོ	-6147
▁nun	-6148
་བྱ་བ	-6149
ང་བསྐ	-6150
▁mine	-6151
་དེས་བ	-6152
གྱི་བ་	-6153
འདུས་པ་	-6154
▁contro	-6155
་པོ་དང་་	-6156
བ་པ་དང་་	-6157
ཙམ་གྱིས་	-6158
འཐུན་པར་	-6159
▁princes	-6160
▁བདག་ནི་	-6161
རྟག་པ་དང་	-6162
▁received	-6163
▁circumamb	-6164
▁extremely	-6165
འདི་སྐད་དུ་	-6166
▁phenomenon	-6167
་པར་འགྱུར་ཏེ་	-6168
▁candraprabha	-6169
ཕུན་སུམ་ཚོགས་པ	-6170
མྱ་ངན་ལས་འདས་པ	-6171
▁ཁ་ཅིག་གིས་ནི་	-6172
hee	-6173
orag	-6174
སའི་	-6175
▁bir	-6176
▁few	-6177
▁war	-6178
erred	-6179
མིའི་	-6180
ལ་དེ་	-6181
▁boys	-6182
▁ghee	-6183
ོད་དེ་	-6184
་བྱུང་་	-6185
དག་ཉིད་	-6186
▁passion	-6187
གཅིག་གིས་	-6188
ནམ་མཁའ་ལ་	-6189
སྐྱེས་ཏེ་	-6190
▁dreadful	-6191
▁considers	-6192
་དེ་དང་དེར་	-6193
ན་དྲང་སྲོང་	-6194
ཤེས་པར་བྱ་བ	-6195
▁formations	-6196
▁defilements	-6197
རྟེན་ཅིང་འབྲེ	-6198
▁signlessness	-6199
▁བཞི་གང་ཞེ་ན་	-6200
ཀླུའི་རྒྱལ་པོ་	-6201
ྲ་	-6202
pped	-6203
tara	-6204
གྲོང	-6205
ན་བཟ	-6206
་དགུ་	-6207
་དོང་	-6208
མེའི་	-6209
▁fors	-6210
▁weap	-6211
▁དུས་	-6212
akirti	-6213
ཅང་མི་	-6214
▁queen	-6215
ང་བ་དང་	-6216
▁auster	-6217
▁either	-6218
གཞན་གྱི་	-6219
▁engaging	-6220
▁inclinations	-6221
ini	-6222
wor	-6223
ང་ཡི་	-6224
སེལ་བ	-6225
▁fing	-6226
▁succ	-6227
ནང་གི་	-6228
མོས་པ་	-6229
འདུག་པ	-6230
ལྟ་ཅི་	-6231
▁outer	-6232
▁སྟོང་	-6233
▁ceases	-6234
▁leaves	-6235
ཁམས་ཀྱི་	-6236
འམ་ཅིའི་	-6237
རིག་པའི་	-6238
▁contain	-6239
▁feeling	-6240
▁mahorag	-6241
▁majesty	-6242
▁mastery	-6243
ཇི་ལྟ་བུ་	-6244
འཁོར་གྱི་	-6245
ྡུག་བསྔལ་	-6246
མ་ཡིན་གྱི་	-6247
▁attaining	-6248
▁continuous	-6249
▁perceiving	-6250
མངོན་སུམ་དུ་	-6251
རབ་འབྱོར་གྱིས་	-6252
▁inexhaustible	-6253
ཤིང་ས་ལ་ཆེན་པོ་	-6254
▁characteristic	-6255
▁དེ་ནས་དགེ་སློང་	-6256
ན་གཟ	-6257
▁ཨོ་	-6258
རྩེ་བ	-6259
ས་དམི	-6260
▁midd	-6261
▁word	-6262
ས་བོན་	-6263
▁exact	-6264
མང་པོས་	-6265
ལྟ་ག་ལ་	-6266
▁pursue	-6267
▁thirst	-6268
▁བརྟན་པ	-6269
ན་བཞུགས་	-6270
▁palaces	-6271
▁prayers	-6272
ཁ་ཅིག་ནི་	-6273
▁distance	-6274
་བཟོད་པའི་	-6275
་བྱེད་དོ་་	-6276
ཐམས་ཅད་ཀྱི	-6277
▁followers	-6278
ཞེས་ཟེར་རོ་་	-6279
▁vimalakirti	-6280
▁intelligence	-6281
་བཞིན་དུ་རབ་ཏུ་	-6282
ཅག	-6283
uma	-6284
four	-6285
མུ་ཏ	-6286
▁hor	-6287
▁van	-6288
taken	-6289
་བཟང་	-6290
གྲགས་	-6291
འཕྱེ་	-6292
ར་ཎ་ས	-6293
▁wear	-6294
itness	-6295
འདི་ནས་	-6296
རིག་ནས་	-6297
་དེའི་ཚེ	-6298
་པར་བྱ་་	-6299
ཀུར་སྟི་	-6300
གནས་ཀྱི་	-6301
▁complex	-6302
▁seeking	-6303
▁servants	-6304
▁འཇིག་རྟེ	-6305
མ་བཞིན་དུ་	-6306
ར་འགྱུར་བ་	-6307
ཡོན་ཏན་གྱི་	-6308
▁collection	-6309
ལྟ་ན་སྡུག་ལ་	-6310
ཆོས་ཀྱི་དབྱིངས་	-6311
ླ་མ	-6312
atch	-6313
གཞུག	-6314
being	-6315
སྤང་བ	-6316
▁male	-6317
erence	-6318
ཆོས་སྣ	-6319
ནི་གང་	-6320
སྟེགས་	-6321
ུས་སུ་	-6322
ེ་སྦྱོ	-6323
▁sever	-6324
▁towns	-6325
ན་དེ་ལ་	-6326
▁served	-6327
གཞལ་མེད་	-6328
▁witness	-6329
▁གཞན་ཡང་	-6330
རིག་སྔགས་	-6331
ལྟོ་འཕྱེ་	-6332
མཉམ་པ་ཉིད་	-6333
རྩོན་འགྲུས་བ	-6334
རིག་པར་བྱའོ་་	-6335
ཏིང་ངེ་འཛིན་འདི་	-6336
af	-6337
ནེ་	-6338
ཤད་	-6339
ding	-6340
side	-6341
་དར་	-6342
ཐེ་ཙ	-6343
མྱ་ང	-6344
ཡོང་	-6345
▁cre	-6346
▁lic	-6347
itute	-6348
གཡོག་	-6349
▁dust	-6350
ending	-6351
▁leader	-6352
▁sorrow	-6353
་པ་དང་་བ	-6354
ར་བྱེད་དོ་	-6355
རྟུལ་ཞུགས་	-6356
▁formation	-6357
ས་སངས་རྒྱས་	-6358
▁apprehended	-6359
▁brahmadatta	-6360
▁quintillion	-6361
ཁྱོད་ཀྱིས་དེ་	-6362
▁quintillions	-6363
གནས་པའམ་གལ་ཏེ་	-6364
▁འཚོ་ཞིང་གཞེས་	-6365
རལ་	-6366
ལན་	-6367
atas	-6368
happ	-6369
ལྕེ་	-6370
uddha	-6371
སྐབས་	-6372
▁fail	-6373
▁flaw	-6374
ལ་བསླབ	-6375
མདུན་དུ	-6376
ལས་ཀྱང་	-6377
མགོན་པོ་	-6378
ལྷ་དང་མི	-6379
སྒྲུབ་པ་	-6380
▁emerged	-6381
▁factors	-6382
▁grasped	-6383
་དྲི་མེད་	-6384
ཚུལ་བཞིན་	-6385
མཉམ་པ་དང་་	-6386
མི་འཇིགས་པ	-6387
རང་བཞིན་གྱི	-6388
▁dispatched	-6389
▁suddhodana	-6390
▁ཉོན་མོངས་པ་	-6391
སམ་གྱིས་མི་ཁྱ	-6392
go	-6393
་རྒ	-6394
▁གང	-6395
aniv	-6396
མོད་	-6397
▁mel	-6398
icial	-6399
ཆོས་པ	-6400
ནས་སྟ	-6401
རུང་བ	-6402
ས་སྤྱ	-6403
▁deva	-6404
▁east	-6405
▁ment	-6406
མཐོ་རི	-6407
འདི་བཤ	-6408
▁ཁྱེད་	-6409
གཅིག་ལ་	-6410
འི་བུ་བ	-6411
▁unhapp	-6412
▁kausika	-6413
▁refrain	-6414
མཚུངས་པར་	-6415
ལ་བརྩོན་པ	-6416
▁permanent	-6417
▁བསོད་ནམས་	-6418
ཉིད་ཀྱི་ཕྱིར་	-6419
རྣམ་པར་སྨིན་པ	-6420
▁དེ་བཞིན་དུ་བྱ	-6421
▁ak	-6422
གནང་	-6423
མཁའ་	-6424
▁loc	-6425
▁sus	-6426
hadra	-6427
ཀོད་པ	-6428
མ་བཅི	-6429
ཞི་པོ	-6430
ཟོད་པ	-6431
ོ་བར་	-6432
▁fill	-6433
▁jeta	-6434
་དཔེར་	-6435
ཉམས་པ་	-6436
ོག་དང་	-6437
▁abund	-6438
▁avoid	-6439
▁seeds	-6440
ན་གཅིག་	-6441
ཡང་དག་པ	-6442
སྨོན་པ་	-6443
▁adhere	-6444
▁sakyas	-6445
ཁམས་འདི་	-6446
▁lacking	-6447
▁unfathom	-6448
གི་དབང་པོ་	-6449
ར་གྱུར་ཏོ་	-6450
▁associated	-6451
་དང་་ལྷ་མ་ཡི	-6452
འགྲོའི་སྐྱེ་	-6453
ཡན་ལག་བརྒྱད་པ	-6454
ཡིན་པའི་ཕྱིར་	-6455
ལོ	-6456
མལ་	-6457
ལེ་	-6458
སྐད	-6459
vati	-6460
གོང་	-6461
▁cel	-6462
▁exc	-6463
འདི་བ	-6464
▁bear	-6465
▁blaz	-6466
▁cool	-6467
▁ང་དེ	-6468
estial	-6469
istine	-6470
གྲགས་པ	-6471
ཚོལ་བ་	-6472
འཚོ་བ་	-6473
འོད་ཟེ	-6474
▁mouth	-6475
▁treat	-6476
ན་གསུམ་	-6477
▁attent	-6478
ོན་མཆོག་	-6479
▁recited	-6480
རྒྱུན་མི་	-6481
▁monaster	-6482
▁pristine	-6483
▁གང་གི་ཚེ་	-6484
▁དྲང་སྲོང་	-6485
ཆོས་སྣང་བའི་	-6486
ཙམ	-6487
ཟ་	-6488
bit	-6489
lls	-6490
བ་་	-6491
མཐའ	-6492
ames	-6493
ལེན་	-6494
▁vow	-6495
རི་མོ	-6496
▁firm	-6497
རྐྱེན་	-6498
ཤིང་ལྗ	-6499
▁embra	-6500
▁gives	-6501
picious	-6502
ཀྱང་དེ་	-6503
རྣ་བའི་	-6504
ིང་རྗེ་	-6505
▁matter	-6506
▁mighty	-6507
་དོན་དུ་	-6508
ར་བགྱི་་	-6509
་དམིགས་པ་	-6510
▁childish	-6511
▁declared	-6512
་དཀར་པོའི་	-6513
གནོད་སེམས་	-6514
ཉན་ཐོས་ཀྱི	-6515
ྱིན་གྱིས་བ	-6516
▁beginning	-6517
▁celestial	-6518
གང་ཡིན་པའི་	-6519
▁attendants	-6520
▁རབ་འབྱོར་བྱ	-6521
གཟུགས་བཟང་ཞིང་བ	-6522
ཊ་	-6523
ཞུ་	-6524
སར་	-6525
chav	-6526
izing	-6527
སྤྱོད	-6528
སླབས་	-6529
་དེའི་བ	-6530
གྲུབ་པ་	-6531
ཆོས་དེ་	-6532
འཇིག་པ་	-6533
འདྲ་བར་	-6534
ས་སྟོན་	-6535
▁extent	-6536
▁points	-6537
ཁྲི་བཞི་	-6538
▁licchav	-6539
▁village	-6540
▁wealthy	-6541
ནམ་མཁའ་དང་	-6542
ན་དང་་དྲི་ཟ	-6543
་དུ་བྱས་སོ་་	-6544
རྣམ་པར་བྱང་བ་	-6545
ཐམས་ཅད་ཡོངས་སུ་	-6546
་བྱང་ཆུབ་སེམས་དཔ	-6547
elf	-6548
ཁྱབ	-6549
གཉི་	-6550
ལོང་	-6551
▁bur	-6552
ously	-6553
▁excl	-6554
▁leag	-6555
▁wide	-6556
ically	-6557
ptions	-6558
གཞན་ཡང	-6559
ས་སྟོང	-6560
གང་ཞིག་	-6561
ེད་པའི་	-6562
གཅིག་གི་	-6563
མཛད་དོ་་	-6564
▁oneself	-6565
▁passing	-6566
▁fettered	-6567
མི་འགྱུར་བ	-6568
▁mahoragas	-6569
▁syllables	-6570
▁terrified	-6571
▁venerated	-6572
▁དེ་དག་ནི་	-6573
་དེ་དེ་བཞིན་	-6574
ིང	-6575
▁ན	-6576
cise	-6577
ཚེ་བ	-6578
འདེབ	-6579
▁kum	-6580
▁sad	-6581
▁བདག	-6582
peded	-6583
ཁྱད་པ	-6584
སྭ་ཧ་	-6585
▁road	-6586
▁stop	-6587
མ་ཞིང་	-6588
རིང་པོ	-6589
རྒྱལ་ཚ	-6590
གནས་དང་	-6591
གསུམ་པ་	-6592
མཐོང་ན་	-6593
ཞི་བའི་	-6594
འདྲེན་པ	-6595
་དཀར་པོ་	-6596
་བསྐྱེད་	-6597
▁success	-6598
ཆོས་སྨྲ་བ	-6599
▁fourfold	-6600
▁renowned	-6601
ཤ་རིའི་བུ་	-6602
▁cognition	-6603
▁destitute	-6604
▁unimpeded	-6605
་དེ་ལྟ་བས་ན་	-6606
▁prostrations	-6607
་དྲི་མ་མེད་པར་	-6608
ནང་སྟོང་པ་ཉིད་	-6609
འཇིག་རྟེན་ལས་འད	-6610
ཏེ་བཅོམ་ལྡན་འདས་	-6611
རྩ་	-6612
teen	-6613
ཀའི་	-6614
སླར་	-6615
ོ་བོ	-6616
▁deg	-6617
▁བུ་	-6618
asant	-6619
erest	-6620
་ཏིང་	-6621
་དུང་	-6622
ནས་དྲ	-6623
▁deer	-6624
ཆོས་མཉ	-6625
ཟད་པར་	-6626
▁indic	-6627
▁solid	-6628
▁union	-6629
་དགོངས་	-6630
ཉིད་དེ་	-6631
ས་སྔོན་	-6632
▁reveal	-6633
▁wished	-6634
▁exactly	-6635
▁instant	-6636
▁དམ་པའི་	-6637
མཐོང་སྟེ་	-6638
ཡིད་ཀྱིས་	-6639
▁glorious	-6640
▁prophecy	-6641
▁regarded	-6642
་བཏང་ངོ་་་	-6643
ད་དུ་གསོལ་	-6644
▁actualize	-6645
▁wellbeing	-6646
་དགེ་སྦྱོང་	-6647
མངོན་པར་བསྟ	-6648
རྗེས་སུ་འབྲ	-6649
▁mendicants	-6650
atr	-6651
གེ་	-6652
རྟ་	-6653
་སྙི	-6654
འགག་	-6655
▁hes	-6656
ཐོབ་པ	-6657
ཕྲག་ད	-6658
རྒྱང་	-6659
ལེན་པ	-6660
▁gems	-6661
atures	-6662
garbha	-6663
ission	-6664
མུན་པ་	-6665
▁flour	-6666
▁melod	-6667
▁unple	-6668
གཙོ་བོ་	-6669
▁spirit	-6670
གཅིག་པུ་	-6671
▁believe	-6672
▁garudas	-6673
▁ཐམས་ཅད་	-6674
▁རྟག་ཏུ་	-6675
▁inquired	-6676
▁situated	-6677
འབྱུང་བའི་	-6678
རང་སངས་རྒྱ	-6679
▁transgress	-6680
▁illuminated	-6681
་སངས་རྒྱས་ཀྱི་	-6682
ཤེས་པ་ཡང་དག་པར་	-6683
་བཅོམ་ལྡན་འདས་བྱ	-6684
ཆོས་སྣང་བའི་སྒོ་	-6685
oms	-6686
▁wa	-6687
araj	-6688
རྩི་	-6689
▁bre	-6690
▁fit	-6691
▁ide	-6692
▁imb	-6693
antra	-6694
itory	-6695
ན་ནས་	-6696
རྒྱས་	-6697
རྩམས་	-6698
སྐྲག་	-6699
ལྷ་ཡི་	-6700
ུས་ཏེ་	-6701
▁dimin	-6702
▁ident	-6703
ination	-6704
་དབུགས་	-6705
སེམས་པ་	-6706
▁regent	-6707
ཆོས་ཉིད་	-6708
ཆོས་པད་མ	-6709
འཚལ་ལོ་་	-6710
གཟུགས་ཅན་	-6711
གསུམ་པའི་	-6712
▁solitude	-6713
▁དངོས་པོ་	-6714
▁དེའི་ཡང་	-6715
་པོ་དེ་དག་	-6716
ཐམས་ཅད་ནི་	-6717
མ་བཅིངས་མ་	-6718
▁construct	-6719
▁continued	-6720
མཐོང་བ་དང་་	-6721
རྣ་བ་དང་་སྣ	-6722
རིན་པོ་ཆེ་སྣ	-6723
▁intermediate	-6724
ཞིག་བྱུང་ངོ་་་	-6725
ags	-6726
ton	-6727
གཡེ	-6728
དུད	-6729
hijn	-6730
ouds	-6731
གཏུམ	-6732
ཏ་མ་	-6733
▁gaz	-6734
་དཔེ་	-6735
ས་པ་་	-6736
▁bath	-6737
▁bond	-6738
གསུང་བ	-6739
སྙིང་བ	-6740
ྱིས་པ་	-6741
▁thund	-6742
▁དགའ་བ	-6743
ཅན་དང་་	-6744
མཐར་ཐུག	-6745
འཐུན་པ་	-6746
▁afraid	-6747
▁guided	-6748
▁harmed	-6749
▁wholes	-6750
ལྕེ་དང་་	-6751
ལྟ་ཅི་སྨ	-6752
▁provide	-6753
▁བྱང་ཆུབ	-6754
ས་རྣམ་པར་	-6755
རྣམ་པར་ཐར་པ	-6756
འདུ་ཤེས་མེད་	-6757
▁assumptions	-6758
ཡང་དག་པར་རབ་ཏུ་བ	-6759
ug	-6760
vi	-6761
ony	-6762
▁od	-6763
lled	-6764
vior	-6765
་དྲག	-6766
ཉེར་	-6767
འབྲི	-6768
▁uno	-6769
ersed	-6770
མུན་པ	-6771
རིའི་	-6772
རྗེ་བ	-6773
▁tied	-6774
encies	-6775
ension	-6776
་དེ་ཡི	-6777
་བྱའི་	-6778
ང་པོས་	-6779
ངག་གི་	-6780
སོང་བ་	-6781
▁harsh	-6782
▁hence	-6783
▁tamed	-6784
▁སུ་ནི	-6785
ཆེ་ཞིང་	-6786
རིང་དུ་	-6787
▁exclus	-6788
འགྲོའོ་་	-6789
ཡོད་པའི་	-6790
་བུད་མེད་	-6791
འཇུག་པའི་	-6792
▁concepts	-6793
▁features	-6794
▁interest	-6795
▁mahayana	-6796
འཕགས་པའི་བ	-6797
ཀྱི་ཕུང་པོ་	-6798
ན་ཅིག་ཕྱིར་	-6799
ལ་སོགས་པའི་	-6800
▁disturbing	-6801
འི་ཚུལ་གྱིས་	-6802
▁accompanied	-6803
▁བྱང་ཆུབ་ཀྱི་	-6804
འཇིག་རྟེན་སྐྱོ	-6805
▁རིགས་ཀྱི་བུ་དག	-6806
འམ་ཅིའི་རྒྱལ་པོ་	-6807
fast	-6808
་བསྟ	-6809
ཏོག་	-6810
རབས་	-6811
ིད་ཙ	-6812
ོམ་པ	-6813
མཛད་པ	-6814
སྨིན་	-6815
▁grow	-6816
▁line	-6817
▁west	-6818
▁ཐབས་	-6819
orning	-6820
vering	-6821
ང་ཉིད་	-6822
སྐྱབས་	-6823
▁parin	-6824
རྣམས་བྱ	-6825
ློན་པོ་	-6826
▁nonhum	-6827
▁strive	-6828
▁subtle	-6829
ཟོད་པའི་	-6830
▁enjoyed	-6831
མཐར་གྱིས་	-6832
སྟོན་ཏོ་་	-6833
ཀྱི་ཕུང་པོ	-6834
ཆེན་པོ་དང་	-6835
▁wholesome	-6836
མ་གཏོགས་པར་	-6837
▁compounded	-6838
▁practition	-6839
སྤྱོད་པ་དང་་	-6840
▁experienced	-6841
▁parinirvana	-6842
ས་པར་འགྱུར་རོ་་	-6843
iti	-6844
ten	-6845
ཁ་ཏ	-6846
ཐང་	-6847
སམ་	-6848
ེག་	-6849
pala	-6850
་སྲི	-6851
རེག་	-6852
སུས་	-6853
ུ་བ་	-6854
ལྡན་་	-6855
ྱོད་པ	-6856
▁fool	-6857
▁mass	-6858
▁unre	-6859
་སྤོས་	-6860
ཀྱིས་ད	-6861
གདུལ་བ	-6862
འདྲའི་	-6863
ར་དོང་	-6864
ོལ་བར་	-6865
▁birds	-6866
▁miser	-6867
▁smile	-6868
▁strif	-6869
▁holder	-6870
▁relics	-6871
▁རང་གི་	-6872
ན་གནས་པ་	-6873
ན་བྱེ་བ་	-6874
▁morning	-6875
▁bodhisat	-6876
▁licchavi	-6877
་བློ་གྲོས་	-6878
རྒྱལ་རིགས་	-6879
▁anguished	-6880
▁mendicant	-6881
▁steadfast	-6882
མངོན་སུམ་དུ	-6883
་དང་་ལྕེ་དང་་	-6884
རློམ་སེམས་སུ་	-6885
མངོན་པར་སྤྲུལ་	-6886
ལས་ཡང་དག་པར་འད	-6887
་རྫ	-6888
ལི་	-6889
atha	-6890
orts	-6891
ཁོང་	-6892
གང་་	-6893
ཆོག་	-6894
ཉུང་	-6895
ལ་བཀ	-6896
▁esc	-6897
masri	-6898
▁meal	-6899
དེ་བཞི	-6900
▁abode	-6901
▁girls	-6902
▁oppos	-6903
▁yaksa	-6904
▁མཐོང་	-6905
ཀྱི་བུ་	-6906
ན་དང་་བ	-6907
ཟང་ཟིང་	-6908
▁arisen	-6909
▁create	-6910
▁imbued	-6911
▁strife	-6912
གནས་དང་་	-6913
ཉིད་ཀྱང་	-6914
སྙམ་སྟེ་	-6915
▁convict	-6916
▁degener	-6917
▁fragrant	-6918
▁opportun	-6919
▁reverend	-6920
▁youthful	-6921
་པར་བྱེད་་	-6922
འི་ཡེ་ཤེས་	-6923
▁unpleasant	-6924
ལས་ཕྱིར་མི་ལྡ	-6925
▁designations	-6926
▁renunciation	-6927
ཙྪ	-6928
ཚད	-6929
ajy	-6930
isk	-6931
ism	-6932
leg	-6933
འ་་	-6934
illi	-6935
མགུ་	-6936
isajy	-6937
ག་གི་	-6938
ཆགས་བ	-6939
▁maid	-6940
▁མིག་	-6941
ནགས་ཁྲ	-6942
མ་ལགས་	-6943
▁start	-6944
▁དེས་བ	-6945
agarbha	-6946
ཡི་གེར་	-6947
ཡོད་པར་	-6948
སེམས་ཅན	-6949
▁brilli	-6950
▁pearls	-6951
འདབ་ཆགས་	-6952
རྫོབ་ཏུ་	-6953
▁carried	-6954
▁focused	-6955
་བཞི་དང་་	-6956
ས་པ་དང་་་	-6957
▁bhaisajy	-6958
་དེ་དག་དང་་	-6959
་བརྒྱ་བྱིན་	-6960
ར་བྱ་བ་དང་་	-6961
▁complexion	-6962
▁tendencies	-6963
མངོན་པར་འདུ་	-6964
▁discernment	-6965
▁liberations	-6966
▁magnificent	-6967
ཆེ་བའི་རིགས་སུ་	-6968
མུ	-6969
kes	-6970
མ་ལ་	-6971
མོར་	-6972
ཟུག་	-6973
▁laz	-6974
གོ་ཆ་	-6975
མགུར་	-6976
ལོན་པ	-6977
སྤོང་	-6978
atives	-6979
ཀྱང་བྱ	-6980
རྟན་པ་	-6981
ལྕེའི་	-6982
ལྷ་མོ་	-6983
སྒྲོན་	-6984
▁north	-6985
▁གང་གི	-6986
་བཙུན་པ	-6987
་བསྐལ་པ	-6988
ས་སྐྱེ་	-6989
སེམས་ལ་	-6990
▁colors	-6991
▁middle	-6992
▁permit	-6993
▁releas	-6994
▁uttara	-6995
ཆོས་འདི་	-6996
ཇི་སྐད་བ	-6997
▁company	-6998
▁devoted	-6999
▁ཀུན་ནས་	-7000
་དྲུང་དུ་	-7001
ན་དེ་ལྟར་	-7002
ལས་བྱུང་བ	-7003
▁དེ་སྐད་ཅེ	-7004
▁འདོད་ཆགས་	-7005
ར་བྱེད་ཅིང་	-7006
▁accordance	-7007
▁exclusively	-7008
ནས་དགྲ་བཅོམ་པ་	-7009
ཏིང་ངེ་འཛིན་གྱི་	-7010
ཞེས་བྱ་བ་ཡོད་དེ་	-7011
▁circumambulated	-7012
br	-7013
of	-7014
iety	-7015
used	-7016
ག་ཏ་	-7017
སྐྱི	-7018
སྣོད	-7019
ི་སྟ	-7020
ོན་བྱ	-7021
▁iron	-7022
▁དེ་ལ	-7023
isible	-7024
མར་མེ་	-7025
ར་བའི་	-7026
▁elder	-7027
▁motiv	-7028
་དེ་ཚེ་	-7029
▁illust	-7030
▁killed	-7031
རྣམ་ཐོས་	-7032
▁appears	-7033
▁powders	-7034
▁thereby	-7035
▁accepted	-7036
▁contamin	-7037
▁continue	-7038
ཐམས་ཅད་ལས་	-7039
▁equipoise	-7040
▁fortunate	-7041
ར་བགྱི་བའི་	-7042
▁auspicious	-7043
རྗེས་སུ་ཡི་ར	-7044
ར་བྱེད་པ་དང་་	-7045
ཆོས་བཅུ་པོ་དེ་དག	-7046
men	-7047
angu	-7048
་དུར	-7049
་རི་	-7050
▁cow	-7051
▁hab	-7052
▁mor	-7053
▁oil	-7054
anged	-7055
luded	-7056
nally	-7057
གཤིན་	-7058
ནི་མ་	-7059
མ་དག་	-7060
▁less	-7061
▁tens	-7062
ཞིག་བཙ	-7063
▁incom	-7064
་དོན་བྱ	-7065
གསུངས་པ	-7066
དེ་བའི་	-7067
ཕྱིར་རྒ	-7068
བ་པ་དང་	-7069
ཡང་ཡིན་	-7070
▁clouds	-7071
▁verbal	-7072
གང་གི་ཚེ	-7073
ཕྱིན་ཅི་	-7074
▁standing	-7075
▁elaborate	-7076
▁otherwise	-7077
་བྱེད་ཀྱི་ཚ	-7078
རྒྱལ་བུ་རྒྱལ	-7079
་དེ་དག་ཐམས་ཅད	-7080
▁དགེ་བའི་རྩ་བ	-7081
་བཅུའི་ལས་ཀྱི་	-7082
འོད་སྲུང་གིས་བ	-7083
རིན་པོ་ཆེ་དང་་	-7084
ྲལ་	-7085
▁ah	-7086
asam	-7087
inal	-7088
ཉིང་	-7089
ution	-7090
་དབུལ	-7091
་སྐད་	-7092
གཉེན་	-7093
ང་ནི་	-7094
མ་ནས་	-7095
ོངས་པ	-7096
▁roar	-7097
▁གནས་	-7098
་དངུལ་	-7099
ཡངས་པ་	-7100
རི་རབ་	-7101
སྟོན་་	-7102
▁deter	-7103
▁shook	-7104
▁using	-7105
▁ཀ་ཤི་	-7106
▁དགེ་བ	-7107
concept	-7108
ཆོས་བཞི	-7109
ཉམས་པར་	-7110
ཉེ་བར་བ	-7111
ས་དེ་ལ་	-7112
ུགས་ཏེ་	-7113
▁abides	-7114
▁gather	-7115
▁རྒྱལ་བ	-7116
ན་དེ་བཞི	-7117
མཚུངས་པ་	-7118
▁ability	-7119
▁endless	-7120
▁forests	-7121
▁precise	-7122
▁ཡེ་ཤེས་	-7123
▁emanated	-7124
ན་སེམས་ཅན་	-7125
▁sacrifice	-7126
▁wonderful	-7127
▁ཆོས་རྣམས་	-7128
མ་བྱེད་ཅིག་	-7129
་པར་བྱེད་དེ་	-7130
▁disciplined	-7131
▁thirtythree	-7132
མངོན་པར་དགའ་བ	-7133
ief	-7134
▁ru	-7135
cked	-7136
ཕོག་	-7137
མདའ་	-7138
རྩུབ	-7139
▁hat	-7140
▁mir	-7141
▁top	-7142
ཁོར་ཡ	-7143
ཅོད་པ	-7144
ཟུང་བ	-7145
འབྱེད	-7146
▁bery	-7147
▁echo	-7148
▁lost	-7149
▁pill	-7150
་སྐྱེ་	-7151
ཅི་ཞིག	-7152
ཏེ་དེ་	-7153
རིན་ཆེ	-7154
སྒྱུར་	-7155
▁crush	-7156
▁mahak	-7157
་བདག་ལ་	-7158
་བཞིན་་	-7159
གཏི་མུག	-7160
ཉེས་པར་	-7161
ཕན་ཡོན་	-7162
མིང་དང་	-7163
རྩེ་མོ་	-7164
▁wander	-7165
ལེན་པའི་	-7166
སྤྲུལ་པ་	-7167
ུང་ངོ་་་	-7168
▁special	-7169
་བདེ་བའི་	-7170
འབྱུང་པོ་	-7171
▁bringing	-7172
ལ་སྤྱོད་པ་	-7173
སྐྱེད་དོ་་	-7174
▁monastery	-7175
ཡང་དག་པར་བླ	-7176
▁instruction	-7177
ཡིད་ལ་བྱེད་པ་	-7178
ཡོངས་སུ་སྨིན་པ	-7179
མི་སྐྱེ་བའི་ཆོས་	-7180
▁དེ་ཅིའི་སླད་དུ་	-7181
ada	-7182
ket	-7183
ury	-7184
ཏམ་	-7185
▁aj	-7186
གསེར	-7187
ལ་གཞ	-7188
▁cou	-7189
▁suk	-7190
གདོན་	-7191
ཐུབ་པ	-7192
▁grew	-7193
▁neck	-7194
ཟིན་པ་	-7195
ུས་མོ་	-7196
▁chief	-7197
▁tamer	-7198
▁touch	-7199
pressed	-7200
quently	-7201
གཞལ་དུ་	-7202
ས་བྱེད་	-7203
སྲིད་པ་	-7204
▁hatred	-7205
ན་པ་འདི་	-7206
ཕྱི་མའི་	-7207
▁several	-7208
▁མེ་ཏོག་	-7209
ཁམས་གསུམ་	-7210
▁padmasri	-7211
▁vehicles	-7212
ལུང་སྟོན་པ	-7213
སྟོང་པ་ཉིད	-7214
▁attentive	-7215
གྱུར་པ་དང་་	-7216
ཅེས་བྱ་བའི་	-7217
▁vaisravana	-7218
▁ཁྱོད་ཀྱིས་	-7219
▁extensively	-7220
ཀུན་ཏུ་རབ་ཏུ་	-7221
རྣམ་པར་རྟོག་པ་	-7222
ava	-7223
irs	-7224
asen	-7225
ཤ་སྟ	-7226
ས་སྒ	-7227
▁nir	-7228
▁tas	-7229
avisk	-7230
ན་གཉི	-7231
མཛའ་བ	-7232
མི་འད	-7233
▁phat	-7234
▁quar	-7235
▁step	-7236
return	-7237
གནོད་པ	-7238
▁entry	-7239
▁south	-7240
་བྱམས་པ	-7241
གུས་པར་	-7242
ཆོས་ནི་	-7243
མངོན་དུ	-7244
འཆི་ཀར་	-7245
འདུན་པ་	-7246
འཛུམ་པ་	-7247
རྣམས་ཡི	-7248
ལས་ལངས་	-7249
▁oceans	-7250
anivaran	-7251
aviskamb	-7252
་བཞིན་དུ	-7253
▁དེ་ཁོ་ན	-7254
་དགའ་བའི་	-7255
་བདུད་ཀྱི་	-7256
མ་མཆིས་པར་	-7257
▁described	-7258
▁fulfilled	-7259
▁dedication	-7260
▁substances	-7261
▁austerities	-7262
▁possessions	-7263
▁sarvanivaran	-7264
འཛམ་བུའི་གླིང་	-7265
▁nonapprehension	-7266
་ན	-7267
འོ	-7268
▁ཕ	-7269
elt	-7270
ros	-7271
ator	-7272
ན་གད	-7273
ལ་གཏ	-7274
▁den	-7275
bhuta	-7276
estig	-7277
ས་པོ་	-7278
▁dece	-7279
arisen	-7280
ཞི་བར་	-7281
▁event	-7282
▁subse	-7283
ཡིན་ནམ་	-7284
ེང་གཞི་	-7285
▁bhadra	-7286
གཡས་པའི་	-7287
▁weapons	-7288
མཐོང་བའི་	-7289
▁absorbed	-7290
▁investig	-7291
▁syllable	-7292
▁wondered	-7293
▁prostrate	-7294
aviskambhin	-7295
ཅུ་གང་ཞེ་ན་	-7296
▁confidence	-7297
སོའི་སྐྱེ་བོ་	-7298
་དེ་བཞིན་དུ་བྱ	-7299
རྣམ་པར་གྲོལ་བ་	-7300
▁bhaisajyaraja	-7301
སི	-7302
inn	-7303
མཐུ	-7304
adha	-7305
inte	-7306
▁dry	-7307
▁mem	-7308
iring	-7309
ལག་མཐ	-7310
ལས་ཅི	-7311
▁mess	-7312
▁near	-7313
ensory	-7314
ཀྱིས་་	-7315
འཕེལ་བ	-7316
སྣ་ཚོག	-7317
▁caste	-7318
▁cloud	-7319
▁forty	-7320
▁occas	-7321
▁treas	-7322
ཁམས་སུ་	-7323
གནས་སོ་	-7324
ད་དུ་བྱ	-7325
ལ་ལ་ནི་	-7326
▁extras	-7327
གསུམ་དུ་	-7328
▁disting	-7329
ན་དམྱལ་བ་	-7330
མཆོད་པའི་	-7331
ལ་གནས་པར་	-7332
་བྱེ་བ་ཕྲག	-7333
ཆོས་སྨྲ་བ་	-7334
▁relatives	-7335
མི་ནུས་སོ་་	-7336
▁exhaustion	-7337
རྩོན་འགྲུས་རྩ	-7338
▁extrasensory	-7339
གཟུགས་མེད་པའི་	-7340
མ་བཅིངས་མ་གྲོལ་བ	-7341
els	-7342
mer	-7343
pro	-7344
yas	-7345
མ་ག	-7346
རྩྭ	-7347
pres	-7348
attle	-7349
འཁྲུག	-7350
རྩ་བ་	-7351
▁enth	-7352
tached	-7353
འཆི་འཕ	-7354
རེག་པ་	-7355
ལྟུང་བ	-7356
▁horse	-7357
▁takes	-7358
ཁྲི་ཕྲག	-7359
ན་དམ་པ་	-7360
ཞེས་དེ་	-7361
འདི་ལྟར	-7362
ིད་ཙ་བི	-7363
མ་འོངས་པ	-7364
ཚུར་ཤོག་	-7365
སྐྱེ་དགུ	-7366
▁thunder	-7367
▁བྱམས་པ་	-7368
ང་བསྐུར་བ	-7369
འདུག་སྟེ་	-7370
རྒྱལ་པོས་	-7371
རྒྱལ་མཚན་	-7372
▁garments	-7373
▁generate	-7374
ངན་སོང་དུ་	-7375
ཐུགས་སུ་ཆུ	-7376
ཞེས་བགྱི་བ	-7377
▁assembled	-7378
ཞེས་བྱ་སྟེ་	-7379
འི་དྲུང་དུ་	-7380
ཤེས་རབ་ཀྱི་	-7381
▁foundation	-7382
▁maturation	-7383
▁དེ་དག་གིས་	-7384
▁སྡུག་བསྔལ་	-7385
ལ་མངོན་པར་ཞེ	-7386
ལས་བྱུང་བའི་	-7387
▁maintaining	-7388
གི་བྱེ་མ་སྙེད	-7389
མྱ་ངན་ལས་འདའ་བ	-7390
སྐྱེ་བོ་མང་པོ་	-7391
ཐེག་པ་ཆེན་པོའི་	-7392
ླ་མ་ལུང་བསྟན་པ་	-7393
ཕྱིར་མི་འོང་བའི་	-7394
▁རྒྱལ་པོ་ཆེན་པོ་	-7395
ྲེ	-7396
yan	-7397
ས་ལ	-7398
ital	-7399
itra	-7400
lebr	-7401
mble	-7402
ཅན་་	-7403
ཐ་སྙ	-7404
ནན་ཏ	-7405
ཚངས་	-7406
ཚེ་་	-7407
▁sev	-7408
haros	-7409
idity	-7410
ouses	-7411
འཚལ་བ	-7412
སྤྱད་	-7413
ཀུན་ལ་	-7414
སིལ་སྙ	-7415
སྐྱོང་	-7416
▁druma	-7417
▁supra	-7418
▁བུ་མོ	-7419
ཞིག་ཏུ་	-7420
འདི་བཞི	-7421
▁celebr	-7422
▁unhind	-7423
▁དྲན་པ་	-7424
་བཙུན་པ་	-7425
གཉིས་ཀྱི	-7426
གསུངས་པ་	-7427
▁finally	-7428
▁longing	-7429
▁therein	-7430
▁གལ་ཏེ་བ	-7431
ཕྱུང་སྟེ་	-7432
མེད་པ་དག་	-7433
ར་འགྱུར་བ	-7434
▁entirely	-7435
▁followed	-7436
▁habitual	-7437
▁བུད་མེད་	-7438
་བརྗོད་དུ་	-7439
▁ཁྱོད་ཀྱི་	-7440
▁གླེང་གཞི་	-7441
་པར་བྱ་སྟེ་	-7442
ཞེས་བྱས་ནས་	-7443
འདི་སྙམ་དུ་	-7444
ཡི་གེར་འདྲི	-7445
▁unhindered	-7446
ཀུན་དགའ་བོས་	-7447
▁opportunity	-7448
▁unfathomable	-7449
་པའི་ཕྱིར་རོ་་	-7450
▁བྱང་ཆུབ་སེམས་དཔ	-7451
རྐྱ	-7452
oked	-7453
་བི་	-7454
མ་ལུ	-7455
▁kap	-7456
rimin	-7457
▁paid	-7458
▁send	-7459
▁tang	-7460
integr	-7461
ཏགས་པ་	-7462
འགྲོར་	-7463
སྤྲིན་	-7464
ུངས་པ་	-7465
ོ་བའི་	-7466
▁cryst	-7467
▁དེ་ནི	-7468
ནས་ནི་་	-7469
ཡང་རུང་	-7470
ུང་དང་་	-7471
▁amount	-7472
▁stable	-7473
amaharos	-7474
ཀུན་དགའ་	-7475
གསོལ་ཏེ་	-7476
སྡིག་ཅན་	-7477
ེད་དཔོན་	-7478
▁fulfill	-7479
▁results	-7480
▁སྲིང་མོ	-7481
མུ་སྟེགས་	-7482
འདི་ཁོ་ན་	-7483
རྟོག་པའི་	-7484
▁equality	-7485
་པར་བྱེད་པ	-7486
ལྟར་མི་བལྟ	-7487
▁arrogance	-7488
▁bhagavans	-7489
▁lightning	-7490
▁trillions	-7491
ཐལ་མོ་སྦྱར་	-7492
མི་ཤེས་སོ་་	-7493
ཟིལ་གྱིས་གན	-7494
ས་པའི་ཕྱིར་	-7495
▁actualized	-7496
ན་གཤེགས་པའི་	-7497
འཇིག་རྟེན་ལ་	-7498
་དགེ་སློང་དག་	-7499
▁candamaharos	-7500
འཐུན་པའི་ཆོས་བ	-7501
ས་པར་གྱུར་ཏོ་་	-7502
eth	-7503
uru	-7504
གྱེ	-7505
ོ་ཤ	-7506
ails	-7507
aked	-7508
bhas	-7509
phys	-7510
་བསྣ	-7511
ལས་་	-7512
ས་བཅ	-7513
▁bra	-7514
▁fil	-7515
རྒ་ཤི	-7516
▁beha	-7517
▁oint	-7518
▁soft	-7519
▁thor	-7520
esvara	-7521
་དངོས་	-7522
་དྲུང་	-7523
དེ་བར་	-7524
ན་དུས་	-7525
ས་བྱེད	-7526
ས་སྟོབ	-7527
སྲུངས་	-7528
▁glory	-7529
ཀུན་ཆུབ	-7530
ཅི་ཞིག་	-7531
ཆེན་མོ་	-7532
ཐ་དད་པ་	-7533
ན་བཅོས་	-7534
ས་པ་དེ་	-7535
▁analys	-7536
▁cities	-7537
▁flames	-7538
▁renoun	-7539
▁repres	-7540
physical	-7541
་བྱམས་པ་	-7542
ཐོས་སོ་་	-7543
མ་པ་དང་་	-7544
▁service	-7545
▁staying	-7546
་དགའ་ཞིང་	-7547
་བྱུང་སྟེ	-7548
་བྱེད་པར་	-7549
ཡིན་གྱིས་	-7550
▁destruct	-7551
▁thorough	-7552
་བཞིན་ནོ་་	-7553
མ་མེད་པའི་	-7554
▁guardians	-7555
▁sufferings	-7556
མི་འགྱུར་རོ་	-7557
ེ་བར་གཤེགས་པ	-7558
▁individuals	-7559
ཆེན་པོའི་མཚན་	-7560
▁continuously	-7561
▁obscurations	-7562
▁recollection	-7563
སྙིང་རྗེ་ཆེན་པོ་	-7564
▁རིགས་ཀྱི་བུ་དག་	-7565
ཨུ	-7566
▁ཟ	-7567
que	-7568
གཡོ	-7569
pani	-7570
ཆུ་བ	-7571
▁lad	-7572
▁pet	-7573
▁psy	-7574
adhar	-7575
སམ་པ་	-7576
▁deta	-7577
▁seal	-7578
▁vows	-7579
lihood	-7580
་དཔའ་བ	-7581
ག་ཏ་མ་	-7582
དག་ནི་	-7583
▁cling	-7584
▁odors	-7585
▁songs	-7586
▁རྒྱུ་	-7587
ouraged	-7588
མཛད་དེ་	-7589
སྐྱེ་བོ	-7590
▁answer	-7591
▁burned	-7592
▁wicked	-7593
་དབེན་པ་	-7594
གནས་ཤིང་	-7595
གསུང་རབ་	-7596
སླབ་པའི་	-7597
▁fortune	-7598
▁illustr	-7599
▁perfume	-7600
གཟུགས་དང་	-7601
▁distract	-7602
▁hardship	-7603
▁increase	-7604
▁mastered	-7605
▁མཐོང་ནས་	-7606
ན་ལས་དེའི་	-7607
▁descended	-7608
▁discrimin	-7609
▁encourage	-7610
▁goddesses	-7611
▁illusions	-7612
▁lifetimes	-7613
▁recollect	-7614
འབྱུང་ངོ་་་	-7615
▁displeased	-7616
▁livelihood	-7617
▁reflecting	-7618
་བྱང་ཆུབ་ཏུ་	-7619
་ར་དྭ་ཏིའི་བུ	-7620
ལྷ་རྣམས་ཀྱིས་	-7621
ཚིགས་སུ་བཅད་དེ་	-7622
གང་ཡིན་པ་འདི་ནི་	-7623
▁candamaharosana	-7624
ank	-7625
ope	-7626
mind	-7627
roud	-7628
་རེ་	-7629
ཐ་མ་	-7630
ན་བཤ	-7631
འཁོད	-7632
▁exe	-7633
▁ses	-7634
་བསླབ	-7635
ཀྲ་ཤི	-7636
ད་དང་	-7637
མགུ་བ	-7638
མང་བ་	-7639
▁band	-7640
▁knee	-7641
▁shar	-7642
ཤི་ནས་	-7643
ོན་ཏེ་	-7644
▁dying	-7645
▁flags	-7646
parable	-7647
གཏོང་བ་	-7648
ཉམས་སུ་	-7649
ན་པ་ནི་	-7650
▁extrem	-7651
▁merits	-7652
▁psycho	-7653
▁ད་ལྟར་	-7654
ཀུན་ཏུ་བ	-7655
གཟིགས་པ་	-7656
དུད་ཀྱི་	-7657
རྩེ་བའི་	-7658
▁reasons	-7659
▁writing	-7660
▁གང་ཞིག་	-7661
▁འཇམ་དཔལ	-7662
་དེ་དག་ནི	-7663
་དེར་དོང་	-7664
་པར་བགྱི་	-7665
▁prophesy	-7666
ཆོས་སྟོན་པ	-7667
འདི་ཉིད་ལ་	-7668
ར་བགྱིད་པ་	-7669
རྣམས་ལ་ནི་	-7670
▁transform	-7671
▁traveling	-7672
▁སྐྱེས་བུ་	-7673
མི་འགྱུར་ཏེ་	-7674
ལན་ཅིག་ཕྱིར་	-7675
་དོན་དམ་པར་ན་	-7676
རང་བཞིན་གྱིས་	-7677
▁psychophysical	-7678
མངོན་པར་ཤེས་པ་ལྔ	-7679
ས་པའི་འཇིག་རྟེན་	-7680
vaj	-7681
ལའང་	-7682
སྤྲི	-7683
སྨྲ་	-7684
▁ann	-7685
▁low	-7686
▁rev	-7687
ories	-7688
ཡིས་བ	-7689
ར་དེ་	-7690
ལྷགས་	-7691
སྟེན་	-7692
ུང་་་	-7693
▁akas	-7694
▁heap	-7695
▁pore	-7696
▁size	-7697
▁stra	-7698
ང་དང་བ	-7699
ཙན་དན་	-7700
འཚལ་བ་	-7701
ཡང་དེ་	-7702
རྗོད་པ	-7703
ལྷུན་པ	-7704
སྟི་སྟ	-7705
▁coral	-7706
▁feast	-7707
▁lumin	-7708
▁shine	-7709
▁teeth	-7710
▁yogin	-7711
་དམར་པོ	-7712
གཉིས་པ་	-7713
ར་བཞེད་	-7714
ཤིང་གི་	-7715
ེ་སྔགས་	-7716
▁aspire	-7717
་དཔག་ཚད་	-7718
འདུས་ཏེ་	-7719
འབྱུང་་་	-7720
▁arrival	-7721
▁brahmas	-7722
▁continu	-7723
▁leading	-7724
དབང་ཕྱུག་	-7725
▁abundant	-7726
▁ascetics	-7727
▁villages	-7728
ཡོངས་སུ་སྔ	-7729
ར་བྱས་སོ་་	-7730
རྒྱ་མཚོའི་	-7731
▁attention	-7732
▁ཤ་རིའི་བུ	-7733
ཁྱོད་ཀྱིས་བ	-7734
▁expression	-7735
▁recitation	-7736
ཁམས་མི་མཇེད་	-7737
ཚུལ་བཞིན་དུ་	-7738
་ར་དྭ་ཏིའི་བུས་	-7739
སོ་སོ་ཡང་དག་པར་	-7740
▁སེམས་ཅན་ཐམས་ཅད་	-7741
དམ	-7742
ོན	-7743
འཁྱ	-7744
▁རི	-7745
ibly	-7746
izes	-7747
་བཏུ	-7748
▁pen	-7749
▁ལམ་	-7750
་བསྡུ	-7751
གུས་པ	-7752
ཅི་དག	-7753
ཉམས་པ	-7754
ཉེས་པ	-7755
རྟག་པ	-7756
▁drew	-7757
▁legs	-7758
▁rice	-7759
itable	-7760
ད་དེ་བ	-7761
ནང་ནས་	-7762
ལམ་དུ་	-7763
▁compr	-7764
་དེས་ན་	-7765
་སྐྱེས་	-7766
ཕྲེང་བ་	-7767
འམ་བཅུ་	-7768
ལ་སེམས་	-7769
▁eating	-7770
▁sesame	-7771
་དག་གོ་་	-7772
་དཔའ་བོ་	-7773
འགའ་ཞིག་	-7774
▁deities	-7775
▁entrust	-7776
▁maidens	-7777
▁outside	-7778
▁shining	-7779
ཀྱིས་ཀྱང་	-7780
ཁྱེའུ་དེ་	-7781
གཟུགས་བརྙ	-7782
འདི་ལྟ་བུ	-7783
འདུས་བྱས་	-7784
▁diligent	-7785
▁perfumes	-7786
▁ལུས་ཀྱི་	-7787
▁disintegr	-7788
▁melodious	-7789
▁དེ་དག་གི་	-7790
་དང་ལྡན་པར་	-7791
འི་དངོས་པོ་	-7792
▁frightened	-7793
▁deliverance	-7794
▁tranquility	-7795
▁respectfully	-7796
ནས་བླ་ན་མེད་པ་	-7797
འཁོར་ལོ་བསྐོར་བ	-7798
jay	-7799
pet	-7800
umb	-7801
མྱུ་	-7802
▁arr	-7803
▁art	-7804
▁pie	-7805
▁pot	-7806
▁sin	-7807
quent	-7808
་དུག་	-7809
ོར་མ་	-7810
▁lake	-7811
▁nect	-7812
འཐོབ་་	-7813
ར་སྣང་	-7814
▁sumer	-7815
ནས་དེས་	-7816
སུ་ཞིག་	-7817
སྒྲུབས་	-7818
▁health	-7819
▁purify	-7820
▁rememb	-7821
▁search	-7822
▁tantra	-7823
▁victor	-7824
structed	-7825
་དང་་དྲི	-7826
་བདག་ནི་	-7827
གས་པ་དང་	-7828
མ་མཆིས་པ	-7829
ཡོན་ཏན་བ	-7830
▁deluded	-7831
▁foolish	-7832
▁mantras	-7833
ཆོ་འཕྲུལ་	-7834
ཇི་ལྟར་ན་	-7835
ནས་སེམས་ཅ	-7836
ཕུང་པོའི་	-7837
▁trillion	-7838
▁ཁྱོད་ནི་	-7839
▁འདི་ལ་བྱ	-7840
འཇིག་ཚོགས་	-7841
འི་བར་གྱི་	-7842
▁protected	-7843
ཏིང་ངེ་འཛིན	-7844
འཇུག་པ་དང་་	-7845
སྡུག་བསྔལ་བ	-7846
▁nonconcept	-7847
་བསོད་སྙོམས་	-7848
འབྱུང་བ་དང་་	-7849
▁application	-7850
ཀྱིས་དེའི་ཚེ་	-7851
ཡོངས་སུ་བསྐོར་	-7852
▁སེམས་ཅན་དེ་དག་	-7853
bri	-7854
ron	-7855
▁ur	-7856
▁གཞ	-7857
སྤུ་	-7858
▁kan	-7859
གསལ་བ	-7860
ཆོ་ག་	-7861
མངའ་བ	-7862
ཡོངས་	-7863
སྲིན་	-7864
▁onto	-7865
▁pret	-7866
ottama	-7867
་སྲོག་	-7868
བས་དང་	-7869
ཡོན་ཏན	-7870
ཨུད་པ་	-7871
ོང་བར་	-7872
▁escap	-7873
▁foods	-7874
▁indul	-7875
མདུན་ན་	-7876
▁circle	-7877
▁ensure	-7878
▁malice	-7879
▁nectar	-7880
▁sprout	-7881
་བསྟན་པ་	-7882
ཉོན་ཅིག་	-7883
མ་མཆིས་་	-7884
ཟླ་བ་དགུ	-7885
▁collect	-7886
▁content	-7887
▁letters	-7888
▁sixteen	-7889
ེད་པ་དང་་	-7890
▁modality	-7891
ང་ཆུབ་ཀྱི་	-7892
འི་བདག་པོ་	-7893
▁extensive	-7894
་དང་ལྷ་མ་ཡི	-7895
ར་བྱེད་པའི་	-7896
རྣམ་གྲངས་དེ	-7897
▁conviction	-7898
འཇིག་རྟེན་ན་	-7899
རྣམ་ཐོས་ཀྱི་བ	-7900
མངོན་པར་བསྒྲུབ	-7901
ཡོངས་སུ་གཏོང་བ	-7902
་དྲི་མ་མེད་པའི་	-7903
ན་ཁྱོད་ཀྱིས་དེ་	-7904
ze	-7905
དྨ	-7906
for	-7907
མཉེ	-7908
མིག	-7909
་དཔྱ	-7910
་དྷ་	-7911
ཤད་པ	-7912
སམས་	-7913
ཁུང་བ	-7914
ཕྱི་མ	-7915
ས་བཅོ	-7916
▁heed	-7917
▁type	-7918
ounter	-7919
་བྱས་པ	-7920
ཉེས་པ་	-7921
ད་ཅིང་	-7922
ལས་བཞེ	-7923
སེམས་པ	-7924
▁beryl	-7925
▁fifty	-7926
ceasing	-7927
mundane	-7928
གང་ལགས་	-7929
ཉེས་དམི	-7930
མིའམ་ཅི	-7931
འོག་གི་	-7932
▁mahama	-7933
▁marvel	-7934
▁profit	-7935
་བྱུང་་་	-7936
མ་བགྱིས་	-7937
ཞིང་དགའ་	-7938
འདུག་ནས་	-7939
རེག་པའི་	-7940
ྱིངས་སུ་	-7941
▁adopted	-7942
▁leagues	-7943
▁produce	-7944
▁turning	-7945
▁བྲམ་ཟེ་	-7946
་བྱེད་དེ་	-7947
ཀུན་གྱིས་	-7948
གཟུགས་སུ་	-7949
སྲོག་ཆགས་	-7950
▁conflict	-7951
▁occasion	-7952
▁progress	-7953
▁raksasas	-7954
ནི་བདག་གི་	-7955
སོད་སྙོམས་	-7956
སྟེན་པར་བྱ	-7957
▁statement	-7958
▁vajrapani	-7959
▁abandoning	-7960
▁bhadrapala	-7961
▁continents	-7962
▁terrifying	-7963
ཡོངས་སུ་ཤེས་	-7964
▁akasagarbha	-7965
▁transcended	-7966
▁དེ་ན་དེ་བཞི	-7967
སེང་གེའི་ཁྲི་	-7968
▁supramundane	-7969
མངོན་པར་བརྩོན་པ	-7970
ཟླ་བ་དགུའམ་བཅུ་	-7971
སོང་སྟེ་ཕྱིན་ནས་	-7972
ah	-7973
ཙ་	-7974
pta	-7975
་རྐ	-7976
གཟེ	-7977
ཐར་	-7978
མན་	-7979
ཚར་	-7980
quis	-7981
་བ་ལ	-7982
ན་པོ	-7983
avati	-7984
brium	-7985
ག་ལ་ཉ	-7986
ཆད་པ་	-7987
ཤེས་བ	-7988
▁crow	-7989
▁join	-7990
ན་ཡང་་	-7991
ས་སྐྱོ	-7992
སྦྲུལ་	-7993
ུན་དུ་	-7994
▁proud	-7995
▁vanqu	-7996
▁ཀྱེ་མ	-7997
གྲོང་རྡ	-7998
ངས་སོ་་	-7999
ཆོས་ཅན་	-8000
ལ་པ་དང་	-8001
▁enough	-8002
▁lament	-8003
ilibrium	-8004
ཀྱིས་ནི་	-8005
ཀླུ་དང་་	-8006
གཟི་བརྗི	-8007
ཐོས་པའི་	-8008
ཞུགས་ནས་	-8009
སྤྱད་པར་	-8010
▁bedding	-8011
▁fetters	-8012
▁measure	-8013
▁pressed	-8014
▁radiant	-8015
▁ཉན་ཐོས་	-8016
▁དེ་ནས་ས	-8017
་བསྔགས་པ་	-8018
ན་ཡང་མེད་	-8019
རྟོགས་པར་	-8020
▁analysis	-8021
▁provided	-8022
▁rebirths	-8023
▁residing	-8024
་བྱེད་པའི་	-8025
ཀྱིས་སྟོང་	-8026
ཆེན་པོ་གང་	-8027
ས་སྨོན་ལམ་	-8028
▁eliminate	-8029
▁expertise	-8030
▁reference	-8031
▁satisfied	-8032
▁separated	-8033
ཆོས་སྟོན་པ་	-8034
ཞེས་བྱ་བའམ་	-8035
▁absolutely	-8036
▁engagement	-8037
ཤིན་ཏུ་དགའ་བ	-8038
ལས་ཡོངས་སུ་ཐར་བ	-8039
ཇི་ལྟ་བ་བཞིན་དུ་	-8040
fe	-8041
ཀྵ	-8042
▁au	-8043
▁གྲ	-8044
ལ་དབ	-8045
▁ཉི་	-8046
ierce	-8047
istic	-8048
rence	-8049
་དབྱེ	-8050
ཅེས་བ	-8051
མྱོང་	-8052
ོག་ལ་	-8053
▁corp	-8054
▁skin	-8055
▁sole	-8056
ཁོ་ནར་	-8057
མས་པས་	-8058
ཞིག་ན་	-8059
ཞུགས་་	-8060
འགྲོ་་	-8061
ཡིད་ཆེ	-8062
▁array	-8063
་སྟོབས་	-8064
ཕན་ཚུན་	-8065
མཆོག་ལ་	-8066
འོན་ཏེ་	-8067
▁common	-8068
▁famili	-8069
ཀྱང་རུང་	-8070
གིས་ཀྱང་	-8071
གྱུར་པ་་	-8072
མ་རིག་པ་	-8073
འདི་དག་བ	-8074
ལ་ཡང་མི་	-8075
ལིད་ཙ་བི	-8076
སྐད་ཅིག་	-8077
▁looking	-8078
▁mention	-8079
▁mothers	-8080
▁priests	-8081
▁sources	-8082
ཕྱིར་དང་་	-8083
གདུགས་དང་་	-8084
ཡིད་དུ་མི་	-8085
▁wondering	-8086
▁འདི་ལྟར་བ	-8087
▁སྔོན་གྱི་	-8088
▁སྲིད་པའི་	-8089
ཐམས་ཅད་དང་་	-8090
ནས་སེམས་ཅན་	-8091
འི་དཔལ་གྱི་	-8092
རྒྱུན་མི་འཆ	-8093
ལ་དགའ་མགུར་	-8094
ལ་བསྙེན་བཀུ	-8095
སྐལ་པ་གྲངས་	-8096
▁proclaimed	-8097
འདི་དག་ནི་བྱ	-8098
▁equilibrium	-8099
་པར་བྱ་བའི་ཕྱིར་	-8100
cr	-8101
ཎ་	-8102
ཚ་	-8103
་ཏ་	-8104
ཏབ་	-8105
anam	-8106
oney	-8107
pose	-8108
uish	-8109
མ་བྲ	-8110
མཁན་	-8111
ibles	-8112
་དབྱི	-8113
་པོར་	-8114
གཟོད་	-8115
▁comb	-8116
▁lust	-8117
▁upas	-8118
ངས་པར་	-8119
མྱུར་བ	-8120
ལས་དེ་	-8121
ོན་ནས་	-8122
▁drums	-8123
▁kapil	-8124
▁write	-8125
ཀྱིས་དག	-8126
རྣམས་ནི	-8127
སྟན་དུ་	-8128
སློབ་པ་	-8129
ོད་ཅིང་	-8130
▁acquis	-8131
▁yogurt	-8132
▁ཀྱེ་མ་	-8133
་སྨོན་པ་	-8134
གོས་དང་་	-8135
ན་གཟུགས་	-8136
ཚད་མེད་པ	-8137
ས་སྤྱོད་	-8138
▁against	-8139
▁patient	-8140
▁variety	-8141
▁འདོད་པ་	-8142
ཡིད་བདེ་བ	-8143
▁acquired	-8144
▁engender	-8145
▁entrance	-8146
་དེ་དག་དང་	-8147
གནོད་པ་དང་	-8148
ཚངས་པས་བྱི	-8149
▁tangibles	-8150
▁unceasing	-8151
▁companions	-8152
▁everywhere	-8153
▁relinquish	-8154
ལས་ཅི་བགྱིས་	-8155
འི་སྟོབས་བཅུ་	-8156
འོད་སྲུང་གི་བ	-8157
ཐལ་མོ་སྦྱར་བ་བཏུ	-8158
ཡང་བཅོམ་ལྡན་འདས་	-8159
▁སེམས་ཅན་འདི་དག་	-8160
lu	-8161
ཀྲི	-8162
གླུ	-8163
སྡུ	-8164
་སྤྲ	-8165
ཁྱབ་	-8166
ཚོད་	-8167
འབབ་	-8168
ལྷོ་	-8169
ཧུ་ཕ	-8170
་དེང་	-8171
གཏེར་	-8172
དགའ་བ	-8173
ཟེར་བ	-8174
▁emit	-8175
▁perm	-8176
▁robe	-8177
▁རྐང་	-8178
athers	-8179
ཁོ་བོ་	-8180
ནས་ནི་	-8181
ོར་དུ་	-8182
▁mahab	-8183
▁obsta	-8184
▁relig	-8185
ན་གནས་པ	-8186
མང་པོར་	-8187
མི་གཡོ་	-8188
འདི་ཡང་	-8189
ལྟ་ཞིང་	-8190
སྤངས་པ་	-8191
ོས་ཤིག་	-8192
▁ceased	-8193
▁quarre	-8194
གང་ལགས་པ	-8195
གཉིས་དང་	-8196
འདས་པའི་	-8197
ས་ཕྱོགས་	-8198
▁bondage	-8199
▁intense	-8200
▁natural	-8201
▁purpose	-8202
▁འཕགས་པ་	-8203
ེ་སྔགས་འད	-8204
▁displays	-8205
ཁྱད་པར་དུ་	-8206
ནམ་མཁའ་ལྡི	-8207
ཞེས་བྱ་སྟེ	-8208
རྫོགས་སོ་་	-8209
ལས་བྱུང་བ་	-8210
▁devadatta	-8211
▁materials	-8212
ཀྱི་བདག་པོ་	-8213
གཤིན་རྗེའི་	-8214
ཞེ་སྡང་དང་་	-8215
ཡུན་རིང་པོ་	-8216
▁provisions	-8217
▁incomparable	-8218
གནས་པར་མི་བྱའོ་་	-8219
ཤིན་ཏུ་རྣམ་པར་དག	-8220
bb	-8221
མ་ཚ	-8222
འཐབ	-8223
▁ca	-8224
aksa	-8225
ocks	-8226
གྲང་	-8227
ཞུ་བ	-8228
▁dro	-8229
▁fle	-8230
▁sex	-8231
hijna	-8232
power	-8233
་བསྲི	-8234
གཡོས་	-8235
ནས་དབ	-8236
ལུས་བ	-8237
ིག་པ་	-8238
ུ་དག་	-8239
▁dull	-8240
▁fame	-8241
▁park	-8242
rupted	-8243
▁angry	-8244
▁peaks	-8245
▁sharp	-8246
▁shore	-8247
▁throw	-8248
གང་ཡིན་	-8249
ཐེ་ཙོམ་	-8250
▁transl	-8251
▁དེ་ལ་བ	-8252
arabhuta	-8253
ག་པ་དང་་	-8254
མ་ལགས་པ་	-8255
▁cleared	-8256
▁suppose	-8257
▁འདི་དག་	-8258
་དགེ་འདུན	-8259
གྲོགས་པོ་	-8260
ན་རྒྱལ་པོ	-8261
ཚིམ་པར་བྱ	-8262
ཚོང་དཔོན་	-8263
▁devotion	-8264
▁included	-8265
▁mentally	-8266
གནས་པ་དང་་	-8267
ན་གནས་པའི་	-8268
▁nonvirtue	-8269
▁eventually	-8270
▁prostrated	-8271
▁protectors	-8272
་བསྒྲུབས་ཏེ་	-8273
རྟོགས་པ་དང་་	-8274
ཕྱིར་མི་ལྡོག་པ	-8275
སྡུག་བསྔལ་གྱི་	-8276
མཉེས་པར་བྱས་ཏེ་	-8277
▁padmasrigarbha	-8278
ote	-8279
ཀོ་	-8280
རྫི	-8281
ices	-8282
inda	-8283
pled	-8284
ring	-8285
་སུ་	-8286
▁org	-8287
▁pus	-8288
▁rid	-8289
▁vir	-8290
orted	-8291
མ་དེ་	-8292
ཞུན་མ	-8293
སོར་བ	-8294
▁half	-8295
▁heal	-8296
▁indi	-8297
▁weak	-8298
liness	-8299
ཟས་དང་	-8300
སྡིག་ཅ	-8301
ུ་ཞིང་	-8302
▁dharm	-8303
▁minor	-8304
▁སྔོན་	-8305
ཆེན་བཞི	-8306
མེད་ཅིང	-8307
འབད་པས་	-8308
འི་དབང་	-8309
རི་དགས་	-8310
▁donned	-8311
▁preach	-8312
▁ཁྱེའུ་	-8313
་དགྲ་བཅོ	-8314
ངེས་པའི་	-8315
▁holders	-8316
▁masters	-8317
▁primord	-8318
▁quality	-8319
▁regress	-8320
▁sugatas	-8321
▁wishing	-8322
itabhijna	-8323
ཁྱིམ་གྱི་	-8324
མཆོག་ཏུ་བ	-8325
ར་བྱ་སྟེ་	-8326
ལྷུང་བཟེད	-8327
སྟན་བཅོས་	-8328
སྨྲས་སོ་་	-8329
▁diseases	-8330
▁emerging	-8331
ན་བཞུགས་ཏེ	-8332
མེ་ཏོག་དང་	-8333
▁expressed	-8334
▁tormented	-8335
གང་དག་ཡིན་པ	-8336
གཡས་པའི་ལྷ་	-8337
ཆོས་བསྟན་པ་	-8338
རབ་ཏུ་བྱུང་བ	-8339
▁demonstrate	-8340
▁བཅུ་གང་ཞེ་ན་	-8341
ཉིད་ཀྱི་བར་དུ་	-8342
ནི་བླ་ན་མེད་པ་	-8343
སྐྱེ་བོ་ཕལ་པོ་	-8344
▁dharmabhanaka	-8345
▁དེ་ལ་ཤེས་པ་དང་་	-8346
▁བཅོམ་ལྡན་འདས་ལ་	-8347
get	-8348
ric	-8349
་རྡ	-8350
་བ་བ	-8351
གང་ཟ	-8352
མཁས་	-8353
ྲག་ཅ	-8354
▁aim	-8355
▁new	-8356
▁pun	-8357
▁yoj	-8358
amati	-8359
ཆ་དང་	-8360
ཕྱེད་	-8361
འདྲ་་	-8362
ཧ་ཅང་	-8363
▁beat	-8364
▁inha	-8365
▁གཞན་	-8366
དེ་ནི་	-8367
འཇོམས་	-8368
ལམ་ཡང་	-8369
▁langu	-8370
▁outsh	-8371
pointed	-8372
གསོལ་བ་	-8373
མདོ་སྡེ	-8374
ཞིང་དུ་	-8375
འདོགས་པ	-8376
ིག་པའི་	-8377
▁joyous	-8378
▁sumeru	-8379
་དང་་སོ་	-8380
ངེས་པར་བ	-8381
མཛེས་པར་	-8382
མི་སེམས་	-8383
ལྡན་ཞིང་	-8384
སླད་དུ་བ	-8385
▁enemies	-8386
འཇུག་གོ་་	-8387
འདི་རྣམས་	-8388
འདི་ལྟར་བ	-8389
རང་རང་གི་	-8390
ཤ་རིའི་བུ	-8391
▁ordained	-8392
▁སྐྱེས་བུ	-8393
སྐྱེད་བསྲི	-8394
▁associate	-8395
▁precisely	-8396
་དེ་ལྟ་བུར་	-8397
▁དོན་དམ་པར་	-8398
ཕྱི་རོལ་གྱི་	-8399
རྩེ་ཞིང་དགའ་	-8400
▁transformed	-8401
རྣམ་པར་རྒྱལ་བ	-8402
རྣམས་ཡོངས་སུ་	-8403
ས་པར་གྱུར་ཏེ་	-8404
སེམས་བསྐྱེད་པ	-8405
ག་ལ་བ་དེར་དོང་	-8406
སེམས་བསྐྱེད་པ་	-8407
སྨོན་ལམ་བཏབ་པ་	-8408
ཞེས་བྱ་བ་དེ་ནི་	-8409
ཡང་དག་པར་རབ་ཏུ་	-8410
▁ཡ	-8411
ked	-8412
མ་ན	-8413
astu	-8414
ལ་དག	-8415
ལས་ད	-8416
སྤྱི	-8417
་དྲན་	-8418
ཕྱིས་	-8419
ཟབ་པ་	-8420
ལྟར་་	-8421
▁migr	-8422
▁subd	-8423
avastu	-8424
ཁང་དུ་	-8425
ཞོན་པ་	-8426
སྤྱད་པ	-8427
ization	-8428
་དང་པོ་	-8429
་པོ་དག་	-8430
གཉིས་ལ་	-8431
ཆགས་པར་	-8432
འདྲའོ་་	-8433
འི་བློ་	-8434
ཤིང་རྟ་	-8435
སྔགས་པ་	-8436
▁affect	-8437
▁shines	-8438
▁solids	-8439
ཐོབ་བོ་་	-8440
རྒྱས་པར་	-8441
ལྟ་བུར་བ	-8442
སེམས་ནི་	-8443
ོར་མ་ཆག་	-8444
▁amazing	-8445
▁crossed	-8446
▁harming	-8447
▁mandala	-8448
་དྲུག་ཏུ་	-8449
རྐྱེན་གྱི	-8450
ུའི་ཁུང་བ	-8451
▁diminish	-8452
ཕྱོགས་བཅུ་	-8453
མི་བྱེད་པ་	-8454
འི་དུས་ལ་བ	-8455
ལས་ལངས་ཏེ་	-8456
སྐད་སྨྲས་པ	-8457
▁religious	-8458
▁retention	-8459
འདུ་ཤེས་དང་	-8460
▁engendered	-8461
▁motivation	-8462
▁prosperous	-8463
་བྱེད་པ་དང་་	-8464
འགྲོ་བའི་ལམ་	-8465
འི་དགེ་སློང་	-8466
འི་སྟོབས་བཅུ	-8467
ལེགས་པར་གསུང	-8468
ལྷ་རྣམས་ཀྱི་	-8469
ཆོས་སྟོན་ཏོ་་	-8470
ེག	-8471
མ་ར	-8472
eled	-8473
་བུ་	-8474
གྲི་	-8475
ངམ་བ	-8476
མ་འག	-8477
མཉན་	-8478
▁run	-8479
atura	-8480
་བྱ་་	-8481
ཁམས་ད	-8482
གང་བ་	-8483
ཉིང་ག	-8484
མཚན་མ	-8485
འདུ་བ	-8486
རྗེས་	-8487
▁easy	-8488
▁imag	-8489
▁nuns	-8490
▁subs	-8491
དག་དང་	-8492
འབར་བ་	-8493
ཡིན་ན་	-8494
རྒྱ་ཆེ	-8495
▁reign	-8496
▁weary	-8497
ཟླ་བའི་	-8498
▁entity	-8499
▁stones	-8500
་དང་་སྒྲ	-8501
ཁོར་ཡུག་	-8502
གཞན་ཞིག་	-8503
སྣོད་དུ་	-8504
▁control	-8505
▁praises	-8506
▁དེ་ལྟ་བ	-8507
▁སྐྱེ་བ་	-8508
ཀྱི་བར་དུ	-8509
གསང་སྔགས་	-8510
གྱུར་ཏེ་་	-8511
མི་བགྱིད་	-8512
མི་སྤྱོད་	-8513
འདུས་མ་བྱ	-8514
ལྕགས་ཀྱི་	-8515
ས་སྐྱེ་བ་	-8516
སྣང་ངོ་་་	-8517
ུང་བ་དང་་	-8518
▁དེ་ནས་དྲ	-8519
ཚངས་པ་དང་་	-8520
འདི་བཤད་པ་	-8521
འབྱུང་སྟེ་	-8522
ལྟ་བུ་དང་་	-8523
ཤཀྱ་ཐུབ་པ་	-8524
▁entertain	-8525
▁ointments	-8526
▁delighting	-8527
གང་ཡིན་པ་དེ་	-8528
མ་ཡིན་པ་དང་་	-8529
▁destruction	-8530
▁kapilavastu	-8531
་ག	-8532
rak	-8533
མིང	-8534
ལྷུ	-8535
ེལ་	-8536
aded	-8537
king	-8538
ཁྱི་	-8539
ཅུར་	-8540
མང་བ	-8541
ཞལ་ཏ	-8542
▁amb	-8543
▁gem	-8544
▁gri	-8545
▁ved	-8546
་དད་པ	-8547
་དུརྱ	-8548
་བསྒྱ	-8549
ཆར་འབ	-8550
ཆོས་ཉ	-8551
འཁོད་	-8552
འཚོང་	-8553
འི་བཙ	-8554
རྐང་པ	-8555
རྫུན་	-8556
▁cure	-8557
▁envy	-8558
▁meru	-8559
▁peak	-8560
▁wash	-8561
olored	-8562
semble	-8563
usadhi	-8564
་དང་བྱ	-8565
་སེང་ག	-8566
ཆད་པར་	-8567
ས་བྱས་	-8568
▁deity	-8569
▁hears	-8570
▁study	-8571
▁གལ་ཏེ	-8572
entions	-8573
iveness	-8574
རྙོག་པ་	-8575
ཤེས་ནས་	-8576
ཤེས་པས་	-8577
སྟན་པར་	-8578
▁arrive	-8579
▁regret	-8580
▁stupas	-8581
▁རབ་ཏུ་	-8582
སྟོང་ཕྲག	-8583
▁consecr	-8584
▁crystal	-8585
▁disease	-8586
་བྱས་ཤིང་	-8587
འི་བསམ་པ་	-8588
འི་བྱེ་མ་	-8589
རྒྱ་སྟོང་	-8590
སྐྱེས་ནས་	-8591
▁ཡིད་ཀྱི་	-8592
▁སྲིང་མོ་	-8593
ཅེས་བྱའོ་་	-8594
མཐར་ཐུག་པ་	-8595
ཟའ་བ་དང་བཅ	-8596
འདིའི་མིང་	-8597
▁medicines	-8598
▁realizing	-8599
▁དེའི་ཚེ་བ	-8600
་དགེ་བསྙེན་	-8601
ན་དུས་གསུམ་	-8602
ན་རས་གཟིགས་	-8603
ཟིལ་གྱིས་མན	-8604
▁mahausadhi	-8605
▁permission	-8606
མར་གྱི་ཉིང་ག	-8607
ཡིད་དུ་འོང་བ	-8608
ལྟ་ན་སྡུག་པ་	-8609
ླ་ན་མེད་པའི་	-8610
▁celebrating	-8611
ཁང་པ་བརྩེགས་པ	-8612
ངེས་པར་འབྱུང་བ་	-8613
་བྱེ་བ་ཁྲག་ཁྲིག་	-8614
ཆེན་པོ་རྣམས་ཀྱི་	-8615
ia	-8616
ཇི	-8617
ནྡ	-8618
ila	-8619
ils	-8620
tha	-8621
use	-8622
རྔ་	-8623
▁རྒ	-8624
ands	-8625
laim	-8626
unct	-8627
ཐུན་	-8628
ན་ནི	-8629
འགྲི	-8630
རུས་	-8631
▁མེ་	-8632
akrav	-8633
joyed	-8634
་དབྱང	-8635
ཐོ་བ་	-8636
འདུལ་	-8637
▁bhut	-8638
▁ende	-8639
▁unat	-8640
▁ཚིག་	-8641
asenaj	-8642
astern	-8643
ཀྱི་བར	-8644
ཁྲི་ཉི	-8645
གཡོ་བ་	-8646
ཕྱི་མ་	-8647
མཐོང་ན	-8648
འདྲེན་	-8649
སྐལ་བ་	-8650
comings	-8651
གནང་བར་	-8652
མྱུ་གུ་	-8653
རོ་དང་་	-8654
རྒྱུ་བ་	-8655
སྤྱན་དྲ	-8656
སྤྱོད་ཡ	-8657
▁refine	-8658
▁resemb	-8659
་དཔེ་བྱད	-8660
ཁྱེར་ཏེ་	-8661
འདིར་ནི་	-8662
འབྱོར་པ་	-8663
▁acclaim	-8664
▁imagine	-8665
▁lineage	-8666
▁silence	-8667
་དེ་ལྟར་ན	-8668
མཐོང་ངོ་་	-8669
ལྟུང་བའི་	-8670
▁majestic	-8671
▁merchant	-8672
▁prasenaj	-8673
▁རྒྱ་མཚོ་	-8674
གཤེགས་སོ་་	-8675
▁overjoyed	-8676
▁presented	-8677
▁ཏིང་འཛིན་	-8678
ཀྱི་བར་གྱི་	-8679
ཆེར་སྐྱེས་པ	-8680
ཞེས་བགྱི་བ་	-8681
ུད་མེད་ཀྱི་	-8682
▁སྦྱིན་པའི་	-8683
ནས་དགེ་སློང་	-8684
འཇིག་ཚོགས་ལ་	-8685
▁attachments	-8686
▁དེས་སྨྲས་པ་	-8687
▁shortcomings	-8688
རྩོན་འགྲུས་བརྩ	-8689
འདས་པའི་དུས་ན་བ	-8690
ne	-8691
pit	-8692
uha	-8693
་རླ	-8694
འཚོ	-8695
ཨོ་	-8696
ghos	-8697
ikas	-8698
usum	-8699
གོ་ཆ	-8700
གླང་	-8701
ེ་བོ	-8702
ོན་་	-8703
▁ལས་	-8704
▁སྒྲ	-8705
རོ་མྱ	-8706
ས་དྲི	-8707
ས་སྲི	-8708
སྐུལ་	-8709
སྐོམ་	-8710
▁clan	-8711
▁neut	-8712
▁perv	-8713
icious	-8714
itudes	-8715
མཛོད་་	-8716
ལྷགས་་	-8717
སྐྱོ་བ	-8718
སྔགས་པ	-8719
ིལ་དུ་	-8720
▁close	-8721
ariably	-8722
theless	-8723
གཅོད་པ་	-8724
ཆོས་ཀྱི	-8725
ཐོབ་ནས་	-8726
▁commun	-8727
▁compar	-8728
▁forces	-8729
་པད་མའི་	-8730
ཡིན་ཏེ་་	-8731
ུག་པ་དང་	-8732
▁coupled	-8733
▁revered	-8734
▁vessels	-8735
▁victors	-8736
▁དབང་པོ་	-8737
▁ཕུང་པོ་	-8738
ཀོན་མཆོག་	-8739
ནས་དེ་དག་	-8740
ཕ་རོལ་ཕྱི	-8741
འི་དུས་ན་	-8742
སྤྱོད་པར་	-8743
▁དགེ་སྦྱོ	-8744
གང་དང་རྐྱེ	-8745
སྐྱེས་པའི་	-8746
▁proceeded	-8747
ད་པའི་ཕྱིར་	-8748
▁eightyfour	-8749
▁invariably	-8750
▁maintained	-8751
▁possession	-8752
▁transitory	-8753
▁unattached	-8754
་དེ་བཞིན་ཏེ་	-8755
ཆོས་ཡོངས་སུ་	-8756
ས་བཀའ་སྩལ་ཏོ་	-8757
མེད་པ་ཡིན་ནོ་་	-8758
▁ཚ	-8759
gar	-8760
hak	-8761
nda	-8762
ཏོག	-8763
▁གས	-8764
abha	-8765
born	-8766
་དགོ	-8767
་བརྟ	-8768
རེ་ར	-8769
རྗེད	-8770
ལྷན་	-8771
▁ash	-8772
▁bet	-8773
▁ཚེ་	-8774
གང་ན་	-8775
གླགས་	-8776
འཐོར་	-8777
སྒོམ་	-8778
ུ་དེ་	-8779
▁fast	-8780
▁heat	-8781
▁purn	-8782
▁བདེ་	-8783
ག་གོ་་	-8784
གི་བུ་	-8785
གོས་པ་	-8786
རྒྱན་པ	-8787
▁ajita	-8788
▁uncom	-8789
ན་དང་་་	-8790
མཁས་པས་	-8791
སམ་གཏན་	-8792
ོས་ཀྱང་	-8793
▁bhutas	-8794
▁letter	-8795
▁reared	-8796
▁surely	-8797
▁unvirt	-8798
▁འདི་ལ་	-8799
ཚེའི་ཚད་	-8800
ོ་བ་དང་་	-8801
▁conquer	-8802
▁decline	-8803
་དེས་ཀྱང་	-8804
་བསམ་གཏན་	-8805
གསོལ་ཏོ་་	-8806
མང་པོ་དག་	-8807
འགྱུར་རོ་	-8808
ས་དེ་ལྟར་	-8809
▁definite	-8810
▁involved	-8811
▁listened	-8812
གསུངས་སོ་་	-8813
ཐེག་པ་པའི་	-8814
ནི་བདག་ཅག་	-8815
མདུན་དུ་བད	-8816
འཇིགས་ཤིང་	-8817
▁aggregate	-8818
▁completed	-8819
▁connected	-8820
▁poisonous	-8821
▁sensation	-8822
་དེ་དང་རྐྱེ	-8823
ུང་གི་ཚོགས་	-8824
▁assemblies	-8825
▁designated	-8826
▁hesitation	-8827
ན་གང་དག་གིས་	-8828
མེད་པར་གྱུར་	-8829
ན་པ་ལ་སྤྱོད་པ	-8830
འི་ཚིགས་སུ་བཅ	-8831
ཡོངས་སུ་སྔོ་བ	-8832
སྙེན་པར་རྫོགས་	-8833
ྲམ་ཟེའི་ཁྱེའུ་	-8834
རྒྱལ་པོ་ཟས་གཙང་	-8835
རྒྱུ་དེ་དང་རྐྱེ	-8836
ནོར་བུ་རིན་པོ་ཆེ	-8837
ནེ	-8838
ཥ་	-8839
ཅས་	-8840
ཏི་	-8841
▁jn	-8842
ples	-8843
མི་ཕ	-8844
ལ་མ་	-8845
སྲིད	-8846
▁mix	-8847
▁val	-8848
aving	-8849
ially	-8850
་སྙམ་	-8851
གཉེར་	-8852
གོས་བ	-8853
འབྲས་	-8854
རྣ་བ་	-8855
སྤྲུལ	-8856
▁auth	-8857
▁eyeb	-8858
▁repe	-8859
▁says	-8860
▁talk	-8861
llable	-8862
ག་ཆགས་	-8863
ཞི་པོ་	-8864
འདིར་བ	-8865
ས་ལ་བཙ	-8866
ྲིབ་པ་	-8867
▁acala	-8868
▁agree	-8869
▁steps	-8870
▁sukha	-8871
▁ང་ནི་	-8872
▁འདིས་	-8873
quisite	-8874
སྲེད་པ་	-8875
▁fallen	-8876
▁forget	-8877
་བཟོད་པ་	-8878
མི་ནུས་་	-8879
ལྡན་གྱི་	-8880
སྐར་མའི་	-8881
▁blazing	-8882
▁fingers	-8883
▁killing	-8884
▁འགྲོ་བ་	-8885
ཕྱོགས་བཞི	-8886
ལུང་བསྟན་	-8887
▁finality	-8888
▁ཡོངས་སུ་	-8889
་དགའ་བ་དང་	-8890
གསལ་བ་དང་་	-8891
ཆེན་བཞིའི་	-8892
ཆོས་ཐམས་ཅད	-8893
ས་སྨྲས་སོ་	-8894
▁discerned	-8895
▁divisions	-8896
▁འདོད་པའི་	-8897
ར་བགྱིས་ཏེ་	-8898
ལྟ་ཅི་སྨོས་	-8899
ས་སྔོན་གྱི་	-8900
▁protection	-8901
▁unvirtuous	-8902
་དང་བྲལ་བའི་	-8903
ལྟ་ག་ལ་མཆིས་	-8904
སྡུག་བསྔལ་བ་	-8905
▁stabilities	-8906
གཡས་པའི་ལྷ་ང་	-8907
▁contaminants	-8908
▁discernments	-8909
འདས་པའི་དུས་ན་	-8910
▁accumulations	-8911
▁practitioners	-8912
རྒྱལ་ཆེན་བཞིའི་	-8913
སུམ་ཅུ་རྩ་གཉིས་	-8914
ih	-8915
olt	-8916
ར་པ	-8917
eens	-8918
fulf	-8919
་སྨྲ	-8920
ཚོར་	-8921
རྒྱད	-8922
▁rem	-8923
inter	-8924
ivity	-8925
མིན་་	-8926
སོང་་	-8927
▁seas	-8928
▁ཡུལ་	-8929
endent	-8930
itabha	-8931
་དགུ་བ	-8932
་བཅོམ་	-8933
་བྱས་་	-8934
མི་བྱ་	-8935
ཟད་དོ་	-8936
ཡིན་པ་	-8937
སྐྱའི་	-8938
ུགས་པ་	-8939
▁bodhi	-8940
▁filth	-8941
▁fools	-8942
▁homes	-8943
iration	-8944
ནས་སྟན་	-8945
ཚོགས་པ་	-8946
ཡོད་དོ་	-8947
སྒོའོ་་	-8948
▁monast	-8949
▁riches	-8950
▁smells	-8951
▁དེས་ན་	-8952
་དང་བཅས་	-8953
་བསྔགས་པ	-8954
མྱོང་བར་	-8955
ཟུང་སྟེ་	-8956
འཁྲུག་པ་	-8957
ཤིག་དང་་	-8958
▁demonic	-8959
▁harmful	-8960
▁partake	-8961
ཁྱུ་མཆོག་	-8962
གསལ་རྒྱལ་	-8963
ཐུགས་རྗེ་	-8964
མེད་གྲངས་	-8965
རོལ་མོའི་	-8966
ལ་བུ་ཆགས་	-8967
ལ་སྤྱོད་པ	-8968
ས་སོ་ཞེས་	-8969
▁behavior	-8970
▁circumst	-8971
▁observed	-8972
་དྲུག་པའི་	-8973
ཆོས་དེ་དག་	-8974
སློབ་དཔོན་	-8975
▁completes	-8976
▁listeners	-8977
▁preceptor	-8978
▁nonduality	-8979
▁དེའི་ཕྱིར་	-8980
ཐུགས་སུ་ཆུད་	-8981
ར་བཞེད་ན་ནི་	-8982
སེམས་བསྐྱེད་	-8983
▁cultivation	-8984
▁སྟོང་པ་ཉིད་	-8985
▁nonexistence	-8986
་བརྒྱ་སྟོང་དུ་	-8987
▁contemplation	-8988
▁དེ་ནས་རྒྱལ་པོ	-8989
གཞོན་ནུར་གྱུར་པ	-8990
མཚན་མ་མེད་པ་དང་	-8991
འི་སངས་རྒྱས་ཀྱི་	-8992
wh	-8993
wn	-8994
unk	-8995
གླེ	-8996
▁gh	-8997
▁ug	-8998
asri	-8999
འགོད	-9000
ཡུད་	-9001
▁blo	-9002
▁vas	-9003
artin	-9004
haraj	-9005
ཆུང་མ	-9006
འགུལ་	-9007
ཡང་མ་	-9008
▁arom	-9009
▁dang	-9010
▁text	-9011
illing	-9012
ཁ་ན་མ་	-9013
གསལ་བ་	-9014
ཅི་ནས་	-9015
ཇི་ལྟར	-9016
ཕྱིར་་	-9017
མར་དང་	-9018
རིང་བ་	-9019
རྡུལ་བ	-9020
ལ་ཡང་བ	-9021
ཤེས་བྱ	-9022
སྐུལ་བ	-9023
སྟན་ལ་	-9024
ོས་ནས་	-9025
▁arrow	-9026
▁bowls	-9027
▁build	-9028
▁influ	-9029
▁lamps	-9030
▁mahav	-9031
▁misde	-9032
▁neutr	-9033
▁parts	-9034
ད་འཚོང་	-9035
ར་དཀའ་བ	-9036
▁draped	-9037
▁fierce	-9038
▁lesser	-9039
▁powder	-9040
▁queens	-9041
▁stayed	-9042
▁thinks	-9043
▁དབང་པོ	-9044
▁བུ་མོ་	-9045
གཏུམ་པོ་	-9046
འགོག་པར་	-9047
ལ་པ་དང་་	-9048
སྨྲ་བའི་	-9049
ོང་ངོ་་་	-9050
▁causing	-9051
▁grounds	-9052
▁pursuit	-9053
▁removed	-9054
ནས་བསྐལ་པ	-9055
འགྱུར་བར་	-9056
རྨད་དུ་བྱ	-9057
ཤེས་པ་དེ་	-9058
▁signless	-9059
རྣམས་ཀྱི་བ	-9060
▁conferred	-9061
▁emanation	-9062
▁visualize	-9063
ཁ་ན་མ་ཐོ་བ་	-9064
འི་དུས་ཀྱི་	-9065
རབ་ཏུ་ཕྱུང་	-9066
▁respectful	-9067
འདི་ལྟ་བུའི་	-9068
▁innumerably	-9069
་དང་་སྡུག་བསྔ	-9070
ཐམས་ཅད་རབ་ཏུ་	-9071
འདོད་ཆགས་དང་་	-9072
▁མཐོང་ནས་ཀྱང་	-9073
་དང་་ལྟོ་འཕྱེ་	-9074
མེད་ཅེས་བྱ་བར་	-9075
སེམས་དང་ལྡན་པ་	-9076
▁transmigrated	-9077
ཕྱིར་མི་ལྡོག་པ་	-9078
འདུས་མ་བྱས་ཀྱི་	-9079
ཁམས་གང་གའི་ཀླུང་	-9080
bl	-9081
ཏི	-9082
་རྗ	-9083
alls	-9084
anet	-9085
་དན་	-9086
་བླ་	-9087
འདས་	-9088
▁pan	-9089
▁ཆུ་	-9090
asamk	-9091
iling	-9092
reath	-9093
་དག་བ	-9094
་པོ་་	-9095
ཀུ་མུ	-9096
ཀྱི་ཧ	-9097
མཐུས་	-9098
འཚལ་་	-9099
ས་སྣ་	-9100
སྡུ་བ	-9101
▁pull	-9102
minded	-9103
teenth	-9104
་དྲན་པ	-9105
གྲུབ་པ	-9106
ས་སྐུ་	-9107
ུས་ནས་	-9108
ེ་བྲག་	-9109
ོམ་ཉི་	-9110
▁clean	-9111
▁excre	-9112
▁phant	-9113
ibility	-9114
གོས་དང་	-9115
མཛད་པ་་	-9116
མི་སྡུག	-9117
འདི་ཉིད	-9118
འབྱིན་པ	-9119
སྙམ་མོ་	-9120
▁ambros	-9121
▁natura	-9122
▁pacify	-9123
▁pieces	-9124
་བསྒོམས་	-9125
གླིང་དུ་	-9126
འཛིན་པར་	-9127
རྟག་པའི་	-9128
སྤྱད་ནས་	-9129
གླང་པོ་ཆེ	-9130
མཐའ་ཡས་པ་	-9131
མཛོད་ཅིག་	-9132
ཙུན་མོའི་	-9133
ས་སྦྱིན་པ	-9134
▁minister	-9135
▁misdeeds	-9136
▁separate	-9137
▁wishfulf	-9138
▁བདག་ཉིད་	-9139
ན་བཞིན་དུ་	-9140
རབ་ཏུ་ཤེས་	-9141
ལྷུང་བཟེད་	-9142
▁doctrines	-9143
▁naturally	-9144
གང་གི་ཚེ་བྱ	-9145
གཞལ་མེད་ཁང་	-9146
འོ་་འདི་ནི་	-9147
▁prasenajit	-9148
འོད་སྲུང་དང་	-9149
སེམས་ཅན་གྱི་	-9150
སླབ་པའི་གཞི་	-9151
▁continually	-9152
་དང་་དྲི་དང་་	-9153
ཁྲི་བཞི་སྟོང་	-9154
ཆོས་རྣམས་ཀྱི་	-9155
ཡང་མ་ཡིན་ནོ་་	-9156
རྣམས་ཡིན་ནོ་་	-9157
ྱིན་གྱིས་བརླབ	-9158
ྲམ་ཟེའི་ཁྱེའུ	-9159
་དགེ་འདུན་གྱི་	-9160
མེ་ཏོག་ཀུན་ཏུ་	-9161
འི་དབྱངས་ཀྱིས་	-9162
རབ་ཏུ་བྱུང་སྟེ་	-9163
▁wishfulfilling	-9164
▁དགེ་སློང་དག་ང་	-9165
ལ་འདི་སྐད་ཅེས་བྱ	-9166
གེ	-9167
ནད	-9168
▁eg	-9169
ists	-9170
oved	-9171
riad	-9172
འཐབ་	-9173
རིས་	-9174
▁མུ་	-9175
alcul	-9176
aters	-9177
ུ་བོ་	-9178
▁ease	-9179
aksatr	-9180
legged	-9181
onents	-9182
tained	-9183
་དཀའ་་	-9184
་དག་ན་	-9185
་བཏུད་	-9186
གེ་མོ་	-9187
མ་དུ་བ	-9188
མི་ཡི་	-9189
ཡང་དང་	-9190
ས་སྒྲ་	-9191
▁bones	-9192
▁extra	-9193
▁stars	-9194
ནང་དུ་བ	-9195
ནོར་དང་	-9196
འི་སྐུ་	-9197
ལ་མོ་ཀྲ	-9198
ས་བཅོམ་	-9199
▁banner	-9200
▁limits	-9201
▁myriad	-9202
▁specif	-9203
▁swords	-9204
་དགའ་བར་	-9205
མ་བྱས་ལ་	-9206
ཟུང་ཤིག་	-9207
འཇུག་པར་	-9208
ཡེ་ཤེས་བ	-9209
སེམས་ཀྱི	-9210
སེམས་མི་	-9211
▁eastern	-9212
▁musical	-9213
▁physici	-9214
▁studied	-9215
▁thrones	-9216
▁དཔའ་བོ་	-9217
▁འདི་ལྟར	-9218
གཟི་བརྗིད	-9219
མི་བྱེད་་	-9220
ཚད་མེད་པ་	-9221
འཇུག་ཅིང་	-9222
འདི་གཉིས་	-9223
ལ་རྣམ་པར་	-9224
སྡུག་བསྔལ	-9225
▁amitabha	-9226
▁attended	-9227
▁describe	-9228
▁vimalate	-9229
གྱི་བར་དུ་	-9230
རྣམས་དང་་་	-9231
ལ་ཕྱག་འཚལ་	-9232
ཀའ་སྩལ་ཏོ་་	-9233
ཁོང་དུ་ཆུད་	-9234
ཅང་མི་གསུང་བ	-9235
ཕྱིན་ཅི་ལོག་	-9236
མདུན་དུ་བདར་	-9237
ཡིད་ལ་བྱེད་པ	-9238
སྙམ་དུ་བསམས་	-9239
ཇི་སྐད་བསྟན་པ	-9240
ས་དེ་བདག་གིས་	-9241
ས་སྟོན་རྒྱས་པ	-9242
ཀྱིས་དེ་སྐད་ཅེ	-9243
འདུ་བྱེད་རྣམས་	-9244
འི་དཀྱིལ་འཁོར་	-9245
སྦྱར་ཏེ་དེ་ནི་	-9246
▁དགེ་བའི་རྩ་བ་	-9247
ལ་བཅོམ་ལྡན་འདས་	-9248
ནས་སངས་རྒྱས་ཀྱི་	-9249
bor	-9250
bear	-9251
ihil	-9252
ught	-9253
གཡོ་	-9254
ཕ་རོ	-9255
ཕན་པ	-9256
ཟློག	-9257
སྐྲ་	-9258
▁dip	-9259
▁kse	-9260
ཁ་ཟས་	-9261
ས་དབེ	-9262
ས་པའི	-9263
▁peri	-9264
▁unob	-9265
གླིང་བ	-9266
མ་ནུས་	-9267
ས་སུམ་	-9268
▁decor	-9269
▁memor	-9270
▁neckl	-9271
▁recip	-9272
མཚན་མོ་	-9273
རྒྱ་བྱི	-9274
▁destin	-9275
▁impart	-9276
▁summon	-9277
▁ཡི་གེ་	-9278
ཕྱག་འཚལ་	-9279
མཐུ་ཆེན་	-9280
མི་བགྱི་	-9281
རླུང་གི་	-9282
▁beloved	-9283
▁greatly	-9284
▁magadha	-9285
▁mahavid	-9286
▁uttered	-9287
▁ཡོན་ཏན་	-9288
asamkusum	-9289
ཆོས་ཀྱིས་	-9290
▁constant	-9291
▁incalcul	-9292
▁supports	-9293
▁དེས་དེར་	-9294
▁འོན་ཀྱང་	-9295
འཛིན་བྱེད་	-9296
འོ་སྙམ་དུ་	-9297
རྣམས་ལ་ཡང་	-9298
▁certainly	-9299
▁exception	-9300
▁intellect	-9301
▁marvelous	-9302
འདི་དག་གིས་	-9303
མདོ་སྡེ་འདི་	-9304
ཡིད་མི་བདེ་བ	-9305
ཡོངས་སུ་དག་པ	-9306
རྣམས་ཀྱི་ནི་	-9307
གཏན་མི་དམིགས་	-9308
འི་དབྱིངས་སུ་	-9309
འི་བཤེས་གཉེན་	-9310
རབ་ཏུ་འབྱུང་བ་	-9311
▁nonconceptual	-9312
རྣམས་ཀྱི་དོན་བྱ	-9313
སྐྱབས་སུ་འགྲོ་བ	-9314
hol	-9315
་སླ	-9316
ཟ་བ	-9317
ྲན་	-9318
ucid	-9319
གདུལ	-9320
གཡོག	-9321
ཆེ་་	-9322
རའི་	-9323
ལ་དཔ	-9324
སྐྱབ	-9325
▁dog	-9326
▁fig	-9327
▁mur	-9328
▁འདི	-9329
andra	-9330
ཅེར་བ	-9331
སྣའི་	-9332
▁clar	-9333
▁conj	-9334
གཞག་པ་	-9335
གྲོས་བ	-9336
ནག་པོ་	-9337
ཡོད་ན་	-9338
ར་གྱི་	-9339
ས་དུས་	-9340
ཧུ་ཕཊ་	-9341
ོས་དང་	-9342
▁aside	-9343
▁spear	-9344
▁རིགས་	-9345
ཆུང་མ་བ	-9346
ཆེད་དུ་	-9347
ཚུལ་དང་	-9348
ཡིད་མི་	-9349
▁belief	-9350
▁defeat	-9351
▁mirror	-9352
▁stains	-9353
▁unique	-9354
་དེ་ཡིས་	-9355
་སྙིང་པོ	-9356
ཉིད་དོ་་	-9357
ཐོས་ནས་་	-9358
མཆོག་དང་	-9359
ཞག་བདུན་	-9360
ཞུགས་པར་	-9361
འོ་མ་དང་	-9362
རྒྱལ་ཚབ་	-9363
ལོགས་སུ་	-9364
ྱིན་གྱི་	-9365
▁consumm	-9366
▁exclaim	-9367
▁miracle	-9368
▁mustard	-9369
▁playing	-9370
▁undergo	-9371
▁vaisali	-9372
▁yojanas	-9373
▁ནམ་མཁའ་	-9374
▁སྟོབས་བ	-9375
་དག་གིས་བ	-9376
ཀྱིས་གསུང	-9377
མ་བཟང་པོ་	-9378
མས་པ་དང་་	-9379
ཚུལ་གྱིས་	-9380
▁actually	-9381
▁དེ་ཕྱིར་	-9382
aksatraraj	-9383
ཐབས་མཁས་པ་	-9384
ུམ་བསྐོར་བ	-9385
▁certainty	-9386
▁listening	-9387
▁multitude	-9388
▁nonhumans	-9389
▁nonreturn	-9390
▁obstacles	-9391
▁sukhavati	-9392
་དགའ་བ་དང་་	-9393
གཙུག་ལག་ཁང་	-9394
གཞན་དག་ཀྱང་	-9395
▁equipoised	-9396
▁vimalateja	-9397
གཞན་དག་ལ་ཡང་	-9398
མཐའ་ཡས་སྐྱེ་	-9399
ཡང་བརྗོད་དུ་	-9400
སོ་སོར་རྟོག་	-9401
་པར་བྱེད་པའི་	-9402
ན་གཤེགས་པ་ནི་	-9403
ན་དེ་ལྟར་མི་བལྟ	-9404
ནམ་མཁའ་ལྡིང་དང་་	-9405
amp	-9406
ify	-9407
unt	-9408
uted	-9409
མནར་	-9410
ོལ་་	-9411
▁ali	-9412
▁bar	-9413
acity	-9414
iment	-9415
takes	-9416
ན་རེ་	-9417
ཟློག་	-9418
ལུགས་	-9419
ོམས་པ	-9420
▁task	-9421
antial	-9422
་དམ་བཅ	-9423
་སྭ་ཧ་	-9424
འ་ཞིང་	-9425
འཐབ་བྲ	-9426
རྩིའི་	-9427
▁analy	-9428
▁links	-9429
▁scent	-9430
▁སྣང་བ	-9431
ཁོ་བོས་	-9432
ཆོས་གང་	-9433
ཉི་ཁྲི་	-9434
འདི་ལས་	-9435
ཡང་ཡོད་	-9436
ར་ཎ་སི་	-9437
ཤི་བའི་	-9438
སློབ་མ་	-9439
ླངས་ཏེ་	-9440
▁beauty	-9441
▁escape	-9442
▁height	-9443
▁heroes	-9444
▁impure	-9445
▁petals	-9446
▁བྲམ་ཟེ	-9447
གཤེགས་པ་	-9448
ཅི་འདྲ་བ	-9449
ཕྲག་དོག་	-9450
རྫོགས་པ་	-9451
སྟོན་པར་	-9452
▁captain	-9453
▁casting	-9454
▁experts	-9455
▁invited	-9456
mentioned	-9457
་དེ་ལྟར་བ	-9458
འགྱུར་ཏེ་	-9459
འཇིག་པའི་	-9460
ར་བགྱིའོ་	-9461
རྒྱ་ཆེ་བ་	-9462
སྲིད་པའི་	-9463
▁clinging	-9464
▁eyebrows	-9465
▁mistaken	-9466
▁occurred	-9467
▁ཇི་ལྟར་བ	-9468
་དུས་གཅིག་	-9469
གསུང་རབ་ལ་	-9470
ཆོས་གང་ཡང་	-9471
ཐག་རིང་པོ་	-9472
ནས་སངས་རྒྱ	-9473
ནས་སྨྲས་པ་	-9474
ནི་བྱང་ཆུབ	-9475
འཆང་བ་དང་་	-9476
སོད་ནམས་དག	-9477
མིག་གི་ཁམས་	-9478
འགོག་པ་དང་་	-9479
རིན་པོ་ཆེ་བ	-9480
ས་བསོད་ནམས་	-9481
▁meaningful	-9482
མཚན་མ་མེད་པ་	-9483
▁incantation	-9484
་དང་་སེམས་ཅན་	-9485
ཆོས་ཐམས་ཅད་ལ་	-9486
མཆོད་སྦྱིན་བྱ	-9487
ཚུལ་ཁྲིམས་དང་	-9488
▁experiencing	-9489
▁homelessness	-9490
▁unobstructed	-9491
▁ཀུན་རྫོབ་ཏུ་	-9492
▁གྲོགས་པོ་དག་	-9493
▁བརྩོན་འགྲུས་	-9494
རྒྱལ་མཚན་དང་་བ	-9495
འི་བརྩོན་འགྲུས་	-9496
ཡི་གེ་དྲུག་པའི་	-9497
སྟོབས་དང་ལྡན་པ་	-9498
▁conceptualized	-9499
རྒྱལ་པོ་ཆེན་པོ་བ	-9500
བྱ	-9501
རྦ	-9502
▁ཐ	-9503
den	-9504
iri	-9505
rid	-9506
ཎི་	-9507
ནྱ་	-9508
▁རྩ	-9509
མཚོ་	-9510
ཙལ་བ	-9511
ུ་བྱ	-9512
▁aud	-9513
▁kal	-9514
▁wet	-9515
▁རི་	-9516
athap	-9517
endra	-9518
་དགྲ་	-9519
ང་བས་	-9520
ཆོས་ད	-9521
མ་པས་	-9522
མིང་བ	-9523
▁fond	-9524
▁peac	-9525
▁vult	-9526
་པད་མ་	-9527
་བཟུང་	-9528
ཅན་དག་	-9529
མ་ཐོབ་	-9530
འདེབས་	-9531
ཡི་རང་	-9532
སྟེན་པ	-9533
སྨྲས་པ	-9534
▁afore	-9535
▁fifth	-9536
▁needs	-9537
▁གང་དག	-9538
natural	-9539
་བུ་མོ་	-9540
གྱིད་པ་	-9541
ཅན་ནོ་་	-9542
མ་པ་དང་	-9543
མཁྱེན་པ	-9544
མི་ཤེས་	-9545
འི་དྲི་	-9546
ཡང་གཞན་	-9547
ར་བྱུང་	-9548
ས་དང་བྱ	-9549
སྤོབས་པ	-9550
▁battle	-9551
▁enthra	-9552
▁འདི་ནི	-9553
་དངོས་པོ	-9554
ཁྱིམ་ནས་	-9555
ཕུལ་ལོ་་	-9556
མཉམ་པའི་	-9557
མཐོང་བར་	-9558
སྟེང་གི་	-9559
▁examine	-9560
▁leaving	-9561
▁message	-9562
་བྱེད་དུ་	-9563
་སྡུག་བསྔ	-9564
གཞོན་ནུ་བ	-9565
ནས་དེ་དང་	-9566
མགོན་མེད་	-9567
མཆོད་པ་བྱ	-9568
མདུན་ན་འད	-9569
སྤོས་ཀྱི་	-9570
▁arrogant	-9571
་དང་བསྒྲུབ	-9572
ངོ་མཚར་དུ་	-9573
མི་རྟག་པར་	-9574
འི་ཚུལ་གྱི	-9575
ས་སྐྱེ་བོ་	-9576
སྟོབས་སོ་་	-9577
▁conquered	-9578
▁permitted	-9579
▁residence	-9580
་དང་ལྡན་པས་	-9581
ན་ཁྱིམ་བདག་	-9582
ཕྱོགས་མཚམས་	-9583
མེ་ཏོག་དང་་	-9584
འདི་སྐད་སྨྲ	-9585
ཤེས་སོ་ཞེས་	-9586
སེམས་ཅན་དག་	-9587
▁actualizes	-9588
▁discourses	-9589
▁ཡང་དག་པའི་	-9590
་སྤུའི་ཁུང་བ	-9591
ས་དེའི་ཕྱིར་	-9592
▁unhappiness	-9593
་བརྩོན་འགྲུས་	-9594
▁primordially	-9595
ཀྱིས་དགེ་སློང་	-9596
་བརྒྱ་སྟོང་ཕྲག་	-9597
▁aforementioned	-9598
སྐར་མའི་རྒྱལ་པོ་	-9599
oo	-9600
ཟད	-9601
ese	-9602
ula	-9603
yam	-9604
་བཞ	-9605
ཐ་མ	-9606
ཕོང	-9607
མ་ད	-9608
སྟབ	-9609
tled	-9610
་དཀྲ	-9611
ང་ཡི	-9612
ལྡང་	-9613
▁smo	-9614
lling	-9615
ropri	-9616
གང་་་	-9617
གདུང་	-9618
ཞེས་་	-9619
ལྟ་སྨ	-9620
ུངས་པ	-9621
▁area	-9622
▁bird	-9623
▁bull	-9624
▁གང་བ	-9625
ulates	-9626
ན་འདུག	-9627
མུ་ཏིག	-9628
རྒྱུས་	-9629
ལྟའོ་་	-9630
ཤིང་བས	-9631
▁reply	-9632
▁sixsy	-9633
▁wives	-9634
་དཀའ་བ་	-9635
་དབྱེར་	-9636
་དེ་བས་	-9637
་བསླབས་	-9638
ཁྲོ་བོ་	-9639
ནམ་མཁའི	-9640
ཞིང་ཡང་	-9641
འཁྲུགས་	-9642
ཡི་དགས་	-9643
རྣམ་དག་	-9644
ལ་བྱིན་	-9645
ས་དགེ་བ	-9646
ོད་ཅིག་	-9647
▁change	-9648
▁misery	-9649
▁temper	-9650
▁unreal	-9651
་བཀོད་པ་	-9652
གྲངས་མེད	-9653
ངན་འགྲོ་	-9654
ཕྱིན་ནས་	-9655
ཕྲག་དུ་མ	-9656
མི་བྱའོ་	-9657
འབྱིན་པ་	-9658
རིང་བསྲེ	-9659
▁attains	-9660
▁conceit	-9661
▁leaders	-9662
་དཔག་མེད་	-9663
ཀྱི་ཚོགས་	-9664
ཇི་ལྟར་བྱ	-9665
ཕྱོགས་དང་	-9666
འདུ་ཤེས་བ	-9667
▁chariots	-9668
▁incanted	-9669
▁luminous	-9670
▁suitable	-9671
▁དེ་གཉིས་	-9672
་བསྐྱེད་པ་	-9673
མི་ནུས་སོ་	-9674
འི་བྱང་ཆུབ	-9675
རྡོ་རྗེའི་	-9676
▁excrement	-9677
▁reverence	-9678
་དེ་ཉིད་དུ་	-9679
▁reflection	-9680
་དེས་བསམས་པ་	-9681
་པར་གྱུར་ཏེ་	-9682
་པར་བྱེད་དོ་	-9683
ནང་དུ་རྒྱུ་བ	-9684
ས་སྨོན་ལམ་བཏ	-9685
▁examination	-9686
▁sixsyllable	-9687
་དང་བཀུར་སྟི་	-9688
ན་བཅོམ་ལྡན་འདས་	-9689
ilt	-9690
lib	-9691
set	-9692
་རྨ	-9693
ཀ་ཏ	-9694
ཕལ་	-9695
རྨི	-9696
icks	-9697
་དཔག	-9698
ངན་པ	-9699
མུན་	-9700
ཟད་པ	-9701
འཆང་	-9702
འོས་	-9703
རབ་བ	-9704
▁rub	-9705
anced	-9706
inent	-9707
ordin	-9708
seven	-9709
thern	-9710
ངན་པ་	-9711
ཉན་ཐོ	-9712
ཏེ་བྱ	-9713
ཞིན་་	-9714
འཇོག་	-9715
འཛུམ་	-9716
ར་ཡང་	-9717
སྲུང་	-9718
སྲེག་	-9719
▁amid	-9720
▁anir	-9721
▁dish	-9722
▁nonc	-9723
▁unwa	-9724
▁used	-9725
erness	-9726
་དབེན་	-9727
གང་ནས་	-9728
གིས་བྱ	-9729
ངེས་པ་	-9730
ཉིན་མཚ	-9731
ན་དང་བ	-9732
མུ་རུ་	-9733
ཟུག་རྔ	-9734
ལ་ཕུལ་	-9735
ས་སྒོ་	-9736
ེད་པར་	-9737
▁assur	-9738
▁below	-9739
▁brahm	-9740
▁celib	-9741
▁meant	-9742
▁targe	-9743
▁vijay	-9744
གནས་པས་	-9745
གཟུང་བ་	-9746
ཆུང་ངུ་	-9747
མུ་ཏིག་	-9748
ཞེས་བྱ་	-9749
འཚལ་ལོ་	-9750
ལ་སོགས་	-9751
སྐྱེད་པ	-9752
▁necess	-9753
▁recipi	-9754
▁sprink	-9755
▁struck	-9756
་སྐྱེ་བ་	-9757
གལ་ཏེ་བྱ	-9758
མཁས་པའི་	-9759
མིག་གིས་	-9760
མེད་དེ་་	-9761
ཞབས་ཀྱི་	-9762
ལས་འདས་པ	-9763
སྟོང་དུ་	-9764
སྡོང་པོ་	-9765
▁crushed	-9766
▁diverse	-9767
▁falling	-9768
ཀྱི་བར་ལ་	-9769
གནས་བརྟན་	-9770
མཆོད་ཅིང་	-9771
འཛིན་པའི་	-9772
འོད་ཀྱིས་	-9773
▁defeated	-9774
▁monastic	-9775
▁resemble	-9776
་བརྙེས་པར་	-9777
གཟོད་མ་ནས་	-9778
ཡེ་ཤེས་དང་	-9779
རྣམ་པར་སྤྲ	-9780
ལ་བདག་གིས་	-9781
▁destinies	-9782
▁observing	-9783
▁universes	-9784
▁དེ་ལྟར་ན་	-9785
ཐམས་ཅད་བསྡུ	-9786
ན་དགེ་སློང་	-9787
རྣམ་པར་དག་པ	-9788
▁eliminated	-9789
▁extraordin	-9790
▁opposition	-9791
▁unwavering	-9792
ན་གྱི་བར་དུ་	-9793
ར་བྱེད་ཅིང་་	-9794
རྣམ་གྲངས་འདི	-9795
མངོན་པར་འགྲུབ	-9796
་དང་བཅས་པ་དང་་	-9797
གི་བྱེ་མ་སྙེད་	-9798
ཡན་ལག་བརྒྱད་པ་	-9799
སྦྱར་བར་བྱའོ་་	-9800
་དངོས་པོ་མེད་པ་	-9801
་སྤྱན་རས་གཟིགས་	-9802
ཀུན་ཤེས་སོ་ཞེས་	-9803
ར་བཅོམ་ལྡན་འདས་	-9804
ཆོས་ཀྱི་འཁོར་ལོ་	-9805
ཏེ་བླ་གོས་ཕྲག་པ་	-9806
ཐོབ་པར་གྱུར་ཏོ་་	-9807
སྙོམས་པར་འཇུག་པ་	-9808
སྨོན་ལམ་བཏབ་སྟེ་	-9809
ody	-9810
spr	-9811
རྣ་	-9812
▁ks	-9813
ploy	-9814
rent	-9815
sive	-9816
་རྗེ	-9817
ཁྲོ་	-9818
ཆེམ་	-9819
འཚོ་	-9820
འུར་	-9821
ྲལ་བ	-9822
▁sea	-9823
▁sri	-9824
▁ཡབ་	-9825
adars	-9826
ighth	-9827
མདུང་	-9828
མན་ད་	-9829
སྒོ་བ	-9830
▁rare	-9831
▁spot	-9832
▁term	-9833
▁yama	-9834
▁པད་མ	-9835
▁བཟང་	-9836
▁སྐུ་	-9837
གདན་བཤ	-9838
གི་བར་	-9839
ར་བཅས་	-9840
ལས་མི་	-9841
ལྔ་དང་	-9842
ས་ནས་་	-9843
སྙམ་ནས	-9844
སླབ་པ་	-9845
▁bells	-9846
▁bloss	-9847
▁canop	-9848
▁impur	-9849
▁incor	-9850
▁lines	-9851
▁repro	-9852
▁spine	-9853
▁vajri	-9854
itively	-9855
་དང་་སྲ	-9856
་དབུལ་བ	-9857
་བཟོད་པ	-9858
མ་ཡིན་བ	-9859
འགྲོགས་	-9860
འོད་ཟེར	-9861
རལ་གྲི་	-9862
ལ་དད་པ་	-9863
ཤད་པའི་	-9864
སྐྱེའོ་	-9865
སྤོང་བ་	-9866
ླངས་ནས་	-9867
▁chanda	-9868
▁deaths	-9869
▁employ	-9870
▁encaps	-9871
▁indian	-9872
▁preced	-9873
athapind	-9874
གྱི་དབང་	-9875
གྱུར་པར་	-9876
མི་དགེ་བ	-9877
མེད་པར་བ	-9878
རིག་བྱེད	-9879
▁address	-9880
▁classes	-9881
▁dispell	-9882
▁fathers	-9883
▁forsake	-9884
▁gardens	-9885
▁strings	-9886
▁supplic	-9887
▁visible	-9888
་དྲང་སྲོང	-9889
་བྱུང་ནས་	-9890
ཐབས་མཉམ་པ	-9891
མཐུ་ཆེ་བ་	-9892
འཁོར་དང་་	-9893
རྗོད་ཅིང་	-9894
▁conceive	-9895
▁determin	-9896
▁families	-9897
▁mansions	-9898
▁temperam	-9899
▁thunderb	-9900
▁འདྲེན་པ་	-9901
▁སྨན་གྱི་	-9902
་ཏིང་འཛིན་	-9903
་དེ་དག་ཏུ་	-9904
ཕྱེ་མ་དང་་	-9905
ས་སྡུག་བསྔ	-9906
▁aniruddha	-9907
▁mahesvara	-9908
▁འོད་སྲུང་	-9909
ང་བ་མེད་པར་	-9910
ཡོངས་སུ་སྦྱ	-9911
རི་དགས་ཀྱི་	-9912
ལ་བརྟེན་ནས་	-9913
སྒྱུ་འཕྲུལ་	-9914
▁adornments	-9915
▁anathapind	-9916
▁bodhisatva	-9917
གཅིག་ལ་གཅིག་	-9918
ལྟ་བའི་ཕྱིར་	-9919
▁obscuration	-9920
ན་པ་ལ་གནས་ནས་	-9921
ན་བཅོམ་ལྡན་འད	-9922
ཡིད་དུ་འོང་བ་	-9923
ལ་ཕྱག་འཚལ་ཏེ་	-9924
ནས་བཅོམ་ལྡན་འད	-9925
མི་འཇིགས་པ་བཞི	-9926
ཟའ་བ་དང་བཅའ་བ་	-9927
▁appropriation	-9928
་བརྒྱ་བྱིན་དང་་	-9929
ཀྱིས་གསུངས་པ་ལ་	-9930
ཆུང་མ་ལ་བུ་ཆགས་	-9931
་ད་ལྟར་བྱུང་བའི་	-9932
རྩོན་པ་དང་བསྒྲུབ	-9933
སྟེ་བཞི་གང་ཞེ་ན་	-9934
cks	-9935
him	-9936
oks	-9937
ར་་	-9938
སྤང	-9939
▁la	-9940
budd	-9941
fort	-9942
osis	-9943
ross	-9944
ucch	-9945
རྩ་བ	-9946
▁met	-9947
▁དྲི	-9948
▁ནམ་	-9949
▁ཤཀྱ	-9950
avors	-9951
འགྱུར	-9952
▁krak	-9953
▁ugly	-9954
▁དུད་	-9955
spring	-9956
ཆོས་འཆ	-9957
འཁྲུལ་	-9958
ཡི་ནི་	-9959
ར་ཎ་སི	-9960
རྩེ་བ་	-9961
ལྔ་བཅུ	-9962
སྒོམས་	-9963
སྒྲུབ་	-9964
▁conch	-9965
▁crowd	-9966
▁gates	-9967
▁major	-9968
▁parks	-9969
▁somet	-9970
▁sorts	-9971
pounded	-9972
version	-9973
་བྱས་ཏེ	-9974
ཕྱག་རྒྱ	-9975
མཛད་ནས་	-9976
མས་ཀྱང་	-9977
འཐོབ་པ་	-9978
འི་བདག་	-9979
ལམ་གྱི་	-9980
▁asking	-9981
▁detail	-9982
▁enters	-9983
▁happen	-9984
▁images	-9985
▁snakes	-9986
▁sovere	-9987
▁གང་ཟག་	-9988
aneously	-9989
ཐོབ་པའི་	-9990
ཚུལ་ལོ་་	-9991
ཞབས་འབྲི	-9992
ཡངས་ཤིང་	-9993
ཡུལ་གྱི་	-9994
ལ་བསླབས་	-9995
▁resting	-9996
▁walking	-9997
▁ཀྱེ་མི་	-9998
མཁྱེན་ནས་	-9999
ས་བདག་གི་	-10000
▁benefact	-10001
▁ignorant	-10002
▁krakucch	-10003
་དེའི་ཚེ་བ	-10004
་སྐྱེས་བུ་	-10005
འཆི་བའི་དུ	-10006
འི་བཟོད་པ་	-10007
རོ་དང་་རེག	-10008
▁offspring	-10009
▁དེ་ལས་བཞེ	-10010
▁བདུད་ཀྱི་	-10011
་པོ་འདི་དག་	-10012
་འཇིག་རྟེན་	-10013
ཡོད་མ་ཡིན་་	-10014
རང་བཞིན་ཅན་	-10015
སྟོབས་ཀྱིས་	-10016
▁beautified	-10017
ཀྱིས་སྨྲས་པ་	-10018
མཛད་དུ་གསོལ་	-10019
རྒྱ་སྟོང་དུ་	-10020
ལ་བར་གྱུར་པ་	-10021
ལྟ་སྨོས་ཀྱང་	-10022
▁thunderbolt	-10023
སྐལ་པ་བཟང་པོ་	-10024
▁definitively	-10025
▁incalculable	-10026
▁uncompounded	-10027
▁དེ་ནས་དེ་བཞི	-10028
་ད་ལྟར་བྱུང་བ་	-10029
་དང་་སྙིང་རྗེ་	-10030
དག་བླ་ན་མེད་པ་	-10031
འཕགས་པའི་ནོར་བ	-10032
ལྷག་པའི་བསམ་པ་	-10033
ུས་བསྐྱེད་བསྲི	-10034
▁circumstances	-10035
འཕགས་པའི་བདེན་པ	-10036
ཤ་ར་དྭ་ཏིའི་བུ་	-10037
▁དྲན་པ་ཉེ་བར་གཞ	-10038
འདི་ལྟ་སྟེ་དཔེར་	-10039
mp	-10040
acy	-10041
rim	-10042
གདོ	-10043
ངུ་	-10044
ཐད་	-10045
ྲི་	-10046
▁མག	-10047
half	-10048
ཐ་ན་	-10049
མེས་	-10050
ཟག་པ	-10051
རི་བ	-10052
རྡུལ	-10053
ས་མ་	-10054
ུམ་པ	-10055
▁aks	-10056
▁bew	-10057
▁bit	-10058
▁inj	-10059
harma	-10060
rible	-10061
ཀ་ལི་	-10062
ས་སྦྱ	-10063
▁cold	-10064
▁lose	-10065
▁tall	-10066
▁སྨན་	-10067
མཆིས་་	-10068
ཞག་ནས་	-10069
འཐུངས་	-10070
འདུས་པ	-10071
▁bloom	-10072
▁herbs	-10073
▁negat	-10074
▁shows	-10075
▁uncon	-10076
andsuch	-10077
ཀུ་མུ་ད	-10078
ཁམས་དེ་	-10079
ཏུ་རུང་	-10080
མཁན་པོ་	-10081
འདི་དང་	-10082
ཡོད་དམ་	-10083
ར་བལྟ་བ	-10084
ས་བྱེ་བ	-10085
སྤྱོད་་	-10086
▁across	-10087
▁amazed	-10088
▁caught	-10089
▁novice	-10090
▁strike	-10091
ཆོས་ཀྱང་	-10092
མཐོན་པོ་	-10093
ར་དཀའ་བ་	-10094
ལྷག་པའི་	-10095
སྔོན་དུ་	-10096
སྲིད་དུ་	-10097
▁release	-10098
▁ཀ་ཤི་ཀ་	-10099
▁བསྐལ་པ་	-10100
▁འདི་སྐད	-10101
ག་པ་རྣམས་	-10102
ནི་རབ་ཏུ་	-10103
ཤར་ཕྱོགས་	-10104
ས་དུས་སུ་	-10105
▁antigods	-10106
▁aversion	-10107
▁monarchs	-10108
▁subhadra	-10109
▁suchness	-10110
▁དགེ་བའི་	-10111
་རིའི་བུས་	-10112
དག་ཅག་གིས་	-10113
འབྱུང་གནས་	-10114
ས་དགེ་སློང	-10115
ཀློག་པ་དང་་	-10116
གིས་སྨྲས་པ་	-10117
མི་བྱེད་དེ་	-10118
རྣམ་པ་དུ་མ་	-10119
སྦྱིན་པ་དེ་	-10120
▁wilderness	-10121
འབྲས་བུ་དང་་	-10122
རྣམ་པར་གྲོལ་	-10123
▁meritorious	-10124
▁suchandsuch	-10125
མཐོང་ལགས་སོ་་	-10126
སྐྱེས་བུ་དམ་པ	-10127
▁illumination	-10128
▁krakucchanda	-10129
▁supernatural	-10130
་བདག་གིས་ཐོས་པ	-10131
གནོད་པ་དང་ལྡན་	-10132
ཐག་རིང་པོ་ཞིག་	-10133
མངོན་པར་བསྟོད་	-10134
རྩོན་འགྲུས་དང་	-10135
▁རྣམ་པར་ཤེས་པ་	-10136
མཆོད་སྦྱིན་གྱི་	-10137
ཛ་	-10138
cil	-10139
imb	-10140
yot	-10141
་རྙ	-10142
adas	-10143
asso	-10144
gara	-10145
that	-10146
་བཀྲ	-10147
གདན་	-10148
ངེས་	-10149
ཚ་བ་	-10150
ེ་མོ	-10151
▁hus	-10152
equal	-10153
ffron	-10154
་དང་ཁ	-10155
་དངུལ	-10156
་བྱེ་	-10157
་སྐར་	-10158
མཐོ་བ	-10159
▁clay	-10160
▁desp	-10161
▁jasm	-10162
▁རྒྱ་	-10163
amkara	-10164
་དབུལ་	-10165
་དེར་བ	-10166
གཉིས་བ	-10167
མངའ་བ་	-10168
མོ་དང་	-10169
ཚོགས་པ	-10170
ཞག་བདུ	-10171
ཞོ་དང་	-10172
འབྲིང་	-10173
འམ་ཅི་	-10174
ལ་ལུང་	-10175
ལས་དང་	-10176
སུ་ཡང་	-10177
ུག་ཏུ་	-10178
▁དེ་ན་	-10179
▁ཟླ་བ་	-10180
ང་བ་ལས་	-10181
ཅིངས་པ་	-10182
ཕྱིན་པ་	-10183
ཕྱིར་ལྡ	-10184
ཚེ་རབས་	-10185
ཡང་ཕོག་	-10186
རེ་ཞིག་	-10187
▁acting	-10188
▁bewild	-10189
▁eighth	-10190
▁moving	-10191
▁organs	-10192
▁perpet	-10193
▁refers	-10194
▁remove	-10195
▁sooner	-10196
▁བྱམས་པ	-10197
▁སྐྱེ་བ	-10198
ང་ཕྱོགས་	-10199
དངོས་པོ་	-10200
ཕྱིར་ཡང་	-10201
མཐོང་ངམ་	-10202
ཤེས་པ་ལ་	-10203
ཤོག་ཅིག་	-10204
སྐྱེའོ་་	-10205
ེད་མོས་ཚ	-10206
ོན་པ་དང་	-10207
▁capable	-10208
▁declare	-10209
▁jasmine	-10210
▁relying	-10211
▁retreat	-10212
▁saffron	-10213
▁སྲིད་པ་	-10214
ཟིན་པ་ལས་	-10215
ལས་བརྩམས་	-10216
ཤེས་པ་དག་	-10217
ཤེས་པའོ་་	-10218
སྤྱོད་ལམ་	-10219
▁delights	-10220
▁finished	-10221
▁relation	-10222
འི་བསྟན་པ་	-10223
སྟོབས་ཀྱི་	-10224
ེ་བའི་རྩ་བ་	-10225
▁attractive	-10226
▁considered	-10227
▁degenerate	-10228
ཐབས་ལ་མཁས་པ་	-10229
ཞེས་བྱ་བ་ནས་	-10230
འོད་སྲུང་གི་	-10231
▁crosslegged	-10232
▁miserliness	-10233
་དེ་ལྟ་བུ་ནི་	-10234
གཙང་མ་བཟང་པོ་	-10235
▁encapsulates	-10236
ཀུན་ནས་ཉོན་མོང	-10237
མངོན་པར་ཞེན་པ་	-10238
ན་པ་དང་་ཤེས་རབ་	-10239
འི་བྱང་ཆུབ་ཀྱི་	-10240
སྟོང་པ་ཉིད་ཀྱི་	-10241
▁manifestations	-10242
་དཔག་ཏུ་མེད་པའི་	-10243
▁ཁྱིམ་བདག་གཞན་ཡང	-10244
hy	-10245
inc	-10246
iny	-10247
འགག	-10248
ལང་	-10249
▁na	-10250
acks	-10251
held	-10252
thas	-10253
unis	-10254
vaja	-10255
གསོ་	-10256
འབུམ	-10257
རྩལ་	-10258
ཤད་་	-10259
སུ་བ	-10260
▁egg	-10261
▁nob	-10262
▁pis	-10263
▁སོ་	-10264
holes	-10265
inity	-10266
oices	-10267
plete	-10268
table	-10269
་བ་ལ་	-10270
གཡུལ་	-10271
ན་བུ་	-10272
ུང་དྲ	-10273
▁dead	-10274
▁dual	-10275
▁kept	-10276
▁kinn	-10277
▁numb	-10278
▁safe	-10279
▁ཁམས་	-10280
ceives	-10281
་དོན་ད	-10282
ཁྱིམ་ཐ	-10283
གནས་བཅ	-10284
མ་ག་དྷ	-10285
འགྲུབ་	-10286
འཐོར་བ	-10287
▁aston	-10288
▁built	-10289
▁faces	-10290
▁purna	-10291
▁topic	-10292
earable	-10293
་དང་་སྦ	-10294
ཉིད་ཀྱི	-10295
ཞིག་གུ་	-10296
ས་དང་་་	-10297
སྒོམ་པ་	-10298
▁corpse	-10299
▁embark	-10300
▁prayer	-10301
▁reside	-10302
▁waters	-10303
▁འཕགས་པ	-10304
གཉེན་པོ་	-10305
གྱིས་ཤིག	-10306
ཆོས་སུ་བ	-10307
མང་པོའི་	-10308
འགགས་པས་	-10309
འོག་ཏུ་བ	-10310
ཡིད་འོང་	-10311
ར་བགྱི་བ	-10312
རྟོག་པར་	-10313
སྟོང་པར་	-10314
▁desired	-10315
▁embrace	-10316
▁nonbudd	-10317
▁serving	-10318
▁surpass	-10319
ན་བྲམ་ཟེ་	-10320
ཕྱོགས་བཅུ	-10321
ལུས་ཀྱིས་	-10322
སྙིང་པོར་	-10323
▁arranged	-10324
▁immersed	-10325
▁position	-10326
▁radiance	-10327
▁unwholes	-10328
མེད་པ་ཡིན་	-10329
མེད་པ་སྟེ་	-10330
འདས་པ་དང་་	-10331
ཡོངས་སུ་གད	-10332
ས་བདག་གིས་	-10333
▁exclaimed	-10334
་བསྐྱེད་ནས་	-10335
ནི་སེམས་ཅན་	-10336
ཤེས་པ་ལ་མི་	-10337
སེམས་ཅན་གང་	-10338
▁conception	-10339
▁unbearable	-10340
་དགེ་འདུན་ལ་	-10341
་པར་གྱུར་ཏོ་	-10342
ལུས་དང་སྲོག་	-10343
▁considering	-10344
▁ལྷའི་དབང་པོ	-10345
གང་ཡིན་པ་དང་་	-10346
དཔག་ཏུ་མེད་པ་	-10347
ཐོབ་པར་འགྱུར་་	-10348
▁extraordinary	-10349
་དེ་ནི་ཚུལ་ལོ་་	-10350
ཚངས་པ་མཚུངས་པར་	-10351
སྟོན་པར་བྱེད་པ་	-10352
▁dharmabhanakas	-10353
་དེ་ལ་འདི་སྐད་ཅེ	-10354
རབ་ཏུ་བྱུང་ངོ་་་	-10355
ས་བྱེ་བ་ཁྲག་ཁྲིག	-10356
▁བཅོམ་ལྡན་འདས་བྱ	-10357
▁བདེ་བར་གཤེགས་པ་	-10358
འང	-10359
▁x	-10360
ply	-10361
ཆ་ལ	-10362
སྐབ	-10363
ེན་	-10364
head	-10365
ངས་་	-10366
ན་ཡང	-10367
ནས་པ	-10368
མངའ་	-10369
མངལ་	-10370
འཆག་	-10371
ཡུམ་	-10372
རྨོང	-10373
ས་ར་	-10374
སའམ་	-10375
སྙན་	-10376
ingly	-10377
olent	-10378
ouble	-10379
ཀུན་བ	-10380
གཉི་ག	-10381
ཕྱེ་བ	-10382
ཙུན་པ	-10383
ཚེ་རབ	-10384
ཞི་པ་	-10385
འདྲི་	-10386
ལྷ་མི	-10387
▁exec	-10388
▁hord	-10389
▁rend	-10390
ང་ཡིས་	-10391
ཆུ་བོ་	-10392
ད་དེ་་	-10393
མི་རི་	-10394
མེད་ན་	-10395
འདོར་བ	-10396
ཡིད་གཞ	-10397
རལ་གྲི	-10398
ལྗོངས་	-10399
ལྟས་ན་	-10400
ལྷ་དང་	-10401
▁break	-10402
▁decay	-10403
▁fears	-10404
▁marry	-10405
▁plant	-10406
▁round	-10407
▁share	-10408
▁ཁྱེའུ	-10409
acandra	-10410
་དེ་ལྟ་	-10411
་བྱའོ་་	-10412
གནས་དེ་	-10413
བ་པ་ལས་	-10414
ཞག་སྟེ་	-10415
ཞི་གནས་	-10416
ཤད་དོ་་	-10417
སྒྲ་ཡང་	-10418
ོན་ནོ་་	-10419
▁armies	-10420
▁cakrav	-10421
▁diseng	-10422
▁fathom	-10423
▁princi	-10424
▁threat	-10425
་བསྲུང་བ	-10426
ཕྱག་རྒྱ་	-10427
མུན་པ་བས	-10428
རྒྱུ་དང་	-10429
▁discard	-10430
▁mahasth	-10431
་དེ་ལ་ནི་	-10432
་བདག་ཉིད་	-10433
ན་བྱེད་པ་	-10434
ཕ་མ་གཉིས་	-10435
འགོག་པའི་	-10436
ཡིད་གཉིས་	-10437
ཤཀྱ་ཐུབ་པ	-10438
སེམས་དང་་	-10439
སྦྱར་རོ་་	-10440
ློ་གྲོས་བ	-10441
▁guardian	-10442
▁insights	-10443
▁ཚངས་པའི་	-10444
་དུ་བགྱིས་	-10445
ཟག་པ་ཟད་པ་	-10446
ཟིལ་གྱིས་ན	-10447
འགྲུབ་པའི་	-10448
སླད་དུའོ་་	-10449
▁community	-10450
▁exertions	-10451
▁exquisite	-10452
▁necklaces	-10453
▁undertake	-10454
མི་གནས་སོ་་	-10455
▁nonbuddhis	-10456
▁རྒྱལ་པོའི་	-10457
ཀྱིས་ཟླ་འོད་	-10458
ན་སྤྱོད་པའི་	-10459
མི་མཉམ་པ་དང་	-10460
འཐོབ་ཏུ་རུང་	-10461
རྣམ་པར་ཐར་པ་	-10462
▁kumarabhuta	-10463
ཆེན་པོ་གང་དག་	-10464
འདུས་བྱས་ཀྱི་	-10465
གཙུག་ལག་ཁང་དུ་	-10466
ད་པ་དང་་མཁས་པ་	-10467
ཡང་དག་པར་དགའ་བ	-10468
ཡོངས་སུ་གཟུང་བ	-10469
འདུལ་བ་ལ་རབ་ཏུ་	-10470
ས་སེམས་ཅན་རྣམས་	-10471
སྐྱེ་མཆེད་དྲུག་	-10472
▁ཕྱོགས་གཅིག་ཏུ་	-10473
ུང་གི་ཚོགས་ཡན་ལག	-10474
ཅན	-10475
pow	-10476
ལོག	-10477
གྱ་ན	-10478
ཆོ་ག	-10479
རྫུ་	-10480
ལ་དུ	-10481
▁opt	-10482
▁མ་ཕ	-10483
ཀློག་	-10484
གནས་ད	-10485
གྱིད་	-10486
གློག་	-10487
དག་པོ	-10488
མའི་ཚ	-10489
མི་གཙ	-10490
མིག་ཡ	-10491
འི་དཔ	-10492
ལ་སོ་	-10493
▁rich	-10494
entral	-10495
ressed	-10496
ཆེ་བར་	-10497
ཆོས་དེ	-10498
ཐ་སྙད་	-10499
ཞིན་དུ	-10500
རི་མོ་	-10501
ལ་གནས་	-10502
ོན་དང་	-10503
▁alive	-10504
▁aloud	-10505
▁chant	-10506
▁drawn	-10507
▁match	-10508
▁remed	-10509
raction	-10510
་དཔག་ཚད	-10511
ཉི་མའི་	-10512
ད་པའོ་་	-10513
མོ་དང་་	-10514
སྒྲ་སྒྲ	-10515
▁assume	-10516
▁behalf	-10517
▁births	-10518
▁effect	-10519
▁really	-10520
▁voices	-10521
་དེ་དང་་	-10522
ཁྲིད་དེ་	-10523
གསོལ་ནས་	-10524
ཇི་སྲིད་	-10525
འགྱོད་པ་	-10526
འཆི་བའི་	-10527
འདི་ནི་བ	-10528
སྒོ་དང་་	-10529
▁central	-10530
▁clearly	-10531
▁keeping	-10532
▁parasol	-10533
▁resound	-10534
▁sravaka	-10535
▁unhappy	-10536
་བརྒྱད་ཅུ	-10537
་སྒྲིབ་པ་	-10538
གདོན་མི་ཟ	-10539
གྲགས་པའི་	-10540
ུང་དུ་མ་བ	-10541
▁distress	-10542
▁generous	-10543
▁handsome	-10544
▁joyfully	-10545
▁reciting	-10546
▁མངོན་པར་	-10547
▁སྐྱེ་བོ་	-10548
མཆེད་དྲུག་	-10549
ལ་བཀུར་སྟི	-10550
སྙིང་པོ་ལ་	-10551
སྦྱིན་པ་ལ་	-10552
ྲམ་ཟེ་དང་་	-10553
▁brilliant	-10554
▁reflected	-10555
▁sometimes	-10556
་བྱེ་བ་ཕྲག་	-10557
གཟུགས་རྣམས་	-10558
ལ་བཀོད་དོ་་	-10559
སྐྱིལ་མོ་ཀྲ	-10560
▁onepointed	-10561
▁selfarisen	-10562
▁thoroughly	-10563
▁venerating	-10564
གནས་མ་ཡིན་པ་	-10565
ཡོངས་སུ་བཏང་	-10566
རིའི་རྩེ་མོ་	-10567
སངས་རྒྱས་ནས་	-10568
སྦྱིན་པ་དང་་	-10569
▁cultivating	-10570
▁investigate	-10571
▁lamentation	-10572
▁surrounding	-10573
་པ་དང་འདི་བཞི	-10574
་པ་དང་འབད་པས་	-10575
གི་དབང་པོ་ནི་	-10576
མཆོག་ཏུ་དགའ་བ	-10577
མཛེས་པ་ཞིག་བཙ	-10578
ཟག་པ་མེད་པའི་	-10579
འདོད་ཆགས་ཀྱི་	-10580
ྱིན་གྱི་རླབས་	-10581
▁རིན་པོ་ཆེའི་	-10582
ཕུང་པོ་ཆེན་པོ་	-10583
འཇིག་རྟེན་པའི་	-10584
ཡོངས་སུ་བཟུང་བ	-10585
སྐྱེ་དགུའི་ཚེ་	-10586
ཞིང་བསོད་ནམས་དག	-10587
མ་སྐྱེས་པའི་ཆོས་	-10588
na	-10589
▁་	-10590
rti	-10591
una	-10592
var	-10593
་བཀ	-10594
ཉེ་	-10595
དུ་	-10596
འབབ	-10597
▁ox	-10598
kets	-10599
lier	-10600
ཁུང་	-10601
གདུག	-10602
གུད་	-10603
ན་དམ	-10604
ཚོན་	-10605
ཟོད་	-10606
རྟ་བ	-10607
ས་ནས	-10608
ོས་བ	-10609
▁alt	-10610
▁daw	-10611
▁dri	-10612
▁hot	-10613
▁scr	-10614
▁sir	-10615
▁unm	-10616
▁vol	-10617
▁རང་	-10618
apati	-10619
itten	-10620
owing	-10621
pense	-10622
གཞུང་	-10623
ནས་སླ	-10624
མཆི་བ	-10625
ཟླར་བ	-10626
འི་བླ	-10627
▁base	-10628
▁cart	-10629
▁dear	-10630
▁erad	-10631
▁lazy	-10632
▁lies	-10633
▁lift	-10634
▁misf	-10635
▁post	-10636
araksa	-10637
་དང་པོ	-10638
་སྒྲུབ	-10639
ཆུང་བ་	-10640
མས་ཏེ་	-10641
མི་དེ་	-10642
ཟུང་བ་	-10643
རུང་བ་	-10644
ལག་ཏུ་	-10645
ྒྱུ་མ་	-10646
▁carri	-10647
▁funct	-10648
▁respl	-10649
▁rival	-10650
▁saman	-10651
▁shoot	-10652
▁དེ་ཡི	-10653
་དྲི་ཞི	-10654
་བྱས་ན་	-10655
གཞན་གྱི	-10656
ཇི་སྐད་	-10657
ན་གྲོང་	-10658
ན་འདུག་	-10659
▁breath	-10660
▁deeply	-10661
▁houses	-10662
▁immort	-10663
▁terror	-10664
▁undist	-10665
་དེས་དེ་	-10666
ཁྱེད་ཅག་	-10667
ཐུབ་པ་ན་	-10668
ནུས་སོ་་	-10669
མོས་པའི་	-10670
འཇོམས་པ་	-10671
འབུམ་ཕྲག	-10672
ལ་གཟིགས་	-10673
སྒྲོན་མ་	-10674
སྙིང་རྗེ	-10675
སྤྲོས་པ་	-10676
▁curving	-10677
▁efforts	-10678
▁གླང་པོ་	-10679
་སྤྱོད་པ་	-10680
གྱུར་ནས་་	-10681
ཇི་ཙམ་དུ་	-10682
ཞེས་བརྗོད	-10683
འཕྲུལ་དབང	-10684
སེམས་ཀྱང་	-10685
▁dispense	-10686
▁language	-10687
▁partakes	-10688
་བྱམས་པའི་	-10689
་བྱེད་ཅིང་	-10690
▁contented	-10691
▁invisible	-10692
▁misfortun	-10693
▁refrained	-10694
▁wandering	-10695
▁worshiped	-10696
▁definitely	-10697
▁intentions	-10698
▁interested	-10699
▁performing	-10700
་བསྐྱེད་དོ་་	-10701
ཆོས་ཀྱི་མིག་	-10702
ཞེས་བྱ་བ་དང་	-10703
རྣམ་པར་བྱང་བ	-10704
ལུས་དང་་ཡིད་	-10705
ས་སྡུག་བསྔལ་	-10706
▁vijayaraksa	-10707
▁དགྲ་བཅོམ་པ་	-10708
ཉེས་དམིགས་སུ་	-10709
ཕྲེང་བ་དང་་བྱ	-10710
རབ་ཏུ་བྱུང་བ་	-10711
གྲོང་ཁྱེར་གྱི་	-10712
གྲོང་ཁྱེར་དང་་	-10713
ངེས་པར་འབྱུང་བ	-10714
ཏིང་ངེ་འཛིན་དེ་	-10715
▁དེ་ནས་དགེ་སློང	-10716
སྤྱད་པར་འཚལ་ལོ་་	-10717
ཏེད	-10718
ཐོག	-10719
མམ་	-10720
osed	-10721
་དྲེ	-10722
ཉན་པ	-10723
ཏིལ་	-10724
ན་གླ	-10725
ཕུར་	-10726
འང་བ	-10727
རེ་བ	-10728
▁rip	-10729
vyuha	-10730
ཚེ་འཕ	-10731
ས་གསོ	-10732
▁dhrt	-10733
▁forg	-10734
▁veda	-10735
irable	-10736
་སྔོན་	-10737
ཀ་དང་་	-10738
གསུང་་	-10739
ངན་སོང	-10740
མས་ནས་	-10741
འཕྲོག་	-10742
འབྲུག་	-10743
ལེགས་བ	-10744
སེང་གེ	-10745
སོང་ལ་	-10746
སྦྱོར་	-10747
▁fight	-10748
▁ponds	-10749
▁གང་ལ་	-10750
▁སྔགས་	-10751
ཐུན་མོང	-10752
མཆིས་པ་	-10753
མཐའ་དང་	-10754
འཁོད་པ་	-10755
འོངས་པ་	-10756
ཡུལ་དུ་	-10757
ར་བྱས་པ	-10758
རྒོལ་བ་	-10759
ལ་ལན་གས	-10760
ིལ་སྙན་	-10761
▁broken	-10762
▁course	-10763
▁extend	-10764
▁hungry	-10765
▁mouths	-10766
▁played	-10767
▁sarvas	-10768
▁simply	-10769
▁target	-10770
▁ལྷ་དང་	-10771
atyayana	-10772
་དེ་ལས་བ	-10773
་བདེན་པ་	-10774
་སྦྱིན་པ	-10775
གནོད་པར་	-10776
དག་གིས་བ	-10777
ནད་ཀྱིས་	-10778
ཞིག་གིས་	-10779
ཡིན་ཞིང་	-10780
རང་བྱུང་	-10781
སྙམ་འམ་་	-10782
སྟོན་ཏོ་	-10783
ོན་པོའི་	-10784
▁beautif	-10785
▁cognize	-10786
▁defiled	-10787
▁earlier	-10788
▁inquire	-10789
▁scented	-10790
▁stories	-10791
་དུ་བཅུག་	-10792
མ་ཐག་ཏུ་བ	-10793
ཡེ་ཤེས་ལ་	-10794
སྐྱེད་དེ་	-10795
ྱིས་པ་སོ་	-10796
▁creating	-10797
▁entirety	-10798
▁flourish	-10799
▁students	-10800
གཟུངས་ཀྱི་	-10801
རབ་ཏུ་དགའ་	-10802
རྟག་པ་དང་་	-10803
སྤྱན་གྱིས་	-10804
▁decorated	-10805
▁delivered	-10806
▁mahastham	-10807
▁medicinal	-10808
▁nonentity	-10809
▁substance	-10810
▁སྲོག་ཆགས་	-10811
ཐབས་ལ་མཁས་པ	-10812
ད་པར་བྱའོ་་	-10813
མི་འགྱུར་བ་	-10814
འདིས་ན་བདག་	-10815
སྤྱོད་པ་དང་	-10816
▁transcends	-10817
་པར་འགྱུར་བ་	-10818
རྗེས་སུ་དྲན་	-10819
▁conventions	-10820
▁indications	-10821
▁mahakasyapa	-10822
▁unwholesome	-10823
ལ་པར་འབྱུང་བ་	-10824
▁establishing	-10825
▁kasyapaequal	-10826
མོས་པ་སྣ་ཚོགས་	-10827
འི་དུས་ཀྱི་ཚེ་	-10828
ཡོངས་སུ་བསྔོ་བ	-10829
རྣམ་པ་དྲུག་ཏུ་	-10830
སྟོང་པ་ཉིད་དང་	-10831
གྱུར་པ་དེའི་ཚེ་	-10832
མ་ཡིན་པའི་ཕྱིར་	-10833
རྣམས་སྡུག་བསྔལ་	-10834
ལྷ་དང་་ཀླུ་དང་་	-10835
་དེ་དེ་བཞིན་ནོ་་	-10836
འི་ཚིག་བླ་དགས་བྱ	-10837
རྣམ་པ་ཐམས་ཅད་དུ་	-10838
གཤ	-10839
ུར	-10840
alo	-10841
rew	-10842
་བྷ	-10843
་རབ	-10844
མ་ཧ	-10845
haps	-10846
uber	-10847
་པི་	-10848
དེར་	-10849
མ་དག	-10850
ལྷར་	-10851
སྐྲག	-10852
▁eas	-10853
▁env	-10854
▁kas	-10855
▁suv	-10856
amboo	-10857
inder	-10858
verty	-10859
་པ་དེ	-10860
་བོར་	-10861
་སྐྱོ	-10862
གཏང་བ	-10863
ཐར་པ་	-10864
ཙམ་པ་	-10865
ལ་ལར་	-10866
སྣང་་	-10867
▁chas	-10868
▁kins	-10869
▁སྒྲ་	-10870
icated	-10871
proach	-10872
་དེ་ལྟ	-10873
་དྲི་མ	-10874
ང་ཕྱུག	-10875
ཕྱིན་པ	-10876
མ་ལུས་	-10877
ཡི་བུ་	-10878
རིམ་གྲ	-10879
རིམ་པ་	-10880
▁avici	-10881
▁month	-10882
▁pisac	-10883
▁shone	-10884
▁tremb	-10885
colored	-10886
prabhas	-10887
་དག་ལས་	-10888
་དང་་སྡ	-10889
གཏན་ལ་ཕ	-10890
གས་ཀྱི་	-10891
མེད་པ་་	-10892
ཚིག་དེ་	-10893
ཟད་དོ་་	-10894
འཇོམས་པ	-10895
སེར་སྣ་	-10896
སེལ་བས་	-10897
སྐད་ཅིག	-10898
སྟན་ནས་	-10899
སྤྲུལ་པ	-10900
སྲིད་དུ	-10901
ུག་དང་་	-10902
▁bamboo	-10903
▁better	-10904
▁dispel	-10905
▁elated	-10906
▁preser	-10907
▁ལྷ་མོ་	-10908
་སྤྱད་པ་	-10909
གཙང་མའི་	-10910
གཟུགས་ལ་	-10911
གྱུར་ན་་	-10912
འཇམ་ཞིང་	-10913
ཡིན་གྱི་	-10914
ར་བ་དང་་	-10915
རིགས་དང་	-10916
རྣམས་ལས་	-10917
ལ་བརྩོན་	-10918
ས་བྱུང་བ	-10919
▁equally	-10920
▁granted	-10921
▁jewelry	-10922
▁mansion	-10923
▁neutral	-10924
▁poverty	-10925
▁satisfy	-10926
▁written	-10927
་དབང་ཕྱུག	-10928
ཆེ་གེ་མོ་	-10929
ཆེན་པོ་ལ་	-10930
ཇི་སྙེད་པ	-10931
དེ་བ་ལ་བཙ	-10932
ར་གྱུར་ཏེ	-10933
ར་བགྱིད་་	-10934
སྟོང་པའི་	-10935
▁consists	-10936
▁greatest	-10937
▁samantab	-10938
▁ལྷ་དང་མི	-10939
་སྐྱེས་ནས་	-10940
ཆེན་པོ་ཡང་	-10941
ཞུན་མར་དང་	-10942
སྙིང་རྗེ་བ	-10943
▁abilities	-10944
▁bhiksunis	-10945
▁dipamkara	-10946
▁incorrect	-10947
▁responded	-10948
་དང་་སྐྱེ་བ	-10949
་སྡུག་བསྔལ་	-10950
ད་དུ་གསོལ་་	-10951
མི་དམིགས་པ་	-10952
ལྟར་བྱུང་བ་	-10953
ཤི་འཕོས་ནས་	-10954
ུང་དྲུང་གི་	-10955
▁beneficial	-10956
▁འདི་དག་ནི་	-10957
ཤེས་པ་གང་གིས་	-10958
▁apprehension	-10959
▁selflessness	-10960
▁subsequently	-10961
་དང་ལྡན་པའི་བྱ	-10962
་དེ་ཅིའི་ཕྱིར་	-10963
ཅང་མི་གསུང་བས་	-10964
མི་དང་་ལྷ་མ་ཡི	-10965
ཡོངས་སུ་མྱ་ངན་	-10966
རྡོ་རྗེས་བཅོམ་	-10967
ས་རྣམ་པར་གྲོལ་	-10968
་དཔེ་བྱད་བཟང་པོ	-10969
་པར་བྱེད་པ་དང་་	-10970
རྣམས་ཀྱི་ནང་དུ་	-10971
རྩོན་འགྲུས་རྩོམ	-10972
ན་པ་ཟབ་མོ་འདི་ལ་	-10973
མྱ་ངན་ལས་འདས་ནས་	-10974
▁ཆོས་ཀྱི་དབྱིངས་	-10975
པ་	-10976
ཙུ	-10977
ale	-10978
hip	-10979
nel	-10980
ཀི་	-10981
ཐལ་	-10982
རྨ་	-10983
▁gn	-10984
anis	-10985
ards	-10986
gran	-10987
་དགྱ	-10988
་ཤི་	-10989
གུང་	-10990
ངུར་	-10991
ཆུས་	-10992
ཐོང་	-10993
དཔག་	-10994
ན་གཏ	-10995
ཟོས་	-10996
རྫས་	-10997
སྦུབ	-10998
▁sch	-10999
abric	-11000
imely	-11001
onent	-11002
ཐོབ་་	-11003
བ་པ་་	-11004
འདི་་	-11005
ས་ཤིང	-11006
▁hare	-11007
▁mode	-11008
▁trav	-11009
▁ཕྱི་	-11010
incarn	-11011
reated	-11012
ཁྲོ་བ་	-11013
ཕྲ་རབ་	-11014
མ་བགྱི	-11015
འི་དྲི	-11016
ལེ་ལོ་	-11017
ལྡང་བ་	-11018
སྤྲོ་བ	-11019
▁agony	-11020
▁decre	-11021
▁flaws	-11022
▁insip	-11023
▁quart	-11024
aprabha	-11025
་དམིགས་	-11026
་བརྗོད་	-11027
་བསྡུ་བ	-11028
གཏོགས་པ	-11029
མྱོང་བ་	-11030
ཞིང་གི་	-11031
རྙེས་པ་	-11032
ལེགས་པ་	-11033
ོ་བོའི་	-11034
▁elucid	-11035
▁imagin	-11036
▁mirage	-11037
▁period	-11038
▁silent	-11039
▁sought	-11040
▁sticks	-11041
▁གང་ཡང་	-11042
▁མི་གང་	-11043
▁འཇམ་དཔ	-11044
▁ལྷ་ཡི་	-11045
་དྲུག་ཅུ	-11046
་པར་བྱ་བ	-11047
ནས་ཀྱང་་	-11048
མི་འམ་ཅི	-11049
འོངས་ནས་	-11050
▁applies	-11051
▁ceasing	-11052
▁entails	-11053
▁hostile	-11054
▁involve	-11055
▁optical	-11056
▁perhaps	-11057
▁དེ་ཡིས་	-11058
་དཔལ་གྱི་	-11059
་དབེན་པར་	-11060
གཅིག་ཏུ་བ	-11061
གནང་ངོ་་་	-11062
ནི་བདག་གི	-11063
ཕུང་པོ་ལྔ	-11064
རྒྱལ་སྲིད	-11065
ལས་བརྟེན་	-11066
▁endeavor	-11067
▁happened	-11068
▁pacified	-11069
▁positive	-11070
▁pursuing	-11071
▁reincarn	-11072
▁untimely	-11073
་བརྒྱ་སྟོང	-11074
་བསམ་མི་ཁྱ	-11075
་སྟོབས་དང་	-11076
གཟུགས་དང་་	-11077
མེད་པའི་བར	-11078
འདུ་ཤེས་པ་	-11079
ཡུན་རིང་པོ	-11080
ཤེས་པ་སྟེ་	-11081
སྙིང་པོའི་	-11082
སྤྱོད་དོ་་	-11083
▁attracted	-11084
▁disturbed	-11085
▁manifests	-11086
མི་བྱེད་དོ་	-11087
ཡང་མེད་དོ་་	-11088
▁brilliance	-11089
▁externally	-11090
▁insipidity	-11091
▁irreproach	-11092
▁scriptures	-11093
་དང་ལྡན་ཞིང་	-11094
ཟླར་བབ་པ་ལས་	-11095
▁differently	-11096
▁resplendent	-11097
ཇི་སྐད་སྨྲས་པ	-11098
ས་བླ་ན་མེད་པ་	-11099
▁comprehended	-11100
▁nevertheless	-11101
ང་བར་གྱུར་ཏོ་་	-11102
▁comprehension	-11103
▁manifestation	-11104
▁བླ་གོས་ཕྲག་པ་	-11105
ཉན་ཐོས་ཀྱི་སའམ་	-11106
་དངོས་པོ་མེད་པར་	-11107
ཉ་	-11108
ཐི	-11109
ཚོ	-11110
tam	-11111
▁ཁ་	-11112
atic	-11113
ench	-11114
rest	-11115
rtil	-11116
ཕྱོག	-11117
མདོག	-11118
ཟོང་	-11119
ས་ཏེ	-11120
ས་བཏ	-11121
སྐོམ	-11122
ོ་དག	-11123
ྲི་བ	-11124
▁big	-11125
▁cla	-11126
▁gun	-11127
▁suc	-11128
▁vid	-11129
▁wel	-11130
▁ཤར་	-11131
akaya	-11132
atory	-11133
borne	-11134
gence	-11135
onoun	-11136
shell	-11137
གཡོ་བ	-11138
ཞོན་པ	-11139
ལོགས་	-11140
ལྔ་སྡ	-11141
ཤི་འཕ	-11142
ྱིན་པ	-11143
▁bene	-11144
▁crit	-11145
▁cust	-11146
▁husb	-11147
▁leng	-11148
▁port	-11149
▁wail	-11150
▁མཚན་	-11151
་སྟོན་	-11152
གཅེར་བ	-11153
ངས་ནི་	-11154
ན་གཞན་	-11155
ན་དེས་	-11156
ཚོང་པ་	-11157
འདོང་བ	-11158
རྗོད་་	-11159
▁cried	-11160
▁honey	-11161
▁split	-11162
▁store	-11163
▁tried	-11164
▁undef	-11165
ishment	-11166
་དབེན་པ	-11167
གང་དུ་བ	-11168
གཉིས་སུ	-11169
ང་དང་་བ	-11170
ནས་བདག་	-11171
བ་ཀྱིས་	-11172
མཆི་བར་	-11173
མི་རྟག་	-11174
ཞག་གོ་་	-11175
འབྱིན་་	-11176
འི་ཁམས་	-11177
རྒྱགས་པ	-11178
ལྡན་པར་	-11179
སྟོད་པ་	-11180
ོལ་བའི་	-11181
▁copper	-11182
▁finest	-11183
▁nonper	-11184
▁recall	-11185
▁renown	-11186
▁showed	-11187
▁sinful	-11188
▁smrtil	-11189
▁spears	-11190
▁unshak	-11191
▁walked	-11192
▁དེ་ལྟར	-11193
གསུམ་པོ་	-11194
ན་པར་བྱ་	-11195
མི་རྣམས་	-11196
ཚིག་རྩུབ	-11197
འཁོར་གྱི	-11198
ཡང་དང་ཡང	-11199
ས་སྦྱིན་	-11200
སྐྱོ་བར་	-11201
སྔོན་གྱི	-11202
▁prepare	-11203
▁prevent	-11204
▁process	-11205
▁pronoun	-11206
▁ཀུན་ཏུ་	-11207
▁དེས་ནི་	-11208
ཕྱི་བཞིན་	-11209
མི་འབྱུང་	-11210
མི་རྟག་པ་	-11211
མི་ཤེས་པ་	-11212
མེད་པར་བྱ	-11213
འཛིན་ཅིང་	-11214
རྒྱུ་ཞིང་	-11215
ལྟ་བུའོ་་	-11216
ས་བཅོམ་པ་	-11217
ྱིན་གྱིས་	-11218
▁ambrosia	-11219
▁disciple	-11220
▁dullness	-11221
▁eggshell	-11222
▁extended	-11223
▁obstruct	-11224
་བརྒྱད་ཅུ་	-11225
ཇི་ལྟ་བུར་	-11226
ན་དུ་བཅུག་	-11227
མི་སྐྱེ་བ་	-11228
ཡོད་པ་དང་་	-11229
▁greatness	-11230
▁treasures	-11231
▁སྡིག་པའི་	-11232
གང་ལ་ལ་ཞིག་	-11233
གཞི་མེད་དོ་	-11234
གཟུགས་བརྙན་	-11235
མཐོ་རིས་དང་	-11236
རབ་ཏུ་དགའ་བ	-11237
▁enjoyments	-11238
▁internally	-11239
▁physically	-11240
▁represents	-11241
▁smrtilabha	-11242
▁གཟུགས་ཀྱི་	-11243
▁དེ་དེ་ལྟར་	-11244
ཕྱི་མའི་མཐའ་	-11245
འདི་སྐད་ཅེས་	-11246
ལྷའི་མེ་ཏོག་	-11247
▁contemplate	-11248
▁indivisible	-11249
▁renunciants	-11250
་དེ་བཞིན་ནོ་་	-11251
ཀྱི་དབང་ཕྱུག་	-11252
ཕྱིར་རྒོལ་བར་	-11253
འདུག་བཞིན་དུ་	-11254
རྣམ་པར་དག་པས་	-11255
རྣམས་ཀྱིས་ནི་	-11256
གང་ཡིན་པ་དེ་ནི	-11257
ཐལ་མོ་སྦྱར་ཏེ་	-11258
མ་བྱས་ལ་ང་ཉིད་	-11259
འཐོབ་ཏུ་རུང་ན་	-11260
ས་པར་འགྱུར་རོ་	-11261
▁anathapindada	-11262
▁samantabhadra	-11263
ར་བྱ་བའི་ཕྱིར་བ	-11264
ཤིང་དགེ་སློང་གི	-11265
སྨྲ་བའི་གནས་སུ་	-11266
▁བུ་མོས་སྨྲས་པ་	-11267
ཆོས་རྣམ་པར་དག་པ་	-11268
འདི་ཁོ་ན་ཡིན་ཏེ་	-11269
ནང	-11270
▁ར	-11271
fts	-11272
ཁེབ	-11273
ཁྲུ	-11274
ཤས་	-11275
▁ka	-11276
ager	-11277
atis	-11278
ming	-11279
with	-11280
མ་བཏ	-11281
སེལ་	-11282
ེལ་བ	-11283
▁dig	-11284
▁exh	-11285
▁rah	-11286
alika	-11287
arava	-11288
་སྒྲ་	-11289
གཡོན་	-11290
གྱི་་	-11291
ཉི་ཤུ	-11292
དང་པོ	-11293
ཕྲིན་	-11294
མར་མེ	-11295
ལྟོས་	-11296
▁capt	-11297
▁cuck	-11298
▁dogs	-11299
▁jack	-11300
▁meas	-11301
▁ungu	-11302
▁ཀླུ་	-11303
overed	-11304
མེད་དེ	-11305
ཞུམ་པ་	-11306
འགགས་པ	-11307
འཕགས་་	-11308
རྒྱགས་	-11309
ལོན་པ་	-11310
སེལ་བ་	-11311
སྣང་ལ་	-11312
▁enemy	-11313
▁lying	-11314
▁scrut	-11315
▁sixth	-11316
▁sooth	-11317
་དེ་ལྟར	-11318
གས་སྐྱེ	-11319
ཅི་ལགས་	-11320
ཉིན་ཞག་	-11321
ཉེ་བའི་	-11322
མགོ་བོ་	-11323
འདོད་ཆག	-11324
རྒྱ་མཚོ	-11325
རྩོད་པ་	-11326
ས་པ་ནི་	-11327
སྐྱོ་བ་	-11328
སྒྲུབ་པ	-11329
སྟེན་པ་	-11330
ུགས་ནས་	-11331
▁easily	-11332
▁explan	-11333
▁fabric	-11334
▁observ	-11335
▁speaks	-11336
་དབྱེ་བ་	-11337
་དེར་ནི་	-11338
་བཞི་དང་	-11339
་བྲམ་ཟེ་	-11340
ག་པར་བྱ་	-11341
གང་གིས་བ	-11342
གྱིས་མི་	-11343
ཚོར་བའི་	-11344
▁convers	-11345
▁dharani	-11346
▁expound	-11347
▁vulture	-11348
▁དེའི་བཙ	-11349
་དང་་སྦྱི	-11350
་བྱས་སོ་་	-11351
ཕྲག་དུ་མ་	-11352
མཉམ་པར་བཞ	-11353
ཞིང་རྣམས་	-11354
འི་ཕྱིར་་	-11355
ར་གྱུར་ལ་	-11356
རྒྱ་བྱིན་	-11357
སྒྲོགས་པ་	-11358
▁airborne	-11359
▁laziness	-11360
▁location	-11361
▁praising	-11362
▁repeated	-11363
▁སྡིག་ཅན་	-11364
གདུལ་བྱའི་	-11365
ནུབ་ཕྱོགས་	-11366
འབྱེད་དོ་་	-11367
འི་དབྱིངས་	-11368
ཡི་རངས་ཏེ་	-11369
ཡུལ་མ་ག་དྷ	-11370
ཤིང་ལྗོན་པ	-11371
▁illnesses	-11372
▁uncertain	-11373
▁ད་ལྟར་ཡང་	-11374
་དང་བྲལ་བར་	-11375
ར་འགྱུར་ཡང་	-11376
ལག་མཐིལ་དུ་	-11377
▁assurances	-11378
▁encouraged	-11379
▁negativity	-11380
▁དེ་ནས་དེས་	-11381
་དུས་གཅིག་ན་	-11382
་དོན་མ་ཡིན་པ	-11383
ང་དང་བྲམ་ཟེ་	-11384
ཐབས་ཅིག་ཏུ་བ	-11385
འདི་ལྟ་སྟེ་བ	-11386
▁experiences	-11387
▁དེ་ནས་དེའི་	-11388
ཁམས་གསུམ་པའི་	-11389
གཞན་འཕྲུལ་དབང	-11390
ཅེས་བྱ་བ་དང་་	-11391
ཉི་ཤུ་ཡེ་ཤེས་	-11392
འི་ཚུལ་ཁྲིམས་	-11393
རིའི་རྒྱལ་པོ་	-11394
ས་བཀའ་སྩལ་ནས་	-11395
ེ་སྔགས་འདོན་པ	-11396
▁དོན་དམ་པར་ན་	-11397
དེ་བ་ལ་བཙུད་པ་	-11398
མེད་པར་འགྱུར་་	-11399
་ད་ལྟར་འབའ་ཞིག་	-11400
གཉིས་སུ་མེད་པར་	-11401
འཇིག་རྟེན་གསུམ་	-11402
ཡོངས་སུ་དག་པའི་	-11403
▁irreproachable	-11404
ནམ་མཁའི་སྙིང་པོ་	-11405
རོ་མྱང་བ་མེད་པར་	-11406
ཁེ	-11407
ams	-11408
her	-11409
isy	-11410
ock	-11411
་རྔ	-11412
ང་ས	-11413
ངད་	-11414
▁ec	-11415
akay	-11416
esty	-11417
utar	-11418
yaks	-11419
་རུ་	-11420
ཀའ་བ	-11421
ངོས་	-11422
ཎྜི་	-11423
མ་ཐོ	-11424
འཁྱི	-11425
ལ་དང	-11426
ལ་ན་	-11427
ལ་མི	-11428
▁tus	-11429
aling	-11430
ately	-11431
ངོ་ཚ་	-11432
ཉི་ཟླ	-11433
ཐུན་མ	-11434
དེ་ལ་	-11435
ཕོངས་	-11436
ཡོད་་	-11437
རྒོད་	-11438
ཤ་དང་	-11439
▁buff	-11440
▁cord	-11441
▁cymb	-11442
▁earn	-11443
▁silk	-11444
▁vira	-11445
ersman	-11446
་སྐྱེད	-11447
གཡོགས་	-11448
ང་རྒྱལ	-11449
ངག་དང་	-11450
ཉེ་དབང	-11451
ཐོག་མ་	-11452
ན་དོན་	-11453
ནུས་པ་	-11454
ཕྱེ་བ་	-11455
ཟེར་བ་	-11456
འཁོད་པ	-11457
འགོག་པ	-11458
རྒྱའི་	-11459
ས་དོན་	-11460
ས་སྐད་	-11461
▁holds	-11462
▁impro	-11463
▁knelt	-11464
▁modes	-11465
▁resid	-11466
▁revel	-11467
▁ང་ཡི་	-11468
་སྤྱོད་	-11469
ཙམ་ཞིག་	-11470
འདི་ལ་བ	-11471
འཕྲུལ་བ	-11472
ཡིན་པས་	-11473
ར་གྱི་བ	-11474
རྟེན་པ་	-11475
ལུས་ལས་	-11476
ོན་དང་་	-11477
ོས་སོ་་	-11478
▁kumbha	-11479
▁region	-11480
▁sumati	-11481
▁ཙན་དན་	-11482
་དགོན་པ་	-11483
་དབང་དུ་	-11484
་དུས་སུ་	-11485
་བྱ་དང་་	-11486
་བྱས་པས་	-11487
ཀོ་ཀ་ལི་	-11488
ང་བར་བྱ་	-11489
ངའི་སྦུབ	-11490
ཅུ་གཉིས་	-11491
ཆེད་དུ་བ	-11492
ན་པས་ནི་	-11493
འོངས་ཏེ་	-11494
ཡི་གེར་བ	-11495
ར་དགོངས་	-11496
རྨོངས་པ་	-11497
ལ་བསམ་གཏ	-11498
ལྷུན་པོ་	-11499
ཤོག་ཤིག་	-11500
ས་བཀའ་སྩ	-11501
ུགས་པའི་	-11502
ྱོད་པའི་	-11503
▁annihil	-11504
▁harmony	-11505
▁primary	-11506
▁regions	-11507
▁singing	-11508
▁upendra	-11509
▁wearing	-11510
ཁྱབ་འཇུག་	-11511
མེད་པའི་བ	-11512
ར་བྱེད་ལ་	-11513
རྙེད་དོ་་	-11514
རྣམ་པ་དང་	-11515
སྟོན་པའི་	-11516
▁beginner	-11517
▁deceased	-11518
▁flawless	-11519
▁properly	-11520
▁retinues	-11521
▁གང་གི་ཚེ	-11522
▁རིན་ཆེན་	-11523
གླང་པོ་ཆེ་	-11524
ན་བཞི་དང་་	-11525
ལོ་ཉི་ཁྲི་	-11526
▁blessings	-11527
▁steersman	-11528
▁supremely	-11529
▁weariness	-11530
གཞུག་པར་བྱ་	-11531
ཆོས་འདི་དག་	-11532
ཐོས་མ་ཐག་ཏུ	-11533
མཆོད་སྦྱིན་	-11534
ལྷའི་བུ་མོ་	-11535
སྤོང་བ་དང་་	-11536
▁associates	-11537
▁comparison	-11538
▁unshakable	-11539
་དང་ལྷན་ཅིག་	-11540
་དེ་དག་ལ་ནི་	-11541
ཀྱི་དངོས་པོ་	-11542
ཆོས་སྟོན་པར་	-11543
ཞོ་དང་མར་དང་	-11544
རིག་པ་ཐོབ་པ་	-11545
▁bodhisatvas	-11546
▁illustrates	-11547
▁ཚེ་དང་ལྡན་པ	-11548
ཐོབ་པར་འགྱུར་	-11549
ཞེས་སྨྲས་སོ་་	-11550
འཁོར་དང་བཅས་པ	-11551
ཡོངས་སུ་ཤེས་པ	-11552
▁destinations	-11553
▁illuminating	-11554
་དང་ལྡན་པ་དང་་	-11555
འི་བྱེ་མ་སྙེད་	-11556
ཡང་དག་པའི་མཐའ་	-11557
ཤ་ར་དྭ་ཏིའི་བུ	-11558
▁accomplishing	-11559
▁དེ་དག་ཐམས་ཅད་	-11560
▁འདུ་བྱེད་ཀྱི་	-11561
་དོན་མ་ཡིན་པ་བཟླ	-11562
་བརྒྱ་བྱིན་གྱིས་	-11563
མྱ་ངན་ལས་འདའ་བར་	-11564
རྣམ་པར་རྒྱལ་བ་སྲ	-11565
ལེགས་སོ་ཞེས་བྱ་བ	-11566
▁དེ་ནས་དྲང་སྲོང་	-11567
▁རྣམ་པར་ཤེས་པའི་	-11568
ཀ་ཤ	-11569
ནག་	-11570
ཕོ་	-11571
ཤ་ཟ	-11572
atri	-11573
rate	-11574
་བག་	-11575
ཁྱེད	-11576
ད་དེ	-11577
ཕྱེད	-11578
མ་བ་	-11579
མ་སྨ	-11580
སླད་	-11581
ུ་པ་	-11582
▁enh	-11583
▁err	-11584
▁kok	-11585
▁squ	-11586
▁sto	-11587
▁vig	-11588
ghosa	-11589
otton	-11590
གང་དུ	-11591
མྱུར་	-11592
ཚིགས་	-11593
ཞག་པ་	-11594
རངས་པ	-11595
སོགས་	-11596
སྲེད་	-11597
ོའོ་་	-11598
▁atta	-11599
▁dawn	-11600
▁site	-11601
▁stat	-11602
▁sway	-11603
▁ཤིང་	-11604
anging	-11605
་བརྗོད	-11606
གཉི་ག་	-11607
གྲ་བཅོ	-11608
ཅན་དང་	-11609
མ་ནུར་	-11610
འི་སྒྲ	-11611
ཡོད་དེ	-11612
ས་སྤྱི	-11613
སྲིད་་	-11614
ྲིས་པ་	-11615
ློན་པོ	-11616
▁altru	-11617
▁claim	-11618
▁dwelt	-11619
▁grown	-11620
▁hairs	-11621
▁inapp	-11622
▁pearl	-11623
▁soles	-11624
▁stage	-11625
ability	-11626
ousness	-11627
yaksamb	-11628
གར་གྱི་	-11629
ཉིན་པར་	-11630
མ་ལགས་་	-11631
མས་ཤིང་	-11632
སྟི་སྟང	-11633
▁assist	-11634
▁deceit	-11635
▁endure	-11636
▁seized	-11637
▁sexual	-11638
▁ཇི་ལྟར	-11639
▁མཁས་པ་	-11640
position	-11641
་སྲིད་པ་	-11642
ཀུན་ཀྱང་	-11643
གསེར་དང་	-11644
ཆུ་སྲིན་	-11645
ཐོགས་ཏེ་	-11646
འདམ་དུ་བ	-11647
ལ་དགའ་བ་	-11648
ཤེས་ཤིང་	-11649
▁buffalo	-11650
▁confess	-11651
▁harshly	-11652
▁nirgran	-11653
▁རྒྱལ་བ་	-11654
ཁམས་དང་་ར	-11655
གི་བར་དུ་	-11656
ན་བདག་ཅག་	-11657
ནི་དེ་བཞི	-11658
མ་ཡིན་པས་	-11659
འི་དངོས་པ	-11660
ཡང་ཉེ་བར་	-11661
སྐྱེད་པར་	-11662
▁addition	-11663
▁blessing	-11664
▁capacity	-11665
▁confused	-11666
▁movement	-11667
▁peacocks	-11668
▁quarters	-11669
▁respects	-11670
▁specific	-11671
་བདུན་གྱི་	-11672
གཡོག་འཁོར་	-11673
མགོན་མེད་ཟ	-11674
རབ་ཏུ་ཞི་བ	-11675
རྣམ་པར་དག་	-11676
རྣམས་ཀྱང་བ	-11677
ལོངས་སྤྱོད	-11678
ས་བརྒྱན་པ་	-11679
ས་སྣ་ཚོགས་	-11680
སེར་སྐྱའི་	-11681
སྦྱིན་པ་ན་	-11682
▁afterward	-11683
▁commended	-11684
▁treatises	-11685
▁witnessed	-11686
གཏི་མུག་གི་	-11687
མ་མཆིས་ཤིང་	-11688
ཡང་ཡིན་ནོ་་	-11689
རང་བྱང་ཆུབ་	-11690
རྒྱལ་པོ་དེ་	-11691
ས་པར་གྱུར་་	-11692
སྤོབས་པ་ཟད་	-11693
▁definitive	-11694
▁diligently	-11695
▁inappropri	-11696
▁recognized	-11697
▁samyaksamb	-11698
▁subsequent	-11699
ཉེ་བར་གནས་པ་	-11700
ཚངས་པས་བྱིན་	-11701
རོལ་མོའི་སྒྲ	-11702
▁expressions	-11703
▁དེའི་ཚེ་ཡང་	-11704
མུན་པ་བསལ་ཏེ་	-11705
ཞིག་བྱུང་སྟེ་	-11706
ཞེས་བྱ་བ་ཞིག་	-11707
འཇིག་རྟེན་དག་	-11708
ལ་ལུང་ཡང་ཕོག་	-11709
▁particularly	-11710
▁དེ་གང་གི་ཚེ་	-11711
གོང་མ་བཞིན་དུ་	-11712
ཐུགས་བརྩེ་བའི་	-11713
ན་པ་ཟབ་མོ་འདི་	-11714
ནམ་མཁའི་དཀྱིལ་	-11715
རང་གི་མཚན་ཉིད་	-11716
རྣམས་ཀྱིས་ཀྱང་	-11717
ལྷག་མ་མེད་པའི་	-11718
ཤེས་པ་གང་ཞེ་ན་	-11719
ལ་ཚིགས་སུ་བཅད་པ	-11720
▁དེ་ནས་ཁྱིམ་བདག	-11721
ཁོང་དུ་ཆུད་པར་བྱ	-11722
སེམས་ཅན་དམྱལ་བར་	-11723
▁discriminations	-11724
adg	-11725
jug	-11726
▁kr	-11727
ubst	-11728
་བརྡ	-11729
་སྦྱ	-11730
གཟི་	-11731
ཉལ་བ	-11732
ན་གཙ	-11733
འགྲེ	-11734
འཛུམ	-11735
ིལ་བ	-11736
▁ade	-11737
▁hur	-11738
vinda	-11739
གང་ཟག	-11740
ཆེ་ལ་	-11741
དང་་་	-11742
ན་བཟའ	-11743
བ་བོ་	-11744
མཐིལ་	-11745
རི་ཁྲ	-11746
ལ་དྲི	-11747
ལས་དེ	-11748
སྨན་པ	-11749
▁arch	-11750
▁avar	-11751
▁cost	-11752
▁cove	-11753
▁eter	-11754
▁fash	-11755
▁gopa	-11756
▁peer	-11757
▁རྣམ་	-11758
action	-11759
asmrti	-11760
lessly	-11761
pitaka	-11762
worthy	-11763
ཁམས་ལ་	-11764
ཙམ་གྱི	-11765
ཚན་པོ་	-11766
འི་དཔེ	-11767
ལ་བྱ་བ	-11768
ཤ་སྟག་	-11769
ས་དྲི་	-11770
སྤངས་པ	-11771
▁error	-11772
▁nanda	-11773
▁noose	-11774
▁shape	-11775
▁དཔེར་	-11776
ཀུན་གྱི	-11777
ང་པོའི་	-11778
ངོ་ཞེས་	-11779
ཅོད་པན་	-11780
ཏིང་འཛི	-11781
ན་པ་དག་	-11782
ནགས་ཚལ་	-11783
མཚན་ཉིད	-11784
འི་བྱ་བ	-11785
ར་བྱས་་	-11786
རྙེད་པར	-11787
ས་པའོ་་	-11788
ས་སྲོག་	-11789
▁bodhim	-11790
▁critic	-11791
▁exting	-11792
▁motion	-11793
▁sarvar	-11794
▁season	-11795
▁slight	-11796
▁summit	-11797
▁vanish	-11798
tachment	-11799
་དང་་སྨྲ	-11800
ཁྱིམ་ཐབ་	-11801
གནས་པ་དེ	-11802
གཟུང་དུ་	-11803
ཅི་དགོས་	-11804
ཆགས་པའི་	-11805
ཐོབ་སྟེ་	-11806
དེ་བ་དང་	-11807
མ་ཡིན་ལ་	-11808
ཞིག་སྟེ་	-11809
འདུ་བྱེད	-11810
འདྲེས་པ་	-11811
ར་དགའ་བ་	-11812
ལྟུང་བར་	-11813
སེམས་དེ་	-11814
▁cymbals	-11815
▁emitted	-11816
▁immense	-11817
▁phantom	-11818
▁replete	-11819
▁roaring	-11820
▁གཞན་དུ་	-11821
གཞན་གྱིས་	-11822
གཟུགས་ནི་	-11823
གསེར་དང་བ	-11824
གྲུབ་པའི་	-11825
ཆོས་ཀྱི་བ	-11826
མི་བྱེད་པ	-11827
ཡན་ལག་དང་	-11828
རྒ་བ་དང་་	-11829
རྣམ་པ་དུ་	-11830
▁comprise	-11831
▁personal	-11832
▁reaching	-11833
▁strongly	-11834
▁vanished	-11835
▁རྡོ་རྗེ་	-11836
ubstantial	-11837
་དེ་ཉིད་ལ་	-11838
གླུ་དབྱངས་	-11839
མ་ལགས་སོ་་	-11840
མྱ་ངན་འདས་	-11841
འདམ་དུ་བྱི	-11842
ལུང་བསྟན་པ	-11843
▁apprehens	-11844
▁donations	-11845
▁impartial	-11846
▁physician	-11847
▁whichever	-11848
▁ལྷ་དང་མི་	-11849
དེན་པ་མཐོང་	-11850
འི་ཚིག་གིས་	-11851
ལ་དགེ་སློང་	-11852
ཀྱི་རང་བཞིན་	-11853
སངས་རྒྱས་དང་	-11854
▁immortality	-11855
▁intelligent	-11856
▁thirtyseven	-11857
ཁྲི་ཉིས་སྟོང་	-11858
མཐོང་མ་ཐག་ཏུ་	-11859
ཡོངས་སུ་འཛིན་	-11860
ལ་ཕྱག་འཚལ་ལོ་	-11861
སེང་གེའི་སྒྲ་	-11862
ོམས་པར་འཇུག་པ་	-11863
་དང་ལྷན་ཅིག་ཏུ་	-11864
མི་འགྱུར་བ་དང་་	-11865
ལ་ཚེ་དང་ལྡན་པ་ཤ	-11866
▁རྣམ་པར་ཐར་པའི་	-11867
▁སེམས་ཅན་གང་དག་	-11868
ན་པ་ལ་སྤྱོད་པ་ན་	-11869
མངོན་པར་ཤེས་པའི་	-11870
མཉམ་པ་ནམ་མཁའ་དང་	-11871
འི་དབང་པོ་ཤེས་པ་	-11872
▁དམ་པའི་ཆོས་པད་མ	-11873
fr	-11874
ྱང	-11875
obh	-11876
usp	-11877
པད་	-11878
ྲོ་	-11879
▁བ་	-11880
iced	-11881
iles	-11882
udra	-11883
་པད་	-11884
་རོ་	-11885
གཡས་	-11886
ཕུག་	-11887
ཞུ་་	-11888
ལྷང་	-11889
ཨ་ག་	-11890
▁adm	-11891
▁bef	-11892
་སུམ་	-11893
མ་བུ་	-11894
འཆང་བ	-11895
འཐུན་	-11896
འདོང་	-11897
འཛེར་	-11898
ཡུངས་	-11899
ར་བར་	-11900
▁bimb	-11901
▁cate	-11902
▁drop	-11903
▁emul	-11904
▁ship	-11905
▁vase	-11906
▁ཟླ་བ	-11907
▁འཁོར	-11908
verted	-11909
་དབུས་	-11910
གོ་ཆ་བ	-11911
ན་དེ་བ	-11912
མཁན་པོ	-11913
མོད་ལ་	-11914
ཙམ་ཡང་	-11915
འ་བའི་	-11916
རྒྱུག་	-11917
སུ་ནི་	-11918
སོང་་་	-11919
ྱིན་པ་	-11920
▁adept	-11921
▁broad	-11922
▁disre	-11923
▁favor	-11924
▁fresh	-11925
▁imped	-11926
▁musit	-11927
▁penet	-11928
▁sland	-11929
▁warri	-11930
་བརྗེད་	-11931
ཁྱེད་ལ་	-11932
གཟེངས་བ	-11933
གཤེགས་པ	-11934
ཐབས་དང་	-11935
ན་གང་དག	-11936
ཕྱག་དར་	-11937
འགྲོའོ་	-11938
རབ་བཟང་	-11939
རྒྱལ་ཚབ	-11940
ཤིག་དང་	-11941
སྦངས་པ་	-11942
ྭ་བརྒྱད	-11943
▁cotton	-11944
▁heroic	-11945
▁བདག་ལ་	-11946
▁འཁོར་བ	-11947
་དང་་སྲི	-11948
་དེ་རིང་	-11949
་པའོ་་་་	-11950
་སྙམ་དུ་	-11951
གྲངས་སུ་	-11952
ཐོགས་ནས་	-11953
མཁས་ཤིང་	-11954
མིག་དང་་	-11955
མིགས་སུ་	-11956
འི་བར་ལ་	-11957
རྣམས་ཀྱང	-11958
ལས་དང་པོ	-11959
ལས་བྱུང་	-11960
སྨན་གྱི་	-11961
▁courage	-11962
▁empower	-11963
▁inspire	-11964
▁nondual	-11965
▁གསོལ་པ་	-11966
་དཀའ་ཐུབ་	-11967
་བསྒོམ་པ་	-11968
ངས་པ་དང་་	-11969
ངོ་བོ་ཉིད	-11970
ཅི་འདྲ་བ་	-11971
ཉིང་མཚམས་	-11972
ར་བྱེད་ན་	-11973
སྐྱེད་དོ་	-11974
▁bewilder	-11975
▁celibacy	-11976
▁faithful	-11977
▁striving	-11978
▁terrible	-11979
▁tranquil	-11980
▁དེ་ལྟར་བ	-11981
▁མདོ་སྡེ་	-11982
▁སྦྱིན་པ་	-11983
་བར་འགྱུར་	-11984
་བསམ་གཏན་བ	-11985
་བསླབ་པའི་	-11986
མ་ཡིན་པ་ལ་	-11987
སྐྱེད་པའི་	-11988
▁awareness	-11989
▁encounter	-11990
▁intensely	-11991
▁opponents	-11992
▁sovereign	-11993
▁tripitaka	-11994
་དཀོན་མཆོག་	-11995
་རྫུ་འཕྲུལ་	-11996
འགྲོ་བ་དང་་	-11997
འི་སྦྱིན་པ་	-11998
ཡི་དགས་ཀྱི་	-11999
རྒྱན་གྱིས་བ	-12000
▁bodhimanda	-12001
▁conclusion	-12002
▁knowledges	-12003
▁sensations	-12004
▁ཚོར་བ་དང་་	-12005
་དག་ཏུ་ལན་གས	-12006
་དང་བདེ་བའི་	-12007
་དེ་དག་གིས་བ	-12008
་དོན་ཐམས་ཅད་	-12009
མྱ་ངན་འདས་པ་	-12010
ཚུལ་ཁྲིམས་འཆ	-12011
འི་བར་དུ་ཡང་	-12012
རྫོགས་སོ་་་་	-12013
ས་པར་འགྱུར་་	-12014
སྣ་ཚོགས་ཀྱི་	-12015
▁inspiration	-12016
▁reflections	-12017
▁temperament	-12018
་དེ་ལ་སྨྲས་པ་	-12019
་བསམ་གཏན་དང་་	-12020
ཆེན་པོ་རབ་ཏུ་	-12021
མིང་དང་གཟུགས་	-12022
ལ་བར་གྱུར་ནས་	-12023
ས་པའི་འགོག་པ་	-12024
སྙམ་དུ་དགོངས་	-12025
▁ཕྱོགས་བཅུའི་	-12026
་དང་ལྡན་པ་ཡིན་	-12027
ཁང་པ་བརྩེགས་པ་	-12028
འདུ་ཤེས་པ་དང་་	-12029
རིག་པར་བྱ་སྟེ་	-12030
སིལ་བར་གྱུར་པ་	-12031
སེམས་ཅན་གང་དག་	-12032
སེམས་ཅན་དམྱལ་བ	-12033
སྒྲ་བྱུང་ངོ་་་	-12034
ྭ་བརྒྱད་ཀྱི་བར	-12035
▁distinguished	-12036
གསེར་གྱི་ཁ་དོག་	-12037
གསེར་དང་བོང་བར་	-12038
སྟོང་པ་ཉིད་ཀྱང་	-12039
▁སངས་རྒྱས་དང་བྱ	-12040
འདུ་ཤེས་མེད་མིན་	-12041
རིས་ཀྱི་ལྷའི་བུ་	-12042
ས་བཅོམ་ལྡན་འདས་བ	-12043
api	-12044
cts	-12045
ཕ་མ	-12046
ཡལ་	-12047
ཨ་མ	-12048
asts	-12049
atna	-12050
from	-12051
ival	-12052
གཞག་	-12053
ཏུལ་	-12054
མ་པོ	-12055
མཚང་	-12056
ལག་པ	-12057
ལྔར་	-12058
ཤའི་	-12059
སྡོམ	-12060
སྲུང	-12061
སྲེད	-12062
▁ast	-12063
▁bal	-12064
▁est	-12065
▁pit	-12066
after	-12067
akara	-12068
alous	-12069
oduct	-12070
་བསྲེ	-12071
་རྐང་	-12072
ཀ་ནེ་	-12073
མྱ་ངན	-12074
ལམ་ལ་	-12075
ལྡེག་	-12076
ས་སྐྲ	-12077
སྟབས་	-12078
ྲལ་བ་	-12079
▁bind	-12080
▁lily	-12081
▁loud	-12082
▁save	-12083
▁tact	-12084
▁tara	-12085
▁thro	-12086
▁trad	-12087
▁འོད་	-12088
▁ལ་ལ་	-12089
itiate	-12090
ཁམས་བྱ	-12091
གཙོ་བོ	-12092
ང་སྟེ་	-12093
ཆོས་སྤ	-12094
དག་ཏུ་	-12095
མདོ་སྡ	-12096
མཚོན་ཆ	-12097
ཚོང་དཔ	-12098
འདུན་པ	-12099
འཕོ་བ་	-12100
འབྲས་བ	-12101
རྩེགས་	-12102
སྐྱོད་	-12103
▁bears	-12104
▁mixed	-12105
▁prabh	-12106
▁shake	-12107
▁simha	-12108
▁sting	-12109
▁surge	-12110
▁thats	-12111
▁thorn	-12112
▁virup	-12113
▁yours	-12114
aprapta	-12115
minated	-12116
utation	-12117
ཉིང་ལག་	-12118
ན་གྲངས་	-12119
མི་བྱ་་	-12120
ཟུང་ནས་	-12121
འདི་འདྲ	-12122
འདི་ཡི་	-12123
ལུང་བསྟ	-12124
ལུས་ནི་	-12125
ལྟ་བུ་བ	-12126
ཤཀྱ་ཐུབ	-12127
སྐོར་བ་	-12128
▁arrows	-12129
▁ksatri	-12130
▁pretas	-12131
▁དེ་བས་	-12132
་དཔག་མེད	-12133
་དབུལ་པོ	-12134
་དེ་ནི་བ	-12135
་བྱིས་པ་	-12136
ཅན་གྱིས་	-12137
ཆེན་གྱི་	-12138
དེ་ལེགས་	-12139
མཆོད་པར་	-12140
འདོགས་པ་	-12141
ས་དེ་ནི་	-12142
ས་སྐྱེ་བ	-12143
སོང་ཤིག་	-12144
ིག་རྒྱུ་	-12145
▁blossom	-12146
▁duality	-12147
▁fitting	-12148
▁limited	-12149
▁recount	-12150
▁sisters	-12151
་བརྗོད་པ་	-12152
་སྟོང་ཕྲག	-12153
གཞན་དག་ལ་	-12154
གཤེགས་ནས་	-12155
གསོལ་བ་བཏ	-12156
མ་འོངས་པ་	-12157
ར་གྱུར་ན་	-12158
རྡུལ་བྲལ་	-12159
རྣམ་སྤངས་	-12160
རྫུ་འཕྲུལ	-12161
ས་དབང་པོ་	-12162
▁enduring	-12163
▁fraction	-12164
▁improper	-12165
▁kokalika	-12166
▁nonhuman	-12167
▁perfumed	-12168
▁unarisen	-12169
▁དྲང་སྲོང	-12170
་བདེན་གྱི་	-12171
་བརྒྱ་ཕྲག་	-12172
་རིའི་བུ་བ	-12173
་སྐྱེས་ཏེ་	-12174
་སྤོས་དང་་	-12175
འི་བདག་མོ་	-12176
ལ་བརྩོན་པ་	-12177
ས་སྦྱིན་པ་	-12178
སྨྲ་བ་དང་་	-12179
▁carefully	-12180
▁destroyer	-12181
▁enjoyment	-12182
▁influence	-12183
▁mahavidya	-12184
▁perceives	-12185
▁recognize	-12186
▁remainder	-12187
▁undefiled	-12188
་བཏང་སྙོམས་	-12189
ཕུང་པོ་དང་་	-12190
མ་བསྐྱེད་པ་	-12191
ཚུལ་ཁྲིམས་བ	-12192
▁རྫུ་འཕྲུལ་	-12193
གཟུང་བའམ་མི་	-12194
ཆེན་པོ་རྣམས་	-12195
▁approaching	-12196
▁elaboration	-12197
▁engendering	-12198
▁musitasmrti	-12199
▁sacrificial	-12200
གྲོང་ཁྱེར་དུ་	-12201
ཆོས་ཉིད་ཀྱིས་	-12202
▁formlessness	-12203
་བརྒྱ་སྟོང་ཕྲག	-12204
ཏིང་ངེ་འཛིན་ལ་	-12205
ནི་འདི་ལྟ་སྟེ་	-12206
ཚིག་བླ་དགས་སམ་	-12207
འི་ཚིག་བླ་དགས་	-12208
ལྷ་དང་བཅས་པའི་	-12209
▁ཐེག་པ་ཆེན་པོ་	-12210
དེ་བཞིན་གཤེགས་པ	-12211
འཇིགས་ཤིང་སྐྲག་	-12212
འཐོབ་པར་འགྱུར་བ	-12213
▁contemplations	-12214
▁ཆོས་ཐམས་ཅད་ནི་	-12215
▁བདེ་བར་གཤེགས་པ	-12216
▁སྣང་བ་བྱས་ཤིང་	-12217
་བྱེད་ཀྱི་ཚལ་དུ་	-12218
མེད་པར་གྱུར་ཏོ་་	-12219
འདུས་ཏེ་རེག་པའི་	-12220
ས་སེམས་ཅན་དེ་དག་	-12221
སོ	-12222
ena	-12223
་རེ	-12224
རྙེ	-12225
ཧི་	-12226
▁ud	-12227
avat	-12228
gard	-12229
rets	-12230
གནོད	-12231
གསོད	-12232
གྲུ་	-12233
མི་ཆ	-12234
འཇོག	-12235
▁flo	-12236
▁rot	-12237
▁tip	-12238
▁ven	-12239
▁མར་	-12240
adhis	-12241
aprad	-12242
ciate	-12243
ision	-12244
་དོ་ཤ	-12245
་བརྙེ	-12246
་རྡོ་	-12247
གཞོལ་	-12248
ཆུང་བ	-12249
དང་བཅ	-12250
འདོར་	-12251
རབ་རི	-12252
ལ་དབང	-12253
སླུ་བ	-12254
ེམས་པ	-12255
▁chak	-12256
▁educ	-12257
▁fled	-12258
▁gadg	-12259
▁lute	-12260
▁rule	-12261
▁thie	-12262
▁warm	-12263
anetra	-12264
enance	-12265
་བསམ་པ	-12266
་བསམ་ཡ	-12267
གནས་ལ་	-12268
ཅན་གྱི	-12269
ཐ་མའི་	-12270
མཆོད་་	-12271
ཚང་བར་	-12272
འདབ་མ་	-12273
འོངས་པ	-12274
ས་དེས་	-12275
སྒྲོལ་	-12276
▁ashes	-12277
▁banks	-12278
▁cover	-12279
▁delic	-12280
▁midst	-12281
▁moral	-12282
▁proff	-12283
▁snake	-12284
▁subha	-12285
▁unobs	-12286
▁ཀྱི་ཧ	-12287
▁མཁས་པ	-12288
▁རིག་པ	-12289
་ད་དུང་	-12290
ཀའ་ཐུབ་	-12291
ཀླུ་དང་	-12292
གཞན་དང་	-12293
ནས་དཀྲི	-12294
མི་མངའ་	-12295
ཚིག་གི་	-12296
ཞལ་གྱི་	-12297
འདོད་ན་	-12298
ེ་འདུན་	-12299
▁discur	-12300
▁ensues	-12301
▁humble	-12302
▁island	-12303
▁smiled	-12304
▁taming	-12305
▁མཚན་མ་	-12306
▁ཤེས་རབ	-12307
ཁྱོད་ལ་བ	-12308
ཆུ་ཀླུང་	-12309
ནེམ་ནུར་	-12310
མ་སྐྱེས་	-12311
འདོད་པར་	-12312
འོན་ཀྱང་	-12313
རབ་ཏུ་བྱ	-12314
སྨྲས་པ་་	-12315
▁aggress	-12316
▁herself	-12317
▁husband	-12318
▁mounted	-12319
▁seventh	-12320
▁wailing	-12321
་དགོས་སོ་	-12322
་བྱེ་བྲག་	-12323
་བྱེད་དོ་	-12324
ཀུན་ཤེས་པ	-12325
ཁོང་ཁྲོ་བ	-12326
གྲོང་དང་་	-12327
མངོན་པར་ད	-12328
མཐོང་ཞིང་	-12329
མི་གཡོ་བ་	-12330
ཞིག་གནས་པ	-12331
འཇིགས་པར་	-12332
ཡུལ་འཁོར་	-12333
རྐང་གཉིས་	-12334
རྗོད་དོ་་	-12335
ས་དབེན་པ་	-12336
སྡུག་ཅིང་	-12337
▁applying	-12338
▁creation	-12339
▁gadgadas	-12340
▁lifetime	-12341
▁ornament	-12342
▁possibly	-12343
▁straight	-12344
▁vanquish	-12345
▁བདག་ཀྱང་	-12346
་དང་་སྤོས་	-12347
་དེད་དཔོན་	-12348
ནས་པུས་མོ་	-12349
མ་ཡིན་ཞིང་	-12350
མངོན་པར་བྱ	-12351
མཚུངས་མེད་	-12352
མི་སྡུག་པ་	-12353
ཡན་ལག་དང་་	-12354
ཡོངས་སུ་བཏ	-12355
ེ་བའི་རྩ་བ	-12356
▁collected	-12357
▁concealed	-12358
▁desirable	-12359
▁entourage	-12360
▁examining	-12361
▁katyayana	-12362
▁malicious	-12363
▁principle	-12364
▁གནོད་སྦྱི	-12365
་དངོས་གྲུབ་	-12366
་དབང་པོ་དང་	-12367
་བའི་ཕྱིར་བ	-12368
་སྐྱེས་སོ་་	-12369
འབྲས་བུ་དང་	-12370
རྟོག་པ་དང་་	-12371
▁distracted	-12372
▁གཞོན་ནུ་བྱ	-12373
་དང་དེ་བཞིན་	-12374
ནང་ན་ཡང་མེད་	-12375
ནམ་མཁའ་ལྡིང་	-12376
འདི་བཤད་པ་ན་	-12377
ཡང་གྱིས་ཤིག་	-12378
ཤེས་རབ་ཀྱིས་	-12379
▁development	-12380
▁discouraged	-12381
▁གནོད་སྦྱིན་	-12382
▁སེམས་ཅན་དམྱ	-12383
་དགེ་བསྙེན་མ་	-12384
གསོལ་པ་བཙུན་པ	-12385
ནས་སྨོན་ལམ་བཏ	-12386
ཕུན་སུམ་ཚོགས་	-12387
ཡིད་མི་བདེ་བ་	-12388
སྟེ་བསྙེན་པར་	-12389
▁conventional	-12390
▁nonbuddhists	-12391
▁རང་སངས་རྒྱས་	-12392
གཉིས་སུ་དབྱེར་	-12393
འདི་དག་ཐམས་ཅད་	-12394
རྗེས་སུ་ཡི་རང་	-12395
ས་པའི་ལས་དེའི་	-12396
ས་སྒོ་ངའི་སྦུབ	-12397
▁insubstantial	-12398
▁nonperception	-12399
▁transgression	-12400
རྣམ་གྲངས་འདི་ལ་	-12401
ལྟར་མི་བལྟ་སྟེ་	-12402
སྦངས་པ་ལྟ་བུར་བ	-12403
སྨོན་ལམ་གྱི་དབང་	-12404
ོར་མ་ཆག་སྙམ་མོ་་	-12405
▁རྒྱུ་གང་དང་རྐྱེ	-12406
ངང	-12407
uel	-12408
umn	-12409
་པྲ	-12410
མདའ	-12411
ཟོ་	-12412
alas	-12413
aund	-12414
whel	-12415
གཅོད	-12416
ཐེར་	-12417
ཞུས་	-12418
ཟ་མ་	-12419
ལའི་	-12420
ུད་་	-12421
▁got	-12422
▁hun	-12423
▁sci	-12424
ators	-12425
erent	-12426
ested	-12427
irvoy	-12428
itled	-12429
pping	-12430
ulter	-12431
་དག་ལ	-12432
ག་པས་	-12433
ཏུ་བྱ	-12434
མཆི་་	-12435
འགྲམ་	-12436
རོའི་	-12437
རྒུད་	-12438
ལྔ་པ་	-12439
སྒྲིབ	-12440
ོ་ལ་བ	-12441
ྲག་ཅ་	-12442
▁cher	-12443
▁grat	-12444
▁hurt	-12445
▁lady	-12446
▁papi	-12447
▁salt	-12448
▁sect	-12449
▁shel	-12450
▁yana	-12451
▁གཟུག	-12452
▁ཞེས་	-12453
་དེ་ཡང	-12454
ཆུ་དང་	-12455
ན་གཅིག	-12456
མི་དང་	-12457
རྒྱན་་	-12458
ས་བཅད་	-12459
སོ་སོ་	-12460
▁covet	-12461
▁encir	-12462
▁flame	-12463
▁image	-12464
▁intox	-12465
▁moved	-12466
▁quant	-12467
▁sugar	-12468
▁urine	-12469
▁wrath	-12470
akayika	-12471
་དུམ་བ་	-12472
་སྦྱིན་	-12473
ཆ་ལུགས་	-12474
ཆེ་དང་་	-12475
ཉིད་ནི་	-12476
ཏང་སྟེ་	-12477
མཚང་འདྲ	-12478
ཚད་མེད་	-12479
འགྲོ་ལ་	-12480
རིགས་པ་	-12481
ལྟུང་བ་	-12482
ས་སྐྲག་	-12483
སྐྱེད་་	-12484
▁advers	-12485
▁dissol	-12486
▁exists	-12487
▁hordes	-12488
▁import	-12489
▁length	-12490
▁ninety	-12491
▁occurs	-12492
▁revers	-12493
▁subjug	-12494
▁དེ་ལས་	-12495
▁མི་ཡི་	-12496
utaratna	-12497
་དང་ཁ་སྤ	-12498
་བསྒོམ་པ	-12499
འི་བསམ་པ	-12500
རྗོད་པར་	-12501
རྫུན་དུ་	-12502
ལ་ཡིད་ལ་	-12503
ལས་ཀྱིས་	-12504
ལྟ་བ་དང་	-12505
ས་སྟོབས་	-12506
ུན་མོའི་	-12507
▁capital	-12508
▁counter	-12509
▁distrib	-12510
▁eternal	-12511
▁inhabit	-12512
▁jealous	-12513
▁meeting	-12514
▁reading	-12515
▁reigned	-12516
▁succeed	-12517
▁sustain	-12518
▁thieves	-12519
▁དེ་དེར་	-12520
▁འདིས་ང་	-12521
▁ལ་ལ་ནི་	-12522
་དབྱངས་སྙ	-12523
གང་དུ་ཡང་	-12524
གཤེགས་ཏེ་	-12525
དང་ལྡན་པ་	-12526
ནས་བསམ་གཏ	-12527
མེད་པ་ལས་	-12528
ལྷག་མཐོང་	-12529
▁clairvoy	-12530
▁embraced	-12531
▁enjoying	-12532
▁entitled	-12533
▁examined	-12534
▁overwhel	-12535
▁produces	-12536
▁released	-12537
▁ཁྱེད་ཅག་	-12538
▁ཁྱོད་ཀྱི	-12539
་དེ་དག་མི་	-12540
་བཞིན་དུ་བ	-12541
གྱུར་པ་དང་	-12542
མ་ཡིན་ཏེ་་	-12543
འཕང་བ་དང་་	-12544
ར་བྱ་བ་དང་	-12545
རིག་པ་དང་་	-12546
ས་སྤྱི་བོ་	-12547
སྒྲ་དབྱངས་	-12548
▁analogies	-12549
▁contained	-12550
▁disengage	-12551
▁disregard	-12552
▁elsewhere	-12553
▁hundredth	-12554
▁represent	-12555
▁threefold	-12556
▁གྲོགས་པོ་	-12557
▁ཉོན་མོངས་	-12558
▁དེས་ཀྱང་བ	-12559
ཀུན་ནས་དཀྲི	-12560
གཉི་གའི་བར་	-12561
ཆེན་པོ་འདི་	-12562
མི་འཇིགས་པ་	-12563
རྡུལ་ཕྲ་རབ་	-12564
སྟན་ལས་ལངས་	-12565
ུའི་ནོར་དང་	-12566
▁contention	-12567
▁descending	-12568
▁discursive	-12569
▁relatively	-12570
▁respective	-12571
▁ཅི་ནས་ཀྱང་	-12572
་དྲན་པ་རྙེད་	-12573
ཀུན་རྫོབ་ཏུ་	-12574
ནས་རྒྱུན་དུ་	-12575
ཕྱི་བཞིན་འབྲ	-12576
ཙམ་དུ་ཟད་དོ་	-12577
རབ་ཏུ་གནས་པ་	-12578
▁མཐོང་ནས་ཀྱང	-12579
གྲོང་རྡལ་དང་་	-12580
ཉན་ཐོས་ཆེན་པོ	-12581
ལུང་བསྟན་ཏོ་་	-12582
སྟོང་པ་ཉིད་ལ་	-12583
▁construction	-12584
▁འཕགས་པའི་ལམ་	-12585
་དང་བྲལ་བ་དང་་	-12586
ཆོས་སུ་བཏགས་པ་	-12587
ཡང་དེ་བཞིན་དུ་	-12588
རྗེས་སུ་དྲན་པ་	-12589
རྣམ་པར་དག་པའི་	-12590
སྦྱར་ཏེ་རྣམ་པ་	-12591
▁prabhutaratna	-12592
མངོན་པར་ཞེན་པར་	-12593
རྗེས་སུ་བལྟ་བར་	-12594
སྐྱེ་བར་འགྱུར་བ	-12595
ཀུན་འབྱུང་བ་ཤེས་	-12596
ཆེན་པོ་དང་ལྡན་པ་	-12597
ཐམས་ཅད་དང་བྲལ་བ་	-12598
ན་བྱེ་བ་ཁྲག་ཁྲིག	-12599
མྱ་ངན་ལས་འདས་པར་	-12600
འདི་སྙམ་དུ་བསམས་	-12601
རྒྱལ་མཚན་དང་་བ་ད	-12602
sa	-12603
tu	-12604
ཕམ	-12605
erv	-12606
mad	-12607
oos	-12608
rys	-12609
ཁུ་	-12610
ལུ་	-12611
སེམ	-12612
སྣང	-12613
anga	-12614
cond	-12615
inya	-12616
isha	-12617
lets	-12618
ཀ་ར་	-12619
གཤེག	-12620
མང་་	-12621
མཆུ་	-12622
མེར་	-12623
རྒལ་	-12624
ལ་བཏ	-12625
▁ble	-12626
▁sli	-12627
▁tig	-12628
ineya	-12629
right	-12630
rings	-12631
urbed	-12632
་ལའི་	-12633
ཀ་ཏྱ་	-12634
གྲིབ་	-12635
ནི་བད	-12636
མཐའི་	-12637
མི་སྙ	-12638
ཚུལ་འ	-12639
རང་གི	-12640
སྡོང་	-12641
▁cere	-12642
▁རྒྱུ	-12643
endras	-12644
people	-12645
་བྱམས་	-12646
ཀྱེ་མ་	-12647
གིས་ནི	-12648
ཞེ་སྡང	-12649
འབྲལ་བ	-12650
རྨོངས་	-12651
ལ་པིང་	-12652
ལོང་བ་	-12653
སེམས་་	-12654
ོབས་པ་	-12655
▁antid	-12656
▁blade	-12657
▁green	-12658
▁harem	-12659
▁rites	-12660
▁unmis	-12661
▁ཡང་ན་	-12662
estruct	-12663
་དེ་འདྲ	-12664
ང་སང་པོ	-12665
ཅི་འདྲ་	-12666
དག་ཀྱང་	-12667
ན་དུ་བྱ	-12668
ཟད་པའི་	-12669
འདས་ནས་	-12670
ཡི་རངས་	-12671
རྩྭ་དང་	-12672
ལག་པ་གཡ	-12673
ས་བརྒྱ་	-12674
སྡོང་པོ	-12675
སྲོག་ཆག	-12676
▁aksobh	-12677
▁asleep	-12678
▁bestow	-12679
▁danger	-12680
▁dhyana	-12681
▁except	-12682
▁gandha	-12683
▁pillar	-12684
▁rising	-12685
▁sagara	-12686
▁stride	-12687
▁washed	-12688
▁ཐམས་ཅད	-12689
་དཔྱོད་པ	-12690
ཆེན་པོ་ས	-12691
ཐབས་ལ་མཁ	-12692
ཐུན་མོང་	-12693
མི་ཤེས་པ	-12694
ཞེས་བགྱི	-12695
ཟིན་པའི་	-12696
ཟེར་རོ་་	-12697
འཁྲུགས་པ	-12698
འཆལ་པའི་	-12699
འདུག་པར་	-12700
འབྱེད་པ་	-12701
འོད་སྲུང	-12702
རྙེད་པར་	-12703
སུས་ཀྱང་	-12704
སེམས་སུ་	-12705
སོ་སོའི་	-12706
སྟོང་གི་	-12707
▁charnel	-12708
▁disasso	-12709
▁guarded	-12710
▁introdu	-12711
▁natures	-12712
▁papiyan	-12713
▁settled	-12714
▁སྨྲས་པ་	-12715
་དབུལ་པོ་	-12716
་བྱིན་ཏེ་	-12717
ཁམས་རྣམས་	-12718
གང་དང་གང་	-12719
གཅིག་གོ་་	-12720
གཉིས་དང་་	-12721
གདུགས་དང་	-12722
ནད་མེད་པ་	-12723
ནི་དེ་ལྟ་	-12724
མ་ཐབས་དང་	-12725
མཆོག་གིས་	-12726
འབུམ་ཕྲག་	-12727
འི་བྱམས་པ	-12728
རྒྱས་པར་བ	-12729
ཤོས་གསོལ་	-12730
ས་བྱེད་པ་	-12731
ས་སྟན་དེ་	-12732
སྟོང་ཕྲག་	-12733
▁achieves	-12734
▁composed	-12735
▁countrys	-12736
▁earrings	-12737
▁mahabrah	-12738
▁peerless	-12739
▁samadhis	-12740
▁starting	-12741
་བཞིན་གྱི་	-12742
་རྒོད་ཀྱི་	-12743
མ་རིག་པའི་	-12744
འདི་ལྟར་བྱ	-12745
འདེབས་སོ་་	-12746
ར་བྱས་ནས་བ	-12747
རྙེད་པ་དང་	-12748
ལྷོ་ཕྱོགས་	-12749
སྤྱད་པར་བྱ	-12750
▁traversed	-12751
▁བཀའ་སྩལ་པ	-12752
▁བདག་ཀྱང་བ	-12753
ཀྱི་བསྟན་པ་	-12754
གྱུར་ཅིང་་་	-12755
ཅུང་ཟད་ཀྱང་	-12756
ཐབས་ཅིག་ཏུ་	-12757
ཐོགས་པ་དང་་	-12758
ནོར་བུ་དང་་	-12759
ཟག་པ་ཤེས་པ་	-12760
ལོག་པར་ལྟ་བ	-12761
▁benefactor	-12762
▁repeatedly	-12763
▁དགེ་སྦྱོང་	-12764
་དང་་སྐྱེ་བ་	-12765
ན་པར་བྱེད་པ་	-12766
ཕ་རོལ་ཕྱིན་་	-12767
ཕུང་པོའི་རི་	-12768
ཕྱི་མའི་དུས་	-12769
མ་འོངས་པ་དང་	-12770
མེད་ཅེས་བྱ་བ	-12771
ཞེ་ན་འདི་ལྟར	-12772
འཇིགས་པ་དང་་	-12773
རབ་ཏུ་བྱུང་་	-12774
ས་བཀའ་སྩལ་པ་	-12775
▁beautifully	-12776
▁excellently	-12777
▁དེ་ལྟ་བས་ན་	-12778
མེད་པར་འགྱུར་	-12779
སྐྱེད་མོས་ཚལ་	-12780
སྟན་པར་བྱའོ་་	-12781
▁conditioning	-12782
▁gadgadasvara	-12783
▁འཇིག་རྟེན་མག	-12784
་དང་་བསྙེན་བཀུ	-12785
ནས་དབང་བསྐུར་བ	-12786
ཡུན་རིང་པོ་ནས་	-12787
རབ་ཏུ་མཁྱེན་ཏེ	-12788
སྐྱེ་བར་འགྱུར་	-12789
ཕྱི་ཞིག་ན་དེའི་	-12790
སྤྱད་ནས་འཆི་ཀར་	-12791
དཔག་ཏུ་མེད་པ་དག་	-12792
རྣམ་པར་གྲོལ་བའི་	-12793
▁ཐམས་ཅད་མཁྱེན་པ་	-12794
གྷ	-12795
དཀ	-12796
aff	-12797
ode	-12798
zed	-12799
ཁ་ཟ	-12800
ཁྱོ	-12801
ཙི་	-12802
འཛུ	-12803
རིང	-12804
རྣབ	-12805
ཤང་	-12806
▁gi	-12807
acch	-12808
arab	-12809
clam	-12810
oint	-12811
ural	-12812
གཅན་	-12813
ཐལ་བ	-12814
མཐོང	-12815
འབེབ	-12816
རྒན་	-12817
ས་སམ	-12818
སིལ་	-12819
▁alo	-12820
▁asc	-12821
▁log	-12822
▁ran	-12823
▁tun	-12824
▁vip	-12825
▁ལོ་	-12826
aming	-12827
harad	-12828
rious	-12829
world	-12830
གསོ་བ	-12831
གསོག་	-12832
ང་བུ་	-12833
ཏབ་པ་	-12834
མི་དག	-12835
ཚར་བཅ	-12836
འོ་ན་	-12837
རུང་་	-12838
རེ་བ་	-12839
ལྟེང་	-12840
ལྡོག་	-12841
སུའི་	-12842
▁flee	-12843
▁guru	-12844
▁idea	-12845
▁medi	-12846
▁unsk	-12847
▁སླར་	-12848
andhas	-12849
གན་དུ་	-12850
གཟིམས་	-12851
གྲོགས་	-12852
ནས་སྐྱ	-12853
མགུ་ལ་	-12854
མིང་བཏ	-12855
མེད་པར	-12856
ལམ་དང་	-12857
ས་བཅུ་	-12858
སྒོམ་པ	-12859
ོ་བོ་བ	-12860
▁categ	-12861
▁gemst	-12862
▁lands	-12863
▁mired	-12864
▁stick	-12865
▁tears	-12866
▁visit	-12867
▁ཕྱིན་	-12868
ཁྱབ་པར་	-12869
ཕལ་ཆེར་	-12870
ཕོ་བྲང་	-12871
མཚན་མར་	-12872
འི་བྱེ་	-12873
ལམ་དང་་	-12874
ལས་གུད་	-12875
ུགས་པར་	-12876
ུས་ཀྱང་	-12877
ོག་དང་་	-12878
▁exceed	-12879
▁finger	-12880
▁gnosis	-12881
▁groves	-12882
▁hunger	-12883
▁needed	-12884
▁relief	-12885
▁smooth	-12886
▁summer	-12887
▁suvarn	-12888
▁widely	-12889
▁ཀ་ཤི་ཀ	-12890
▁གང་ཚེ་	-12891
▁བདེན་པ	-12892
aundinya	-12893
oduction	-12894
་དྲུག་ལ་	-12895
་པར་བྱས་	-12896
་བདེ་བར་	-12897
ཀ་ལ་པིང་	-12898
ཀོད་དོ་་	-12899
ཀྱི་དྲི་	-12900
ཀྱིས་སྤྲ	-12901
གཉིས་པོ་	-12902
གཏོགས་པ་	-12903
གཟུགས་བཟ	-12904
གཟུང་བར་	-12905
གསེར་གྱི	-12906
ད་འཚོང་མ	-12907
ན་དང་པོ་	-12908
ན་བ་དང་་	-12909
མཛད་པའི་	-12910
མི་སྐྱེ་	-12911
འབར་ཞིང་	-12912
རོལ་པའི་	-12913
རྒྱལ་རིག	-12914
ལྷགས་ནས་	-12915
སྔོན་པོ་	-12916
སྤོས་དང་	-12917
▁avarice	-12918
▁engages	-12919
▁flavors	-12920
▁pisacas	-12921
▁predict	-12922
▁proclam	-12923
▁profund	-12924
▁showing	-12925
▁started	-12926
▁ཀྱེ་མ་བ	-12927
་དོན་གྱི་	-12928
་སྦྱིན་པ་	-12929
ཀྱང་དེའི་	-12930
གཟིགས་ཏེ་	-12931
ཉི་ཤུ་རྩ་	-12932
མི་དགེ་བ་	-12933
མེད་ཅིང་བ	-12934
ཚན་པོ་ཆེ་	-12935
འཐོབ་བོ་་	-12936
འདི་སྙེད་	-12937
ཡིན་ཞིང་་	-12938
ར་བགྱིད་པ	-12939
▁embarked	-12940
▁formerly	-12941
▁outshine	-12942
▁scrutiny	-12943
▁unguents	-12944
▁དེ་བས་ན་	-12945
་དབང་པོའི་	-12946
་བརྗེད་ངས་	-12947
་བྱུང་ངོ་་	-12948
ཀུན་གྱིས་བ	-12949
ཁམས་བདེ་བ་	-12950
ང་བར་གྱུར་	-12951
ཆོས་བཞི་པོ	-12952
དུད་སྡིག་ཅ	-12953
ན་གཅིག་གམ་	-12954
ནི་ངོ་མཚར་	-12955
ཕན་ཚུན་དུ་	-12956
འགྱུར་ཏེ་་	-12957
འདོད་པ་དང་	-12958
རྣམ་པ་དང་་	-12959
▁belonging	-12960
▁calculate	-12961
▁execution	-12962
▁mandarava	-12963
▁ourselves	-12964
▁persevere	-12965
▁sprinkled	-12966
▁uncreated	-12967
▁upholding	-12968
▁རྐང་གཉིས་	-12969
▁རྒྱལ་བའི་	-12970
estructible	-12971
ན་དང་ལྡན་པ་	-12972
མོས་པ་དུ་མ་	-12973
ཡན་ལག་བདུན་	-12974
ཡུན་རིང་དུ་	-12975
ཤིང་ལྗོན་པ་	-12976
སྐྱེ་བ་དང་་	-12977
སྙིང་བརྩེ་བ	-12978
སྤྱོད་པ་ལས་	-12979
▁controlled	-12980
▁illuminate	-12981
▁multitudes	-12982
▁sarvarthas	-12983
▁translated	-12984
▁unmistaken	-12985
་དང་བྲལ་ཞིང་	-12986
་དེས་སྨྲས་པ་	-12987
་སྟོང་པ་ཉིད་	-12988
ན་པའི་ཕྱིར་བ	-12989
འཇིག་རྟེན་མག	-12990
འི་དབང་ཕྱུག་	-12991
ར་བྱེད་པ་དང་	-12992
རིག་པར་བྱའོ་	-12993
▁illusionist	-12994
▁manifesting	-12995
▁བཙུན་པ་བདག་	-12996
▁རྒྱ་གར་གྱི་	-12997
མེ་ཏོག་གི་ཆར་	-12998
མེ་ཏོག་དང་་བད	-12999
▁disintegrate	-13000
་བདེན་གྱི་གཞན་	-13001
ཉེ་བར་ལེན་པའི་	-13002
ཚོང་དཔོན་གྱི་བ	-13003
འཁོར་དང་བཅས་པ་	-13004
རབ་ཏུ་ཤེས་སོ་་	-13005
སྟན་ལས་ལངས་ཏེ་	-13006
▁disengagement	-13007
ཀྱང་བླ་ན་མེད་པ་	-13008
ན་གྱི་དབང་ཕྱུག་	-13009
རྣམ་པར་བྱང་བའི་	-13010
ལྷག་པའི་ང་རྒྱལ་	-13011
སྐྱིལ་མོ་ཀྲུང་བ	-13012
སྐྱེ་བོའི་ཚོགས་	-13013
▁indestructible	-13014
▁ཀུན་རྫོབ་ཏུ་ན་	-13015
▁དེ་ནས་དེའི་ཚེ་	-13016
གཉི་གའི་བར་ན་ཡང་	-13017
མཚན་ཉིད་མེད་པའི་	-13018
ཡོངས་སུ་རྫོགས་པ་	-13019
རིན་པོ་ཆེ་སྣ་བདུ	-13020
རྣམ་པར་ཤེས་པ་ནི་	-13021
ེའ	-13022
ocr	-13023
rol	-13024
rue	-13025
ཚལ་	-13026
ཨེ་	-13027
▁དམ	-13028
▁ལུ	-13029
ades	-13030
anab	-13031
keys	-13032
onic	-13033
peci	-13034
vana	-13035
ཀོད་	-13036
ཐུག་	-13037
ན་གཡ	-13038
མིར་	-13039
འམ་་	-13040
▁cho	-13041
▁lok	-13042
▁mad	-13043
▁tur	-13044
cured	-13045
estro	-13046
iddha	-13047
ourne	-13048
ག་ལས་	-13049
གཅོད་	-13050
གསང་བ	-13051
ངོམས་	-13052
ནི་དག	-13053
མ་པོ་	-13054
ཚོང་པ	-13055
ཞུས་པ	-13056
ལྷུར་	-13057
▁asok	-13058
▁disk	-13059
▁diss	-13060
▁grad	-13061
▁herm	-13062
▁meat	-13063
▁ride	-13064
▁ཐོས་	-13065
▁བློ་	-13066
ananda	-13067
ateful	-13068
avored	-13069
japati	-13070
utable	-13071
ང་གིས་	-13072
ང་ཞིང་	-13073
བ་ཅིང་	-13074
ཞལ་ཟས་	-13075
འབུལ་བ	-13076
འཛིན་་	-13077
རྟེན་པ	-13078
ལྷའི་བ	-13079
ས་སམ་བ	-13080
སྦྱངས་	-13081
ོད་དང་	-13082
▁atoms	-13083
▁brave	-13084
▁domin	-13085
▁grief	-13086
▁neigh	-13087
▁rains	-13088
▁range	-13089
▁sides	-13090
▁tames	-13091
▁venom	-13092
▁worth	-13093
▁འདིར་	-13094
་དེ་ཉིད	-13095
་བྱ་བར་	-13096
་བྱིས་པ	-13097
ཀ་ཏྱ་ཡ་	-13098
གནས་སམ་	-13099
མི་བཟད་	-13100
མྱུར་དུ	-13101
ཡིད་ལ་བ	-13102
ར་བཅུག་	-13103
སེར་པོ་	-13104
སྣང་བར་	-13105
ོན་ཏོ་་	-13106
ོན་པོ་བ	-13107
▁bathed	-13108
▁doctor	-13109
▁especi	-13110
▁gazing	-13111
▁highly	-13112
▁honest	-13113
▁journe	-13114
▁passes	-13115
▁propag	-13116
▁scents	-13117
▁tusita	-13118
▁ཐུབ་པ་	-13119
་དམར་པོ་	-13120
་དེ་ཡང་བ	-13121
་བདག་པོ་	-13122
་བསྒྱུར་	-13123
ག་པ་བཞི་	-13124
ནམས་ཀྱང་	-13125
ཕྱིར་ནི་	-13126
མཁན་གྱི་	-13127
མི་འདོད་	-13128
འདུལ་བར་	-13129
ཡུན་རིང་	-13130
རྐང་པའི་	-13131
སྐྱོད་པ་	-13132
▁anguish	-13133
▁bandits	-13134
▁forbear	-13135
▁heavens	-13136
▁indulge	-13137
▁jeweled	-13138
▁setting	-13139
▁subdued	-13140
་དང་་སྐྱེ	-13141
་བྱེད་པ་་	-13142
ཁྱེད་ཀྱི་	-13143
མཆོག་དང་་	-13144
མཐོང་ནས་་	-13145
འགྲོ་ཞིང་	-13146
ལ་དམིགས་པ	-13147
▁assented	-13148
▁brothers	-13149
▁concerns	-13150
▁ideation	-13151
▁trembled	-13152
▁དེ་དག་ལ་	-13153
་དང་བདེ་བ་	-13154
་བདག་གིས་བ	-13155
གནས་པའི་བར	-13156
ཆེན་པོ་དེ་	-13157
ཆོས་ཀྱི་གཏ	-13158
ཉིན་མཚན་དུ	-13159
ཐུན་མོང་དུ	-13160
ན་པར་བྱ་བ་	-13161
ཞོན་པ་དང་་	-13162
ས་སྤྲུལ་པ་	-13163
སྟན་པ་འདི་	-13164
▁affection	-13165
▁appointed	-13166
▁blissgone	-13167
▁deception	-13168
▁mahendras	-13169
▁prominent	-13170
▁therefrom	-13171
མི་འགྱུར་ལ་	-13172
ས་དེ་དག་གི་	-13173
▁astonished	-13174
▁especially	-13175
▁immeasurab	-13176
▁successive	-13177
ཀྱི་རྒྱལ་པོ་	-13178
ཁྱིམ་མེད་པར་	-13179
གཏན་ལ་ཕབ་པ་་	-13180
ཉོན་ལ་ཡིད་ལ་	-13181
ནང་དུ་ཡང་དག་	-13182
ཡང་དང་ཡང་དུ་	-13183
ཡོད་ཅེས་བྱ་བ	-13184
ར་འགྱུར་བའི་	-13185
སྐྱོན་མེད་པ་	-13186
སྤྱོད་ཡུལ་བ་	-13187
▁conceptions	-13188
▁consecrated	-13189
▁གྲོགས་པོ་དག	-13190
་དང་་སྐྱེ་བོ་	-13191
་དང་ལྡན་པས་བྱ	-13192
་དྲི་མ་མེད་པ་	-13193
ཀླུའི་རྒྱལ་པོ	-13194
ཁོང་དུ་ཆུད་པ་	-13195
ཉིན་དུས་གསུམ་	-13196
མྱ་ངན་དང་་སྨྲ	-13197
རྣམ་པ་ཐམས་ཅད་	-13198
ས་པར་གྱུར་ཏོ་	-13199
▁miraculously	-13200
▁relinquished	-13201
▁ཏིང་ངེ་འཛིན་	-13202
འདོད་པ་རྣམས་ལ་	-13203
ལྟར་མི་བལྟ་སྟེ	-13204
ུང་བ་ནས་བསྐལ་པ	-13205
▁inappropriate	-13206
་དེ་དེ་བཞིན་ཏེ་	-13207
ཁམས་དང་་མིག་གི་	-13208
ཆེན་པོ་སང་སང་པོ	-13209
ཉིན་དུས་གསུམ་མཚ	-13210
རྒྱ་མཚོ་ཆེན་པོ་	-13211
རྣམ་གྲངས་དེས་ན་	-13212
སྙམ་དུ་མི་སེམས་	-13213
ྱིན་གྱིས་བརླབས་	-13214
▁fearlessnesses	-13215
▁pratyekabuddha	-13216
▁transgressions	-13217
་དང་་དེ་བཞིན་དུ་	-13218
ཀྱི་དེ་བཞིན་ཉིད་	-13219
ང་ཆུབ་སེམས་དཔའ་བ	-13220
མི་བགྱི་ལགས་སོ་་	-13221
ཡིད་དུ་མི་འོང་བ་	-13222
རྨད་དུ་བྱུང་བའི་	-13223
སྐྱེ་བོ་ཕལ་པོ་ཆེ	-13224
▁པད་མའི་དཔལ་གྱི་	-13225
hu	-13226
ཏོ	-13227
idd	-13228
iet	-13229
ots	-13230
uce	-13231
་བོ	-13232
ཙལ་	-13233
mend	-13234
ndas	-13235
tion	-13236
ཚང་བ	-13237
ཚེར་	-13238
རུམ་	-13239
ལན་བ	-13240
སེན་	-13241
ེའུ་	-13242
▁hyp	-13243
▁དམི	-13244
▁རྒྱ	-13245
ading	-13246
aketu	-13247
entic	-13248
isara	-13249
isive	-13250
izens	-13251
་དབུ་	-13252
་རིན་	-13253
་སྦྱོ	-13254
ཁྲུང་	-13255
ཁྲེལ་	-13256
གདགས་	-13257
ཏ་རེ་	-13258
ནག་པོ	-13259
ཕངས་པ	-13260
ཟུང་་	-13261
ཡོལ་བ	-13262
ལྡང་བ	-13263
ལྡན་བ	-13264
སྒུར་	-13265
སྨྲས་	-13266
ོན་དུ	-13267
▁cant	-13268
▁exhi	-13269
▁fish	-13270
▁ghos	-13271
▁goal	-13272
▁harv	-13273
▁immo	-13274
▁jnan	-13275
▁soul	-13276
▁ཁྱོད	-13277
attvap	-13278
ullied	-13279
yadars	-13280
་དྲོ་ཤ	-13281
་སྙིང་	-13282
་སྣའི་	-13283
ཀྱི་བྱ	-13284
ག་ཅིང་	-13285
ཆ་དང་་	-13286
ཕྱི་རོ	-13287
མཆོག་བ	-13288
ཟ་ཞིང་	-13289
ར་བདག་	-13290
རི་བོ་	-13291
ལྟ་བས་	-13292
སློབ་པ	-13293
ོམས་པ་	-13294
▁agent	-13295
▁ahead	-13296
▁allow	-13297
▁eaten	-13298
▁relie	-13299
▁shown	-13300
▁tenth	-13301
▁trunk	-13302
▁untou	-13303
▁vital	-13304
fferent	-13305
ཀུན་ལས་	-13306
གདུང་བ་	-13307
གྱུར་ཏེ	-13308
ཆུ་བུར་	-13309
མེ་ལོང་	-13310
མེད་པའི	-13311
ཡ་སྭ་ཧ་	-13312
ཡོད་པས་	-13313
རང་གིས་	-13314
ལ་དེའི་	-13315
ལས་གཞན་	-13316
ས་བོན་བ	-13317
ས་སྒྲུབ	-13318
▁hypocr	-13319
▁remedy	-13320
▁social	-13321
་དེ་ལ་བྱ	-13322
་བསགས་པ་	-13323
ཅིག་དང་་	-13324
དབང་ཕྱུག	-13325
ནོར་བུ་བ	-13326
འཁོར་དུ་	-13327
འཕོས་ནས་	-13328
ལམ་གྱིས་	-13329
ལས་རྣམས་	-13330
ཤིང་དང་་	-13331
སྐྱེས་ཏེ	-13332
སྟེན་པར་	-13333
སྲུང་བར་	-13334
ུ་མོ་དེ་	-13335
ྱིས་པའི་	-13336
▁arrayed	-13337
▁baskets	-13338
▁ceremon	-13339
▁cuckoos	-13340
▁deliver	-13341
▁earnest	-13342
▁recites	-13343
▁refined	-13344
▁unconta	-13345
▁བུད་མེད	-13346
▁སྡིག་པ་	-13347
ulterated	-13348
་བདུད་རྩི	-13349
་བསྐྱེད་པ	-13350
་བྱས་ནས་་	-13351
་སྐྱེ་བོ་	-13352
ངན་འགྲོར་	-13353
ཆེ་བ་དང་་	-13354
ཐེག་པ་རབ་	-13355
ན་གཞན་དག་	-13356
ནི་བརྫུན་	-13357
ཕ་རོལ་དུ་	-13358
ཚིགས་བཅད་	-13359
འོད་མའི་ཚ	-13360
ཡིན་པས་ན་	-13361
རྣལ་འབྱོར	-13362
ས་སྲིད་པ་	-13363
སྡེ་དཔོན་	-13364
▁colorful	-13365
▁fixation	-13366
▁inclined	-13367
▁kingdoms	-13368
▁morality	-13369
▁obscured	-13370
▁princely	-13371
▁quarrels	-13372
▁upasikas	-13373
་པར་གྱུར་་	-13374
གཉིས་པའོ་་	-13375
མ་སྐྱེས་པ་	-13376
མཆོད་སྡོང་	-13377
འགྲུབ་པ་དེ	-13378
ཡི་གེར་བྲི	-13379
ཡོངས་སུ་མ་	-13380
ར་བཅས་པའི་	-13381
ལུང་དུ་མ་བ	-13382
ལྔ་བརྒྱ་པོ	-13383
ས་དེ་དག་ལ་	-13384
▁dualistic	-13385
▁forsaking	-13386
▁meditated	-13387
▁novitiate	-13388
▁particles	-13389
▁providing	-13390
▁rejoicing	-13391
▁respected	-13392
▁strongman	-13393
▁unstained	-13394
▁unsullied	-13395
་དགེ་སློང་མ	-13396
་དམིགས་པའི་	-13397
་བཟོད་པ་དང་	-13398
ཆུང་མ་བླངས་	-13399
ཆེན་པོ་བཞི་	-13400
ནི་བདག་གིས་	-13401
འི་དེ་བཞིན་	-13402
ལ་མངོན་པར་བ	-13403
ལས་སྐྱེས་པ་	-13404
ས་དྲང་སྲོང་	-13405
སྟོན་པ་དང་་	-13406
▁commitment	-13407
▁liberative	-13408
▁nightthree	-13409
▁recipients	-13410
▁unobscured	-13411
་བར་འདོད་པས་	-13412
གནས་གཙང་མའི་	-13413
ནས་བྱུང་སྟེ་	-13414
ཞེས་བགྱི་བར་	-13415
འི་བར་དུའོ་་	-13416
ར་བྱེད་ཅེ་ན་	-13417
ེ་བ་ཁྲག་ཁྲིག	-13418
▁distinctive	-13419
▁transferred	-13420
་ད་ལྟར་བྱུང་བ	-13421
་པ་དང་གུས་པར་	-13422
ཁོ་ན་བཞིན་དུ་	-13423
མཆོད་ཅིང་རྗེད	-13424
མཐོ་རིས་དང་ཐར	-13425
ཡི་གེར་འདྲིར་	-13426
རབ་ཏུ་བྱུང་་་	-13427
རྣམ་པར་རིག་པ་	-13428
རྨི་ལམ་ལྟ་བུ་	-13429
སྔོན་གྱི་མཐའ་	-13430
▁accomplishes	-13431
▁incantations	-13432
▁practitioner	-13433
་དུ་བགྱིས་ལགས་	-13434
་བསླབ་པའི་གཞི་	-13435
་བྱང་ཆུབ་དམ་པ་	-13436
ཉིན་མཚན་དུས་དྲ	-13437
མཉན་དུ་ཡོད་པར་	-13438
▁conceptualize	-13439
▁རབ་འབྱོར་འདི་	-13440
ཉིད་དང་ལྡན་པའི་	-13441
ཐམས་ཅད་དང་བྲལ་བ	-13442
ན་དུས་གསུམ་སྟེ་	-13443
མྱ་ངན་ལས་འདའ་བ་	-13444
འི་དེ་བཞིན་ཉིད་	-13445
ཡེ་ཤེས་གཟིགས་པ་	-13446
ར་འགྱུར་རོ་ཞེས་	-13447
རྗེས་སུ་ཡི་རང་བ	-13448
▁uncontaminated	-13449
་དམ་པའི་ཆོས་པད་མ	-13450
་པད་མའི་དཔལ་གྱི་	-13451
ཟིལ་གྱིས་མནན་ནས་	-13452
འཕགས་པའི་བདེན་པ་	-13453
རྫོགས་པར་བྱས་ཏེ་	-13454
ནམ	-13455
lim	-13456
see	-13457
ཁམ་	-13458
ག་བ	-13459
ཐོ་	-13460
ཙ་ལ	-13461
▁ju	-13462
▁mr	-13463
▁མཚ	-13464
ambi	-13465
avan	-13466
deva	-13467
orms	-13468
pair	-13469
ངེད་	-13470
ཐུང་	-13471
ཕུད་	-13472
བས་བ	-13473
འབའ་	-13474
▁adh	-13475
▁ate	-13476
▁fou	-13477
▁jal	-13478
▁obl	-13479
▁soc	-13480
▁yas	-13481
▁ནད་	-13482
alled	-13483
night	-13484
གཟུང་	-13485
གཡེར་	-13486
གོས་པ	-13487
ཉེ་དུ	-13488
ཏ་ལ་བ	-13489
དེའི་	-13490
ན་ཏེ་	-13491
མི་གཟ	-13492
ཞིའི་	-13493
▁bark	-13494
▁dies	-13495
▁eleg	-13496
▁nand	-13497
▁panc	-13498
▁quad	-13499
▁དགའ་	-13500
▁དོན་	-13501
boring	-13502
imable	-13503
urable	-13504
་དབྱར་	-13505
་བཟའ་བ	-13506
ཐར་བར་	-13507
ནྱ་གྲོ	-13508
ཕ་མ་ལ་	-13509
མཛེས་་	-13510
འགྱེད་	-13511
རྒྱ་རྩ	-13512
ལག་པ་བ	-13513
ཤཀྱའི་	-13514
▁acted	-13515
▁burst	-13516
▁coins	-13517
▁illum	-13518
▁incur	-13519
▁wound	-13520
▁ཁ་དོག	-13521
▁ཁྱིམ་	-13522
▁འཁོར་	-13523
་བསགས་པ	-13524
གཅིག་པུ	-13525
གནས་ངན་	-13526
གསུམ་ལ་	-13527
གྲོད་པ་	-13528
ངན་པའི་	-13529
མཆིའོ་་	-13530
མར་དང་་	-13531
མེ་ལྕེ་	-13532
ཞུས་ཏེ་	-13533
རིན་ཐང་	-13534
རྟོགས་་	-13535
ལས་བྱས་	-13536
ས་དེ་དག	-13537
སྒོ་ནས་	-13538
▁bodily	-13539
▁bowing	-13540
▁captiv	-13541
▁devote	-13542
▁handed	-13543
▁lovely	-13544
▁midday	-13545
▁raised	-13546
▁righte	-13547
▁sudden	-13548
▁timely	-13549
▁བསམ་པ་	-13550
▁མེ་ཏོག	-13551
▁ཡང་དག་	-13552
་དང་བྲལ་	-13553
ཆོས་སུམ་	-13554
མ་ཡིན་ཏེ	-13555
ཚིམ་ཞིང་	-13556
འདུག་གོ་	-13557
ར་བྱས་ན་	-13558
རྒྱ་ཆེན་	-13559
ལག་མཐིལ་	-13560
ལན་གསུམ་	-13561
ས་བཟོད་པ	-13562
སྣང་བའི་	-13563
ྱིན་ནོ་་	-13564
▁abstain	-13565
▁courtes	-13566
▁despair	-13567
▁dispute	-13568
▁happily	-13569
▁kaineya	-13570
▁painful	-13571
▁pertain	-13572
▁reproof	-13573
▁scatter	-13574
▁seventy	-13575
▁བྱིས་པ་	-13576
▁མིག་གི་	-13577
▁སྦྱིན་པ	-13578
་དེ་སྙེད་	-13579
་བསྒྱུར་བ	-13580
ཀྱིས་བདག་	-13581
གྱུར་པ་བྱ	-13582
མ་གཏོགས་པ	-13583
འགྲོ་སྟེ་	-13584
འི་ཚོར་བ་	-13585
ཡང་རབ་ཏུ་	-13586
ཡོད་པ་དང་	-13587
ར་བགྱི་བ་	-13588
ར་བྱང་ཆུབ	-13589
རྐྱེན་ནི་	-13590
རྒྱུ་དང་་	-13591
རྣབ་སེམས་	-13592
ལ་སོ་སོར་	-13593
སོང་བ་ལས་	-13594
སྡོམ་པ་གང	-13595
སྤྱད་པའི་	-13596
སྦྱོར་མི་	-13597
▁aksobhya	-13598
▁canopies	-13599
▁drinking	-13600
▁kausambi	-13601
▁knowable	-13602
▁quantity	-13603
▁renounce	-13604
▁sleeping	-13605
▁transfer	-13606
▁upasakas	-13607
་དེ་ལྟར་ན་	-13608
མཐའ་ཡས་མུ་	-13609
མོས་པ་དང་་	-13610
ལ་མངོན་དུ་	-13611
ལམ་སྟོན་པ་	-13612
ལེའུ་སྟེ་བ	-13613
ཤིན་ཏུ་མི་	-13614
ས་ཡོངས་སུ་	-13615
ས་སྨྲས་པ་་	-13616
སྙེན་བཀུར་	-13617
▁bimbisara	-13618
▁concerned	-13619
▁faultless	-13620
▁viradatta	-13621
▁དེ་ལྟ་བས་	-13622
▁རྒྱུན་དུ་	-13623
་བདེ་གཤེགས་	-13624
གདན་བཤམས་པ་	-13625
ན་པ་འདི་ནི་	-13626
ནི་བྱང་ཆུབ་	-13627
ཕྱིན་པ་དང་་	-13628
མཆོད་པ་དང་་	-13629
མཚོན་གྱིས་བ	-13630
འི་བདག་ཉིད་	-13631
རྣམ་པ་མང་པོ	-13632
རྣམ་པར་འཇིག	-13633
ལྷ་རྣམས་དང་	-13634
▁discovered	-13635
▁ornamented	-13636
▁thousandth	-13637
་དགེ་སློང་མ་	-13638
ཀུན་དགའ་ར་བ་	-13639
ཇི་སྙེད་ཅིག་	-13640
ཉིད་རྗེས་སུ་	-13641
ནི་སངས་རྒྱས་	-13642
མི་དམིགས་སོ་	-13643
ཚངས་པ་ཆེན་པོ	-13644
▁acquisition	-13645
▁naksatraraj	-13646
གཡུང་དྲུང་གི་	-13647
ཇི་སྙེད་ཡོད་པ	-13648
མི་འགྱུར་ཏེ་་	-13649
མེད་ཅིང་དྲི་མ	-13650
མྱ་ངན་ལས་འདས་	-13651
ཡུལ་འཁོར་དང་་	-13652
ལག་ན་རྡོ་རྗེ་	-13653
ལེའུ་ཞེས་བྱ་བ	-13654
ལྟ་བར་གྱུར་པ་	-13655
ས་མི་འཇིགས་པ་	-13656
ས་ལ་བཙུགས་ཏེ་	-13657
སྦྱར་ཏེ་རྒ་ཤི	-13658
▁bewilderment	-13659
▁disassociate	-13660
ནི་མིང་ཙམ་སྟེ་	-13661
མིང་དེ་དག་ཀྱང་	-13662
ཡོ་བྱད་ཐམས་ཅད་	-13663
རྣམ་པར་འཇིག་པ་	-13664
་དཔེར་ན་ནམ་མཁའ་	-13665
་བརྒྱད་ལ་བསམ་གཏ	-13666
ན་པ་ལ་སྤྱོད་པས་	-13667
ཟིལ་གྱིས་གནོན་པ	-13668
རྫུ་འཕྲུལ་གྱིས་	-13669
▁ཉན་ཐོས་དང་་རང་	-13670
་བཅོམ་ལྡན་འདས་ལ་	-13671
ཀྱིས་བཀའ་སྩལ་པ་་	-13672
ཐམས་ཅད་ཡང་དག་པར་	-13673
ཚུར་ཤོག་ཅེས་བྱ་བ	-13674
ཡང་དག་པར་ཞུགས་པ་	-13675
ཡོངས་སུ་སྨིན་པར་	-13676
ཡོན་ཏན་གྱི་ཚོགས་	-13677
རྣམ་པར་ཐར་པ་དང་་	-13678
ལས་རྣམ་པར་གྲོལ་བ	-13679
སྒྲ་དང་་དྲི་དང་་	-13680
▁སྲེད་མེད་ཀྱི་བུ	-13681
wl	-13682
▁z	-13683
ads	-13684
air	-13685
bhu	-13686
occ	-13687
ulg	-13688
ངང་	-13689
མཛའ	-13690
ཙཎྜ	-13691
ཟན་	-13692
▁ga	-13693
▁སྔ	-13694
▁ཨ་	-13695
hala	-13696
་པདྨ	-13697
ན་བ་	-13698
མ་རྐ	-13699
མར་བ	-13700
མི་ཁ	-13701
འཆར་	-13702
རངས་	-13703
རློབ	-13704
ལོན་	-13705
ལྟ་་	-13706
ས་བད	-13707
▁der	-13708
▁jiv	-13709
▁lat	-13710
▁shr	-13711
▁vag	-13712
▁web	-13713
▁བཞི	-13714
andha	-13715
ience	-13716
strue	-13717
uries	-13718
་དཀར་	-13719
་དམ་་	-13720
་བླ་མ	-13721
ཁོ་ར་	-13722
གདོང་	-13723
ཆར་པ་	-13724
ཕྱུར་	-13725
མགུལ་	-13726
ཚུགས་	-13727
ས་ན་་	-13728
▁aims	-13729
▁cush	-13730
▁keen	-13731
▁roof	-13732
▁weep	-13733
ciated	-13734
erated	-13735
idated	-13736
ཀའ་མཆི	-13737
གང་ཞིག	-13738
ཐ་དད་པ	-13739
ཐོས་ན་	-13740
ནམ་མཁའ	-13741
མ་མཛད་	-13742
ཞེ་ན་་	-13743
འབེབས་	-13744
འབྱོར་	-13745
འི་ཚུལ	-13746
ཡང་མེད	-13747
ཡོད་ལ་	-13748
ལག་པས་	-13749
ས་སློབ	-13750
ིགས་པ་	-13751
ེར་སྣ་	-13752
ོད་དོ་	-13753
▁aroma	-13754
▁chest	-13755
▁cries	-13756
▁feels	-13757
▁nonab	-13758
▁quadr	-13759
▁ruler	-13760
▁ཆོས་བ	-13761
▁རྒྱལ་	-13762
་བསྔགས་	-13763
་སྤོང་བ	-13764
གཟིགས་པ	-13765
ཐོག་མར་	-13766
ནི་ཆོས་	-13767
མ་པའི་བ	-13768
མཁྱེན་་	-13769
མངལ་དུ་	-13770
ཙམ་གྱི་	-13771
ཟབ་ཅིང་	-13772
འཕེལ་བ་	-13773
འཛམ་བུ་	-13774
རྙེད་མི	-13775
ལྡན་པས་	-13776
ས་སྣང་བ	-13777
སྐུར་པ་	-13778
སྲུང་བ་	-13779
ུས་ལོང་	-13780
▁announ	-13781
▁excess	-13782
▁facing	-13783
▁prabha	-13784
▁reliqu	-13785
▁ruling	-13786
▁savior	-13787
▁stages	-13788
▁suited	-13789
▁youths	-13790
▁ཐེག་པ་	-13791
་བརྗོད་པ	-13792
ཀྱི་དབྱི	-13793
གྱེན་དུ་	-13794
དེ་བྱེད་	-13795
མཉམ་ཞིང་	-13796
མི་དགའ་བ	-13797
མི་ཟད་པ་	-13798
ཞེས་མིང་	-13799
འདི་སྐད་	-13800
འདོད་དེ་	-13801
འཚོ་བའི་	-13802
ཡངས་པའི་	-13803
རྒྱལ་མོ་	-13804
རྣམས་མི་	-13805
སྐོར་ཏེ་	-13806
ེ་སློང་བ	-13807
▁calling	-13808
▁dharmad	-13809
▁dispens	-13810
▁harvest	-13811
▁modesty	-13812
▁noticed	-13813
▁novices	-13814
▁resides	-13815
▁tremend	-13816
▁དེ་ལ་བྱ	-13817
▁བདག་དང་	-13818
▁བཟོད་པ་	-13819
▁ལུས་དང་	-13820
▁སྟོན་པ་	-13821
་དགོན་པར་	-13822
་དབང་ཆེན་	-13823
་དེ་ཕྱིར་	-13824
་སྙིང་པོ་	-13825
གྲོང་ཁྱེར	-13826
ཉིས་བརྒྱ་	-13827
ཐམས་ཅད་དུ	-13828
ཕོངས་ཤིང་	-13829
ཡིད་མི་ཆེ	-13830
རིམ་གྱིས་	-13831
རྣམ་པར་གན	-13832
ལས་འདས་པ་	-13833
ལས་ཤེས་པ་	-13834
སྦྱིན་པར་	-13835
ོལ་བ་དང་་	-13836
▁arriving	-13837
▁extremes	-13838
▁meanings	-13839
▁preacher	-13840
▁treasury	-13841
▁འདུ་ཤེས་	-13842
གཙུག་ལག་ཁང	-13843
ན་དང་ལྡན་པ	-13844
ན་བདག་གིས་	-13845
མཚུངས་སོ་་	-13846
ལ་བུ་གཡེར་	-13847
སྟོབས་དང་་	-13848
▁attendant	-13849
▁clarified	-13850
▁fashioned	-13851
▁gradually	-13852
▁hardships	-13853
▁hermitage	-13854
▁liberates	-13855
▁renounced	-13856
▁slightest	-13857
▁དེ་ལྟར་བྱ	-13858
▁བཟོད་པའི་	-13859
▁འཕགས་པའི་	-13860
་དགྲ་བཅོམ་པ	-13861
་དེ་ནི་གནས་	-13862
་བྱེད་ཅིང་་	-13863
་བྱེད་པ་དང་	-13864
ཀུན་ཏུ་ཤེས་	-13865
ཀུན་འབྱུང་བ	-13866
གཟུང་བ་དང་་	-13867
ཉིད་ཀྱི་བར་	-13868
མཁས་པའི་བར་	-13869
ཚིག་བླ་དགས་	-13870
ཞུ་ཆེན་གྱི་	-13871
ཞུགས་པ་དང་་	-13872
འཁོར་བཞི་པོ	-13873
རང་བཞིན་ནི་	-13874
སམ་གཏན་གྱི་	-13875
སེམས་ཅན་གྱི	-13876
▁extremists	-13877
▁kumbhandas	-13878
▁misfortune	-13879
▁profundity	-13880
▁resembling	-13881
▁scriptural	-13882
▁དེའི་ཚེ་བྱ	-13883
་དང་་སངས་རྒྱ	-13884
་དེ་ཉོན་ཅིག་	-13885
ཁམས་སྣ་ཚོགས་	-13886
ཁྲི་བཞི་སྟོང	-13887
ཅི་ཡང་མ་ཐོབ་	-13888
ནི་བསོད་ནམས་	-13889
མུ་སྟེགས་ཅན་	-13890
ཞེས་སྨྲས་ནས་	-13891
འཁོར་བ་འཇིག་	-13892
ཡོངས་སུ་འདྲི	-13893
རིག་པར་བྱ་བ་	-13894
ལ་བ་དང་་དུད་	-13895
▁cakravartin	-13896
▁countryside	-13897
▁inhabitants	-13898
▁བདག་ཅག་གིས་	-13899
ཀྱི་དབང་པོའི་	-13900
ངོ་བོ་ཉིད་ཀྱི	-13901
ཐམས་ཅད་དུ་ཡང་	-13902
ནི་འཇིག་རྟེན་	-13903
རྗེས་སུ་དྲན་པ	-13904
ཤེས་པར་གྱིས་་	-13905
གཟུགས་ཀྱི་ཁམས་	-13906
ནས་སྟན་ལས་ལངས་	-13907
ཞེ་ན་རབ་འབྱོར་	-13908
ར་བགྱིད་པ་དང་་	-13909
ར་བྱའོ་སྙམ་ནས་	-13910
རྒྱལ་པོ་ཆེན་པོ	-13911
རྣམ་གྲངས་འདིས་	-13912
ས་བྱང་ཆུབ་ཀྱི་	-13913
སྐྱོན་མེད་པ་ལ་	-13914
སྙིང་བརྩེ་བའི་	-13915
▁contemplating	-13916
▁knowledgeable	-13917
▁ཆོས་རྣམས་ཀྱི་	-13918
ཅོམ་ལྡན་འདས་དེ་	-13919
ཞེས་བརྗོད་པ་དང་	-13920
འདི་ཉིད་ཡིན་ཏེ་	-13921
རྣམ་པར་དག་པའོ་་	-13922
ཤུགས་མཉམ་པ་དང་་	-13923
ེ་བར་གཤེགས་པའི་	-13924
▁དྲི་མ་མེད་པའི་	-13925
་དེའི་ཕ་རོལ་གྱི་	-13926
་སྨོན་པ་མེད་པའི་	-13927
ཉོན་ལ་ཡིད་ལ་ཟུང་	-13928
མཛད་པ་མཉམ་པ་དང་་	-13929
འདི་དག་སྨྲས་སོ་་	-13930
འབྱུང་བར་འགྱུར་་	-13931
འི་དགེ་བའི་རྩ་བ་	-13932
ཡང་དག་པར་གཟེངས་བ	-13933
སྤྱོད་པ་ལ་གནས་པ་	-13934
ax	-13935
ངུ	-13936
ཏྤ	-13937
▁ཀ	-13938
err	-13939
nem	-13940
oli	-13941
་པི	-13942
་ལྡ	-13943
ད་ཀ	-13944
རྙི	-13945
རྡེ	-13946
▁ཅེ	-13947
cled	-13948
legm	-13949
onse	-13950
pond	-13951
གཟུང	-13952
ཅུ་བ	-13953
ཆད་པ	-13954
ཉི་མ	-13955
ཕའི་	-13956
ཞི་་	-13957
འདིར	-13958
རོ་བ	-13959
རྔོ་	-13960
ས་སོ	-13961
ེ་བྲ	-13962
▁dut	-13963
▁fat	-13964
▁ive	-13965
▁leg	-13966
akuta	-13967
iated	-13968
lying	-13969
mbers	-13970
གཉིད་	-13971
གོ་བཤ	-13972
ནང་དུ	-13973
བ་ནས་	-13974
ཞགས་པ	-13975
འབྱོར	-13976
རབ་སྣ	-13977
ལགས་པ	-13978
ས་ལ་བ	-13979
སྤུན་	-13980
▁agre	-13981
▁cave	-13982
▁fest	-13983
▁gaze	-13984
▁gust	-13985
▁impl	-13986
▁mnem	-13987
▁pand	-13988
▁pier	-13989
▁resc	-13990
▁scho	-13991
▁wors	-13992
▁ནོར་	-13993
▁བདུད	-13994
asible	-13995
olence	-13996
udhara	-13997
་དབང་བ	-13998
ཀུན་ཏུ	-13999
གོ་བསྐ	-14000
ད་ཀྱི་	-14001
འདུ་འཛ	-14002
ཡང་ནི་	-14003
རྟགས་པ	-14004
ལེགས་་	-14005
སྟན་ཏེ	-14006
སྡུག་པ	-14007
ེད་དུ་	-14008
ོ་བོར་	-14009
▁accur	-14010
▁crest	-14011
▁dried	-14012
▁padma	-14013
▁pores	-14014
▁schol	-14015
▁shout	-14016
▁tired	-14017
▁waste	-14018
▁wield	-14019
▁ཕྱིར་	-14020
▁ལག་པ་	-14021
pective	-14022
respond	-14023
་དེས་ང་	-14024
་སྟོན་པ	-14025
ཀྲ་ཤིས་	-14026
གཉེར་བ་	-14027
གོང་དུ་	-14028
ངས་ཀྱང་	-14029
ཅུ་དྲུག	-14030
དུད་རྩི	-14031
ཕྱོགས་པ	-14032
ཞུམ་པར་	-14033
འགྲན་པ་	-14034
ལ་བབ་པ་	-14035
ལྡན་པ་་	-14036
ཤེས་སམ་	-14037
ས་དང་བཅ	-14038
སྨྲའོ་་	-14039
ོངས་རྒྱ	-14040
[...]
